'<pad>'
'<EOS>'
'<GO>'
'<OOV>'
'<DOC>'
'</DOC>'
'the_'
' ._'
'and_'
' , _'
'was_'
'clean_'
'a_'
'room_'
'in_'
'very_'
'to_'
'of_'
'is_'
'it_'
'rooms_'
'were_'
'but_'
'hotel_'
'with_'
'i_'
'are_'
'comfortable_'
'had_'
'on_'
'we_'
'not_'
'bathroom_'
'for_'
'well_'
'that_'
' - _'
'our_'
'as_'
'bed_'
'good_'
'my_'
'this_'
'there_'
'have_'
'all_'
'nice_'
'you_'
'at_'
'shower_'
't_'
' ( _'
'n_'
'spacious_'
'they_'
'no_'
'be_'
''_'
'modern_'
'so_'
'which_'
'from_'
'floor_'
'staff_'
'one_'
'did_'
' '_'
'been_'
'an_'
's_'
'everything_'
'dirty_'
'some_'
'large_'
'up_'
'beds_'
'small_'
'out_'
'great_'
'could_'
'tired_'
'would_'
'bit_'
'when_'
'need_'
'towels_'
'like_'
' !_'
'little_'
'quiet_'
'old_'
'just_'
'or_'
' ) _'
'carpet_'
'maintained_'
'stay_'
'also_'
'has_'
'dated_'
'spotless_'
'only_'
'size_'
'service_'
'new_'
' . _'
'cleaned_'
' / _'
'if_'
'really_'
'bath_'
'by_'
'stayed_'
'water_'
' " _'
'appointed_'
'night_'
'do_'
'friendly_'
'breakfast_'
'however_'
'day_'
'standard_'
'pool_'
'tidy_'
'place_'
'quite_'
'although_'
'smell_'
' & _'
'looked_'
'area_'
'over_'
'found_'
'view_'
'time_'
'two_'
'more_'
'get_'
'toilet_'
'other_'
'after_'
'needs_'
'even_'
'comfy_'
'first_'
'what_'
'needed_'
'amenities_'
'though_'
'worn_'
' ) ._'
'furniture_'
'spotlessly_'
'kept_'
'than_'
'excellent_'
'still_'
'2_'
'fresh_'
'door_'
'cleaning_'
'housekeeping_'
'decor_'
'lobby_'
'areas_'
'down_'
'coffee_'
'bathrooms_'
'me_'
'big_'
'tv_'
' ' _'
'about_'
'too_'
'here_'
'around_'
'lovely_'
'check_'
'always_'
'got_'
'enough_'
'itself_'
'can_'
'most_'
'facilities_'
' : _'
'much_'
'etc_'
'expect_'
'food_'
'left_'
'off_'
'bar_'
'quality_'
'work_'
'air_'
'toiletries_'
'its_'
'look_'
'property_'
'us_'
'your_'
'ok_'
'equipped_'
'use_'
'free_'
'again_'
' ; _'
'carpets_'
'stains_'
'nicely_'
'hair_'
'3_'
'pillows_'
'them_'
'decorated_'
'back_'
'while_'
'being_'
' ... _'
'better_'
'location_'
'looking_'
'sink_'
'hot_'
'helpful_'
'extremely_'
'hotels_'
'basic_'
'sheets_'
'nothing_'
'plenty_'
'into_'
'used_'
'immaculate_'
'stained_'
'pretty_'
'bedroom_'
'both_'
'side_'
'overall_'
'desk_'
'next_'
'tub_'
'updated_'
'made_'
'suite_'
'4_'
'their_'
'every_'
'walls_'
'decent_'
'space_'
'sleep_'
'wifi_'
'functional_'
'then_'
'long_'
'seemed_'
'any_'
'._'
'wall_'
'because_'
'many_'
'will_'
'high_'
'5_'
'nights_'
'tea_'
'before_'
'condition_'
'top_'
'never_'
'restaurant_'
'see_'
'few_'
'days_'
'feel_'
'paint_'
'reception_'
'where_'
'felt_'
'should_'
'cleanliness_'
'worked_'
'windows_'
'huge_'
'bad_'
'hilton_'
'lots_'
' ) , _'
'outside_'
'bedding_'
'fridge_'
'looks_'
'fine_'
'find_'
'does_'
'bright_'
'double_'
'went_'
'public_'
'super_'
'window_'
'filthy_'
'dust_'
'said_'
'beautiful_'
'arrived_'
'king_'
'given_'
'adequate_'
'ready_'
'put_'
'recently_'
'dark_'
'morning_'
'renovated_'
'people_'
'years_'
'furnishings_'
'smelled_'
'same_'
'efficient_'
'outdated_'
' ..._'
'rather_'
'working_'
'pleasant_'
'last_'
'neat_'
'furnished_'
'light_'
'whole_'
'’_'
'inn_'
'poor_'
'hallways_'
'especially_'
'make_'
'think_'
'during_'
'star_'
'fairly_'
'musty_'
'lot_'
'full_'
'noise_'
'building_'
'am_'
'1_'
'came_'
'updating_'
'broken_'
'gym_'
'properly_'
'renovation_'
'usual_'
'second_'
'things_'
'price_'
'inside_'
'table_'
'shabby_'
'say_'
'expected_'
'lounge_'
'sized_'
'linens_'
'changed_'
'airport_'
'safe_'
' ,_'
'under_'
'way_'
'standards_'
'replaced_'
'go_'
'front_'
'thing_'
'corridors_'
'previous_'
'checked_'
'- _'
'business_'
'linen_'
'warm_'
'another_'
'smoke_'
'having_'
'soap_'
'black_'
'done_'
'booked_'
'average_'
'maintenance_'
'cleaner_'
'provided_'
'each_'
'guest_'
'throughout_'
'best_'
'ever_'
'told_'
'open_'
'tiles_'
'run_'
'problem_'
'asked_'
'floors_'
'executive_'
'worst_'
'located_'
'older_'
'noticed_'
'ceiling_'
'once_'
'now_'
'damp_'
'how_'
'upgraded_'
'including_'
'age_'
'luxurious_'
'want_'
'took_'
' ’_'
' ?_'
' ., _'
'perfectly_'
'paper_'
'walk_'
'refurbished_'
'serviced_'
'mold_'
'someone_'
'job_'
'style_'
'curtains_'
'views_'
'marks_'
've_'
'reasonably_'
'least_'
'hallway_'
'something_'
'arrival_'
'rest_'
'pm_'
'daily_'
'doors_'
'who_'
'sure_'
'balcony_'
'towel_'
'hard_'
'white_'
'smoking_'
'disgusting_'
'main_'
'wear_'
'since_'
'seen_'
'extra_'
'guests_'
'd_'
'despite_'
'curtain_'
'wet_'
'making_'
'change_'
'times_'
'away_'
'shampoo_'
'plus_'
'cold_'
'stocked_'
'definitely_'
'through_'
'probably_'
'pressure_'
'getting_'
' -_'
'without_'
'upon_'
'thought_'
'generally_'
'everywhere_'
're_'
'chair_'
'such_'
'seems_'
'right_'
'hairs_'
'several_'
'mattress_'
'due_'
'issue_'
'bathtub_'
'three_'
'separate_'
'issues_'
'close_'
'non_'
'come_'
'level_'
'city_'
'upgrade_'
'refurbishment_'
'actually_'
'early_'
'common_'
'tiny_'
'going_'
' -- _'
'wash_'
'kitchen_'
'typical_'
'signs_'
'glass_'
'marriott_'
'club_'
'conditioning_'
'almost_'
'sofa_'
'until_'
'showing_'
'entire_'
'experience_'
'dusty_'
'cigarette_'
'resort_'
'general_'
'reasonable_'
'near_'
'badly_'
'presented_'
'internet_'
'slightly_'
'fixtures_'
'appeared_'
'10_'
'take_'
'screen_'
'value_'
'these_'
'brand_'
'except_'
'lighting_'
'flat_'
'either_'
'coming_'
'clearly_'
'immaculately_'
'roomy_'
'missing_'
'hours_'
'design_'
'date_'
'order_'
', _'
'keep_'
'couple_'
'wallpaper_'
'nt_'
'family_'
'attention_'
'soft_'
'peeling_'
'mini_'
'above_'
'part_'
'fantastic_'
'chairs_'
'corridor_'
'certainly_'
'grubby_'
'wonderful_'
'seem_'
'unfortunately_'
'mould_'
'absolutely_'
'obviously_'
'grounds_'
'end_'
'returned_'
'minutes_'
' )_'
'perfect_'
'fittings_'
'smelt_'
'head_'
'between_'
' $ _'
'places_'
' .. _'
'spa_'
'premier_'
'particularly_'
'ask_'
'know_'
'staying_'
'terrible_'
'tables_'
'let_'
'covered_'
' ...._'
'slept_'
'available_'
'why_'
'yes_'
'worse_'
'awful_'
'somewhat_'
'parking_'
'must_'
'm_'
'noisy_'
'dryer_'
'ca_'
'welcoming_'
'money_'
'twin_'
'queen_'
'may_'
'horrible_'
'park_'
'else_'
'choice_'
'otherwise_'
'dingy_'
'beautifully_'
'kind_'
'hand_'
'fact_'
'buffet_'
'elevator_'
' ! !_'
'late_'
'half_'
'dirt_'
'6_'
' .- _'
' ! _'
'closet_'
'single_'
'give_'
'whilst_'
'stylish_'
'relatively_'
'maybe_'
'convenient_'
'different_'
'later_'
'iron_'
'special_'
'shape_'
'glasses_'
'-_'
'far_'
'touch_'
'microwave_'
'drain_'
'changing_'
'stain_'
'london_'
'easy_'
'saw_'
'opened_'
'facility_'
'call_'
'tile_'
'paid_'
'keeping_'
'brown_'
'house_'
'bedrooms_'
'four_'
'set_'
'evening_'
'chipped_'
'yet_'
'she_'
'apartment_'
'strong_'
'cheap_'
'called_'
':_'
'flight_'
'wanted_'
'lack_'
'those_'
'pay_'
'less_'
'visit_'
'update_'
'thin_'
'empty_'
'maid_'
'fluffy_'
'feeling_'
'complimentary_'
'30_'
'lodge_'
'elevators_'
'corner_'
'ago_'
' .( _'
'newly_'
'along_'
'unit_'
'/_'
'short_'
'deep_'
'showers_'
'luxury_'
'exceptionally_'
'lift_'
'carpeting_'
'anything_'
'holiday_'
'apart_'
'turned_'
'pillow_'
' .._'
'repair_'
'grout_'
'tear_'
'mirror_'
'dry_'
'designed_'
'board_'
'andthe_'
'problems_'
'lights_'
'laundry_'
'access_'
'year_'
'laid_'
'starting_'
'stale_'
'clothes_'
'smelly_'
'requested_'
'offered_'
'quick_'
'included_'
'rate_'
'low_'
'behind_'
'simple_'
'moved_'
'might_'
'8_'
'hear_'
'week_'
'vacuumed_'
'swimming_'
'interior_'
'hall_'
'amazing_'
'beach_'
'reviews_'
'major_'
'fast_'
'expensive_'
'cover_'
'completely_'
'bottom_'
'others_'
'care_'
'point_'
'feels_'
'dining_'
'machine_'
'liked_'
'home_'
'trash_'
'ac_'
'turn_'
'refrigerator_'
'conditioner_'
'he_'
'westin_'
'past_'
'enjoyed_'
'odor_'
'finally_'
'cracked_'
'across_'
'wait_'
'show_'
'leave_'
'mildew_'
'items_'
'fan_'
' .... _'
'trip_'
'real_'
'own_'
'kids_'
'grand_'
'equipment_'
'edges_'
'c_'
'wood_'
'maker_'
'cups_'
'con_'
'body_'
'acceptable_'
'complaints_'
'already_'
'sticky_'
'gave_'
'crisp_'
'complaint_'
'stuff_'
'smaller_'
'pools_'
'okay_'
'impression_'
'phone_'
'wi_'
'restaurants_'
'priced_'
'disappointed_'
'accommodation_'
'soon_'
'ground_'
'taken_'
'perhaps_'
'per_'
'hour_'
'fi_'
'marble_'
'loved_'
'fully_'
'center_'
'surprised_'
'quickly_'
'tatty_'
'person_'
'kettle_'
'her_'
'corners_'
'class_'
'type_'
'sitting_'
'gross_'
'car_'
'ample_'
'airy_'
' £ _'
'plastic_'
'number_'
'dinner_'
'cool_'
'removed_'
'offer_'
'deluxe_'
'wife_'
'wardrobe_'
'walked_'
'suites_'
'serious_'
'move_'
'7_'
'request_'
'fitness_'
'elegant_'
'recommend_'
'products_'
'motel_'
'comfort_'
'bedside_'
'( _'
'sheet_'
'busy_'
'walking_'
'temperature_'
'steam_'
'hanging_'
'fancy_'
'chain_'
'able_'
'welcome_'
'return_'
'impressed_'
'tried_'
'totally_'
'refurb_'
'poorly_'
'newer_'
'showed_'
'sheraton_'
'lifts_'
'larger_'
'exactly_'
'channels_'
'thick_'
'state_'
'hyatt_'
'works_'
'nasty_'
'inviting_'
'dead_'
'complete_'
'case_'
'allocated_'
'. _'
'try_'
'spent_'
'overlooking_'
'normal_'
'cozy_'
'makeover_'
'compared_'
'barely_'
'within_'
'twice_'
'slippers_'
'seat_'
'plug_'
'nicer_'
'luggage_'
'living_'
'key_'
'help_'
'counter_'
'cleanthe_'
'charge_'
'ironing_'
'duvet_'
'detail_'
'bags_'
'uncomfortable_'
'start_'
'refresh_'
'nyc_'
'third_'
'strange_'
'love_'
'tlc_'
'storage_'
'simply_'
'running_'
'replacing_'
'ours_'
'obvious_'
'moldy_'
'holes_'
'conference_'
'bugs_'
'bottles_'
'smells_'
'lit_'
'below_'
'attentive_'
'street_'
'smelling_'
'minor_'
'member_'
'hampton_'
'flush_'
'station_'
'professional_'
'minibar_'
'management_'
'instead_'
'notice_'
'gel_'
'facing_'
' – _'
'tower_'
'immediately_'
'central_'
'using_'
'sauna_'
'often_'
'mine_'
'massive_'
'hairdryer_'
'drinks_'
'20_'
'gone_'
'appear_'
'smart_'
'points_'
'plush_'
'odd_'
'fixed_'
'bottle_'
'afternoon_'
'15_'
'superior_'
'rubbish_'
'entering_'
'entered_'
'e_'
'drink_'
'cramped_'
'complain_'
'selection_'
'river_'
'required_'
'received_'
'indeed_'
'five_'
'clear_'
'threadbare_'
'parts_'
'heating_'
'décor_'
'sea_'
'replacement_'
'course_'
'contemporary_'
'bits_'
'sound_'
'slow_'
'prices_'
'overnight_'
'entrance_'
'closed_'
'checking_'
'tell_'
'remodeled_'
'recent_'
'fault_'
'tastefully_'
'sign_'
'll_'
'fit_'
'example_'
'cons_'
'bigger_'
'reason_'
'provide_'
'power_'
'layout_'
'face_'
'toilets_'
'sit_'
'makes_'
'limited_'
'feet_'
'cabin_'
'appears_'
'9_'
'blood_'
'wrong_'
'torn_'
'ones_'
'loud_'
'replenished_'
'placed_'
'important_'
'decided_'
'site_'
'attractive_'
'taking_'
'smallest_'
'middle_'
'couch_'
'compact_'
'book_'
' " ._'
'vanity_'
'started_'
'sleeping_'
'round_'
'outlets_'
'mentioned_'
'2nd_'
'washing_'
'spots_'
'line_'
'impeccably_'
'decoration_'
'deal_'
'concierge_'
'roomthe_'
'meeting_'
'incredibly_'
'impressive_'
'halls_'
'discovered_'
'control_'
'leaving_'
'centre_'
'basin_'
'00_'
'unpleasant_'
'tray_'
'surfaces_'
'note_'
'managed_'
'lower_'
'higher_'
'guess_'
'aircon_'
'visible_'
'polite_'
'novotel_'
'beyond_'
'system_'
'robes_'
'replace_'
'regular_'
'meal_'
'lacking_'
'fashioned_'
'fair_'
'ended_'
'disney_'
'card_'
'waiting_'
'stuck_'
'sort_'
'red_'
'none_'
'mess_'
'meant_'
'jacuzzi_'
'easily_'
'appearance_'
'powerful_'
'myself_'
'fitted_'
'12_'
'spaces_'
'scuffed_'
'pictures_'
'offers_'
'loose_'
'lamp_'
'happy_'
'group_'
'falling_'
'desperate_'
'believe_'
'roll_'
'picture_'
'cost_'
'bring_'
'anywhere_'
'upgrading_'
'unless_'
'terms_'
'green_'
'booking_'
'wing_'
'mostly_'
'fruit_'
'thorough_'
'taps_'
'mouldy_'
'dishes_'
'budget_'
'albeit_'
'touches_'
'stars_'
'spend_'
'shows_'
'particular_'
'overlooked_'
'negative_'
'eat_'
'downside_'
'damaged_'
'appreciated_'
'amount_'
'11_'
' ! ! !_'
'world_'
'weekend_'
'stand_'
'sparkling_'
'frayed_'
'superb_'
'stank_'
'scratched_'
'met_'
'bin_'
'biggest_'
'washed_'
'usually_'
'total_'
'services_'
'onto_'
'notch_'
'means_'
'mat_'
'expectations_'
'bag_'
'vacuum_'
'trying_'
'surprisingly_'
'rust_'
'pristine_'
'please_'
'noted_'
'heated_'
'children_'
'bare_'
'apparently_'
'renovations_'
'relaxing_'
'range_'
'painted_'
'options_'
'heard_'
'crumbs_'
'complained_'
'/ _'
'worth_'
'villa_'
'similar_'
'ocean_'
'heat_'
'dried_'
'customer_'
'considering_'
'attached_'
'5th_'
'wooden_'
'sadly_'
'roof_'
'refreshed_'
'plumbing_'
'oh_'
'mean_'
'improvement_'
'husband_'
'dire_'
'covers_'
'cosy_'
'vent_'
'supplied_'
'nearly_'
'everyday_'
'built_'
'box_'
'addition_'
'3rd_'
'wine_'
'surprise_'
'seating_'
'road_'
'improved_'
'ice_'
'grouting_'
'garbage_'
'filled_'
'wish_'
'variety_'
'shuttle_'
'menu_'
'leaking_'
'gets_'
'exterior_'
'everyone_'
'drawers_'
'drawer_'
'disappointing_'
'cleaners_'
'basically_'
'24_'
'properties_'
'positive_'
'longer_'
'gorgeous_'
'garden_'
'eventually_'
'4th_'
'travel_'
'served_'
'plain_'
'outstanding_'
'mention_'
'machines_'
'heavenly_'
'hardly_'
'art_'
'spray_'
'plugs_'
'pleasantly_'
'fabulous_'
'classy_'
'understand_'
'together_'
'tap_'
'plates_'
'photos_'
'his_'
'unclean_'
'stop_'
'relax_'
'lotion_'
'leaked_'
'expecting_'
'emptied_'
'drab_'
'doing_'
'bathrobes_'
'base_'
'avoid_'
'7th_'
'television_'
'review_'
'prior_'
'pleased_'
'nor_'
'firm_'
'enjoy_'
'desired_'
' ....._'
'wo_'
'tissue_'
'themselves_'
'self_'
'outdoor_'
'original_'
'necessary_'
'european_'
'disappointment_'
'courteous_'
'charm_'
'york_'
'switch_'
'stairs_'
'spot_'
'shop_'
'mid_'
'foyer_'
'difficult_'
'cubicle_'
'communal_'
'blanket_'
'6th_'
'straight_'
'slight_'
'read_'
'mind_'
'marked_'
'cupboard_'
'bug_'
'ants_'
'(_'
' “ _'
'wiped_'
'website_'
'supplies_'
'rail_'
'pulled_'
'overly_'
'months_'
'holder_'
'features_'
'dressing_'
'courtyard_'
'anyway_'
'50_'
'weird_'
'visited_'
'tissues_'
'reviewers_'
'remote_'
'proper_'
'ordered_'
'option_'
'neither_'
'multiple_'
'hit_'
'exceptional_'
'casino_'
'block_'
'thoroughly_'
'sometimes_'
'previously_'
'leak_'
'kitchenette_'
'importantly_'
'fun_'
'frills_'
'extras_'
'downstairs_'
'constantly_'
'cleanest_'
'character_'
'centrally_'
'bleach_'
'adequately_'
'shelf_'
'rug_'
'reported_'
'rating_'
'housekeeper_'
'hole_'
'details_'
'desperately_'
'daughter_'
'cloth_'
'add_'
' ! ) ._'
'wide_'
'sun_'
'soaps_'
'ripped_'
'plentiful_'
'opinion_'
'milk_'
'literally_'
'entry_'
'crowded_'
'comforter_'
'comes_'
'cared_'
'assigned_'
'arriving_'
' * _'
'urine_'
'town_'
'theme_'
'members_'
'construction_'
'classic_'
'brought_'
'sufficient_'
'somewhere_'
'shut_'
'saying_'
'satisfactory_'
'possible_'
'piece_'
'paying_'
'needing_'
'matter_'
'lamps_'
'experienced_'
'exception_'
'added_'
'accommodating_'
'1st_'
' ” _'
' .* _'
'waste_'
'tight_'
'store_'
'rusty_'
'rain_'
'nearby_'
'lacked_'
'friends_'
'forgot_'
'fix_'
'elsewhere_'
'cobwebs_'
'ceilings_'
'atmosphere_'
'tad_'
'sinks_'
'name_'
'heavy_'
'greeted_'
'gold_'
'facelift_'
'depressing_'
'clogged_'
'anyone_'
' + _'
'underneath_'
'stopped_'
'snacks_'
'smallish_'
'rundown_'
'remained_'
'party_'
'paintwork_'
'minute_'
'mattresses_'
'maids_'
'indoor_'
'faded_'
'evident_'
'enter_'
'debris_'
'choose_'
'break_'
'bins_'
'upkeep_'
'surface_'
'stays_'
'overdue_'
'english_'
'confortable_'
' : - _'
' ! )_'
'vacuuming_'
'urgent_'
'ultra_'
'terminal_'
'supply_'
'shopping_'
'rugs_'
'redone_'
'further_'
'furnishing_'
'express_'
'equiped_'
'drains_'
'dispenser_'
'convention_'
'cigarettes_'
'charged_'
'bonus_'
'against_'
'adults_'
'100_'
'upper_'
'upgrades_'
'step_'
'seriously_'
'sat_'
'remember_'
'putting_'
'par_'
'occupant_'
'heater_'
'handle_'
'finished_'
'evidence_'
'choices_'
'asking_'
'supposed_'
'spectacular_'
'security_'
'scuff_'
'scratches_'
'returning_'
'picked_'
'photo_'
'overhaul_'
'odour_'
'messy_'
'lumpy_'
'lick_'
'flooded_'
'ensuite_'
'damage_'
'cut_'
'cup_'
'cracks_'
'contained_'
'certain_'
'beat_'
'aged_'
' . )_'
'vents_'
'unlike_'
'taste_'
'standing_'
'spread_'
'shame_'
'sent_'
'remove_'
'possibly_'
'manager_'
'lock_'
'hope_'
'highly_'
'dresser_'
'coat_'
'cabins_'
'buildings_'
'bottled_'
'bother_'
'wonder_'
'wipe_'
'ugly_'
'travelling_'
'refurbishing_'
'reeked_'
'painting_'
'inns_'
'headboard_'
'hang_'
'functioning_'
'freshly_'
'following_'
'cutlery_'
'bowl_'
'beginning_'
'yellow_'
'trays_'
'traffic_'
'scruffy_'
'revamp_'
'pieces_'
'patio_'
'narrow_'
'idea_'
'grime_'
'grey_'
'dropped_'
'distance_'
'chocolate_'
'chips_'
'awesome_'
'allowed_'
'accommodations_'
' ’ _'
' ." _'
'west_'
'ventilation_'
'upholstery_'
'train_'
'tour_'
'son_'
'socks_'
'happened_'
'frankly_'
'fire_'
'downtown_'
'dishwasher_'
'credit_'
'color_'
'aside_'
'apartments_'
'alarm_'
' :_'
'w_'
'spare_'
'reservation_'
'refreshing_'
'ran_'
'north_'
'negatives_'
'makeup_'
'inspection_'
'impeccable_'
'friend_'
'encountered_'
'b_'
'woke_'
'weeks_'
'sprayed_'
'shampoos_'
'platinum_'
'occupants_'
'mirrors_'
'lunch_'
'leaves_'
'layer_'
'international_'
'ibis_'
'goes_'
'foot_'
'butthe_'
'basics_'
'accessible_'
' ..... _'
'upscale_'
'thankfully_'
'tasteful_'
'studio_'
'robe_'
'result_'
'purpose_'
'lines_'
'life_'
'junior_'
'imagine_'
'g_'
'faucet_'
'bland_'
'bay_'
'bathrobe_'
'ages_'
'v_'
'strongly_'
'square_'
'smooth_'
'shown_'
'shoes_'
'regularly_'
'pull_'
'prepared_'
'occasions_'
'mins_'
'lake_'
'keys_'
'hate_'
'funky_'
'edge_'
'cotton_'
'consider_'
'cloths_'
'closer_'
'bothered_'
'appreciate_'
' " , _'
'undergoing_'
'tvs_'
'terribly_'
'sleek_'
'skirting_'
'secure_'
'sad_'
'rough_'
'reach_'
'rates_'
'pros_'
'pile_'
'pick_'
'organized_'
'opening_'
'nowhere_'
'noticeable_'
'net_'
'interesting_'
'honest_'
'fell_'
'electrical_'
'dull_'
'dispensers_'
'difference_'
'described_'
'cooked_'
'connecting_'
'become_'
'bars_'
'annoying_'
'american_'
'45_'
'workout_'
'various_'
'updates_'
'tiled_'
'stall_'
'soiled_'
'sliding_'
'shocked_'
'shared_'
'sewage_'
'provides_'
'pet_'
'missed_'
'miss_'
'lost_'
'loo_'
'live_'
'liquid_'
'hung_'
'generous_'
'gardens_'
'freezing_'
'finding_'
'en_'
'delivered_'
'connection_'
'christmas_'
'cases_'
'blankets_'
'based_'
'atrium_'
'* _'
'write_'
'units_'
'trendy_'
'stated_'
'solid_'
'radisson_'
'promptly_'
'process_'
'premium_'
'personal_'
'offering_'
'numerous_'
'mark_'
'lying_'
'list_'
'leisure_'
'lay_'
'knew_'
'giving_'
'gives_'
'flowers_'
'europe_'
'equally_'
'earlier_'
'drapes_'
'conveniently_'
'aging_'
' % _'
'western_'
'uk_'
'staffed_'
'sockets_'
'section_'
'ritz_'
'positives_'
'happen_'
'hands_'
'colour_'
'blue_'
'agree_'
'8th_'
'25_'
'wireless_'
'truly_'
'tip_'
'till_'
'therefore_'
'suggest_'
'sofitel_'
'singapore_'
'shelves_'
'require_'
'repaired_'
'rack_'
'pot_'
'overpriced_'
'orange_'
'music_'
'mod_'
'ideal_'
'honestly_'
'growing_'
'clock_'
'checkin_'
'blinds_'
'baby_'
'adjoining_'
'80_'
'whether_'
'towards_'
'throw_'
'stunning_'
'servicing_'
'saturday_'
'runway_'
'repairs_'
'privacy_'
'present_'
'prefer_'
'meet_'
'lady_'
'handy_'
'flooring_'
'electric_'
'dog_'
'disturb_'
'comment_'
'brilliant_'
'ate_'
'watch_'
'upstairs_'
'talking_'
'stuffy_'
'sorry_'
'situated_'
'safety_'
'realized_'
'plaza_'
'moment_'
'impossible_'
'highest_'
'held_'
'flushed_'
'enormous_'
'cleared_'
'cabinet_'
'boards_'
'biscuits_'
'bedspread_'
'amazingly_'
'adjacent_'
' ? _'
'traveling_'
'team_'
'takes_'
'sparse_'
'serviceable_'
'preferred_'
'plate_'
'normally_'
'nevertheless_'
'metal_'
'man_'
'luckily_'
'japanese_'
'insects_'
'heavily_'
'grotty_'
'granite_'
'forward_'
'eating_'
'dusted_'
'directly_'
'brush_'
'benefit_'
'banging_'
'alone_'
'actual_'
'90_'
'60_'
'young_'
'turndown_'
'traveler_'
'toothpaste_'
'terrace_'
'shiny_'
'seeing_'
'sand_'
'restroom_'
'private_'
'pre_'
'patches_'
'occasion_'
'moving_'
'meticulously_'
'locked_'
'knocked_'
'gift_'
'fortunately_'
'finish_'
'describe_'
'decorations_'
'complex_'
'build_'
'10th_'
' … _'
' , ( _'
' (_'
'washroom_'
'wake_'
'unacceptable_'
'tube_'
'traveller_'
'thermostat_'
'switches_'
'surrounding_'
'seats_'
'scrub_'
'receptionist_'
'pricey_'
'maintain_'
'locker_'
'local_'
'ladies_'
'health_'
'feather_'
'failed_'
'efficiently_'
'effective_'
'company_'
'cockroach_'
'chic_'
'besides_'
'arranged_'
'ambience_'
'200_'
'wow_'
'woken_'
'waited_'
'untidy_'
'thrown_'
'taxi_'
'sunday_'
'spilled_'
'practical_'
'polished_'
'panel_'
'package_'
'nail_'
'mainly_'
'loads_'
'intercontinental_'
'include_'
'inch_'
'impressions_'
'function_'
'fourth_'
'firstly_'
'eye_'
'cruise_'
'crockery_'
'constant_'
'colleagues_'
'charging_'
'caulking_'
'arrive_'
'advance_'
'12th_'
' ;_'
' ' ._'
'washer_'
'travelodge_'
'toothbrush_'
'sydney_'
'swim_'
'suspect_'
'status_'
'spring_'
'specifically_'
'shaving_'
'seperate_'
'remodeling_'
'reading_'
'pubic_'
'presentable_'
'plaster_'
'office_'
'o_'
'men_'
'match_'
'manchester_'
'lucky_'
'leading_'
'lcd_'
'historic_'
'freshener_'
'environment_'
'effort_'
'delicious_'
'current_'
'cupboards_'
'crew_'
'convenience_'
'conditioned_'
'concern_'
'chose_'
'calls_'
'bulbs_'
'bulb_'
'beside_'
'became_'
'attended_'
'additional_'
' ‘ _'
' , & _'
'visiting_'
'u_'
'true_'
'today_'
'tape_'
'suitcases_'
'stench_'
'starbucks_'
'speed_'
'south_'
'socket_'
'sides_'
'remodel_'
'parks_'
'ny_'
'neglected_'
'medium_'
'ie_'
'hi_'
'helped_'
'grimy_'
'embassy_'
'eggs_'
'disgrace_'
'crack_'
'comfortably_'
'cap_'
'blocked_'
'advertised_'
' ) - _'
'wonderfully_'
'thus_'
'surely_'
'spending_'
'save_'
'radiator_'
'ordinary_'
'opposite_'
'nightstand_'
'inches_'
'improve_'
'humid_'
'hold_'
'hangers_'
'handles_'
'faced_'
'establishment_'
'enjoyable_'
'employees_'
'drive_'
'diamond_'
'customers_'
'controls_'
'comments_'
'cafe_'
'butts_'
'balconies_'
'appealing_'
'affordable_'
'word_'
'via_'
'utensils_'
'tattered_'
'tacky_'
'switched_'
'showering_'
'scrupulously_'
'rubber_'
'reminded_'
'pleasure_'
'patch_'
'national_'
'minimal_'
'ledge_'
'la_'
'initially_'
'informed_'
'humidity_'
'him_'
'frame_'
'fitting_'
'fill_'
'families_'
'exercise_'
'exec_'
'east_'
'dripping_'
'deck_'
'covering_'
'corporate_'
'comfortablethe_'
'carpeted_'
'bus_'
'apple_'
' ? ?_'
'yourself_'
'weather_'
'unique_'
'treat_'
'toiletry_'
'tasty_'
'suitable_'
'squeaky_'
'spg_'
'soaked_'
'smile_'
'sick_'
'share_'
'sense_'
'scuffs_'
'rid_'
'redecoration_'
'quilt_'
'nonetheless_'
'nespresso_'
'natural_'
'minimum_'
'minimalist_'
'meaning_'
'meals_'
'interiors_'
'greasy_'
'foam_'
'flying_'
'fee_'
'excuse_'
'drinking_'
'doubt_'
'dish_'
'currently_'
'costs_'
'checkout_'
'charming_'
'category_'
'bucket_'
'bread_'
'beer_'
'basis_'
'attempt_'
'ancient_'
' ! ) _'
'visits_'
'surroundings_'
'summer_'
'stepped_'
'somehow_'
'soaking_'
'slippery_'
'shirt_'
'setting_'
'sealant_'
'ring_'
'restrooms_'
'resorts_'
'reserved_'
'realised_'
'period_'
'occupied_'
'nobody_'
'nicest_'
'lacks_'
'kong_'
'hong_'
'essentials_'
'dusting_'
'disabled_'
'deco_'
'decently_'
'connected_'
'computer_'
'chocolates_'
'changes_'
'beige_'
'bedthe_'
'aspects_'
'40_'
'whatever_'
'valet_'
'tidied_'
'thanks_'
'thank_'
'suppose_'
'suitcase_'
'stunk_'
'speak_'
'spartan_'
'significant_'
'sharp_'
'send_'
'school_'
'residue_'
'reliable_'
'queue_'
'providing_'
'paris_'
'packed_'
'pack_'
'p_'
'oven_'
'month_'
'min_'
'lid_'
'hygienic_'
'gripe_'
'gloomy_'
'featured_'
'feature_'
'fabric_'
'fab_'
'era_'
'drained_'
'discover_'
'departure_'
'consistent_'
'colleague_'
'child_'
'caused_'
'cable_'
'cabinets_'
'aware_'
'appliances_'
'amenity_'
'accommodate_'
'80s_'
'14th_'
'&_'
'woodwork_'
'wedding_'
'wc_'
'ways_'
'washcloths_'
'vegas_'
'typically_'
'trim_'
'supposedly_'
'suited_'
'sorted_'
'scum_'
'rolls_'
'renovating_'
'removing_'
'promised_'
'prints_'
'policy_'
'pipes_'
'pipe_'
'pair_'
'length_'
'knows_'
'japan_'
'hygiene_'
'hospitality_'
'frequently_'
'fireplace_'
'filter_'
'falls_'
'extractor_'
'dreary_'
'crawling_'
'condo_'
'concrete_'
'basement_'
'9th_'
'70_'
'1980_'
'16th_'
' .-_'
' --_'
'vacation_'
'useful_'
'unmade_'
'themed_'
'temp_'
'swept_'
'strip_'
'slowly_'
'shades_'
'rooftop_'
'rim_'
'restocked_'
'personally_'
'overflowing_'
'mouse_'
'likely_'
'levels_'
'leather_'
'lax_'
'juice_'
'jaded_'
'initial_'
'incredible_'
'improvements_'
'ill_'
'gum_'
'frig_'
'forget_'
'folded_'
'flaking_'
'finger_'
'dump_'
'dreadful_'
'decorating_'
'cushions_'
'crowne_'
'cosmetic_'
'consistently_'
'complaining_'
'combo_'
'colors_'
'clothing_'
'chlorine_'
'chemical_'
'buy_'
'burn_'
'baths_'
'armchair_'
'30pm_'
'1970s_'
'14_'
'vibe_'
'trouble_'
'training_'
'story_'
'speaking_'
'six_'
'shops_'
'serve_'
'rotten_'
'regarding_'
'realize_'
'position_'
'perfume_'
'outlet_'
'ourselves_'
'news_'
'mistake_'
'midnight_'
'led_'
'ish_'
'hiltons_'
'glad_'
'form_'
'fans_'
'ends_'
'drop_'
'doubletree_'
'distinct_'
'degrees_'
'dank_'
'dampness_'
'comparison_'
'combination_'
'chicago_'
'cheerful_'
'chance_'
'blow_'
'bench_'
'bedsheets_'
'aspect_'
'apparent_'
'allow_'
'accomodation_'
'21st_'
' # _'
'whenever_'
'urgently_'
'unusual_'
'unable_'
'types_'
'travellers_'
'tops_'
'topped_'
'tokyo_'
'thinking_'
'styling_'
'steps_'
'starwood_'
'spider_'
'smoked_'
'sight_'
'shade_'
'season_'
'screaming_'
'scent_'
'says_'
'satisfied_'
'rustic_'
'restful_'
'report_'
'question_'
'pushed_'
'product_'
'positioned_'
'pokey_'
'partially_'
'partial_'
'organised_'
'online_'
'noon_'
'mugs_'
'mixed_'
'manner_'
'l_'
'honors_'
'hd_'
'grim_'
'grade_'
'gotten_'
'frames_'
'faulty_'
'dryers_'
'doubles_'
'cute_'
'cookies_'
'commented_'
'cheaper_'
'careful_'
'burned_'
'broke_'
'breakfasts_'
'boxes_'
'attractions_'
'assume_'
'architecture_'
'ammenities_'
'70s_'
'1970_'
' ! ) , _'
'wise_'
'weak_'
'travelers_'
'traditional_'
'threw_'
'terrific_'
'stopover_'
'st_'
'spiders_'
'sofas_'
'sloppy_'
'sewer_'
'secondly_'
'scratch_'
'sanitary_'
'rollaway_'
'requires_'
'presumably_'
'press_'
'pink_'
'partner_'
'oddly_'
'mercure_'
'mediocre_'
'lipstick_'
'laying_'
'known_'
'kit_'
'instance_'
'information_'
'housekeepers_'
'hopefully_'
'hide_'
'guys_'
'funny_'
'french_'
'foul_'
'fold_'
'final_'
'factor_'
'extensive_'
'ensure_'
'criticism_'
'concerned_'
'charges_'
'century_'
'catering_'
'carts_'
'brighter_'
'boutique_'
'bedded_'
'bear_'
'baseboards_'
'advised_'
'accessories_'
'18th_'
'11th_'
')_'
' …_'
' ) ; _'
'women_'
'winter_'
'wanting_'
'unsightly_'
'turning_'
'trained_'
'touched_'
'thread_'
'suit_'
'structure_'
'spotted_'
'soundproofing_'
'soundproof_'
'similarly_'
'silent_'
'shoe_'
'seal_'
'remains_'
'rear_'
'purple_'
'noises_'
'modernized_'
'materials_'
'manage_'
'lounges_'
'littered_'
'litter_'
'lets_'
'legs_'
'leaky_'
'largest_'
'jw_'
'human_'
'hotelthe_'
'hoovered_'
'guy_'
'glazing_'
'garage_'
'freshening_'
'freshen_'
'flushing_'
'finishes_'
'fashion_'
'expectation_'
'entertainment_'
'egg_'
'duvets_'
'dim_'
'decorative_'
'decades_'
'correct_'
'cooking_'
'cookie_'
'considered_'
'conditions_'
'completed_'
'combined_'
'colours_'
'broom_'
'blocks_'
'began_'
'battered_'
'bangkok_'
'appropriate_'
'andwe_'
'additionally_'
'18_'
' ? ) _'
' --- _'
'zero_'
'yuck_'
'writing_'
'visitors_'
'villas_'
'venue_'
'valley_'
'trips_'
'treated_'
'tiling_'
'sufficiently_'
'substance_'
'sub_'
'stray_'
'stinky_'
'staircase_'
'spoke_'
'sky_'
'showered_'
'roomsthe_'
'rock_'
'remain_'
'relaxed_'
'recommended_'
'proximity_'
'proof_'
'prompt_'
'premises_'
'plan_'
'pizza_'
'personnel_'
'opted_'
'musky_'
'minus_'
'meetings_'
'matters_'
'mats_'
'lighted_'
'jet_'
'investment_'
'ikea_'
'horrified_'
'horribly_'
'harbour_'
'grease_'
'giant_'
'gap_'
'friday_'
'fly_'
'faint_'
'external_'
'event_'
'eaten_'
'dressed_'
'disaster_'
'country_'
'cheese_'
'cause_'
'carlton_'
'cans_'
'caked_'
'button_'
'burns_'
'bites_'
'basket_'
'bacon_'
'asian_'
'anymore_'
'andi_'
'300_'
'20th_'
'13_'
',_'
'" _'
' ? )_'
' ! ! ! !_'
'words_'
'wipes_'
'whatsoever_'
'user_'
'triple_'
'tons_'
'ten_'
'tall_'
'suffered_'
'stood_'
'sterile_'
'spills_'
'span_'
'sounded_'
'setup_'
'settled_'
'reviewer_'
'requesting_'
'regency_'
'receive_'
'pub_'
'pointed_'
'plugged_'
'pleasing_'
'passed_'
'parents_'
'needless_'
'necessities_'
'mounted_'
'mix_'
'melbourne_'
'market_'
'lotions_'
'lived_'
'killed_'
'keeps_'
'inadequate_'
'hvac_'
'horrid_'
'hooks_'
'history_'
'heart_'
'heads_'
'headed_'
'grungy_'
'groups_'
'glance_'
'functioned_'
'forever_'
'flatscreen_'
'fish_'
'fifth_'
'fare_'
'fall_'
'eyes_'
'exposed_'
'eg_'
'duty_'
'drainage_'
'disturbed_'
'counters_'
'cot_'
'continental_'
'complementary_'
'cleanour_'
'cleanbut_'
'burnt_'
'bridge_'
'boring_'
'attendant_'
'andit_'
'ambiance_'
'accept_'
'90s_'
'-- _'
' , " _'
'unpacked_'
'trouser_'
'trees_'
'towers_'
'tiredthe_'
'telephone_'
'sweet_'
'sweat_'
'surprising_'
'stuffed_'
'struggled_'
'sticking_'
'stepping_'
'starts_'
'sports_'
'situation_'
'shoddy_'
'shaped_'
'sets_'
'seated_'
'scrubbing_'
'scale_'
'rude_'
'refused_'
'reflect_'
'refilled_'
'redecorated_'
'rated_'
'rang_'
'quirky_'
'planned_'
'pass_'
'pain_'
'pad_'
'numbers_'
'nightmare_'
'movie_'
'mornings_'
'master_'
'manhattan_'
'mac_'
'loungers_'
'lint_'
'lingering_'
'leaks_'
'laptop_'
'knocking_'
'kinda_'
'item_'
'insulation_'
'insulated_'
'inexpensive_'
'horrendous_'
'hidden_'
'harbor_'
'ft_'
'figure_'
'euro_'
'disgustingly_'
'dealt_'
'de_'
'conrad_'
'closing_'
'chipping_'
'brick_'
'blackout_'
'beware_'
'bathroomthe_'
'arrangement_'
'appalling_'
'androoms_'
'allowing_'
'aircraft_'
'16_'
'00pm_'
' .: _'
' ...... _'
'wondering_'
'willing_'
'washcloth_'
'waiter_'
'visibly_'
'virtually_'
'useless_'
'unappealing_'
'travelled_'
'tourists_'
'tho_'
'tend_'
'technology_'
'talk_'
'stripped_'
'sometime_'
'somebody_'
'sock_'
'soak_'
'slick_'
'sleeper_'
'silver_'
'sill_'
'signal_'
'serves_'
'royal_'
'roombut_'
'requests_'
'potential_'
'post_'
'planes_'
'persons_'
'overhead_'
'odors_'
'movies_'
'molding_'
'modernisation_'
'miles_'
'mile_'
'meets_'
'mall_'
'lockers_'
'likewise_'
'joke_'
'invest_'
'internal_'
'impersonal_'
'ihg_'
'hoover_'
'grill_'
'girl_'
'gas_'
'former_'
'folks_'
'flies_'
'finishing_'
'filth_'
'exploring_'
'elements_'
'electronics_'
'disinfectant_'
'crazy_'
'cracking_'
'correctly_'
'contact_'
'coach_'
'climate_'
'china_'
'chemicals_'
'catch_'
'castle_'
'canyon_'
'calm_'
'bell_'
'bedsthe_'
'becoming_'
'balls_'
'awkward_'
'assured_'
'armchairs_'
'arm_'
'alot_'
'ahead_'
'admit_'
'500_'
'35_'
'yucky_'
'wrappers_'
'workers_'
'wondered_'
'whoever_'
'welcomed_'
'washbasin_'
'varied_'
'usb_'
'uneven_'
'un_'
'th_'
'tasted_'
'sprucing_'
'spruce_'
'specious_'
'slip_'
'sharing_'
'seasons_'
'scratchy_'
'scattered_'
'san_'
'roomand_'
'ridiculous_'
'responsive_'
'resolved_'
'requirements_'
'renaissance_'
'questionable_'
'program_'
'prison_'
'posted_'
'popcorn_'
'pop_'
'play_'
'physical_'
'peaceful_'
'panels_'
'mopped_'
'mop_'
'modernised_'
'mobile_'
'lodges_'
'layers_'
'knock_'
'kingsize_'
'july_'
'itthe_'
'installed_'
'industrial_'
'hideous_'
'greatly_'
'grab_'
'gels_'
'game_'
'fruits_'
'freshened_'
'flow_'
'flip_'
'film_'
'electronic_'
'dilapidated_'
'devices_'
'dangerous_'
'courtesy_'
'continued_'
'considerable_'
'comforts_'
'colonial_'
'closets_'
'cleanit_'
'cleanand_'
'chicken_'
'cards_'
'camp_'
'breeze_'
'bought_'
'boston_'
'blowing_'
'birthday_'
'avoided_'
'august_'
'attractively_'
'among_'
'airconditioning_'
'agreed_'
'advantage_'
'30am_'
'1980s_'
'17th_'
'15th_'
' –_'
' /_'
'weights_'
'webs_'
'wearing_'
'warmer_'
'wants_'
'voucher_'
'vinyl_'
'usage_'
'unkept_'
'uncleaned_'
'tobacco_'
'subway_'
'stone_'
'stinks_'
'stands_'
'smokers_'
'singles_'
'shampooed_'
'scented_'
'reservations_'
'reasons_'
'rare_'
'quietthe_'
'queens_'
'picky_'
'phones_'
'pen_'
'peak_'
'partly_'
'originally_'
'orderly_'
'nose_'
'neighbors_'
'neatly_'
'metro_'
'mask_'
'march_'
'locations_'
'liking_'
'lavish_'
'landing_'
'indicated_'
'imac_'
'historical_'
'hence_'
'hell_'
'heathrow_'
'gowns_'
'generic_'
'games_'
'future_'
'furbished_'
'forgotten_'
'fluff_'
'fixing_'
'figured_'
'faucets_'
'fallen_'
'extended_'
'explained_'
'evenings_'
'entirely_'
'elegantly_'
'effect_'
'dumped_'
'driving_'
'draining_'
'disappoint_'
'dimly_'
'detergent_'
'declined_'
'cutting_'
'countertop_'
'count_'
'clerk_'
'cleanrooms_'
'challenge_'
'chalet_'
'carry_'
'carefully_'
'brass_'
'blind_'
'bill_'
'ball_'
'awake_'
'asia_'
'ageing_'
'activities_'
'19th_'
'150_'
' ? ) ._'
'whistle_'
'web_'
'warning_'
'warn_'
'waldorf_'
'vomit_'
'vey_'
'veneer_'
'tourist_'
'toe_'
'tiniest_'
'swift_'
'superbly_'
'strangely_'
'stopper_'
'stink_'
'stage_'
'sponge_'
'spic_'
'specific_'
'sounds_'
'snow_'
'smoothly_'
'smoky_'
'skirt_'
'skin_'
'shortly_'
'shocking_'
'ship_'
'shining_'
'seams_'
'scrambled_'
'scheme_'
'rolled_'
'rip_'
'rings_'
'retro_'
'resulted_'
'response_'
'regardless_'
'refurbish_'
'refit_'
'redo_'
'ranch_'
'quieter_'
'push_'
'proved_'
'poolside_'
'polish_'
'playing_'
'player_'
'piles_'
'patched_'
'overwhelming_'
'overflow_'
'occupancy_'
'november_'
'newspaper_'
'newest_'
'moderately_'
'moderate_'
'massage_'
'marriotts_'
'log_'
'leftover_'
'las_'
'laminate_'
'kleenex_'
'kid_'
'k_'
'january_'
'ipod_'
'instant_'
'holding_'
'hk_'
'god_'
'glue_'
'generously_'
'forced_'
'floating_'
'filling_'
'favorite_'
'fairmont_'
'fabrics_'
'explain_'
'excessive_'
'elite_'
'easier_'
'driver_'
'disrepair_'
'dinning_'
'designer_'
'delightful_'
'definite_'
'december_'
'dc_'
'crown_'
'creaky_'
'court_'
'cooling_'
'controlled_'
'container_'
'consisted_'
'confirmed_'
'colored_'
'cockroaches_'
'cluttered_'
'cloudy_'
'climb_'
'cities_'
'chip_'
'causing_'
'calling_'
'breakfastthe_'
'blown_'
'beverage_'
'bedspreads_'
'batteries_'
'band_'
'attempts_'
'ashtray_'
'answer_'
'allergies_'
'akin_'
'adult_'
'accumulated_'
'accepted_'
'17_'
' .’_'
' ( $ _'
'´_'
'wrinkled_'
'woman_'
'warned_'
'wardrobes_'
'vile_'
'upto_'
'unusually_'
'unpack_'
'treatment_'
'transport_'
'tidythe_'
'telling_'
'televisions_'
'tastes_'
'strewn_'
'strands_'
'stating_'
'states_'
'staining_'
'staffs_'
'smudges_'
'slide_'
'slamming_'
'signature_'
'showerthe_'
'shirts_'
'separated_'
'sealed_'
'scandinavian_'
'rod_'
'risk_'
'respect_'
'renovate_'
'renewed_'
'remnants_'
'reached_'
'ragged_'
'pump_'
'proofing_'
'powder_'
'pod_'
'planning_'
'pillowcases_'
'pathetic_'
'pastries_'
'orlando_'
'omni_'
'norm_'
'newish_'
'neutral_'
'moisture_'
'mismatched_'
'marina_'
'loyalty_'
'letting_'
'le_'
'landscaping_'
'knobs_'
'judging_'
'individual_'
'hundreds_'
'hoping_'
'hermes_'
'hassle_'
'guaranteed_'
'gray_'
'golf_'
'frequent_'
'freak_'
'flower_'
'flood_'
'flights_'
'fixture_'
'experiences_'
'euros_'
'dripped_'
'drip_'
'downsides_'
'dollars_'
'disgusted_'
'discolored_'
'discarded_'
'desert_'
'delight_'
'definately_'
'crumpled_'
'cooled_'
'considerably_'
'condensation_'
'collect_'
'coke_'
'coffeemaker_'
'closely_'
'cleanroom_'
'cleani_'
'claustrophobic_'
'chinese_'
'chewing_'
'cheapest_'
'channel_'
'caulk_'
'cars_'
'carried_'
'buses_'
'bunnies_'
'brightly_'
'breath_'
'bird_'
'bidet_'
'battery_'
'assortment_'
'andour_'
'alright_'
'allergy_'
'allergic_'
'afterwards_'
'addressed_'
'account_'
'250_'
'22nd_'
' ....... _'
' . - _'
'x_'
'wrapped_'
'worry_'
'wool_'
'wished_'
'wings_'
'whirlpool_'
'waterpark_'
'wasthe_'
'walkways_'
'volume_'
'unkempt_'
'undergone_'
'tucked_'
'treadmills_'
'tennis_'
'teeth_'
'tech_'
'surprises_'
'supervisor_'
'superficially_'
'summary_'
'styled_'
'stiff_'
'stack_'
'spoiled_'
'spill_'
'sour_'
'solution_'
'smoker_'
'skyline_'
'sizable_'
'sightseeing_'
'sideways_'
'rush_'
'rinse_'
'ride_'
'resulting_'
'respects_'
'replenish_'
'reminiscent_'
'regards_'
'reality_'
'quaint_'
'professionally_'
'presentation_'
'preference_'
'plane_'
'pics_'
'peeve_'
'parked_'
'overpowering_'
'overlook_'
'operated_'
'opens_'
'mystery_'
'multi_'
'motels_'
'modest_'
'matched_'
'marriot_'
'luck_'
'lifting_'
'joined_'
'join_'
'jets_'
'inner_'
'indicating_'
'ignored_'
'horror_'
'hip_'
'height_'
'hardwood_'
'grandeur_'
'goodthe_'
'furnitures_'
'fridges_'
'followed_'
'filters_'
'favourite_'
'faultless_'
'faulted_'
'facade_'
'exhaust_'
'essentially_'
'enclosed_'
'enamel_'
'elegance_'
'drier_'
'dowdy_'
'dismal_'
'discoloured_'
'dents_'
'deliver_'
'decade_'
'cuba_'
'crusty_'
'crap_'
'cooler_'
'cooker_'
'contrast_'
'contents_'
'comforters_'
'cell_'
'cares_'
'canal_'
'buttons_'
'branded_'
'bowls_'
'begin_'
'bargain_'
'attending_'
'attempted_'
'asleep_'
'annoyed_'
'annex_'
'amsterdam_'
'address_'
'action_'
'accor_'
': _'
'23rd_'
'2013_'
'wrapper_'
'weight_'
'wee_'
'village_'
'victorian_'
'vast_'
'vary_'
'varnish_'
'usa_'
'upholstered_'
'unusable_'
'uninviting_'
'unhygienic_'
'unexpected_'
'underwear_'
'tripadvisor_'
'tree_'
'transit_'
'tough_'
'tones_'
'text_'
'test_'
'tasteless_'
'systems_'
'suits_'
'struck_'
'stick_'
'stark_'
'split_'
'spec_'
'softer_'
'showerhead_'
'shelving_'
'shaver_'
'settee_'
'semi_'
'sandwiches_'
'sandwich_'
'salad_'
'rotting_'
'roomit_'
'roomi_'
'ridiculously_'
'reno_'
'reminds_'
'refurbed_'
'rails_'
'rag_'
'q_'
'proofed_'
'proceeded_'
'porch_'
'packet_'
'oversized_'
'outer_'
'orleans_'
'opulent_'
'october_'
'occasionally_'
'napkin_'
'mouth_'
'material_'
'maintaining_'
'lukewarm_'
'liner_'
'lampshade_'
'june_'
'journey_'
'itchy_'
'italian_'
'island_'
'insufficient_'
'inspected_'
'insect_'
'infrastructure_'
'inform_'
'includes_'
'image_'
'ideally_'
'hrs_'
'hoped_'
'hook_'
'hinges_'
'highway_'
'hhonors_'
'hazard_'
'hardware_'
'handed_'
'fuss_'
'fresher_'
'freezer_'
'forth_'
'fingerprints_'
'fantastically_'
'fake_'
'expects_'
'excellently_'
'ensuring_'
'energy_'
'ear_'
'drying_'
'drawback_'
'dorm_'
'dodgy_'
'docks_'
'dock_'
'desks_'
'depending_'
'department_'
'delivers_'
'converted_'
'containing_'
'conferences_'
'competent_'
'com_'
'cocktails_'
'cocktail_'
'clump_'
'clippings_'
'cistern_'
'chrome_'
'chosen_'
'champagne_'
'cereal_'
'cardio_'
'bunch_'
'breaking_'
'boy_'
'bitten_'
'beddings_'
'banged_'
'arrangements_'
'april_'
'apology_'
'antique_'
'androom_'
'alternative_'
'abit_'
'400_'
'32_'
'23_'
' € _'
' ? ? ?_'
' .£ _'
' . ) ._'
' ) . _'
' ( # _'
'worried_'
'workmanship_'
'wiping_'
'warped_'
'ware_'
'walkway_'
'walks_'
'unsafe_'
'universal_'
'tubs_'
'tours_'
'toothbrushes_'
'toliet_'
'toast_'
'terminals_'
'tells_'
'teas_'
'tears_'
'tank_'
'sweeping_'
'surrounds_'
'surrounded_'
'support_'
'stove_'
'stored_'
'stations_'
'staffthe_'
'squeeze_'
'spoilt_'
'splatter_'
'splash_'
'speedy_'
'specially_'
'soundproofed_'
'soulless_'
'sorely_'
'snack_'
'sizeable_'
'sister_'
'signage_'
'serving_'
'sell_'
'seemingly_'
'scary_'
'row_'
'revealed_'
'reputation_'
'repeat_'
'repainting_'
'repainted_'
'renewal_'
'remembered_'
'regard_'
'realise_'
'rarely_'
'random_'
'radio_'
'purchase_'
'pulling_'
'priority_'
'prevent_'
'poured_'
'pots_'
'port_'
'pity_'
'phoned_'
'perspective_'
'pans_'
'owner_'
'operation_'
'oil_'
'nowadays_'
'noticeably_'
'nightly_'
'nicethe_'
'neighbours_'
'neighbor_'
'motorway_'
'mosquito_'
'merely_'
'membership_'
'matress_'
'manicured_'
'male_'
'magnifying_'
'lousy_'
'locks_'
'lagoon_'
'kudos_'
'jammed_'
'ironed_'
'ingrained_'
'indian_'
'incident_'
'hurt_'
'homely_'
'hie_'
'helpfull_'
'heading_'
'hated_'
'happens_'
'greatest_'
'grass_'
'goodness_'
'goodies_'
'gatwick_'
'functions_'
'frosted_'
'fried_'
'fraying_'
'flaws_'
'feedback_'
'existent_'
'exceeded_'
'everytime_'
'email_'
'elemis_'
'elderly_'
'dozen_'
'don_'
'disappeared_'
'dirtiest_'
'directions_'
'die_'
'cross_'
'creepy_'
'create_'
'countertops_'
'couches_'
'continue_'
'concerns_'
'concept_'
'coloured_'
'college_'
'collection_'
'cleanwe_'
'claimed_'
'cigar_'
'chandeliers_'
'cbd_'
'caught_'
'cat_'
'cash_'
'cart_'
'capital_'
'british_'
'britannia_'
'bog_'
'blew_'
'beers_'
'beaten_'
'aveda_'
'automatically_'
'attitude_'
'asthma_'
'artwork_'
'arms_'
'angle_'
'airplane_'
'afraid_'
'adjust_'
'accommodated_'
'accessed_'
'absolute_'
'absence_'
'24th_'
'2016_'
'1990s_'
'. , _'
')._'
' :) _'
' . ) _'
'wired_'
'windowsill_'
'vintage_'
'usable_'
'upmarket_'
'uplift_'
'untouched_'
'unsanitary_'
'unloved_'
'unbelievable_'
'ugh_'
'uber_'
'tropical_'
'trolley_'
'tries_'
'transportation_'
'touching_'
'tossed_'
'toaster_'
'tended_'
'sweaty_'
'sumptuous_'
'substandard_'
'stretch_'
'stool_'
'stock_'
'steep_'
'springs_'
'spoons_'
'splashes_'
'spacey_'
'smokey_'
'smiling_'
'smeared_'
'slipped_'
'sites_'
'sills_'
'significantly_'
'shutters_'
'shouting_'
'servicethe_'
'selected_'
'screens_'
'saving_'
'saved_'
'satisfaction_'
'rydges_'
'rusted_'
'runs_'
'ruined_'
'rome_'
'rise_'
'repeatedly_'
'remarkably_'
'relative_'
'reflected_'
'refill_'
'rectified_'
'razor_'
'ratty_'
'proportioned_'
'pressed_'
'poster_'
'plants_'
'piled_'
'pets_'
'personality_'
'permeated_'
'peoples_'
'passing_'
'parties_'
'owners_'
'ongoing_'
'nightthe_'
'niggles_'
'nicked_'
'necessarily_'
'napkins_'
'museum_'
'mountains_'
'monday_'
'mint_'
'micro_'
'memory_'
'maze_'
'majority_'
'magnificent_'
'luxuries_'
'lush_'
'loudly_'
'load_'
'limescale_'
'lifted_'
'kill_'
'jobs_'
'ipad_'
'involved_'
'install_'
'inspect_'
'info_'
'inconsistent_'
'hostel_'
'hospitable_'
'homey_'
'hits_'
'hint_'
'hanger_'
'grace_'
'german_'
'gadgets_'
'fusty_'
'frustrating_'
'fortunate_'
'floorthe_'
'flash_'
'feathers_'
'faults_'
'fairness_'
'extent_'
'exceedingly_'
'etcthe_'
'essential_'
'escape_'
'engineer_'
'employee_'
'dvd_'
'dropping_'
'dress_'
'draw_'
'downhill_'
'dormitory_'
'distinctly_'
'disposable_'
'difficulty_'
'destination_'
'departing_'
'delighted_'
'degree_'
'decision_'
'daylight_'
'cook_'
'continuously_'
'computers_'
'code_'
'circa_'
'chef_'
'chaise_'
'cake_'
'bunk_'
'brief_'
'boiling_'
'belongings_'
'bedlinen_'
'ballroom_'
'ash_'
'approx_'
'appointments_'
'amazed_'
'allows_'
'alcohol_'
'airline_'
'according_'
'95_'
'75_'
'2014_'
'1950_'
'--_'
'!_'
' : ( _'
' ......_'
' . , _'
' " ( _'
'wobbly_'
'wind_'
'wave_'
'waterfront_'
'watching_'
'wad_'
'vacant_'
'upset_'
'unwashed_'
'unrenovated_'
'unremarkable_'
'unpacking_'
'unoccupied_'
'unidentifiable_'
'unfinished_'
'understated_'
'turns_'
'trust_'
'tricky_'
'track_'
'towelsthe_'
'tooth_'
'til_'
'thoughtful_'
'therethe_'
'temporary_'
'tax_'
'ta_'
'suggested_'
'suffering_'
'suffer_'
'struggle_'
'stinking_'
'stairwell_'
'stair_'
'sprays_'
'spraying_'
'spotty_'
'spoon_'
'spilt_'
'sold_'
'sofabed_'
'smellthe_'
'smears_'
'slipping_'
'shangri_'
'shampooing_'
'severely_'
'severe_'
'sauce_'
'sanitized_'
'routine_'
'rose_'
'rips_'
'reviewed_'
'restored_'
'reply_'
'rent_'
'remind_'
'relief_'
'relaxation_'
'reflects_'
'recycle_'
'recall_'
'raised_'
'railway_'
'racks_'
'purposes_'
'pullout_'
'puddle_'
'pro_'
'print_'
'priceline_'
'prepare_'
'predictable_'
'practice_'
'practically_'
'portion_'
'porter_'
'porcelain_'
'plant_'
'pillowcase_'
'picking_'
'pic_'
'pattern_'
'panelling_'
'pan_'
'pacific_'
'ottoman_'
'oriented_'
'opportunity_'
'operate_'
'offerings_'
'occitane_'
'observed_'
'neighborhood_'
'neglect_'
'navigate_'
'nature_'
'muddy_'
'mother_'
'moist_'
'miserable_'
'meridien_'
'mens_'
'mechanism_'
'magic_'
'lose_'
'loft_'
'lodging_'
'lobbies_'
'lives_'
'lined_'
'lightbulb_'
'leg_'
'leakage_'
'layover_'
'latest_'
'knob_'
'kitted_'
'kinds_'
'kimpton_'
'ignore_'
'hill_'
'hey_'
'hesitate_'
'happening_'
'handicapped_'
'halfway_'
'granted_'
'gown_'
'glued_'
'glory_'
'glasgow_'
'genuinely_'
'gear_'
'gaps_'
'fussy_'
'friendliness_'
'friendlier_'
'fork_'
'flops_'
'floorboards_'
'flooding_'
'female_'
'february_'
'fear_'
'fail_'
'extension_'
'exact_'
'everybody_'
'earth_'
'dribble_'
'dreaded_'
'dollar_'
'discount_'
'diner_'
'digital_'
'death_'
'dates_'
'dangling_'
'cream_'
'crappy_'
'crammed_'
'coverings_'
'courts_'
'cosmetics_'
'conveniences_'
'containers_'
'competitive_'
'compare_'
'comfythe_'
'coats_'
'clorox_'
'clinical_'
'circumstances_'
'checks_'
'cardboard_'
'candy_'
'cancun_'
'cancelled_'
'caliber_'
'burger_'
'bubble_'
'bracket_'
'bookings_'
'blu_'
'blast_'
'birmingham_'
'bikes_'
'beverages_'
'bathtubs_'
'bathmat_'
'bathing_'
'balance_'
'backed_'
'awhile_'
'automatic_'
'assumed_'
'argue_'
'approach_'
'apportioned_'
'anti_'
'annoyingly_'
'animals_'
'ambassador_'
'altogether_'
'afford_'
'advisor_'
'act_'
'accomodations_'
'99_'
'60s_'
'28_'
'26_'
'25th_'
'22_'
'2011_'
'.(_'
'$ _'
'!. _'
' ] _'
' [ _'
' ? !_'
' .– _'
' ......._'
' . ._'
' !, _'
' !( _'
'yuk_'
'written_'
'worthy_'
'workmen_'
'wharf_'
'watched_'
'washrooms_'
'washers_'
'waits_'
'victoria_'
'van_'
'valance_'
'vacated_'
'upthe_'
'unfriendly_'
'unfortunate_'
'understood_'
'understaffed_'
'underside_'
'unchanged_'
'unattractive_'
'ultimately_'
'turnover_'
'truth_'
'toilette_'
'tips_'
'tin_'
'timely_'
'tidying_'
'thru_'
'thoughtfully_'
'teenage_'
'sunbeds_'
'sugar_'
'stupid_'
'stress_'
'straw_'
'stops_'
'stockholm_'
'stingy_'
'steak_'
'staythe_'
'stacked_'
'spaciousthe_'
'spaceous_'
'solved_'
'softest_'
'slimy_'
'sizethe_'
'sizes_'
'silicone_'
'shine_'
'shallow_'
'sf_'
'sewerage_'
'september_'
'separating_'
'seattle_'
'scraped_'
'satellite_'
'salt_'
'rocks_'
'roach_'
'rich_'
'restoration_'
'rented_'
'rennovated_'
'remaining_'
'reeks_'
'receptionists_'
'readily_'
'reaction_'
'raw_'
'rags_'
'pure_'
'pungent_'
'protector_'
'produced_'
'privilege_'
'prime_'
'pluses_'
'pins_'
'pig_'
'pictured_'
'papers_'
'paneling_'
'palace_'
'packing_'
'packets_'
'owned_'
'overseas_'
'overcrowded_'
'opt_'
'onsite_'
'oldest_'
'occasional_'
'notable_'
'newspapers_'
'nearest_'
'mosquitoes_'
'modernization_'
'moab_'
'mildewy_'
'max_'
'maintainedthe_'
'macau_'
'luxe_'
'lime_'
'lifeguards_'
'law_'
'laundered_'
'lap_'
'justify_'
'irons_'
'instructions_'
'instantly_'
'insisted_'
'inconvenience_'
'improving_'
'impressively_'
'imagination_'
'hyde_'
'hundred_'
'houses_'
'hospital_'
'horrific_'
'holidays_'
'holders_'
'hh_'
'helps_'
'hawaiian_'
'happily_'
'handled_'
'handicap_'
'guessing_'
'greeting_'
'girls_'
'gigantic_'
'gesture_'
'gents_'
'gaylord_'
'football_'
'focus_'
'fluid_'
'flimsy_'
'flawless_'
'false_'
'faithful_'
'exiting_'
'exhausted_'
'excited_'
'evidently_'
'evidenced_'
'ensured_'
'enjoying_'
'effectively_'
'duration_'
'dublin_'
'droppings_'
'dressers_'
'dream_'
'downright_'
'downfall_'
'doona_'
'dogs_'
'direct_'
'dip_'
'dined_'
'deteriorated_'
'deposit_'
'deodorant_'
'deferred_'
'dear_'
'daughters_'
'cutter_'
'cursory_'
'creaked_'
'crash_'
'corrected_'
'convinced_'
'contrary_'
'continues_'
'contain_'
'connect_'
'confusing_'
'confirm_'
'commode_'
'comb_'
'coffe_'
'cloud_'
'closes_'
'cleanthere_'
'cleanhotel_'
'chatting_'
'chaotic_'
'cater_'
'catching_'
'caps_'
'canteen_'
'burning_'
'buds_'
'bistro_'
'bent_'
'beneath_'
'baseboard_'
'barefoot_'
'bang_'
'australia_'
'attendants_'
'assistance_'
'asap_'
'aroma_'
'appropriately_'
'appointedthe_'
'appearing_'
'apologized_'
'anniversary_'
'andall_'
'amounts_'
'amiss_'
'alas_'
'agent_'
'advice_'
'adjusted_'
'accomodating_'
'abundance_'
'`_'
':- _'
'30th_'
'29th_'
'27_'
'26th_'
'220_'
'2012_'
'19_'
'1990_'
'13th_'
' ” ._'
' @ _'
' : -_'
' .; _'
' .+ _'
' ' - _'
' ! ! ! ! !_'
'yeah_'
'workspace_'
'wires_'
'wild_'
'width_'
'whereas_'
'werethe_'
'wellthe_'
'waterfall_'
'warren_'
'warmly_'
'war_'
'visitor_'
'viewed_'
'vending_'
'uses_'
'useable_'
'ups_'
'unused_'
'unplugged_'
'unlocked_'
'union_'
'uninspiring_'
'uniforms_'
'underway_'
'truck_'
'treats_'
'travels_'
'transfer_'
'toward_'
'ton_'
'timethe_'
'thoughts_'
'thirty_'
'temperatures_'
'switching_'
'swing_'
'suspicious_'
'superficial_'
'sum_'
'suddenly_'
'subpar_'
'streaks_'
'sticks_'
'steamed_'
'stairwells_'
'stairways_'
'stagnant_'
'squeezed_'
'squashed_'
'spite_'
'source_'
'soul_'
'sorts_'
'someones_'
'solo_'
'soggy_'
'smartly_'
'slime_'
'sliced_'
'sleepers_'
'skip_'
'sixth_'
'silicon_'
'shift_'
'sheer_'
'shake_'
'settle_'
'seedy_'
'sections_'
'secondary_'
'seals_'
'screamed_'
'scraps_'
'schedule_'
'sausages_'
'saggy_'
'roomso_'
'roomrooms_'
'roomroom_'
'rm_'
'revamped_'
'resturant_'
'restuarant_'
'resolve_'
'residents_'
'reset_'
'reporting_'
'rental_'
'related_'
'refrig_'
'raise_'
'rainshower_'
'queues_'
'quarter_'
'pushing_'
'programme_'
'princess_'
'pride_'
'pricing_'
'prepaid_'
'pound_'
'posh_'
'ports_'
'popular_'
'poop_'
'pond_'
'platform_'
'plasma_'
'pirate_'
'pine_'
'pin_'
'pi_'
'peter_'
'perfumed_'
'perfection_'
'pee_'
'peanuts_'
'peace_'
'pc_'
'overused_'
'overlooks_'
'outfitted_'
'oriental_'
'opposed_'
'oily_'
'notes_'
'nonsmoking_'
'newness_'
'neighbouring_'
'nap_'
'nails_'
'mug_'
'mr_'
'mopping_'
'monument_'
'mezzanine_'
'message_'
'mersey_'
'memorable_'
'matching_'
'marred_'
'malfunctioning_'
'mail_'
'lowest_'
'liverpool_'
'listed_'
'lip_'
'likes_'
'learn_'
'lead_'
'layed_'
'latter_'
'latch_'
'lastly_'
'largely_'
'language_'
'lampshades_'
'knife_'
'knees_'
'kits_'
'kicked_'
'jr_'
'joy_'
'italy_'
'irritating_'
'iphone_'
'inthe_'
'inspiring_'
'ins_'
'ink_'
'inefficient_'
'ineffective_'
'inedible_'
'indifferent_'
'inc_'
'imperial_'
'immediate_'
'icky_'
'hitting_'
'hinge_'
'hgi_'
'hawaii_'
'haul_'
'hare_'
'guards_'
'guarantee_'
'grossed_'
'gritty_'
'grabbed_'
'goods_'
'goo_'
'glazed_'
'gathering_'
'furthermore_'
'furnace_'
'frozen_'
'fragrance_'
'fortune_'
'focused_'
'flaw_'
'fits_'
'fitments_'
'firmly_'
'fees_'
'famous_'
'extreme_'
'explore_'
'expansive_'
'exciting_'
'encounter_'
'enclosure_'
'elbow_'
'edinburgh_'
'ect_'
'eco_'
'dirtier_'
'dings_'
'dinged_'
'detract_'
'detailed_'
'deserves_'
'delivery_'
'delhi_'
'decide_'
'dealing_'
'cuts_'
'cushion_'
'crt_'
'creates_'
'created_'
'cp_'
'coughing_'
'condom_'
'conditioners_'
'comparable_'
'collected_'
'coffees_'
'cob_'
'clientele_'
'cleanthis_'
'cleans_'
'cleanness_'
'circulation_'
'chunks_'
'charity_'
'charger_'
'chains_'
'carpark_'
'canada_'
'cakes_'
'cafeteria_'
'buts_'
'bucks_'
'btw_'
'bringing_'
'breathtaking_'
'boys_'
'blocking_'
'blackpool_'
'bizarre_'
'benefits_'
'bellman_'
'baggage_'
'ave_'
'attendees_'
'assist_'
'arrange_'
'aromatherapy_'
'armoire_'
'apples_'
'anyhow_'
'antiquated_'
'animal_'
'andthis_'
'andmy_'
'andbut_'
'aired_'
'adorned_'
'adjustable_'
'adds_'
'activity_'
';_'
'79_'
'21_'
'1000_'
'00am_'
' — _'
' :)_'
' ........_'
' ... )_'
' .* , _'
' , £ _'
' , , _'
' ) ... _'
' ) !_'
' ( £ _'
' ' , _'
' ! ! )_'
'yummy_'
'youth_'
'yoga_'
'yellowed_'
'y_'
'xmas_'
'worldwide_'
'weathered_'
'wdw_'
'wasted_'
'warmed_'
'waitress_'
'waikiki_'
'vietnam_'
'velvet_'
'variable_'
'utility_'
'usd_'
'unwind_'
'unplug_'
'unhelpful_'
'underwhelming_'
'understandable_'
'underground_'
'unbelievably_'
'unbearable_'
'umbrella_'
'twenty_'
'tubes_'
'trickle_'
'traveled_'
'trashcan_'
'trapped_'
'trap_'
'trade_'
'tracks_'
'toy_'
'towells_'
'toronto_'
'tone_'
'tomorrow_'
'toileteries_'
'title_'
'tiring_'
'tier_'
'tickets_'
'throws_'
'thicker_'
'theatre_'
'tends_'
'te_'
'tag_'
'swissotel_'
'swipe_'
'sweep_'
'supper_'
'sunny_'
'stylishly_'
'studios_'
'student_'
'stroll_'
'strength_'
'streets_'
'stomach_'
'stolen_'
'stifling_'
'staring_'
'spruced_'
'spreads_'
'sprawling_'
'splashed_'
'sparklingly_'
'soup_'
'snug_'
'smear_'
'smashed_'
'smallit_'
'slot_'
'sleeps_'
'skipped_'
'signed_'
'sights_'
'showerand_'
'shockingly_'
'shock_'
'session_'
'select_'
'seconds_'
'seaview_'
'scrubbed_'
'screws_'
'screwed_'
'screw_'
'schemes_'
'scheduled_'
'scared_'
'scalding_'
'sales_'
'safes_'
'rushing_'
'roomvery_'
'roomsi_'
'roomclean_'
'romantic_'
'rom_'
'rewards_'
'results_'
'rested_'
'replenishing_'
'renewing_'
'remodelled_'
'relocated_'
'relic_'
'refreshment_'
'redecorating_'
'recycling_'
'recommendation_'
'recognition_'
'recess_'
'rat_'
'questions_'
'questioned_'
'puts_'
'pullman_'
'puddles_'
'project_'
'pouring_'
'possibility_'
'plans_'
'placing_'
'placemats_'
'permanent_'
'periods_'
'peculiar_'
'pealing_'
'patchy_'
'paradise_'
'paintings_'
'oversight_'
'outthe_'
'outlook_'
'official_'
'oceanfront_'
'obliging_'
'nozzle_'
'novotels_'
'noting_'
'notified_'
'noisey_'
'nets_'
'neck_'
'narita_'
'mysterious_'
'muck_'
'mood_'
'molton_'
'moldings_'
'molded_'
'modernising_'
'mixer_'
'mineral_'
'minded_'
'midst_'
'microwaves_'
'mice_'
'miami_'
'meat_'
'maswik_'
'marvellous_'
'map_'
'malmaison_'
'makers_'
'maintains_'
'magazines_'
'lumps_'
'lounging_'
'lol_'
'lively_'
'listen_'
'lie_'
'leads_'
'lazy_'
'landscape_'
'lagged_'
'laden_'
'kingdom_'
'keen_'
'jumped_'
'jacket_'
'itand_'
'interested_'
'interest_'
'intended_'
'indication_'
'indicates_'
'increase_'
'inconvenient_'
'incl_'
'inca_'
'hypoallergenic_'
'hungry_'
'hob_'
'hiking_'
'highlight_'
'hers_'
'harder_'
'grouts_'
'grew_'
'greatthe_'
'grate_'
'grandma_'
'graded_'
'gracious_'
'gloves_'
'gleaming_'
'gate_'
'furb_'
'freshness_'
'frankfurt_'
'francisco_'
'formica_'
'formed_'
'foreign_'
'foods_'
'foisty_'
'florida_'
'floods_'
'fleas_'
'fist_'
'fat_'
'fading_'
'extraordinary_'
'extend_'
'exit_'
'exchange_'
'excess_'
'eve_'
'esp_'
'england_'
'endless_'
'electricity_'
'efficiency_'
'economical_'
'eclectic_'
'earplugs_'
'dvc_'
'duties_'
'duct_'
'duck_'
'drywall_'
'drunk_'
'drove_'
'drips_'
'drilling_'
'dreadfully_'
'draperies_'
'drake_'
'dozens_'
'downthe_'
'dose_'
'donethe_'
'district_'
'dissapointed_'
'display_'
'dismayed_'
'dislike_'
'disco_'
'died_'
'dial_'
'detritus_'
'dessert_'
'designers_'
'designated_'
'description_'
'dented_'
'delayed_'
'delay_'
'deeply_'
'deeper_'
'decay_'
'datedbut_'
'curling_'
'crying_'
'crud_'
'crowd_'
'criteria_'
'crisps_'
'creek_'
'cowboy_'
'cottages_'
'coronado_'
'cord_'
'conversation_'
'continually_'
'console_'
'connections_'
'congress_'
'competition_'
'comfortableroom_'
'comfortablei_'
'comforatble_'
'coins_'
'coin_'
'co_'
'clutter_'
'clumps_'
'closest_'
'cleaneverything_'
'circular_'
'chilly_'
'chat_'
'carrying_'
'caribbean_'
'cardiff_'
'calming_'
'bw_'
'butit_'
'buti_'
'buckets_'
'brownish_'
'breaks_'
'bordering_'
'bolted_'
'boat_'
'boarding_'
'biscuit_'
'berlin_'
'bend_'
'bedsheet_'
'bedcovers_'
'bears_'
'bbq_'
'bathroomand_'
'baskets_'
'bank_'
'avenue_'
'availability_'
'attend_'
'assignment_'
'ashamed_'
'artificial_'
'arena_'
'applied_'
'anticipated_'
'ant_'
'andvery_'
'andno_'
'andand_'
'al_'
'aid_'
'agents_'
'afforded_'
'admittedly_'
'abandoned_'
'45pm_'
'350_'
'27th_'
'2017_'
'2015_'
'2009_'
'1960_'
'1950s_'
'+ _'
' .-- _'
' ) ..._'
' ) & _'
' ( ? ) _'
' " - _'
'zen_'
'yellowish_'
'yarra_'
'wrote_'
'wreaked_'
'wrap_'
'worthwhile_'
'worrying_'
'workthe_'
'wore_'
'woodland_'
'wiring_'
'wines_'
'windowless_'
'whose_'
'whiff_'
'wheelchair_'
'westins_'
'wellington_'
'wednesday_'
'weary_'
'waters_'
'wastebasket_'
'washington_'
'warmth_'
'wallet_'
'wafting_'
'voice_'
'version_'
'verge_'
'veranda_'
'ventilated_'
'utterly_'
'utilitarian_'
'upside_'
'unobtrusive_'
'undone_'
'undersized_'
'unbearably_'
'tuesday_'
'trollies_'
'trolleys_'
'trashed_'
'touring_'
'toenail_'
'tiki_'
'tick_'
'thereafter_'
'theirs_'
'thai_'
'term_'
'telly_'
'tarnished_'
'taped_'
'tan_'
'tags_'
'tablets_'
'swanky_'
'surround_'
'suprised_'
'sunlight_'
'styles_'
'strict_'
'stretching_'
'stream_'
'straightened_'
'stories_'
'stools_'
'sterling_'
'steel_'
'steal_'
'stately_'
'stalls_'
'stairway_'
'staines_'
'springhill_'
'splashing_'
'spirits_'
'spends_'
'sparkly_'
'sparking_'
'spanking_'
'spanish_'
'southern_'
'sopping_'
'sophisticated_'
'soda_'
'soapy_'
'smallthe_'
'slips_'
'slippy_'
'silverware_'
'seventh_'
'seven_'
'settling_'
'separation_'
'sensor_'
'sensitive_'
'secured_'
'search_'
'seamless_'
'scotland_'
'saunas_'
'sandy_'
'sands_'
'salmon_'
'sale_'
'sagging_'
'safely_'
'sachets_'
'rushed_'
'runways_'
'route_'
'roomthis_'
'rolling_'
'roads_'
'revolting_'
'revamping_'
'retired_'
'retire_'
'restock_'
'reports_'
'replied_'
'replenishment_'
'repaint_'
'remover_'
'remainder_'
'remade_'
'reef_'
'recognised_'
'receiving_'
'readythe_'
'rattling_'
'rasa_'
'rancid_'
'raining_'
'rainfall_'
'rained_'
'racket_'
'r_'
'quoted_'
'quit_'
'quibble_'
'quay_'
'purchased_'
'pudding_'
'protectors_'
'promise_'
'progress_'
'pretentious_'
'presume_'
'prestige_'
'presence_'
'pounds_'
'potentially_'
'poo_'
'planet_'
'pitiful_'
'pitch_'
'pillowsthe_'
'permeates_'
'permanently_'
'pedestal_'
'patterned_'
'path_'
'passes_'
'passable_'
'particles_'
'parcs_'
'pants_'
'panoramic_'
'padded_'
'overwhelmed_'
'overheated_'
'orchid_'
'omg_'
'oldish_'
'okthe_'
'okaythe_'
'occurred_'
'noxious_'
'nite_'
'nightclub_'
'niagara_'
'nh_'
'neighboring_'
'naked_'
'mousekeeping_'
'mountain_'
'mosquitos_'
'montreal_'
'modernthe_'
'modernly_'
'mixture_'
'mist_'
'mirrored_'
'miraculously_'
'minuses_'
'minimalistic_'
'michigan_'
'mexican_'
'meticulous_'
'messages_'
'mentioning_'
'measure_'
'meantime_'
'masculine_'
'marquis_'
'managers_'
'lysol_'
'luke_'
'luggages_'
'lodgings_'
'loaded_'
'linger_'
'lightning_'
'lightbulbs_'
'lettuce_'
'letter_'
'learned_'
'lavender_'
'landscaped_'
'lakeside_'
'knowing_'
'kiva_'
'kitchens_'
'kindly_'
'kidding_'
'keurig_'
'keeper_'
'junk_'
'judge_'
'interconnecting_'
'insult_'
'insist_'
'informative_'
'industry_'
'indicate_'
'india_'
'increased_'
'imposing_'
'illuminated_'
'hurricane_'
'hunt_'
'housecleaning_'
'hose_'
'honours_'
'honor_'
'hire_'
'hilo_'
'hills_'
'hershey_'
'heritage_'
'helpfulthe_'
'headboards_'
'havana_'
'harsh_'
'hanoi_'
'hairdryers_'
'habit_'
'ha_'
'gulf_'
'guestrooms_'
'guestroom_'
'guessed_'
'guard_'
'grumble_'
'grown_'
'grossly_'
'groomed_'
'grit_'
'grip_'
'grimey_'
'grandson_'
'glassware_'
'glamorous_'
'geared_'
'fulfilled_'
'fragrant_'
'fountain_'
'forest_'
'force_'
'follow_'
'flowing_'
'floral_'
'flair_'
'fireworks_'
'finishings_'
'fingers_'
'filtered_'
'festive_'
'ferry_'
'fellow_'
'fed_'
'feces_'
'faintly_'
'failure_'
'factory_'
'facial_'
'extremly_'
'exited_'
'excuses_'
'eur_'
'error_'
'environmental_'
'endure_'
'emptying_'
'empire_'
'embedded_'
'embarrassment_'
'emanating_'
'elses_'
'elliptical_'
'economy_'
'eager_'
'dubious_'
'drops_'
'driven_'
'dread_'
'drama_'
'downgraded_'
'domestic_'
'docking_'
'disturbing_'
'disorganized_'
'dismay_'
'disgraceful_'
'discounted_'
'disappointments_'
'dime_'
'diet_'
'device_'
'desserts_'
'designs_'
'deserve_'
'depth_'
'dependable_'
'delux_'
'defective_'
'decrepit_'
'decking_'
'decidedly_'
'daythe_'
'curved_'
'curiously_'
'crystal_'
'crooked_'
'crib_'
'crevices_'
'crawled_'
'cramp_'
'corroded_'
'cope_'
'conventions_'
'consumables_'
'consists_'
'consequently_'
'confirmation_'
'conclusion_'
'conclude_'
'comprehensive_'
'commend_'
'comfortableour_'
'collecting_'
'collapsed_'
'cm_'
'clubs_'
'clocks_'
'clients_'
'cleanish_'
'cleaniness_'
'classed_'
'chill_'
'chest_'
'characterless_'
'chaos_'
'chamber_'
'ceramic_'
'cement_'
'caters_'
'casita_'
'carlson_'
'capacity_'
'camera_'
'calibre_'
'cab_'
'buying_'
'butroom_'
'butbut_'
'buildup_'
'bubbled_'
'bryce_'
'brother_'
'brilliantly_'
'brightening_'
'borgata_'
'borders_'
'boot_'
'boiler_'
'boiled_'
'boarded_'
'blonde_'
'bliss_'
'bleached_'
'billing_'
'bet_'
'benefitted_'
'bells_'
'bella_'
'beg_'
'bedi_'
'bedbugs_'
'beauty_'
'beans_'
'bathroomi_'
'bashed_'
'banquet_'
'bacteria_'
'awoke_'
'awaited_'
'automated_'
'australian_'
'attraction_'
'associated_'
'ashtrays_'
'arrivals_'
'architectural_'
'approached_'
'apologetic_'
'anyways_'
'anytime_'
'ankles_'
'andthere_'
'andnice_'
'andhotel_'
'andclean_'
'anda_'
'amongst_'
'america_'
'alway_'
'aloft_'
'allthe_'
'alley_'
'ajar_'
'affair_'
'adding_'
'ad_'
'acrylic_'
'acknowledged_'
'accumulation_'
'accoutrements_'
'acceptably_'
'abundant_'
'ability_'
'65_'
'55_'
'42_'
'39_'
'35th_'
'34th_'
'29_'
'211_'
'2018_'
'2010_'
'180_'
'130_'
'120_'
'0_'
'01_'
'... _'
'.. _'
'"_'
' … ._'
' ? ) , _'
' ./ _'
' .$ _'
' , ... _'
' ) ., _'
' "_'
' " . _'
' ! ! ) ._'
'— _'
'– _'
'younger_'
'yoghurt_'
'yo_'
'yesterday_'
'yen_'
'yellowing_'
'yelling_'
'yangon_'
'worries_'
'woods_'
'wildlife_'
'wierd_'
'whom_'
'wherever_'
'weekly_'
'weekends_'
'waves_'
'wasclean_'
'waking_'
'waffle_'
'wafer_'
'vs_'
'vouchers_'
'volumes_'
'visually_'
'visual_'
'vista_'
'viewing_'
'video_'
'vibrant_'
'versus_'
'unwelcoming_'
'unnecessary_'
'unknown_'
'unhealthy_'
'unhappy_'
'unforgettable_'
'undertaken_'
'uncovered_'
'unbeatable_'
'unavailable_'
'unappetizing_'
'twins_'
'tuck_'
'trousers_'
'tripped_'
'trick_'
'treatments_'
'translucent_'
'trains_'
'toppers_'
'topper_'
'tolerate_'
'tiredness_'
'tiredbut_'
'timeshare_'
'timber_'
'tie_'
'tidyit_'
'ticks_'
'threads_'
'thr_'
'thistle_'
'themthe_'
'texture_'
'tepid_'
'tent_'
'temperamental_'
'teenagers_'
'teddy_'
'teabags_'
'tasting_'
'task_'
'talked_'
'tale_'
'taj_'
'tablet_'
'synthetic_'
'swinging_'
'surly_'
'supermarket_'
'sunset_'
'suitably_'
'suggestion_'
'suffice_'
'sucked_'
'suck_'
'substantial_'
'sturdy_'
'students_'
'struggling_'
'storm_'
'storey_'
'stickler_'
'starter_'
'standardthe_'
'stamp_'
'stag_'
'sri_'
'sprinkler_'
'sporadic_'
'splendid_'
'splatters_'
'splattered_'
'spick_'
'specified_'
'spain_'
'spacy_'
'spaced_'
'sore_'
'sooooo_'
'sons_'
'sole_'
'snuff_'
'smokethe_'
'sloppily_'
'slipper_'
'slides_'
'slice_'
'sits_'
'showeri_'
'shout_'
'shoulder_'
'shot_'
'shorts_'
'shortage_'
'shook_'
'ships_'
'sheratons_'
'shave_'
'shangrila_'
'shall_'
'seventies_'
'settings_'
'sensible_'
'selling_'
'selections_'
'seeping_'
'screened_'
'screams_'
'scrapes_'
'scottish_'
'science_'
'scents_'
'sausage_'
'santa_'
'sank_'
'sandpaper_'
'sample_'
'rusting_'
'rule_'
'routinely_'
'roomwe_'
'roller_'
'rocking_'
'rocket_'
'roast_'
'roadside_'
'roaches_'
'rivals_'
'retrieve_'
'retain_'
'restocking_'
'responsibility_'
'responded_'
'residual_'
'resident_'
'residence_'
'reserve_'
'resembling_'
'requirement_'
'repeated_'
'repairing_'
'released_'
'refurbishments_'
'refunded_'
'refrigerators_'
'refridgerator_'
'refreshments_'
'reflection_'
'refinished_'
'refer_'
'reduced_'
'redoing_'
'record_'
'recieved_'
'ratio_'
'rapidly_'
'ranks_'
'ranked_'
'randomly_'
'randolph_'
'rainy_'
'railings_'
'quarters_'
'qualify_'
'putrid_'
'pubs_'
'provisions_'
'provisioned_'
'protection_'
'protect_'
'prosecco_'
'propped_'
'prominent_'
'processed_'
'printed_'
'primarily_'
'pressing_'
'preparing_'
'preferences_'
'praise_'
'powdered_'
'posts_'
'positively_'
'portions_'
'portable_'
'police_'
'pods_'
'plunger_'
'plumber_'
'plesant_'
'plated_'
'plastered_'
'placethe_'
'piping_'
'pint_'
'pier_'
'piccadilly_'
'piano_'
'pervasive_'
'personalized_'
'persistent_'
'permeating_'
'peninsula_'
'peeled_'
'peel_'
'paths_'
'pastel_'
'paste_'
'pantry_'
'palm_'
'palette_'
'pairs_'
'pads_'
'padding_'
'ownership_'
'overflowed_'
'overcooked_'
'overcome_'
'outright_'
'outrageous_'
'outdoors_'
'orders_'
'ordering_'
'opulence_'
'optical_'
'opener_'
'ofthe_'
'odds_'
'oak_'
'nuisance_'
'notwithstanding_'
'noticing_'
'notably_'
'noisethe_'
'nine_'
'nightwe_'
'niggle_'
'nicks_'
'niceties_'
'nibbles_'
'neutrogena_'
'netting_'
'nest_'
'neon_'
'nec_'
'naturally_'
'nathan_'
'mustiness_'
'mushy_'
'mushrooms_'
'murphy_'
'mucky_'
'mound_'
'motif_'
'morningthe_'
'moon_'
'mom_'
'molds_'
'modernist_'
'model_'
'moan_'
'mistakes_'
'misses_'
'miniscule_'
'minimally_'
'mill_'
'mildly_'
'mighty_'
'midtown_'
'messed_'
'meats_'
'matresses_'
'markets_'
'marbled_'
'manky_'
'magically_'
'magazine_'
'madrid_'
'macdonald_'
'loyal_'
'lowered_'
'loudest_'
'locate_'
'livable_'
'link_'
'lining_'
'lingered_'
'lighter_'
'leeds_'
'ledges_'
'lean_'
'lavatory_'
'lather_'
'lately_'
'laps_'
'land_'
'knocks_'
'kl_'
'kitsch_'
'kings_'
'ketchup_'
'justice_'
'jurys_'
'jump_'
'juices_'
'jfk_'
'itit_'
'issued_'
'irish_'
'invited_'
'invested_'
'internally_'
'intermittently_'
'intermittent_'
'inter_'
'inroom_'
'injury_'
'infinity_'
'infested_'
'inexcusable_'
'independent_'
'inadvertently_'
'impress_'
'ii_'
'ick_'
'hurry_'
'hubby_'
'housing_'
'housed_'
'hotwire_'
'hotter_'
'hotelvery_'
'hosted_'
'hopes_'
'hoovering_'
'homeless_'
'hollywood_'
'hike_'
'highlights_'
'highlighted_'
'hiding_'
'hiccup_'
'hesitation_'
'hen_'
'helping_'
'hectic_'
'heck_'
'heaters_'
'hearty_'
'headache_'
'handsome_'
'handful_'
'handbasin_'
'grooming_'
'grocery_'
'greater_'
'grande_'
'graffiti_'
'goodwill_'
'gnats_'
'gm_'
'glove_'
'glitzy_'
'ghastly_'
'fur_'
'fungus_'
'functionally_'
'functionality_'
'fumes_'
'freeview_'
'frank_'
'framed_'
'forgetting_'
'foremost_'
'footprints_'
'fooled_'
'follows_'
'folding_'
'fluids_'
'flowery_'
'flickering_'
'flew_'
'flannels_'
'flagship_'
'flag_'
'firmness_'
'firmer_'
'fir_'
'finethe_'
'filler_'
'ferragamo_'
'favour_'
'faux_'
'fatty_'
'fails_'
'fag_'
'facilties_'
'facecloth_'
'extraction_'
'extract_'
'exquisite_'
'explanation_'
'expedia_'
'existed_'
'exist_'
'exchanged_'
'excessively_'
'excelsior_'
'excel_'
'examination_'
'everthing_'
'events_'
'establishments_'
'equivalent_'
'entitled_'
'enoughthe_'
'encourage_'
'emergency_'
'embarrassing_'
'elaborate_'
'eight_'
'efforts_'
'eastern_'
'dubai_'
'drawn_'
'draped_'
'drank_'
'dramatically_'
'dragged_'
'doubled_'
'doorway_'
'divine_'
'ditto_'
'displays_'
'disneyland_'
'disconnected_'
'disappointingly_'
'disapointing_'
'directed_'
'dipped_'
'dine_'
'determined_'
'detected_'
'desirable_'
'descent_'
'deplorable_'
'departed_'
'deodorizer_'
'delta_'
'delightfully_'
'delays_'
'def_'
'dedicated_'
'decorator_'
'decorate_'
'decked_'
'decaying_'
'dating_'
'darker_'
'dad_'
'cycle_'
'curry_'
'curious_'
'culture_'
'cubicles_'
'crusted_'
'crumbling_'
'critical_'
'credenza_'
'creaking_'
'crawl_'
'crashing_'
'cranked_'
'courtyards_'
'couples_'
'countries_'
'counted_'
'costly_'
'copenhagen_'
'conversations_'
'continuous_'
'context_'
'content_'
'contacted_'
'conservation_'
'configuration_'
'condos_'
'condiments_'
'concert_'
'concerning_'
'concealed_'
'comp_'
'commercial_'
'comforting_'
'comforable_'
'comfiest_'
'cobweb_'
'coating_'
'coated_'
'coaches_'
'clueless_'
'clipping_'
'climbing_'
'click_'
'clerks_'
'classical_'
'claiming_'
'citadines_'
'cigars_'
'choosing_'
'chinatown_'
'cheery_'
'chase_'
'charles_'
'characters_'
'chandelier_'
'chalk_'
'chalets_'
'celebrate_'
'catered_'
'cast_'
'carton_'
'carte_'
'carpetand_'
'caring_'
'careless_'
'café_'
'cabs_'
'cables_'
'buzz_'
'butmy_'
'bustling_'
'burst_'
'bunks_'
'bumped_'
'bulk_'
'brushing_'
'brushed_'
'broadband_'
'broad_'
'brighton_'
'briefly_'
'bose_'
'borderline_'
'bones_'
'boil_'
'bodily_'
'bobby_'
'boasts_'
'boasted_'
'bldg_'
'bizarrely_'
'birds_'
'bike_'
'belong_'
'beef_'
'bedwe_'
'bedthere_'
'bedbug_'
'battle_'
'batter_'
'baththe_'
'bathroomwe_'
'bathroomthere_'
'basins_'
'barring_'
'badge_'
'backing_'
'awfully_'
'awaiting_'
'authentic_'
'aura_'
'attract_'
'atlantic_'
'army_'
'approximately_'
'approaching_'
'apply_'
'appetising_'
'answered_'
'annoyance_'
'andso_'
'andgenerally_'
'amenties_'
'alternatives_'
'alsothe_'
'alive_'
'alcoholic_'
'albert_'
'airconditioner_'
'airco_'
'affected_'
'advise_'
'advertising_'
'advertises_'
'adelaide_'
'adapters_'
'accustomed_'
'accurately_'
'accurate_'
'accross_'
'accommodates_'
'accidentally_'
'abused_'
'89_'
'700_'
'69_'
'38_'
'32nd_'
'31st_'
'2x_'
'2000s_'
'1985_'
'1960s_'
'1930_'
'160_'
'101_'
'000_'
'-----_'
'--- _'
'+_'
' • _'
' :-)_'
' : ) _'
' .” _'
' ........... _'
' .& _'
' . . ._'
' - -_'
' ,- _'
' ,, _'
' , ._'
' , # _'
' ) .- _'
' ) -_'
' ( ! ) _'
' ! ..._'
' ! ) ; _'
'• _'
'yr_'
'yosemite_'
'yogurt_'
'yellowstone_'
'worktop_'
'wonders_'
'witnessed_'
'wit_'
'wilted_'
'whistles_'
'wheels_'
'wedged_'
'waterfalls_'
'wasvery_'
'washes_'
'wary_'
'warsaw_'
'wandering_'
'waiters_'
'wa_'
'voile_'
'vinegar_'
'vicinity_'
'vere_'
'venture_'
'velour_'
'vehicles_'
'vehicle_'
'vegetarian_'
'vastly_'
'varieties_'
'vanities_'
'vanished_'
'valuables_'
'vacummed_'
'vac_'
'utilized_'
'upcoming_'
'upbeat_'
'unwelcome_'
'unsurprisingly_'
'unreliable_'
'unlucky_'
'unlimited_'
'uninterested_'
'uninspired_'
'unimpressive_'
'unidentified_'
'unhygenic_'
'unfolded_'
'unexceptional_'
'underwhelmed_'
'underwent_'
'understatement_'
'understanding_'
'uncrowded_'
'uncomfortably_'
'uncleared_'
'unattended_'
'unacceptably_'
'umbrellas_'
'tyne_'
'tying_'
'twist_'
'tvthe_'
'tropics_'
'trivial_'
'tripping_'
'trimmings_'
'tribute_'
'tremendously_'
'tremendous_'
'trek_'
'transiting_'
'trams_'
'trail_'
'traditionally_'
'traces_'
'trace_'
'tp_'
'toys_'
'toxic_'
'tovar_'
'toothe_'
'tools_'
'tolerable_'
'toilettries_'
'toddlers_'
'tipped_'
'tinned_'
'timing_'
'timesthe_'
'tidyand_'
'ticked_'
'thursday_'
'thumbs_'
'throwback_'
'thrilled_'
'threshold_'
'thomson_'
'thirsty_'
'thirdly_'
'thinnest_'
'thinand_'
'thereof_'
'thereand_'
'theory_'
'thames_'
'thailand_'
'testing_'
'tested_'
'temple_'
'teenager_'
'tee_'
'technician_'
'technically_'
'teak_'
'taxes_'
'tabs_'
'tabletops_'
'tablecloths_'
't5_'
'swollen_'
'swish_'
'swimmers_'
'sweets_'
'sweating_'
'swapped_'
'swan_'
'sushi_'
'sunbed_'
'sums_'
'suitethe_'
'sufficed_'
'substitute_'
'subsequently_'
'study_'
'stronger_'
'strobe_'
'strips_'
'stripes_'
'striking_'
'strike_'
'stressed_'
'streaming_'
'strangest_'
'straighten_'
'stopping_'
'steamy_'
'std_'
'stayroom_'
'static_'
'statement_'
'starters_'
'starched_'
'stanley_'
'stainless_'
'stadium_'
'stable_'
'sq_'
'spout_'
'sport_'
'spit_'
'spire_'
'spin_'
'spectacularly_'
'speaker_'
'spattered_'
'spatious_'
'sparsely_'
'sparkled_'
'sparkle_'
'soviet_'
'souvenir_'
'southwestern_'
'sothe_'
'sorting_'
'soothing_'
'soooo_'
'solve_'
'sofitels_'
'sober_'
'sneezing_'
'sneeze_'
'smudged_'
'sludge_'
'slots_'
'sliver_'
'slices_'
'sleepthe_'
'slated_'
'slate_'
'slam_'
'sirens_'
'sir_'
'silly_'
'silk_'
'sickly_'
'shutting_'
'showerwe_'
'shoot_'
'shoebox_'
'shifted_'
'shed_'
'shard_'
'shaft_'
'shadow_'
'sewing_'
'servers_'
'server_'
'series_'
'seater_'
'searching_'
'seam_'
'score_'
'scenery_'
'scarred_'
'scaffolding_'
'satisfy_'
'sanitizing_'
'samsung_'
'salon_'
'sagged_'
'sachet_'
'rumpled_'
'rules_'
'rubbed_'
'rowdy_'
'rotted_'
'roth_'
'roon_'
'roomthere_'
'roomour_'
'roomhotel_'
'roombreakfast_'
'roofs_'
'rods_'
'riverside_'
'rickety_'
'rice_'
'reused_'
'retirement_'
'rethink_'
'retains_'
'resting_'
'respectful_'
'respectable_'
'resorted_'
'resembled_'
'requiring_'
'renos_'
'render_'
'remotely_'
'reminders_'
'remembers_'
'remake_'
'rely_'
'relieved_'
'relevant_'
'regal_'
'refurnished_'
'refined_'
'ref_'
'reeking_'
'reduce_'
'recommendations_'
'recognise_'
'realizing_'
'reaching_'
'razors_'
'rattled_'
'ramada_'
'radiators_'
'rabbit_'
'quirks_'
'quilts_'
'quietly_'
'quietest_'
'quicker_'
'quibbles_'
'queried_'
'pulls_'
'ps_'
'provision_'
'proud_'
'proportions_'
'produce_'
'procedure_'
'prob_'
'primary_'
'preserved_'
'powered_'
'potions_'
'popping_'
'polynesian_'
'polyester_'
'poky_'
'pockets_'
'pocket_'
'plywood_'
'plunge_'
'players_'
'pitted_'
'pit_'
'pipework_'
'pills_'
'physically_'
'philadelphia_'
'petals_'
'personable_'
'permitted_'
'percent_'
'pencil_'
'peering_'
'pax_'
'patching_'
'passport_'
'passageway_'
'partition_'
'parker_'
'panes_'
'pancake_'
'palms_'
'painless_'
'paddington_'
'packaging_'
'overs_'
'overnighter_'
'ought_'
'ornate_'
'organic_'
'operator_'
'operations_'
'operational_'
'operating_'
'opera_'
'onthe_'
'omelette_'
'olive_'
'okey_'
'offputting_'
'offensive_'
'odours_'
'oceanview_'
'occupiers_'
'obstructed_'
'observations_'
'object_'
'oatmeal_'
'notices_'
'nope_'
'nook_'
'noodles_'
'ninth_'
'nikko_'
'nightstands_'
'nicotine_'
'nickel_'
'niceour_'
'network_'
'nd_'
'nauseous_'
'na_'
'mustard_'
'mush_'
'murky_'
'mum_'
'muggy_'
'muffins_'
'mud_'
'mrt_'
'movement_'
'movable_'
'mouthwash_'
'motor_'
'motion_'
'moth_'
'mordern_'
'monkeys_'
'monitored_'
'modernizing_'
'modernise_'
'mm_'
'miserably_'
'mis_'
'minuscule_'
'mints_'
'midweek_'
'microscopic_'
'mexico_'
'metropole_'
'mermaid_'
'meriton_'
'melted_'
'mega_'
'maximum_'
'mattered_'
'mass_'
'markings_'
'marginally_'
'maps_'
'mandarin_'
'manages_'
'malls_'
'maintaned_'
'maintainance_'
'madhouse_'
'mad_'
'machinery_'
'macdonalds_'
'lunchtime_'
'lump_'
'loving_'
'loveseat_'
'losing_'
'longue_'
'longest_'
'lone_'
'logo_'
'lobbythe_'
'listened_'
'lino_'
'linnen_'
'lingers_'
'lifeless_'
'library_'
'lg_'
'lenses_'
'learning_'
'lawn_'
'laughlin_'
'laughed_'
'laughable_'
'laptops_'
'landings_'
'lanai_'
'lan_'
'ladder_'
'lackluster_'
'labor_'
'labeled_'
'label_'
'kuerig_'
'knowledgeable_'
'knives_'
'knee_'
'kicking_'
'keycard_'
'jury_'
'joints_'
'jimbaran_'
'jetlag_'
'jan_'
'itwe_'
'itrooms_'
'itching_'
'isolated_'
'intend_'
'intact_'
'inspired_'
'inquired_'
'inoperable_'
'injection_'
'ini_'
'infection_'
'inexplicably_'
'individually_'
'indicator_'
'increasingly_'
'inconsistency_'
'inappropriate_'
'imprint_'
'imaginative_'
'illusion_'
'identity_'
'identical_'
'ic_'
'hype_'
'hygienically_'
'hydro_'
'hyatts_'
'husbands_'
'humming_'
'hues_'
'hr_'
'hotelwe_'
'hotelrooms_'
'hote_'
'hostess_'
'horizon_'
'hood_'
'honoured_'
'hitch_'
'hello_'
'hearing_'
'healthy_'
'hdtv_'
'hbo_'
'haunted_'
'hastily_'
'harvester_'
'handling_'
'handing_'
'handheld_'
'hamptons_'
'hammering_'
'hadwe_'
'h_'
'gunk_'
'guide_'
'grumpy_'
'grow_'
'grosvenor_'
'gripes_'
'grills_'
'greetings_'
'gravel_'
'granola_'
'granddaughter_'
'government_'
'gon_'
'goings_'
'glossy_'
'glacier_'
'ghost_'
'getaway_'
'germany_'
'genuine_'
'gently_'
'gentleman_'
'gentle_'
'generator_'
'generation_'
'gem_'
'gbp_'
'gaffer_'
'furniturethe_'
'fry_'
'frustrated_'
'friendlythe_'
'freindly_'
'freeway_'
'foyers_'
'formal_'
'forgiven_'
'forgive_'
'foodthe_'
'flushes_'
'floored_'
'flashlight_'
'flaky_'
'flakes_'
'fireplaces_'
'fills_'
'fight_'
'featuring_'
'fawlty_'
'fatigue_'
'fastidiously_'
'faster_'
'familiar_'
'faces_'
'fabulously_'
'f_'
'exudes_'
'exude_'
'extravagant_'
'extortionate_'
'extensively_'
'experiencing_'
'expense_'
'exorbitant_'
'exists_'
'existing_'
'exhausting_'
'exemplary_'
'excrement_'
'excitement_'
'excellence_'
'excellant_'
'erratic_'
'equal_'
'eqipped_'
'enthusiastic_'
'entertaining_'
'enormously_'
'engineering_'
'enable_'
'emails_'
'el_'
'eighth_'
'ed_'
'dutch_'
'dustythe_'
'duplex_'
'dumpy_'
'dumpster_'
'duly_'
'drury_'
'drew_'
'drape_'
'dragging_'
'drag_'
'drafty_'
'downs_'
'dot_'
'doorthe_'
'doormen_'
'doorman_'
'docklands_'
'distinctive_'
'dissapointing_'
'disrupted_'
'disposal_'
'displayed_'
'disneyworld_'
'dismissed_'
'disinterested_'
'dishwashing_'
'disapointed_'
'dis_'
'dirtythe_'
'dirtybut_'
'directory_'
'direction_'
'dinners_'
'ding_'
'differently_'
'didn_'
'developed_'
'detracted_'
'desktop_'
'depressingly_'
'dental_'
'demand_'
'deli_'
'dehumidifiers_'
'dehumidifier_'
'deficiencies_'
'defects_'
'deer_'
'decorthe_'
'decline_'
'deals_'
'datedthe_'
'data_'
'darkened_'
'dared_'
'danish_'
'danger_'
'cycles_'
'custom_'
'crumbled_'
'crowds_'
'criticisms_'
'creature_'
'creating_'
'creamer_'
'crates_'
'cranky_'
'crabtree_'
'coving_'
'countless_'
'cough_'
'cosmopolitan_'
'corporation_'
'core_'
'cords_'
'cordless_'
'conventional_'
'controllable_'
'contains_'
'constructed_'
'consisting_'
'connectivity_'
'connaught_'
'congealed_'
'confusion_'
'configured_'
'complains_'
'compete_'
'compensate_'
'companion_'
'commended_'
'comfyroom_'
'comfyit_'
'comfotable_'
'comfortableit_'
'colombo_'
'cologne_'
'collapse_'
'coleslaw_'
'coffeethe_'
'coffeemakers_'
'cody_'
'coarse_'
'clever_'
'clearing_'
'cleansing_'
'cleanmy_'
'cleanly_'
'cleanerthe_'
'cleanas_'
'claim_'
'chronic_'
'chintzy_'
'chemically_'
'cheaply_'
'chargers_'
'chambermaid_'
'challenged_'
'cesar_'
'cereals_'
'cd_'
'cavernous_'
'cave_'
'caution_'
'casters_'
'carvery_'
'carries_'
'carpetthe_'
'capsules_'
'canary_'
'california_'
'cage_'
'cabanas_'
'bygone_'
'buzzing_'
'butour_'
'butlins_'
'butler_'
'buta_'
'burner_'
'bungalow_'
'bunched_'
'buffets_'
'buckling_'
'bubbling_'
'bristol_'
'brings_'
'brew_'
'breakfastit_'
'breads_'
'brasserie_'
'branding_'
'boxy_'
'bourbon_'
'bot_'
'bore_'
'boots_'
'bolt_'
'blush_'
'bleaching_'
'blame_'
'blah_'
'biting_'
'bite_'
'bills_'
'billed_'
'benches_'
'belongs_'
'belonging_'
'beit_'
'befitting_'
'bee_'
'bedit_'
'bedclothes_'
'bedbut_'
'bedand_'
'becomes_'
'beats_'
'bead_'
'beachfront_'
'beaches_'
'bbc_'
'bathroon_'
'bathroomroom_'
'bathroomit_'
'bathe_'
'basketball_'
'barrier_'
'barking_'
'bandwidth_'
'ban_'
'balanced_'
'baking_'
'backpackers_'
'award_'
'attempting_'
'attachment_'
'aswell_'
'astoria_'
'asthe_'
'assuming_'
'ashes_'
'artsy_'
'arguably_'
'arcade_'
'appeal_'
'appartment_'
'appalled_'
'app_'
'apologised_'
'apologies_'
'antiseptic_'
'antiques_'
'anonymous_'
'ankle_'
'angel_'
'andyou_'
'andwhen_'
'andthey_'
'andon_'
'andhowever_'
'andbathroom_'
'andaz_'
'ana_'
'americans_'
'amd_'
'alongside_'
'allocate_'
'alittle_'
'airports_'
'airplanes_'
'againthe_'
'affect_'
'aesthetically_'
'advert_'
'adventure_'
'adjustment_'
'adjusting_'
'acted_'
'acknowledge_'
'accomodate_'
'accident_'
'accents_'
'abound_'
'aback_'
'aaa_'
'?_'
'701_'
'68_'
'630_'
'616_'
'600_'
'5star_'
'48_'
'450_'
'44th_'
'446_'
'41_'
'40th_'
'36_'
'20pm_'
'209_'
'205_'
'2019_'
'1900_'
'115_'
'114_'
'111_'
'110_'
'10pm_'
'109_'
'09_'
',(_'
'),_'
') _'
'$_'
' •_'
' ’ , _'
' ? ? ? ?_'
' ; - _'
' ; ( _'
' :(_'
' .• _'
' .[ _'
' .:) _'
' ... ?_'
' ... ) ._'
' .--_'
' .--- _'
' . ! !_'
' , - _'
' , $ _'
' +_'
' ) ,_'
' ' ( _'
' &_'
' " ) _'
' !- _'
' ! ._'
' ! - _'
'£ _'
'zone_'
'zealand_'
'yukky_'
'yrs_'
'yours_'
'yavapai_'
'yards_'
'yard_'
'xanterra_'
'wyndham_'
'ws_'
'wreck_'
'wrapping_'
'wound_'
'worlds_'
'workman_'
'worker_'
'woefully_'
'wlan_'
'withthe_'
'wishing_'
'winning_'
'winner_'
'widely_'
'wholes_'
'westfield_'
'wembley_'
'wellroom_'
'wellour_'
'welland_'
'weirdly_'
'weighing_'
'weeds_'
'weddings_'
'weatherbeaten_'
'wax_'
'waterthe_'
'waterloo_'
'wasmy_'
'wasi_'
'washclothes_'
'wasand_'
'warp_'
'warming_'
'wanna_'
'waitstaff_'
'waitresses_'
'wafts_'
'vip_'
'vertical_'
'verify_'
'verandah_'
'ver_'
'venues_'
'ventured_'
'venetian_'
'venerable_'
'vegetables_'
'varying_'
'vancouver_'
'valve_'
'valued_'
'valuable_'
'vacumed_'
'vaccumed_'
'utilise_'
'users_'
'upwards_'
'upright_'
'upload_'
'upfront_'
'unwanted_'
'unstable_'
'unpainted_'
'unlikely_'
'university_'
'uninteresting_'
'uniformly_'
'uni_'
'unflushed_'
'unexpectedly_'
'undoubtedly_'
'understands_'
'understandably_'
'undersheet_'
'underlying_'
'undergo_'
'uncommon_'
'uncluttered_'
'uncared_'
'ultimate_'
'turnaround_'
'tunnel_'
'tune_'
'tumblers_'
'tumbler_'
'triangular_'
'trend_'
'trekking_'
'treadmill_'
'tread_'
'transformation_'
'transferred_'
'trails_'
'trailer_'
'tracked_'
'tourism_'
'toured_'
'toothpick_'
'tool_'
'toliets_'
'tolietries_'
'toes_'
'tiredwe_'
'tiredand_'
'tilework_'
'tied_'
'tidyrooms_'
'tidyi_'
'ticket_'
'throughput_'
'throat_'
'thousands_'
'thomas_'
'theming_'
'theater_'
'terraces_'
'tenth_'
'tenant_'
'tempted_'
'temps_'
'telephones_'
'teh_'
'teething_'
'teen_'
'technical_'
'teaspoon_'
'tearing_'
'taxis_'
'tarted_'
'tartan_'
'taller_'
'takeaway_'
'swung_'
'swivel_'
'swiss_'
'swirly_'
'swiftly_'
'swedish_'
'swap_'
'sw_'
'survive_'
'surcharge_'
'suprisingly_'
'supremely_'
'supportive_'
'sunscreen_'
'sunrise_'
'sundries_'
'sunbathing_'
'summoned_'
'sule_'
'suggesting_'
'sucks_'
'success_'
'subtle_'
'substantially_'
'subsequent_'
'stunningly_'
'stuffs_'
'stuffing_'
'struggles_'
'stringy_'
'string_'
'strikes_'
'strictly_'
'strawberries_'
'stranded_'
'strand_'
'stores_'
'stole_'
'stickers_'
'sticker_'
'stellar_'
'steaks_'
'stayour_'
'staybut_'
'starbuck_'
'staples_'
'staple_'
'standpoint_'
'standardsthe_'
'stamford_'
'staircases_'
'staffthis_'
'staffour_'
'staffing_'
'squishy_'
'squeezy_'
'squeeky_'
'squeamish_'
'squeaks_'
'squares_'
'spy_'
'sprung_'
'springy_'
'spotlessley_'
'sporting_'
'spoil_'
'splintered_'
'spilling_'
'spillage_'
'spiffy_'
'speck_'
'specify_'
'specification_'
'speaks_'
'speakers_'
'spas_'
'spaciuos_'
'spaciouswe_'
'spaciousness_'
'spacios_'
'sought_'
'sooner_'
'someplace_'
'solutions_'
'soil_'
'softener_'
'snorkeling_'
'snore_'
'sneakers_'
'snapped_'
'smiles_'
'smellies_'
'smashing_'
'smal_'
'slower_'
'slid_'
'slanted_'
'slammed_'
'slack_'
'slabs_'
'skyscraper_'
'skybar_'
'skirts_'
'skirtings_'
'sixties_'
'sinus_'
'sinkthe_'
'sinking_'
'sing_'
'similarities_'
'silverfish_'
'signposted_'
'sighted_'
'sideboard_'
'shuttles_'
'shrimp_'
'showerroom_'
'showergel_'
'showerbut_'
'showera_'
'shorter_'
'shopworn_'
'shoddily_'
'shinjuku_'
'shiney_'
'sheers_'
'shavings_'
'shaky_'
'shaking_'
'shag_'
'shady_'
'shaded_'
'shabbiness_'
'shabbier_'
'sex_'
'servicebut_'
'serene_'
'separately_'
'senses_'
'sending_'
'seeped_'
'seep_'
'secret_'
'seaweed_'
'sealing_'
'sealer_'
'scrumptious_'
'scream_'
'scratching_'
'scraping_'
'scones_'
'scabby_'
'savings_'
'saver_'
'saturated_'
'satisfactorily_'
'sanitizer_'
'sanitize_'
'sanitised_'
'sandwiched_'
'sanctum_'
'salts_'
'sake_'
'sage_'
'saftey_'
'safer_'
'runners_'
'rum_'
'rucked_'
'rub_'
'roughly_'
'rot_'
'roomyou_'
'roomwhen_'
'roomwas_'
'roomsrooms_'
'roomsit_'
'roomnot_'
'roommy_'
'roomier_'
'roombathroom_'
'roms_'
'romance_'
'roman_'
'rollers_'
'rogue_'
'roanoke_'
'roam_'
'rink_'
'ringing_'
'rides_'
'ridden_'
'ribs_'
'rewarded_'
'reward_'
'revolving_'
'reverse_'
'reveals_'
'revealing_'
'reuse_'
'reunion_'
'retractable_'
'retaining_'
'resonably_'
'research_'
'repulsive_'
'represents_'
'represent_'
'replaces_'
'replacements_'
'repellent_'
'rentals_'
'renovatedthe_'
'removal_'
'remotes_'
'remnant_'
'reminding_'
'remedy_'
'remedied_'
'remarkable_'
'relocate_'
'reliably_'
'rejected_'
'regulars_'
'regrouting_'
'regrettably_'
'regret_'
'registered_'
'reflecting_'
'refinishing_'
'refills_'
'referring_'
'reek_'
'reduction_'
'redeeming_'
'redecorate_'
'reddish_'
'rectify_'
'recovery_'
'recommending_'
'recharge_'
'readers_'
'ray_'
'rave_'
'ratings_'
'rarity_'
'ranking_'
'rank_'
'rains_'
'railing_'
'raided_'
'raffles_'
'quid_'
'queuing_'
'query_'
'quays_'
'quantities_'
'purchases_'
'puff_'
'prove_'
'protective_'
'proportion_'
'prop_'
'promoting_'
'promising_'
'promises_'
'profile_'
'proceed_'
'problematic_'
'pristinely_'
'printers_'
'primitive_'
'premise_'
'prefered_'
'preferable_'
'predictably_'
'precor_'
'precisely_'
'prague_'
'practices_'
'powerpoints_'
'powerpoint_'
'powdery_'
'pounding_'
'potatoes_'
'posting_'
'posters_'
'pose_'
'portrayed_'
'portland_'
'pork_'
'population_'
'popped_'
'poolthe_'
'pollution_'
'politely_'
'policed_'
'pole_'
'poking_'
'poker_'
'pointless_'
'pn_'
'pmthe_'
'ply_'
'plump_'
'plugging_'
'pleasent_'
'played_'
'plastics_'
'plasterwork_'
'plasterboard_'
'plainly_'
'placemat_'
'pjs_'
'pizzas_'
'pitched_'
'piped_'
'pilled_'
'pill_'
'piling_'
'photographs_'
'photograph_'
'pest_'
'pesky_'
'persisted_'
'perks_'
'percolator_'
'penny_'
'penetrated_'
'peas_'
'pea_'
'pays_'
'payed_'
'pavillion_'
'patterns_'
'patrons_'
'patient_'
'pasted_'
'pasta_'
'password_'
'passports_'
'passion_'
'parlor_'
'paperwork_'
'panorama_'
'pane_'
'pancras_'
'pampered_'
'pajamas_'
'painfully_'
'paddle_'
'packs_'
'packaged_'
'pace_'
'pa_'
'owns_'
'owing_'
'overwhelmingly_'
'overnite_'
'overdose_'
'overdone_'
'overbooked_'
'overbearing_'
'overallthe_'
'overal_'
'outweigh_'
'outsidethe_'
'oslo_'
'origin_'
'orientated_'
'organization_'
'orderthe_'
'oppressive_'
'openthe_'
'omelet_'
'oldit_'
'olde_'
'okbut_'
'offthe_'
'occassion_'
'obtained_'
'obtain_'
'observation_'
'obscured_'
'objects_'
'oasis_'
'nutshell_'
'nuts_'
'nut_'
'nursing_'
'np_'
'nottingham_'
'notify_'
'noticable_'
'noteworthy_'
'nostalgia_'
'nordic_'
'nooks_'
'nonsense_'
'noisythe_'
'noisily_'
'nites_'
'nit_'
'nipping_'
'nightmy_'
'niggling_'
'nick_'
'newcastle_'
'nephew_'
'negotiate_'
'needle_'
'neededthe_'
'necessity_'
'navajo_'
'nauseating_'
'nappy_'
'namethe_'
'naff_'
'nacional_'
'mysteriously_'
'muted_'
'movements_'
'mortified_'
'morningand_'
'moreover_'
'moorea_'
'moody_'
'monaco_'
'mode_'
'mo_'
'mittens_'
'mites_'
'mite_'
'mistakenly_'
'missingthe_'
'misleading_'
'minibars_'
'mileage_'
'mildewed_'
'midday_'
'microwaved_'
'metropolitan_'
'methe_'
'messes_'
'mesh_'
'merits_'
'menus_'
'memories_'
'meh_'
'mediocrity_'
'medicine_'
'medication_'
'mechanical_'
'maui_'
'mature_'
'mastic_'
'masses_'
'masking_'
'maroon_'
'marker_'
'maria_'
'marginal_'
'marathon_'
'manufactured_'
'manicure_'
'males_'
'malaysia_'
'maintenace_'
'maintance_'
'maintainedand_'
'mains_'
'magnolia_'
'machu_'
'm6_'
'm2_'
'luxuriously_'
'lovley_'
'lounger_'
'loop_'
'longleat_'
'lockable_'
'loan_'
'loading_'
'livingroom_'
'liver_'
'littering_'
'litte_'
'lite_'
'listening_'
'linked_'
'limit_'
'lightshades_'
'lightly_'
'liberally_'
'lexington_'
'lesson_'
'lemon_'
'lease_'
'leans_'
'leaning_'
'leaf_'
'layouts_'
'laugh_'
'latte_'
'largethe_'
'lanvin_'
'lanka_'
'lane_'
'laminated_'
'lame_'
'lag_'
'ladders_'
'lacklustre_'
'ks_'
'kneel_'
'kitchenthe_'
'kiss_'
'killing_'
'kick_'
'kg_'
'keyboard_'
'kettles_'
'keepers_'
'kalahari_'
'jumping_'
'jumper_'
'jugs_'
'joint_'
'jewel_'
'jazz_'
'jamie_'
'james_'
'jamb_'
'jacuzzis_'
'jack_'
'iti_'
'itch_'
'irritant_'
'ireland_'
'inward_'
'invisible_'
'investigated_'
'intrusive_'
'intrusion_'
'intimate_'
'intervals_'
'intercon_'
'interacted_'
'instructed_'
'institution_'
'installations_'
'inspite_'
'insides_'
'inquire_'
'ingress_'
'ingredients_'
'infront_'
'inferior_'
'infact_'
'inexplicable_'
'individuals_'
'indicators_'
'indentations_'
'inconsiderate_'
'incomplete_'
'inclusive_'
'inclined_'
'incandescent_'
'immaculatethe_'
'images_'
'imaculate_'
'iffy_'
'identify_'
'identified_'
'ideas_'
'iceland_'
'humidifier_'
'hugh_'
'hugely_'
'hovering_'
'hottest_'
'hotelroom_'
'hotelmy_'
'hosting_'
'hostels_'
'horns_'
'horn_'
'horizontal_'
'hop_'
'honeymoon_'
'homestead_'
'homemade_'
'holland_'
'holds_'
'hoards_'
'hmmmm_'
'hindsight_'
'hiccups_'
'hibiscus_'
'herethe_'
'hem_'
'hefty_'
'heel_'
'heaven_'
'heatwave_'
'heap_'
'haven_'
'hat_'
'hardest_'
'happier_'
'haphazardly_'
'haphazard_'
'hangover_'
'handyman_'
'handsoap_'
'hairy_'
'hairdrier_'
'habitable_'
'gyms_'
'gutted_'
'gurgled_'
'gunge_'
'guinness_'
'grubbythe_'
'grubbiness_'
'grouse_'
'groupon_'
'groceries_'
'grays_'
'grateful_'
'grandchildren_'
'gran_'
'graciously_'
'gps_'
'golden_'
'gloss_'
'glorified_'
'global_'
'glitch_'
'glassed_'
'glare_'
'glamour_'
'girlfriend_'
'gf_'
'gaudy_'
'gathered_'
'garde_'
'gaping_'
'gaming_'
'gain_'
'fuzzy_'
'futuristic_'
'furnature_'
'fulfils_'
'froze_'
'frontier_'
'freshthe_'
'frenetic_'
'freethe_'
'fountains_'
'forms_'
'forks_'
'fogging_'
'fog_'
'fluffiest_'
'flown_'
'flowed_'
'floridian_'
'floorso_'
'flexible_'
'flawlessly_'
'flapping_'
'fixings_'
'fixes_'
'finds_'
'filthiest_'
'file_'
'fever_'
'fedex_'
'febreze_'
'febreeze_'
'fax_'
'favourites_'
'fastest_'
'fairy_'
'failing_'
'faeces_'
'facilites_'
'facilitate_'
'exterminator_'
'exteriors_'
'extends_'
'ext_'
'expresso_'
'expression_'
'expressed_'
'exposing_'
'exploded_'
'explode_'
'explicitly_'
'explains_'
'explaining_'
'existant_'
'exclusive_'
'excluding_'
'exceptions_'
'excelent_'
'ex_'
'everyting_'
'evelyn_'
'eu_'
'estate_'
'escorted_'
'es_'
'er_'
'epcot_'
'environmentally_'
'envelopes_'
'entryway_'
'entrances_'
'entirety_'
'entertained_'
'enters_'
'engine_'
'encrusted_'
'employed_'
'emphasis_'
'emitting_'
'emailed_'
'eliminate_'
'elephants_'
'electrics_'
'elbows_'
'eighties_'
'eiffel_'
'effects_'
'edwardian_'
'edgy_'
'echo_'
'eateries_'
'ease_'
'eared_'
'dumping_'
'ducts_'
'dual_'
'droning_'
'drill_'
'drenching_'
'drenched_'
'draws_'
'drawing_'
'draught_'
'drastically_'
'drastic_'
'downgrade_'
'downer_'
'doorstep_'
'dnd_'
'diy_'
'distressed_'
'dissapointment_'
'disposed_'
'disinfected_'
'disguised_'
'discussing_'
'discoloration_'
'discernible_'
'disappear_'
'dirtiness_'
'dinghy_'
'diligent_'
'diffuser_'
'difficulties_'
'differences_'
'diego_'
'dickens_'
'dicey_'
'diaper_'
'development_'
'detracts_'
'deterioration_'
'deteriorating_'
'detector_'
'detached_'
'desparately_'
'descript_'
'describes_'
'denying_'
'dent_'
'denied_'
'den_'
'demonstrates_'
'demolition_'
'demolished_'
'delegates_'
'definitively_'
'deficiency_'
'decore_'
'decaf_'
'dec_'
'daytime_'
'datedand_'
'darn_'
'dare_'
'dangerously_'
'dance_'
'dame_'
'damages_'
'curtainsthe_'
'curly_'
'cultural_'
'cubical_'
'cube_'
'crushed_'
'crummy_'
'croissants_'
'criticised_'
'criticise_'
'crispy_'
'crews_'
'creases_'
'creams_'
'creak_'
'crannies_'
'crackers_'
'cow_'
'coverage_'
'cove_'
'courses_'
'coupled_'
'cottage_'
'costa_'
'corridoors_'
'corn_'
'cork_'
'coridor_'
'cooktop_'
'convince_'
'contractor_'
'contract_'
'continuing_'
'continual_'
'consumed_'
'consist_'
'considerations_'
'conservatory_'
'confy_'
'conformable_'
'confirming_'
'confidence_'
'conducive_'
'condoms_'
'conceirge_'
'compromised_'
'compliments_'
'complicated_'
'compliant_'
'comphy_'
'competitively_'
'competing_'
'compensation_'
'compensated_'
'comortable_'
'communist_'
'communication_'
'command_'
'comfyand_'
'comfortablewe_'
'comfortablerooms_'
'comfortableas_'
'combos_'
'combine_'
'columns_'
'coloring_'
'colorful_'
'colorado_'
'coincidence_'
'coils_'
'coffer_'
'cnn_'
'clunky_'
'climbed_'
'cleverly_'
'cleanwell_'
'cleanvery_'
'cleanup_'
'cleanon_'
'cleanno_'
'cleannice_'
'cleanhowever_'
'cleanedthe_'
'cleand_'
'cleanclean_'
'cleanbreakfast_'
'cleanbathroom_'
'cleanalso_'
'cleana_'
'classify_'
'classified_'
'classically_'
'classes_'
'claims_'
'claen_'
'civil_'
'citizen_'
'circles_'
'chunk_'
'choked_'
'chocs_'
'chipboard_'
'chewed_'
'cheesy_'
'cheeses_'
'cheerios_'
'chatrium_'
'charing_'
'chargeable_'
'chardonnay_'
'characterful_'
'certified_'
'centers_'
'celsius_'
'celebrating_'
'cedar_'
'causes_'
'casually_'
'casinos_'
'carriage_'
'carpetbut_'
'careworn_'
'capture_'
'captive_'
'capsule_'
'capable_'
'candle_'
'cancel_'
'camping_'
'camper_'
'calking_'
'caledonian_'
'calamari_'
'cafes_'
'cabinetry_'
'cabana_'
'bypass_'
'buyer_'
'butt_'
'butso_'
'butrooms_'
'butno_'
'butgood_'
'busier_'
'burgundy_'
'bureau_'
'bun_'
'bumpy_'
'bumps_'
'bull_'
'buffett_'
'buenos_'
'bud_'
'buckled_'
'bubbly_'
'bubbles_'
'brussels_'
'brunch_'
'browns_'
'brokenthe_'
'broadway_'
'brightened_'
'brekky_'
'breathing_'
'breakfastroom_'
'breakfastour_'
'breaker_'
'brands_'
'bowling_'
'bournemouth_'
'bothersome_'
'boss_'
'boon_'
'bomb_'
'bodied_'
'bo_'
'blows_'
'blissfully_'
'blend_'
'blemishes_'
'bleeding_'
'blasting_'
'blaring_'
'blank_'
'blackened_'
'bid_'
'bicycles_'
'berth_'
'bellhop_'
'believed_'
'belief_'
'behold_'
'begins_'
'beforethe_'
'beeping_'
'bedsroom_'
'bedsit_'
'beddingthe_'
'bedcover_'
'bearing_'
'bearable_'
'bc_'
'bayside_'
'bavarian_'
'bathtube_'
'bathso_'
'bathrrom_'
'bathroomsthe_'
'bathroomso_'
'bathroomrooms_'
'bathroomclean_'
'bathroombut_'
'bathrooma_'
'bathroo_'
'bathi_'
'bases_'
'bartenders_'
'bartender_'
'barrel_'
'barman_'
'banks_'
'bamboo_'
'baltic_'
'ballrooms_'
'balled_'
'baked_'
'badbut_'
'backwards_'
'backthe_'
'backside_'
'backs_'
'backroom_'
'ba_'
'avant_'
'avail_'
'autobahn_'
'aunt_'
'attire_'
'attaching_'
'atrocious_'
'athens_'
'assure_'
'associates_'
'associate_'
'ashley_'
'arrives_'
'arora_'
'arise_'
'argument_'
'arguing_'
'areathe_'
'areasthe_'
'aramark_'
'aquarius_'
'apt_'
'appointment_'
'applies_'
'appetizing_'
'anybody_'
'anticipating_'
'antibacterial_'
'answering_'
'annual_'
'annexe_'
'andstill_'
'andnot_'
'andin_'
'andfirst_'
'andeverything_'
'anddo_'
'andas_'
'amusing_'
'amused_'
'amply_'
'amenites_'
'ambient_'
'algae_'
'alerted_'
'alert_'
'alarms_'
'airing_'
'aires_'
'airconditioned_'
'aimed_'
'aim_'
'aids_'
'ahd_'
'agoda_'
'afternoons_'
'afterall_'
'affiliated_'
'aesthetic_'
'advanced_'
'addressing_'
'adapted_'
'active_'
'acknowledging_'
'ache_'
'accordingly_'
'accompanying_'
'accompanied_'
'accessibility_'
'accepting_'
'absurdly_'
'abrupt_'
'abroad_'
'abrasive_'
'[_'
'; _'
':) _'
'91_'
'85_'
'72_'
'722_'
'625_'
'5pm_'
'59_'
'50s_'
'503_'
'49_'
'426_'
'420_'
'39th_'
'388_'
'37th_'
'36th_'
'360_'
'326_'
'31_'
'314_'
'28th_'
'270_'
'240_'
'230_'
'204_'
'2008_'
'2006_'
'1995_'
'1982_'
'1974_'
'1900s_'
'165_'
'15pm_'
'15am_'
'151_'
'139_'
'135_'
'10am_'
'105_'
'102_'
'00p_'
',._'
', ( _'
'*_'
'*. _'
'& _'
'!._'
'!!. _'
' ”_'
' ’ ._'
' ° _'
' ] , _'
' @ $ _'
' ? ? )_'
' ? ._'
' ? ) ; _'
' ? ! ?_'
' > _'
' = _'
' :-( _'
' : * _'
' : " _'
' .… _'
' .“ _'
' .........._'
' ........ _'
' .' _'
' . ' _'
' . !_'
' ---_'
' -, _'
' - ( _'
' - $ _'
' , ...._'
' , ... ) ._'
' , , , _'
' )- _'
' ) : _'
' ) .( _'
' ( & _'
' ( " _'
' " ? _'
' " ; _'
' " : _'
' " ..._'
' " -- _'
' " !_'
' ! ! ) _'
' ! ! ! )_'
'️ _'
'” _'
'“ _'
'‘ _'
'z_'
'yup_'
'yukata_'
'yikes_'
'yetthe_'
'yea_'
'yay_'
'xi_'
'wynn_'
'wright_'
'wretched_'
'wrecked_'
'worstthe_'
'worsemy_'
'wornthe_'
'worldy_'
'workso_'
'workour_'
'woolstore_'
'woodchip_'
'wonderfull_'
'wobbled_'
'withdraw_'
'witha_'
'wire_'
'windy_'
'windowsills_'
'windowsand_'
'willingly_'
'wildly_'
'wih_'
'wifithe_'
'wifiour_'
'wifiit_'
'wifii_'
'widow_'
'wider_'
'wicker_'
'whomever_'
'wholly_'
'whisked_'
'whirlwind_'
'whine_'
'whimsy_'
'whilethe_'
'whereby_'
'wher_'
'wheezing_'
'wheel_'
'westminster_'
'wes_'
'wereclean_'
'welsh_'
'wellness_'
'wellbut_'
'welcomes_'
'wel_'
'weirdest_'
'weigh_'
'weekthe_'
'wedges_'
'watt_'
'waterworks_'
'waterslide_'
'wateringly_'
'watered_'
'wastethe_'
'wast_'
'wasso_'
'wasroom_'
'wasp_'
'wasok_'
'wasno_'
'warnings_'
'warmthe_'
'warmit_'
'warehouse_'
'wandered_'
'wander_'
'wand_'
'wan_'
'wallsthe_'
'walkin_'
'waived_'
'waist_'
'wafted_'
'waft_'
'vowed_'
'voices_'
'vodka_'
'visitthe_'
'vision_'
'virtual_'
'virginia_'
'viq_'
'viewthe_'
'viewit_'
'vice_'
'vibration_'
'vibrated_'
'vertically_'
'veritable_'
'verified_'
'verde_'
'venting_'
'vendors_'
'vein_'
'vegetarians_'
'vase_'
'varies_'
'variation_'
'vanishing_'
'values_'
'vaguely_'
'vague_'
'vacuums_'
'vacumn_'
'vacum_'
'vaccuum_'
'vacations_'
'utilize_'
'utah_'
'usethe_'
'urinals_'
'urge_'
'urban_'
'uptodate_'
'upsatirs_'
'uplifting_'
'upit_'
'uphold_'
'upended_'
'updatingthe_'
'updatedthe_'
'unwrapped_'
'untuck_'
'untreated_'
'unswept_'
'unsupervised_'
'unsuccessful_'
'unsettling_'
'unserviced_'
'unseen_'
'unsecure_'
'unscrew_'
'unreplaced_'
'unreasonable_'
'unprofessional_'
'unobtrusively_'
'unnoticed_'
'unnamed_'
'unlit_'
'universally_'
'united_'
'unisex_'
'uniquely_'
'uninhabitable_'
'unimpressed_'
'uniform_'
'unfussy_'
'unfurled_'
'unfilled_'
'unexplained_'
'uneaten_'
'undue_'
'undisturbed_'
'undertaking_'
'underpants_'
'underfoot_'
'underfloor_'
'undamaged_'
'uncut_'
'uncoordinated_'
'uncomfy_'
'uncollected_'
'uncleanliness_'
'unavoidable_'
'uluru_'
'ugliest_'
'tweets_'
'tvmy_'
'turpentine_'
'turnoff_'
'turf_'
'tuned_'
'tugged_'
'tucking_'
'tubthe_'
'ts_'
'trusted_'
'trunks_'
'trump_'
'truely_'
'trucks_'
'troubles_'
'tropicana_'
'triples_'
'trims_'
'trimming_'
'trimmed_'
'trickling_'
'tribeca_'
'triangle_'
'travelodges_'
'trashy_'
'trappings_'
'transpired_'
'transition_'
'transfers_'
'transactional_'
'trainers_'
'trainer_'
'trainee_'
'trailing_'
'trailers_'
'tradition_'
'trading_'
'tracking_'
'towls_'
'towles_'
'towelsit_'
'towelettes_'
'tout_'
'tournament_'
'tougher_'
'toss_'
'torture_'
'torrential_'
'torch_'
'topnotch_'
'tonight_'
'tongue_'
'tongs_'
'toned_'
'tomato_'
'tom_'
'toll_'
'tolerated_'
'tolerably_'
'toilitries_'
'toiletthe_'
'toilettes_'
'toiletriesthe_'
'toiletories_'
'toiletires_'
'toggle_'
'toffee_'
'toenails_'
'toddler_'
'todays_'
'toasty_'
'titles_'
'titled_'
'tiredour_'
'tiredit_'
'tiredhowever_'
'tiolet_'
'tinge_'
'timeshares_'
'timeour_'
'timei_'
'timeand_'
'tightly_'
'ties_'
'tidywe_'
'tidythis_'
'tidythey_'
'tidyroom_'
'tidiness_'
'tide_'
'ticking_'
'tic_'
'ti_'
'thumb_'
'throwing_'
'thrift_'
'thousand_'
'thouroughly_'
'thoughout_'
'thirteenth_'
'thinthe_'
'thingthis_'
'thickness_'
'thickly_'
'thickest_'
'thermostats_'
'thereso_'
'thereit_'
'ther_'
'themso_'
'themroom_'
'themi_'
'thei_'
'thatvery_'
'thatthe_'
'thanksgiving_'
'thanking_'
'thankful_'
'textured_'
'texas_'
'testament_'
'terry_'
'terracotta_'
'tens_'
'tending_'
'tender_'
'tendency_'
'tenaya_'
'tenants_'
'temporarily_'
'telephoned_'
'teens_'
'technologically_'
'technological_'
'teaspoons_'
'teams_'
'teacups_'
'teach_'
'teabag_'
'tbh_'
'tawdry_'
'tavern_'
'tattythe_'
'tattoos_'
'tasmanian_'
'target_'
'tara_'
'tapas_'
'tahiti_'
'tacs_'
'tacks_'
'tablethe_'
'tab_'
'syrup_'
'sympathetic_'
'switchable_'
'swisshotel_'
'swimmingpool_'
'swimmable_'
'swiming_'
'sweltering_'
'sweltered_'
'sway_'
'swans_'
'swabs_'
'swab_'
'suspended_'
'suspected_'
'survey_'
'surgery_'
'surf_'
'suprising_'
'suprise_'
'supporting_'
'supplying_'
'supplement_'
'suposed_'
'supervision_'
'supervised_'
'supermarkets_'
'suntan_'
'sunshine_'
'sunsets_'
'sunrises_'
'sunken_'
'sunk_'
'sundry_'
'summed_'
'sulfur_'
'suggests_'
'suggestions_'
'sugary_'
'suffers_'
'suction_'
'successfully_'
'succeeded_'
'suburbs_'
'subtropical_'
'submitted_'
'subject_'
'subdued_'
'stylist_'
'stunned_'
'stuffiness_'
'studying_'
'stubbed_'
'structural_'
'striving_'
'stripey_'
'striped_'
'streaked_'
'strawberry_'
'strap_'
'strangeways_'
'stranger_'
'strains_'
'strained_'
'straightening_'
'straighteners_'
'storing_'
'stones_'
'sting_'
'sticklers_'
'steer_'
'steady_'
'steadily_'
'staywe_'
'staymy_'
'stayalthough_'
'statues_'
'stationary_'
'stat_'
'starved_'
'startling_'
'stare_'
'standup_'
'standardshowever_'
'stampede_'
'stalwart_'
'staid_'
'staffso_'
'staffrooms_'
'staffroom_'
'stables_'
'stability_'
'ss_'
'squeezing_'
'squeaked_'
'sqm_'
'sqeaky_'
'sprinkled_'
'spottlessly_'
'spotter_'
'spotlesly_'
'sporadically_'
'spooky_'
'spongy_'
'spoils_'
'splitting_'
'splats_'
'splat_'
'spitting_'
'spits_'
'spirit_'
'spiderwebs_'
'spice_'
'speedily_'
'specks_'
'specifics_'
'speakerphone_'
'spay_'
'spathe_'
'spark_'
'spares_'
'spared_'
'spar_'
'spacous_'
'spaciousroom_'
'spaciousit_'
'spacethe_'
'southwest_'
'southbank_'
'soundly_'
'soothingly_'
'soothe_'
'sooo_'
'solidly_'
'soleil_'
'soldier_'
'soho_'
'softness_'
'social_'
'soaring_'
'soames_'
'snuck_'
'snoring_'
'smudge_'
'smoothed_'
'smocking_'
'smiley_'
'smellythe_'
'smelliest_'
'smelli_'
'smelland_'
'smella_'
'sme_'
'smartthe_'
'smarter_'
'smallness_'
'slowest_'
'sloped_'
'slope_'
'slightest_'
'slighly_'
'sleeves_'
'sleepy_'
'sleepwe_'
'sleepour_'
'sleepless_'
'sleepand_'
'slats_'
'slab_'
'skyscrapers_'
'skunk_'
'skinny_'
'skimpy_'
'skimmed_'
'skills_'
'skill_'
'skid_'
'ski_'
'skeptical_'
'skating_'
'skanky_'
'sizerooms_'
'sizei_'
'sizea_'
'sited_'
'sisters_'
'sipped_'
'sinuses_'
'sin_'
'simultaneously_'
'simpler_'
'signify_'
'signals_'
'sightsee_'
'sidewalk_'
'sidethe_'
'shutter_'
'shutdown_'
'shudder_'
'shrunk_'
'shredded_'
'showpiece_'
'showerwas_'
'showerthis_'
'showerit_'
'showerheads_'
'shoving_'
'shoved_'
'shoulders_'
'shortcuts_'
'shortcoming_'
'shoots_'
'shone_'
'shocker_'
'shines_'
'shield_'
'sherwood_'
'sheratonour_'
'shelve_'
'shell_'
'sheetsthe_'
'sheetrock_'
'sheeted_'
'sheep_'
'sheds_'
'shedding_'
'shaved_'
'shattered_'
'sharpen_'
'shares_'
'shapes_'
'shanghai_'
'shambles_'
'shafts_'
'shaby_'
'shabbythe_'
'shabbyroom_'
'shabbyi_'
'sgd_'
'sewers_'
'settees_'
'sessions_'
'serviettes_'
'servicerooms_'
'serviceclean_'
'sequoia_'
'sentimental_'
'sensors_'
'sensibly_'
'sensational_'
'senior_'
'sells_'
'segment_'
'sees_'
'seeking_'
'seek_'
'secluded_'
'sebel_'
'seasoned_'
'seafront_'
'seafood_'
'se_'
'sd_'
'sculpture_'
'screenthe_'
'scratchedroom_'
'scrapped_'
'scrape_'
'scrap_'
'scourer_'
'scores_'
'scooters_'
'scenic_'
'scene_'
'scarf_'
'scam_'
'saves_'
'savannah_'
'saunathe_'
'sauchiehall_'
'saucers_'
'satnav_'
'satisfying_'
'sas_'
'saratoga_'
'sane_'
'sandal_'
'sampled_'
'saints_'
'sag_'
'rv_'
'runner_'
'ruining_'
'ruin_'
'ruffle_'
'rue_'
'rubbery_'
'royalty_'
'royale_'
'routes_'
'router_'
'rounds_'
'rotating_'
'rosen_'
'roped_'
'roosevelt_'
'roooms_'
'rooom_'
'roomwith_'
'roomthey_'
'roomsthis_'
'roomsthat_'
'roomstayed_'
'roomsroom_'
'roomsoverall_'
'roomsno_'
'roomshotel_'
'roomservice_'
'roomsclean_'
'roomsare_'
'roomsand_'
'roommate_'
'roomin_'
'roomhowever_'
'roomeverything_'
'rooma_'
'rooftops_'
'roo_'
'romm_'
'robson_'
'robbery_'
'roasting_'
'roaming_'
'riverwalk_'
'riu_'
'risky_'
'risks_'
'rising_'
'rippled_'
'ripping_'
'rinsed_'
'rigorous_'
'rightly_'
'rialto_'
'rewarding_'
'revisiting_'
'revisited_'
'reviewing_'
'reversing_'
'returnthe_'
'returns_'
'retiling_'
'retained_'
'resumed_'
'resturants_'
'rests_'
'restrictive_'
'restless_'
'resteraunt_'
'responsible_'
'respond_'
'respite_'
'resourced_'
'resist_'
'resigned_'
'residential_'
'reservoir_'
'reserving_'
'resembles_'
'resemblance_'
'researching_'
'represented_'
'representation_'
'replacingthe_'
'replacedthe_'
'repetitive_'
'rep_'
'reopened_'
'renovatedthis_'
'rendezvous_'
'rendering_'
'ren_'
'remodelling_'
'reminder_'
'remembering_'
'remedial_'
'remarked_'
'remark_'
'relied_'
'relevance_'
'relented_'
'relations_'
'relation_'
'rehung_'
'reheated_'
'rehab_'
'regulation_'
'regulated_'
'registration_'
'refurnishing_'
'refurbs_'
'refurbisment_'
'refurbishmentthe_'
'refresher_'
'reflective_'
'refitting_'
'refitted_'
'refilling_'
'recycled_'
'recreation_'
'recovered_'
'reconfiguration_'
'recomend_'
'rechargers_'
'receptive_'
'receptionwe_'
'recentlyit_'
'receives_'
'recaulking_'
'rebuilt_'
'rebranding_'
'rebooked_'
'rearrange_'
'realistically_'
'realising_'
'reaked_'
'reagan_'
'readyroom_'
'rd_'
'raves_'
'rationed_'
'rapid_'
'ranging_'
'ranges_'
'ramblas_'
'rainstorm_'
'rainhead_'
'raid_'
'radissons_'
'racecourse_'
'race_'
'quote_'
'quota_'
'quietwe_'
'quietthey_'
'quietroom_'
'quietno_'
'quieted_'
'queries_'
'quantity_'
'qualitythe_'
'qualities_'
'quaility_'
'pyjamas_'
'puzzled_'
'pushes_'
'purports_'
'purples_'
'purifier_'
'purely_'
'purchasing_'
'punctual_'
'punched_'
'punch_'
'pumps_'
'puma_'
'puke_'
'puerto_'
'puckered_'
'publix_'
'proudly_'
'protruding_'
'proposition_'
'propertythe_'
'propertyit_'
'properlythe_'
'prong_'
'projecting_'
'progressed_'
'programs_'
'profusely_'
'professionals_'
'producing_'
'produces_'
'procedures_'
'probs_'
'problemthe_'
'privately_'
'prise_'
'priorities_'
'printing_'
'printer_'
'princes_'
'prince_'
'prides_'
'pricy_'
'pricethe_'
'prevalent_'
'pretend_'
'pressurethe_'
'presidential_'
'presents_'
'presently_'
'presentedthe_'
'presentations_'
'prepped_'
'prep_'
'premierinn_'
'premiere_'
'prem_'
'prehistoric_'
'preferably_'
'precious_'
'precautions_'
'precarious_'
'prawns_'
'praised_'
'pours_'
'pounded_'
'poughkeepsie_'
'potty_'
'potato_'
'postion_'
'postage_'
'positions_'
'positioning_'
'porters_'
'porcelanosa_'
'poorest_'
'pony_'
'pontins_'
'ponderosa_'
'polynesia_'
'polluted_'
'polishing_'
'policies_'
'pointing_'
'pointe_'
'plusses_'
'plumped_'
'plughole_'
'plethora_'
'pleasently_'
'plays_'
'platter_'
'plating_'
'planks_'
'plague_'
'placesbut_'
'placement_'
'pisco_'
'pinery_'
'pineapple_'
'pinch_'
'pimms_'
'pillars_'
'pillar_'
'pigs_'
'pigeons_'
'pigeon_'
'picnic_'
'picchu_'
'picadilly_'
'photography_'
'photographic_'
'phoning_'
'phl_'
'pheasant_'
'pervading_'
'peru_'
'perpetual_'
'permit_'
'permeate_'
'perk_'
'perimeter_'
'perfunctory_'
'performance_'
'perception_'
'pepsi_'
'peppermint_'
'pepper_'
'penthouse_'
'pens_'
'pennsylvania_'
'penn_'
'pelmet_'
'peeves_'
'peers_'
'peephole_'
'peep_'
'peeking_'
'peed_'
'pedicure_'
'pedal_'
'peanut_'
'peach_'
'paul_'
'patron_'
'patrolling_'
'patina_'
'patiently_'
'patience_'
'pathways_'
'pathumwan_'
'pat_'
'pastry_'
'passageways_'
'passage_'
'partying_'
'partners_'
'particulary_'
'parquet_'
'parliament_'
'parisian_'
'parcel_'
'parc_'
'paranoid_'
'panicked_'
'pancakes_'
'pampering_'
'palomar_'
'palmetto_'
'painter_'
'paintbut_'
'paintbrush_'
'pains_'
'painful_'
'padlock_'
'paddling_'
'pacifier_'
'ozone_'
'overworked_'
'overweight_'
'overwater_'
'overthe_'
'overt_'
'overstuffed_'
'oversold_'
'overrun_'
'overpowered_'
'overnights_'
'overnighting_'
'overcharging_'
'overcharged_'
'overcharge_'
'outstandingly_'
'outsourced_'
'outset_'
'outs_'
'outrageously_'
'outline_'
'outi_'
'outfit_'
'outdates_'
'outcome_'
'outage_'
'ott_'
'ot_'
'os_'
'orthe_'
'orlean_'
'orit_'
'orginal_'
'organize_'
'ordeal_'
'orchids_'
'orchard_'
'optimal_'
'opportunities_'
'openness_'
'opaque_'
'op_'
'oozes_'
'ooze_'
'onwe_'
'onso_'
'ons_'
'onions_'
'onion_'
'onhotel_'
'omission_'
'omelets_'
'olympic_'
'oliver_'
'olina_'
'olds_'
'oldfashioned_'
'okura_'
'okso_'
'okit_'
'okayi_'
'oils_'
'offices_'
'offense_'
'odourless_'
'odern_'
'oder_'
'oddest_'
'ocd_'
'occurring_'
'occurrence_'
'occur_'
'ocassions_'
'obtrusive_'
'obsessed_'
'obscure_'
'obnoxiously_'
'objected_'
'oakhurst_'
'nzd_'
'nz_'
'numbered_'
'notepad_'
'notches_'
'nostalgic_'
'norovirus_'
'nonexistent_'
'nondescript_'
'nonchalant_'
'noice_'
'nightthere_'
'nightrooms_'
'nightnot_'
'nightlights_'
'nightlight_'
'nightlife_'
'nightit_'
'nightcap_'
'nightand_'
'niece_'
'niceeverything_'
'nicebut_'
'niceand_'
'networks_'
'nespreso_'
'nescafe_'
'neighbour_'
'neighborhoods_'
'negligent_'
'neededeverything_'
'neede_'
'ned_'
'necessaries_'
'neccesities_'
'neatthe_'
'neatness_'
'nearer_'
'navy_'
'navigated_'
'naughty_'
'natures_'
'natured_'
'natura_'
'native_'
'nation_'
'nastiest_'
'narrowest_'
'named_'
'nacks_'
'myanmar_'
'mustythe_'
'musical_'
'museums_'
'munich_'
'munchies_'
'multitude_'
'muffle_'
'muffin_'
'muchthe_'
'mozzy_'
'mouthful_'
'mounds_'
'moulton_'
'moulded_'
'motorcycle_'
'morningstar_'
'moquette_'
'mops_'
'monthes_'
'monsoon_'
'monorail_'
'monitoring_'
'moneythe_'
'mon_'
'moisturiser_'
'modesty_'
'modernize_'
'modernit_'
'moderni_'
'modeled_'
'mobility_'
'mobiles_'
'mixing_'
'mitchell_'
'mistaking_'
'mistaken_'
'misplaced_'
'misfortune_'
'miscellaneous_'
'mirrorour_'
'minty_'
'miniatures_'
'miniature_'
'minging_'
'minethe_'
'milling_'
'milky_'
'mild_'
'milan_'
'midlands_'
'midland_'
'mickey_'
'mia_'
'metropolis_'
'methis_'
'meter_'
'messthe_'
'mesa_'
'merlot_'
'merit_'
'mere_'
'mercury_'
'mercifully_'
'mended_'
'memorial_'
'melia_'
'medical_'
'media_'
'mecure_'
'mechanicals_'
'meanwhile_'
'mealtimes_'
'meadow_'
'mdf_'
'mcdonalds_'
'mbps_'
'mbk_'
'mayonnaise_'
'matt_'
'materialised_'
'mate_'
'matches_'
'masterpiece_'
'massively_'
'mascara_'
'marvelous_'
'mart_'
'marking_'
'marijuana_'
'margins_'
'margaritas_'
'mardi_'
'marched_'
'manual_'
'mantained_'
'mans_'
'manor_'
'manning_'
'manila_'
'mango_'
'manger_'
'maneuver_'
'malfunction_'
'malecon_'
'maldives_'
'mal_'
'makings_'
'makeoverbut_'
'majestic_'
'maintainedwe_'
'maintainedhotel_'
'maintainedbut_'
'mainline_'
'magnificently_'
'madness_'
'luxuriousthe_'
'luster_'
'lurking_'
'lunches_'
'lowthe_'
'lows_'
'lowry_'
'loves_'
'loverly_'
'louvre_'
'louder_'
'lotthe_'
'lottery_'
'lotte_'
'loops_'
'lookthere_'
'logs_'
'login_'
'logan_'
'loew_'
'lockout_'
'loch_'
'locatedthe_'
'locally_'
'locality_'
'loby_'
'lobbys_'
'loathe_'
'lloyd_'
'lizard_'
'littler_'
'litle_'
'lists_'
'listing_'
'liquids_'
'lips_'
'lion_'
'linoleum_'
'links_'
'linking_'
'linings_'
'linethe_'
'liners_'
'limp_'
'limousine_'
'limo_'
'limitations_'
'lima_'
'likethe_'
'lightweight_'
'lightswitch_'
'lhr_'
'letdown_'
'lessons_'
'lesser_'
'leopard_'
'lent_'
'lengthy_'
'lengths_'
'lending_'
'lend_'
'lemony_'
'leisurely_'
'lei_'
'legged_'
'legal_'
'leftovers_'
'leadership_'
'layovers_'
'laws_'
'lawns_'
'lava_'
'laundromat_'
'launch_'
'lastminute_'
'lasted_'
'lashings_'
'lasagna_'
'lankan_'
'languages_'
'landed_'
'lampstand_'
'lamb_'
'lalit_'
'lakeview_'
'lakes_'
'lagoonarium_'
'lagers_'
'labyrinth_'
'laboured_'
'labelled_'
'kowloon_'
'kohler_'
'ko_'
'knowledge_'
'knowledgable_'
'knobbly_'
'knackered_'
'klia_'
'kitschy_'
'kitchenettes_'
'kindness_'
'kilda_'
'kicks_'
'khaki_'
'keysthe_'
'kensington_'
'karaoke_'
'kandalama_'
'kakadu_'
'justification_'
'jug_'
'juan_'
'johnson_'
'john_'
'jobthe_'
'jewelry_'
'jetted_'
'jetson_'
'jersey_'
'jeans_'
'jars_'
'jarring_'
'jar_'
'janky_'
'jamison_'
'jam_'
'jagged_'
'j_'
'itvery_'
'itno_'
'itinerary_'
'itin_'
'itchiness_'
'italia_'
'isthe_'
'ist_'
'isand_'
'irritations_'
'irritation_'
'irritated_'
'ironically_'
'ironic_'
'iq_'
'inwe_'
'invite_'
'inventory_'
'invariably_'
'intolerable_'
'intimacy_'
'interstate_'
'interrupted_'
'interpret_'
'internetit_'
'interestingly_'
'interact_'
'intense_'
'intelligent_'
'integrated_'
'intake_'
'instances_'
'installing_'
'inspiration_'
'inspector_'
'inspecting_'
'insomniac_'
'insisting_'
'inserted_'
'insert_'
'insecticide_'
'insanely_'
'inour_'
'inoperative_'
'innsthe_'
'innovative_'
'inlet_'
'injured_'
'init_'
'inhowever_'
'inhouse_'
'inhospitable_'
'infused_'
'infrequent_'
'informing_'
'infiltration_'
'infestation_'
'infamous_'
'inevitable_'
'indulge_'
'indoors_'
'indonesian_'
'indigo_'
'indicative_'
'increasing_'
'incorrect_'
'incompetence_'
'inclusions_'
'inclusion_'
'incense_'
'improves_'
'impregnated_'
'imposed_'
'importance_'
'imply_'
'implemented_'
'impecably_'
'impecable_'
'impact_'
'imo_'
'immaculatly_'
'immacuately_'
'imaginable_'
'illumination_'
'illuminate_'
'iii_'
'ignoring_'
'icy_'
'iconic_'
'icelandair_'
'icc_'
'hypo_'
'hurriedly_'
'hunting_'
'hunted_'
'humble_'
'hum_'
'hula_'
'hudson_'
'hub_'
'howeverthe_'
'howard_'
'hovered_'
'housekeping_'
'housekeepingthe_'
'household_'
'hourthe_'
'hottub_'
'hotthe_'
'hotelsthe_'
'hotelsi_'
'hotelour_'
'hotelit_'
'hotelclean_'
'hoteland_'
'host_'
'horse_'
'horrendously_'
'horizontally_'
'hops_'
'hopped_'
'hoppa_'
'hopelessly_'
'hooray_'
'honored_'
'honey_'
'honesty_'
'honestthe_'
'homework_'
'homewood_'
'homethe_'
'homes_'
'hollow_'
'holidaying_'
'hoiday_'
'hodgepodge_'
'ho_'
'hmm_'
'hints_'
'hiltonthe_'
'hight_'
'hides_'
'hideously_'
'hhonor_'
'hesitated_'
'hereroom_'
'hereclean_'
'hereand_'
'herd_'
'herald_'
'helpfulroom_'
'helpfulness_'
'heights_'
'heath_'
'hearts_'
'headrest_'
'hazardous_'
'hats_'
'hatch_'
'hassles_'
'harry_'
'harrogate_'
'harks_'
'hardthe_'
'hardened_'
'hanged_'
'handset_'
'handrails_'
'handrail_'
'handprints_'
'handprint_'
'handmade_'
'hampered_'
'ham_'
'hallwaythe_'
'hallwayour_'
'hallthe_'
'hal_'
'hairthe_'
'hairball_'
'hadit_'
'gymhowever_'
'gwr_'
'gussied_'
'gurgling_'
'gummy_'
'guestthe_'
'grunge_'
'grubbyeverything_'
'groaned_'
'grips_'
'grimythe_'
'grilles_'
'grilled_'
'greys_'
'greyish_'
'greets_'
'greet_'
'greenish_'
'greenery_'
'greek_'
'greati_'
'grayish_'
'grates_'
'granny_'
'grander_'
'gradually_'
'grading_'
'graceful_'
'gourmet_'
'gouges_'
'gothe_'
'goody_'
'goodvery_'
'goodour_'
'goodnessthe_'
'goodit_'
'goodi_'
'goodbreakfast_'
'goodafter_'
'golly_'
'goers_'
'godsend_'
'glowing_'
'globus_'
'globs_'
'globe_'
'glob_'
'glitter_'
'gleamed_'
'glaze_'
'glas_'
'glaring_'
'gladly_'
'ginger_'
'gin_'
'gilchrist_'
'george_'
'geography_'
'gentlemen_'
'genius_'
'ge_'
'gazing_'
'gates_'
'gateaux_'
'gaslamp_'
'garish_'
'gardeners_'
'garbages_'
'galore_'
'gale_'
'gag_'
'gadget_'
'gab_'
'fyi_'
'fuzz_'
'futon_'
'fuse_'
'furthest_'
'furntiture_'
'funtional_'
'funicular_'
'fungal_'
'fundamentals_'
'fundamentally_'
'fundamental_'
'functionalthe_'
'fuel_'
'frying_'
'frustration_'
'frumpy_'
'frosty_'
'frigo_'
'frightening_'
'fries_'
'fri_'
'fresheners_'
'freight_'
'freeze_'
'freestanding_'
'freely_'
'freebies_'
'fred_'
'franchisee_'
'franchise_'
'fran_'
'foyerthe_'
'fought_'
'forthe_'
'fort_'
'formula_'
'formality_'
'forgo_'
'forgettable_'
'forecast_'
'ford_'
'forcing_'
'forcibly_'
'forceful_'
'forbidden_'
'footstool_'
'footprint_'
'footfall_'
'footed_'
'foodour_'
'foodon_'
'fond_'
'folders_'
'foil_'
'foaming_'
'flung_'
'fluffiness_'
'fluctuations_'
'fluctuated_'
'flu_'
'floss_'
'floorwe_'
'floortiles_'
'floorings_'
'floori_'
'floorand_'
'floodlights_'
'float_'
'flipping_'
'flightthe_'
'flightand_'
'flickered_'
'fleet_'
'flecked_'
'flea_'
'flavour_'
'flavor_'
'flattened_'
'flashing_'
'flare_'
'flapper_'
'flannel_'
'flamingo_'
'flaked_'
'flags_'
'fl_'
'fittingsthe_'
'fitout_'
'fishy_'
'fishing_'
'fires_'
'fingerprinted_'
'fingernails_'
'finewe_'
'finer_'
'finely_'
'filty_'
'filtration_'
'films_'
'fierce_'
'fields_'
'field_'
'fiction_'
'fibre_'
'fences_'
'fenced_'
'females_'
'feelings_'
'feeding_'
'feeble_'
'featureless_'
'fears_'
'fe_'
'fd_'
'fayre_'
'favorites_'
'favor_'
'faultlessly_'
'fashionable_'
'fascia_'
'farther_'
'farce_'
'fantasy_'
'fairfield_'
'failures_'
'faff_'
'factors_'
'facitlities_'
'facitlies_'
'faceliftthe_'
'facecloths_'
'eyelevel_'
'eyelashes_'
'eyelash_'
'eyed_'
'extrememly_'
'extremelly_'
'extreamly_'
'externally_'
'exquisitely_'
'exposure_'
'explicit_'
'expertly_'
'experienceit_'
'experianced_'
'expensivethe_'
'expecthowever_'
'expectedly_'
'exotic_'
'exhibition_'
'exellent_'
'excellentmy_'
'excecutive_'
'examples_'
'examined_'
'ewww_'
'evian_'
'eves_'
'everywhereand_'
'everytimebathroom_'
'everyplace_'
'eveningi_'
'evacuate_'
'eureka_'
'etcroom_'
'etci_'
'estimation_'
'estimate_'
'established_'
'essence_'
'esque_'
'espa_'
'escapes_'
'escalator_'
'ergonomic_'
'equpped_'
'equiptment_'
'equipments_'
'equals_'
'eqipment_'
'entitlement_'
'entail_'
'ensures_'
'enquired_'
'enought_'
'enoughroom_'
'enoughit_'
'enjoyment_'
'enforce_'
'ending_'
'encouraged_'
'emply_'
'employ_'
'empathetic_'
'emitted_'
'embarrassingly_'
'embarrassed_'
'embankment_'
'emanates_'
'elveden_'
'ellipticals_'
'eliminating_'
'eliminated_'
'element_'
'elected_'
'eh_'
'effortless_'
'effiecient_'
'efficientthe_'
'efficent_'
'eerie_'
'edible_'
'edgewater_'
'echoes_'
'eccentric_'
'eats_'
'eater_'
'easter_'
'earthquake_'
'earring_'
'earned_'
'dying_'
'duster_'
'dustbin_'
'dungeon_'
'dumpsters_'
'dumb_'
'dug_'
'duff_'
'dryed_'
'drunken_'
'drugs_'
'drown_'
'drought_'
'drooping_'
'drivers_'
'drills_'
'drifting_'
'drift_'
'driers_'
'dribbled_'
'dregs_'
'drawbacks_'
'draughty_'
'drapery_'
'downstair_'
'downgrading_'
'douvet_'
'doubletrees_'
'dothe_'
'doss_'
'doorways_'
'doorstop_'
'doorsclean_'
'doorknob_'
'doorbut_'
'doneand_'
'dominated_'
'dome_'
'dole_'
'doggy_'
'doable_'
'dkr_'
'divided_'
'dive_'
'divan_'
'disturbance_'
'distrikt_'
'distinguishes_'
'distant_'
'dissipated_'
'dissipate_'
'dissatisfaction_'
'dispose_'
'dispiriting_'
'dispense_'
'dislodged_'
'disliked_'
'dishevelled_'
'disgustingthe_'
'disgust_'
'disguising_'
'disguise_'
'disgracefully_'
'discusting_'
'discussion_'
'discuss_'
'discovering_'
'discouraged_'
'disconcerting_'
'disconcerted_'
'discolouration_'
'disarray_'
'disadvantages_'
'dirtyroom_'
'dirtyclean_'
'dirti_'
'dinnner_'
'dinky_'
'dingiest_'
'dingey_'
'diners_'
'dimensions_'
'dilemma_'
'dilapidation_'
'digusting_'
'differs_'
'differ_'
'didthe_'
'diapers_'
'diamonds_'
'diagonally_'
'dfw_'
'devoid_'
'devine_'
'devil_'
'dettol_'
'determine_'
'deteriorate_'
'detergents_'
'detention_'
'detectable_'
'destroyed_'
'deskthe_'
'desinfectant_'
'deserved_'
'deserted_'
'derelict_'
'deputy_'
'deprived_'
'deposits_'
'depositing_'
'deposited_'
'depend_'
'departures_'
'deodorizers_'
'demolishing_'
'deliveries_'
'deliberately_'
'del_'
'defunct_'
'defrosting_'
'definetly_'
'definatly_'
'defiantly_'
'defect_'
'decored_'
'declining_'
'decker_'
'decides_'
'decadent_'
'debit_'
'deafening_'
'dbl_'
'daysthe_'
'daysso_'
'daysbut_'
'dayroom_'
'dayour_'
'daymy_'
'daybut_'
'daybed_'
'dawn_'
'datedour_'
'darling_'
'darkness_'
'darkish_'
'darkening_'
'dancing_'
'dancer_'
'dampthe_'
'damn_'
'damaging_'
'cylinder_'
'cycling_'
'cuz_'
'cuttlery_'
'cutbacks_'
'customary_'
'curled_'
'curl_'
'cure_'
'curb_'
'cuppa_'
'cumbersome_'
'cultery_'
'cue_'
'cucumber_'
'cuc_'
'cubby_'
'cuban_'
'ct_'
'cry_'
'crust_'
'crunchy_'
'crumb_'
'crow_'
'crossed_'
'critique_'
'crisper_'
'criminal_'
'creme_'
'creative_'
'creased_'
'creamers_'
'creaks_'
'crate_'
'crashed_'
'cracker_'
'cpap_'
'coziness_'
'coworker_'
'coverlet_'
'courtside_'
'coupon_'
'counts_'
'countryside_'
'council_'
'cosmetically_'
'corus_'
'corrosion_'
'corridorthe_'
'correcting_'
'corkscrew_'
'coridors_'
'coridoors_'
'cordoned_'
'cordial_'
'coral_'
'coped_'
'coolthe_'
'convoluted_'
'convient_'
'convert_'
'contribution_'
'contributing_'
'contest_'
'contentment_'
'consumption_'
'consume_'
'constrained_'
'consthe_'
'conspicuous_'
'consideration_'
'considerate_'
'consequence_'
'consecutive_'
'connects_'
'connectors_'
'conit_'
'congregate_'
'congratulations_'
'congestion_'
'congested_'
'congealing_'
'confused_'
'confronted_'
'conforms_'
'configurations_'
'confident_'
'confetti_'
'conferencing_'
'conferance_'
'cone_'
'condominium_'
'conditionit_'
'conditioningthe_'
'concierges_'
'conceived_'
'comprising_'
'composed_'
'complimented_'
'compliment_'
'complemented_'
'complacency_'
'compfy_'
'compfortable_'
'competitors_'
'compendium_'
'compelled_'
'comped_'
'compartment_'
'comparing_'
'comparatively_'
'companies_'
'community_'
'communicate_'
'commonwealth_'
'commit_'
'commission_'
'commendation_'
'comings_'
'comfywe_'
'comfyrooms_'
'comfrtable_'
'comfortbale_'
'comfortablethis_'
'comfortableeverything_'
'comfortablebut_'
'comfortableand_'
'comfortablealso_'
'comfortablea_'
'comfortabe_'
'comfirtable_'
'comfier_'
'combat_'
'colouring_'
'colourful_'
'colony_'
'collections_'
'collar_'
'collapsing_'
'coldest_'
'coit_'
'cohiba_'
'codes_'
'cod_'
'cocoon_'
'coco_'
'cn_'
'cluster_'
'clumsy_'
'clots_'
'clothesline_'
'closure_'
'closetthe_'
'closetand_'
'clogging_'
'clog_'
'clockwork_'
'cloak_'
'clingy_'
'cliff_'
'client_'
'clearthe_'
'clears_'
'clearance_'
'cleanwith_'
'cleanunfortunately_'
'cleanso_'
'cleanpool_'
'cleannot_'
'cleanings_'
'cleaningit_'
'cleaningi_'
'cleanin_'
'cleanif_'
'cleanfinally_'
'cleaneverywhere_'
'cleaness_'
'cleanedand_'
'cleancleanliness_'
'cleancheck_'
'cleanbeds_'
'cleanat_'
'clawfoot_'
'claw_'
'clarke_'
'citythe_'
'citrus_'
'circus_'
'circulating_'
'circulated_'
'circulate_'
'circle_'
'chunky_'
'chuckwagon_'
'chucked_'
'chrysler_'
'chore_'
'choicethe_'
'chit_'
'chintz_'
'chink_'
'chilled_'
'childs_'
'cheryl_'
'cheked_'
'cheerfully_'
'cheer_'
'cheapo_'
'cheapens_'
'chateau_'
'chased_'
'charms_'
'charmless_'
'charme_'
'characterized_'
'characteristic_'
'chap_'
'changethe_'
'changedthe_'
'chaminda_'
'chambre_'
'chambermaids_'
'challenging_'
'chalky_'
'chai_'
'centurythe_'
'centuries_'
'centres_'
'centrale_'
'centered_'
'cellular_'
'celebrity_'
'cava_'
'cattle_'
'cats_'
'cathode_'
'cathedral_'
'cathay_'
'categories_'
'catches_'
'casa_'
'carrots_'
'carpetsthe_'
'carpetroom_'
'carper_'
'carbut_'
'caravan_'
'captured_'
'captain_'
'cappuccino_'
'capitol_'
'canvas_'
'canopy_'
'cane_'
'candies_'
'canceled_'
'canapes_'
'campsite_'
'campground_'
'campers_'
'camped_'
'camouflage_'
'calientes_'
'cairns_'
'cages_'
'cafetiere_'
'caesar_'
'cad_'
'cabbage_'
'bythe_'
'bye_'
'butwe_'
'butthree_'
'butthis_'
'butthen_'
'butpool_'
'buthad_'
'butfor_'
'buteverything_'
'butespecially_'
'butbed_'
'bust_'
'bushes_'
'bush_'
'burstin_'
'burners_'
'bunker_'
'bungalows_'
'bundled_'
'bunching_'
'bullet_'
'bulgari_'
'builders_'
'buggy_'
'buffetwhen_'
'buffer_'
'buckingham_'
'buchanan_'
'bu_'
'btwn_'
'bts_'
'bruises_'
'brownie_'
'brownand_'
'brochure_'
'brocade_'
'brittania_'
'brisas_'
'brimming_'
'brightest_'
'brighten_'
'bridal_'
'brekfast_'
'breathe_'
'breast_'
'breakfastmy_'
'breakfastlovely_'
'breakfastand_'
'breakfasta_'
'breakast_'
'bravo_'
'brasses_'
'brag_'
'bra_'
'br_'
'boyfriend_'
'boxing_'
'boxed_'
'bowel_'
'bouquet_'
'bottomthe_'
'bottoms_'
'bothers_'
'borrowed_'
'bora_'
'booze_'
'booth_'
'booming_'
'boom_'
'books_'
'boogers_'
'bonuses_'
'bone_'
'bond_'
'bonaventure_'
'bolster_'
'bold_'
'bodywash_'
'bodies_'
'bobs_'
'boathouse_'
'boast_'
'boardwalk_'
'blvd_'
'bluntly_'
'blower_'
'blowdryer_'
'blouse_'
'blotches_'
'bloody_'
'bloodstains_'
'blond_'
'blockage_'
'blobs_'
'blob_'
'blitz_'
'blistered_'
'blissful_'
'blip_'
'blessing_'
'blender_'
'bleed_'
'bleak_'
'blasted_'
'blamed_'
'blacks_'
'blacken_'
'bkk_'
'binned_'
'bing_'
'biltmore_'
'bigelow_'
'betting_'
'betterthe_'
'bethe_'
'bending_'
'belt_'
'belonged_'
'belmond_'
'belies_'
'belfast_'
'belched_'
'beijing_'
'behalf_'
'begrudgingly_'
'bees_'
'beechwood_'
'bedthis_'
'bedswe_'
'bedstand_'
'bedskirt_'
'bedroombut_'
'bedour_'
'bedlinens_'
'bedclean_'
'bedbathroom_'
'bedall_'
'beautifull_'
'bearly_'
'bean_'
'beams_'
'bayview_'
'battling_'
'batroom_'
'bathub_'
'bathrooom_'
'bathroomwell_'
'bathroomwas_'
'bathroomvery_'
'bathroomthis_'
'bathroomour_'
'bathroommy_'
'bathrm_'
'bathour_'
'bathed_'
'batch_'
'basinthe_'
'basicthe_'
'basicly_'
'barthe_'
'barroom_'
'barriers_'
'barren_'
'barley_'
'barbican_'
'banned_'
'bandaids_'
'bandaid_'
'bananas_'
'banana_'
'balloons_'
'balconythe_'
'balconys_'
'bait_'
'backward_'
'backsplash_'
'background_'
'backboard_'
'backache_'
'babies_'
'b4_'
'ayers_'
'awoken_'
'awkwardly_'
'aweful_'
'awash_'
'awakened_'
'awaken_'
'avoidable_'
'aviation_'
'averagethe_'
'autograph_'
'auto_'
'austere_'
'aug_'
'audible_'
'aud_'
'auckland_'
'attributes_'
'attracts_'
'attracting_'
'attracted_'
'attentionthe_'
'attendance_'
'atmospheric_'
'atlantis_'
'athletic_'
'asylum_'
'aston_'
'asthmatic_'
'assumes_'
'assorted_'
'assisting_'
'asset_'
'assessment_'
'assaulted_'
'assault_'
'aspirin_'
'aslo_'
'artistic_'
'artist_'
'articles_'
'artemide_'
'arrivedthe_'
'arrivalthe_'
'arrivali_'
'array_'
'arranging_'
'aroundthe_'
'aromatic_'
'armrests_'
'arlanda_'
'ares_'
'areit_'
'areasa_'
'areamy_'
'architecturally_'
'architects_'
'architect_'
'arches_'
'arch_'
'arc_'
'ar_'
'aquas_'
'aqua_'
'approve_'
'apprehensive_'
'appointedrooms_'
'appetizer_'
'appearances_'
'appealed_'
'appauling_'
'apologizing_'
'apologize_'
'apollo_'
'aplenty_'
'apex_'
'anxious_'
'antonio_'
'anther_'
'answers_'
'anotherthe_'
'annoys_'
'annoyances_'
'announcing_'
'announcements_'
'announced_'
'announce_'
'annexes_'
'anna_'
'angles_'
'anf_'
'andwell_'
'andunfortunately_'
'andthen_'
'andstayed_'
'andstandard_'
'android_'
'andoverall_'
'andotherwise_'
'andone_'
'andif_'
'andhallways_'
'andfurnishings_'
'andended_'
'anddirty_'
'andbreakfast_'
'andboth_'
'andbed_'
'andbecause_'
'andalso_'
'and2_'
'anchorage_'
'analysis_'
'amy_'
'amplify_'
'amnesties_'
'ammonia_'
'amenitiesit_'
'ameneties_'
'amenaties_'
'ambulance_'
'ambassadors_'
'amazon_'
'amateur_'
'amari_'
'aluminum_'
'althoughthe_'
'alternated_'
'alternate_'
'altered_'
'alsono_'
'almirah_'
'allthough_'
'allotted_'
'allot_'
'allocation_'
'allmy_'
'allergenic_'
'allegedly_'
'alland_'
'alike_'
'aldgate_'
'alcove_'
'albiet_'
'alaskan_'
'alarmed_'
'aircondition_'
'airbnb_'
'aiport_'
'ai_'
'ahwahnee_'
'ah_'
'agothe_'
'aggressively_'
'aggressive_'
'aggravated_'
'againroom_'
'aftershave_'
'africa_'
'aerobics_'
'advantages_'
'advantageous_'
'adore_'
'adorably_'
'adorable_'
'admire_'
'adjustments_'
'adjoined_'
'additions_'
'adaptor_'
'adapter_'
'ada_'
'actively_'
'activated_'
'acrid_'
'acquired_'
'acoustic_'
'acknowledgement_'
'achy_'
'accumulating_'
'accumulate_'
'accosted_'
'accomodated_'
'accomidations_'
'accessing_'
'accentuated_'
'abysmal_'
'absoultely_'
'absolutly_'
'absolutelly_'
'abs_'
'ablutions_'
'a1_'
']. _'
'\\_'
'\\ _'
'[ _'
'945_'
'930_'
'92_'
'923_'
'909_'
'900_'
'830_'
'822_'
'806_'
'800_'
'724_'
'66_'
'64_'
'628_'
'612_'
'609_'
'607_'
'605_'
'5p_'
'56_'
'566_'
'550_'
'54th_'
'540_'
'530_'
'52_'
'521_'
'51_'
'515_'
'510_'
'50am_'
'501_'
'4x_'
'4star_'
'49th_'
'46th_'
'467_'
'452_'
'43_'
'433_'
'410_'
'40s_'
'401_'
'390_'
'38th_'
'345_'
'341_'
'33rd_'
'330_'
'328_'
'325_'
'321_'
'320_'
'318_'
'312_'
'311_'
'310_'
'30s_'
'30min_'
'302_'
'301_'
'2x2_'
'299_'
'284_'
'280_'
'275_'
'257_'
'24hrs_'
'248_'
'247_'
'239_'
'237_'
'235_'
'2311_'
'229_'
'2229_'
'218_'
'2125_'
'20min_'
'20am_'
'203_'
'2022_'
'2020_'
'2007_'
'2005_'
'2001_'
'1the_'
'199_'
'1993_'
'1940_'
'1920_'
'189_'
'1730_'
'170_'
'1707_'
'1706_'
'1700_'
'161_'
'1600_'
'15hrs_'
'1550_'
'1529_'
'1509_'
'1422_'
'136_'
'134_'
'126_'
'125_'
'124_'
'1231_'
'121_'
'1209_'
'119_'
'1106_'
'1101_'
'10mins_'
'10min_'
'108_'
'107_'
'104_'
'1035_'
'1033_'
'1028_'
'1004_'
'08_'
'07_'
'05_'
'...... _'
'.... _'
'.-_'
'.-- _'
'.,_'
''-_'
'"._'
' ✅ _'
' ” - _'
' —_'
' ~_'
' } _'
' @_'
' ?( _'
' ? ? ) _'
' ? ..._'
' ? ....._'
' ? - _'
' ? " ._'
' ? ! ) ._'
' =_'
' ;)_'
' :-( ._'
' : • _'
' : ~_'
' : + _'
' : ' _'
' .–_'
' .> _'
' ./_'
' ........._'
' ............. _'
' .......... _'
' ....* _'
' .... )_'
' ..., _'
' ... ) _'
' ... " _'
' .* * _'
' .) _'
' .'_'
' . ..._'
' . '_'
' - --_'
' ,( _'
' , ... ) _'
' , ' _'
' + ) _'
' + $ _'
' ), _'
' )( _'
' ) .: _'
' ) .._'
' ) + _'
' ) ! !_'
' ( @_'
' ( @ _'
' ( ? )_'
' ( ? ) , _'
' ( ! )_'
' ( ! ! )_'
' ( ! ! ) _'
' ' . _'
' ' ) _'
' ' !_'
' % , _'
' " .- _'
' " " _'
' " ! _'
' ! ?_'
' ! ) , ( _'
' ! ! _'
' ! ! ..._'
' ! ! !, _'
' ! ! ! ._'
' ! ! ! ) , _'
'🙄 😩 😩 😩 😩_'
'😜 _'
'👎 👎 ..... _'
'ﬁrst_'
' _'
'♀ ️_'
'☺ _'
'€. _'
'… .. _'
'”_'
'—“_'
'—_'
'בםזטand_'
'øresund_'
'~_'
'~. _'
'~ _'
'}. _'
'},_'
'zzzzzs_'
'zurich_'
'zumba_'
'zoom_'
'zones_'
'zona_'
'zombie_'
'zircon_'
'zipping_'
'zippered_'
'zimbabwe_'
'zebra_'
'zealous_'
'zabriskie_'
'yurk_'
'yuppie_'
'yukki_'
'yuki_'
'yuckythe_'
'yuch_'
'yuan_'
'ys_'
'youwould_'
'youths_'
'yourselves_'
'yourooms_'
'yougurt_'
'youbathroom_'
'yorkshire_'
'yorkroom_'
'yorker_'
'yonger_'
'yonge_'
'yolk_'
'yogurts_'
'yobs_'
'yobos_'
'yneeds_'
'ymca_'
'yippee_'
'ying_'
'yielded_'
'yetwhy_'
'yetwe_'
'yetotherwise_'
'yetor_'
'yetclean_'
'yesteryear_'
'yesmie_'
'yesit_'
'yep_'
'yen1835_'
'yellowy_'
'yellows_'
'yellowin_'
'yelled_'
'yell_'
'yeilded_'
'yeast_'
'yearsthe_'
'yearsroom_'
'yearsit_'
'yearns_'
'yearly_'
'yearand_'
'yeaaakkkk_'
'yawning_'
'yardhouse_'
'yanks_'
'yacht_'
'ya_'
'xxi_'
'xx_'
'xtra_'
'xs_'
'xian_'
'xbox_'
'x54_'
'x36_'
'x10_'
'x008_'
'x003_'
'wy_'
'wwii_'
'wwi_'
'wwas_'
'ww2_'
'wuiet_'
'wsrer_'
'wsh_'
'wsclean_'
'wrongthey_'
'wrongthe_'
'wrongly_'
'wrll_'
'writings_'
'writer_'
'wrist_'
'wrinkling_'
'wrinkle_'
'wring_'
'wrestler_'
'wreckage_'
'wr_'
'wowthumping_'
'wowing_'
'wowed_'
'wowall_'
'wounded_'
'woulkd_'
'woudl_'
'wotk_'
'wort_'
'worstwhile_'
'worstwe_'
'worsethe_'
'worseit_'
'wornwas_'
'wornout_'
'wornhowever_'
'worned_'
'worms_'
'worm_'
'worldwidei_'
'worldthe_'
'worldit_'
'worldi_'
'workwhat_'
'workthere_'
'workswe_'
'workstations_'
'worksomeone_'
'workshops_'
'worksadly_'
'worknice_'
'workmans_'
'worklight_'
'workits_'
'workingwe_'
'workingthough_'
'workingthe_'
'workingroom_'
'workingit_'
'workin_'
'worki_'
'workfrom_'
'workes_'
'workedunfortunately_'
'workedthere_'
'workedit_'
'workedi_'
'workdesk_'
'workcons_'
'workable_'
'wording_'
'woody_'
'woodshed_'
'woodlice_'
'wooded_'
'wonky_'
'wonderul_'
'won_'
'womens_'
'woh_'
'woefuly_'
'woeful_'
'woburn_'
'wobbling_'
'wks_'
'wiufi_'
'witness_'
'witj_'
'withwe_'
'withvery_'
'withthey_'
'witht_'
'withour_'
'withought_'
'withon_'
'withing_'
'withhowever_'
'withe_'
'withdrawn_'
'withcomfortable_'
'withan_'
'withalso_'
'witchhotel_'
'wisked_'
'wishes_'
'wisethe_'
'wirral_'
'wiredsafety_'
'wipewe_'
'wipesso_'
'winrg_'
'wingback_'
'winethe_'
'wineglasses_'
'wineglass_'
'windowtowels_'
'windowtoilets_'
'windowthis_'
'windowthe_'
'windowsthey_'
'windowsthe_'
'windowsince_'
'windowshade_'
'windowreminiscent_'
'windowour_'
'windowline_'
'windowi_'
'windowfriendly_'
'windowd_'
'windowcheck_'
'winded_'
'winchester_'
'wimbledon_'
'wilth_'
'wilt_'
'wills_'
'willl_'
'willie_'
'williamsburg_'
'william_'
'wiifi_'
'wiggling_'
'wig_'
'wifithis_'
'wifistayed_'
'wifiroom_'
'wifiopen_'
'wiff_'
'wifethere_'
'wifes_'
'widescreen_'
'wich_'
'whythis_'
'whyi_'
'whybut_'
'whooshing_'
'whooped_'
'whooosh_'
'wholewe_'
'wholesome_'
'wholescale_'
'whites_'
'whitehall_'
'whist_'
'whiskey_'
'whirring_'
'whirpool_'
'whirl_'
'whipped_'
'whinning_'
'whined_'
'whimsical_'
'whileand_'
'whick_'
'whichyou_'
'whichthe_'
'whichspacious_'
'whichrooms_'
'whichi_'
'whicheverywhere_'
'whichever_'
'whichclean_'
'whew_'
'wherethe_'
'wherein_'
'whenwe_'
'whenivery_'
'whencarpet_'
'wheezily_'
'wheezed_'
'wheeling_'
'wheelie_'
'wheelchairthe_'
'whcih_'
'whazzis_'
'whatnot_'
'whatmaybe_'
'whadaya_'
'whack_'
'wfc_'
'wetwo_'
'wettish_'
'wetting_'
'wetthis_'
'wetthey_'
'wets_'
'wetrooms_'
'wetroom_'
'wetness_'
'weti_'
'westwood_'
'weston_'
'westmark_'
'westinsmy_'
'westinise_'
'westing_'
'westerns_'
'werewhen_'
'weresuper_'
'werestayed_'
'weres_'
'wererooms_'
'wereplease_'
'wereour_'
'wereokay_'
'weremanky_'
'wereluckily_'
'werecomfortable_'
'werecob_'
'werebathroom_'
'werealso_'
'wer_'
'wentworth_'
'wentwhile_'
'wendy_'
'welocme_'
'wellvery_'
'wellthis_'
'wellthat_'
'wellrooms_'
'wellon_'
'wellno_'
'wellmy_'
'wellmeanwhile_'
'welllit_'
'wellkeep_'
'wellit_'
'welli_'
'wellgood_'
'welleverything_'
'wellevery_'
'wellcarpet_'
'wellbright_'
'wellbecame_'
'wellalthough_'
'weldome_'
'welcomingthe_'
'welcomingexcellent_'
'welcomeroom_'
'welcolming_'
'weirdspacious_'
'wei_'
'weeny_'
'weel_'
'weeksthe_'
'weeknight_'
'weeki_'
'weekendit_'
'weekdays_'
'weekday_'
'weekbut_'
'weekas_'
'weekalso_'
'weed_'
'weds_'
'weclome_'
'websitethe_'
'websiteon_'
'weber_'
'wears_'
'wearingthe_'
'wearables_'
'weaker_'
'weakening_'
'wcs_'
'waĺls_'
'waythe_'
'wayroom_'
'wayotherwise_'
'waylinen_'
'wayfarer_'
'waycould_'
'waw_'
'watter_'
'watet_'
'watery_'
'waterwe_'
'waterway_'
'watervery_'
'waterstained_'
'watersports_'
'waterrooms_'
'waterproofing_'
'waterproof_'
'wateroverall_'
'wateron_'
'watermelon_'
'wateri_'
'waterhowever_'
'waterflow_'
'waterdrops_'
'waterclean_'
'waterbottles_'
'waterand_'
'watchoutsalso_'
'watchful_'
'watches_'
'watchers_'
'wasworld_'
'waswife_'
'waswhen_'
'waswell_'
'wastired_'
'wastiling_'
'wasthis_'
'wasthey_'
'wasthat_'
'wastebaskets_'
'wassuites_'
'wasps_'
'waspool_'
'waspaint_'
'wasoverall_'
'wasnice_'
'wasn_'
'wasmine_'
'wasit_'
'wasinitially_'
'wasif_'
'washup_'
'washthe_'
'washstand_'
'washroos_'
'washroomor_'
'washroomare_'
'washlet_'
'washeverything_'
'washedthey_'
'washdryer_'
'washbasins_'
'washbags_'
'washable_'
'wasgood_'
'wasent_'
'wasbut_'
'wasall_'
'wasa_'
'warszawa_'
'wars_'
'warried_'
'warranted_'
'warrant_'
'warping_'
'warns_'
'warnout_'
'warmwe_'
'warmthey_'
'warmslightly_'
'warmour_'
'warmestthey_'
'warmess_'
'warmcommon_'
'warfare_'
'warf_'
'warehouses_'
'wardrope_'
'wardobe_'
'wardman_'
'wardbrobe_'
'wantedthe_'
'wantbath_'
'wanchai_'
'waltzed_'
'walt_'
'walmart_'
'wallyou_'
'wally_'
'wallwe_'
'wallunfortunatly_'
'wallthe_'
'wallstaff_'
'wallseemed_'
'wallsbut_'
'wallsa_'
'wallprints_'
'wallppaper_'
'wallpapers_'
'wallpapering_'
'wallpaperalso_'
'wallows_'
'wallowed_'
'wallminus_'
'wallcoverings_'
'walkwaysstains_'
'walkwayand_'
'walkspacious_'
'walkers_'
'walkbridge_'
'walkabout_'
'walkable_'
'walgreens_'
'wales_'
'waldorfs_'
'wal_'
'wakle_'
'wakeup_'
'waken_'
'waked_'
'wakatipu_'
'waiver_'
'waive_'
'waited2_'
'waintained_'
'wainscotted_'
'wahed_'
'wahanda_'
'wagons_'
'wagon_'
'wafers_'
'wady_'
'wading_'
'wadding_'
'wadded_'
'wacker_'
'w57th_'
'vwry_'
'vue_'
'vry_'
'vrbo_'
'voyeurs_'
'voyages_'
'voyager_'
'vouch_'
'voucer_'
'votes_'
'vote_'
'von_'
'vomiting_'
'vomited_'
'voluptous_'
'voluntarily_'
'voltage_'
'volleyball_'
'vold_'
'volcano_'
'voila_'
'voicemails_'
'voiced_'
'vociferous_'
'voc_'
'vlotheid_'
'vivid_'
'vitrified_'
'vitality_'
'vitalisation_'
'vital_'
'vita_'
'vistula_'
'vistas_'
'vistana_'
'visitvery_'
'visitting_'
'visitand_'
'vise_'
'visable_'
'visa_'
'virtue_'
'virgin_'
'violent_'
'violating_'
'villias_'
'ville_'
'vileroy_'
'vila_'
'viking_'
'vigorous_'
'vigilant_'
'viewwith_'
'viewwe_'
'viewstuffy_'
'viewsrooms_'
'viewsi_'
'viewroom_'
'viewnice_'
'viewi_'
'viewasked_'
'viewable_'
'viewa_'
'vietnamese_'
'vienna_'
'victim_'
'vics_'
'vibrating_'
'vibrates_'
'vibes_'
'vial_'
'vfm_'
'vfhotel_'
'veuve_'
'vet_'
'vests_'
'vestibules_'
'vestibule_'
'veryy_'
'verytired_'
'verys_'
'veryhowever_'
'veryhotel_'
'veryfriendly_'
'verycomfortable_'
'veryclean_'
'very2_'
'verve_'
'verty_'
'vertigo_'
'verthe_'
'vert_'
'versions_'
'versa_'
'vermin_'
'vermiculite_'
'verging_'
'verdict_'
'verbena_'
'ventthe_'
'ventillation_'
'ventilator_'
'venice_'
'vengaboys_'
'veneers_'
'vendornot_'
'vendome_'
'velux_'
'velocity_'
'velcro_'
'veiw_'
'veiled_'
'vehemoth_'
'vegtables_'
'vegitation_'
'veggies_'
'veggie_'
'vegetable_'
'vegasthe_'
'veeerrryyy_'
'veeeeeery_'
'vector_'
'vdery_'
'vcr_'
'vaunted_'
'vaulted_'
'vault_'
'vat_'
'vases_'
'varity_'
'varietyroom_'
'var_'
'vapours_'
'vaping_'
'vans_'
'vanish_'
'vanilla_'
'vanderbilt_'
'vandalized_'
'vamp_'
'valves_'
'valuerooms_'
'valueit_'
'valuebreakfast_'
'valu_'
'vallance_'
'validated_'
'valid_'
'valiant_'
'valets_'
'valences_'
'vacuumi_'
'vacumning_'
'vacumming_'
'vacuming_'
'vacume_'
'vacs_'
'vaccuuming_'
'vaccuumed_'
'vaccines_'
'vacationthis_'
'vacationing_'
'vacationat_'
'vacate_'
'vacancies_'
'uv_'
'uttered_'
'utter_'
'utmost_'
'utilities_'
'utilised_'
'utensil_'
'ut_'
'uswe_'
'usuals_'
'usuallyreally_'
'usualif_'
'usualcarpet_'
'usualand_'
'usuakmy_'
'usuable_'
'usthere_'
'usthe_'
'usrooms_'
'usreal_'
'uspros_'
'ushered_'
'ushe_'
'usewhen_'
'useroom_'
'uselessthe_'
'uselesslastly_'
'useit_'
'usedthe_'
'usd60_'
'usd400_'
'usd35_'
'usd2_'
'usand_'
'usally_'
'usagebut_'
'usablelet_'
'urn_'
'urinebut_'
'urineand_'
'urinating_'
'urinated_'
'urinal_'
'urgency_'
'upun_'
'upturned_'
'uptrend_'
'upthis_'
'upswing_'
'upstars_'
'upstairsthe_'
'upstairsnot_'
'upstair_'
'upsides_'
'upsell_'
'uprooms_'
'upriver_'
'upping_'
'upperdeck_'
'upour_'
'upother_'
'upolstery_'
'upmost_'
'upkept_'
'upin_'
'upi_'
'uphotel_'
'upholstry_'
'upher_'
'upheld_'
'upgradingthe_'
'upgradeso_'
'upgradeon_'
'upgradedeverything_'
'upgradeafter_'
'upfraded_'
'uper_'
'updrated_'
'updraged_'
'updgraded_'
'updatingthey_'
'updatingroom_'
'updatingit_'
'updatingher_'
'updatethat_'
'updateroom_'
'updatedroom_'
'updatedoverall_'
'upbut_'
'upand_'
'upafter_'
'up12_'
'unworn_'
'unventilated_'
'unveiled_'
'unvacuumed_'
'unvacumned_'
'unusally_'
'unusal_'
'ununified_'
'untilthe_'
'untill_'
'untidydust_'
'untidiness_'
'unter_'
'untdiy_'
'unsupportive_'
'unsuccessfully_'
'unstylish_'
'unsticking_'
'unstained_'
'unspoiled_'
'unspectacular_'
'unspeakable_'
'unscrewing_'
'unsavoury_'
'unsatisfactory_'
'unsafeagain_'
'unroll_'
'unresposive_'
'unresponsive_'
'unreservedly_'
'unrepaired_'
'unrelieved_'
'unreliability_'
'unrecognisable_'
'unreasonably_'
'unreal_'
'unreachable_'
'unraveling_'
'unquestionably_'
'unpretentious_'
'unpressed_'
'unprepared_'
'unpredictably_'
'unpredictable_'
'unportable_'
'unpolte_'
'unplussed_'
'unpluging_'
'unpleasantthe_'
'unpleasantries_'
'unpleasantness_'
'unpleasantly_'
'unparalleled_'
'unopened_'
'unobtainable_'
'unobstructed_'
'unnerving_'
'unnecessarily_'
'unmentionables_'
'unmentionable_'
'unmemorable_'
'unmarked_'
'unmaintained_'
'unlovded_'
'unlock_'
'unloaded_'
'unload_'
'unlisted_'
'unles_'
'unlabeled_'
'unkind_'
'unjamming_'
'univiting_'
'universe_'
'unitthe_'
'unite_'
'unitalthough_'
'unispiring_'
'unironed_'
'uninvited_'
'uniformity_'
'unhygienically_'
'unhygeniec_'
'unhoovered_'
'unhinged_'
'unhiegenic_'
'unhemmed_'
'unheated_'
'unguarded_'
'ungasel_'
'unfresh_'
'unfortunetly_'
'unfortunatly_'
'unfortunatelybut_'
'unfortunatelly_'
'unfixed_'
'unfixable_'
'unfavourable_'
'unfamiliar_'
'uneventful_'
'unending_'
'unemptied_'
'unemployedi_'
'unemployed_'
'undressed_'
'undonewe_'
'undistinguished_'
'undestand_'
'undesirable_'
'underwaya_'
'understuffed_'
'understandthe_'
'understandings_'
'understaffing_'
'underlings_'
'underlayed_'
'underlay_'
'underinvestment_'
'underimpressed_'
'undergound_'
'underdside_'
'undercover_'
'undercoooked_'
'undercooked_'
'undemanding_'
'undated_'
'uncontrolled_'
'uncomortable_'
'uncomfortablesuper_'
'uncomfortablest_'
'unclogged_'
'uncleanthe_'
'uncle_'
'uncivilised_'
'uncertain_'
'uncaring_'
'unbookable_'
'unbolted_'
'unblock_'
'unbeliveably_'
'unbelievablely_'
'unbecoming_'
'unassumingly_'
'unassuming_'
'unappetizingly_'
'unappealingthe_'
'unansweredthe_'
'unanswered_'
'unannounced_'
'unanimous_'
'unadulterated_'
'unaddressed_'
'unacceptabe_'
'umpteen_'
'ummm_'
'ulurulovely_'
'ultramodern_'
'ultimatelythe_'
'ulta_'
'ukin_'
'ukarrived_'
'uint_'
'uh_'
'ugrade_'
'ugent_'
'uck_'
'u2_'
'typify_'
'typed_'
'tyme_'
'tylenol_'
'twp_'
'twixmas_'
'twinnings_'
'twinhowever_'
'twigs_'
'twighlight_'
'twicerooms_'
'twiceate_'
'twenties_'
'twelve_'
'tweeting_'
'tweeted_'
'tweek_'
'tvstand_'
'tvpeople_'
'tvour_'
'tvonce_'
'tvon_'
'tvnot_'
'tvi_'
'tvhowever_'
'tvhotel_'
'tvdark_'
'tvcosts_'
'tvconsidering_'
'tvbut_'
'tvbathroom_'
'tvand_'
'tutu_'
'tutor_'
'tusks_'
'tuscan_'
'tusayan_'
'turret_'
'turquoise_'
'turneresque_'
'turkey_'
'turbogoldclearly_'
'tupperware_'
'tunnels_'
'tung_'
'tunes_'
'tundown_'
'tuna_'
'tumble_'
'tulips_'
'tuileries_'
'tufted_'
'tues_'
'tucson_'
'tubless_'
'tubit_'
'tubbut_'
'tshirts_'
'tryp_'
'trx_'
'trusting_'
'trunk_'
'truned_'
'trumps_'
'trudges_'
'truckload_'
'trucker_'
'tru_'
'trove_'
'trough_'
'troublewas_'
'troubled_'
'tropocal_'
'tropicsgood_'
'tro_'
'triumph_'
'tripthe_'
'tripsuper_'
'tripper_'
'triping_'
'tripfood_'
'tripadvisorthe_'
'trinkets_'
'trinity_'
'triggered_'
'trigger_'
'trifle_'
'tridenti_'
'tricks_'
'trickmy_'
'trickles_'
'trickled_'
'trickily_'
'triathlon_'
'tri_'
'tremors_'
'treeshowever_'
'trecherous_'
'treatsgreat_'
'treating_'
'treasures_'
'treading_'
'trayto_'
'travesty_'
'travertine_'
'travelodgeand_'
'travelno_'
'travelmy_'
'travelleres_'
'travellator_'
'travelign_'
'travelercleanliness_'
'trashthe_'
'trashes_'
'trashcans_'
'transported_'
'transparent_'
'transmitter_'
'transmit_'
'translate_'
'transitted_'
'transforms_'
'transformed_'
'transfering_'
'tranquillity_'
'tranquility_'
'tramping_'
'tram_'
'traject_'
'trait_'
'traipsing_'
'trainingtried_'
'trailfindersnicely_'
'trafficthe_'
'trafficno_'
'traffice_'
'tradesman_'
'traders_'
'trader_'
'traded_'
'tractor_'
'traction_'
'traced_'
'townhouses_'
'towerit_'
'towelswardrobe_'
'towelstoilets_'
'towelsso_'
'towelsroom_'
'towelsnot_'
'towelsluxurious_'
'towelslarge_'
'towelshotel_'
'towelseven_'
'towelsbed_'
'towelsand_'
'towelsamazing_'
'towelsalways_'
'towelling_'
'towell_'
'toweling_'
'towelette_'
'towe_'
'touts_'
'toutedhousekeeping_'
'touted_'
'toursity_'
'tourney_'
'touristy_'
'touristic_'
'touringit_'
'touist_'
'toughest_'
'touchthis_'
'touchscreen_'
'touchpad_'
'touchesi_'
'touchedour_'
'touchbut_'
'totthis_'
'tots_'
'toto_'
'toting_'
'tothe_'
'tote_'
'totaly_'
'tot_'
'tossing_'
'tortilla_'
'torquaybased_'
'tornado_'
'toren_'
'tore_'
'torches_'
'topthe_'
'topsi_'
'topping_'
'topool_'
'topological_'
'topline_'
'topical_'
'toowas_'
'toothpicks_'
'toothpastehowever_'
'toothour_'
'toothbrushthe_'
'tootake_'
'tooooooooooooooo_'
'toomost_'
'toom_'
'toohotel_'
'toofantastic_'
'toobut_'
'toobreakfast_'
'tonne_'
'tonightnicely_'
'toniest_'
'tonic_'
'tongariro_'
'tomorrowthe_'
'tomorrows_'
'tomatoes_'
'tollway_'
'tolls_'
'tollbooths_'
'tolerates_'
'tolerant_'
'tokyothe_'
'toke_'
'toit_'
'toiletwhen_'
'toiletwe_'
'toiletvery_'
'toiletties_'
'toiletteries_'
'toilett_'
'toiletsuggestion_'
'toiletso_'
'toiletroom_'
'toiletrieswe_'
'toiletriessafe_'
'toiletriesbath_'
'toiletriesand_'
'toiletres_'
'toiletpaper_'
'toiletmy_'
'toiletit_'
'toilethotel_'
'toilethad_'
'toileteverything_'
'toiletclassy_'
'toiletbut_'
'toiletbeautifully_'
'toiletat_'
'toiletaries_'
'toiletall_'
'toiler_'
'toiet_'
'toi_'
'togetherwas_'
'todyreception_'
'todaythe_'
'todayok_'
'todate_'
'tocked_'
'tobut_'
'tobu_'
'tobar_'
'tobaccoi_'
'toastie_'
'tne_'
'tmy_'
'tlcthe_'
'tlcso_'
'tlcmy_'
'tlcit_'
'tlccheck_'
'tlccarpet_'
'titchy_'
'titanic_'
'titan_'
'tis_'
'tirned_'
'tires_'
'tiredwhen_'
'tiredtypical_'
'tiredsome_'
'tiredrooms_'
'tiredroom_'
'tiredoutside_'
'tiredits_'
'tiredin_'
'tiredhousekeeping_'
'tiredhad_'
'tiredclean_'
'tiredbit_'
'tiredbed_'
'tiredbathroom_'
'tiredall_'
'tired1_'
'tire_'
'tipping_'
'tinyrunning_'
'tinyit_'
'tinybathroom_'
'tinting_'
'tint_'
'tink_'
'tinier_'
'tinfoil_'
'tinbut_'
'timings_'
'timewarp_'
'timevery_'
'timetables_'
'timeswe_'
'timesthere_'
'timer_'
'timeover_'
'timeon_'
'timeno_'
'timemy_'
'timeless_'
'timeit_'
'timeheading_'
'timed_'
'timecanopy_'
'timebut_'
'timeanother_'
'timbers_'
'tilting_'
'tilt_'
'till830pm_'
'tilingthe_'
'tilesthis_'
'tilesstuff_'
'tilesall_'
'tikes_'
'tiing_'
'tightthe_'
'tighter_'
'tightening_'
'tighened_'
'tiger_'
'tiff_'
'tiered_'
'tidyyet_'
'tidyvisited_'
'tidyvery_'
'tidyunusually_'
'tidyunfortunately_'
'tidythere_'
'tidystayed_'
'tidystaff_'
'tidypeople_'
'tidyonce_'
'tidynot_'
'tidyness_'
'tidymysense_'
'tidymy_'
'tidymine_'
'tidylocated_'
'tidylarge_'
'tidyits_'
'tidyhowever_'
'tidyeverything_'
'tidydecor_'
'tidybut_'
'tidybathroom_'
'tidyall_'
'tidyagain_'
'tidya_'
'tidy2_'
'tidbits_'
'tiday_'
'tickles_'
'tia_'
'thye_'
'thwy_'
'thw_'
'thursdaythe_'
'thurs_'
'thumped_'
'thuds_'
'thudded_'
'thsi_'
'thrust_'
'throuhgjitt_'
'throughtout_'
'throughthe_'
'throughoutthink_'
'throughoutthat_'
'throughoutrooms_'
'throughoutbut_'
'throughone_'
'throughly_'
'thrones_'
'throes_'
'thrills_'
'thrilling_'
'threatening_'
'threatened_'
'threat_'
'threaded_'
'threadcount_'
'threadbear_'
'threadbareshe_'
'threadabe_'
'thre_'
'thrashing_'
'thouthe_'
'thoughtlessly_'
'thoughfully_'
'thoughcheck_'
'thou_'
'thotheir_'
'thorughout_'
'thorsten_'
'thorougly_'
'thorought_'
'thnis_'
'thn_'
'thje_'
'thitd_'
'thisworks_'
'thiswhen_'
'thisunless_'
'thisthis_'
'thisthe_'
'thisnice_'
'thisbathroom_'
'thisand_'
'thirteen_'
'thinwhile_'
'thinwe_'
'thinrooms_'
'thinnish_'
'thinness_'
'thinner_'
'thini_'
'thingthe_'
'thingstwo_'
'thingstoday_'
'thingsthey_'
'thingsonly_'
'thingit_'
'thinbathroom_'
'thier_'
'theythe_'
'theupkeep_'
'thet_'
'thesuite_'
'theso_'
'thesethere_'
'thesethe_'
'thermostatwhich_'
'thermostatthe_'
'thermometer_'
'therewould_'
'therewere_'
'therewe_'
'thereshower_'
'theresa_'
'thererooms_'
'thereour_'
'thereon_'
'thereno_'
'therenevertheless_'
'therelack_'
'therein_'
'therehowever_'
'therehotel_'
'therefor_'
'therebut_'
'therapy_'
'therapist_'
'theour_'
'themwe_'
'themselvesi_'
'themselveshowever_'
'themself_'
'themour_'
'themoh_'
'themesbut_'
'themas_'
'themand_'
'thehilton_'
'theft_'
'thee_'
'thedishwasher_'
'theaterand_'
'theat_'
'the1960s_'
'thaw_'
'thatsoap_'
'thatour_'
'thatmaybe_'
'thatmany_'
'thateven_'
'thatenough_'
'thant_'
'thanfjlly_'
'thancheck_'
'textiles_'
'textbook_'
'tetris_'
'testify_'
'tescos_'
'tesco_'
'terrifyingly_'
'terrified_'
'terrificwhen_'
'terrifically_'
'terriffic_'
'terribley_'
'terriblethe_'
'terribleeven_'
'terrestrial_'
'terrazzo_'
'terrasse_'
'terracetoo_'
'termsthe_'
'termites_'
'terminalsthe_'
'terminalmy_'
'terminali_'
'terible_'
'teq_'
'tenure_'
'tents_'
'tennnis_'
'tenerife_'
'tendancy_'
'tenats_'
'tempus_'
'tempura_'
'tempting_'
'temptation_'
'tempt_'
'templove_'
'template_'
'temperatureits_'
'temperatured_'
'temperate_'
'temparature_'
'telvisions_'
'telltale_'
'telepathy_'
'telelphone_'
'telefon_'
'tele_'
'tel_'
'tek_'
'teethnot_'
'teetering_'
'teepee_'
'teeny_'
'teeming_'
'tedious_'
'technique_'
'technicallythe_'
'techicality_'
'teatowel_'
'teathered_'
'teathe_'
'tearthis_'
'tearthe_'
'teapot_'
'teamroom_'
'teamaker_'
'teacup_'
'teacher_'
'taylor_'
'taxidermied_'
'tawels_'
'tattybut_'
'tatters_'
'tate_'
'tasy_'
'tastless_'
'tastings_'
'tastingbut_'
'tastefull_'
'tastebut_'
'tassel_'
'tasks_'
'tarting_'
'tarps_'
'tarnishing_'
'tarmack_'
'tariffs_'
'tariff_'
'tardy_'
'tarantula_'
'tapestry_'
'tapestries_'
'tantrum_'
'tans_'
'tanks_'
'tankand_'
'tangled_'
'tang_'
'tandardyou_'
'tampon_'
'tallest_'
'talc_'
'taksin_'
'takingly_'
'takeover_'
'taipei_'
'tainted_'
'tails_'
'tailback_'
'tail_'
'tahoe_'
'tahitian_'
'tagline_'
'taestfull_'
'tact_'
'tack_'
'tablewarethe_'
'tablessuite_'
'tablesrooms_'
'tableour_'
'tabels_'
'sándwichs_'
'sytlish_'
'systemthe_'
'systematically_'
'syringe_'
'syrett_'
'syrah_'
'sync_'
'symptomatic_'
'symphony_'
'symphatic_'
'symmetrical_'
'symbols_'
'symbol_'
'sydneyhigh_'
'swore_'
'swopped_'
'swooped_'
'switchboard_'
'swissotels_'
'swisscom_'
'swishing_'
'swipes_'
'swings_'
'swimwear_'
'swimthe_'
'swimsuits_'
'swimsuit_'
'swimmingwifi_'
'swimmer_'
'swilling_'
'swiffer_'
'swere_'
'swelled_'
'swell_'
'sweeteners_'
'sweetener_'
'sweeps_'
'sweats_'
'swears_'
'swearing_'
'swear_'
'sways_'
'swaying_'
'swatted_'
'swarvoski_'
'swarovski_'
'swarmed_'
'swamthe_'
'swamped_'
'swamp_'
'swallowing_'
'swallow_'
'swags_'
'swagger_'
'svv_'
'svos_'
'suzanne_'
'suv_'
'sutie_'
'suticases_'
'sustainibility_'
'sustainability_'
'suspiciously_'
'suspicions_'
'suspecthowever_'
'survivor_'
'surveyso_'
'surveys_'
'surroundingsin_'
'surprisinga_'
'surprisehowever_'
'surprisedly_'
'surprinsigly_'
'surplus_'
'surpised_'
'surperb_'
'surpassed_'
'surounds_'
'surounded_'
'surname_'
'surfing_'
'surfacethe_'
'surfacesso_'
'surfacesbrought_'
'surethe_'
'surefire_'
'surcharges_'
'surau_'
'sur_'
'supreb_'
'suppression_'
'supports_'
'supporterbut_'
'supported_'
'supplystaying_'
'supplier_'
'supplementary_'
'supple_'
'supervisors_'
'supervisornd_'
'supervises_'
'supervisers_'
'superp_'
'supermy_'
'superiors_'
'superfast_'
'superdome_'
'superbthe_'
'suntec_'
'sunshinemy_'
'sunnyour_'
'sundial_'
'sundeck_'
'sunbeam_'
'sumo_'
'summertime_'
'summers_'
'summarizing_'
'summarise_'
'summ_'
'sulphurous_'
'sulphuric_'
'sulphur_'
'sulfide_'
'sukhomvit_'
'suitewas_'
'suitetoo_'
'suitesthe_'
'suiteroom_'
'suiteour_'
'suitee_'
'suitecleaniness_'
'suite1712_'
'suitcasethis_'
'suitcasethere_'
'suiited_'
'suggeseted_'
'suganuma_'
'suffocation_'
'suffocated_'
'suffocate_'
'sufficiant_'
'sufferable_'
'suepr_'
'sue_'
'suds_'
'sucured_'
'suckers_'
'suchlike_'
'successive_'
'successful_'
'subways_'
'subtly_'
'substitutes_'
'substituted_'
'substitue_'
'substandardmodern_'
'substances_'
'subside_'
'suboptimal_'
'submit_'
'sublime_'
'subjective_'
'subjected_'
'suberb_'
'subcontractors_'
'suavethere_'
'suana_'
'styrofoam_'
'styly_'
'stylized_'
'stylishafter_'
'stylebut_'
'styerooms_'
'sturdiness_'
'stupidly_'
'stupidity_'
'stupendously_'
'stunkblankets_'
'stuffythe_'
'stuffyby_'
'stuffunfortunately_'
'stuffone_'
'stuffit_'
'studioit_'
'stucco_'
'stubble_'
'stub_'
'structured_'
'stronlgy_'
'strongi_'
'strongest_'
'strolling_'
'stroller_'
'strippedpublic_'
'striping_'
'stripe_'
'stringent_'
'stright_'
'stricter_'
'stretchedthe_'
'stretchedfirst_'
'stretched_'
'stresses_'
'strenuous_'
'streetthe_'
'streetnoise_'
'streetlight_'
'streetbut_'
'streetand_'
'streaky_'
'streak_'
'straws_'
'strawbs_'
'strathmore_'
'stratford_'
'strategy_'
'strangly_'
'strangers_'
'strainers_'
'strain_'
'straightforward_'
'straightener_'
'straightaway_'
'straff_'
'straddle_'
'stowage_'
'storyesque_'
'storiesthe_'
'storewhile_'
'storethe_'
'storerooms_'
'storageonly_'
'stoppers_'
'stoppages_'
'stopbathroom_'
'stoneliegh_'
'stomping_'
'stollen_'
'stoked_'
'stocks_'
'stockman_'
'stocking_'
'stockedthe_'
'stocewell_'
'stitched_'
'stitch_'
'stirrers_'
'stirred_'
'stipulation_'
'stipulated_'
'stinked_'
'stimulating_'
'stiltonthe_'
'stillok_'
'stilll_'
'stilldisappointed_'
'stifle_'
'stickyvery_'
'stickyour_'
'stickly_'
'stickered_'
'sticked_'
'sthe_'
'stewed_'
'stewart_'
'steven_'
'sterilized_'
'sterilize_'
'steril_'
'stereotyping_'
'stereo_'
'stepladders_'
'stephen_'
'stentch_'
'stenchthe_'
'stenchcould_'
'stenchbreakfast_'
'stem_'
'steigenberger_'
'steering_'
'steeply_'
'steeple_'
'steeping_'
'steap_'
'steamer_'
'stealing_'
'steakhouse_'
'stead_'
'staywhile_'
'staytowels_'
'staythin_'
'staystaff_'
'stayrooms_'
'stayon_'
'stayng_'
'stayi_'
'stayhotel_'
'stayers_'
'stayedon_'
'stayedhad_'
'stayedand_'
'stayclean_'
'staybridge_'
'staybathroom_'
'stayat_'
'stayas_'
'stauffers_'
'stature_'
'stationthey_'
'stationroom_'
'stationery_'
'stationed_'
'stationcomfortable_'
'statethe_'
'stateside_'
'statements_'
'starwoodthey_'
'starwoods_'
'starvation_'
'startle_'
'starterthe_'
'starpoints_'
'staroverall_'
'starlets_'
'starkly_'
'starker_'
'starit_'
'stari_'
'stargazing_'
'stares_'
'stardust_'
'starch_'
'starand_'
'stapler_'
'stapled_'
'staorage_'
'standout_'
'standit_'
'standerd_'
'stander_'
'standby_'
'standardwell_'
'standardtowels_'
'standardthis_'
'standardtelling_'
'standardsyou_'
'standardstired_'
'standardsbut_'
'standardsaround_'
'standardsand_'
'standardroom_'
'standardly_'
'standardlock_'
'standardized_'
'standardize_'
'standardit_'
'standardi_'
'standardeverything_'
'standardeverthing_'
'standardas_'
'standar_'
'standad_'
'stamped_'
'stamina_'
'stalk_'
'staleness_'
'stakes_'
'stairsthe_'
'stairssome_'
'stairshad_'
'stainy_'
'stainsthe_'
'stainsand_'
'stainedi_'
'stainedchange_'
'stainedbut_'
'stainedas_'
'stainedand_'
'staied_'
'stagnating_'
'staggered_'
'staffwe_'
'staffthere_'
'staffspa_'
'staffpleasantly_'
'staffmy_'
'stafflack_'
'staffit_'
'staffi_'
'staffhousekeeping_'
'staffhotel_'
'staffers_'
'staffer_'
'staffelegant_'
'staffedmy_'
'staffbut_'
'staffalso_'
'staf_'
'stacks_'
'ssr_'
'sservice_'
'srlanka_'
'sreet_'
'sr_'
'squished_'
'squirted_'
'squirt_'
'squipped_'
'squint_'
'squidgy_'
'squelching_'
'squeezebut_'
'squatting_'
'squat_'
'squashing_'
'squash_'
'squaddie_'
'sqft_'
'sqeeking_'
'sps_'
'sprouting_'
'sproing_'
'spritzed_'
'spritz_'
'sprinkling_'
'springhills_'
'spreading_'
'sprayinglittle_'
'spraygun_'
'spottless_'
'spotting_'
'spotsrooms_'
'spotsit_'
'spotnope_'
'spotlessy_'
'spotlessthe_'
'spotlesstake_'
'spotlessroom_'
'spotlessour_'
'spotlessmy_'
'spotlessit_'
'spotlessi_'
'spotlessclean_'
'spotless8_'
'spotessly_'
'sportsnice_'
'sporthotel_'
'spores_'
'sponges_'
'spong_'
'spoken_'
'splotchy_'
'splotches_'
'splotch_'
'splits_'
'splendour_'
'splendor_'
'splenderous_'
'spleep_'
'splayed_'
'splashy_'
'splashings_'
'splashback_'
'spitethe_'
'spiral_'
'spinning_'
'spinach_'
'spike_'
'spigots_'
'spigot_'
'spiffed_'
'spielberg_'
'spied_'
'spiderweb_'
'spidersthe_'
'spicuts_'
'spicket_'
'spices_'
'spiced_'
'spgs_'
'spewed_'
'spencer_'
'spelt_'
'spell_'
'speednet_'
'speediest_'
'spectrum_'
'spectaular_'
'spectactular_'
'specs_'
'specifications_'
'specials_'
'specialour_'
'specialize_'
'speciality_'
'specialist_'
'specialises_'
'specail_'
'speakersthe_'
'speadsheet_'
'spasious_'
'sparoom_'
'sparklingthere_'
'sparkles_'
'sparing_'
'sparcley_'
'spanningpool_'
'spanned_'
'spagetti_'
'spacoius_'
'spacius_'
'spaciuosand_'
'spaciousthree_'
'spaciousrooms_'
'spaciousonly_'
'spaciousmy_'
'spacioushowever_'
'spacioushaving_'
'spaciousgood_'
'spaciousenough_'
'spaciousbut_'
'spacing_'
'spacesthey_'
'spaceshuttle_'
'spacepaint_'
'spaceious_'
'sp_'
'soyou_'
'sox_'
'sowas_'
'souvenirs_'
'souveniers_'
'southward_'
'southport_'
'sours_'
'soured_'
'sourdough_'
'soundroom_'
'soundproofingthe_'
'soundproff_'
'soundless_'
'souless_'
'sould_'
'soso_'
'sortthe_'
'sortsif_'
'sorrowfully_'
'sorroundings_'
'sorooms_'
'sores_'
'sorbet_'
'sophistication_'
'sooty_'
'soot_'
'sooooper_'
'soooooo_'
'soonroom_'
'soonno_'
'sooni_'
'soonhigh_'
'soom_'
'soo_'
'sony_'
'sonwere_'
'songs_'
'song_'
'sone_'
'somplace_'
'somking_'
'somewherei_'
'somewhatduring_'
'someways_'
'somethings_'
'somethingand_'
'somespacious_'
'someoneall_'
'someof_'
'somemakeup_'
'some1_'
'sombre_'
'som_'
'solvents_'
'solvent_'
'solutionthe_'
'solitary_'
'solidthe_'
'solicited_'
'soles_'
'solely_'
'sol_'
'sojourn_'
'soit_'
'soirée_'
'soiledas_'
'sohowever_'
'soh_'
'softthe_'
'softexcellent_'
'soften_'
'softdrinks_'
'softball_'
'sofitelthe_'
'sofitelso_'
'sofitelgood_'
'sofitelbed_'
'sofayou_'
'sofathe_'
'sofar_'
'sofabut_'
'sodden_'
'sodas_'
'sod_'
'sockswe_'
'socker_'
'society_'
'socialist_'
'sobed_'
'soas_'
'soared_'
'soapthe_'
'soapscum_'
'soapoverall_'
'soapmy_'
'soapholder_'
'soaped_'
'soand_'
'soams_'
'soaks_'
'soaker_'
'snuggled_'
'snuggle_'
'snowy_'
'snot_'
'snooker_'
'snobby_'
'snob_'
'sno_'
'sniffling_'
'sneezingoverall_'
'sneezed_'
'sneaky_'
'sneak_'
'snazzy_'
'snarl_'
'snaps_'
'snap_'
'snaking_'
'snakes_'
'snake_'
'snail_'
'snagged_'
'snag_'
'snafu_'
'snacky_'
'snacking_'
'snacked_'
'smushed_'
'smuggle_'
'smudgy_'
'smouldering_'
'smothered_'
'smother_'
'smorrebröd_'
'smores_'
'smokingwhen_'
'smokingso_'
'smokingmy_'
'smokingbut_'
'smoking26_'
'smokethere_'
'smokersthe_'
'smokersi_'
'smokehaving_'
'smokeeven_'
'smokebut_'
'smokebed_'
'smoje_'
'smkoing_'
'smirnoff_'
'smily_'
'smiled_'
'smeltbut_'
'smellynow_'
'smellyi_'
'smellyand_'
'smellour_'
'smelloor_'
'smellnice_'
'smellmy_'
'smellit_'
'smellingsmall_'
'smellingbeds_'
'smellhowever_'
'smellboth_'
'smellbeds_'
'smeeting_'
'smeers_'
'smeeling_'
'smeel_'
'smeary_'
'smash_'
'smartest_'
'smarten_'
'smarta_'
'smanaged_'
'smallwe_'
'smallthis_'
'smallt_'
'smallso_'
'smalls_'
'smallrooms_'
'smallroom_'
'smallour_'
'smalloften_'
'smalllast_'
'smallinterior_'
'smallif_'
'smalleverything_'
'smalleven_'
'smallbut_'
'small1_'
'smacks_'
'smacked_'
'smack_'
'slowstairwells_'
'slowlywhen_'
'slowing_'
'slowed_'
'slowbut_'
'slops_'
'sloppiness_'
'sloping_'
'slop_'
'sloooow_'
'slit_'
'slipshod_'
'slippesr_'
'slippersthey_'
'slippersthe_'
'slippersno_'
'slippersame_'
'slinging_'
'slimey_'
'slim_'
'slighted_'
'slighlty_'
'sliders_'
'slider_'
'sleptthe_'
'sleezy_'
'sleepyone_'
'sleepwears_'
'sleepthen_'
'sleepover_'
'sleepnotwithstanding_'
'sleepmask_'
'sleepfortunately_'
'sleepalthough_'
'sleekly_'
'sleazy_'
'sleak_'
'slayley_'
'slat_'
'slapped_'
'slap_'
'slant_'
'slammning_'
'slaley_'
'slacking_'
'skywalks_'
'skywalk_'
'skytrain_'
'skysports_'
'skype_'
'skylounge_'
'skylink_'
'skylights_'
'skylight_'
'skydeck_'
'skycity_'
'skuzzy_'
'skulked_'
'skuffed_'
'skittles_'
'skirtin_'
'skirtboard_'
'skimping_'
'skimped_'
'skimp_'
'skimming_'
'skewed_'
'sketchy_'
'sk_'
'sizewith_'
'sizewhile_'
'sizethis_'
'sizeon_'
'sizeno_'
'sizenice_'
'sizehotel_'
'sizeeverything_'
'sizedthe_'
'sizedmy_'
'sizedelegant_'
'sixty_'
'sixteenth_'
'sittingnot_'
'sis_'
'sirloin_'
'siren_'
'sips_'
'sippers_'
'sip_'
'sinset_'
'sinlge_'
'sinkyes_'
'sinkwe_'
'sinkthey_'
'sinknice_'
'sinkfirst_'
'sinkdrain_'
'sinkbut_'
'sinit_'
'singularly_'
'singular_'
'sings_'
'singly_'
'singlle_'
'singlethe_'
'singing_'
'singer_'
'singarajah_'
'singaraja_'
'singaportean_'
'singaporeon_'
'singaporean_'
'sincerely_'
'sincere_'
'sincebut_'
'simplistic_'
'simplified_'
'simplicity_'
'simplest_'
'simpel_'
'similar5_'
'silverstone_'
'silom_'
'silimar_'
'siliconed_'
'silence_'
'siince_'
'signing_'
'signifying_'
'signifies_'
'signaure_'
'signalling_'
'signaled_'
'signages_'
'sighs_'
'sigh_'
'sigaret_'
'siding_'
'sidewall_'
'sidethis_'
'sidetables_'
'sidesthe_'
'sidesize_'
'siderooms_'
'sideit_'
'sided_'
'sidecarpets_'
'sideboards_'
'sidebed_'
'sidebathroom_'
'sida_'
'siam_'
'shy_'
'shutvery_'
'shuttlethe_'
'shuttleservice_'
'shuttleroom_'
'shuttered_'
'shutroom_'
'shulabiggest_'
'shuffled_'
'shuffleboard_'
'shrubs_'
'shrinking_'
'shrimps_'
'shrieked_'
'shreeya_'
'shreds_'
'shredding_'
'shreddies_'
'shreads_'
'showrr_'
'showrooms_'
'showroom_'
'showerwill_'
'showerwhat_'
'showertoilet_'
'showersour_'
'showerso_'
'showersgood_'
'showerour_'
'showeroperating_'
'showeron_'
'showerok_'
'showerof_'
'showerno_'
'showerlarge_'
'showerjet_'
'showerhowever_'
'showerhotel_'
'showergels_'
'showerfour_'
'showereverything_'
'showerdid_'
'showercould_'
'showercertainly_'
'shower2_'
'showe_'
'shove_'
'shouldto_'
'shouldbut_'
'shots_'
'shortwhen_'
'shortsthe_'
'shortish_'
'shortif_'
'shorten_'
'shorted_'
'shortcomings_'
'shortbread_'
'shorrt_'
'shores_'
'shoppers_'
'shooting_'
'shonky_'
'shoji_'
'shoeshine_'
'shoehorn_'
'shivered_'
'shirting_'
'shirle_'
'shipshape_'
'shipping_'
'shins_'
'shinny_'
'shiniest_'
'shinagawa_'
'shifts_'
'shifting_'
'shibuya_'
'sheriff_'
'sherarons_'
'shelter_'
'shelly_'
'shells_'
'shelfservice_'
'shelfs_'
'shelfour_'
'shelfi_'
'sheik_'
'sheffield_'
'sheetwo_'
'sheetthe_'
'sheetsso_'
'sheetsotherwise_'
'sheetsone_'
'sheetsmy_'
'sheetsit_'
'sheetshad_'
'sheetsapart_'
'sheetno_'
'sheeting_'
'sheetgym_'
'sheepishlyit_'
'sheen_'
'shawn_'
'shaw_'
'shavingthe_'
'shaverthe_'
'shavers_'
'sharply_'
'sharper_'
'shareable_'
'shards_'
'sharaton_'
'shappy_'
'shaperoom_'
'shampoothis_'
'shampoothe_'
'shampoosthe_'
'shampoostayed_'
'shampooi_'
'shampooall_'
'shamethey_'
'shamethe_'
'shameso_'
'shamefully_'
'sham_'
'shading_'
'shack_'
'shabbythere_'
'shabbymy_'
'shabbyits_'
'shabbily_'
'sh_'
'sgd15_'
'sgd11_'
'sft_'
'sfo_'
'sfi_'
'señor_'
'sexual_'
'sewar_'
'sewageclean_'
'sevice_'
'setee_'
'setback_'
'sesame_'
'servied_'
'servie_'
'serviceworse_'
'servicewi_'
'servicewe_'
'serviceswe_'
'servicesupon_'
'serviceroom_'
'serviceour_'
'serviceon_'
'servicemy_'
'serviceminded_'
'servicehelpful_'
'serviceexceptionally_'
'servicedyou_'
'servicedthe_'
'servicedreally_'
'serviceall_'
'servicable_'
'servced_'
'servants_'
'serous_'
'serivce_'
'seriousely_'
'sergie_'
'sequentialthere_'
'sept_'
'sepia_'
'separtate_'
'separates_'
'sentosa_'
'sensual_'
'sensitivities_'
'semen_'
'selsdon_'
'sellotape_'
'selfish_'
'selectionthe_'
'selectionrooms_'
'seldom_'
'selction_'
'seine_'
'segregated_'
'segments_'
'seethrough_'
'seeps_'
'seenthe_'
'seentables_'
'seenroom_'
'seengood_'
'seeneven_'
'seemless_'
'seeming_'
'seekers_'
'seeemd_'
'seeds_'
'seed_'
'seebed_'
'seeand_'
'seductive_'
'sedona_'
'sediment_'
'sedate_'
'securely_'
'sector_'
'sectionon_'
'sectional_'
'secretthey_'
'secc_'
'seaworld_'
'seattleit_'
'seattle4_'
'seatingbest_'
'seaters_'
'seasonsthis_'
'seasonsjust_'
'seasonal_'
'searingly_'
'searchingthe_'
'searched_'
'seaport_'
'sean_'
'seamed_'
'sealent_'
'seait_'
'seaing_'
'seagulls_'
'seagull_'
'seafoam_'
'seadily_'
'scuttle_'
'scurrying_'
'scurring_'
'scurried_'
'scungy_'
'scummy_'
'sculptures_'
'sculptured_'
'sculptural_'
'scuffing_'
'scrunchy_'
'scrunchie_'
'scrunched_'
'scrumpy_'
'scrum_'
'scrolling_'
'scrimping_'
'scrimped_'
'screensthe_'
'screenroom_'
'screenbut_'
'screech_'
'scratchingand_'
'scramble_'
'scrabble_'
'scoured_'
'scotlandthe_'
'scotch_'
'scorpion_'
'scored_'
'scoreboards_'
'scorchmarks_'
'scorching_'
'scorch_'
'scope_'
'scooter_'
'scooted_'
'scone_'
'sconces_'
'sconce_'
'scolding_'
'scimp_'
'sci_'
'schmotel_'
'schlepp_'
'schlep_'
'schizophrenic_'
'scheduling_'
'schedules_'
'scenes_'
'scatter_'
'scathing_'
'scariest_'
'scarce_'
'scant_'
'scanner_'
'scanned_'
'scandinavia_'
'scandic_'
'scandanavian_'
'scams_'
'scalp_'
'scaling_'
'scales_'
'scalded_'
'scald_'
'scaffold_'
'sbut_'
'sbs_'
'saythat_'
'sayang_'
'saws_'
'savvy_'
'saviour_'
'savers_'
'savanah_'
'sauvignonthe_'
'sauntered_'
'saunaalso_'
'sauces_'
'saucepans_'
'satyed_'
'satt_'
'sats_'
'satisfies_'
'satelite_'
'sataying_'
'sash_'
'sardines_'
'sardine_'
'sar_'
'saphan_'
'sapele_'
'sapcious_'
'saop_'
'santabarbara_'
'sans_'
'sanitization_'
'sanitation_'
'sandyused_'
'sandvich_'
'sandusky_'
'sandra_'
'sandles_'
'sanding_'
'sandbars_'
'sandals_'
'sanctuary_'
'samui_'
'sampans_'
'samey_'
'sama_'
'salways_'
'salvation_'
'salvage_'
'salvador_'
'salute_'
'salmonusually_'
'salesman_'
'saladour_'
'sainsburys_'
'sail_'
'sagar_'
'safetyshower_'
'safebox_'
'safari_'
'saddle_'
'saddens_'
'saddened_'
'sacrificed_'
'sacrifice_'
'sacked_'
'sack_'
'saccharine_'
'ryokan_'
'ruts_'
'ruth_'
'rustythe_'
'rustling_'
'russian_'
'russell_'
'russel_'
'rushy_'
'rural_'
'ruptured_'
'rupees_'
'runthe_'
'runny_'
'runnig_'
'runnerthe_'
'rungs_'
'runger_'
'rung_'
'rundle_'
'runaway_'
'runaround_'
'rumpledthe_'
'rumoured_'
'rummage_'
'rumbling_'
'rumbled_'
'ruinedthe_'
'rugby_'
'ruffled_'
'rudimentary_'
'rudestthe_'
'rucksacks_'
'rucksack_'
'ruck_'
'ruchirathe_'
'ruby_'
'rubs_'
'rubish_'
'ruber_'
'rube_'
'rubble_'
'rubbing_'
'rubberband_'
'rroom_'
'rroms_'
'rrefurbishing_'
'rpos_'
'rp_'
'rowthe_'
'roundplenty_'
'rounded_'
'roulette_'
'roughfurnishings_'
'roughest_'
'rougher_'
'rouge_'
'rotunda_'
'rottonthe_'
'rotated_'
'rotate_'
'rota_'
'rosemund_'
'rosa_'
'root_'
'rooomthere_'
'roons_'
'roomythe_'
'roomyrooms_'
'roomyclean_'
'roomybut_'
'roomwhile_'
'roomwall_'
'roomview_'
'roomusually_'
'roomupon_'
'roomunfortunately_'
'roomtwo_'
'roomtravelling_'
'roomtherethere_'
'roomthen_'
'roomtheir_'
'roomthat_'
'roomthankfully_'
'roomswhy_'
'roomswe_'
'roomsvilla_'
'roomsvery_'
'roomsupon_'
'roomsunfortunately_'
'roomsthey_'
'roomsspent_'
'roomssome_'
'roomsso_'
'roomssmelly_'
'roomsshower_'
'roomsrecommended_'
'roomsreally_'
'roomspotlessly_'
'roomsonly_'
'roomson_'
'roomsnice_'
'roomsnew_'
'roomsmy_'
'roomsmodern_'
'roomslike_'
'roomshas_'
'roomseemed_'
'roomsee_'
'roomsdownsides_'
'roomsboth_'
'roomsbed_'
'roomsbathroom_'
'roomsansd_'
'roomsalthough_'
'roomsall_'
'roomsafter_'
'roomsadvised_'
'rooms4_'
'roomrather_'
'roomquality_'
'roomproblems_'
'roompools_'
'roomplenty_'
'roomone_'
'roomon_'
'roomnothing_'
'roomnegative_'
'roomnatural_'
'roomlovely_'
'roomlinx_'
'roomlinens_'
'roomlg03_'
'roomif_'
'roomie_'
'roomhigh_'
'roomhaving_'
'roomhallway_'
'roomhalf_'
'roomhairs_'
'roomgrotty_'
'roomextra_'
'roomeven_'
'roomed_'
'roome_'
'roomdire_'
'roomcounted_'
'roomcleanliness_'
'roomcleaning_'
'roombuffet_'
'roombed_'
'roombasic_'
'roomba_'
'roomapart_'
'roomanyone_'
'roomanother_'
'roomall_'
'room549_'
'room210_'
'room1_'
'rook_'
'roofthe_'
'rooams_'
'roma_'
'rollup_'
'rollswe_'
'rollout_'
'rolland_'
'role_'
'roiom_'
'roiled_'
'roger_'
'rodeo_'
'rodent_'
'rode_'
'rockers_'
'rockefeller_'
'rocked_'
'robotic_'
'robesthe_'
'robesmy_'
'roastish_'
'roaring_'
'roamings_'
'roadworks_'
'roadshow_'
'roadmy_'
'rms_'
'rmb_'
'rmb110_'
'rm523_'
'rm521_'
'rm150_'
'riviera_'
'rivet_'
'riverview_'
'riverfront_'
'rive_'
'rivalling_'
'risked_'
'rises_'
'risers_'
'rised_'
'ripoff_'
'ripe_'
'riot_'
'rioja_'
'rio_'
'rinks_'
'riner_'
'rin_'
'rims_'
'rimming_'
'rimit_'
'rigth_'
'rigorously_'
'rigidness_'
'rigged_'
'rig_'
'rifled_'
'ridicuilous_'
'ridges_'
'rider_'
'riddled_'
'rickardy_'
'richly_'
'ribbons_'
'rib_'
'ri_'
'rhyme_'
'rhodes_'
'rhather_'
'rexine_'
'rework_'
'rewashed_'
'rewardsvery_'
'revs_'
'revolved_'
'revoltingly_'
'revolted_'
'reviving_'
'revived_'
'revive_'
'revival_'
'revisit_'
'revision_'
'reviewthe_'
'reviewsthe_'
'reviewsif_'
'reviewsbut_'
'reviewsalthough_'
'revert_'
'reverberates_'
'reverberate_'
'revenue_'
'revellersbathroom_'
'revellers_'
'reveal_'
'revarnishing_'
'revampthe_'
'reusing_'
'reupholstering_'
'reunions_'
'retz_'
'returnwe_'
'returnlift_'
'returningthe_'
'returningsomewhat_'
'returningit_'
'retuned_'
'retrofit_'
'retrieved_'
'retreats_'
'retreated_'
'retreat_'
'retrain_'
'retouches_'
'retouched_'
'retouch_'
'retiring_'
'retiled_'
'retardent_'
'resurfacing_'
'resurfaced_'
'resultant_'
'restyle_'
'resturuant_'
'resturaunt_'
'restroomwe_'
'restrictors_'
'restrictor_'
'restricted_'
'restretched_'
'restraurant_'
'restrained_'
'restchecked_'
'restaurent_'
'restauraunts_'
'restaurantyou_'
'restaurantthe_'
'restaurantswe_'
'restaurantrooms_'
'restaurantroom_'
'restaurantit_'
'restaurantion_'
'restauranti_'
'restaruant_'
'restaraunts_'
'restaraunt_'
'restarant_'
'restand_'
'respray_'
'responsivehousekeeping_'
'responses_'
'responsei_'
'respiratory_'
'respectthe_'
'respectsin_'
'resources_'
'resortvilla_'
'resortthe_'
'resorting_'
'resonate_'
'resonant_'
'resonable_'
'reson_'
'resisted_'
'resistance_'
'residues_'
'residing_'
'resetting_'
'researched_'
'resealed_'
'requisites_'
'requisite_'
'requiredthe_'
'requestwas_'
'reputable_'
'repulsed_'
'reproduction_'
'represnents_'
'representing_'
'representative_'
'reportedthe_'
'reportedly_'
'repolished_'
'replies_'
'repleted_'
'replentish_'
'replenishments_'
'replenishes_'
'replemished_'
'replanishment_'
'replacementthe_'
'replacemebnt_'
'replacedless_'
'repellents_'
'repellants_'
'repeating_'
'repast_'
'repairman_'
'repairedmy_'
'repacked_'
'repack_'
'reorganize_'
'reopening_'
'reopen_'
'reoccurrence_'
'renters_'
'renowned_'
'renowated_'
'renovationwhen_'
'renovationthe_'
'renovationon_'
'renovationnice_'
'renovationefficiency_'
'renovationand_'
'renovatedi_'
'rennovation_'
'renew_'
'renevation_'
'renevating_'
'renessaince_'
'renderings_'
'renasissance_'
'removes_'
'removable_'
'remodeledvery_'
'remiss_'
'reminisant_'
'remedying_'
'remediation_'
'remarks_'
'remakably_'
'remaind_'
'relying_'
'reluctantly_'
'reluctant_'
'relocation_'
'relishes_'
'relieve_'
'relics_'
'reliant_'
'reliability_'
'relentlessly_'
'releasing_'
'release_'
'relaxthe_'
'relaxingif_'
'relativly_'
'relationship_'
'relating_'
'relate_'
'relatable_'
'relaid_'
'rejuvenation_'
'rejuvenating_'
'rejuvenated_'
'rejecting_'
'reject_'
'reinvested_'
'reinforced_'
'rein_'
'reil_'
'reichtag_'
'rehoused_'
'rehaul_'
'rehabbed_'
'regurgitated_'
'regulator_'
'regulations_'
'regulate_'
'regualr_'
'regretted_'
'regretfully_'
'registers_'
'register_'
'regisration_'
'regime_'
'regent_'
'regaularly_'
'regarded_'
'refuse_'
'refusal_'
'refurnishment_'
'refurbunfortunately_'
'refurbnicely_'
'refurbishmentthis_'
'refurbishmentour_'
'refurbishmentlike_'
'refurbishmentit_'
'refurbishmentfurnishings_'
'refurbishmentand_'
'refurbishedthe_'
'refurbishedis_'
'refurbishedbut_'
'refurbing_'
'refurbbut_'
'refund_'
'refugees_'
'refub_'
'refrigeratorbathroom_'
'refrigerated_'
'refrigerate_'
'refreshingly_'
'refreshers_'
'reflex_'
'refittiong_'
'refinements_'
'refinement_'
'refillable_'
'refigerator_'
'referred_'
'referencea_'
'reference_'
'referb_'
'refectory_'
'reentered_'
'redworth_'
'redwood_'
'redundant_'
'reductions_'
'reds_'
'redoneclean_'
'redocorating_'
'redirected_'
'redid_'
'redesign_'
'redeem_'
'redecorationthe_'
'redec_'
'recyclable_'
'recuperation_'
'recuperate_'
'recumbent_'
'recumbant_'
'rectifying_'
'rectification_'
'rectangular_'
'recruitment_'
'recrption_'
'recreated_'
'recovering_'
'recount_'
'reconstruction_'
'reconnection_'
'recongition_'
'reconfirm_'
'reconfigured_'
'reconditioning_'
'reconditioned_'
'recommennted_'
'recommendthere_'
'recommendthe_'
'recommendedwe_'
'recommendedthe_'
'recomendroom_'
'recolonization_'
'recoiled_'
'recognized_'
'recognize_'
'reco_'
'reclining_'
'reclined_'
'reclean_'
'reck_'
'recived_'
'recipe_'
'rechecking_'
'recharging_'
'recessthe_'
'recession_'
'recesses_'
'recessed_'
'receptionupon_'
'receptionthis_'
'receptionthe_'
'receptionrooms_'
'receptionnice_'
'receptionisthere_'
'receptioni_'
'receptiongreat_'
'receptioneverything_'
'receptiondécor_'
'receptioinist_'
'receptacles_'
'recepion_'
'receotionist_'
'receivedi_'
'receiption_'
'receipt_'
'reccommened_'
'recce_'
'recaulked_'
'recallthe_'
'recalls_'
'recalling_'
'recalled_'
'rebrand_'
'reborn_'
'rebecca_'
'rebadged_'
'reatuarant_'
'reattaching_'
'reattached_'
'reattach_'
'reassuring_'
'reassured_'
'reassigned_'
'reassess_'
'reasonnable_'
'reasonbaly_'
'reasoanble_'
'rearranged_'
'reardesert_'
'reappointed_'
'reappeared_'
'realm_'
'reallythe_'
'reallyhotel_'
'readywhile_'
'readywhen_'
'readywe_'
'readyvery_'
'readythere_'
'readystayed_'
'readyso_'
'readybeds_'
'reads_'
'readout_'
'readilt_'
'reactivated_'
'react_'
'reaches_'
'reache_'
'reachable_'
'reaaally_'
'rdw_'
'rc_'
'ravel_'
'raucousness_'
'rattles_'
'rattle_'
'rattan_'
'rats_'
'rations_'
'rationing_'
'rathern_'
'rathe_'
'rateroom_'
'ratein_'
'rashes_'
'rash_'
'rapping_'
'rapped_'
'rants_'
'rant_'
'rankour_'
'rangesome_'
'ranged_'
'rangali_'
'rampant_'
'rammy_'
'rambouts_'
'rambling_'
'ramadan_'
'ralph_'
'rally_'
'raked_'
'rake_'
'raja_'
'raiting_'
'raising_'
'raisinette_'
'raises_'
'rais_'
'rainwater_'
'rainshowers_'
'rainforest_'
'raindrop_'
'railroad_'
'railcar_'
'rai_'
'raggedy_'
'rafting_'
'rafael_'
'radissonour_'
'radissoni_'
'radissonblu_'
'radission_'
'radios_'
'radical_'
'radiant_'
'racquetball_'
'rabbits_'
'quoting_'
'quotes_'
'quo_'
'qulaity_'
'quitethe_'
'quiteroom_'
'quirkyroom_'
'quip_'
'quintessential_'
'quinta_'
'quilting_'
'quilted_'
'quiettop_'
'quietrooms_'
'quietquite_'
'quietour_'
'quietonly_'
'quietness_'
'quietit_'
'quieti_'
'quiethowever_'
'quietgiven_'
'quietclean_'
'quietcheck_'
'quietbut_'
'quietbrand_'
'quietand_'
'quieta_'
'quie_'
'quicklysadly_'
'quicklyroom_'
'quicklovely_'
'quickfrankly_'
'quickest_'
'quickerroom_'
'queueing_'
'queued_'
'quethe_'
'quesy_'
'quests_'
'questionning_'
'questioning_'
'questionably_'
'quest_'
'queenstownwell_'
'quavers_'
'quartz_'
'quark_'
'qualty_'
'qualiy_'
'qualitywe_'
'qualityrooms_'
'qualitynothing_'
'qualityit_'
'qualit_'
'qualifiers_'
'quad_'
'qtips_'
'qpark_'
'qn_'
'qhotel_'
'qf_'
'qb_'
'python_'
'pyjammas_'
'pwerful_'
'pvt_'
'puzzle_'
'putty_'
'puttingly_'
'putthe_'
'putter_'
'putoff_'
'puthe_'
'putand_'
'purse_'
'purring_'
'purposethe_'
'purposeon_'
'purposely_'
'purposefully_'
'purportedly_'
'purifying_'
'purified_'
'purell_'
'purbeach_'
'puppy_'
'puppet_'
'pungentand_'
'punctured_'
'punctually_'
'punchisment_'
'punching_'
'punches_'
'pun_'
'pumped_'
'pulteney_'
'pulse_'
'pulp_'
'pulic_'
'pukingand_'
'puiblic_'
'puget_'
'puffs_'
'puddling_'
'puddings_'
'pubsrooms_'
'publlic_'
'publicity_'
'pubed_'
'pthe_'
'pt_'
'psychedelic_'
'pseudomonas_'
'pruduct_'
'provincial_'
'province_'
'proves_'
'proverbial_'
'protractor_'
'protestors_'
'protested_'
'protects_'
'protectorthe_'
'protectorjust_'
'protecting_'
'prosoverall_'
'prosclean_'
'proportionately_'
'propofol_'
'propoerties_'
'propery_'
'propertyvery_'
'propertyso_'
'propertyour_'
'propertyi_'
'propertyfor_'
'propertiesthe_'
'properlythere_'
'properlyand_'
'properlly_'
'proofthe_'
'proofread_'
'proof5_'
'pronto_'
'pronged_'
'promtly_'
'prompts_'
'prompting_'
'prompted_'
'promotions_'
'promotion_'
'promote_'
'promisedvery_'
'prominently_'
'prom_'
'prolonged_'
'projects_'
'projector_'
'projection_'
'projected_'
'progression_'
'programmes_'
'programmed_'
'profuse_'
'profound_'
'profitable_'
'profit_'
'proficient_'
'proffesional_'
'proffered_'
'professionalthe_'
'professionalism_'
'profesional_'
'producer_'
'proclaimed_'
'processor_'
'processeswe_'
'processes_'
'procedurethe_'
'probobly_'
'problemsour_'
'problemsi_'
'problemroom_'
'problemhotel_'
'probable_'
'proathe_'
'proactively_'
'proactive_'
'proabably_'
'prize_'
'privileges_'
'privelages_'
'privacyrooms_'
'pristinewe_'
'prisoner_'
'priortity_'
'priorityclub_'
'prioritize_'
'prioritised_'
'printout_'
'pringles_'
'principles_'
'principal_'
'primark_'
'pried_'
'priceythe_'
'priceyspotlessly_'
'priceyroom_'
'pricestayed_'
'pricerooms_'
'pricer_'
'pricelined_'
'priceit_'
'pricei_'
'pricednow_'
'pricedit_'
'priblem_'
'prey_'
'prevoius_'
'prevents_'
'preventing_'
'preventative_'
'pretzel_'
'prety_'
'prettyit_'
'prettyhotel_'
'prettily_'
'prettied_'
'pretensions_'
'pretending_'
'pretender_'
'pretended_'
'preteen_'
'presure_'
'presumeon_'
'presumehow_'
'preston_'
'prestatyn_'
'pressurethere_'
'pressureit_'
'pressured_'
'pressurebut_'
'pressthe_'
'presidency_'
'preservative_'
'preservation_'
'presenting_'
'presentedon_'
'presentedi_'
'presentedand_'
'presentec_'
'presbyteries_'
'prerogatives_'
'preparation_'
'preordered_'
'preorder_'
'premmier_'
'premisses_'
'premisesr_'
'premimum_'
'premiersthe_'
'prematurly_'
'premade_'
'prelude_'
'preheated_'
'prefers_'
'preferring_'
'prefere_'
'prefect_'
'prefabricated_'
'prefab_'
'preety_'
'predominated_'
'predominantly_'
'predominant_'
'predictability_'
'predefined_'
'predates_'
'precooked_'
'precoccupied_'
'preclude_'
'precipitation_'
'precinct_'
'prechecked_'
'precheck_'
'preceding_'
'prebooked_'
'pray_'
'praising_'
'praises_'
'practise_'
'practicalityif_'
'practicality_'
'practicalities_'
'practicable_'
'pr_'
'ppl_'
'pp_'
'poweryou_'
'powershower_'
'powers_'
'poweringthe_'
'powering_'
'powerfull_'
'powell_'
'pour_'
'potts_'
'potted_'
'potpourri_'
'potomac_'
'potemkin_'
'potatoesaccompanying_'
'potable_'
'postponing_'
'postives_'
'postition_'
'posthouse_'
'postcard_'
'possessed_'
'positivethe_'
'positionedthe_'
'poseur_'
'portray_'
'portor_'
'portico_'
'portfolio_'
'portacabin_'
'porridge_'
'porous_'
'pornographic_'
'porches_'
'pops_'
'poothe_'
'poorthe_'
'poorrly_'
'poori_'
'poorer_'
'poorafter_'
'poool_'
'poolthere_'
'poolsthe_'
'poolso_'
'poolour_'
'poolmy_'
'pooll_'
'poolit_'
'poolhotel_'
'poole_'
'pooland_'
'ponds_'
'polystyrene_'
'poly_'
'poltergeist_'
'polka_'
'poliy_'
'political_'
'politethe_'
'politeness_'
'pokiest_'
'pokier_'
'pokie_'
'poison_'
'pointthe_'
'poiled_'
'pofq_'
'podiums_'
'podge_'
'pockmarked_'
'pocketmy_'
'poached_'
'po_'
'pmyou_'
'pmwow_'
'pmwe_'
'pmour_'
'pmjust_'
'pmgot_'
'pmevery_'
'pmand_'
'plushy_'
'plushstandard_'
'plushness_'
'plusavoid_'
'plungers_'
'plumbingthe_'
'plumberthat_'
'plugsimmaculate_'
'plugins_'
'plugd_'
'pls_'
'ploy_'
'plot_'
'plop_'
'plonked_'
'plesantly_'
'plentyhowever_'
'plentyfull_'
'plentyful_'
'plently_'
'plelased_'
'pleather_'
'pleasurethe_'
'pleasurable_'
'pleasingly_'
'pleasenly_'
'pleasantthere_'
'pleasantrooms_'
'pleasantit_'
'pleaded_'
'plazza_'
'plazathe_'
'plazabut_'
'playpen_'
'playland_'
'playgroung_'
'playford_'
'platinium_'
'platemold_'
'plat_'
'plasters_'
'plastering_'
'plantings_'
'planters_'
'planter_'
'planpros_'
'plank_'
'plaintiff_'
'plaid_'
'plagued_'
'placethat_'
'placesvery_'
'placestayed_'
'placesome_'
'placehelped_'
'placecrockery_'
'placate_'
'placard_'
'pl_'
'pkenty_'
'pjyamas_'
'pj_'
'pizzaria_'
'pizazz_'
'pixie_'
'pitybreakfast_'
'pittance_'
'pitt_'
'pits_'
'pitas_'
'piss_'
'piratical_'
'pipeworks_'
'pipewe_'
'pipeswould_'
'pioneer_'
'pints_'
'pinpoint_'
'pinky_'
'pinholes_'
'pinching_'
'pimple_'
'pimp_'
'pillowsyou_'
'pillowswe_'
'pillowsshampoo_'
'pillowsrooms_'
'pillowsour_'
'pillowslips_'
'pillowslarge_'
'pillowsin_'
'pillowsi_'
'pillowsheets_'
'pillowsexcellent_'
'pillowsclean_'
'pillowsbathroom_'
'pillowsand_'
'pillowsalthough_'
'pillowed_'
'pilloweach_'
'pillowcover_'
'pilings_'
'pilfered_'
'pike_'
'pihanga_'
'piers_'
'pierre_'
'piercing_'
'pienza_'
'pieceeverything_'
'pieced_'
'pie_'
'piddled_'
'picturethe_'
'picturesthere_'
'picturesthe_'
'picturesque_'
'pickup_'
'picks_'
'pickey_'
'pichu_'
'picchui_'
'piccadily_'
'picadily_'
'phyathai_'
'phrases_'
'photothe_'
'photoid_'
'photoed_'
'phonethe_'
'phoneroom_'
'phonepool_'
'phoneour_'
'phonefriendly_'
'phoenix_'
'phne_'
'phllippe_'
'philly_'
'phillips_'
'phew_'
'phenomenon_'
'phenomenal_'
'pharmaceutical_'
'petty_'
'pettifogging_'
'petrolly_'
'petroleum_'
'petrol_'
'petrified_'
'petite_'
'peterthomasroth_'
'petersfield_'
'petco_'
'petalspeople_'
'pests_'
'pesticides_'
'pervades_'
'peruvian_'
'perth_'
'perspiration_'
'perspectivethe_'
'personthe_'
'personswith_'
'personspotlessly_'
'personsheets_'
'personnels_'
'personnelroom_'
'personnel3_'
'personnally_'
'personified_'
'personeverything_'
'personel_'
'personbecause_'
'personalityhair_'
'personalised_'
'persist_'
'persian_'
'persevered_'
'persevere_'
'perservered_'
'perplexing_'
'perpetrator_'
'permittance_'
'perminent_'
'perishables_'
'periodsthe_'
'periodically_'
'perhapssecondly_'
'perfune_'
'perfunctorily_'
'perfumy_'
'perfumey_'
'perfumestore_'
'perfumeso_'
'perfumes_'
'performing_'
'performed_'
'perform_'
'perfekt_'
'perfectthe_'
'perfectstaff_'
'perfectlyacceptable_'
'perfectgetting_'
'perestroika_'
'peresentable_'
'perday_'
'perdantic_'
'perched_'
'perch_'
'perceived_'
'pepto_'
'peppers_'
'pepperand_'
'peoplpe_'
'peoplemy_'
'peoplehotel_'
'peoplegreat_'
'pennants_'
'penhaligons_'
'penguin_'
'pending_'
'pencap_'
'penalty_'
'pelmets_'
'pelling_'
'peirced_'
'pegs_'
'pefect_'
'peeps_'
'peels_'
'peek_'
'pedway_'
'pediatrician_'
'pedestals_'
'pedantic_'
'pecksniff_'
'peave_'
'peaty_'
'peashowever_'
'peal_'
'peaked_'
'peacock_'
'peaceceful_'
'pcs_'
'pcm_'
'pbx_'
'paywhat_'
'paythe_'
'payback_'
'payable_'
'paw_'
'paving_'
'pavements_'
'pauli_'
'pats_'
'patronize_'
'patronage_'
'patrolled_'
'patisseries_'
'patios_'
'paticularly_'
'pathour_'
'pathological_'
'patheticon_'
'patel_'
'pate_'
'patchwork_'
'pasty_'
'pastthe_'
'pasties_'
'pasteurised_'
'pastdirty_'
'pastbathroom_'
'pastas_'
'passé_'
'passengers_'
'passenger_'
'passedand_'
'passages_'
'partythe_'
'partswe_'
'partitions_'
'partitioning_'
'partitioned_'
'particuloarly_'
'particularily_'
'particularclean_'
'particulalry_'
'particuarly_'
'particualrly_'
'participated_'
'participate_'
'participants_'
'participant_'
'partcular_'
'parsnips_'
'parrots_'
'parrot_'
'parrallel_'
'parlous_'
'parkthe_'
'parkroom_'
'parklands_'
'parkingunfortunately_'
'parkingthe_'
'parkingno_'
'parkinghowever_'
'parkingbut_'
'parkingand_'
'parki_'
'paristhe_'
'parisit_'
'pardon_'
'parasolthe_'
'paraphernalia_'
'parapet_'
'paramount_'
'paralell_'
'paraiso_'
'paradisewe_'
'paradisethe_'
'paperyou_'
'paperum_'
'paperso_'
'paperour_'
'paperi_'
'papered_'
'paperbut_'
'papa_'
'pantries_'
'panties_'
'pantene_'
'panswhy_'
'panrooms_'
'panic_'
'pangs_'
'paned_'
'pandora_'
'panda_'
'panache_'
'pamphlets_'
'pamphlet_'
'pampers_'
'pamper_'
'palomino_'
'palmed_'
'palls_'
'pallets_'
'pales_'
'palce_'
'palacial_'
'paix_'
'paisley_'
'paintthis_'
'paintthe_'
'paintso_'
'paints_'
'paintpoorly_'
'paintnormally_'
'paintit_'
'painthowever_'
'painters_'
'paintedthe_'
'painaircon_'
'pails_'
'pail_'
'paidsome_'
'paidi_'
'paidand_'
'pagoda_'
'pages_'
'page_'
'paddocks_'
'packedwe_'
'packageif_'
'pacious_'
'pabx_'
'pablo_'
'oz_'
'oysters_'
'oxiclean_'
'oxe_'
'ownthere_'
'ownerthe_'
'ownershipthe_'
'owen_'
'overtone_'
'overtime_'
'overstocked_'
'overstated_'
'oversleep_'
'oversize_'
'oversightthe_'
'oversights_'
'overshadowed_'
'override_'
'overrated_'
'overrall_'
'overpricedthe_'
'overprice_'
'overpoweringly_'
'overnighters_'
'overnightbathroom_'
'overlookingthe_'
'overload_'
'overlap_'
'overlaid_'
'overinflated_'
'overight_'
'overi_'
'overheating_'
'overheardit_'
'overheard_'
'overhauland_'
'overhanging_'
'overgrown_'
'overflowthe_'
'overflows_'
'overflowingwe_'
'overexcited_'
'overduethe_'
'overduesuite_'
'overdressed_'
'overdated_'
'overcall_'
'overbook_'
'overboard_'
'overbedspreads_'
'overallunless_'
'overallthough_'
'overallnice_'
'overallif_'
'overallclean_'
'overalland_'
'outweighs_'
'outweighed_'
'outwards_'
'outwardly_'
'outvery_'
'outthere_'
'outthank_'
'outtage_'
'outsmall_'
'outsized_'
'outsidewould_'
'outsideto_'
'outsideso_'
'outsiders_'
'outsideon_'
'outsidenot_'
'outshe_'
'outsde_'
'outrooms_'
'outroom_'
'output_'
'outpretty_'
'outlying_'
'outlon_'
'outlived_'
'outlier_'
'outit_'
'outings_'
'outing_'
'outif_'
'outhowever_'
'outhouses_'
'outhousebased_'
'outhouse_'
'outhotel_'
'outgreat_'
'outflow_'
'outfits_'
'outdone_'
'outdatedroom_'
'outdatedit_'
'outdatedi_'
'outdatedbreakfast_'
'outbut_'
'outbreakfast_'
'outbreak_'
'outbathrooms_'
'outback_'
'outand_'
'outall_'
'outages_'
'oustside_'
'ous_'
'ourself_'
'ourrooms_'
'ounce_'
'oulton_'
'oulfsen_'
'ou_'
'ottut_'
'otter_'
'ottawa_'
'ottamon_'
'othewise_'
'otherworldly_'
'otherwords_'
'otherwisethe_'
'otherwisecomfortable_'
'otherwide_'
'otherswe_'
'otherstwo_'
'othersone_'
'otherslarge_'
'otherside_'
'otherhand_'
'othere_'
'otel_'
'oscars_'
'oscar_'
'orsmall_'
'orrooms_'
'ornately_'
'ornaments_'
'ornamental_'
'orlandoeverything_'
'orjust_'
'origins_'
'originating_'
'originals_'
'originality_'
'organisers_'
'organise_'
'organisation_'
'orgainzed_'
'oreverywhere_'
'ore_'
'ordorless_'
'ordinated_'
'orderedi_'
'orbut_'
'orattended_'
'orangy_'
'orangey_'
'orand_'
'opus_'
'opulentonly_'
'opulently_'
'opulant_'
'optionthe_'
'optionsthe_'
'optional_'
'opting_'
'optimize_'
'optimistically_'
'optimistic_'
'optimally_'
'optics_'
'oprior_'
'opps_'
'opposes_'
'opinions_'
'opinionroom_'
'opinionon_'
'opine_'
'operators_'
'operable_'
'operability_'
'openroom_'
'openlate_'
'openi_'
'openedthe_'
'openedso_'
'opearate_'
'oozed_'
'oops_'
'oopm_'
'oooops_'
'oomph_'
'ony_'
'onwas_'
'onwards_'
'onward_'
'onvery_'
'onusual_'
'onthis_'
'onthere_'
'onmi_'
'onlythe_'
'onlinebrilliant_'
'onld_'
'oniki_'
'onfirstly_'
'onexcellent_'
'onewe_'
'onethis_'
'onethe_'
'oneswe_'
'onesso_'
'onesour_'
'oneself_'
'onemy_'
'onein_'
'onei_'
'oneevery_'
'oneday_'
'onebetter_'
'onebeds_'
'ond_'
'onapparently_'
'omnibus_'
'omn_'
'omlettes_'
'omissionthe_'
'omissions_'
'ominous_'
'om_'
'olufson_'
'ollantaytambo_'
'ole_'
'oldy_'
'oldthis_'
'oldthe_'
'oldour_'
'oldness_'
'oldif_'
'oldie_'
'oldhotel_'
'olden_'
'olas_'
'okw_'
'okthey_'
'okrooms_'
'okno_'
'oknice_'
'okin_'
'okeyesh_'
'okaywell_'
'okaythis_'
'okaystayed_'
'okayone_'
'okayif_'
'okaybut_'
'okand_'
'okall_'
'oj_'
'ointment_'
'oiled_'
'oiland_'
'ohone_'
'ohio_'
'og_'
'ofwhen_'
'ofthey_'
'oft_'
'ofmy_'
'offwhite_'
'offwe_'
'offsetting_'
'offset_'
'offsand_'
'offs_'
'officially_'
'officers_'
'officer_'
'offi_'
'offeringsi_'
'offeri_'
'offeres_'
'offeredthe_'
'offerd_'
'offensivethe_'
'offenders_'
'offbut_'
'ofdvc_'
'ofa_'
'odur_'
'odourupon_'
'odourthe_'
'odouriser_'
'odorless_'
'oddity_'
'oct_'
'ocnversations_'
'ocen_'
'oceania_'
'oceanfron_'
'occuring_'
'occured_'
'occupy_'
'occupiersour_'
'occupantsthe_'
'occupancyhotel_'
'occittane_'
'occassions_'
'occasonally_'
'occasionsthe_'
'ocation_'
'ocasionally_'
'obviuosly_'
'obvisouly_'
'obviousthe_'
'obvioulsy_'
'obtaining_'
'obstreperous_'
'obstacle_'
'obsoletethe_'
'obsolete_'
'obsession_'
'observe_'
'observance_'
'obnoxious_'
'obliged_'
'objectionable_'
'obey_'
'oberved_'
'oaths_'
'oap_'
'oahu_'
'o2_'
'nylon_'
'nye_'
'nycmy_'
'nutrogena_'
'numerals_'
'numberrooms_'
'numberno_'
'numberas_'
'nullify_'
'nui_'
'nuetrogena_'
'nto_'
'ntapart_'
'nps_'
'nowyour_'
'nowthe_'
'nowmy_'
'nowi_'
'novices_'
'novelty_'
'novatel_'
'nov_'
'nought_'
'notyhing_'
'notthe_'
'notrooms_'
'notorious_'
'notoriety_'
'notised_'
'notion_'
'noticerooms_'
'noticehow_'
'noticedthe_'
'noti_'
'nothingwow_'
'nothe_'
'notclean_'
'notchthe_'
'notchstaff_'
'nostrils_'
'nostalgie_'
'nossle_'
'nosiy_'
'nosethe_'
'noses_'
'nosed_'
'nos_'
'norton_'
'northern_'
'northerly_'
'northbourne_'
'normaly_'
'nordicsit_'
'noplace_'
'noonnow_'
'noonit_'
'noodle_'
'nonstop_'
'nonspecific_'
'nonslip_'
'nonsens_'
'nonrefundable_'
'nonfunctional_'
'nonexistentthe_'
'nonexistant_'
'nonethe_'
'nonei_'
'nolathe_'
'nola_'
'noisywindows_'
'noisyso_'
'noisysee_'
'noisyroom_'
'noisyoverall_'
'noisyonce_'
'noisly_'
'noisiest_'
'noisier_'
'noiseywe_'
'noiseygreat_'
'noiseok_'
'noiselessly_'
'noisehowever_'
'noisee_'
'noices_'
'noi_'
'nodles_'
'node_'
'nod_'
'noc_'
'nobu_'
'nminute_'
'nj_'
'nive_'
'nitty_'
'nitrate_'
'nitpicky_'
'nitpicking_'
'nitestand_'
'nippy_'
'ninties_'
'nineties_'
'nines_'
'nimble_'
'nik_'
'nigts_'
'nightthis_'
'nighttable_'
'nightsthe_'
'nightstandbathroom_'
'nightstandand_'
'nightsour_'
'nightsecond_'
'nightsagain_'
'nightroom_'
'nightreally_'
'nightoverall_'
'nightoutdated_'
'nightour_'
'nightnice_'
'nightmares_'
'nighthowever_'
'nightgreat_'
'nightfall_'
'nighteverything_'
'nighter_'
'nightconcerns_'
'nightcomplained_'
'nightclean_'
'nightbut_'
'nightbedroom_'
'nightbathrooms_'
'nightafter_'
'nighta_'
'nighmare_'
'nigh_'
'nicley_'
'nicki_'
'nicewe_'
'nicevery_'
'nicethis_'
'nicethere_'
'nicerooms_'
'nicerbut_'
'niceoverall_'
'niceno_'
'nicemaintenance_'
'nicelyi_'
'nicelly_'
'niceit_'
'nicei_'
'nicedid_'
'niceclean_'
'nicebeds_'
'niceall_'
'nic_'
'nibblng_'
'nibblesthis_'
'nibble_'
'ni_'
'nextwhen_'
'nextdoor_'
'newthis_'
'newthe_'
'newroom_'
'newnessour_'
'newmarket_'
'newestnice_'
'newestest_'
'newenjoyed_'
'neweliy_'
'newalready_'
'newall_'
'neverwe_'
'neverthless_'
'neverthesless_'
'neverthelss_'
'neuve_'
'neutralize_'
'neutragena_'
'neutagena_'
'neurosis_'
'netherlands_'
'netflix_'
'nests_'
'nestling_'
'nestled_'
'nessecities_'
'nessasary_'
'ness_'
'nescesary_'
'nervous_'
'nerve_'
'nepresso_'
'nemo_'
'nemesis_'
'neighbourhoodi_'
'neighborsvery_'
'negs_'
'negotiation_'
'negotiated_'
'negombo_'
'neglecting_'
'neghbours_'
'negativesthe_'
'negativebut_'
'nees_'
'needunfortunately_'
'needsthey_'
'needsthe_'
'needles_'
'needer_'
'neededour_'
'neededonly_'
'needa_'
'necklace_'
'necessitated_'
'necesseties_'
'necessaryi_'
'necessaryhuge_'
'necesary_'
'neatyou_'
'neatstayed_'
'neatpool_'
'neatour_'
'neatit_'
'neathotel_'
'neater_'
'nearing_'
'neared_'
'ne_'
'ncp_'
'ncit_'
'nbuilt_'
'nb_'
'navigation_'
'navigating_'
'navigable_'
'navies_'
'nautical_'
'nauseated_'
'nausea_'
'naturalness_'
'nationale_'
'nastiness_'
'nastily_'
'nassau_'
'nashville_'
'nasal_'
'nary_'
'narrowly_'
'narrowhowever_'
'narrower_'
'naptime_'
'nappies_'
'napkinseverything_'
'naomi_'
'nantucket_'
'nantapoen_'
'nana_'
'namesake_'
'names_'
'nakatomi_'
'nailed_'
'naf_'
'nadia_'
'nada_'
'nacs_'
'nachos_'
'métropole_'
'mystifies_'
'myselfthe_'
'myselfso_'
'myselfother_'
'mysef_'
'myrtle_'
'myriad_'
'mw_'
'mvcs_'
'mvc_'
'mustyrooms_'
'mustyit_'
'mustybut_'
'musts_'
'mustand_'
'musk_'
'musicals_'
'musicall_'
'mushroom_'
'muscles_'
'muscat_'
'murray_'
'murdering_'
'murals_'
'munchikins_'
'munched_'
'mumbai_'
'multiply_'
'multiplied_'
'multilingual_'
'multigym_'
'multifunctional_'
'multidevice_'
'multicoloured_'
'mult_'
'muffy_'
'muchbed_'
'muang_'
'mtlmarriottcc_'
'mthe_'
'mt_'
'mske_'
'ms_'
'mrsa_'
'mp3_'
'mower_'
'moviesbeds_'
'moves_'
'movedthese_'
'movedthe_'
'moveable_'
'mouton_'
'mouthpiece_'
'moutain_'
'mouskeeping_'
'mousey_'
'mousethe_'
'mousekeepingwe_'
'mounts_'
'mountainous_'
'mount_'
'moulin_'
'mouldthe_'
'mouldings_'
'moulding_'
'mouad_'
'motorsport_'
'motorized_'
'motorcycles_'
'motions_'
'motifs_'
'moths_'
'motheris_'
'mothballs_'
'motelthe_'
'motelshousekeeping_'
'motelish_'
'motel6_'
'moss_'
'morten_'
'morse_'
'morons_'
'moron_'
'mornning_'
'morningwe_'
'morningrooms_'
'morningon_'
'morninghowever_'
'morningclothes_'
'morningclean_'
'morningcaveat_'
'morningbut_'
'morningalso_'
'morming_'
'moring_'
'morgue_'
'morgan_'
'moresuch_'
'mores_'
'moreroom_'
'morel_'
'moreand_'
'mor_'
'moons_'
'monuments_'
'monumental_'
'montparnasse_'
'monthly_'
'mont_'
'monstrously_'
'monstrosity_'
'monster_'
'monopod_'
'mononucleosis_'
'monkied_'
'monkey_'
'monitors_'
'moniker_'
'monicker_'
'monica_'
'moneywe_'
'moneyv_'
'moneyroom_'
'moneyand_'
'mondern_'
'momentit_'
'molly_'
'moles_'
'moldythey_'
'moldly_'
'moldiness_'
'mojito_'
'moisturizer_'
'moisturising_'
'mohito_'
'modular_'
'mods_'
'modified_'
'modestly_'
'modes_'
'modernwhen_'
'modernwe_'
'modernthere_'
'modernstill_'
'moderns_'
'modernrooms_'
'modernity_'
'modernistic_'
'modernish_'
'modernisations_'
'modernhad_'
'modernfurnishings_'
'modernfixing_'
'moderncomfortable_'
'modernas_'
'modernall_'
'moderm_'
'moder_'
'moden_'
'modem_'
'models_'
'modelled_'
'modcom_'
'mocking_'
'mock_'
'mocha_'
'mobbed_'
'moaned_'
'mmm_'
'mlb_'
'mixology_'
'mixers_'
'mitts_'
'mitigating_'
'misty_'
'misted_'
'missteps_'
'mississippi_'
'misnamed_'
'mismatch_'
'mislead_'
'mishaps_'
'mishap_'
'mish_'
'misety_'
'misdelivered_'
'misconduct_'
'misconception_'
'misbehaving_'
'mirrorthe_'
'mirrorpleasant_'
'mirrorjust_'
'mircowave_'
'miracles_'
'miracle_'
'mionor_'
'minuttes_'
'minutia_'
'minuteswe_'
'minutesthat_'
'minutesour_'
'minster_'
'minsgreat_'
'minoris_'
'minisculebut_'
'minimilist_'
'minimalroom_'
'minimaist_'
'minifridge_'
'minibari_'
'minibaras_'
'minh_'
'mingling_'
'minethis_'
'minds_'
'mindon_'
'mills_'
'millions_'
'million_'
'millimetres_'
'millennium_'
'millenium_'
'milled_'
'milldue_'
'milkthere_'
'milkshake_'
'milks_'
'military_'
'milford_'
'mildy_'
'mildewwhen_'
'mildewthe_'
'mildewso_'
'mildewing_'
'mildewhis_'
'milde_'
'milano_'
'mike_'
'miguel_'
'midwestern_'
'midway_'
'midrange_'
'midnightno_'
'midly_'
'middling_'
'middles_'
'microwavable_'
'microsoft_'
'microphone_'
'micron_'
'microfiber_'
'microbiological_'
'mickeys_'
'michiganmaid_'
'michelle_'
'michelin_'
'miatly_'
'mheh_'
'mgmt_'
'mgm_'
'mews_'
'mewifi_'
'metropol_'
'metropark_'
'metrolink_'
'metres_'
'metit_'
'method_'
'methinks_'
'meth_'
'meters_'
'metate_'
'metallic_'
'mespa_'
'mesome_'
'meso_'
'mesmurising_'
'mesmerizing_'
'mesmerising_'
'merrily_'
'merrick_'
'meridian_'
'merger_'
'merged_'
'mercy_'
'mercures_'
'merchant_'
'mercedes_'
'menuthe_'
'menubut_'
'mentso_'
'mentone_'
'menthol_'
'mental_'
'menses_'
'memy_'
'memorabilia_'
'membersmall_'
'membershipthe_'
'membermodern_'
'memberand_'
'melts_'
'meltdown_'
'melt_'
'melon_'
'mellow_'
'melange_'
'melancholic_'
'mel_'
'meit_'
'mei_'
'mehaving_'
'megalong_'
'meeverything_'
'meetingkettle_'
'medthe_'
'meds_'
'mediums_'
'mediterranean_'
'medialunas_'
'medal_'
'med_'
'mecrure_'
'mecca_'
'measuring_'
'measures_'
'measurement_'
'measured_'
'meaness_'
'meandering_'
'meand_'
'mealwas_'
'mealsclean_'
'mealrooms_'
'mealit_'
'meali_'
'meagre_'
'meager_'
'meader_'
'mcpherson_'
'mckinley_'
'mcec_'
'mccormick_'
'mbr_'
'mb_'
'mazing_'
'mayor_'
'mayo_'
'mayhem_'
'mayflower_'
'maybee_'
'mauryaalthough_'
'mauls_'
'mauiparts_'
'matwe_'
'matured_'
'mattrrss_'
'mattressthe_'
'mattressnope_'
'mattressit_'
'mattressesby_'
'mattressesbut_'
'mattressand_'
'matting_'
'matthew_'
'matterthat_'
'matted_'
'matrtesses_'
'matrimonial_'
'matrass_'
'maths_'
'mates_'
'materiels_'
'materialiselovely_'
'materialise_'
'matchgood_'
'maswick_'
'maswic_'
'masticked_'
'masterservice_'
'mast_'
'massisve_'
'masseur_'
'massachusetts_'
'masquerading_'
'masonic_'
'masked_'
'mash_'
'mase_'
'marylebone_'
'mary_'
'marvels_'
'marvelled_'
'marvel_'
'martinique_'
'martini_'
'martime_'
'martha_'
'marshmallows_'
'marshmallow_'
'mars_'
'marriottyou_'
'marriottts_'
'marriottsthe_'
'marriotte_'
'marriottbut_'
'marriots_'
'married_'
'marquee_'
'maroons_'
'marmalade_'
'marleny_'
'marlene_'
'marksworse_'
'marksnot_'
'markslovely_'
'markshowever_'
'marketplace_'
'marketing_'
'marketed_'
'markedly_'
'marka_'
'maritime_'
'marilyn_'
'marie_'
'margarita_'
'maremagnum_'
'marco_'
'marching_'
'marcarons_'
'marbling_'
'mar_'
'manure_'
'mantra_'
'manteined_'
'mansion_'
'manouvering_'
'manoeuvring_'
'manoeuvre_'
'mannice_'
'manners_'
'manned_'
'manipulate_'
'manifested_'
'manicuredbreakfast_'
'manic_'
'maniac_'
'manhattand_'
'mangy_'
'mangosteen_'
'mange_'
'mandarine_'
'mancy_'
'manchesters_'
'managerrooms_'
'managermoved_'
'manageri_'
'managementwe_'
'managementthe_'
'managementrooms_'
'managementcomfy_'
'managedit_'
'manageable_'
'mammoth_'
'mama_'
'mam_'
'maltesers_'
'malt_'
'mals_'
'malpensa_'
'malmo_'
'malle_'
'malfunctions_'
'malfunctioned_'
'maldron_'
'malamaison_'
'maktoum_'
'makingthe_'
'makin_'
'makeupalso_'
'makeshift_'
'makeoverthe_'
'makeoverrather_'
'makeit_'
'makeing_'
'makde_'
'makati_'
'makan_'
'majorca_'
'maitained_'
'maintenence_'
'maintence_'
'maintenancehowever_'
'maintenanceand_'
'maintanance_'
'maintainence_'
'maintainedwhen_'
'maintainedwhat_'
'maintainedthis_'
'maintainedstarting_'
'maintainedso_'
'maintainedroom_'
'maintainedpool_'
'maintainedon_'
'maintainedi_'
'maintainedhigh_'
'maintainedgym_'
'maintainedearlier_'
'maintainedcomfortable_'
'maintainedbathroom_'
'maintainded_'
'maint_'
'mainland_'
'mainatined_'
'mails_'
'mailed_'
'maiding_'
'maiden_'
'mahola_'
'mahogany_'
'mahattan_'
'magnified_'
'magnfiying_'
'magnets_'
'magnetic_'
'magna_'
'magiquest_'
'magical_'
'magazinethe_'
'mafes_'
'maestro_'
'madero_'
'madern_'
'madera_'
'maddening_'
'macs_'
'macpc_'
'machone_'
'machingthe_'
'machinethe_'
'machinesrooms_'
'macchu_'
'macarthur_'
'macarons_'
'macao_'
'm8_'
'm5_'
'm25_'
'lynx_'
'ly_'
'luxurythe_'
'luxurypublic_'
'luxuryadd_'
'luxuruious_'
'luxuriouswere_'
'luxuriousnicely_'
'luxuriousgot_'
'luxuriousbut_'
'luxuriate_'
'luxory_'
'luxerious_'
'luxary_'
'luvly_'
'lutyens_'
'lusting_'
'lushness_'
'lurid_'
'lure_'
'luques_'
'lunatic_'
'lunar_'
'lumpythe_'
'lumpur_'
'lumped_'
'luminous_'
'luminescence_'
'lulled_'
'lullaby_'
'luggagemy_'
'lugagge_'
'lug_'
'ludicrously_'
'ludicrous_'
'luckier_'
'lubricate_'
'lttle_'
'ltk_'
'lowroom_'
'lowpolite_'
'lowit_'
'lowerroom_'
'lowering_'
'lovingly_'
'lovers_'
'lovelywe_'
'lovelythis_'
'lovelythe_'
'lovelyon_'
'lovelyno_'
'lovelyi_'
'lovelyhowever_'
'lovel_'
'louvers_'
'louver_'
'loungy_'
'loungerooms_'
'loungeour_'
'loungemodern_'
'loungeit_'
'loungein_'
'loungebut_'
'loungeand_'
'loung_'
'louise_'
'louisa_'
'loufer_'
'loudspeaker_'
'loudness_'
'loudeven_'
'lotus_'
'losses_'
'los_'
'lorry_'
'lords_'
'lord_'
'lopsided_'
'looud_'
'looters_'
'loosethe_'
'loosesomeone_'
'looses_'
'loosely_'
'loos_'
'looong_'
'looney_'
'loom_'
'lookview_'
'lookingwhen_'
'lookingrooms_'
'lookingi_'
'lookingand_'
'lookin_'
'lookied_'
'looki_'
'lookextremely_'
'lookers_'
'lookedmy_'
'lookedit_'
'lookalike_'
'loofah_'
'longish_'
'longingly_'
'longing_'
'longgg_'
'longerno_'
'londonour_'
'londonotherwise_'
'londona_'
'lomondbut_'
'loma_'
'lolthe_'
'lollipops_'
'lollies_'
'lolgood_'
'loks_'
'loko_'
'loking_'
'loitering_'
'logos_'
'logic_'
'logging_'
'logged_'
'lofty_'
'lodgethe_'
'lockwood_'
'locationyes_'
'locationthe_'
'locationroom_'
'locationit_'
'locationcons_'
'locationcheck_'
'locationafter_'
'localtion_'
'locals_'
'locale_'
'locaion_'
'lobbyroom_'
'lobbynice_'
'lobbyeverything_'
'lobbybit_'
'lobb_'
'loaves_'
'loaf_'
'loaction_'
'lo_'
'llrooms_'
'llghting_'
'lke_'
'lizards_'
'liverpoolvery_'
'liven_'
'liveable_'
'littlesmall_'
'litters_'
'litrooms_'
'litres_'
'litlle_'
'liters_'
'literature_'
'literary_'
'literal_'
'litchfield_'
'litasked_'
'litany_'
'litand_'
'lista_'
'liquor_'
'liquidy_'
'lions_'
'linins_'
'linewell_'
'lineups_'
'linesfurnishing_'
'linenstayed_'
'linenssomeone_'
'linensroom_'
'linensi_'
'linenrooms_'
'linear_'
'linden_'
'lindbergh_'
'lindberg_'
'limits_'
'limitbathroom_'
'lily_'
'lilo_'
'lilethey_'
'lilac_'
'lila_'
'likingthe_'
'likingeither_'
'likewe_'
'likevery_'
'likerooms_'
'liken_'
'likeit_'
'likeing_'
'likein_'
'likedated_'
'likea_'
'liitle_'
'lighyts_'
'lightyears_'
'lightwell_'
'lightswitches_'
'lightstand_'
'lightsi_'
'lightness_'
'lightingthis_'
'lightingso_'
'lightings_'
'lightingrooms_'
'lightingit_'
'lightinghad_'
'lighten_'
'lighs_'
'lighbulbs_'
'liftsits_'
'liftsalso_'
'liftit_'
'lifter_'
'lifetime_'
'lifeguarded_'
'lies_'
'liens_'
'liekd_'
'lids_'
'licence_'
'liberal_'
'liable_'
'lgw_'
'levers_'
'levante_'
'letthe_'
'letters_'
'lethargic_'
'lessrooms_'
'lessen_'
'lesley_'
'lept_'
'leperod_'
'lens_'
'lenin_'
'lengthwise_'
'lends_'
'lended_'
'lemonade_'
'leidner_'
'lego_'
'legit_'
'legionaires_'
'legend_'
'leftit_'
'lefti_'
'leed_'
'ledt_'
'ledgeswere_'
'leavingvery_'
'leavingthe_'
'leavethe_'
'leathered_'
'learnt_'
'learnd_'
'learge_'
'leakour_'
'leakingmy_'
'leakagei_'
'league_'
'leaflets_'
'leaflet_'
'leaders_'
'lbs_'
'layouthaving_'
'layoutbed_'
'lawyers_'
'lawyer_'
'lawthe_'
'lawsuit_'
'lawrenceit_'
'lawned_'
'lavinia_'
'lav_'
'laurel_'
'laura_'
'laundering_'
'laughably_'
'lauderdale_'
'latvian_'
'lattes_'
'latitude_'
'latethis_'
'latethere_'
'latethe_'
'laters_'
'laterfirst_'
'laterand_'
'lateno_'
'latemy_'
'lateit_'
'latches_'
'latched_'
'lastthe_'
'lasting_'
'lash_'
'lasange_'
'lasagne_'
'largish_'
'largeyou_'
'largewhy_'
'largespent_'
'largerbut_'
'largelike_'
'largeish_'
'lareas_'
'laptopbathroom_'
'lapse_'
'lapd_'
'laos_'
'lantern_'
'lang_'
'landry_'
'landmarks_'
'landmark_'
'landingthe_'
'lance_'
'lampthe_'
'lampshadei_'
'lamppoor_'
'lampbathroom_'
'laminat_'
'lambeth_'
'laiden_'
'laguna_'
'lagoons_'
'lager_'
'lafayette_'
'lacquered_'
'lackingrooms_'
'lackadasical_'
'lackadaisical_'
'laced_'
'labyrithine_'
'labyrinths_'
'labour_'
'labels_'
'lab_'
'kyoto_'
'kylie_'
'kx_'
'kureg_'
'kumaravel_'
'kudou_'
'kubrick_'
'kuala_'
'kuakulnothing_'
'kservice_'
'kow_'
'korres_'
'korean_'
'kone_'
'koh_'
'koehler_'
'knuckles_'
'knowthe_'
'knowledgeableand_'
'knowledable_'
'knot_'
'knockied_'
'knive_'
'knights_'
'knicks_'
'knickersthe_'
'knickers_'
'kneethe_'
'knats_'
'kminutesarriving_'
'klia2_'
'kleanex_'
'klcc_'
'kiwis_'
'kitchy_'
'kitchette_'
'kitchenso_'
'kitchenrooms_'
'kitchenetterooms_'
'kitchenetteinroom_'
'kitch_'
'kissimmee_'
'kippers_'
'kiosk_'
'kingthe_'
'kingsized_'
'kingscross_'
'kingman_'
'kingfisher_'
'kingbed_'
'kindest_'
'kindergarden_'
'kinder_'
'kimptons_'
'kills_'
'killer_'
'kilim_'
'kii_'
'kidsthe_'
'kida_'
'kickback_'
'kf_'
'keyrooms_'
'keyhole_'
'keyclick_'
'keycards_'
'kerrigan_'
'kerbside_'
'keptthey_'
'keptthe_'
'keptin_'
'kepted_'
'keptbut_'
'keptair_'
'kept2_'
'kent_'
'kennel_'
'kennedy_'
'ken_'
'kelp_'
'kelly_'
'kellerman_'
'kegs_'
'keflavikthe_'
'keepsake_'
'keepingand_'
'keage_'
'kats_'
'katrina_'
'katie_'
'katherine_'
'kate_'
'karasuma_'
'kandyunfortunately_'
'kandy_'
'kaanapali_'
'ka_'
'jwm_'
'justified_'
'junky_'
'jungle_'
'junethe_'
'juncture_'
'junction_'
'jumps_'
'jumeirah_'
'jumble_'
'jukebox_'
'juicei_'
'judgment_'
'juddered_'
'jsut_'
'joythe_'
'joys_'
'journeyour_'
'journeynot_'
'journeying_'
'josé_'
'jose_'
'jorge_'
'jookkee_'
'jonathan_'
'jonas_'
'jolly_'
'joked_'
'joins_'
'joining_'
'joiner_'
'johns_'
'johnny_'
'johannesburg_'
'jocks_'
'joboverall_'
'jobalthough_'
'jnd_'
'jitu_'
'jim_'
'jigsaw_'
'jiggling_'
'jiggled_'
'jiffing_'
'jewels_'
'jewellery_'
'jetwing_'
'jetting_'
'jetskis_'
'jetlagged_'
'jenny_'
'jennifer_'
'jenn_'
'jelly_'
'jel_'
'jeez_'
'jd_'
'jc_'
'jazzed_'
'javits_'
'jasmine_'
'japenese_'
'janitors_'
'jane_'
'jams_'
'jamming_'
'jamaica_'
'jalapeño_'
'jade_'
'jacuzzimusty_'
'jacuzi_'
'jacuuzzi_'
'jacobs_'
'jackhammers_'
'jackets_'
'jacketed_'
'jachine_'
'jaccuzzi_'
'jabiru_'
'iwhatever_'
'iwent_'
'ivory_'
'iv_'
'ityou_'
'itv1_'
'itunfortunately_'
'itty_'
'ittle_'
'itthey_'
'itso_'
'itselfthe_'
'itselfrooms_'
'itselfeven_'
'itsefl_'
'itsef_'
'itroom_'
'itours_'
'itour_'
'ito_'
'itnot_'
'itmy_'
'itlself_'
'itits_'
'ithis_'
'ithink_'
'ithave_'
'itfortunately_'
'itfast_'
'iteverything_'
'iten_'
'iteams_'
'itdefinitely_'
'itcleanliness_'
'itclean_'
'itbut_'
'itan_'
'italianesque_'
'ita_'
'isvery_'
'issuesfor_'
'issuesbeds_'
'issuesalso_'
'issueit_'
'isspotless_'
'isroom_'
'isour_'
'isolation_'
'isolate_'
'isnits_'
'isle_'
'islands_'
'isint_'
'isin_'
'iseverything_'
'isent_'
'isclean_'
'isbut_'
'isbedrooms_'
'isare_'
'irwell_'
'irreplaceable_'
'irrelevant_'
'irregularities_'
'irregular_'
'ironthe_'
'ironi_'
'iride_'
'irene_'
'ipadsthe_'
'ipads_'
'ios_'
'ior_'
'ionized_'
'ioda_'
'inyou_'
'inwhile_'
'inwhen_'
'involve_'
'invitingthere_'
'invitingly_'
'invigorating_'
'investmentits_'
'investing_'
'investigation_'
'invery_'
'inverted_'
'inverdruie_'
'inventing_'
'invented_'
'invalidated_'
'invades_'
'inupon_'
'inundating_'
'inundated_'
'intuitive_'
'intry_'
'intruders_'
'introduced_'
'intrinsically_'
'intrinsic_'
'intown_'
'intouch_'
'intimidating_'
'intimidated_'
'inthere_'
'inthat_'
'intervening_'
'intersting_'
'interruptions_'
'interruption_'
'interrupting_'
'internetthe_'
'internets_'
'interneti_'
'interminable_'
'intermediate_'
'interimand_'
'interieur_'
'interfaces_'
'interfaced_'
'interestingthe_'
'intercourses_'
'intercont_'
'interconnected_'
'intercom_'
'interaction_'
'interacting_'
'intentionally_'
'intention_'
'intent_'
'intensity_'
'intensely_'
'intelligence_'
'integrity_'
'intalso_'
'intakes_'
'int_'
'insurance_'
'insulting_'
'insulating_'
'insufficiently_'
'instruments_'
'instruction_'
'instructing_'
'instruct_'
'institutionalized_'
'institutional_'
'institute_'
'instill_'
'instil_'
'instanced_'
'installers_'
'installedour_'
'installation_'
'inspire_'
'inspectors_'
'inspections_'
'inspectionmy_'
'inspectedmy_'
'inspectdespite_'
'insomniacs_'
'insists_'
'insight_'
'insidethe_'
'insidebath_'
'inset_'
'inserts_'
'insane_'
'inquisition_'
'inpressive_'
'inpressed_'
'inportant_'
'inperhaps_'
'inot_'
'inonly_'
'inocuous_'
'innso_'
'innovations_'
'innot_'
'innonly_'
'innit_'
'innertown_'
'inndirty_'
'inmate_'
'inline_'
'inlay_'
'inlastly_'
'inland_'
'injurysmall_'
'injecting_'
'inject_'
'initialize_'
'inhotel_'
'inherited_'
'inhaving_'
'inhaling_'
'inhad_'
'inhabitants_'
'inhabitant_'
'ingrown_'
'ingrain_'
'ingenious_'
'ingenerally_'
'infrastructures_'
'infra_'
'influx_'
'influenced_'
'influence_'
'inflated_'
'infirm_'
'infinitely_'
'infiltrate_'
'infesting_'
'infestations_'
'inferno_'
'inferiorer_'
'infelt_'
'infectionthe_'
'infants_'
'inexplicitly_'
'inexpensively_'
'inertia_'
'inelegant_'
'inefficiently_'
'inediblethe_'
'ine_'
'indulged_'
'induction_'
'inducing_'
'individuality_'
'individial_'
'indistinctive_'
'indirty_'
'indirect_'
'index_'
'indeterminable_'
'indentation_'
'indeedand_'
'incurred_'
'incubation_'
'increases_'
'incorrectly_'
'incorporated_'
'inconvient_'
'inconvenientsuch_'
'incontinence_'
'inconsistently_'
'incongruous_'
'inconceivably_'
'incomprehensible_'
'incompetent_'
'includling_'
'includingour_'
'inclean_'
'inckuding_'
'incinerated_'
'incidentals_'
'incheas_'
'incessant_'
'inception_'
'incentive_'
'incarnation_'
'incapable_'
'incantations_'
'inbut_'
'inboston_'
'inbad_'
'inattentive_'
'inas_'
'inall_'
'inadvance_'
'inadequatethe_'
'inacessable_'
'inaccessible_'
'inaccessability_'
'ina_'
'improvised_'
'improvise_'
'improvementwe_'
'improvementthe_'
'improvementroom_'
'improvementreception_'
'improveclean_'
'imprinted_'
'impressioncomfortable_'
'impresses_'
'impracticable_'
'impossibly_'
'impossibleso_'
'impossibility_'
'importantthe_'
'importantlyit_'
'implied_'
'implications_'
'implant_'
'impersonalthe_'
'imperfectly_'
'imperfections_'
'imperfect_'
'impecibly_'
'impatient_'
'impartially_'
'impaired_'
'immune_'
'immuculate_'
'immoveable_'
'immerse_'
'immense_'
'immediatelywe_'
'immediatelyand_'
'immage_'
'immaculatley_'
'immaculatey_'
'immaculatebut_'
'immaculateafter_'
'immaculate1_'
'imitate_'
'imhave_'
'imelda_'
'imconsistency_'
'imbedded_'
'imagining_'
'imaginatively_'
'imaginationit_'
'imaginary_'
'imaculately_'
'imacs_'
'illy_'
'illustration_'
'illustrates_'
'illuminating_'
'illuminates_'
'illrepute_'
'illegal_'
'iit_'
'iimpeccably_'
'iike_'
'ihad_'
'iguana_'
'ignorning_'
'ignorance_'
'ies_'
'idock_'
'ido_'
'idle_'
'idiots_'
'idiot_'
'identically_'
'idem_'
'ideaand_'
'idaho_'
'icing_'
'icertainly_'
'icelandhotel_'
'icees_'
'iced_'
'iceberg_'
'ibbis_'
'ibahn_'
'iall_'
'i9ni_'
'i40_'
'hypermodern_'
'hygine_'
'hygenie_'
'hygenic_'
'hygene_'
'hydrotherapy_'
'hydrogen_'
'hydrate_'
'hyberbole_'
'hyattthe_'
'hyattsorry_'
'hyattrooms_'
'hyattoour_'
'hutch_'
'hut_'
'hustle_'
'hurts_'
'hurting_'
'hurryvery_'
'hurrying_'
'hurryhotel_'
'hurridly_'
'hurricanethe_'
'hunks_'
'hunger_'
'humungous_'
'hump_'
'humous_'
'hummng_'
'hummmmmm_'
'hummingbirds_'
'hummed_'
'humdrum_'
'humanum_'
'hugesafe_'
'hugepool_'
'hugealthough_'
'huff_'
'hudge_'
'huddle_'
'huck_'
'hua_'
'hsppy_'
'hskp_'
'hse_'
'hsd_'
'hrt_'
'hrsboth_'
'hpusekeeping_'
'howling_'
'howled_'
'howevermeeting_'
'howeverit_'
'howeveri_'
'however5_'
'hower_'
'hover_'
'houtte_'
'houskeepingduring_'
'houskeeping_'
'houskeeper_'
'housingkeeping_'
'housethat_'
'housemaid_'
'housekeepingsmall_'
'housekeepings_'
'housekeepingmostly_'
'housekeepingleft_'
'housekeepinghaving_'
'housekeepingextra_'
'housekeepingbut_'
'housekeepingbreakfast_'
'housekeepingbecause_'
'housekeepingand_'
'housekeeing_'
'housecoats_'
'hourswe_'
'hoursthe_'
'hoursand_'
'hours2_'
'hourlater_'
'hourclean_'
'hotworst_'
'hotplates_'
'hotline_'
'hotles_'
'hotl_'
'hotit_'
'hotelwow_'
'hotelwhat_'
'hotelwell_'
'hotelwarm_'
'hotelthis_'
'hotelthey_'
'hotelthere_'
'hotelteam_'
'hotelswould_'
'hotelso_'
'hotelslet_'
'hotelsit_'
'hotelsink_'
'hotelshame_'
'hotelsbut_'
'hotelperhaps_'
'hotelover_'
'hotelon_'
'hotelnever_'
'hotelin_'
'hoteliers_'
'hoteli_'
'hotelhowever_'
'hotelguests_'
'hotelgood_'
'hotelfurther_'
'hoteleverything_'
'hotelera_'
'hotelenjoyed_'
'hotelcomfortable_'
'hotelbut_'
'hotelboth_'
'hotelbathrooms_'
'hotelbathroom_'
'hotelat_'
'hotelas_'
'hotek_'
'hotarrived_'
'hotal_'
'hosuekeeping_'
'hosts_'
'hostesses_'
'hostesse_'
'hostelthe_'
'hostelry_'
'hospitals_'
'hospitalityit_'
'hosing_'
'hoses_'
'hosepipe_'
'hosekeeping_'
'hoseadmittedly_'
'horsey_'
'horses_'
'horrorand_'
'horriblethe_'
'horribleit_'
'horned_'
'horel_'
'hopping_'
'hopper_'
'hopethe_'
'hopeless_'
'hopeful_'
'hoovers_'
'hooved_'
'hoop_'
'hookups_'
'hooked_'
'hoodies_'
'honour_'
'honolulu_'
'honnest_'
'hongkong_'
'honestwe_'
'honesti_'
'honestfast_'
'honestbut_'
'honed_'
'homogeneous_'
'homethere_'
'homestays_'
'homerooms_'
'homeoffered_'
'homeliness_'
[...]
