'<pad>'
'<EOS>'
'<GO>'
'<OOV>'
'<DOC>'
'</DOC>'
'the_'
' ._'
'and_'
' , _'
'was_'
'to_'
'a_'
'staff_'
'in_'
'very_'
'were_'
'of_'
'i_'
'is_'
'we_'
'friendly_'
'for_'
'service_'
'with_'
'at_'
'helpful_'
'hotel_'
'not_'
'good_'
'but_'
'it_'
' - _'
'they_'
'room_'
'on_'
'are_'
'that_'
'breakfast_'
'had_'
'all_'
'as_'
'this_'
'you_'
'our_'
'nice_'
'check_'
'have_'
'desk_'
'food_'
'there_'
'be_'
'my_'
't_'
'front_'
'n_'
'from_'
'us_'
'great_'
'so_'
'reception_'
''_'
'out_'
'restaurant_'
'no_'
'excellent_'
'did_'
'bar_'
'when_'
' ( _'
'one_'
'me_'
'by_'
'which_'
'an_'
'would_'
'efficient_'
'well_'
'stay_'
'could_'
' !_'
's_'
'if_'
'up_'
'really_'
'who_'
'rooms_'
'do_'
'or_'
'pleasant_'
'also_'
'their_'
' '_'
'always_'
'time_'
'get_'
'only_'
'some_'
'about_'
'just_'
' " _'
'even_'
'more_'
' ) _'
'after_'
'night_'
'what_'
'pool_'
'day_'
'been_'
'he_'
'professional_'
'here_'
'buffet_'
' . _'
'other_'
'attentive_'
'_'
'like_'
'lobby_'
'she_'
'people_'
'made_'
'them_'
'too_'
'can_'
'welcoming_'
'concierge_'
'lovely_'
'your_'
'has_'
'asked_'
'first_'
'extremely_'
'told_'
'manager_'
'again_'
'most_'
'welcome_'
' / _'
'free_'
'area_'
'lounge_'
'polite_'
'any_'
'dinner_'
'happy_'
'than_'
' ' _'
'morning_'
'coffee_'
'make_'
'went_'
'clean_'
'said_'
'however_'
' & _'
'stayed_'
'best_'
'found_'
'guests_'
'back_'
'will_'
'help_'
'much_'
'two_'
'warm_'
'arrived_'
'got_'
'every_'
'then_'
'down_'
'though_'
' ) ._'
'being_'
'floor_'
'2_'
'over_'
'go_'
'nothing_'
'quite_'
'next_'
'courteous_'
'way_'
'evening_'
'quick_'
'quality_'
'housekeeping_'
'place_'
'checked_'
'although_'
'both_'
'little_'
'._'
'before_'
'enough_'
' : _'
'drinks_'
'ok_'
'hot_'
'slow_'
'where_'
'bit_'
'5_'
'especially_'
'seemed_'
'water_'
'took_'
'comfortable_'
'member_'
'customer_'
'3_'
'times_'
'experience_'
'never_'
'arrival_'
'better_'
'another_'
' ; _'
'am_'
'work_'
'many_'
'because_'
'should_'
'need_'
'everything_'
'during_'
'everyone_'
'while_'
'hotels_'
'around_'
'special_'
'how_'
'available_'
'minutes_'
'off_'
'served_'
'feel_'
'came_'
'small_'
'wonderful_'
'her_'
' ... _'
'offered_'
'accommodating_'
'say_'
'long_'
'top_'
'called_'
'poor_'
'cold_'
'fast_'
'same_'
'find_'
'wait_'
'english_'
'door_'
'kind_'
'left_'
'few_'
'fantastic_'
'problem_'
'management_'
'still_'
'person_'
'given_'
'receptionist_'
'order_'
'large_'
'take_'
'without_'
'wifi_'
'd_'
'busy_'
'gave_'
'into_'
'early_'
'choice_'
'tea_'
'amazing_'
'use_'
'4_'
'club_'
'location_'
'etc_'
'drink_'
'full_'
'ask_'
'lady_'
'parking_'
'guest_'
'meal_'
'call_'
'working_'
'menu_'
'bed_'
'table_'
'his_'
'sure_'
'know_'
'booked_'
'super_'
'late_'
'things_'
'does_'
'having_'
'its_'
'facilities_'
'needs_'
'care_'
'hour_'
'see_'
'team_'
'throughout_'
'standard_'
'hard_'
'new_'
'waiting_'
'ready_'
'checking_'
'each_'
'fresh_'
'outstanding_'
'business_'
'ever_'
'fine_'
'nights_'
'selection_'
'property_'
'10_'
'want_'
'bad_'
'restaurants_'
'give_'
'overall_'
'needed_'
'provided_'
'such_'
'job_'
'think_'
'come_'
'1_'
' ..._'
'greeted_'
'star_'
'high_'
'wine_'
'young_'
'expect_'
'upon_'
'spa_'
'extra_'
'days_'
'view_'
'dining_'
'pm_'
'quickly_'
'smile_'
'impressed_'
'’_'
'price_'
'last_'
'looked_'
'until_'
'offer_'
'lot_'
' ?_'
'main_'
'level_'
'tried_'
'charge_'
'valet_'
'going_'
'through_'
'big_'
'done_'
'put_'
'internet_'
'pretty_'
' $ _'
'anything_'
'someone_'
'used_'
'rather_'
'tasty_'
'phone_'
'superb_'
'exceptional_'
'average_'
'thing_'
'members_'
'cooked_'
'once_'
' ) , _'
'something_'
'e_'
'second_'
'let_'
'particularly_'
'later_'
'open_'
'30_'
'met_'
'airport_'
'wanted_'
'booking_'
'seem_'
'card_'
'eat_'
'eggs_'
'several_'
'away_'
'luggage_'
'lunch_'
'delicious_'
'try_'
'pay_'
'hours_'
'issue_'
'received_'
'these_'
':_'
'- _'
'rude_'
'right_'
'included_'
'getting_'
'towels_'
'complimentary_'
'attention_'
'shower_'
'rate_'
'despite_'
'encountered_'
'kept_'
'look_'
'plenty_'
'must_'
'different_'
', _'
'gym_'
'visit_'
'making_'
'able_'
'name_'
'car_'
'marriott_'
'services_'
'old_'
'felt_'
'fruit_'
'nt_'
'prompt_'
'three_'
've_'
'resort_'
'request_'
'side_'
'why_'
'attitude_'
'hilton_'
'enjoyed_'
'smooth_'
'ca_'
'executive_'
'outside_'
'man_'
'credit_'
'couple_'
'trained_'
'since_'
'upgrade_'
'bathroom_'
'ate_'
'due_'
'm_'
'issues_'
'value_'
'generally_'
'ordered_'
'clerk_'
'thought_'
' ,_'
'change_'
're_'
'worked_'
'expensive_'
'items_'
'process_'
'staying_'
'less_'
'lots_'
'trying_'
'now_'
'6_'
'spoke_'
'finally_'
'cleaning_'
'decent_'
'general_'
'usual_'
'areas_'
'part_'
'reservation_'
'including_'
'class_'
' -- _'
'limited_'
'touch_'
'meals_'
'suite_'
'shuttle_'
'number_'
'above_'
'quiet_'
'trip_'
'tables_'
'least_'
'whole_'
'either_'
'else_'
'inn_'
'please_'
'actually_'
'seems_'
'house_'
'plus_'
'money_'
'waiter_'
'guy_'
'real_'
'y_'
'return_'
' ! !_'
'keep_'
' -_'
'tv_'
'checkin_'
'beautiful_'
'point_'
'leave_'
'almost_'
'fact_'
' ’_'
'start_'
'end_'
'afternoon_'
'paid_'
'problems_'
'taken_'
'course_'
'key_'
'spacious_'
'looking_'
'beds_'
'group_'
'20_'
'him_'
'speak_'
' .. _'
'air_'
'mention_'
'provide_'
'set_'
'run_'
'others_'
' £ _'
'7_'
'wrong_'
'doing_'
'those_'
'duty_'
'deal_'
'bill_'
'employees_'
'bags_'
'trouble_'
'access_'
'expected_'
'immediately_'
'noise_'
'lack_'
'options_'
'line_'
' ., _'
'prices_'
' ! _'
'recommend_'
'family_'
'helped_'
'sleep_'
'-_'
'checkout_'
' )_'
'clearly_'
'choices_'
'15_'
'ing_'
'serve_'
'brought_'
'ed_'
'bell_'
'upgraded_'
'years_'
'holiday_'
'beach_'
'week_'
'own_'
'size_'
'reasonable_'
'breakfasts_'
'amenities_'
'serving_'
'smiling_'
'makes_'
'positive_'
'modern_'
'simply_'
'half_'
'8_'
'atmosphere_'
'waitress_'
'variety_'
'per_'
'requests_'
'customers_'
'far_'
'kids_'
'definitely_'
'may_'
'absolutely_'
'easy_'
'year_'
'local_'
'incredibly_'
'flight_'
'cheerful_'
'willing_'
'notch_'
'waited_'
'personal_'
'yet_'
'chef_'
'asking_'
'home_'
'information_'
'wife_'
' ...._'
'style_'
'under_'
'conference_'
'huge_'
'brilliant_'
'tell_'
'probably_'
'except_'
'whilst_'
'hand_'
'reviews_'
'entire_'
'perfect_'
'personnel_'
'maintenance_'
'fault_'
'rest_'
'short_'
'returned_'
'non_'
'9_'
'security_'
'building_'
'delivered_'
'walk_'
'sent_'
'empty_'
'park_'
'priced_'
'book_'
'moment_'
'across_'
'requested_'
'awesome_'
'unfortunately_'
'00_'
'informed_'
'turn_'
'thank_'
'plentiful_'
'four_'
'standards_'
'glass_'
'bottle_'
'training_'
'o_'
'presented_'
'snacks_'
'office_'
'move_'
'dishes_'
'meeting_'
'/_'
'questions_'
'instead_'
'mentioned_'
'pleased_'
'note_'
'points_'
'saw_'
'hospitality_'
'closed_'
'experienced_'
'disappointing_'
'previous_'
'space_'
'elevator_'
'moved_'
'beyond_'
'certainly_'
'already_'
'views_'
'disappointed_'
'ice_'
'waiters_'
'thanks_'
'behind_'
'twice_'
'machine_'
'exceptionally_'
'knowledgeable_'
'exception_'
' .._'
'bring_'
'often_'
'basic_'
'elevators_'
'surprise_'
'clear_'
'wi_'
'weekend_'
'self_'
'impeccable_'
'fi_'
'showed_'
'truly_'
'seen_'
'arrive_'
'cost_'
'party_'
'changed_'
'enjoy_'
'adequate_'
'understand_'
'kitchen_'
'tour_'
'appreciated_'
'review_'
'keeping_'
'none_'
'between_'
'juice_'
'offering_'
'surprised_'
'system_'
'particular_'
'platinum_'
'complained_'
'charged_'
' .( _'
'might_'
'welcomed_'
'sit_'
'maybe_'
'contact_'
'greeting_'
'world_'
'turned_'
'mini_'
'taking_'
'walked_'
'spent_'
'show_'
'light_'
'close_'
'appeared_'
'worth_'
'within_'
'counter_'
'prepared_'
'charming_'
'terrible_'
'managed_'
'll_'
'worst_'
'decided_'
'obviously_'
'indeed_'
'driver_'
'impression_'
' .- _'
'promptly_'
'giving_'
' " ._'
'explained_'
'answer_'
'itself_'
'near_'
'possible_'
'reasonably_'
'single_'
'enjoyable_'
'beer_'
'( _'
'woman_'
'girl_'
'husband_'
'travel_'
'swimming_'
'city_'
'simple_'
'five_'
'grounds_'
'sometimes_'
'places_'
'totally_'
'staffs_'
'running_'
'yes_'
'eventually_'
'downstairs_'
'reservations_'
'following_'
'site_'
'reason_'
'bread_'
'coming_'
'apart_'
'directions_'
'daily_'
'11_'
'soon_'
'children_'
'detail_'
'impressive_'
'eager_'
'taxi_'
'perhaps_'
'maintained_'
'saying_'
'appointed_'
'fabulous_'
'plates_'
'sort_'
'sign_'
'dealt_'
'completely_'
'email_'
'anyone_'
'leaving_'
'started_'
'treated_'
'response_'
'situation_'
'queue_'
'shop_'
'cleaned_'
'noisy_'
'genuinely_'
'fairly_'
'hear_'
'nicely_'
'wedding_'
'bacon_'
'lift_'
'fix_'
'minute_'
'sunday_'
'tired_'
'loud_'
'fixed_'
'interested_'
'varied_'
'assist_'
'knew_'
'highly_'
'handled_'
'responsive_'
'laundry_'
'loved_'
'gold_'
'okay_'
'entertainment_'
'complaints_'
'usually_'
'crowded_'
'typical_'
'paying_'
'past_'
'cool_'
'arriving_'
'inside_'
'otherwise_'
'case_'
'bath_'
'50_'
'double_'
' .... _'
'c_'
'using_'
'type_'
'sorry_'
'apologetic_'
'. _'
'difficult_'
'maid_'
'guys_'
'ladies_'
'stuff_'
'awful_'
' – _'
'looks_'
'helping_'
'complaint_'
'mostly_'
'public_'
'details_'
'stars_'
'safe_'
'located_'
' ! ! !_'
'works_'
'complain_'
'expectations_'
'ly_'
'sitting_'
'server_'
'employee_'
'music_'
'keys_'
'pre_'
'b_'
'decor_'
'gentleman_'
'delightful_'
'gracious_'
'love_'
'cookies_'
'believe_'
'cheap_'
'12_'
'along_'
'liked_'
'attendant_'
'lacking_'
'status_'
'walking_'
'allowed_'
'relaxing_'
'meet_'
'advice_'
' % _'
'center_'
'feeling_'
'r_'
'apology_'
'facility_'
'stocked_'
'somewhat_'
'noticed_'
'24_'
'pick_'
'friendliness_'
'cheese_'
'option_'
'calls_'
'la_'
'ground_'
'providing_'
'effort_'
'cocktails_'
'friends_'
'tip_'
'ran_'
'premier_'
'staffed_'
'doors_'
'happened_'
'departure_'
'mins_'
'miss_'
'towel_'
'nor_'
'unfriendly_'
'glasses_'
'genuine_'
'below_'
'everywhere_'
'sweet_'
'list_'
'efficiently_'
'remember_'
'entrance_'
'toast_'
'ensure_'
'head_'
'whether_'
'cafe_'
'king_'
'fish_'
'continental_'
'offers_'
'spread_'
'window_'
'fridge_'
'eating_'
'salad_'
'treat_'
'low_'
'send_'
'sat_'
'sorted_'
'smoking_'
'matter_'
'fun_'
'servers_'
' “ _'
'pools_'
'bellman_'
'talking_'
'face_'
'talk_'
'overly_'
'saturday_'
'bartender_'
'accomodating_'
'terrific_'
'read_'
'wish_'
'normal_'
'station_'
'advised_'
'acceptable_'
'opened_'
'fully_'
'managers_'
'folks_'
'agent_'
'ones_'
'informative_'
'gone_'
'assistance_'
'bag_'
'goes_'
'es_'
'generous_'
'stand_'
'manner_'
'hope_'
'fair_'
'difference_'
'luxury_'
'egg_'
'stop_'
'fitness_'
'amount_'
'doorman_'
'ended_'
'computer_'
'wo_'
'unless_'
'brand_'
'range_'
'example_'
'fire_'
'andthe_'
'taste_'
'speaking_'
'slightly_'
'apparently_'
'package_'
'g_'
'receptionists_'
'competent_'
'nearby_'
'hit_'
'chairs_'
'company_'
'choose_'
'lost_'
'chain_'
'scrambled_'
'wide_'
'missing_'
'recently_'
'correct_'
'smiles_'
'heard_'
'toilet_'
'steak_'
'additional_'
'personable_'
'hyatt_'
'occasions_'
'add_'
'cocktail_'
'visited_'
'event_'
'consistently_'
'italian_'
'important_'
'avoid_'
'complete_'
'hampton_'
'diamond_'
'french_'
'bedroom_'
'caring_'
'dirty_'
'idea_'
'rating_'
'required_'
'properly_'
'guess_'
'third_'
'bus_'
'milk_'
'lifts_'
'floors_'
'45_'
'board_'
'toiletries_'
'street_'
'website_'
'seating_'
'balcony_'
'question_'
'shown_'
'anywhere_'
'earlier_'
'longer_'
'ago_'
'prior_'
'round_'
'bars_'
'forgot_'
'accommodate_'
'receive_'
'elsewhere_'
'weather_'
'improved_'
'advance_'
'minor_'
'gets_'
'regular_'
'cup_'
'chair_'
'constantly_'
'snack_'
'mediocre_'
'paper_'
'comfy_'
'meant_'
'bottles_'
'reported_'
'town_'
'bother_'
'separate_'
'negative_'
'myself_'
'added_'
'common_'
'birthday_'
'swift_'
'helpfull_'
'properties_'
'answered_'
'terrace_'
'chicken_'
'plate_'
'mr_'
'perfectly_'
'comment_'
'broken_'
'disappointment_'
'spend_'
'higher_'
'arranged_'
'anyway_'
'champagne_'
'break_'
'cleanliness_'
'oh_'
'pillows_'
'nobody_'
'exactly_'
'worse_'
'replaced_'
'grand_'
'fee_'
'considering_'
'serves_'
'shame_'
'25_'
'till_'
'mind_'
'london_'
'100_'
'dated_'
'levels_'
'annoying_'
'conditioning_'
'unhelpful_'
'understaffed_'
'standing_'
'chocolate_'
'replenished_'
'greet_'
'nearly_'
'finished_'
'themselves_'
'l_'
'together_'
'recommendations_'
'chips_'
'promised_'
'garden_'
'major_'
'aware_'
'notice_'
'hall_'
'dry_'
'setting_'
'stairs_'
'takes_'
'pricey_'
'true_'
'stopped_'
'refused_'
'recommended_'
'overnight_'
'freshly_'
'spg_'
'orders_'
'decorated_'
'pastries_'
'overpriced_'
'equally_'
'doormen_'
'conversation_'
'returning_'
'tub_'
'appear_'
'supposed_'
'equipped_'
'occasion_'
'western_'
'smell_'
'roof_'
'sense_'
'keen_'
'road_'
'stood_'
'soup_'
'suites_'
'calling_'
'comes_'
'inviting_'
'charges_'
'suggestions_'
'sandwiches_'
'various_'
'crew_'
'unable_'
'ng_'
'convenient_'
'windows_'
'owners_'
'outdoor_'
'elite_'
' ....._'
'improve_'
'comfort_'
'happen_'
'gift_'
'compared_'
'sea_'
'beautifully_'
'straight_'
'butler_'
'yourself_'
'via_'
'bothered_'
'indian_'
'inclusive_'
'ambience_'
'porter_'
'friend_'
'attended_'
'somewhere_'
'explain_'
'rates_'
'horrible_'
'relaxed_'
'sun_'
'pub_'
'nicer_'
'ignored_'
'hospitable_'
'friday_'
'centre_'
'wall_'
'40_'
'rooftop_'
'obliging_'
'middle_'
'corner_'
'connection_'
'resolved_'
'chose_'
'odd_'
'speed_'
'design_'
'/ _'
'terms_'
'appreciate_'
'temperature_'
'incredible_'
'bright_'
'red_'
'easily_'
'chinese_'
'orange_'
'pizza_'
'organised_'
'tiny_'
'warmly_'
'remembered_'
'f_'
'2nd_'
'pointed_'
'cups_'
'addition_'
'weeks_'
'mixed_'
'handle_'
'cake_'
' + _'
'dark_'
'accommodation_'
'voucher_'
'indifferent_'
'satisfied_'
'mistake_'
'months_'
'deliver_'
'buy_'
'white_'
'midnight_'
'attendants_'
'policy_'
'means_'
'er_'
'enthusiastic_'
'word_'
'stays_'
'mean_'
'machines_'
'comments_'
'allocated_'
' ’ _'
'seated_'
'heat_'
'strange_'
'packed_'
'beverage_'
'extensive_'
'cream_'
'nd_'
'cook_'
'fan_'
'sheraton_'
'overlooking_'
'cut_'
'courtyard_'
'stated_'
'speedy_'
'online_'
'filled_'
'barman_'
'dog_'
'older_'
'spot_'
'poorly_'
'tips_'
'soft_'
'treatment_'
'mornings_'
'groups_'
'sized_'
'rang_'
'missed_'
'biggest_'
'failed_'
'massage_'
'finding_'
'cordial_'
'concerned_'
'carte_'
'telling_'
'meat_'
'christmas_'
'multiple_'
'pleasure_'
'smart_'
'live_'
'chaotic_'
'store_'
'men_'
'language_'
'directly_'
' ” _'
'offerings_'
'further_'
'girls_'
'whatever_'
'u_'
'pressure_'
'gm_'
'international_'
'opinion_'
'overwhelmed_'
'neither_'
'based_'
'picked_'
'became_'
'sausage_'
'regarding_'
'private_'
'japanese_'
'control_'
'sadly_'
'reserved_'
'agreed_'
'courtesy_'
'activities_'
' , " _'
'eye_'
'oriented_'
'soap_'
'forward_'
'confirmed_'
'similar_'
'honest_'
'asian_'
'cleared_'
'catering_'
'barely_'
'unpleasant_'
'hair_'
'basically_'
'renovation_'
'placed_'
'surly_'
'ritz_'
'expecting_'
'consistent_'
'engaging_'
'age_'
' ! )_'
'total_'
'p_'
'hello_'
'lacked_'
'k_'
'ihg_'
'proper_'
'tasted_'
'sandwich_'
'renovated_'
'removed_'
'laid_'
'colleague_'
'pass_'
'fried_'
'discount_'
'golf_'
'express_'
'starbucks_'
'indoor_'
'forget_'
'mile_'
'certain_'
'(_'
'poolside_'
'al_'
'&_'
'finish_'
'personally_'
'allow_'
'present_'
'cards_'
'normally_'
'refreshing_'
'cereal_'
'spotless_'
'says_'
'enter_'
'w_'
'strong_'
'drivers_'
'watch_'
'presentation_'
' ! ) ._'
'thai_'
'lodge_'
'interesting_'
'grill_'
'followed_'
'relax_'
'understanding_'
'shows_'
'dessert_'
' :_'
'daughter_'
'ages_'
'starting_'
'hold_'
'write_'
'firstly_'
'dealing_'
'bistro_'
'suggested_'
'le_'
'assured_'
'professionalism_'
'male_'
'reply_'
'lower_'
'foods_'
'chance_'
'power_'
'alone_'
'contacted_'
'box_'
'ac_'
'responded_'
'hardly_'
'equipment_'
'drive_'
'continued_'
'waitresses_'
'ourselves_'
'dish_'
'wake_'
'priority_'
'sauna_'
'improvement_'
'cleaners_'
'apologized_'
'ahead_'
'patient_'
'entered_'
'owner_'
'numerous_'
'train_'
'pet_'
'showing_'
'memorable_'
'1st_'
'frustrating_'
'american_'
'putting_'
'supervisor_'
' * _'
'chat_'
'seat_'
'whom_'
' ' ._'
'tray_'
'evenings_'
'obvious_'
'faultless_'
'st_'
'condition_'
'life_'
'handed_'
'complaining_'
'bathrooms_'
'form_'
'black_'
'satisfactory_'
'par_'
'highlight_'
'3rd_'
'sausages_'
'lights_'
'superior_'
'initial_'
'fruits_'
'joke_'
'function_'
'approach_'
'plastic_'
'fare_'
'furniture_'
'delivery_'
'changing_'
'cereals_'
'queues_'
'maids_'
'larger_'
'funny_'
'son_'
'female_'
'transfer_'
'portions_'
' " , _'
'bland_'
'maker_'
'channels_'
'westin_'
'noted_'
'address_'
'seriously_'
'confirmation_'
'previously_'
'consider_'
'warmth_'
'mid_'
'heating_'
'everybody_'
'dressed_'
'opening_'
'inconvenience_'
' : - _'
'selections_'
'bottled_'
'central_'
'passed_'
'h_'
'ample_'
'skills_'
'european_'
' . )_'
'mark_'
'unlike_'
'mainly_'
'con_'
'alarm_'
'bartenders_'
'touches_'
'appears_'
'suggest_'
'communication_'
'relatively_'
'housekeeper_'
'positives_'
'breeze_'
' ? _'
'ten_'
'construction_'
'recent_'
'juices_'
'concern_'
'travelling_'
'colleagues_'
'cakes_'
'agree_'
'visiting_'
'moving_'
'lucky_'
'bonus_'
'follow_'
'addressed_'
'euros_'
'carry_'
'lines_'
'burger_'
'facing_'
'sound_'
'inconsistent_'
'workers_'
'whenever_'
'amazingly_'
'omelette_'
'game_'
'manage_'
'designed_'
'corridor_'
'surprisingly_'
'boy_'
'shampoo_'
'courses_'
'pros_'
'insisted_'
'sports_'
'lighting_'
'interaction_'
'relations_'
'country_'
'iron_'
'respond_'
'names_'
'kindly_'
'date_'
'smoke_'
'reliable_'
'led_'
'attached_'
'uncomfortable_'
'explanation_'
'30pm_'
'tickets_'
'provides_'
'cons_'
'" _'
'30am_'
'spanish_'
'miserable_'
'annoyed_'
'onto_'
'jobs_'
'disinterested_'
'hands_'
'experiences_'
'professionally_'
'mix_'
'reviewers_'
'porters_'
'swim_'
'impressions_'
'forever_'
'visits_'
'updated_'
'river_'
'literally_'
'include_'
'ordering_'
' ‘ _'
'vacation_'
'complementary_'
'intrusive_'
'plan_'
'rs_'
'traveling_'
'treatments_'
'therefore_'
'support_'
'entering_'
'serious_'
'rushed_'
'pleasantly_'
'smoothly_'
'message_'
'imagine_'
' ..... _'
'doubt_'
'sink_'
'exemplary_'
'cash_'
'accor_'
'knows_'
'foyer_'
'travelers_'
'info_'
'screen_'
'clothes_'
'min_'
'impossible_'
'turndown_'
'rush_'
'respect_'
'mess_'
'inns_'
'cookie_'
'charging_'
'tours_'
'corporate_'
'talked_'
'necessary_'
'desired_'
'hostess_'
'unacceptable_'
'future_'
'thoughtful_'
'ocean_'
'interacted_'
'feature_'
'towards_'
'badly_'
'feels_'
'pot_'
'organized_'
'delay_'
'acknowledged_'
'timely_'
'friendliest_'
'wines_'
'useful_'
'flawless_'
'twin_'
'confused_'
'held_'
'feedback_'
'clerks_'
'refund_'
'assistant_'
'sold_'
'knowledge_'
'vouchers_'
'rewards_'
'minibar_'
'charm_'
'registration_'
'known_'
'chatty_'
'gesture_'
'heated_'
'luke_'
'establishment_'
'ordinary_'
'gardens_'
'en_'
'women_'
'meetings_'
'guide_'
'step_'
'fuss_'
'dropped_'
'result_'
'dedicated_'
'assigned_'
'venue_'
'walls_'
'arrangements_'
'valets_'
'salmon_'
'beef_'
'serviced_'
'families_'
'asset_'
'v_'
'hallway_'
'forgotten_'
'possibly_'
'exec_'
'chatting_'
' ! ) _'
'initially_'
'concerns_'
'attending_'
'season_'
'kudos_'
'everyday_'
'distance_'
'satisfaction_'
'gives_'
'starter_'
'concierges_'
'upstairs_'
'host_'
'traditional_'
'phoned_'
'final_'
'resolve_'
'focused_'
'cooking_'
'wanting_'
'share_'
'refurbished_'
'layout_'
'aside_'
'vegetarian_'
'costs_'
'arranging_'
'trips_'
'report_'
'leisure_'
'among_'
'loyalty_'
'boys_'
'taxis_'
'hassle_'
'delight_'
'supply_'
'smaller_'
'buffets_'
'efficiency_'
'adults_'
'premium_'
'emails_'
'deserve_'
'cases_'
'wet_'
'ring_'
'individual_'
'attempt_'
'switch_'
'cab_'
'escorted_'
'starwood_'
'heavy_'
'cope_'
'wonder_'
'state_'
'elegant_'
'chefs_'
'taff_'
'beverages_'
'dinners_'
'clearing_'
'biscuits_'
'excuse_'
'absolute_'
'menus_'
'honors_'
'bellmen_'
'account_'
'unhappy_'
'preferred_'
'fill_'
'cutlery_'
'tidy_'
'luckily_'
'handling_'
'covered_'
'interest_'
'fortunately_'
'flat_'
'changes_'
'glad_'
'18_'
'uk_'
'ambiance_'
'match_'
'effective_'
'corridors_'
'apologised_'
'accommodations_'
'sleeping_'
'environment_'
'mobile_'
'kettle_'
'discovered_'
'albeit_'
'spectacular_'
'wireless_'
'praise_'
'beers_'
'payment_'
'knowledgable_'
'wow_'
'seeing_'
'words_'
'regularly_'
'recognition_'
'functional_'
'catch_'
'reading_'
'green_'
'eaten_'
'department_'
'replace_'
'approached_'
'tasteless_'
'surely_'
'journey_'
'advise_'
'learn_'
'directed_'
'adjacent_'
'program_'
'microwave_'
'child_'
'senior_'
'playing_'
'euro_'
'bringing_'
'attractive_'
'upset_'
'desserts_'
'waffles_'
'specially_'
'fit_'
'filling_'
'faces_'
'apologies_'
'print_'
'nicest_'
'mine_'
'features_'
'shift_'
'omelettes_'
'existent_'
'period_'
'cheery_'
'stuck_'
'housekeepers_'
'thoroughly_'
'14_'
'ridiculous_'
'alternative_'
'luxurious_'
'shopping_'
'partner_'
'mail_'
'drop_'
'become_'
'sell_'
'ie_'
'grumpy_'
'unit_'
'signs_'
'friendlier_'
'bedrooms_'
'numbers_'
'letter_'
'impersonal_'
'explaining_'
'bookings_'
'spotty_'
'crowd_'
'cared_'
'budget_'
'yogurt_'
'school_'
'map_'
'today_'
'deluxe_'
'breads_'
'assisted_'
'motel_'
' .* _'
'surroundings_'
'advertised_'
'advantage_'
'clock_'
'4th_'
'supplied_'
'summer_'
'bowl_'
'bought_'
'benefits_'
'unprofessional_'
'potatoes_'
'item_'
'honestly_'
'poached_'
'fab_'
'cosy_'
'character_'
'beginning_'
'original_'
'frequent_'
'clients_'
'goodthe_'
'telephone_'
'seats_'
'gorgeous_'
'downside_'
'health_'
'disaster_'
'junior_'
'uniformly_'
'thin_'
'tower_'
'noon_'
'events_'
',_'
'plain_'
'peak_'
'onsite_'
'monday_'
'feet_'
'ers_'
'entry_'
'computers_'
'coach_'
'basis_'
'vegetables_'
'minimal_'
'com_'
'acknowledge_'
'sincere_'
'error_'
'direct_'
'banquet_'
'slept_'
'plug_'
'month_'
'fancy_'
'deserves_'
'dined_'
'attend_'
'weak_'
'convention_'
'worn_'
'watching_'
'renovations_'
'ness_'
'confirm_'
'starters_'
'shut_'
'nowhere_'
'drinking_'
'sad_'
'prefer_'
'aspects_'
'airline_'
'painless_'
'extras_'
'block_'
' ) - _'
'suit_'
'wonderfully_'
'answering_'
'europe_'
' ." _'
'marks_'
'casual_'
'majority_'
'lacks_'
'aspect_'
'visitors_'
'sales_'
'ms_'
'enjoying_'
'act_'
'* _'
'written_'
'unusual_'
'tone_'
'seamless_'
'save_'
'luck_'
'hi_'
'cancelled_'
'tripadvisor_'
'pulled_'
'locked_'
'croissants_'
'accept_'
'saving_'
'highest_'
'speaks_'
'bottom_'
'resorts_'
'opposite_'
'cheaper_'
'sheets_'
'safety_'
'travellers_'
'radisson_'
'anniversary_'
'rare_'
'sufficient_'
'negatives_'
'traveler_'
'tourist_'
'unfailingly_'
'piece_'
'arrange_'
'politely_'
'stunning_'
'signal_'
'lukewarm_'
'wash_'
'steam_'
'somehow_'
'massive_'
'grateful_'
'catered_'
'wants_'
'remove_'
'hang_'
'furnished_'
'disturb_'
'art_'
'inexperienced_'
'hhonors_'
'story_'
'emailed_'
'tries_'
'cruise_'
'tourists_'
'cover_'
'sets_'
'appalling_'
'smiled_'
'occupied_'
'slight_'
'six_'
'patio_'
'ut_'
'market_'
'acted_'
'accommodated_'
'95_'
'newspaper_'
'frequently_'
'completed_'
'abrupt_'
'thorough_'
'refrigerator_'
'outlets_'
'includes_'
'flights_'
'chocolates_'
'butthe_'
'approachable_'
'meats_'
'constant_'
'ways_'
'spoken_'
'personality_'
'hallways_'
'deposit_'
'pancakes_'
'instructions_'
'hanging_'
'against_'
'repeat_'
'formal_'
'caused_'
'phones_'
'chap_'
'baggage_'
'play_'
'thinking_'
'tastes_'
'reasons_'
'grab_'
'demand_'
'lock_'
'showers_'
'solution_'
'garage_'
'solid_'
'ham_'
'spaces_'
'inform_'
'immaculate_'
'grace_'
'cell_'
'useless_'
'seasons_'
'downtown_'
'traffic_'
'sauce_'
'opportunity_'
'figure_'
'carpet_'
' ? ?_'
'tough_'
'reach_'
'products_'
'described_'
'according_'
' ! ! ! !_'
'parties_'
'tap_'
'proud_'
'carried_'
'16_'
'trainee_'
'pillow_'
'de_'
'cuisine_'
' _'
'declined_'
'upgrades_'
'resturant_'
'rarely_'
'hopefully_'
'continue_'
'heater_'
'smiley_'
'scones_'
'jacuzzi_'
'boutique_'
'replied_'
'refurbishment_'
'benefit_'
'pasta_'
'leaves_'
'cater_'
' , ( _'
'opted_'
'importantly_'
'waste_'
'sofa_'
'named_'
'baked_'
'kid_'
'interior_'
'loudly_'
'butter_'
'wing_'
'taj_'
'queen_'
'ours_'
'minimum_'
'frankly_'
'bigger_'
'starts_'
'dollars_'
'rain_'
'dreadful_'
'cart_'
'200_'
'requirements_'
'proactive_'
'baby_'
'dogs_'
'closing_'
'casino_'
'post_'
'island_'
'royal_'
'ill_'
'helpfulness_'
'disney_'
' € _'
'adjoining_'
'boarding_'
'arrogant_'
'struggled_'
'secure_'
'recognized_'
'parked_'
'specific_'
'shocked_'
'rep_'
'compensation_'
'ride_'
'receipt_'
'printed_'
'planning_'
'healthy_'
'woke_'
'whose_'
'ideal_'
'roomthe_'
'intercontinental_'
'omelet_'
'ce_'
'roll_'
'raised_'
'involved_'
'wear_'
'thankfully_'
'novotel_'
'news_'
'ball_'
'mattress_'
'60_'
'transport_'
'stylish_'
'repeated_'
'weekends_'
'van_'
'switched_'
'refill_'
'plaza_'
'code_'
'beat_'
'sofitel_'
'pride_'
'rolls_'
'lake_'
'encounter_'
'appetizers_'
'section_'
'extended_'
'co_'
'ambassador_'
'recommendation_'
'fries_'
'delayed_'
'considerate_'
'actual_'
' –_'
'runs_'
'rated_'
'35_'
'wrote_'
'workout_'
'commented_'
'specifically_'
'shout_'
'likely_'
'lets_'
'german_'
'bedding_'
'understood_'
'photos_'
'omelets_'
'beans_'
'accurate_'
'rectified_'
'procedure_'
'parts_'
'corrected_'
'hence_'
'fell_'
'transportation_'
'inefficient_'
'couples_'
'0_'
'replacement_'
'pack_'
'membership_'
'living_'
'confusion_'
'potential_'
'deep_'
'x_'
'staffing_'
'90_'
'traveller_'
'remote_'
'planned_'
'operator_'
'happily_'
'exercise_'
'cars_'
'seafood_'
'body_'
'loads_'
'industry_'
'headed_'
'forced_'
'ry_'
'rules_'
'reminded_'
'freezing_'
'exchange_'
'clueless_'
'ceiling_'
'action_'
'delighted_'
'listen_'
'happens_'
'dryer_'
'alcohol_'
'whatsoever_'
'weird_'
'update_'
'accepted_'
'stale_'
' ...... _'
'somebody_'
'reached_'
'loyal_'
'ironing_'
'watched_'
'remained_'
'conditioner_'
'ticket_'
'terribly_'
'proceeded_'
'himself_'
'faulted_'
'unobtrusive_'
'proved_'
'minded_'
'allowing_'
'overcooked_'
'assume_'
'ingredients_'
'extraordinary_'
'attractions_'
'yummy_'
'hungry_'
'availability_'
'assisting_'
'crazy_'
'connected_'
'connect_'
'built_'
'apple_'
'efforts_'
'carlton_'
'bay_'
'suitcases_'
'adult_'
'sight_'
'fellow_'
'eve_'
'amongst_'
'-- _'
'valued_'
'th_'
'supplies_'
'letting_'
'frozen_'
' --- _'
'tender_'
'smoked_'
'curtains_'
'appropriate_'
'5th_'
'winter_'
'villa_'
'thus_'
'laptop_'
'boring_'
'realized_'
'picture_'
'80_'
'pictures_'
'waitstaff_'
'south_'
'pork_'
'oatmeal_'
'favorite_'
'sparkling_'
'pull_'
'spotlessly_'
'shortly_'
'meaning_'
'matters_'
'inedible_'
'india_'
'drove_'
'client_'
'upper_'
'types_'
'prepare_'
'furnishings_'
'brasserie_'
'knowing_'
'cramped_'
' … _'
'salads_'
'respectful_'
'ervice_'
'aircon_'
'13_'
'un_'
'replenish_'
'refilled_'
'passing_'
'confusing_'
'began_'
'unique_'
'slippers_'
'shape_'
'log_'
'bangkok_'
'warned_'
'ts_'
'schedule_'
'incorrect_'
'incident_'
'gluten_'
' '
'treats_'
'remains_'
'nevertheless_'
'driving_'
'classy_'
'uninterested_'
'newly_'
'button_'
'bucket_'
'repeatedly_'
'repair_'
'bank_'
'position_'
'engineer_'
'disorganised_'
'waits_'
'tasting_'
'storage_'
'saved_'
'realised_'
'pity_'
'manned_'
'lit_'
'dine_'
'china_'
'amazed_'
'woken_'
'tight_'
'sister_'
'queries_'
'engaged_'
'calm_'
'recommending_'
'dress_'
'basement_'
'virtually_'
'typically_'
'brown_'
'solve_'
'purchase_'
'careful_'
'band_'
'portion_'
'parents_'
'el_'
'collect_'
'blue_'
'vip_'
'usd_'
'product_'
'volume_'
'sky_'
'residents_'
'pudding_'
'comprehensive_'
'apartment_'
'favourite_'
'zero_'
'challenge_'
'theme_'
'suggestion_'
'nightly_'
'fluent_'
'flexible_'
'direction_'
'degrees_'
'bunch_'
'begin_'
'spending_'
'ne_'
'july_'
'conversations_'
'stuffy_'
'dinning_'
'desks_'
'steps_'
'settled_'
'lazy_'
'gentlemen_'
'delivering_'
'deck_'
'airy_'
'spoiled_'
'greatly_'
'irish_'
'diners_'
')_'
'regardless_'
'preferences_'
'convenience_'
'chaos_'
'17_'
'exceedingly_'
'seconds_'
'knocked_'
'hurry_'
'focus_'
'doubletree_'
'cozy_'
'boiled_'
'writing_'
'tend_'
'require_'
'lounges_'
'handy_'
'disabled_'
'coffees_'
'closet_'
'cause_'
'embassy_'
'anymore_'
'alright_'
'6th_'
'unwelcoming_'
'struggle_'
'screaming_'
'pain_'
'needless_'
'na_'
'boat_'
'te_'
'ta_'
'secondly_'
'freindly_'
'capable_'
'asia_'
'amenity_'
'interactions_'
'helpfulthe_'
'exceeded_'
'unbelievable_'
'terminal_'
'suitcase_'
'multi_'
'lamp_'
'guarantee_'
'ey_'
'curt_'
'privacy_'
'indicated_'
'ble_'
'beware_'
'attempts_'
'advisor_'
'personalized_'
'knock_'
'energy_'
'vibe_'
'shared_'
'flowers_'
'bits_'
'awkward_'
' ;_'
'wished_'
'ous_'
'difficulty_'
'compensate_'
'claimed_'
'maps_'
'ensuring_'
'burgers_'
'wearing_'
'guard_'
'dubai_'
'deskand_'
'web_'
'suspect_'
'ensured_'
'00pm_'
'visible_'
'veg_'
'unexpected_'
'seemingly_'
'disappeared_'
'cancel_'
' ? ) _'
'teas_'
'solved_'
'connecting_'
'apologize_'
'ability_'
'300_'
'trays_'
'photo_'
'locations_'
'hate_'
'category_'
'suppose_'
'sorting_'
'pieces_'
'expectation_'
'disorganized_'
'passes_'
'stepped_'
'nightmare_'
'besides_'
'apparent_'
'andi_'
' --_'
'stressed_'
'stations_'
'record_'
'loungers_'
'topped_'
'premises_'
'happening_'
'apologise_'
' ) ; _'
'overworked_'
'overlooked_'
'decision_'
'communicate_'
'cleaner_'
'basket_'
'york_'
'popular_'
'plugs_'
'phenomenal_'
'palace_'
'operation_'
'concept_'
'chris_'
'salt_'
'hong_'
'foot_'
'disgusting_'
'brunch_'
'sick_'
'foreign_'
'banging_'
'sushi_'
'pro_'
'plans_'
'mistakes_'
'history_'
'22_'
'mirror_'
'kong_'
'beside_'
'shouting_'
'ish_'
'frustrated_'
'upgrading_'
'rock_'
'passport_'
'court_'
'coupons_'
'appearance_'
' (_'
'swiftly_'
'hotelthe_'
' ( $ _'
'shops_'
'ruined_'
'locals_'
'jam_'
'ies_'
'faced_'
'dried_'
'complex_'
'canteen_'
'spite_'
'roast_'
'reserve_'
'purpose_'
'painfully_'
'hoping_'
'aloof_'
' …_'
'knocking_'
'factor_'
'ion_'
'closes_'
'affair_'
'suitable_'
'nyc_'
'muffins_'
'mood_'
'depending_'
'cable_'
'surprising_'
'printing_'
'coupon_'
'atrium_'
'vast_'
'ty_'
'stands_'
'sour_'
'curry_'
'billing_'
'sugar_'
'kindness_'
'granted_'
'pathetic_'
'admit_'
'edible_'
'bored_'
'representative_'
'ins_'
'greasy_'
'excited_'
'discreet_'
'delays_'
'arrangement_'
'wise_'
'variable_'
'rudely_'
'rip_'
'rice_'
'cooperative_'
'accompanied_'
'slick_'
'rubbish_'
'19_'
'wood_'
'singapore_'
'prepaid_'
'organisation_'
'joy_'
'desert_'
'ted_'
'requesting_'
'perfection_'
'irritating_'
'inadequate_'
'fashioned_'
'ease_'
'criticism_'
'toaster_'
'ship_'
'restuarant_'
'newspapers_'
'holding_'
'british_'
'umbrellas_'
'turning_'
'realize_'
'locate_'
'hey_'
'fail_'
'continues_'
'basics_'
'residence_'
'7th_'
'travels_'
'stored_'
'persons_'
'channel_'
'capacity_'
'pushed_'
'promise_'
'piano_'
'eyes_'
'considered_'
'agents_'
'sightseeing_'
'presence_'
'load_'
'discussion_'
'correctly_'
'cheeses_'
'porridge_'
'ic_'
'honor_'
'hen_'
'football_'
'updating_'
'term_'
'sthe_'
'refunded_'
'michael_'
'gin_'
'describe_'
'chilled_'
'voice_'
'square_'
'silver_'
'pleasent_'
'david_'
'clientele_'
'attempted_'
' , & _'
'remind_'
'patchy_'
'paperwork_'
'nicethe_'
'evident_'
'copy_'
'bellhop_'
'animation_'
'500_'
'worker_'
'tree_'
'travelled_'
'responsible_'
'processed_'
'owned_'
'maintain_'
'herself_'
'entirely_'
' ” ._'
'upscale_'
'sheet_'
'remarkable_'
'pleasing_'
'john_'
'carrying_'
'brief_'
'blame_'
'75_'
'70_'
'00am_'
'$ _'
'recognised_'
'push_'
'gripe_'
'flying_'
'turns_'
'stating_'
'spoilt_'
'fireplace_'
'fairness_'
'electric_'
'supportive_'
'staffthe_'
'produced_'
'north_'
'gate_'
'classic_'
'boxes_'
'afterwards_'
'similarly_'
'lead_'
'hung_'
'enthusiasm_'
'waffle_'
'trendy_'
'played_'
'ur_'
'lamb_'
'halls_'
'familiar_'
'fall_'
'director_'
' ! ) , _'
'trash_'
'social_'
'rental_'
'regard_'
'questioned_'
'pricing_'
'join_'
'carvery_'
'ad_'
'tad_'
'surrounding_'
'miles_'
'sending_'
'se_'
'practice_'
'learned_'
'greetings_'
'app_'
'worthy_'
'tax_'
'shirt_'
'patrons_'
'expedia_'
'answers_'
'pushy_'
'overbearing_'
'operate_'
'notified_'
'nasty_'
'lousy_'
'ignore_'
'chip_'
'blocked_'
'bellboy_'
'signed_'
'produce_'
'printer_'
'mexican_'
'mall_'
'heart_'
'buildings_'
'television_'
'sunbeds_'
'sri_'
'servicing_'
'remain_'
'plane_'
'holidays_'
'display_'
'bills_'
'attentiveness_'
'worry_'
'shocking_'
'recognize_'
'queuing_'
'newer_'
'march_'
'heading_'
'contrast_'
'user_'
'umbrella_'
'toilets_'
'games_'
'earth_'
'z_'
'thursday_'
'stupid_'
'reviewer_'
'rectify_'
'posted_'
'managing_'
'leading_'
'lastly_'
'fairmont_'
': _'
'tion_'
'fees_'
'elderly_'
'drunk_'
'departments_'
' ' , _'
'reduced_'
'realise_'
'gotten_'
'exit_'
'sympathetic_'
'selling_'
'reakfast_'
'ere_'
'chains_'
'alcoholic_'
'additionally_'
' .: _'
'regency_'
'needing_'
'january_'
'inattentive_'
'helps_'
'forthcoming_'
'dollar_'
'december_'
'compare_'
'clue_'
'café_'
'bedside_'
'stick_'
'steaks_'
'situated_'
'related_'
'originally_'
'lunches_'
'listed_'
'fourth_'
'devices_'
'behaviour_'
'struggling_'
'nibbles_'
'magnificent_'
'extend_'
'consisted_'
'base_'
'quieter_'
'pint_'
'occupancy_'
'linen_'
'improvements_'
'decide_'
'claim_'
'chosen_'
'buffett_'
'awake_'
'sounded_'
'smelled_'
'robes_'
'norm_'
'lengthy_'
'lemon_'
'god_'
'espresso_'
'entertaining_'
'.. _'
'thru_'
'suggesting_'
'pastry_'
'hrs_'
'broke_'
'bowls_'
'8th_'
' ......_'
' .-_'
'stress_'
'resulted_'
'quantity_'
'pie_'
'humour_'
'eastern_'
'cares_'
'aggressive_'
'21_'
'attitudes_'
'ton_'
'supposedly_'
'pounds_'
'lunchtime_'
'diner_'
'dead_'
'april_'
'selected_'
'national_'
'linens_'
'june_'
'hire_'
'eg_'
'compliment_'
' ? ? ?_'
'wardrobe_'
'opens_'
'accessible_'
'warning_'
'supper_'
'immediate_'
'reputation_'
'polished_'
'perks_'
'maitre_'
'jw_'
'deals_'
'associate_'
'transferred_'
'restocked_'
'receiving_'
'keeps_'
'comparison_'
'appealing_'
'ally_'
'outgoing_'
'instance_'
'circumstances_'
'ting_'
'thermostat_'
'sub_'
'raise_'
'mains_'
'cafeteria_'
'automatically_'
'unbelievably_'
'reward_'
'mother_'
'largely_'
'ia_'
'downright_'
'disturbed_'
'crowne_'
' ? )_'
'rich_'
'medium_'
'likewise_'
'forth_'
'create_'
'bubbly_'
'avoided_'
'angry_'
' . ) _'
'sh_'
'select_'
'rack_'
'potato_'
'paris_'
'mushrooms_'
'ibis_'
'faster_'
'excellence_'
'desire_'
'denied_'
'crowds_'
'august_'
'shortage_'
'regards_'
'natural_'
'mentioning_'
'disappoint_'
' /_'
'universally_'
'timeshare_'
'suited_'
'stock_'
'stage_'
'significant_'
'sand_'
'maria_'
'ity_'
'greets_'
'flow_'
'favor_'
'displayed_'
'balance_'
'23_'
'soda_'
'sloppy_'
'sir_'
'embarrassed_'
'created_'
'yoghurt_'
'stellar_'
'sites_'
'press_'
'nature_'
'inquired_'
'harbour_'
'gel_'
'fed_'
'expressed_'
'décor_'
'die_'
'active_'
'washing_'
'thailand_'
'suddenly_'
'rose_'
'ment_'
'laugh_'
'guaranteed_'
'eco_'
'ear_'
'complicated_'
'backwards_'
'repaired_'
'police_'
'paint_'
'notes_'
'mandarin_'
'liking_'
'interact_'
'instant_'
'cava_'
'breakfastthe_'
'apples_'
'younger_'
'uninspiring_'
'signature_'
'refreshments_'
'invited_'
'hh_'
'gal_'
'count_'
'150_'
'ups_'
'spring_'
'lay_'
'dressing_'
'drain_'
'anxious_'
'motivated_'
'hairdryer_'
'exhausted_'
'99_'
'manger_'
'ipad_'
'hat_'
'erratic_'
'ent_'
'east_'
'ar_'
'. , _'
'search_'
'pointing_'
'incompetent_'
'emergency_'
'chase_'
'alex_'
'ons_'
'massages_'
'conceirge_'
'carpets_'
'bagels_'
'acknowledgement_'
'transfers_'
'tended_'
'os_'
'oriental_'
'inconvenient_'
'hoped_'
'finger_'
'bite_'
'activity_'
'000_'
'thomson_'
'stone_'
'specials_'
'replenishing_'
'pickup_'
'lie_'
'hosts_'
'detailed_'
'affordable_'
'upbeat_'
'joined_'
'continually_'
'centrally_'
'weddings_'
'slamming_'
'manners_'
'greatest_'
'current_'
'compliments_'
'coke_'
'hesitate_'
'ge_'
'´_'
'san_'
'official_'
'invoice_'
'fans_'
'comp_'
'ant_'
' # _'
'usa_'
'spare_'
'ra_'
'marked_'
'dismissive_'
'daniel_'
'!_'
'tech_'
'picking_'
'gem_'
'currently_'
'caters_'
'utterly_'
'tennis_'
'sunny_'
'contemporary_'
'whoever_'
'romantic_'
'lived_'
'commended_'
'benedict_'
'argue_'
'towers_'
'separately_'
'human_'
'heck_'
'frustration_'
'engage_'
'don_'
'combination_'
'alot_'
'vehicle_'
'temporary_'
'technician_'
'tag_'
'spray_'
'overcrowded_'
'japan_'
'electrical_'
'commend_'
'sunset_'
'shoes_'
'gourmet_'
'entitled_'
'enormous_'
'caught_'
'cappuccino_'
'burnt_'
'unavailable_'
'tipped_'
'task_'
'tall_'
'readily_'
'neat_'
'mass_'
'decoration_'
'curtain_'
'assumed_'
'west_'
'roomand_'
'preference_'
'ends_'
'states_'
'settle_'
'password_'
'november_'
'james_'
'itthe_'
'gravy_'
'fight_'
'falls_'
'cutting_'
'checks_'
'witnessed_'
'spirits_'
'riu_'
'rear_'
'preparing_'
'ful_'
'exceptions_'
'advising_'
'squeezed_'
'shrugged_'
'listening_'
'conditions_'
'9th_'
'trust_'
'ringing_'
'october_'
'mouth_'
'messy_'
'cuts_'
' ? ) ._'
'undercooked_'
'peaceful_'
'patience_'
'functions_'
'culture_'
'blankets_'
'adjust_'
'adding_'
' ) . _'
'september_'
'purchased_'
'discuss_'
'demanding_'
'carts_'
'carefully_'
'avail_'
'twenty_'
'turkey_'
'success_'
'servicethe_'
'royalty_'
'priceline_'
'pretentious_'
'historic_'
'hip_'
'closer_'
'unfortunate_'
'tomato_'
'thrown_'
'jet_'
'dull_'
'device_'
'unnecessary_'
'row_'
'outdated_'
'favour_'
'discover_'
'chicago_'
'cap_'
'10th_'
' ....... _'
' " - _'
'tipping_'
'refills_'
'fussy_'
'fixing_'
'firm_'
'et_'
'description_'
'blocks_'
'sweets_'
'spots_'
'nuts_'
'nonetheless_'
'hidden_'
'conrad_'
'conferences_'
'collection_'
'shelf_'
'shade_'
'hardworking_'
'consistency_'
' . ._'
'tvs_'
'seven_'
'refreshed_'
'q_'
'passable_'
'lively_'
'instantly_'
'drawer_'
'canapés_'
'brands_'
'accomodate_'
'thanked_'
'route_'
'raw_'
'manning_'
'hop_'
'engineering_'
'demanded_'
'condescending_'
' ? !_'
'systems_'
'presumably_'
'ns_'
'mary_'
'ling_'
'grilled_'
'fly_'
'effectively_'
'cross_'
'compensated_'
'– _'
'untrained_'
'ultra_'
'substantial_'
'stained_'
'responses_'
'prosecco_'
'overheard_'
'ood_'
'iced_'
'famous_'
'bbq_'
'andstaff_'
'tuesday_'
'steakhouse_'
'shoulders_'
'robotic_'
'remembering_'
'investment_'
'enquired_'
'cooler_'
'warmer_'
'unusually_'
'tremendous_'
'sum_'
'steep_'
'scheduled_'
'platter_'
'metro_'
'mannered_'
'energetic_'
'collected_'
'celebrate_'
'brusque_'
'automatic_'
'resident_'
'reluctant_'
'reaction_'
'proof_'
'polish_'
'immaculately_'
'honored_'
'hash_'
'grade_'
'est_'
'reset_'
'regis_'
'queried_'
'pressed_'
'vegas_'
'pour_'
'perfunctory_'
'ny_'
'minus_'
'marriotts_'
'lose_'
'embarrassing_'
'electronic_'
'discounted_'
'cooling_'
'conveniently_'
' . - _'
'wherever_'
'vending_'
'statement_'
'snow_'
'silly_'
'setup_'
'responsibility_'
'pots_'
'occasionally_'
'laughing_'
'flies_'
'blanket_'
'andwe_'
'yelling_'
'throw_'
'threw_'
'summary_'
'sides_'
'reviewed_'
'likes_'
'easier_'
'dust_'
'degree_'
'committed_'
'australia_'
' " ( _'
'wooden_'
'track_'
'sed_'
'remodeled_'
'outlet_'
'nespresso_'
'manchester_'
'communal_'
'absent_'
'utmost_'
'text_'
'tells_'
'soggy_'
'slowly_'
'shabby_'
'scottish_'
'rough_'
'poured_'
'med_'
'irritated_'
'hesitation_'
'george_'
'easter_'
'cute_'
'concert_'
'chill_'
'bare_'
'automated_'
'afraid_'
'village_'
'sounds_'
'skip_'
'recall_'
'noticeable_'
'neighbors_'
'magic_'
'individuals_'
'impress_'
'functioning_'
'definately_'
'cigarette_'
'bizarre_'
'tokyo_'
'test_'
'sharp_'
'reality_'
'privilege_'
'lying_'
'library_'
'introduced_'
'guards_'
'figured_'
'excuses_'
'; _'
'tapas_'
'satisfying_'
'satisfy_'
'ridiculously_'
'replacing_'
'renaissance_'
'practically_'
'informal_'
'behaved_'
'bathtub_'
'wednesday_'
'stops_'
'sharing_'
'rule_'
'requires_'
'overwhelming_'
'movie_'
'graciously_'
'esp_'
'dropping_'
'aff_'
';_'
'temp_'
'struck_'
'shangri_'
'michelin_'
'hundreds_'
'heads_'
'fat_'
'duvet_'
'countries_'
'blown_'
'ation_'
'assortment_'
'!. _'
'rail_'
'quoted_'
'outs_'
'former_'
'fashion_'
'duties_'
'retrieve_'
'passengers_'
'organising_'
'lesson_'
'kimpton_'
'informing_'
'expense_'
'downhill_'
'captain_'
'butlers_'
'associates_'
'uniform_'
'port_'
'personalised_'
'noises_'
'mad_'
'loose_'
'hiltons_'
'falling_'
'exciting_'
'creative_'
'contrary_'
'competition_'
'400_'
'worried_'
'wasted_'
'resulting_'
'repetitive_'
'explore_'
'delivers_'
'consideration_'
'comped_'
'canapes_'
'bargain_'
' . , _'
'unreliable_'
'therapist_'
'superbly_'
'staythe_'
'sliced_'
'quirky_'
'exterior_'
'effect_'
'edge_'
'disturbing_'
'willingness_'
'tho_'
'robe_'
'quietly_'
'marble_'
'draw_'
'distracted_'
'dates_'
'attract_'
'admitted_'
'ultimately_'
'strongly_'
'shambles_'
'scene_'
'refurb_'
'popcorn_'
'page_'
'exact_'
'destination_'
'dance_'
'da_'
'coped_'
'cooks_'
'atrocious_'
'allergies_'
'underwhelming_'
'surprises_'
'puts_'
'plumbing_'
'picky_'
'physical_'
'messed_'
'insufficient_'
'hr_'
'duck_'
'couch_'
'anybody_'
'absence_'
'tomatoes_'
'tastefully_'
'sincerely_'
'responding_'
'pouring_'
'operations_'
'locally_'
'lives_'
'jug_'
'insist_'
'hopeless_'
'haphazard_'
'grey_'
'goodbut_'
'choosing_'
'cancellation_'
'camp_'
'advertise_'
'tomorrow_'
'stains_'
'sockets_'
'sing_'
'signage_'
'shirts_'
'piping_'
'performance_'
'extreme_'
'efficent_'
'dispenser_'
'cheerfully_'
'behavior_'
'barrier_'
'arrivals_'
'tepid_'
'snooty_'
'smallest_'
'random_'
'periods_'
'penny_'
'observed_'
'length_'
'false_'
'failure_'
'doctor_'
'dietary_'
'alert_'
'yesterday_'
'um_'
'thomas_'
'rushing_'
'languages_'
'hole_'
'hk_'
'frontdesk_'
'extension_'
'exquisite_'
'anticipate_'
'straightforward_'
'score_'
'sandals_'
'pushing_'
'ot_'
'extent_'
'examples_'
'elegance_'
'combined_'
'belongings_'
'bellboys_'
'utensils_'
'taxes_'
'sumptuous_'
'paul_'
'lotion_'
'guided_'
'flush_'
'ff_'
'errors_'
'cabin_'
'buses_'
'associated_'
'asleep_'
'units_'
'strawberries_'
'ss_'
'rid_'
'promises_'
'operated_'
'friendlythe_'
'confirming_'
'ana_'
'... _'
'visitor_'
'trolley_'
'stretched_'
'sparse_'
'reflect_'
'profile_'
'internal_'
'greatthe_'
'ferry_'
'evidence_'
'ding_'
'diet_'
'ai_'
'adequately_'
' !, _'
'thick_'
'suits_'
'routine_'
'relaxation_'
'registered_'
'fitted_'
'fake_'
'ess_'
'dozen_'
'ch_'
'array_'
'arguing_'
'approx_'
'addressing_'
'remaining_'
'refresh_'
'professionals_'
'procedures_'
'packages_'
'organise_'
'messages_'
'matched_'
'causing_'
'watery_'
'varieties_'
'technical_'
'teams_'
'pepper_'
'operating_'
'mattresses_'
'listened_'
'kinds_'
'insult_'
'inquire_'
'hops_'
'hill_'
'feather_'
'dial_'
'argued_'
'uses_'
'undergoing_'
'students_'
'staffer_'
'southern_'
'recognise_'
'moreover_'
'lobster_'
'ley_'
'les_'
'ka_'
'homely_'
'hgi_'
'guides_'
'electricity_'
'celebration_'
'castle_'
'browns_'
'ay_'
'26_'
' : " _'
'xmas_'
'wee_'
'shine_'
'respects_'
'register_'
'ownership_'
'marriot_'
'homemade_'
'hearing_'
'february_'
'cuba_'
'conservatory_'
'alternatives_'
'ale_'
'airlines_'
'28_'
'+ _'
'& _'
'splendid_'
'sights_'
'que_'
'peace_'
'papers_'
'narrow_'
'napkins_'
'ive_'
'brings_'
'boston_'
'billed_'
'bear_'
'authentic_'
'appetizer_'
'slices_'
'kit_'
'inthe_'
'highlights_'
'hats_'
'appreciative_'
'allows_'
'accomodation_'
'watered_'
'unattended_'
'tube_'
'quicker_'
'pop_'
'gain_'
'chilly_'
'blamed_'
'andwhen_'
'accordingly_'
'traveled_'
'shock_'
'shall_'
'opposed_'
'issued_'
'inexpensive_'
'heavily_'
'furthermore_'
'flavour_'
'excessive_'
'crockery_'
'chic_'
'century_'
'wishes_'
'tonic_'
'supermarket_'
'sticky_'
'slip_'
'pancake_'
'pampered_'
'obnoxious_'
'max_'
'ideas_'
'goodness_'
'endless_'
'college_'
'celebrating_'
'bugs_'
'bearing_'
'walks_'
'smells_'
'relation_'
'reflected_'
'redeeming_'
'mercure_'
'latter_'
'ignoring_'
'hectic_'
'forgetting_'
'excellant_'
'arrives_'
'argument_'
'anticipated_'
'$_'
'tons_'
'thumbs_'
'roomy_'
'referred_'
'receptions_'
'painful_'
'honeymoon_'
'dire_'
'crown_'
'congratulations_'
'command_'
'bathrobes_'
'250_'
') _'
' [ _'
'weight_'
'smokers_'
'proximity_'
'prime_'
'nce_'
'las_'
'extraordinarily_'
'exist_'
'difficulties_'
'challenging_'
'blank_'
'bellhops_'
'becomes_'
'11th_'
'timing_'
'spoon_'
'scratch_'
'pan_'
'ongoing_'
'lamps_'
'fairfield_'
'essentially_'
'driven_'
'comfortably_'
'cabs_'
'anytime_'
'adds_'
'`_'
'washed_'
'ver_'
'toothbrush_'
'suffered_'
'positively_'
'oil_'
'jose_'
'hospital_'
'ck_'
'bananas_'
'weights_'
'swipe_'
'slide_'
'shoe_'
'rudeness_'
'medical_'
'gardeners_'
'filthy_'
'faulty_'
'dear_'
'contained_'
'27_'
'2012_'
'wheelchair_'
'unsure_'
'uniforms_'
'stiff_'
'split_'
'sorts_'
'scale_'
'sarah_'
'salty_'
'merely_'
'lied_'
'law_'
'laura_'
'interrupted_'
'hangers_'
'effortless_'
'daytime_'
'cheapest_'
'architecture_'
'ants_'
'wondering_'
'sometime_'
'sofas_'
'rum_'
'pricy_'
'passports_'
'neighbours_'
'meridien_'
'memory_'
'intimate_'
'gratuity_'
'garbage_'
'facial_'
'charger_'
'breaks_'
'balconies_'
'annoyance_'
'vegetarians_'
'upside_'
'title_'
'tier_'
'spirit_'
'spire_'
'query_'
'programme_'
'player_'
'omni_'
'marvellous_'
'land_'
'ine_'
'excursions_'
'caliber_'
'appointment_'
'55_'
' ! ! ! ! !_'
'version_'
'uneven_'
'tinned_'
'roomi_'
'perk_'
'overcharged_'
'ha_'
'deserved_'
'departing_'
'currency_'
'considerable_'
'bordering_'
' " . _'
'waldorf_'
'survey_'
'sachets_'
'pace_'
'lessons_'
'gas_'
'finishing_'
'doubles_'
'depressing_'
'covers_'
'comparable_'
'blu_'
'aged_'
'afford_'
'29_'
'2013_'
'strength_'
'sale_'
'radio_'
'parks_'
'hugely_'
'grabbed_'
'fter_'
'documents_'
'departed_'
'branded_'
'amex_'
' — _'
' :)_'
'storing_'
'singing_'
'passion_'
'occurred_'
'obtain_'
'oberoi_'
'ls_'
'laughed_'
'file_'
'expects_'
'everytime_'
'chatted_'
'buggy_'
'awhile_'
'anna_'
'spoil_'
'singer_'
'significantly_'
'shortcomings_'
'seek_'
'reports_'
'raining_'
'politeness_'
'commitment_'
'backed_'
'wings_'
'soul_'
'profusely_'
'outrageous_'
'cot_'
'award_'
'ans_'
'"_'
'ya_'
'toward_'
'tops_'
'spoons_'
'soulless_'
'ripped_'
'rings_'
'metal_'
'guidance_'
'funky_'
'counters_'
'controls_'
'containers_'
'communicated_'
'bali_'
'appropriately_'
'applied_'
'abysmal_'
' @ _'
'unwilling_'
'subsequently_'
'subject_'
'role_'
'reluctantly_'
'relief_'
'niggles_'
'neglected_'
'kick_'
'establishments_'
'distant_'
'disco_'
'dealings_'
'crackers_'
'beijing_'
'upto_'
'trainees_'
'themed_'
'solicitous_'
'slower_'
'remedy_'
'practical_'
'oven_'
'oddly_'
'lly_'
'liquor_'
'fittings_'
'discussed_'
'clothing_'
'chief_'
'2014_'
'vs_'
'vary_'
'supervision_'
'pen_'
'pc_'
'naturally_'
'moments_'
'makeover_'
'geared_'
'france_'
'delhi_'
'bothering_'
'background_'
'waters_'
'villas_'
'stopping_'
'spain_'
'pays_'
'nuisance_'
'lanka_'
'horrendous_'
'enhanced_'
'duration_'
'dj_'
'diligent_'
'carlos_'
'bucks_'
'australian_'
'subsequent_'
'prove_'
'necessarily_'
'invest_'
'impeccably_'
'hygiene_'
'hint_'
'goods_'
'focussed_'
'cities_'
'bikes_'
'wind_'
'whereas_'
'welcomes_'
'tonight_'
'surrounded_'
'stingy_'
'rent_'
'palm_'
'organization_'
'initiative_'
'hors_'
'fifth_'
'escape_'
'drank_'
'custom_'
'crab_'
'sydney_'
'sullen_'
'successful_'
'sizes_'
'partial_'
'pair_'
'officer_'
'michelle_'
'martini_'
'directing_'
'damp_'
'andrew_'
'america_'
'unaware_'
'trees_'
'touched_'
'reduce_'
'pure_'
'manageress_'
'limit_'
'knife_'
'fulfilled_'
'duly_'
'desperate_'
'croissant_'
'boss_'
'basin_'
'adjusted_'
'2015_'
'ys_'
'strict_'
'stressful_'
'standout_'
'staircase_'
'sa_'
'risk_'
'results_'
'overbooked_'
'master_'
'infinity_'
'harder_'
'gala_'
'credited_'
'concerning_'
'cloths_'
'cloth_'
'bridge_'
'ballroom_'
'altogether_'
' ] _'
'zed_'
'truth_'
'tony_'
'stopover_'
'rely_'
'preparation_'
'perspective_'
'notable_'
'mike_'
'lingual_'
'lax_'
'id_'
'feed_'
'eur_'
'dive_'
'dim_'
'deserts_'
'dc_'
'costa_'
'challenged_'
'boot_'
'books_'
'arm_'
'weary_'
'underground_'
'til_'
'spicy_'
'slot_'
'refuse_'
'reaching_'
'maintaining_'
'lackluster_'
'italy_'
'ireland_'
'improving_'
'dangerous_'
'damage_'
'continuously_'
'competitive_'
'coat_'
'bent_'
'becoming_'
'21st_'
'1000_'
' , , _'
'ying_'
'theatre_'
'squeeze_'
'solo_'
'requirement_'
'ps_'
'measure_'
'locker_'
'leg_'
'fortunate_'
'essential_'
'ell_'
'discrete_'
'deli_'
'ded_'
'candy_'
'caesar_'
'asap_'
'americans_'
' ; - _'
' :-)_'
'wave_'
'vietnam_'
'trade_'
'tiles_'
'sample_'
'policies_'
'pluses_'
'orientated_'
'motions_'
'limo_'
'itand_'
'glitch_'
'frosty_'
'fluffy_'
'decaf_'
'content_'
'claims_'
'caribbean_'
'blonde_'
'accident_'
'ugly_'
'teenagers_'
'strangely_'
'storm_'
'signing_'
'restricted_'
'remembers_'
'remedied_'
'loaded_'
'kiosk_'
'justify_'
'hurt_'
'humble_'
'hosting_'
'holder_'
'highway_'
'frills_'
'folk_'
'confidence_'
'canal_'
'build_'
'bin_'
'bathrobe_'
'banana_'
'agency_'
')._'
'won_'
'vey_'
'vegetable_'
'si_'
'russian_'
'rave_'
'peter_'
'performed_'
'oversight_'
'incidentals_'
'ignorant_'
'gentle_'
'enjoyment_'
'eight_'
'draft_'
'definite_'
'controlled_'
'ated_'
'warn_'
'tasteful_'
'session_'
'pulling_'
'onion_'
'ned_'
'marina_'
'invariably_'
'england_'
'elements_'
'disgrace_'
'cupboard_'
'conditioned_'
'blew_'
'birds_'
'asks_'
'win_'
'vietnamese_'
'therapists_'
'substandard_'
'slice_'
'silverware_'
'screens_'
'processes_'
'mrs_'
'midday_'
'manor_'
'ma_'
'luggages_'
'jessica_'
'indication_'
'ian_'
'diverse_'
'decline_'
'connectivity_'
'commendable_'
'cinnamon_'
'buttons_'
' ( £ _'
'wired_'
'sterile_'
'shot_'
'requiring_'
'renovating_'
'obtrusive_'
'notably_'
'manages_'
'loss_'
'jack_'
'honesty_'
'forms_'
'flower_'
'finest_'
'discussing_'
'deco_'
'crisp_'
'coupled_'
'bitter_'
'apply_'
'appetising_'
'apologizing_'
'ala_'
'soundproofing_'
'rollaway_'
'remarkably_'
'reflects_'
'reflection_'
'pizzas_'
'ping_'
'pantry_'
'marketing_'
'latest_'
'kevin_'
'intended_'
'helpfully_'
'hell_'
'freshen_'
'flag_'
'enquiries_'
'dy_'
'dip_'
'colonial_'
'breath_'
'apartments_'
' .; _'
'wishing_'
'wandering_'
'tom_'
'tasks_'
'strip_'
'strike_'
'sleeper_'
'pitch_'
'packet_'
'lankan_'
'j_'
'hearty_'
'flustered_'
'fails_'
'envelope_'
'earplugs_'
'discounts_'
'decorations_'
'attempting_'
'amsterdam_'
'affected_'
'12th_'
' .– _'
'waking_'
'waived_'
'uber_'
'touring_'
'tel_'
'socket_'
'slipped_'
'skipped_'
'reps_'
'removing_'
'ome_'
'mobility_'
'latte_'
'jazz_'
'jacket_'
'ings_'
'il_'
'government_'
'encourage_'
'emptied_'
'carpark_'
'arms_'
'aid_'
'acknowledging_'
'wondered_'
'warmed_'
'veggie_'
'unlimited_'
'transit_'
'thereafter_'
'slowest_'
'robert_'
'plush_'
'occasional_'
'mexico_'
'learning_'
'joe_'
'indifference_'
'hie_'
'force_'
'eric_'
'daughters_'
'covering_'
'catching_'
'buying_'
'bend_'
'animals_'
'treadmills_'
'tends_'
'specialty_'
'showering_'
'remodel_'
'recovery_'
'pets_'
'misleading_'
'insisting_'
'individually_'
'gladly_'
'entrees_'
'dream_'
'ceilings_'
'bakery_'
'attendees_'
'abundant_'
'65_'
'600_'
' , $ _'
'washer_'
'video_'
'understandable_'
'temperatures_'
'teh_'
'subway_'
'sole_'
'soaps_'
'shuttles_'
'shrug_'
'shorts_'
'secured_'
'secret_'
'reporting_'
'refilling_'
'provider_'
'proficient_'
'pineapple_'
'nick_'
'movies_'
'mgr_'
'meanwhile_'
'humor_'
'golden_'
'formalities_'
'escort_'
'ending_'
'blow_'
'blah_'
' , ' _'
'wrapped_'
'wallet_'
'valuable_'
'underneath_'
'turkish_'
'therethe_'
'sliding_'
'restaraunt_'
'repairs_'
'reduction_'
'rainy_'
'primarily_'
'ors_'
'okthe_'
'net_'
'mugs_'
'mat_'
'marco_'
'lifeguards_'
'invisible_'
'introduction_'
'intermittent_'
'ini_'
'impact_'
'hosted_'
'flowing_'
'faults_'
'condiments_'
'btw_'
'bands_'
'achieve_'
' .'
'turnover_'
'tab_'
'structure_'
'sheer_'
'patiently_'
'orlando_'
'model_'
'mixture_'
'mails_'
'landscaping_'
'lad_'
'keycard_'
'homewood_'
'height_'
'hamptons_'
'ginger_'
'foam_'
'demeanor_'
'calibre_'
'andthey_'
' !( _'
'whisked_'
'tent_'
'suffer_'
'studio_'
'series_'
'sam_'
'regret_'
'ratings_'
'rachel_'
'pressing_'
'powdered_'
'pad_'
'mineral_'
'leads_'
'jump_'
'hunt_'
'hubby_'
'haul_'
'goodand_'
'cardio_'
'bites_'
'behalf_'
'beauty_'
'bang_'
'amusing_'
' ' - _'
'venues_'
'tubs_'
'terminals_'
'smelt_'
'skilled_'
'sensitive_'
'pile_'
'leadership_'
'drawers_'
'dissapointed_'
'dishwasher_'
'di_'
'buzzing_'
'apologising_'
'amiable_'
'advertising_'
'accent_'
' = _'
'unwelcome_'
'technology_'
'stolen_'
'staf_'
'smartly_'
'peninsula_'
'odor_'
'notify_'
'liquid_'
'lap_'
'inner_'
'frank_'
'ely_'
'ds_'
'communicating_'
'beforehand_'
'45pm_'
' : -_'
' ........_'
'vodka_'
'updates_'
'uncaring_'
'trains_'
'smallish_'
'scheme_'
'ranging_'
'partly_'
'obliged_'
'mint_'
'makers_'
'handing_'
'exclusive_'
'dutch_'
'digital_'
'depends_'
'critical_'
'creating_'
'crap_'
'canada_'
'borrow_'
'blowing_'
'allergy_'
'aimed_'
' . ) ._'
' ) !_'
'yard_'
'tenders_'
'talented_'
'receptive_'
'partially_'
'oblige_'
'mold_'
'modest_'
'marred_'
'instructed_'
'installed_'
'fizz_'
'ex_'
'era_'
'dublin_'
'ance_'
'aim_'
'unlucky_'
'unanswered_'
'transaction_'
'receptionand_'
'prevent_'
'pleasurable_'
'placing_'
'patrick_'
'packing_'
'mushroom_'
'mountain_'
'marvelous_'
'lso_'
'lavish_'
'kitchenette_'
'image_'
'fork_'
'executed_'
'entertained_'
'drawback_'
'domestic_'
'designated_'
'contacting_'
'brush_'
'ashamed_'
'appeal_'
'adjustment_'
'32_'
' .’_'
'worldwide_'
'wasthe_'
'ther_'
'solving_'
'slam_'
'privileges_'
'popped_'
'pink_'
'lowest_'
'lisa_'
'link_'
'husbands_'
'hide_'
'handicapped_'
'granola_'
'fixtures_'
'environmentally_'
'cottage_'
'corners_'
'berlin_'
'yellow_'
'roomwe_'
'rolled_'
'rapidly_'
'od_'
'museum_'
'melia_'
'mechanical_'
'losing_'
'lemonade_'
'ky_'
'gifts_'
'external_'
'exploring_'
'courteously_'
'canned_'
'blind_'
'bike_'
'anticipating_'
'acting_'
' ......._'
'undrinkable_'
'tissues_'
'theirs_'
'tedious_'
'spotted_'
'situations_'
'rubbery_'
'roomsthe_'
'resolving_'
'maximum_'
'kinda_'
'iphone_'
'harried_'
'greek_'
'foodthe_'
'drag_'
'dancing_'
'bulb_'
'beefeater_'
'approximately_'
'adapter_'
'15th_'
'unremarkable_'
'tuna_'
'tions_'
'source_'
'sophisticated_'
'reserving_'
'replies_'
'offhand_'
'loo_'
'lifetime_'
'lagoon_'
'injury_'
'fires_'
'dirt_'
'determined_'
'desperately_'
'crispy_'
'cat_'
'cashier_'
'buti_'
'bet_'
'attentative_'
'2017_'
'visa_'
'venice_'
'uninviting_'
'remodeling_'
'progress_'
'prague_'
'portable_'
'overlook_'
'officious_'
'muffin_'
'ions_'
'giant_'
'enquire_'
'elaborate_'
'ee_'
'crisps_'
'converted_'
'confident_'
'companies_'
'bumped_'
'bug_'
'borderline_'
'andcheck_'
'14th_'
'victoria_'
'teeth_'
'surcharge_'
'subpar_'
'staffi_'
'settings_'
'packets_'
'marginal_'
'jason_'
'increased_'
'imaginative_'
'failing_'
'communications_'
'blinds_'
'' _'
' ... ) ._'
'valley_'
'toothpaste_'
'thirty_'
'thinks_'
'speakers_'
'smelling_'
'shanghai_'
'safari_'
'ruin_'
'rubber_'
'recieved_'
'overseas_'
'ously_'
'oom_'
'nickel_'
'memories_'
'impatient_'
'hundred_'
'gathering_'
'factory_'
'distinct_'
'disappear_'
'coconut_'
'cast_'
'cans_'
'alas_'
'aaa_'
'800_'
'18th_'
'--_'
'ythe_'
'unpacked_'
'teach_'
'tayed_'
'surface_'
'shining_'
'severely_'
'seeming_'
'seasoned_'
'scotland_'
'rise_'
'reference_'
'radiator_'
'promotion_'
'mumbai_'
'multilingual_'
'lined_'
'jan_'
'itc_'
'inspiring_'
'gap_'
'fo_'
'encouraged_'
'element_'
'consequently_'
'confronted_'
'chambermaids_'
'bird_'
'20th_'
'usthe_'
'unreasonable_'
'toasted_'
'tissue_'
'supported_'
'supplement_'
'seeking_'
'redone_'
'rapid_'
'prawn_'
'orientation_'
'noodles_'
'ning_'
'nicebut_'
'network_'
'melon_'
'landed_'
'ingly_'
'exceed_'
'crews_'
'convince_'
'considerably_'
'connections_'
'bw_'
'attendance_'
'amounts_'
'50'
'10'
' :) _'
'ventilation_'
'ushered_'
'unresponsive_'
'tropical_'
'ti_'
'taps_'
'shake_'
'semi_'
'ri_'
'replenishment_'
'ratio_'
'promising_'
'pocket_'
'nightthe_'
'mo_'
'melbourne_'
'liverpool_'
'ist_'
'ir_'
'investigate_'
'icing_'
'fry_'
'fingers_'
'demonstrated_'
'conclusion_'
'classes_'
'ben_'
'audience_'
'ashley_'
'anda_'
'africa_'
'2016_'
'zoo_'
'yoghurts_'
'tiki_'
'swiss_'
'sunbed_'
'springs_'
'sporadic_'
'seldom_'
'rudest_'
'owever_'
'martin_'
'ks_'
'kidding_'
'intent_'
'holes_'
'getaway_'
'enquiry_'
'demands_'
'colour_'
'chewy_'
'camera_'
'bloody_'
'ard_'
'appreciation_'
'48_'
' … ._'
' • _'
' . '_'
'urgent_'
'upfront_'
'unimpressed_'
'uneventful_'
'slammed_'
'salsa_'
'ro_'
'restocking_'
'refreshment_'
'nearest_'
'muesli_'
'meets_'
'marie_'
'mailed_'
'leaking_'
'lame_'
'insulting_'
'inch_'
'imagination_'
'hotwire_'
'hoteland_'
'honey_'
'hamburger_'
'goodstaff_'
'ft_'
'freezer_'
'fifteen_'
'exorbitant_'
'encounters_'
'effecient_'
'crystal_'
'convinced_'
'blocking_'
'allthe_'
'allocate_'
' , ._'
' ) ..._'
'warming_'
'ves_'
'unusable_'
'unpack_'
'understated_'
'understands_'
'travelodge_'
'thrilled_'
'takeaway_'
'switching_'
'slippery_'
'router_'
'overhaul_'
'oj_'
'oeuvres_'
'ni_'
'lodging_'
'lasted_'
'infrastructure_'
'inconsiderate_'
'inability_'
'impolite_'
'humid_'
'harassed_'
'greated_'
'goodbye_'
'girlfriend_'
'generic_'
'gear_'
'garlic_'
'flexibility_'
'flew_'
'fillet_'
'earned_'
'dismal_'
'container_'
'collecting_'
'coast_'
'blast_'
'alerted_'
'8'
'120_'
'utter_'
'topping_'
'thankful_'
'stepping_'
'speciality_'
'smoothies_'
'severe_'
'richard_'
'reassuring_'
'race_'
'oasis_'
'nervous_'
'neighborhood_'
'navigate_'
'inappropriate_'
'importance_'
'heaven_'
'goodi_'
'generously_'
'francisco_'
'ery_'
'downsides_'
'debit_'
'danish_'
'compact_'
'coats_'
'chore_'
'carlson_'
'brochure_'
'allocation_'
'admittedly_'
'accompanying_'
'30'
'ze_'
'yogurts_'
'tlc_'
'switches_'
'stomach_'
'shouted_'
'shaving_'
'runny_'
'relevant_'
'mystery_'
'mode_'
'miami_'
'loving_'
'lettuce_'
'laying_'
'judge_'
'identify_'
'harbor_'
'gary_'
'fayre_'
'extremly_'
'extortionate_'
'curteous_'
'challenges_'
'bun_'
'bly_'
'biscuit_'
'bins_'
'ba_'
'andall_'
'acts_'
'accompany_'
'16th_'
' ! ! _'
'£ _'
'vacuum_'
'unsatisfactory_'
'unmanned_'
'uninspired_'
'trick_'
'serviceand_'
'rvice_'
'roomservice_'
'roombut_'
'reception'
'punch_'
'outstandingly_'
'orleans_'
'om_'
'oblivious_'
'matt_'
'jams_'
'hiccups_'
'helpfuland_'
'heathrow_'
'goodwe_'
'glasgow_'
'flavor_'
'evidently_'
'cracked_'
'complains_'
'chamber_'
'canyon_'
'canadian_'
'are'
'actions_'
'ably_'
'wipe_'
'wandered_'
'upmarket_'
'trek_'
'shrimp_'
'rowdy_'
'queens_'
'quarters_'
'prawns_'
'possibility_'
'phoning_'
'pants_'
'nz_'
'nose_'
'neighbor_'
'lifeguard_'
'keeper_'
'katie_'
'jumped_'
'indicate_'
'inches_'
'ier_'
'groomed_'
'greeter_'
'field_'
'fax_'
'drunken_'
'didn_'
'claiming_'
'captive_'
'burned_'
'bungalow_'
'awaiting_'
'andservice_'
'amanda_'
'alternate_'
'alarms_'
'affect_'
'abundance_'
'.(_'
'valuables_'
'upkeep_'
'stable_'
'searching_'
'retired_'
'reminders_'
'reminder_'
'quaint_'
'powerful_'
'poster_'
'pisco_'
'overrun_'
'ould_'
'nine_'
'neck_'
'nap_'
'lone_'
'lol_'
'jennifer_'
'increase_'
'imperial_'
'hired_'
'gent_'
'fighting_'
'fastest_'
'emma_'
'dthe_'
'divine_'
'cord_'
'contract_'
'coffe_'
'bulbs_'
'authority_'
'approaching_'
'anthony_'
'amy_'
'accustomed_'
'2011_'
'19th_'
'15'
'+_'
'zone_'
'well'
'tourism_'
'tin_'
'stuffed_'
'stream_'
'stories_'
'sought_'
'skin_'
'singles_'
'sensational_'
'relative_'
'pullman_'
'posh_'
'offensive_'
'microwaved_'
'leela_'
'jolly_'
'industrial_'
'hvac_'
'hurried_'
'horribly_'
'gbp_'
'fetch_'
'fawlty_'
'excellent'
'edges_'
'crib_'
'click_'
'christina_'
'brian_'
'battery_'
'appointments_'
'amenable_'
'african_'
'23rd_'
'17th_'
'vacant_'
'usage_'
'tremendously_'
'throwing_'
'thereand_'
'seperate_'
'screwed_'
'salon_'
'ranged_'
'queued_'
'overcome_'
'nightcap_'
'niceand_'
'mum_'
'mature_'
'mash_'
'makeup_'
'lo_'
'jumping_'
'interiors_'
'indicating_'
'inconvenienced_'
'hotter_'
'highlighted_'
'heaters_'
'greater_'
'grandeur_'
'forks_'
'featured_'
'dingy_'
'deserted_'
'concrete_'
'cellar_'
'bbc_'
'bagel_'
'awoken_'
'assure_'
'accomodations_'
'2'
'veggies_'
'ure_'
'thisthe_'
'strawberry_'
'straw_'
'steve_'
'spice_'
'refer_'
'proofing_'
'proactively_'
'pp_'
'packs_'
'obtained_'
'noting_'
'nonsense_'
'mom_'
'lime_'
'leather_'
'lacklustre_'
'insulation_'
'honour_'
'glitches_'
'fountain_'
'dump_'
'cy_'
'climb_'
'boiler_'
'angel_'
' . . ._'
'unload_'
'unconcerned_'
'tly_'
'telephoned_'
'slides_'
'puzzled_'
'profit_'
'processing_'
'pin_'
'personel_'
'opt_'
'onwards_'
'occur_'
'kicked_'
'jammed_'
'hiccup_'
'fatty_'
'father_'
'employ_'
'document_'
'delta_'
'boiling_'
'batteries_'
'ah_'
'accidentally_'
' ’ ._'
'users_'
'unorganized_'
'underwhelmed_'
'tes_'
'ter_'
'syrup_'
'sunshine_'
'spelling_'
'smelly_'
'ruth_'
'rome_'
'relocated_'
'refined_'
'problematic_'
'planet_'
'obsequious_'
'noodle_'
'morning'
'luis_'
'inquiries_'
'ily_'
'hiring_'
'goodies_'
'foremost_'
'expansive_'
'dozens_'
'dour_'
'displeasure_'
'counts_'
'congenial_'
'beg_'
'auto_'
'anyhow_'
'allowance_'
' ) & _'
' !'
'yoga_'
'warmest_'
'socks_'
'soaked_'
'skill_'
'ses_'
'rugby_'
'research_'
'questionable_'
'provision_'
'plugged_'
'pianist_'
'opener_'
'olives_'
'okay'
'mario_'
'jonathan_'
'handles_'
'handful_'
'fortune_'
'expert_'
'dislike_'
'data_'
'comparing_'
'chased_'
'chambermaid_'
'california_'
'brother_'
'boards_'
'believed_'
'balls_'
' - " _'
'yed_'
'woefully_'
'whirlpool_'
'wheel_'
'weekday_'
'verify_'
'varies_'
'unfair_'
'tthe_'
'troubles_'
'ties_'
'tear_'
'talkative_'
'swap_'
'sudden_'
'steal_'
'sport_'
'snobby_'
'sinks_'
'sake_'
'remark_'
'remainder_'
'ped_'
'ou_'
'nts_'
'myanmar_'
'misses_'
'million_'
'leader_'
'iti_'
'honours_'
'ho_'
'hike_'
'happier_'
'foul_'
'feelings_'
'excelled_'
'download_'
'dime_'
'differently_'
'cuban_'
'consierge_'
'conscious_'
'chilli_'
'cabana_'
'bs_'
'airconditioning_'
'?_'
'36_'
'25th_'
' , “ _'
'worthwhile_'
'vote_'
'unimpressive_'
'sticks_'
'staffers_'
'springhill_'
'speeds_'
'soups_'
'scrum_'
'ryan_'
'rolling_'
'quarter_'
'panel_'
'native_'
'musty_'
'methe_'
'magical_'
'houses_'
'hoteli_'
'grown_'
'franchise_'
'flip_'
'equal_'
'employed_'
'eateries_'
'damaged_'
'courtyards_'
'confortable_'
'belief_'
'battle_'
'badge_'
'applies_'
'antonio_'
'ali_'
'ales_'
'accomadating_'
'1'
' , - _'
'whisky_'
'wa_'
'truck_'
'token_'
'tie_'
'supplying_'
'screw_'
'rom_'
'rib_'
'revenue_'
'pleasant'
'pat_'
'operators_'
'observation_'
'nowadays_'
'lodges_'
'largest_'
'instances_'
'inept_'
'ina_'
'fs_'
'follows_'
'ette_'
'disconnected_'
'creamer_'
'containing_'
'capital_'
'burning_'
'breaking_'
'avoiding_'
'animal_'
'andrea_'
'abruptly_'
'05_'
' .+ _'
'yelled_'
'suggests_'
'stephanie_'
'stark_'
'staffand_'
'pa_'
'mandatory_'
'legs_'
'joking_'
'here'
'guinness_'
'fulfill_'
'frame_'
'ford_'
'extending_'
'execution_'
'excel_'
'dvd_'
'deteriorated_'
'desk'
'consumed_'
'complimented_'
'comforting_'
'color_'
'christian_'
'cheesecake_'
'careless_'
'busiest_'
'barking_'
'assuming_'
'39_'
'15pm_'
' , '
' " !_'
' ! - _'
'zing_'
'za_'
'wander_'
'venture_'
'vehicles_'
'unappetising_'
'tart_'
'stretch_'
'streets_'
'staffwe_'
'scary_'
'safely_'
'risotto_'
'repeating_'
'relationship_'
'predictable_'
'pool'
'pipes_'
'paradise_'
'outlook_'
'niggle_'
'materials_'
'karen_'
'harsh_'
'gos_'
'flaws_'
'fallen_'
'excellently_'
'entree_'
'depart_'
'deducted_'
'companion_'
'coffee'
'cider_'
'cabins_'
'bench_'
'awards_'
'andit_'
'actively_'
'45am_'
' ( ? ) _'
'ue_'
'time'
'tied_'
'sy_'
'swamped_'
'supervised_'
'scarce_'
'restored_'
'pump_'
'partake_'
'ow_'
'noticeably_'
'napkin_'
'mill_'
'meticulous_'
'linked_'
'lager_'
'kings_'
'juan_'
'independent_'
'immensely_'
'hostile_'
'hiking_'
'henry_'
'helpfuli_'
'hardest_'
'grass_'
'germany_'
'flavours_'
'film_'
'feb_'
'excelent_'
'ence_'
'efficient'
'edinburgh_'
'eater_'
'dodgy_'
'crying_'
'crack_'
'clever_'
'circle_'
'ber'
'barcelona_'
'awakened_'
'atm_'
'aqua_'
'againthe_'
'3'
'2018_'
'weekdays_'
'washington_'
'unsmiling_'
'tirelessly_'
'tim_'
'stranded_'
'sommelier_'
'snotty_'
'rented_'
'rd_'
'rained_'
'quote_'
'purposes_'
'punctual_'
'positioned_'
'pods_'
'plant_'
'piled_'
'physically_'
'petty_'
'perform_'
'painted_'
'okbut_'
'ments_'
'meantime_'
'leak_'
'instruction_'
'handicap_'
'guessing_'
'floating_'
'em_'
'dissatisfaction_'
'directory_'
'delegates_'
'dedication_'
'death_'
'courts_'
'costly_'
'canceled_'
'bfast_'
'ary_'
'appetizing_'
'appearing_'
'agreeable_'
' ? ? ? ?_'
' .-- _'
' !- _'
'ul_'
'thier_'
'stores_'
'sprayed_'
'speaker_'
'soooo_'
'sells_'
'scallops_'
'roaring_'
'responsiveness_'
'resolution_'
'ramada_'
'qualified_'
'purely_'
'notices_'
'mon_'
'ly'
'lies_'
'judging_'
'honoured_'
'finishes_'
'dusty_'
'draught_'
'discussions_'
'designer_'
'decidedly_'
'deaf_'
'contents_'
'butwe_'
'breathtaking_'
'annex_'
'40'
'31_'
'“ _'
'upsell_'
'tariff_'
'tacky_'
'swing_'
'staring_'
'spilled_'
'shoddy_'
'shed_'
'separated_'
'seasonal_'
'sean_'
'overdone_'
'ordeal_'
'nicole_'
'negotiate_'
'nationalities_'
'military_'
'loves_'
'lle_'
'knives_'
'iness_'
'impecable_'
'hostel_'
'hated_'
'google_'
'fireworks_'
'festive_'
'empathy_'
'ears_'
'drury_'
'drawing_'
'dispensers_'
'des_'
'decently_'
'day'
'cherry_'
'chargeable_'
'breakfastand_'
'berries_'
'beaches_'
'barand_'
'banter_'
'attire_'
'ating_'
'arabic_'
'accounts_'
'accepting_'
' “_'
'wore_'
'waved_'
'upsetting_'
'unpacking_'
'treadmill_'
'tic_'
'sufficiently_'
'speedily_'
'simon_'
'rounds_'
'rides_'
'retreat_'
'reminds_'
'reminding_'
'regulars_'
'outthe_'
'outdoors_'
'ought_'
'omlette_'
'northern_'
'noone_'
'neighbour_'
'mug_'
'mod_'
'marmalade_'
'limousine_'
'li_'
'jamie_'
'infact_'
'incorrectly_'
'inand_'
'identified_'
'hostesses_'
'grabbing_'
'experiencing_'
'edthe_'
'dripping_'
'downgrade_'
'diving_'
'distinctly_'
'daythe_'
'dan_'
'coverage_'
'cardboard_'
'boots_'
'best'
'baths_'
'baht_'
'attraction_'
'arrogance_'
'annual_'
'andbreakfast_'
'4'
'24th_'
' " ) _'
'wiped_'
'vegan_'
'unprepared_'
'triple_'
'treating_'
'trainer_'
'themthe_'
'sunrise_'
'showered_'
'shambolic_'
'scruffy_'
'rt_'
'region_'
'quibble_'
'pod_'
'pit_'
'organizing_'
'operational_'
'nachos_'
'motorway_'
'masses_'
'mac_'
'linda_'
'lent_'
'leaf_'
'laptops_'
'irritation_'
'intelligent_'
'hotel'
'hook_'
'haddock_'
'groupon_'
'greens_'
'friendly'
'excellentthe_'
'environmental_'
'empowered_'
'emphasis_'
'drying_'
'driveway_'
'depend_'
'days'
'cotton_'
'coin_'
'blood_'
'au_'
'accessed_'
'0'
'wrap_'
'were'
'victor_'
'usb_'
'unnecessarily_'
'unlocked_'
'tablet_'
'suffice_'
'staffbut_'
'some'
'presidential_'
'pi_'
'partying_'
'overhead_'
'outright_'
'otel_'
'ore_'
'op_'
'ng'
'measures_'
'ke_'
'jo_'
'ible_'
'hockey_'
'gloomy_'
'feeding_'
'facelift_'
'emily_'
'eats_'
'ea_'
'disposable_'
'deskthe_'
'dare_'
'customary_'
'curtious_'
'craft_'
'concentrate_'
'cally_'
'briefly_'
'andand_'
'and'
'alike_'
'6'
'42_'
'30th_'
'yorkshire_'
'variation_'
'va_'
'unbearable_'
'ul'
'ty'
'tricky_'
'tooth_'
'thanksgiving_'
'tending_'
'tape_'
'sti'
'ski_'
'shy_'
'scent_'
'restful_'
'reads_'
'powder_'
'permission_'
'overflowing_'
'overcharge_'
'oranges_'
'omlettes_'
'nite_'
'jasmine_'
'insistent_'
'innovative_'
'inflexible_'
'heavenly_'
'hearted_'
'gross_'
'fro_'
'folded_'
'fine'
'fewer_'
'evening'
'dumped_'
'drilling_'
'dly_'
'dismissed_'
'cushions_'
'cranky_'
'clinical_'
'brilliantly_'
'asst_'
'army_'
'apathetic_'
'anyways_'
'aman_'
'33_'
'whiskey_'
'ven_'
'valid_'
'urgency_'
'unlikely_'
'university_'
'unimaginative_'
'tournament_'
'touch'
'torn_'
'tee_'
'sublime_'
'spices_'
'sodas_'
'soccer_'
'shampoos_'
'poisoning_'
'patronising_'
'pages_'
'orchid_'
'material_'
'margarita_'
'mango_'
'lockers_'
'interacting_'
'intention_'
'hurricane_'
'heritage_'
'gs_'
'growing_'
'gripes_'
'freshener_'
'frazzled_'
'filter_'
'festival_'
'faucet_'
'faded_'
'extensively_'
'etc'
'equivalent_'
'enhance_'
'engagement_'
'encouraging_'
'devoid_'
'corn_'
'conscientious_'
'cancun_'
'cal_'
'blond_'
'batter_'
'barthe_'
'balanced_'
'andno_'
'again'
'adam_'
'9'
'12'
' .$ _'
' ( " _'
'x'
'work'
'ware_'
'unwind_'
'unknown_'
'unexpectedly_'
'understandably_'
'unapologetic_'
'toddler_'
'thoughts_'
'stare_'
'solutions_'
'shades_'
'sbut_'
'remotely_'
'react_'
'questioning_'
'pretend_'
'precise_'
'potentially_'
'payed_'
'night'
'neighbouring_'
'meter_'
'manhattan_'
'managment_'
'license_'
'lesser_'
'kitchens_'
'isolated_'
'ideally_'
'holds_'
'grubby_'
'grapefruit_'
'ght_'
'fitting_'
'expenses_'
'exchanged_'
'efficientthe_'
'drops_'
'drink'
'dis'
'der_'
'creates_'
'closely_'
'chasing_'
'ces_'
'certificate_'
'buzz_'
'butstaff_'
'bones_'
'artificial_'
'arrival'
'adaptor_'
'accused_'
'15am_'
' &_'
' " ... _'
'” _'
'wyndham_'
'ws_'
'willingly_'
'wild_'
'waterfront_'
'wait'
'wa'
'unpretentious_'
'unappealing_'
'trolleys_'
'there'
'skimpy_'
'sensible_'
'selecting_'
'restock_'
'rescue_'
'rarity_'
'presume_'
'pound_'
'operates_'
'one'
'offset_'
'occupants_'
'ner_'
'morningand_'
'maze_'
'matches_'
'loading_'
'lengths_'
'lane_'
'korean_'
'ju'
'jeff_'
'jeans_'
'hiding_'
'glazing_'
'glance_'
'florida_'
'fear_'
'f'
'detract_'
'demeanour_'
'dawn_'
'cucumber_'
'crumbs_'
'contributed_'
'continuing_'
'conducted_'
'carrots_'
'care'
'barmen_'
'bad'
'av_'
'announced_'
'am'
'5star_'
' ” , _'
'veranda_'
'tte_'
'sixth_'
'shoulder_'
'sherry_'
'settling_'
'seaview_'
'searched_'
'sarcastic_'
'roomstaff_'
'refurbishing_'
'ray_'
'rank_'
'q'
'puddings_'
'permanent_'
'ont_'
'mis_'
'mirrors_'
'itinerary_'
'install_'
'indigo_'
'incompetence_'
'iest_'
'iceland_'
'hotels'
'flooded_'
'fd_'
'fair'
'ered_'
'drinkable_'
'drawn_'
'district_'
'disgraceful_'
'damn_'
'curious_'
'cultural_'
'congratulated_'
'casually_'
'buffet'
'bilingual_'
'bed'
'barmaid_'
'anti_'
'angela_'
'adventure_'
'adamant_'
'achieved_'
':- _'
' .” _'
' ... ) _'
' .& _'
' ( '
' ' ( _'
' % ._'
' ! ! )_'
'xcellent_'
'windy_'
'vely_'
'varying_'
'vanity_'
'united_'
'tune_'
'stared_'
'servicebut_'
'serviceable_'
'script_'
'scalding_'
'roles_'
'res_'
'refusing_'
'recorded_'
'quit_'
'pm'
'permanently_'
'outset_'
'organize_'
'munich_'
'mouse_'
'mosquito_'
'moderate_'
'milling_'
'mildly_'
'manually_'
'kim_'
'joining_'
'influx_'
'inexcusable_'
'har'
'grocery_'
'forgetful_'
'floor'
'fills_'
'eception_'
'drama_'
'dock_'
'colours_'
'cigar_'
'chit_'
'charles_'
'buck_'
'brick_'
'boil_'
'arose_'
'allergic_'
'afternoons_'
'07_'
' ! ! ) ._'
'you'
'wrongly_'
'wrist_'
'worries_'
'wever_'
'waterpark_'
'us'
'undoubtedly_'
'understatement_'
'ugh_'
'trousers_'
'touching_'
'tile_'
'teabags_'
'sucks_'
'shifts_'
'sha_'
'scone_'
'retrieved_'
'readers_'
'prompting_'
'prompted_'
'preoccupied_'
'poorest_'
'pierre_'
'packaged_'
'operative_'
'noteworthy_'
'nor'
'mosquitoes_'
'mojito_'
'moderately_'
'misplaced_'
'lean_'
'laughable_'
'ked_'
'jorge_'
'identical_'
'hing_'
'herethe_'
'haired_'
'guiding_'
'gordon_'
'gather_'
'fiasco_'
'explains_'
'excess_'
'earn_'
'drab_'
'disruption_'
'defensive_'
'dec_'
'consuming_'
'climate_'
'chipped_'
'booth_'
'belong_'
'awarded_'
'andbut_'
'amazing'
'accomodated_'
'aback_'
'5'
'38_'
'180_'
'13th_'
' ? ) , _'
'ya'
'wasting_'
'warm'
'vanessa_'
'usable_'
'ultimate_'
'trend_'
'tor'
'top'
'timings_'
'ticked_'
'thankyou_'
'surname_'
'superlative_'
'substitute_'
'slightest_'
'silent_'
'seattle_'
'sara_'
'roberto_'
'revolving_'
'remarks_'
'refundable_'
'rasa_'
'project_'
'porch_'
'players_'
'peru_'
'oscar_'
'opulent_'
'nope_'
'neighboring_'
'movement_'
'manila_'
'lounger_'
'leisurely_'
'lasting_'
'landing_'
'lag_'
'interestingly_'
'inspection_'
'ineffective_'
'incl_'
'inc_'
'hote_'
'hairs_'
'forgive_'
'explanations_'
'dumb_'
'dryers_'
'dragged_'
'dept_'
'daylight_'
'culinary_'
'crappy_'
'coordination_'
'condo_'
'chlorine_'
'ceremony_'
'cafes_'
'businesslike_'
'belly_'
'babies_'
'als_'
'aloft_'
'ahmed_'
'aging_'
'- '
') ._'
'welcome'
'voices_'
'ving_'
'ville_'
'viewing_'
'vienna_'
'versed_'
'vague_'
'tuk_'
'tui_'
'tribute_'
'tradition_'
'taught_'
'table'
'sympathy_'
'sweat_'
'suffering_'
'student_'
'stockholm_'
'ser'
'scramble_'
'scam_'
'sandra_'
'rustic_'
'rocks_'
'roaming_'
'rigid_'
'represented_'
'renovate_'
'rejected_'
'rebecca_'
'reader_'
'railway_'
'professional'
'pristine_'
'plated_'
'peeling_'
'pate_'
'mountains_'
'misunderstanding_'
'minds_'
'meand_'
'lounging_'
'lend_'
'lee_'
'joint_'
'interrupting_'
'horrid_'
'hills_'
'harry_'
'guessed_'
'grudgingly_'
'great'
'global_'
'freely_'
'fold_'
'fired_'
'existing_'
'excels_'
'enjoys_'
'educated_'
'dissapointing_'
'disjointed_'
'disgusted_'
'curtly_'
'couches_'
'codes_'
'cheeky_'
'brisk_'
'boyfriend_'
'blanc_'
'behave_'
'be'
'ann_'
'85_'
'49_'
'11'
' ), _'
'yards_'
'war_'
'vent_'
'tacos_'
'suitably_'
'slow'
'servings_'
'securing_'
'scattered_'
'rewarded_'
'resources_'
'recover_'
'r'
'pubs_'
'presentations_'
'plants_'
'optional_'
'opera_'
'olive_'
'occupant_'
'noticing_'
'ni'
'moon_'
'mohammed_'
'moan_'
'locating_'
'leftovers_'
'kill_'
'ki_'
'itbut_'
'inspect_'
'inferior_'
'indoors_'
'imposing_'
'ility_'
'golfers_'
'glory_'
'fusion_'
'foreigners_'
'excursion_'
'embarrassment_'
'elizabeth_'
'echo_'
'dramatically_'
'detergent_'
'deficiencies_'
'dan'
'crammed_'
'costing_'
'correspondence_'
'congratulate_'
'combine_'
'cloudy_'
'busy'
'blackout_'
'back'
'assuring_'
'assign_'
'ande'
'ana'
'7'
'42'
'06_'
' . '
' ) : _'
'yu'
'william_'
'vice_'
'uniformed_'
'toys_'
'toronto_'
'timethe_'
'slots_'
'shines_'
'sha'
'sevice_'
'serviceminded_'
'servicei_'
'savoury_'
'roomso_'
'riendly_'
'restroom_'
'resteraunt_'
'programmed_'
'practices_'
'pleasantthe_'
'patricia_'
'oily_'
'natalie_'
'meters_'
'manuel_'
'manual_'
'manicured_'
'louder_'
'logged_'
'layover_'
'lalit_'
'lads_'
'jugs_'
'ious_'
'inspite_'
'incoming_'
'immigration_'
'ied_'
'hopes_'
'helpfulstaff_'
'hd_'
'hazard_'
'hassled_'
'hare_'
'grossly_'
'free'
'formed_'
'fits_'
'farce_'
'fantastically_'
'ethe_'
'established_'
'electronics_'
'disrespectful_'
'disgruntled_'
'del_'
'cooled_'
'clockwork_'
'cc_'
'butlins_'
'bristol_'
'ave_'
'ast_'
'ancient_'
'all'
'administration_'
'30mins_'
'*. _'
' " '
'wowed_'
'winner_'
'wallpaper_'
'verified_'
'verandah_'
'too'
'this'
'them'
'thanking_'
'suffers_'
'staff'
'sleek_'
'slack_'
'silence_'
'show'
'shell_'
'sections_'
'sauces_'
'samantha_'
'records_'
'qualify_'
'portuguese_'
'plo'
'pies_'
'overview_'
'onward_'
'nut_'
'namely_'
'morningthe_'
'monitor_'
'miguel_'
'logging_'
'leaked_'
'ji'
'ite_'
'hefty_'
'grease_'
'full'
'fridges_'
'firmly_'
'existence_'
'europeans_'
'egypt_'
'downgraded_'
'dependable_'
'denver_'
'copenhagen_'
'conduct_'
'complement_'
'colors_'
'clumsy_'
'clubs_'
'clo'
'class'
'cigarettes_'
'cheer_'
'busier_'
'burn_'
'brighter_'
'astoria_'
'assets_'
'appalled_'
'annoyingly_'
'anne_'
'andaz_'
'amends_'
'agreement_'
'afforded_'
'accomplished_'
' ? " _'
'woeful_'
'wellthe_'
'versus_'
'values_'
'uncleared_'
'tram_'
'tiring_'
'thirsty_'
'team'
'sunglasses_'
'sue_'
'stain_'
'sounding_'
'sore_'
'soak_'
'sincerity_'
'serena_'
'rydges_'
'room'
'reversed_'
'represent_'
'quick'
'qualities_'
'proffesional_'
'primary_'
'percent_'
'partners_'
'my'
'mission_'
'midweek_'
'louise_'
'lid_'
'kippers_'
'kind'
'julie_'
'julia_'
'jar_'
'ja_'
'ise_'
'interconnecting_'
'incidents_'
'iffy_'
'historical_'
'heather_'
'haven_'
'hammering_'
'guests'
'grim_'
'greedy_'
'greatand_'
'grasp_'
'floorthe_'
'fedex_'
'expresso_'
'essentials_'
'endure_'
'discretion_'
'deserving_'
'deputy_'
'decisions_'
'creek_'
'conventions_'
'continuous_'
'brussels_'
'brits_'
'booze_'
'birmingham_'
'beaten_'
'bath'
'backs_'
'atlanta_'
'aloha_'
'alan_'
'ada'
'08_'
' @_'
' ?" _'
' : ( _'
' ( ! ) _'
'é_'
'warsaw_'
'waive_'
'virgin_'
'usand_'
'ts'
'tolerable_'
'tested_'
'teenage_'
'tatty_'
'tar'
'tank_'
'tags_'
'swedish_'
'successfully_'
'splash_'
'shaped_'
'scott_'
'scenery_'
'sat'
'sampled_'
'rung_'
'resturants_'
'quality'
'pro'
'posts_'
'permitted_'
'nicei_'
'micro_'
'metres_'
'matching_'
'marathon_'
'm'
'lthough_'
'lovely'
'locks_'
'learnt_'
'league_'
'keepers_'
'jenny_'
'ir'
'introduce_'
'ino'
'inconveniences_'
'inaccurate_'
'hovering_'
'hardware_'
'hannah_'
'grand'
'friendy_'
'flushing_'
'farewell_'
'ethos_'
'etcthe_'
'estate_'
'epitome_'
'enough'
'disappointments_'
'dis_'
'dest_'
'da'
'club'
'caroline_'
'candles_'
'breakfasti_'
'breakfastbut_'
'behold_'
'basketball_'
'ations_'
'andy_'
'amused_'
'amiss_'
'alway_'
'25'
'21'
'20'
'09_'
' ! ?_'
'youthe_'
'yo_'
'yn_'
'west'
'wakeup_'
'vo'
'strive_'
'strictly_'
'someplace_'
'sociable_'
'shutting_'
'service'
'sandy_'
'ruby_'
'ront_'
'revamp_'
'resting_'
'responds_'
'proceed_'
'prison_'
'place'
'passionate_'
'outrageously_'
'orderly_'
'of'
'occassions_'
'nightand_'
'metropole_'
'member'
'lounge'
'lawn_'
'lagged_'
'interactive_'
'helpfulbut_'
'help'
'headache_'
'hawaii_'
'folder_'
'flair_'
'filipino_'
'english'
'else'
'disneyland_'
'del'
'cumbersome_'
'crossed_'
'counted_'
'closest_'
'chi_'
'brazilian_'
'bravo_'
'blaring_'
'bingo_'
'belt_'
'alongside_'
'adrian_'
'additions_'
'10mins_'
' ~ _'
'youth_'
'watering_'
'washcloths_'
'view'
'urban_'
'union_'
'tive_'
'tidying_'
'themand_'
'talks_'
'swissotel_'
'sums_'
'straightened_'
'stocking_'
'stephen_'
'star'
'stag_'
'staffs'
'sourced_'
'soaking_'
'shave_'
'scenes_'
'saves_'
'ria_'
'restrictions_'
'represents_'
'rc_'
'ranch_'
'raffles_'
'pre'
'persistent_'
'peanuts_'
'ok'
'occurrence_'
'mistaken_'
'mar_'
'long'
'login_'
'limp_'
'job'
'invite_'
'intercon_'
'inclined_'
'incapable_'
'humorous_'
'housecleaning_'
'hitch_'
'helen_'
'he'
'gruff_'
'grosvenor_'
'fort_'
'facts_'
'een_'
'earl_'
'drinkers_'
'doubled_'
'done'
'diego_'
'dad_'
'coughing_'
'carrot_'
'broadband_'
'broad_'
'brewed_'
'begins_'
'banged_'
'aroma_'
'andvery_'
'akin_'
'activated_'
'accounting_'
'101_'
'websites_'
'verall_'
'ver'
'urgently_'
'unclear_'
'twins_'
'sweeping_'
'subtle_'
'staffvery_'
'smile'
'seminar_'
'scotch_'
'rooms'
'reunion_'
'representatives_'
'referring_'
'receptionthe_'
'receipts_'
'realy_'
'razor_'
'ramp_'
'qui'
'princess_'
'pointless_'
'penalty_'
'peeve_'
'overpowering_'
'outage_'
'notwithstanding_'
'moroccan_'
'milan_'
'mi'
'mezzanine_'
'melted_'
'mats_'
'masseuse_'
'mashed_'
'manager'
'loan_'
'lion_'
'limits_'
'letdown_'
'ler_'
'laps_'
'jane_'
'ivan_'
'istanbul_'
'io_'
'intuitive_'
'ial_'
'hut_'
'hotelbut_'
'horrified_'
'holders_'
'helpfulwe_'
'grant_'
'ear'
'drives_'
'dragging_'
'door'
'differences_'
'curb_'
'cs_'
'corteous_'
'copies_'
'comforts_'
'cent_'
'cats_'
'butno_'
'bury_'
'bro'
'bon'
'bob_'
'blunt_'
'bell'
'bedded_'
'amateur_'
'28th_'
'. '
'!._'
' : '
' - $ _'
'zealand_'
'yes'
'winning_'
'wholesome_'
'watermelon_'
'wan_'
'up'
'unloaded_'
'tucked_'
'tidied_'
'thousands_'
'swe_'
'surpassed_'
'stunned_'
'sto'
'stir_'
'stern_'
'ster_'
'sits_'
'sessions_'
'rs'
'roughly_'
'retrieving_'
'reactive_'
'reacted_'
'pun'
'programs_'
'posting_'
'plumber_'
'pipe_'
'peoples_'
'path_'
'pacific_'
'outcome_'
'os'
'organic_'
'opportunities_'
'oe'
'motels_'
'mistakenly_'
'ming_'
'mei_'
'meh_'
'mate_'
'letters_'
'ld_'
'labelled_'
'kate_'
'josh_'
'jim_'
'jerk_'
'irons_'
'ire_'
'internet'
'inquiring_'
'incidentally_'
'idiot_'
'hotelstaff_'
'hard'
'hanoi_'
'gowns_'
'goodwill_'
'gh_'
'finds_'
'factors_'
'facade_'
'existed_'
'exceeds_'
'eveningthe_'
'drew_'
'dishonest_'
'delightfully_'
'deeply_'
'dairy_'
'coping_'
'coloured_'
'cnn_'
'clogged_'
'claustrophobic_'
'cha'
'ch'
'britannia_'
'breaker_'
'basil_'
'ash_'
'airways_'
'abu_'
'abandoned_'
'44_'
'24hr_'
'18'
' .. '
' ) '
' ' '
' ! ! ! _'
'youngsters_'
'yo'
'vacated_'
'unsupervised_'
'um'
'toiletry_'
'times'
'tele'
'te'
'swearing_'
'supervisors_'
'super'
'stic_'
'steady_'
'sso_'
'shallow_'
'sees_'
'scared_'
'routinely_'
'rendered_'
'process'
'pr_'
'pissed_'
'pics_'
'picnic_'
'pedicure_'
'peas_'
'overwhelmingly_'
'overall'
'nu'
'nonchalant_'
'natured_'
'nan'
'mounted_'
'minimalist_'
'lima_'
'like'
'jumeirah_'
'joseph_'
'jimmy_'
'jfk_'
'jackie_'
'islands_'
'ip'
'intend_'
'il'
'iendly_'
'hed_'
'halfway_'
'forgettable_'
'finethe_'
'finesse_'
'financial_'
'eaters_'
'dun'
'disappoints_'
'developed_'
'depth_'
'dave_'
'completing_'
'commercial_'
'cloud_'
'cheek_'
'charity_'
'characters_'
'carpeting_'
'brushed_'
'blend_'
'better'
'bass_'
'baseball_'
'authorization_'
'ati'
'700_'
'23'
'--- _'
' ' ' _'
' "_'
'with'
've'
'unlock_'
'unloading_'
'under'
'thisand_'
'theft_'
'texas_'
'temporarily_'
'sucked_'
'stroll_'
'spell_'
'spartan_'
'sor'
'sons_'
'shower'
'she'
'shame'
'say'
'sand'
'ron_'
'rightly_'
'ries_'
'relieved_'
'recycling_'
'phuket_'
'per'
'pablo_'
'overlooks_'
'outand_'
'ott_'
'object_'
'nye_'
'nt'
'nail_'
'much'
'motor_'
'mit'
'mere_'
'melt_'
'matthew_'
'lumpy_'
'longest_'
'lin'
'lauren_'
'kl_'
'jordan_'
'j'
'hu'
'horizon_'
'hilarious_'
'head'
'habit_'
'grub_'
'greatbut_'
'grande_'
'good'
'go'
'gloves_'
'fooled_'
'fool_'
'folio_'
'expensive'
'exited_'
'entertain_'
'enquiring_'
'disconcerting_'
'disappointingly_'
'courtious_'
'con'
'claudia_'
'clarify_'
'ception_'
'cabinet_'
'bus'
'bo'
'ben'
'begrudgingly_'
'banyan_'
'aud_'
'arise_'
'appetite_'
'andthis_'
'ammenities_'
'also'
'alley_'
'ain_'
'admin_'
'[ _'
'34_'
'2010_'
' ~_'
' ' !_'
'yr_'
'voicemail_'
'vicinity_'
'utilized_'
'unwell_'
'unbeatable_'
'travel'
'topper_'
'tick_'
'then'
'tavern_'
'supporting_'
'sundays_'
'starving_'
'stall_'
'staffwere_'
'sla'
'scores_'
'sant'
'rotten_'
'ribs_'
'raising_'
'radiators_'
'purchasing_'
'promoted_'
'prevented_'
'presenting_'
'plesant_'
'personalities_'
'pe_'
'pampering_'
'pains_'
'overloaded_'
'ou'
'ore'
'nonexistent_'
'ms'
'mould_'
'monaco_'
'mixing_'
'mi_'
'mentions_'
'melissa_'
'magically_'
'los_'
'lla_'
'knee_'
'keyboard_'
'ken_'
'kelly_'
'justice_'
'jackson_'
'isthe_'
'ironically_'
'inquiry_'
'ine'
'indicates_'
'ie'
'horror_'
'horrific_'
'happiness_'
'ging_'
'fuzzy_'
'fore'
'food'
'faith_'
'facebook_'
'expression_'
'experience'
'escapes_'
'er'
'equiped_'
'economy_'
'dosa_'
'disturbance_'
'dissatisfied_'
'deciding_'
'dd'
'danielle_'
'creepy_'
'coordinator_'
'cool'
'converse_'
'constructive_'
'competence_'
'col'
'closure_'
'citizens_'
'ched_'
'chalet_'
'by'
'beachfront_'
'barbecue_'
'away'
'awaited_'
'avenue_'
'attractively_'
'andreas_'
'alo'
'allotted_'
'adorable_'
'ad'
'31st_'
'130_'
'110_'
'00'
' ? " ._'
' ?'
' ./ _'
' ... )_'
' - £ _'
'yeah_'
'world'
'wit_'
'wifi'
'welcoming'
'water'
'verbal_'
'vat_'
'vacuuming_'
'tow_'
'toffee_'
'stew_'
'steel_'
'stack_'
'ss'
'son'
'software_'
'snobbish_'
'sluggish_'
'services'
'sealed_'
'rmb_'
'restaurantthe_'
'remarked_'
'redeemed_'
'pleasantries_'
'planes_'
'performing_'
'pattern_'
'patron_'
'painting_'
'opinions_'
'off'
'nights'
'nh_'
'mustard_'
'misfortune_'
'minutes'
'ment'
'massively_'
'lucy_'
'lifted_'
'li'
'lar'
'lackadaisical_'
'key'
'justin_'
'jamaica_'
'ized_'
'is'
'inspired_'
'house'
'gestures_'
'freeway_'
'flavoured_'
'flash_'
'filet_'
'exists_'
'ering_'
'elegantly_'
'ele'
'eggs'
'earliest_'
'downer_'
'disliked_'
'disappearing_'
'decades_'
'dbb_'
'customs_'
'credits_'
'conducive_'
'colin_'
'citizen_'
'chowder_'
'charlotte_'
'ced_'
'categories_'
'cabanas_'
'bloke_'
'bathing_'
'barista_'
'bamboo_'
'awoke_'
'average'
'assorted_'
'around'
'ano'
'angle_'
'andthere_'
'anda'
'ambassadors_'
'amateurish_'
'abi'
'41'
'24hrs_'
'22nd_'
'2000_'
'.'
' .• _'
' - '
' ) ... _'
' )'
'• _'
'£_'
'workand_'
'whipped_'
'weekly_'
'week'
'very'
'underway_'
'uncertain_'
'typing_'
'trail_'
'threatened_'
'things'
'that'
'th'
'tempted_'
'song_'
'sea'
'sch'
'scan_'
'satellite_'
'routes_'
'rob_'
'revisit_'
'restraunt_'
'reminiscent_'
'realizing_'
'ranking_'
'quest_'
'purple_'
'precious_'
'plunger_'
'oz_'
'oversized_'
'officially_'
'nit_'
'nathan_'
'motivation_'
'money'
'modernised_'
'meal'
'lowered_'
'listing_'
'legendary_'
'lan_'
'label_'
'know'
'kids'
'kempinski_'
'jovial_'
'jay_'
'jackets_'
'ised_'
'interstate_'
'inter'
'ing'
'influence_'
'inconsistency_'
'imaginable_'
'ia'
'hype_'
'humidity_'
'grille_'
'goers_'
'ged_'
'gar'
'fri_'
'flavored_'
'feast_'
'expired_'
'existant_'
'etiquette_'
'enforced_'
'emirates_'
'emailing_'
'dresser_'
'donuts_'
'dhabi_'
'describing_'
'decorating_'
'cuisines_'
'crash_'
'cove_'
'conversion_'
'cluttered_'
'cleans_'
'car'
'buckets_'
'auckland_'
'ater_'
'astonished_'
'ant'
'ani'
'ama'
'agoda_'
'absurd_'
'350_'
'32'
'1970_'
'1500_'
'----_'
' , ... _'
'zi'
'workmen_'
'wine'
'wendy_'
'vigilant_'
'vacations_'
'v'
'utilize_'
'universal_'
'truely_'
'tri'
'toes_'
'temple_'
'storey_'
'steven_'
'start'
'specified_'
'smoker_'
'shu'
'see'
'secrets_'
'robots_'
'rick_'
'retraining_'
'reheated_'
'profesional_'
'privately_'
'pra'
'podium_'
'play'
'plat_'
'payments_'
'pay'
'panic_'
'oxford_'
'overflow_'
'outsourced_'
'oth_'
'ord_'
'openly_'
'ons'
'okaybut_'
'nicewe_'
'moody_'
'monitoring_'
'miraculously_'
'midst_'
'mer'
'medication_'
'meagre_'
'mari'
'mal_'
'lip_'
'lately_'
'khun_'
'insects_'
'indonesian_'
'incomplete_'
'hitting_'
'high'
'goods'
'gly_'
'flashing_'
'fantastic'
'expanded_'
'essence_'
'ere'
'engine_'
'ect_'
'dreary_'
'definition_'
'dand_'
'cricket_'
'consists_'
'complacent_'
'comfortable'
'clotted_'
'climbing_'
'circus_'
'causes_'
'bustling_'
'bulk_'
'brochures_'
'bride_'
'breakfastwe_'
'boxed_'
'bone_'
'boasts_'
'blaming_'
'bit'
'bee'
'avocado_'
'authorisation_'
'attentive'
'asparagus_'
'arrived'
'area'
'ane'
'aircraft_'
'advertises_'
'advanced_'
'adjusting_'
'68_'
'51'
'26th_'
'2009_'
'zi_'
'yand_'
'xanterra_'
'visibly_'
'ventured_'
'ved_'
'usbut_'
'unused_'
'unfamiliar_'
'une'
'uncommon_'
'unattractive_'
'unappetizing_'
'travelzoo_'
'translation_'
'tea'
'swiped_'
'susan_'
'superb'
'substance_'
'standoffish_'
'st'
'spouse_'
'sooner_'
'songs_'
'smily_'
'sleepless_'
'skyline_'
'shockingly_'
'shearings_'
'sept_'
'santa_'
'sal'
'said'
'roy_'
'riverside_'
'receptionbut_'
'reassured_'
'purchases_'
'pt'
'plays_'
'peppers_'
'pedro_'
'parent_'
'overdue_'
'over'
'order'
'ns'
'noisey_'
'nes_'
'necessity_'
'mussels_'
'monotonous_'
'mohamed_'
'mc'
'mb_'
'married_'
'marginally_'
'maintains_'
'madrid_'
'logistics_'
'ling'
'lightly_'
'len'
'lass_'
'laborious_'
'killed_'
'kan'
'jo'
'jan'
'inroom_'
'ingthe_'
'identity_'
'hor'
'gum_'
'ges_'
'generator_'
'forest_'
'flushed_'
'flannel_'
'expertly_'
'exiting_'
'eni'
'ela'
'egyptian_'
'displays_'
'dic'
'deli'
'dash_'
'ct_'
'congealed_'
'cla'
'caps_'
'candle_'
'cameron_'
'budge_'
'brill_'
'bre'
'brandon_'
'bothersome_'
'bi_'
'barked_'
'aw'
'assignment_'
'aa'
'-'
' ! ! ! ! ! !_'
'yet'
'yell_'
'wonderfull_'
'wind'
'wil'
'whi'
'visit'
'vi'
'var'
'usly_'
'unattentive_'
'tre'
'threatening_'
'thatthe_'
'teens_'
'surfing_'
'suprised_'
'superficial_'
'sticking_'
'stadium_'
'spa'
'smooth'
'sleep'
'sigh_'
'robot_'
'roasted_'
'rm_'
'relented_'
'rede'
'recognizing_'
'queueing_'
'pur'
'portland_'
'poolthe_'
'piped_'
'owns_'
'owing_'
'ot'
'ola_'
'nod_'
'nightclub_'
'new'
'nd'
'navajo_'
'miscommunication_'
'mid'
'mercedes_'
'mai_'
'magazines_'
'macau_'
'lecture_'
'lasagne_'
'jets_'
'jelly_'
'io'
'instructor_'
'inhouse_'
'increasingly_'
'im'
'ib'
'hola_'
'hers_'
'get'
'gathered_'
'fire'
'finer_'
'expedited_'
'ethic_'
'es'
'enable_'
'emptying_'
'effusive_'
'disastrous_'
'died_'
'cro'
'crepes_'
'convey_'
'contain_'
'consequence_'
'commission_'
'comforter_'
'cleanthe_'
'carries_'
'carol_'
'cameras_'
'calmly_'
'bo_'
'beneath_'
'bearable_'
'barbara_'
'atmospheric_'
'areathe_'
'architect_'
'aiming_'
'about'
'45'
'27th_'
'16'
')'
' . ' _'
' ) .( _'
'zan'
'yi_'
'wound_'
'whe'
'wellness_'
'wash'
'volumes_'
'vinegar_'
'verging_'
'vacuumed_'
'uncooked_'
'uncomfortably_'
'thirdly_'
'tentative_'
'temps_'
'tan_'
'sy'
'subjected_'
'sub'
'styled_'
'stra'
'special'
'sp_'
'soothing_'
'sooo_'
'snowy_'
'snippy_'
'slipping_'
'slim_'
'skype_'
'sirloin_'
'servicewas_'
'sentence_'
'scented_'
'safes_'
'retain_'
'red'
'pretzels_'
'president_'
'presentable_'
'pig_'
'phone'
'peri'
'participants_'
'part'
'panoramic_'
'overseeing_'
'outi_'
'omar_'
'ol_'
'ol'
'odour_'
'nice'
'motion_'
'monica_'
'mojitos_'
'mis'
'megan_'
'malfunctioning_'
'maldives_'
'lovelythe_'
'lists_'
'lapses_'
'langham_'
'ketchup_'
'invested_'
'intervened_'
'inn'
'humoured_'
'hooks_'
'graded_'
'gatwick_'
'gan'
'gallery_'
'furious_'
'flawlessly_'
'facilites_'
'ever'
'eu'
'ers'
'engineers_'
'endlessly_'
'empire_'
'ef'
'dusit_'
'drawbacks_'
'diy_'
'ditto_'
'disconnect_'
'did'
'diana_'
'desirable_'
'dar'
'cy'
'corkscrew_'
'consecutive_'
'configuration_'
'comedy_'
'checkout'
'check'
'cara'
'bungalows_'
'broccoli_'
'breast_'
'beds'
'beats_'
'banqueting_'
'ba'
'approval_'
'aka_'
'affable_'
'ade'
'activate_'
'80'
'1980_'
'160_'
'140_'
'100'
' .:) _'
' ... '
' . " _'
' ) ., _'
' ) .'
' " ) ._'
'yourselves_'
'wheat_'
'wal'
'unstable_'
'unforgettable_'
'trump_'
'tro'
'toast'
'televisions_'
'technically_'
'sweet'
'summoned_'
'stronger_'
'starred_'
'snoring_'
'smith_'
'small'
'site'
'sin_'
'sher'
'shaking_'
'sg'
'sf_'
'sar'
'sang_'
'rthe_'
'reverse_'
'rethink_'
'replacements_'
'relatives_'
'ree'
'reat_'
'promotional_'
'polo_'
'personell_'
'paste_'
'paper'
'pal'
'onthe_'
'offices_'
'obligatory_'
'no'
'neatly_'
'museums_'
'mixer_'
'mini'
'mild_'
'members'
'mar'
'maple_'
'managerial_'
'mac'
'lug_'
'louis_'
'loud'
'loch_'
'lobbies_'
'ko'
'knees_'
'kha'
'je'
'jaded_'
'inde'
'if'
'hustle_'
'happy'
'gur'
'grandchildren_'
'gps_'
'glaring_'
'gently_'
'gals_'
'furnishing_'
'friend'
'fri'
'forwarded_'
'forty_'
'flannels_'
'fla'
'firendly_'
'feathers_'
'fast'
'exellent_'
'evelyn_'
'episode_'
'ensures_'
'early'
'duvets_'
'down'
'dot_'
'dispute_'
'disengaged_'
'disagree_'
'disability_'
'descent_'
'cork_'
'consisting_'
'congested_'
'concierge'
'compete_'
'clean'
'clarion_'
'case'
'carton_'
'but'
'breakfasts'
'brandy_'
'bora_'
'bla'
'bean_'
'banks_'
'balinese_'
'available'
'auditor_'
'assurance_'
'airport'
'air'
'ago'
'accurately_'
'60'
'37_'
'24'
'15mins_'
'13'
'1200_'
'01_'
' ’ '
' ` _'
'za'
'yours_'
'yen_'
'working'
'wire_'
'waves_'
'vastly_'
'van'
'validated_'
'unoccupied_'
'ue'
'tt'
'ticks_'
'temperamental_'
'teething_'
'taster_'
'taste'
'suprise_'
'suite'
'study_'
'striking_'
'streaming_'
'ston_'
'sterling_'
'stella_'
'stacked_'
'squash_'
'simultaneously_'
'shorter_'
'sh'
'satisfactorily_'
'runway_'
'ricardo_'
'respectable_'
'release_'
'quickest_'
'profession_'
'port'
'photographs_'
'paula_'
'patties_'
'parking'
'pa'
'oo_'
'onions_'
'oliver_'
'offish_'
'observations_'
'observant_'
'mur'
'monkeys_'
'mindful_'
'mgmt_'
'method_'
'mes'
'meager_'
'margaritas_'
'leeds_'
'kiosks_'
'keurig_'
'junk_'
'ja'
'intervention_'
'hy'
'hits_'
'herbal_'
'helpfull'
'helpful'
'greeters_'
'goal_'
'gg'
'frequented_'
'forcing_'
'facilities'
'extractor_'
'exotic_'
'excessively_'
'ex'
'escorting_'
'en'
'em'
'ella_'
'donna_'
'disposition_'
'di'
'den_'
'cos_'
'contacts_'
'colder_'
'coins_'
'cod_'
'cd_'
'cal'
'bur'
'breakfaststaff_'
'break'
'booklet_'
'book'
'black'
'beach'
'bat_'
'banquets_'
'bandwidth_'
'ball'
'ay'
'awareness_'
'attention'
'ar'
'andshe_'
'ai'
'after'
'70s_'
'170_'
'17'
' !" _'
'é'
'zen_'
'yosemite_'
'worthless_'
'worrying_'
'withthe_'
'winds_'
'waving_'
'warrant_'
'walkway_'
'vin'
'uss'
'ur'
'upwards_'
'trip'
'trap_'
'tracy_'
'tracked_'
'toothbrushes_'
'terry_'
'teapot_'
'swapped_'
'sun'
'stuff'
'stewed_'
'steamed_'
'stay'
'spinach_'
'sorely_'
'solely_'
'side'
'shop'
'shin'
'sebastian_'
'seamlessly_'
'scandinavian_'
'rupees_'
'reviewing_'
'ret'
'replying_'
'recipe_'
'rain'
'ques_'
'quantities_'
'prompt'
'promote_'
'pregnant_'
'por'
'pond_'
'pho'
'palatable_'
'ook_'
'omg_'
'ome'
'ney_'
'mud_'
'minuses_'
'mediterranean_'
'meals'
'martinis_'
'mano'
'manicure_'
'lit'
'lining_'
'limitations_'
'keith_'
'kat'
'kar'
'jobthe_'
'jean_'
'ities_'
'ith_'
'increasing_'
'impacted_'
'icy_'
'ht'
'heels_'
'hand'
'hamburgers_'
'guest'
'grapes_'
'gin'
'ge'
'gammon_'
'funeral_'
'ful'
'frig_'
'fo'
'flops_'
'flagged_'
'fetched_'
'exposed_'
'eva_'
'enthusiastically_'
'dispatched_'
'deski_'
'descriptions_'
'denise_'
'deliberately_'
'debbie_'
'cursory_'
'creme_'
'cracking_'
'coaches_'
'chi'
'chewing_'
'chandeliers_'
'cardiff_'
'bye_'
'butit_'
'bul'
'budapest_'
'bri'
'bhutan_'
'barstaff_'
'bal'
'b'
'athens_'
'ast'
'aims_'
'aed_'
'admirably_'
'ace_'
'abroad_'
'aaron_'
'70'
'35'
'14'
'...... _'
'),_'
'!'
' .£ _'
' ---_'
' , £ _'
' + '
'ys'
'years'
'which'
'whereby_'
'what'
'welcomethe_'
'wasi_'
'was'
'w'
'volunteered_'
'visual_'
'valentine_'
'undergone_'
'trucks_'
'transpired_'
'ters_'
'ten'
'steer_'
'stayand_'
'standard'
'spas_'
'snapped_'
'smoothie_'
'simplest_'
'seventh_'
'sauvignon_'
'rundown_'
'riding_'
'retail_'
'resto_'
'respite_'
'resembled_'
'renting_'
'regrettably_'
'reef_'
'providers_'
'protein_'
'price'
'pretending_'
'presents_'
'premise_'
'poor'
'perception_'
'pepsi_'
'pe'
'patch_'
'parker_'
'pads_'
'oo'
'og'
'offended_'
'oct_'
'noise'
'nk'
'ngly_'
'needs'
'montreal_'
'mont'
'make'
'macdonald_'
'links_'
'land'
'knocks_'
'knob_'
'keg_'
'justified_'
'jr_'
'ita_'
'irate_'
'ipod_'
'iously_'
'invitation_'
'ide_'
'ically_'
'ian'
'hs_'
'hotelwe_'
'holly_'
'hassles_'
'handsome_'
'han_'
'ha'
'grip_'
'gor'
'gn_'
'gaylord_'
'fun'
'flaw_'
'first'
'fir_'
'filtered_'
'fe_'
'favorites_'
'fabric_'
'era'
'enclosed_'
'eh'
'drinks'
'drier_'
'dr_'
'dinnerthe_'
'diane_'
'determine_'
'dependent_'
'departures_'
'deliveries_'
'deb'
'dancers_'
'couldn_'
'cost'
'conveyed_'
'compounded_'
'competitors_'
'comical_'
'combo_'
'ck'
'civil_'
'church_'
'chopped_'
'charmless_'
'cesar_'
'caution_'
'cart'
'businesses_'
'business'
'brew_'
'bid_'
'bes'
'bedthe_'
'bat'
'bag'
'backthe_'
'atleast_'
'assigning_'
'argumentative_'
'andso_'
'ami'
'always'
'allegedly_'
'albert_'
'advantages_'
'adi'
'abuse_'
'30min_'
'125_'
' ? '
' :( _'
' +_'
'à_'
'~_'
'zo'
'yum_'
'xi'
'wrong'
'wonders_'
'welsh_'
'vents_'
'vacate_'
'urge_'
'upand_'
'unplugged_'
'uae_'
'tuned_'
'tranquil_'
'towels'
'tolerate_'
'tina_'
'tha'
'tequila_'
'sur'
'supervising_'
'stopper_'
'sted_'
'sstaff_'
'soya_'
'sive_'
'shortages_'
'shi'
'sheratons_'
'shaded_'
'seaside_'
'scrumptious_'
'san'
'rita_'
'rig'
'released_'
'relating_'
'recovered_'
'rd'
'ration_'
'quiet'
'proudly_'
'protect_'
'property'
'production_'
'printers_'
'principle_'
'points'
'pla'
'pier_'
'peanut_'
'panorama_'
'pan'
'overs_'
'ora'
'ong_'
'okaythe_'
'oiled_'
'ngs_'
'nerve_'
'negotiated_'
'nda_'
'na'
'mu'
'moves_'
'memorial_'
'media_'
'masala_'
'management'
'majestic_'
'lotus_'
'locking_'
'liz_'
'litter_'
'lei_'
'lcd_'
'late'
'landmark_'
'ka'
'jewel_'
'jeremy_'
'iti'
'isa'
'intermittently_'
'intentioned_'
'insure_'
'input_'
'houston_'
'hoteliers_'
'hot'
'horse_'
'hallmark_'
'gratis_'
'graduation_'
'goodservice_'
'glowing_'
'glorious_'
'gen'
'gates_'
'gas'
'frankfurt_'
'for'
'flood_'
'fe'
'fare'
'facilties_'
'expedite_'
'ew'
'ep'
'entrances_'
'endured_'
'empathetic_'
'elena_'
'dy'
'drapes_'
'dome_'
'debacle_'
'cutter_'
'custard_'
'cup'
'criminal_'
'core_'
'cor'
'convert_'
'conveniences_'
'continual_'
'complemented_'
'commenting_'
'clear'
'city'
'cin'
'christine_'
'chop_'
'childrens_'
'cheesy_'
'chatter_'
'champ'
'cathedral_'
'butwhen_'
'butter'
'bump_'
'bull_'
'brownie_'
'breafast_'
'bells_'
'awaits_'
'await_'
'audio_'
'ative_'
'at'
'as'
'applaud_'
'ao'
'ang'
'ald'
'ado'
'ac'
':) _'
'80s_'
', '
' > _'
' - - _'
' ) -_'
' ! ._'
' ! , _'
'ze'
'worst'
'wires_'
'wed_'
'washers_'
'viewed_'
'vanished_'
'upthe_'
'unplug_'
'uninteresting_'
'und_'
'tru'
'trio_'
'treasure_'
'transported_'
'trainers_'
'tp_'
'ton'
'tiresome_'
'theater_'
'texting_'
'tet'
'tears_'
'swept_'
'sweaty_'
'sweating_'
'suspicious_'
'sure'
'strangers_'
'spelt_'
'spelled_'
'singh_'
'shelves_'
'scored_'
'sad'
'roomo'
'roads_'
'rim_'
'right'
'review'
'refrigerators_'
'refresher_'
'recommendable_'
'recomend_'
'realising_'
'rat_'
'rac'
'quests_'
'printout_'
'prestigious_'
'posters_'
'po'
'pits_'
'pints_'
'pinching_'
'persuade_'
'perplexed_'
'peculiar_'
'patty_'
'outside'
'others'
'ory_'
'open'
'ole_'
'ny'
'nov_'
'notification_'
'nighti_'
'neutral_'
'navigating_'
'nails_'
'mount_'
'more'
'miserably_'
'mince_'
'meticulously_'
'messing_'
'mental_'
'mainland_'
'lush_'
'littered_'
'linger_'
'lia'
'leave'
'labor_'
'ko_'
'itt'
'inwe_'
'inventory_'
'inventive_'
'insight_'
'ington_'
'ina'
'impresses_'
'ile_'
'iberostar_'
'hou'
'hoot_'
'honest'
'hi'
'hen'
'helpless_'
'hel'
'heaving_'
'hbo_'
'gaps_'
'fy_'
'fronts_'
'freeze_'
'fra'
'flatly_'
'fit'
'exudes_'
'eternity_'
'escalated_'
'entertainers_'
'end'
'enabled_'
'eclectic_'
'ec'
'drill_'
'dreams_'
'drains_'
'dit'
'dismay_'
'discerning_'
'detached_'
'deskbut_'
'designers_'
'debris_'
'dealers_'
'dea'
'darn_'
'darkness_'
'danny_'
'cuppa_'
'cubes_'
'criteria_'
'coworker_'
'coordinated_'
'contains_'
'chu'
'chat'
'chargers_'
'centric_'
'celebrated_'
'casa_'
'carmen_'
'capsules_'
'cancelling_'
'buds_'
'bubbles_'
'bore_'
'boo'
'ban'
'awfully_'
'attribute_'
'attracted_'
'artwork_'
'arcade_'
'appliances_'
'any'
'ands'
'amuse_'
'amber_'
'allocating_'
'ale'
'ak'
'ada_'
'acknowledgment_'
'59_'
'02_'
' ........ _'
' )- _'
' ( # _'
'z'
'wit'
'wheeled_'
'weekend'
'vintage_'
'victorian_'
'vibrant_'
'valentines_'
'upt'
'unexciting_'
'two'
'twice'
'trouser_'
'trapped_'
'transition_'
'tion'
'thousand_'
'therei_'
'swi'
'swa'
'surfaces_'
'stool_'
'stole_'
'stayi_'
'spiral_'
'span_'
'sou'
'sophie_'
'sleepy_'
'sketchy_'
'sim_'
'ships_'
'seemless_'
'scal'
'saigon_'
'roo'
'ro'
'riot_'
'ria'
'resorted_'
'repairman_'
're'
'ras'
'ranked_'
'rand_'
'qu'
'protested_'
'prints_'
'pockets_'
'pmthe_'
'pmand_'
'plunge_'
'pitched_'
'pin'
'phrase_'
'periodically_'
'passenger_'
'other'
'ori'
'orchard_'
'oli'
'oldest_'
'occassion_'
'oak_'
'nti'
'nly_'
'nicestaff_'
'necessities_'
'name'
'mono'
'menu'
'mega_'
'mean'
'mcdonalds_'
'mbps_'
'materialise_'
'mat'
'lustre_'
'lunch'
'loft_'
'lifting_'
'lethargic_'
'landscaped_'
'kyle_'
'kenny_'
'jesus_'
'ipads_'
'involving_'
'inflated_'
'hum_'
'houskeeping_'
'haughty_'
'ger'
'gardener_'
'gan_'
'gambling_'
'friendlybut_'
'frantic_'
'flo'
'flasks_'
'failures_'
'fact'
'facilitate_'
'executives_'
'exceptional'
'eligible_'
'eli'
'electrician_'
'don'
'dn'
'din_'
'diabolical_'
'demo'
'debate_'
'crusty_'
'compromised_'
'compromise_'
'cle'
'char'
'celebrations_'
'butts_'
'butbreakfast_'
'buns_'
'breakast_'
'brand'
'board'
'barbut_'
'bara'
'bahia_'
'bab'
'awesome'
'austin_'
'audible_'
'antique_'
'annexe_'
'ang_'
'aman'
'adjustable_'
'accessing_'
']. _'
'29th_'
'22'
'20mins_'
' ,, _'
' " ..._'
'zz'
'yrs_'
'year'
'widely_'
'wi'
'wharf_'
'weakness_'
'way'
'voiced_'
'vista_'
'vicky_'
'veryone_'
'verbally_'
'urn_'
'unwanted_'
'unhealthy_'
'twelve_'
'tools_'
'timer_'
'therebut_'
'than'
'terse_'
'tempting_'
'stranger_'
'staffthey_'
'staffstaff_'
'snorkeling_'
'sly_'
'slo'
'sion_'
'sim'
'sil'
'sie'
'shuts_'
'shots_'
'shook_'
'schedules_'
'sam'
'rm'
'ripe_'
'rio_'
'rg'
'revealed_'
'respected_'
'reno_'
'relocate_'
'regulate_'
'refusal_'
'recompense_'
'rc'
'ranks_'
'quay_'
'problem'
'pri'
'predominantly_'
'praised_'
'pounding_'
'plu'
'pitiful_'
'pinot_'
'philosophy_'
'persisted_'
'permit_'
'pavilion_'
'park'
'pamper_'
'oversold_'
'ost_'
'oceanfront_'
'nearer_'
'nancy_'
'mumbled_'
'min'
'marine_'
'manic_'
'mana'
'mali'
'makeshift_'
'lovers_'
'look'
'lingering_'
'liner_'
'lightning_'
'legal_'
'leftover_'
'left'
'lat'
'lapse_'
'lap'
'kb'
'jungle_'
'jokes_'
'joked_'
'issue'
'israel_'
'investigated_'
'intimidating_'
'intentions_'
'injured_'
'indicative_'
'ig'
'ies'
'ier'
'hygienic_'
'hottest_'
'homeless_'
'handyman_'
'greati_'
'grandson_'
'goa_'
'gins_'
'frustratingly_'
'friendlyand_'
'fragrance_'
'fox_'
'formula_'
'forming_'
'fen'
'fawning_'
'favourable_'
'experiencethe_'
'exhibited_'
'exchanges_'
'everything'
'eti'
'eri'
'employer_'
'elephant_'
'effortlessly_'
'dominated_'
'dissapointment_'
'disregard_'
'disapointed_'
'dental_'
'den'
'def_'
'cur'
'cted_'
'crawling_'
'cp_'
'controlling_'
'congrats_'
'come'
'comb_'
'cokes_'
'closed'
'citrus_'
'charlie_'
'chardonnay_'
'chap'
'centara_'
'caucasian_'
'can'
'cac'
'buffalo_'
'bubble_'
'bowling_'
'blasting_'
'bin'
'bill'
'audi'
'attributes_'
'ag'
'aforementioned_'
'admire_'
'admirable_'
'acc'
'aa_'
'> _'
'41_'
'26'
')- _'
' ?, _'
' ........._'
'zo_'
'yuck_'
'yi'
'ye'
'wristbands_'
'workshop_'
'wobbly_'
'witness_'
'wider_'
'westerns_'
'waterfall_'
'wall'
'volleyball_'
'visually_'
'vile_'
'ures_'
'unruly_'
'uk'
'typed_'
'twist_'
'turnaround_'
'toasters_'
'tin'
'timed_'
'thyme_'
'thing'
'thermos_'
'tardy_'
'styles_'
'stand'
'stair_'
'stafff_'
'spilt_'
'specialist_'
'sorry'
'som'
'sole'
'snappy_'
'si'
'shone_'
'shipped_'
'servicewe_'
'scream_'
'sb'
'savoy_'
'rude'
'ru'
'rosa_'
'rit'
'ridge_'
'retained_'
'ress_'
'rese'
'renewed_'
'reluctance_'
'relayed_'
'receives_'
'rb'
'rant_'
'randomly_'
'qua'
'published_'
'proposed_'
'producing_'
'positions_'
'pools'
'pompous_'
'poi'
'plentiful'
'platters_'
'pesos_'
'persuaded_'
'pedestrian_'
'pati'
'paths_'
'pans_'
'palms_'
'om'
'offsite_'
'obtaining_'
'observe_'
'objective_'
'nothing'
'norway_'
'non'
'move'
'mop_'
'monkey_'
'monitored_'
'ml_'
'miss'
'mil'
'mention'
'mebut_'
'materialised_'
'markets_'
'man'
'luck'
'lt'
'london'
'lobby'
'loaf_'
'liver_'
'lity_'
'lighter_'
'layer_'
'killer_'
'keycards_'
'ke'
'johnny_'
'jade_'
'iw'
'invasive_'
'insulted_'
'insulated_'
'inordinate_'
'inbut_'
'hordes_'
'hil'
'haggis_'
'had'
'gym'
'gri'
'gran_'
'goats_'
'gf_'
'fyi_'
'fur'
'fresher_'
'francis_'
'floors'
'fillings_'
'figuring_'
'fault'
'expressing_'
'exec'
'euro'
'ethernet_'
'elites_'
'e'
'du_'
'ds'
'downs_'
'diversity_'
'designs_'
'depleted_'
'dayand_'
'dallas_'
'czech_'
'curries_'
'crumble_'
'criticisms_'
'cri'
'cracks_'
'correcting_'
'clubhouse_'
'clicking_'
'cindy_'
'chickens_'
'charleston_'
'champions_'
'cartes_'
'cambodia_'
'burst_'
'blessing_'
'bing_'
'bi'
'bel_'
'begging_'
'baskets_'
'balloons_'
'avi'
'ash'
'arrive'
'ari_'
'appallingly_'
'anti'
'ah'
'agreeing_'
'againand_'
'ado_'
'adjustments_'
'accross_'
'72_'
',(_'
' & '
'zealous_'
'workingand_'
'wonderful'
'wiping_'
'wellington_'
'venison_'
'ust_'
'uring_'
'ured_'
'upcoming_'
'uni'
'underwear_'
'ume'
'twi'
'tt_'
'trouble'
'trails_'
'toy_'
'tiled_'
'tiffany_'
'thoughtfulness_'
'texture_'
'tesco_'
'teri'
'teen_'
'target_'
'tag'
'tablets_'
'system'
'surrounds_'
'surf_'
'supreme_'
'stove_'
'stools_'
'staffall_'
'soo_'
'slowthe_'
'sleepers_'
'sle'
'singers_'
'shore_'
'sharon_'
'selves_'
'sca'
'sands_'
'roombreakfast_'
'return'
'restrooms_'
'resetting_'
'reimbursed_'
'regulations_'
'redeem_'
'rate'
'rains_'
'quickly'
'pt_'
'professionalthe_'
'prof'
'prides_'
'prep_'
'pr'
'pot'
'polite'
'planner_'
'placement_'
'pes'
'perfect'
'pearl_'
'par'
'p'
'ox_'
'ox'
'ntly_'
'nsi'
'novotels_'
'nc'
'mundane_'
'mosquitos_'
'mentality_'
'mcdonald_'
'mans_'
'made'
'loo'
'lia_'
'leo_'
'later'
'kleenex_'
'ki'
'karaoke_'
'joy'
'javier_'
'jars_'
'ish'
'ironed_'
'insect_'
'inge'
'infused_'
'inexperience_'
'inevitable_'
'ined_'
'inconsistencies_'
'impressively_'
'imo_'
'ii_'
'ight_'
'idea'
'ics_'
'how'
'housekeeping'
'hotline_'
'hopelessly_'
'hoo'
'holiday'
'have'
'guilty_'
'gon_'
'glazed_'
'ghost_'
'fulfilling_'
'fron_'
'foot'
'foodand_'
'font_'
'fluently_'
'flavors_'
'fifty_'
'favourites_'
'favorable_'
'exhibition_'
'excluding_'
'enormously_'
'ei_'
'edand_'
'eatery_'
'easiest_'
'ea'
'dude_'
'dol'
'discomfort_'
'disco'
'diminished_'
'dig'
'declining_'
'de'
'cubicle_'
'cre'
'cra'
'county_'
'countless_'
'counter'
'cough_'
'corn'
'coral_'
'cook'
'confirmations_'
'conferencing_'
'conclude_'
'conciege_'
'completion_'
'comings_'
'cliff_'
'cho'
'ches_'
'cheap'
'career_'
'cancellations_'
'cam_'
'bustle_'
'builders_'
'bruno_'
'brighton_'
'brenda_'
'bountiful_'
'boats_'
'blo'
'bliss_'
'bled_'
'big'
'beth_'
'before'
'bedtime_'
'battered_'
'bags'
'awa'
'atlantis_'
'ata'
'aswell_'
'ashtray_'
'approved_'
'app'
'ape'
'ankle_'
'andyou_'
'andthat_'
'an'
'amo'
'ame_'
'ambient_'
'alexis_'
'advert_'
'addresses_'
'69_'
'61'
'50th_'
'43_'
'24h_'
'1970s_'
',,_'
'!!. _'
' . !_'
' ( & _'
'yan'
'wholly_'
'westerners_'
'wer'
'washcloth_'
'warren_'
'wai'
'vist'
'veronica_'
'vendor_'
'val'
'usd'
'unsafe_'
'ung'
'tw'
'tv'
'trivial_'
'training'
'tracking_'
'touristy_'
'toll_'
'tolerated_'
'toilet'
'though'
'theory_'
'texted_'
'tand_'
'survive_'
'supplier_'
'sts_'
'struggles_'
'sting_'
'stamp_'
'sponge_'
'spoiling_'
'souvenir_'
'smoky_'
'sky'
'shutters_'
'shortbread_'
'shiny_'
'servicestaff_'
'serene_'
'scenic_'
'saunas_'
'sangria_'
'sa'
'rte'
'rt'
'rounded_'
'round'
'rival_'
'retro_'
'restuarants_'
'restaurants'
'resort'
'removal_'
'registering_'
'reconsider_'
'recommend'
'ral'
'precisely_'
'pilot_'
'pcs_'
'passive_'
'particulary_'
'our'
'organiser_'
'or'
'oni_'
'onethe_'
'oma'
'olds_'
'oks'
'offs'
'officers_'
'note'
'not'
'nna_'
'natasha_'
'musical_'
'mousse_'
'moaning_'
'mind'
'milk'
'memberi_'
'mask_'
'mas'
'lythe_'
'luggage'
'location'
'line'
'level'
'lea'
'lc'
'lati'
'ks'
'kindest_'
'kam'
'jamaican_'
'irst_'
'interrupt_'
'int_'
'int'
'insipid_'
'insane_'
'ino_'
'in'
'implied_'
'ile'
'ich'
'hummus_'
'hon'
'hmmm_'
'hl'
'hkd_'
'hesitant_'
'hall'
'gu'
'grew_'
'gratitude_'
'gouging_'
'goo'
'gi'
'gents_'
'fruit'
'freshness_'
'flown_'
'flooring_'
'flavoursome_'
'films_'
'fic'
'extract_'
'eu_'
'ese_'
'elo'
'drip_'
'drastically_'
'dramatic_'
'downthe_'
'downfall_'
'dou'
'dnd_'
'discreetly_'
'disa'
'dinner'
'dimly_'
'detracted_'
'demonstrate_'
'def'
'decorative_'
'decade_'
'cus'
'ction_'
'courteous'
'counting_'
'cottages_'
'cornflakes_'
'compa'
'community_'
'comm'
'colombo_'
'coffeemaker_'
'cleanest_'
'circa_'
'ci'
'chunky_'
'choice'
'ching_'
'chester_'
'chemical_'
'chef'
'cellphone_'
'cattle_'
'cantonese_'
'came'
'calming_'
'calamari_'
'cables_'
'butt_'
'brightly_'
'briefing_'
'brewers_'
'brekkie_'
'breakfasta'
'bread'
'boy'
'bound_'
'bot'
'booths_'
'bonjour_'
'bon_'
'boast_'
'bluntly_'
'bitterly_'
'bf_'
'bel'
'bathroom'
'baguette_'
'ava'
'autumn_'
'attracts_'
'assistants_'
'arena_'
'areas'
'apprehensive_'
'answer'
'andre'
'amthe_'
'amp'
'amicable_'
'alive_'
'alaska_'
'accommodative_'
'accommodating'
'accents_'
'abbey_'
'90'
'40th_'
'28'
'2008_'
' ; '
' ......... _'
' .) _'
' % '
' ! " _'
'… _'
'yt'
'wo'
'wifithe_'
'wife'
'weakest_'
'wasa'
'waiting'
'waikiki_'
'va'
'use'
'usa'
'undermanned_'
'una'
'trained'
'trading_'
'tongs_'
'toe_'
'tl'
'tit'
'threadbare_'
'thi'
'thermal_'
'tablecloths_'
'switzerland_'
'swift'
'swear_'
'sunbathing_'
'stench_'
'staystaff_'
'state'
'spoils_'
'spar'
'soured_'
'sol_'
'snap_'
'sit'
'sip_'
'sin'
'shifted_'
'sever'
'sec'
'sab'
'ry'
'run'
'ron'
'rod_'
'rocket_'
'road'
'rly_'
'rinse_'
'restaurant'
'regional_'
'recep'
'rece'
'ranges_'
'rad'
'ps'
'plonked_'
'ple'
'pic_'
'party'
'pam_'
'palate_'
'pain'
'overnight'
'overbooking_'
'ort'
'odds_'
'ob'
'nightstand_'
'nick'
'naked_'
'mus'
'mt_'
'mp'
'motorcycle_'
'moscow_'
'memberthe_'
'mechanism_'
'malmaison_'
'macaroons_'
'lyn'
'logic_'
'lift'
'ld'
'lb'
'lan'
'lady'
'keys'
'ker'
'joanne_'
'jer'
'itwe_'
'ito'
'intervene_'
'interruption_'
'intense_'
'ink_'
'i'
'hourly_'
'hints_'
'hes_'
'her'
'has'
'gun'
'grits_'
'goody_'
'goodb'
'gal'
'friendlywe_'
'forecast_'
'fixes_'
'fer'
'featuring_'
'far'
'fan'
'exude_'
'excitement_'
'exceeding_'
'eve'
'evacuated_'
'ens_'
'enforce_'
'ene'
'elliptical_'
'eh_'
'dynamic_'
'dro'
'doorway_'
'disruptive_'
'discovery_'
'detector_'
'destinations_'
'dei'
'daya'
'creams_'
'couteous_'
'copious_'
'contracted_'
'consumption_'
'compassion_'
'communicative_'
'cockroaches_'
'coaching_'
'cking_'
'chirpy_'
'chest_'
'chemicals_'
'chelsea_'
'chateau_'
'cer'
'ce'
'card'
'camping_'
'butthey_'
'butservice_'
'butbut_'
'bummer_'
'brilliant'
'briefed_'
'breakfest_'
'bourbon_'
'bou'
'border_'
'ber_'
'barb'
'backing_'
'authorised_'
'attack_'
'ara_'
'ara'
'annoyances_'
'annoy_'
'andin_'
'andeven_'
'amend_'
'alice_'
'ak_'
'aerobics_'
'ack_'
'@_'
'5the_'
'10pm_'
'.._'
'!!!_'
' :'
' , , , _'
' ( ! )_'
' ! '
'yr'
'www_'
'worlds_'
'vere_'
'vans_'
'vancouver_'
'urns_'
'upgrade'
'uc'
'tur'
'tun'
'try'
'trusted_'
'trimmings_'
'tra'
'topnotch_'
'thurs_'
'tho'
'teaspoons_'
'taylor_'
'tat'
'tail_'
'summed_'
'succeeded_'
'succeed_'
'substantially_'
'sty_'
'strategy_'
'stocks_'
'stays'
'statements_'
'standards'
'speech_'
'specialties_'
'sooooo_'
'smashing_'
'situation'
'shares_'
'shar'
'shameful_'
'shady_'
'sergio_'
'scratched_'
'scenario_'
'sashimi_'
'sala'
'sailing_'
'robin_'
'robbed_'
'ric'
'rescued_'
'refit_'
'recreation_'
'reccomend_'
'rattling_'
'raspberry_'
'ramadan_'
'raj_'
'rails_'
'quer'
'purse_'
'protection_'
'profits_'
'ppl_'
'pol'
'poker_'
'placethe_'
'piling_'
'picks_'
'philippines_'
'ph_'
'petit_'
'petals_'
'people'
'peacock_'
'pas'
'parcel_'
'para'
'panama_'
'overtly_'
'overboard_'
'out'
'orient_'
'opp'
'offer'
'oc'
'now'
'notifying_'
'nos'
'newest_'
'mushy_'
'monopoly_'
'mobbed_'
'mealtimes_'
'mayo_'
'mayfair_'
'mates_'
'marriott'
'lite_'
'lim'
'lid'
'les'
'lei'
'ledge_'
'leaning_'
'ku'
'kit'
'kensington_'
'joel_'
'ion'
'instructors_'
'insert_'
'ines_'
'im_'
'illness_'
'ig_'
'idiots_'
'hu_'
'hs'
'hr'
'hours'
'home'
'hom'
'helpfula'
'helful_'
'hee'
'heart'
'hay'
'handwritten_'
'hail_'
'grow_'
'granddaughter_'
'gli'
'gained_'
'ga'
'funds_'
'fireplaces_'
'finebut_'
'fiji_'
'facilitated_'
'face'
'expedient_'
'exclusively_'
'evacuation_'
'ess'
'email'
'elevator'
'elected_'
'eb'
'drown_'
'drilled_'
'die'
'devoted_'
'destroyed_'
'dee_'
'danger_'
'd'
'cue_'
'crisis_'
'corner'
'cont'
'comprised_'
'colored_'
'cold'
'coco_'
'classical_'
'cious_'
'che'
'charge'
'characterless_'
'caramel_'
'butt'
'butnot_'
'busythe_'
'businessmen_'
'burg_'
'building'
'brigade_'
'breakdown_'
'bra'
'boom_'
'booked'
'blessed_'
'ble'
'bir'
'bestthe_'
'beni'
'belgian_'
'bait_'
'arrivalthe_'
'ark'
'apps_'
'ail'
'agi'
'ae'
'66_'
'450_'
'..._'
','
' ” '
' ’ , _'
' ; ( _'
' ! ! ) _'
' ! ! ! )_'
'ym'
'yas'
'windsor_'
'wildlife_'
'whit'
'werethe_'
'wears_'
'wary_'
'vincent_'
'val_'
'vain_'
'vaguely_'
'unsympathetic_'
'unorganised_'
'unmotivated_'
'ug'
'ues_'
'uch_'
'tou'
'tool_'
'toasts_'
'ti'
'thy_'
'thoughtfully_'
'thereby_'
'ther'
'thani_'
'tan'
'sunlight_'
'summon_'
'submitted_'
'strikes_'
'straighten_'
'stone'
'step'
'starbuck_'
'staid_'
'sporting_'
'spaghetti_'
'server'
'sel'
'school'
'ri'
'retains_'
'regal_'
'refurbish_'
'reflecting_'
'recurring_'
'raved_'
'racks_'
'racket_'
'questionnaire_'
'qualitythe_'
'proficiency_'
'proffessional_'
'prize_'
'priorities_'
'preparations_'
'poorer_'
'poola'
'plight_'
'playground_'
'plate'
'plantation_'
'pharmacy_'
'perfume_'
'pere'
'pass'
'ough_'
'oozes_'
'oon_'
'onal_'
'on'
'olivia_'
'north'
'nin'
'nightbut_'
'nap'
'moldy_'
'minority_'
'mie'
'michigan_'
'mattered_'
'mantra_'
'malaysian_'
'madam_'
'machine'
'loop_'
'logical_'
'loaned_'
'lieu_'
'lie'
'lids_'
'lick_'
'less'
'laughter_'
'killing_'
'kal'
'judy_'
'jon_'
'janet_'
'ively_'
'iu'
'its'
'intervals_'
'internally_'
'improves_'
'ike_'
'id'
'ict'
'ich_'
'ical_'
'hyde_'
'hungarian_'
'hotelier_'
'hotela'
'hooked_'
'hich_'
'headless_'
'h10_'
'greatstaff_'
'gil'
'ga_'
'from'
'fro'
'friendlystaff_'
'franc'
'fraction_'
'folding_'
'fiona_'
'fancied_'
'fairthe_'
'excruciatingly_'
'everywhere'
'every'
'ets_'
'erthe_'
'ero'
'epi'
'emi'
'eddie_'
'dur'
'dual_'
'dorm_'
'dm'
'dislikes_'
'discourteous_'
'dimed_'
'dial'
'dep'
'delicate_'
'deadline_'
'dat'
'dam'
'crossing_'
'cop'
'compliant_'
'combinations_'
'clarification_'
'cked_'
'circular_'
'chaps_'
'cautious_'
'carafe_'
'cape_'
'bucharest_'
'bothers_'
'bond_'
'boarded_'
'blatantly_'
'bizarrely_'
'bicycles_'
'bhutanese_'
'bare'
'barc'
'ato'
'ate'
'arro'
'armchairs_'
'aria_'
'apology'
'anything'
'andmy_'
'andb'
'andalso_'
'ambi'
'alexander_'
'airports_'
'airco_'
'ain'
'administrative_'
'ade_'
'abusive_'
'abo'
'abit_'
'aba'
'33'
'27'
'220_'
'07'
'.... _'
'. ) _'
'( '
' .[ _'
' ..., _'
' .# _'
' ) ,_'
' ( ? )_'
'zy_'
'zu'
'woo'
'wins_'
'will'
'wh'
'wer_'
'wel'
'walter_'
'vision_'
'vin_'
'videos_'
'vel'
'validate_'
'upload_'
'uninformed_'
'ult'
'tu'
'tripped_'
'trans'
'tothe_'
'tolerant_'
'ting'
'timeand_'
'thethe_'
'tendency_'
'tation_'
'tables'
't'
'stupidly_'
'stuffing_'
'stro'
'stones_'
'stature_'
'squeaky_'
'specify_'
'spe'
'soundproof_'
'sofia_'
'snafu_'
'smo'
'smiling'
'sickness_'
'seniors_'
'sen'
'seat'
'scrub_'
'sci'
'savings_'
'savannah_'
'saucers_'
'sai'
'roome'
'rooma'
'rom'
'rl'
'restore_'
'response'
'respective_'
'reservation'
'relied_'
'relate_'
'ree_'
'rattled_'
'quietness_'
'proving_'
'prices'
'ports_'
'pong_'
'point'
'plus'
'playa_'
'pina_'
'penthouse_'
'patronizing_'
'past'
'participate_'
'paddington_'
'overrated_'
'ornate_'
'op'
'ones'
'nted_'
'nia'
'mos'
'mo'
'mn'
'mira'
'mine'
'mildew_'
'midtown_'
'merit_'
'meri'
'marta_'
'lor'
'lk'
'lin_'
'life'
'lending_'
'lee'
'latin_'
'latch_'
'laos_'
'krystal_'
'kickback_'
'kh'
'katherine_'
'jake_'
'itu'
'itstaff_'
'ists_'
'ire'
'investigation_'
'inter_'
'indulgent_'
'illy_'
'ikea_'
'hur'
'hose_'
'heat'
'guacamole_'
'gre'
'gray_'
'gown_'
'goodcheck_'
'glacier_'
'gh'
'generosity_'
'generated_'
'garnish_'
'furthest_'
'fundamental_'
'functionality_'
'fridays_'
'fresh'
'freebies_'
'frayed_'
'fore_'
'fond_'
'fixture_'
'fist_'
'fish'
'fied_'
'farm_'
'eventhough_'
'esse'
'ently_'
'emphasize_'
'earnest_'
'eagerness_'
'drunks_'
'dresses_'
'dreadfully_'
'drained_'
'dog'
'dispensed_'
'disappears_'
'diming_'
'diluted_'
'der'
'deny_'
'dent_'
'deleted_'
'defiantly_'
'defective_'
'default_'
'dean_'
'dared_'
'cub'
'cru'
'criticise_'
'crawl_'
'crashing_'
'cow'
'court'
'corporation_'
'coo'
'confrontational_'
'conflicting_'
'colle'
'co'
'clocks_'
'claire_'
'cks_'
'choc'
'cheers_'
'checkouts_'
'chauffeur_'
'chats_'
'change'
'celebrity_'
'cctv_'
'cavernous_'
'catherine_'
'cat'
'captains_'
'cappuccinos_'
'cana_'
'cairo_'
'bracket_'
'boxing_'
'bles_'
'blatant_'
'biz_'
'bitten_'
'bha'
'bei'
'becky_'
'barrel_'
'audacity_'
'au'
'atta'
'atmosphere'
'ates_'
'anyway'
'anger_'
'allways_'
'ali'
'afternoon'
'ae_'
'admission_'
'acropolis_'
'acoustics_'
'accomplish_'
'abr'
'ab'
'52'
'44'
'360_'
'2007_'
'198'
'.- _'
'# _'
'!!_'
' ? ? ? ? ?_'
' .--_'
'yl'
'worth'
'wor'
'wilson_'
'wildly_'
'while'
'wes'
'welfare_'
'wasvery_'
'wasn_'
'vanilla_'
'ute'
'usual'
'urs_'
'ups'
'unparalleled_'
'undi'
'ud'
'tubes_'
'trunk_'
'translate_'
'tor_'
'toddlers_'
'toasting_'
'tic'
'thro'
'the'
'tg'
'telephones_'
'technicians_'
'tails_'
'tab'
'synthetic_'
'supremely_'
'sunsets_'
'sundries_'
'strongest_'
'stop'
'sta'
'ssi'
'sprouts_'
'sprawling_'
'splashing_'
'spaced_'
'sonia_'
'softer_'
'snorkelling_'
'slapped_'
'ske'
'sipping_'
'sign'
'shooting_'
'selfish_'
'sed'
'saucer_'
'sau'
'roomit_'
'robust_'
'roadside_'
'river'
'ring'
'reuse_'
'rested_'
'resembles_'
'reliably_'
'regarded_'
'reeked_'
'recognising_'
'ravioli_'
'quieten_'
'punta_'
'pti'
'profuse_'
'pretended_'
'politethe_'
'plan'
'piles_'
'ph'
'pad'
'oysters_'
'owed_'
'overallthe_'
'outstanding'
'outing_'
'ousekeeping_'
'ous'
'ool_'
'old'
'nur'
'nta'
'nother_'
'noi'
'nicea'
'nf'
'neil_'
'nds_'
'naples_'
'nal_'
'muddled_'
'morocco_'
'mon'
'mishap_'
'mins'
'mic'
'merlot_'
'medicine_'
'meat'
'mau'
'mart_'
'malls_'
'mad'
'luster_'
'loa'
'light'
'ler'
'lebanese_'
'laws_'
'lang'
'lakeside_'
'lake'
'lad'
'kinks_'
'kin'
'ji_'
'ium_'
'ita'
'introducing_'
'intern_'
'inso_'
'inhospitable_'
'ingand_'
'inevitably_'
'incentive_'
'impressed'
'ick_'
'ians_'
'hour'
'homey_'
'him'
'heaps_'
'havana_'
'gyms_'
'grumble_'
'gru'
'grey'
'goodso_'
'goodie_'
'goodall_'
'given'
'girl'
'ghe'
'ger_'
'g'
'fussed_'
'front'
'freshened_'
'format_'
'filters_'
'faux_'
'fastthe_'
'extra'
'expertise_'
'expe'
'exhibit_'
'exe'
'eur'
'et'
'esi'
'erb'
'epic_'
'entertainments_'
'ent'
'ensued_'
'ek'
'ei'
'eer'
'eduardo_'
'duo_'
'doorbell_'
'disposal_'
'dilemma_'
'dia'
'dha'
'depended_'
'dana_'
'cynthia_'
'creamers_'
'corona'
'conversational_'
'contractors_'
'contractor_'
'consummate_'
'constructed_'
'cons'
'concession_'
'competing_'
'companions_'
'commendation_'
'classed_'
'civilised_'
'chr'
'chops_'
'cheese'
'charm'
'cd'
'cbd_'
'cabbage_'
'c'
'buts'
'butand_'
'buffetthe_'
'breakfastwas_'
'bottle'
'born_'
'bor'
'blueberry_'
'bet'
'bemused_'
'belongs_'
'bee_'
'bedroom'
'base'
'bar'
'ban_'
'badges_'
'attracting_'
'ath'
'astounding_'
'astonishing_'
'asians_'
'art'
'antiquated_'
'anonymous_'
'andthen_'
'andon_'
'andf'
'amazingthe_'
'alleged_'
'age'
'againstaff_'
'adapters_'
'56_'
'51_'
'3x_'
'31'
'1030_'
'08'
'" '
' ? ._'
' ? - _'
' : + _'
' ....'
' ... !_'
' ...'
' ) .- _'
'zar'
'wu'
'wheels_'
'wetherspoons_'
'westins_'
'werevery_'
'wealth_'
'waiter'
'vital_'
'vers_'
'veri'
'vent'
'vas'
'uo'
'untidy_'
'unstaffed_'
'unl'
'unheard_'
'unenthusiastic_'
'unde'
'und'
'tripping_'
'treat'
'traditionally_'
'tour'
'topic_'
'tn'
'thereof_'
'tera'
'tents_'
'tara_'
'sud'
'stank_'
'staffwas_'
'sse'
'squa'
'spraying_'
'spiced_'
'spends_'
'specialities_'
'soa'
'snow'
'sliders_'
'shack_'
'senses_'
'sensatori_'
'seaweed_'
'scar'
'saturdays_'
'satff_'
'same'
'rows_'
'rotating_'
'roses_'
'roller_'
'rie_'
'restoration_'
'rest'
'resourceful_'
'refunding_'
'reco'
'reboot_'
'ready'
'rand'
'queue'
'profi'
'productive_'
'prince_'
'prevents_'
'prepares_'
'pop'
'poland_'
'photographer_'
'pha'
'parkers_'
'panache_'
'pale_'
'oyster_'
'overstretched_'
'outer_'
'outbut_'
'ost'
'optimal_'
'once'
'occupy_'
'occasions'
'oat_'
'numbered_'
'noisy'
'nickle_'
'nices'
'newish_'
'net'
'nat'
'myself'
'mor'
'mint'
'minimize_'
'millions_'
'mei'
'mare_'
'manageable_'
'mam'
'lynn_'
'lonely_'
'llo_'
'll'
'list'
'lisbon_'
'lineup_'
'lhw_'
'kur'
'kumar_'
'king'
'kenya_'
'k'
'it'
'isi'
'iri'
'involves_'
'insists_'
'insanely_'
'ins'
'infectious_'
'income_'
'inclusives_'
'imprint_'
'imagined_'
'ii'
'ignorance_'
'ice'
'hy_'
'hum'
'ho'
'hearts_'
'heartbeat_'
'hawaiian_'
'green'
'greatwe_'
'grange_'
'goodthey_'
'goodhowever_'
'goodbreakfast_'
'god'
'glass'
'fu'
'frustrations_'
'fre'
'flu_'
'flask_'
'fee'
'ez_'
'ey'
'exce'
'everyone'
'erica_'
'eo'
'enter'
'ema'
'elevators'
'economical_'
'duty'
'dub'
'drinker_'
'donation_'
'documentation_'
'direct'
'dir'
'diamonds_'
'dh'
'detailing_'
'dennis_'
'deduct_'
'cycle_'
'curiously_'
'cul'
'credit'
'craig_'
'cosmetic_'
'convivial_'
'convincing_'
'converter_'
'consume_'
'confer'
'comprehension_'
'comprehend_'
'compassionate_'
'compares_'
'coldly_'
'cockroach_'
'chunks_'
'checkin'
'che_'
'chai_'
'cation_'
'cas'
'cappucino_'
'burg'
'breakers_'
'br'
'body'
'blows_'
'bkk_'
'birthday'
'belmond_'
'beer'
'bas'
'barriers_'
'baking_'
'attentivethe_'
'ation'
'annie_'
'ank'
'andhe_'
'alsothe_'
'alla'
'alexandra_'
'alberto_'
'ala'
'airplane_'
'agu'
'agra_'
'ace'
'accessories_'
'a'
'79_'
'52_'
'34'
'199'
'-$_'
'+ '
' .......... _'
' , ” _'
' ! " ._'
' ! ! ! ) ._'
' ! ! '
'zip_'
'yf'
'wraps_'
'workthe_'
'wolf_'
'windows'
'window'
'win'
'wifes_'
'wee'
'wayne_'
'walkways_'
'vert'
'value'
'valerie_'
'usi_'
'useable_'
'uper_'
'unst'
'unmatched_'
'ung_'
'unclean_'
'uncl'
'ull_'
'ub'
'tunnel_'
'trickle_'
'tommy_'
'tle_'
'tired'
'timei_'
'threat_'
'thisbut_'
'therea'
'tf'
'ter'
'temp'
'teddy_'
'tai_'
'sweetest_'
'sw'
'surprise'
'sup'
'submit_'
'string_'
'stink_'
'staurant_'
'stationed_'
'stares_'
'standby_'
'stan'
'stamford_'
'staffso_'
'squashed_'
'space'
'sm_'
'slowness_'
'sleeps_'
'shula_'
'shee'
'sex_'
'ses'
'sends_'
'scuba_'
'scheduling_'
'saver_'
'sas_'
'salted_'
'sachet_'
'rub_'
'ros'
'roomthey_'
'romanian_'
'roger_'
'rica_'
'reviews'
'restrictive_'
'resent_'
'reimburse_'
'refurbed_'
'redo_'
'recording_'
'recognizes_'
'receptioni_'
'reappeared_'
'realistic_'
'rail'
'rafael_'
'quietest_'
'pu'
'ption_'
'protocol_'
'promoting_'
'pref'
'prebooked_'
'praises_'
'pokey_'
'ple_'
'plainly_'
'pil'
'picchu_'
'photo'
'pest_'
'panini_'
'pane'
'pai'
'outweighed_'
'outfits_'
'orthe_'
'options'
'oned_'
'nthe_'
'noo'
'noisily_'
'niece_'
'nescafe_'
'ncp_'
'nas'
'musicians_'
'munchies_'
'modernized_'
'mixup_'
'miniature_'
'masters_'
'males_'
'malaysia_'
'lou'
'lily_'
'liar_'
'lean'
'layers_'
'lawns_'
'landscape_'
'lai'
'labeled_'
'kiwi_'
'kel'
'judged_'
'joyce_'
'jee'
'ive'
'ithe_'
'irregular_'
'intrusion_'
'inti'
'interests_'
'inspected_'
'insincere_'
'inns'
'indeed'
'inclusion_'
'imho_'
'ifi_'
'hyatts_'
'hix_'
'hin'
'hilton'
'hill'
'hg'
'heartfelt_'
'harm_'
'hai'
'grouchy_'
'greece_'
'gratuities_'
'grain_'
'goo_'
'gm'
'generation_'
'gabriel_'
'gab'
'found'
'focusing_'
'flirting_'
'flagship_'
'fl_'
'find'
'fi'
'feat_'
'fa'
'ez'
'exchanging_'
'eveningand_'
'ev'
'esh_'
'enti'
'enth'
'ences_'
'employs_'
'eck_'
'dri'
'drake_'
'downand_'
'dismayed_'
'disdain_'
'diligently_'
'difference'
'differ_'
'dialed_'
'dge_'
'deplorable_'
'delights_'
'definetly_'
'defined_'
'declared_'
'customers'
'ct'
'crashed_'
'costume_'
'context_'
'const'
'congregate_'
'confuse_'
'confi'
'conci'
'concerige_'
'conceige_'
'conc'
'compulsory_'
'complain'
'compelled_'
'cleveland_'
'clarity_'
'cinema_'
'chic'
'cher'
'cet'
'cardi'
'canadians_'
'bureaucratic_'
'brushing_'
'brightened_'
'bow_'
'bour'
'blazing_'
'bility_'
'bic'
'betterthe_'
'berry_'
'belfast_'
'behaving_'
'begged_'
'beating_'
'beachside_'
'backand_'
'awkwardly_'
'awful'
'aving_'
'authorise_'
'aussie_'
'aud'
'atthe_'
'attendent_'
'assurances_'
'arra'
'arethe_'
'arc'
'ano_'
'andreception_'
'ando'
'andalthough_'
'ambivalent_'
'amat'
'ake_'
'afterthought_'
'adapted_'
'ach_'
'accom'
'able'
'a1_'
'89_'
'72'
'55'
'40pm_'
'2x_'
'197'
'120'
'10am_'
'+ ._'
' ? ! ?_'
' .“ _'
' .( '
' ) .._'
' ) ...._'
' ! ! ! '
'zurich_'
'ywe_'
'youngest_'
'wotif_'
'whole'
'whim_'
'waterthe_'
'washroom_'
'warranted_'
'wan'
'waitress'
'wages_'
'vir'
'verything_'
'veal_'
'unsuccessfully_'
'unfailing_'
'uffet_'
'tob'
'tip'
'throat_'
'thread_'
'thereso_'
'theresa_'
'testing_'
'terraces_'
'tas_'
'ta'
'supervise_'
'steward_'
'staffthere_'
'sre'
'spu'
'sprucing_'
'spring'
'spin_'
'soy_'
'soviet_'
'sneak_'
'snack'
'sna'
'smartphone_'
'slowed_'
'skeleton_'
'shri'
'shab'
'sev'
'served'
'secondary_'
'seasoning_'
'season'
'seal_'
'scripted_'
'scolded_'
'saw'
'salami_'
'rusty_'
'russia_'
'runners_'
'roomsand_'
'roman_'
'robbery_'
'rob'
'revolting_'
'restless_'
'restaurent_'
'representing_'
'rent'
'renowned_'
'ren'
'rem'
'regretted_'
'refu'
'redecorated_'
'rea'
'ray'
'quinta_'
'questions'
'py_'
'put'
'promptness_'
'promenade_'
'prolonged_'
'progressed_'
'pressured_'
'pours_'
'postcards_'
'possibilities_'
'platform_'
'pigeon_'
'photocopy_'
'pers_'
'perpetually_'
'percentage_'
'perc'
'pen'
'pecial_'
'ovely_'
'orth'
'organizers_'
'ops_'
'onsi'
'only'
'omlets_'
'omen'
'oll'
'ofthe_'
'offthe_'
'occurs_'
'occasion'
'oca'
'obe'
'nut'
'nurse_'
'nonsmoking_'
'nina_'
'nighttime_'
'nh'
'nationality_'
'nation_'
'natalia_'
'nashville_'
'nar'
'nan_'
'nai'
'moral_'
'moor'
'mistake'
'misinformed_'
'midland_'
'mickey_'
'mia_'
'mg'
'met'
'medi'
'med'
'marquis_'
'marking_'
'mark'
'maris'
'mani'
'mangers_'
'managements_'
'malta_'
'mah'
'mag'
'machu_'
'lys'
'lot'
'lobbythe_'
'llan'
'lipstick_'
'lifestyle_'
'lifeless_'
'leaving'
'lastminute_'
'larry_'
'laguna_'
'labels_'
'lab'
'la'
'ky'
'km_'
'ker_'
'kebab_'
'juice'
'jos'
'itso_'
'ism_'
'involve_'
'intentionally_'
'insistence_'
'ingi_'
'incidental_'
'immense_'
'ime_'
'iba'
'iar'
'hotelsthe_'
'homework_'
'hmm_'
'hile_'
'hid_'
'hepful_'
'helpfuls'
'hei'
'h'
'grunted_'
'gro'
'grat'
'gras_'
'gossiping_'
'globe_'
'giggling_'
'gian'
'gemma_'
'fuse_'
'fulfil_'
'frying_'
'frosted_'
'forewarned_'
'foreigner_'
'flyer_'
'flooding_'
'flight'
'fishing_'
'fil'
'ffi'
'fel'
'evian_'
'everthing_'
'evacuate_'
'esthe_'
'este'
'esc'
'ert'
'err'
'erin_'
'erg'
'eng'
'endearing_'
'ena'
'elaine_'
'eir_'
'ein'
'eg'
'education_'
'edi_'
'eaton_'
'eand_'
'dum'
'dru'
'downpour_'
'diss'
'disinterest_'
'disapointing_'
'dips_'
'devo'
'des'
'delish_'
'defense_'
'decor'
'dark'
'daniel'
'dale_'
'cs'
'crowding_'
'cp'
'cousin_'
'cour'
'could'
'consumer_'
'confined_'
'concluded_'
'complied_'
'cob'
'clock'
'cleanness_'
'ci_'
'cheaply_'
'chances_'
'cham'
'cents_'
'celsius_'
'cartons_'
'capabilities_'
'cam'
'cad'
'cab'
'buta'
'bull'
'buggies_'
'bud_'
'brittany_'
'bout_'
'bouche_'
'borrowed_'
'bordered_'
'bolted_'
'benchmark_'
'bella_'
'beakfast_'
'barra'
'bai'
'az'
'ayed_'
'awe_'
'attired_'
'atlantic_'
'athe_'
'assessment_'
'assertive_'
'ask'
'aro'
'ari'
'arguments_'
'arguably_'
'architectural_'
'anticipation_'
'andour_'
'andc'
'anantara_'
'altitude_'
'altho_'
'allot'
'alli'
'agitated_'
'aggravating_'
'agenda_'
'affairs_'
'abs'
'aberdeen_'
'abb'
'58_'
'5000_'
'30pm'
'2005_'
'*_'
') , _'
' :(_'
' " , " _'
' ! ..._'
'zoe_'
'yous'
'y'
'ws'
'would'
'works'
'worked'
'woods_'
'wood'
'wipes_'
'winding_'
'whomever_'
'whistles_'
'wei'
'waters'
'wass'
'warms'
'want'
'wanna_'
'vit'
'vege'
'valve_'
'uttered_'
'uti'
'ush'
'urine_'
'uri'
'untouched_'
'untill_'
'unse'
'uns'
'unpredictable_'
'uncooperative_'
'unchanged_'
'unacceptably_'
'ula_'
'ui'
'tti'
'tranquility_'
'trace_'
'town'
'together'
'timesthe_'
'thumping_'
'thu'
'thisi_'
'thief_'
'tha_'
'tgi_'
'tas'
'tapping_'
'taipei_'
'tainted_'
'suns'
'styrofoam_'
'sty'
'strewn_'
'sticker_'
'staybridge_'
'staple_'
'stables_'
'sse_'
'spreads_'
'spat'
'sour'
'soundproofed_'
'somethings_'
'soiled_'
'slowand_'
'skimmed_'
'shoved_'
'sho'
'shannon_'
'shake'
'sewage_'
'sett'
'servicethere_'
'serviceso_'
'servants_'
'seaplane_'
'screamed_'
'scanning_'
'sanctuary_'
'sally_'
'rou'
'rosie_'
'rip'
'ried_'
'rie'
'republic_'
'reconstituted_'
'reci'
'receptionist'
'rearrange_'
'really'
'rapport_'
'rammed_'
'rable_'
'quiz_'
'quibbles_'
'puerto_'
'promo_'
'profess'
'problems'
'premiere_'
'preferring_'
'precision_'
'prec'
'poo'
'polishing_'
'plusses_'
'pleasantness_'
'plasma_'
'perth_'
'person'
'parasols_'
'paramount_'
'ow'
'origin_'
'orchids_'
'opulence_'
'oops_'
'onand_'
'notch'
'none'
'nightwe_'
'ngs'
'nets_'
'netflix_'
'ness'
'neo'
'nce'
'nag'
'myriad_'
'mul'
'mouldy_'
'motto_'
'moist_'
'ml'
'mir'
'mile'
'mer_'
'may'
'martha_'
'marriage_'
'marketplace_'
'mane'
'malfunction_'
'main'
'madison_'
'ma'
'luxuries_'
'luxe_'
'lus'
'lugging_'
'lte'
'lover_'
'lol'
'lo'
'lli'
'lip'
'lind'
'limiting_'
'lighted_'
'lic'
'liberty_'
'leslie_'
'lease_'
'lac'
'kitchen'
'kes_'
'kers_'
'jury_'
'joke'
'jetwing_'
'jersey_'
'jerry_'
'jac'
'iz'
'issues'
'ising_'
'iot'
'invoices_'
'investing_'
'inver'
'inu'
'interminable_'
'interim_'
'integrity_'
'instaff_'
'incurred_'
'imp'
'immediately'
'imagin'
'ils_'
'ih'
'ids_'
'icecream_'
'ic'
'hustled_'
'hun'
'housed_'
'hotspot_'
'hotelthey_'
'hollandaise_'
'hm'
'hindsight_'
'hh'
'helpfulo'
'helpfulcheck_'
'hay_'
'hauling_'
'happiest_'
'hanger_'
'ham'
'hailing_'
'gueststhe_'
'grills_'
'gra'
'got'
'goode'
'godsend_'
'genius_'
'gadgets_'
'freshening_'
'forum_'
'forn'
'forgiven_'
'fobbed_'
'fest_'
'fb_'
'fab'
'exuded_'
'express'
'explora_'
'experi'
'exception'
'evenings'
'eous_'
'engines_'
'ement_'
'elli'
'elevated_'
'el'
'egg'
'ega'
'east'
'dre'
'dra'
'discrepancy_'
'disclosed_'
'desi'
'deliver'
'db'
'daysthe_'
'darren_'
'darling_'
'customer'
'curbside_'
'cuc'
'crucial_'
'crowed_'
'creaky_'
'crabtree_'
'countryside_'
'coordinate_'
'consulted_'
'consist_'
'concur_'
'com'
'cm_'
'clicked_'
'christopher_'
'chloe_'
'characteristic_'
'centers_'
'cate'
'carrier_'
'carla_'
'caller_'
'bypass_'
'buzzer_'
'buton_'
'butcheck_'
'busyso_'
'bust_'
'breezy_'
'breakfaste'
'breakfastb'
'brassiere_'
'bos'
'bolt_'
'bless_'
'blasted_'
'blackpool_'
'bil'
'bie'
'been'
'beau'
'bears_'
'bari_'
'bake_'
'astounded_'
'astic_'
'assist'
'assi'
'ashtrays_'
'arte'
'aquarium_'
'aplomb_'
'anita_'
'andre_'
'andas_'
'amd_'
'amand_'
'alb'
'agnes_'
'advertisement_'
'add'
'abrasive_'
'\u_'
'71'
'64_'
'36'
'330_'
'300'
'201'
'200'
'1800_'
' … '
' ”_'
' -'
' " ?_'
' " ; _'
'yar'
'xt_'
'wre'
'wise'
'windowless_'
'welland_'
'watchful_'
'watch'
'warmers_'
'vol'
'vest'
'vendors_'
'ven'
'variety'
'uswe_'
'ust'
'usso_'
'urs'
'urg_'
'untrue_'
'unhurried_'
'underp'
'uncovered_'
'unbearably_'
'ull'
'troublesome_'
'tracey_'
'tow'
'tos'
'toppings_'
'tokens_'
'timers_'
'til'
'tide_'
'tid'
'thr_'
'thor'
'thomsons_'
'thistle_'
'therestaff_'
'thatand_'
'tale_'
'tai'
'sweetheart_'
'suspected_'
'sus'
'surgery_'
'sundry_'
'sunb'
'stru'
'striving_'
'strives_'
'street'
'stray_'
'strangest_'
'stifling_'
'staybut_'
'standpoint_'
'sservice_'
'sporadically_'
'spilling_'
'spi'
'sparkle_'
'sp'
'sours_'
'sophistication_'
'someone'
'sola'
'slid_'
'slap_'
'size'
'sirens_'
'shan'
'sewer_'
'serviceit_'
'sensibly_'
'selection'
'sas'
'sara'
's'
'ruining_'
'roomsi_'
'rocky_'
'rising_'
'ripping_'
'rib'
'rf'
'retiring_'
'resturaunt_'
'reopened_'
'rei'
'recption_'
'receptiona'
'receiption_'
'rebooked_'
'reassigned_'
'rearranged_'
'rare'
'quit'
'pulls_'
'projector_'
'pped_'
'pointers_'
'poe'
'pls_'
'please'
'piccadilly_'
'philip_'
'phil_'
'petite_'
'perceived_'
'parcs_'
'papaya_'
'papa'
'paced_'
'overshadowed_'
'outs'
'osa'
'option'
'olde_'
'okand_'
'oka'
'oi'
'offerred_'
'odo'
'odi'
'ock_'
'occur'
'occupying_'
'obligation_'
'objected_'
'nw'
'nutshell_'
'nodded_'
'nia_'
'nes'
'nei'
'negotiating_'
'needlessly_'
'modernisation_'
'misled_'
'mishaps_'
'milks_'
'miffed_'
'micro'
'men'
'medic'
'meaningful_'
'md_'
'mbo'
'maya_'
'mas_'
'mariott_'
'mansion_'
'lugged_'
'love'
'lon_'
'lom'
'log'
'locationthe_'
'loc'
'literature_'
'limited'
'lev'
'laud'
'lar_'
'lao_'
'lam'
'ladder_'
'kowloon_'
'korea_'
'kly_'
'kil'
'kicking_'
'junction_'
'juggling_'
'judgement_'
'joanna_'
'issuing_'
'iss'
'israeli_'
'iso'
'isc'
'ional_'
'insurance_'
'institutional_'
'ini'
'ings'
'influenced_'
'infant_'
'inexplicably_'
'indulge_'
'indi'
'implemented_'
'ient_'
'humming_'
'hug_'
'hollywood_'
'hit'
'highlighting_'
'hershey_'
'hereand_'
'herand_'
'helpers_'
'heidi_'
'heal'
'hass'
'gulf_'
'gul'
'group'
'greg_'
'goodw'
'goodit_'
'gooda'
'goat_'
'glove_'
'gloria_'
'gina_'
'gig_'
'geo'
'gated_'
'gate'
'gaming_'
'ft'
'framed_'
'fours_'
'formality_'
'florence_'
'flatscreen_'
'fir'
'fascinating_'
'failings_'
'extreme'
'extravagant_'
'excellents'
'esta'
'erm'
'ents_'
'eleven_'
'eat'
'duct_'
'dt'
'dso_'
'dry'
'draining_'
'dose_'
'dor'
'doorstep_'
'doorst'
'distinguishes_'
'dished_'
'dipped_'
'ding'
'diabetic_'
'derek_'
'denying_'
'decency_'
'dashed_'
'darwin_'
'cushion_'
'curt'
'cu'
'cry_'
'crushed_'
'cruises_'
'creep'
'cran'
'course'
'cos'
'cordially_'
'controller_'
'consult_'
'confess_'
'conducting_'
'compound_'
'coffeethe_'
'clerk'
'circumstance_'
'cia_'
'choc_'
'chilling_'
'chili_'
'children'
'chee'
'cheated_'
'charl'
'cave_'
'cauliflower_'
'carolina_'
'carbs_'
'cambodian_'
'cake'
'butall_'
'busybut_'
'businessman_'
'burden_'
'bullet_'
'brisbane_'
'brea'
'both'
'bold_'
'blue'
'blankly_'
'bev_'
'betty_'
'belgium_'
'bef'
'beaming_'
'bb'
'bay'
'bathmat_'
'batch_'
'bases_'
'backup_'
'baby'
'auto'
'authorized_'
'aunt_'
'asthma_'
'assess_'
'assembled_'
'asi'
'arti'
'ars'
'arch_'
'arab_'
'appearances_'
'announce_'
'ani_'
'andwhat_'
'andnot_'
'andhowever_'
'anchorage_'
'ame'
'alp'
'ait'
'advance'
'account'
'accomidating_'
'accolades_'
'ab_'
'?'
'54'
'46_'
'40am_'
'3000_'
'20min_'
'1980s_'
'04_'
'.,_'
'*._'
'* '
' .....'
' ... " _'
' ..'
' .* '
' , ) _'
' " .'
'yy'
'yuk_'
'young'
'whites_'
'white'
'waythe_'
'war'
'walled_'
'wales_'
'wad_'
'vis_'
'via'
'vene'
'vallet_'
'utt'
'ut'
'unsuccessful_'
'unsolicited_'
'unit'
'unfor'
'unen'
'undertrained_'
'undertaken_'
'uff'
'ua'
'tude_'
'tto_'
'trout_'
'trin'
'transferring_'
'train'
'tovar_'
'timeshares_'
'they'
'tere'
'telly_'
'teenager_'
'teaspoon_'
'teapots_'
'teabag_'
'tain'
'tail'
'taco_'
'tablethe_'
'swam_'
'sve'
'subdued_'
'stumbled_'
'studios_'
'stride_'
'stretching_'
'stan_'
'splurge_'
'spec_'
'souvenirs_'
'sof'
'snowed_'
'snd_'
'ska'
'shru'
'shre'
'shirley_'
'shaver_'
'sfo_'
'sey_'
'sewing_'
'serviceo'
'scope_'
'scoop_'
'sco'
'scissors_'
'samey_'
'sabrina_'
'rw'
'ruins_'
'rotana_'
'ropes_'
'roomall_'
'romance_'
'retaining_'
'reproach_'
'rep'
'reno'
'rena'
'relates_'
'reflective_'
'reducing_'
'recalled_'
'rci_'
'rap'
'randy_'
'ral_'
'rak'
'rag_'
'rag'
'quirks_'
'quid_'
'quesadilla_'
'qual'
'proves_'
'protected_'
'proc'
'priced'
'presented'
'prepay_'
'predictably_'
'pou'
'portfolio_'
'populated_'
'pops_'
'political_'
'plates'
'plat'
'places'
'pitcher_'
'pinch_'
'phoenix_'
'petr'
'personified_'
'ped'
'pea'
'pax_'
'paulo_'
'passwords_'
'panels_'
'paintings_'
'outwe_'
'outfit_'
'ottoman_'
'ors'
'oran'
'ooms_'
'ong'
'oki_'
'oke_'
'offs_'
'oak'
'oad'
'novel_'
'nom'
'noc'
'nk_'
'nis'
'nie_'
'nicholas_'
'need'
'ne'
'nch'
'nab'
'mysterious_'
'mun'
'mouths_'
'mot'
'momo_'
'modem_'
'mm'
'mist'
'millennium_'
'mill'
'mgt_'
'melanie_'
'meh'
'mee'
'me'
'mala'
'madhouse_'
'macaroni_'
'lty_'
'lle'
'livid_'
'liver'
'let'
'leg'
'laundered_'
'lak'
'kolkata_'
'kf'
'kathy_'
'kat_'
'kai'
'just'
'joshua_'
'jess_'
'je_'
'jana_'
'jama'
'ives_'
'ius_'
'ites_'
'itch'
'involvement_'
'inspire_'
'informs_'
'information'
'inefficiency_'
'inally_'
'imposition_'
'ime'
'illegal_'
'ignores_'
'ien'
'icon_'
'hw'
'ht_'
'housing_'
'hopping_'
'hermitage_'
'helpul_'
'heckin_'
'hat'
'hart'
'hallway'
'hal'
'hair'
'gymnasium_'
'gue'
'gratefully_'
'gran'
'graceful_'
'gou'
'globally_'
'glassware_'
'germans_'
'gall'
'fut'
'functioned_'
'formally_'
'form'
'forgets_'
'fora'
'foodwas_'
'foodi_'
'float'
'fiddled_'
'fei'
'fasti'
'fac'
'eyed_'
'ext_'
'exhaust_'
'ew_'
'event'
'estaurant_'
'especial_'
'escalator_'
'ervi'
'enters_'
'endorse_'
'encourages_'
'ees_'
'eed_'
'eagerly_'
'dukes_'
'dubrovnik_'
'dot'
'dor_'
'dom_'
'do'
'dle_'
'divided_'
'distressed_'
'dissappointed_'
'disgust_'
'disbelief_'
'dina'
'dig_'
'development_'
'details'
'desires_'
'describes_'
'descended_'
'departure'
'deme'
'delicacies_'
'deer_'
'deemed_'
'decked_'
'deca'
'dear'
'db_'
'daybut_'
'crush_'
'crunchy_'
'crowded'
'crabby_'
'coworkers_'
'conference'
'competitively_'
'coldthe_'
'cola_'
'coca_'
'cigars_'
'cies_'
'chunk_'
'cheerfulness_'
'chain'
'certificates_'
'cel'
'cand'
'cabaret_'
'buffer_'
'bu'
'brothers_'
'brekfast_'
'breakfeast_'
'breakfastso_'
'branding_'
'branch_'
'boost_'
'booking'
'bolton_'
'bol'
'bling_'
'bitt'
'bestbut_'
'bellstaff_'
'beacon_'
'bc_'
'basic'
'barn_'
'backpackers_'
'aug'
'ata_'
'assignments_'
'asse'
'aspire_'
'aris'
'apt_'
'antigua_'
'announcing_'
'announcement_'
'anni'
'andl'
'andan'
'amin'
'alt'
'alle'
'airf'
'ageing_'
'ag_'
'affiliated_'
'afa'
'aesthetics_'
'advises_'
'adaptors_'
'acti'
'aco'
'abused_'
'abound_'
':'
'98_'
'930_'
'900_'
'75'
'62'
'5s'
'1400_'
'05'
'03'
'"'
' —_'
' ? , _'
' ,'
' * '
' ( ! ) ._'
' ! !, _'
'ı'
'zes_'
'yuk'
'youthful_'
'yellowstone_'
'ybe_'
'worse'
'wl'
'witty_'
'winded_'
'wedding'
'wc_'
'waste'
'warner_'
'wanted'
'vis'
'vips_'
'ves'
'vera_'
'upp'
'unsurpassed_'
'unsu'
'unsettling_'
'unprofessional'
'unforgivable_'
'understaffed'
'unders'
'uld_'
'ud_'
'ual'
'turn'
'trifle_'
'trial_'
'transactions_'
'trademark_'
'torch_'
'tonics_'
'tones_'
'tne'
'tire_'
'timetable_'
'tim'
'tia_'
'these'
'therewe_'
'thee_'
'testament_'
'tes'
'terra'
'temples_'
'tempered_'
'tee'
'ted'
'tate'
'tailor_'
'sugary_'
'succeeds_'
'style'
'straightaway_'
'store'
'steam'
'stayo'
'stars'
'standouts_'
'stairwell_'
'staircases_'
'ssa_'
'spectacularly_'
'soon'
'soo'
'something'
'solicit'
'sni'
'sms_'
'smoother_'
'smoke'
'smashed_'
'smarter_'
'sked_'
'siti'
'sing'
'sine'
'silk_'
'signals_'
'sided_'
'sid'
'shore'
'shocker_'
'shattered_'
'shakes_'
'seville_'
'separates_'
'seoul_'
'sensor_'
'sens'
'savvy_'
'saturday'
'sampling_'
'sali'
'safer_'
'sack_'
'rudimentary_'
'rrived_'
'rri'
'roomthis_'
'roomsa'
'roomi'
'rocking_'
'rn_'
'reservationist_'
'rer'
'reputable_'
'repeat'
'relies_'
'rein'
'refuses_'
'refreshingly_'
'recycled_'
'rectifying_'
'recovering_'
'rec_'
'reali'
'readythe_'
'raving_'
'ram'
'ragged_'
'radi'
'racist_'
'rabbit_'
'question'
'querying_'
'provi'
'propped_'
'present'
'predicament_'
'pota'
'post'
'posed_'
'popping_'
'poli'
'pleas'
'pit'
'phillip'
'pee'
'pea_'
'pc'
'palomar_'
'overt'
'overs'
'outweigh_'
'organisers_'
'ordinarily_'
'ord'
'orbitz_'
'ooked_'
'oncierge_'
'ole'
'ocean'
'occitane_'
'nyway_'
'novelty_'
'nn'
'nikki_'
'nie'
'newcastle_'
'neglect_'
'negatively_'
'nding_'
'navigator_'
'nage'
'muslim_'
'mtr_'
'mortified_'
'mont_'
'mom'
'models_'
'mist_'
'misery_'
'miriam_'
'minute'
'midnight'
'metropol_'
'merry_'
'mercy_'
'mem'
'measured_'
'mc_'
'maui_'
'matress_'
'marl'
'mara'
'mani_'
'mandalay_'
'managerand_'
'maintainance_'
'maha'
'magnetic_'
'maggie_'
'luncheon_'
'luci'
'loudest_'
'logo_'
'lobbyand_'
'lincoln_'
'likeable_'
'lib'
'lian_'
'lh'
'lessly_'
'lemongrass_'
'lebua_'
'leaflet_'
'lattes_'
'large'
'lain'
'kis'
'kindthe_'
'keyed_'
'ket'
'ken'
'jewelry_'
'jenn'
'jav'
'iza'
'ist'
'issa'
'instruct_'
'inle'
'inis'
'independently_'
'incre'
'inadvertently_'
'ika_'
'idi'
'hurts_'
'hurry'
'hunting_'
'humans_'
'hua_'
'however'
'housekeep'
'hotelso_'
'hos'
'hoi_'
'hin_'
'hikes_'
'hic'
'heri'
'helpfulbreakfast_'
'helfpul_'
'heel_'
'hed'
'hang'
'hams_'
'hale'
'guys'
'gs'
'grump'
'grading_'
'graciousness_'
'graces_'
'gon'
'gob'
'gi_'
'georgia_'
'gels_'
'gat'
'gamble_'
'gai'
'fund'
'fruity_'
'frown_'
'frin'
'friendlyi_'
'frendly_'
'freeview_'
'fon'
'followup_'
'foi'
'floori_'
'flavorful_'
'flashlight_'
'flaky_'
'fficient_'
'fet'
'fernando_'
'felix_'
'farm'
'family'
'exploit'
'explicitly_'
'expeditious_'
'expand_'
'excell'
'exaggeration_'
'eta'
'eso'
'erc'
'ensuite_'
'ened_'
'enc'
'een'
'edin'
'eda'
'eco'
'earshot_'
'eable_'
'dread_'
'doubling_'
'dos'
'doc'
'distinguished_'
'disrespect_'
'dispensing_'
'discouraged_'
'discontinued_'
'discarded_'
'dint_'
'differentiate_'
'diets_'
'df'
'develop_'
'detriment_'
'ders_'
'decides_'
'decaff_'
'deal'
'dbut_'
'date'
'dari'
'cumberland_'
'creamy_'
'cranberry_'
'cr'
'coul'
'cot'
'cooked'
'conveyor_'
'contra'
'comply_'
'commonly_'
'comedian_'
'combining_'
'colorado_'
'coffeeand_'
'coded_'
'clu'
'churchill_'
'choicethe_'
'chedi_'
'chari'
'characterful_'
'chandelier_'
'ceo_'
'cei'
'cea'
'cdg_'
'cave'
'cata'
'carr'
'capability_'
'camp'
'buta_'
'bryan_'
'browsing_'
'broth_'
'brit_'
'bren'
'breakfastcheck_'
'breach_'
'brazil_'
'brass_'
'bounced_'
'boc'
'blind'
'berna_'
'berg_'
'believing_'
'begun_'
'befitting_'
'bec'
'beaut'
'bathroomthe_'
'bank'
'avo'
'aver'
'availed_'
'attitude'
'attends_'
'ath_'
'ately_'
'assumption_'
'ase'
'arthur_'
'ares'
'arabian_'
'api'
'ans'
'ank_'
'amidst_'
'amazes_'
'alls_'
'aggressively_'
'aggravation_'
'againwe_'
'aga'
'adventurous_'
'ads_'
'acu'
'aci'
'ache_'
'accompaniments_'
'acceptable'
'77_'
'750_'
'630_'
'4star_'
'190_'
'175_'
'15min_'
'01'
') '
' •_'
' ? ) '
' ." '
' . ) , _'
' - ( _'
'‘ _'
'zl'
'yu_'
'yp'
'ybut_'
'xt'
'wy'
'who'
'whitbread_'
'wat'
'wasgreat_'
'warmthe_'
'walkie_'
'walk'
'waist_'
'vocal_'
'vn'
'virtual_'
'vil'
'views'
'verge_'
'ved'
'usekeeping_'
'unresolved_'
'unpa'
'unin'
'unfa'
'unb'
'ums_'
'uit'
'ual_'
'tub'
'trident_'
'transient_'
'transatlantic_'
'tracks_'
'towel'
'tossed_'
'toss_'
'tongue_'
'tomas_'
'toby_'
'tional_'
'tiered_'
'tici'
'tia'
'thought'
'thou'
'therwise_'
'thema'
'terrine_'
'tered_'
'tep'
'tenerife_'
'tempura_'
'tely_'
'teacher_'
'tattoos_'
'tari'
'tar_'
'sympathi'
'sylvia_'
'superlatives_'
'sunwing_'
'structural_'
'stinks_'
'sthey_'
'ster'
'steak'
'stayed'
'status'
'stages_'
'staffed'
'staffa'
'sr'
'speed'
'speechless_'
'spec'
'sous_'
'sound'
'soc'
'sne'
'smokey_'
'smirk'
'smell'
'sl'
'sizeable_'
'sive'
'simpler_'
'signatures_'
'shortcoming_'
'short'
'shoot_'
'shipping_'
'shinjuku_'
'shing_'
'shel'
'shangrila_'
'shaft_'
'sex'
'servicea'
'servery_'
'serivce_'
'ser_'
'sentiment'
'sensed_'
'scratches_'
'scraped_'
'scot'
'sav'
'samuel_'
'saga_'
'rvi'
'rum'
'rst'
'rous_'
'rot'
'ros_'
'roomsi'
'roomc'
'riviera_'
'rivals_'
'rich'
'revamped_'
'rev'
'reservations'
'representation_'
'repo'
'relying_'
'reg_'
'ref'
'recycle_'
'recharge_'
'receptionwe_'
'reason'
'raucous_'
'ramsey_'
'ram_'
'rahul_'
'provisions_'
'program'
'produces_'
'pricey'
'prestige_'
'preserves_'
'prea'
'powered_'
'pos'
'polynesian_'
'pli'
'pleasure'
'pio'
'pine'
'pillows'
'pic'
'phu'
'photograph_'
'penn'
'pending_'
'peer'
'pedi'
'pecially_'
'paul'
'parmesan_'
'paint'
'oxygen_'
'outla'
'ounce_'
'osi'
'oni'
'okura_'
'oint'
'oh'
'oft'
'nusa_'
'norwegian_'
'nit'
'nim'
'nightsthe_'
'nic'
'niagara_'
'news'
'nest_'
'ner'
'nel'
'nder_'
'muster_'
'mr'
'mpl'
'monte'
'mol'
'modernity_'
'mixers_'
'misunderstandings_'
'misinformation_'
'minimalistic_'
'mille'
'microwaves_'
'meso_'
'merrion_'
'mel'
'meatballs_'
'mauritius_'
'mary'
'marg'
'marcus_'
'marc_'
'manner'
'managerthe_'
'malt_'
'mailing_'
'madness_'
'luc'
'lr'
'lottery_'
'lil'
'lig'
'lg'
'leon'
'lem'
'launch_'
'lakes_'
'kra'
'kor'
'kla'
'kits_'
'kap'
'kab'
'jaz'
'irre'
'ira'
'ioned_'
'iona'
'into'
'intimacy_'
'intact_'
'inside'
'ingredient_'
'infront_'
'indians_'
'inclu'
'impe'
'identifying_'
'identification_'
'ial'
'hustling_'
'hugo_'
'hotelw'
'hotelthis_'
'horses_'
'hol'
'hir'
'hideous_'
'hhonor_'
'heli'
'heights_'
'healthier_'
'health'
'hates_'
'han'
'halloween_'
'gushing_'
'guitar_'
'groceries_'
'gr'
'gni'
'gle'
'gardening_'
'fuss'
'fumes_'
'friendlya'
'frie'
'frenetic_'
'fred_'
'foodw'
'foodbut_'
'floral_'
'floorand_'
'flimsy_'
'fle'
'flavourless_'
'fizzy_'
'finger'
'filed_'
'fend_'
'females_'
'fabulously_'
'expressions_'
'expect'
'expecially_'
'exhausting_'
'execute_'
'excus'
'exc'
'everyones_'
'esh'
'ep_'
'eno'
'employing_'
'edwardian_'
'ed'
'dv'
'dua_'
'drinkthe_'
'dreaded_'
'doors'
'dona'
'dolphins_'
'doi'
'distraction_'
'distract_'
'disrupted_'
'disarray_'
'disabilities_'
'dip'
'dill'
'dignity_'
'differing_'
'delectable_'
'deco'
'damper_'
'dam_'
'dal'
'cult'
'cube_'
'critic'
'cow_'
'courtney_'
'courtesies_'
'correspond'
'correction_'
'correct'
'corp_'
'cora'
'coolest_'
'conversing_'
'conversant_'
'coni'
'conditioners_'
'conde'
'concentrated_'
'component_'
'complements_'
'comping_'
'comparatively_'
'comforters_'
'comfort'
'cn'
'clinic_'
'cide'
'cheat_'
'cen'
'cay'
'caveat_'
'cath'
'casinos_'
'caravan_'
'campus_'
'cali'
'caf'
'butp'
'bunk_'
'bu_'
'broom_'
'broad'
'britain_'
'brain_'
'brag_'
'bod'
'boat'
'blower_'
'blip_'
'bland'
'bidet_'
'bicycle_'
'biased_'
'bettered_'
'benjamin_'
'bending_'
'benches_'
'belie'
'bean'
'bc'
'awaken_'
'averagethe_'
'austrian_'
'aura_'
'atte'
'att'
'asy_'
'asa'
'artist_'
'armani_'
'arm'
'archery_'
'aran'
'anthe'
'ante'
'anta'
'annoys_'
'andhow_'
'andfriendly_'
'andfood_'
'amer'
'ament'
'alone'
'alli_'
'alis'
'alcove_'
'aki'
'afe'
'adverse_'
'adopt_'
'access'
'accept'
'abu'
'abilities_'
'= _'
'73_'
'60s_'
'48'
'240_'
'2004_'
'1100_'
'109_'
'..'
'++ _'
'('
'! _'
' ?- _'
' ?( _'
' ? '_'
' : ) _'
' ) + _'
' $ $ _'
' ! ) .'
' ! )'
' ! !'
'zer'
'yog'
'yn'
'yielded_'
'yal'
'xa'
'wrapping_'
'wir'
'wich_'
'whip_'
'wether_'
'wed'
'we'
'wasand_'
'vivanta_'
'vity_'
'vibrate'
'veteran_'
'velo'
'vee'
'valet'
'vac'
'uth_'
'unus'
'unrel'
'unpro'
'unp'
'unh'
'unfinished_'
'uncon'
'un'
'uh_'
'tyler_'
'tummy_'
'tul'
'tting_'
'tric'
'translated_'
'trams_'
'tot'
'toothe_'
'to'
'tle'
'titanium_'
'tiger_'
'tian_'
'thri'
'theres'
'themi_'
'thati_'
'terri'
'tena'
'teaching_'
'tch_'
'tb'
'tasking_'
'taped_'
'tant'
'talk'
'talent_'
'tal_'
'sweltering_'
'swapping_'
'supp'
'suc'
'subjective_'
'su'
'stylishly_'
'styling_'
'streamlined_'
'staywe_'
'staye'
'stationary_'
'stat'
'staffcheck_'
'sso'
'squi'
'spo'
'splitting_'
'spared_'
'southwest_'
'sorbet_'
'sod'
'sob'
'so'
'snug_'
'snail_'
'snacks'
'sm'
'slips_'
'slate_'
'skeptical_'
'sk_'
'sidewalk_'
'shined_'
'shadow_'
'segments_'
'seen'
'securely_'
'scra'
'sation_'
'saloon_'
'ruben_'
'royale_'
'roosevelt_'
'roomw'
'roomthere_'
'roomss'
'rol'
'rode_'
'riser_'
'ripoff_'
'revi'
'revellers_'
'returnthe_'
'resta'
'responsibilities_'
'resource_'
'reso'
'resaurant_'
'requests'
'reprogrammed_'
'repellent_'
'repa'
'remotes_'
'reli'
'reiterate_'
'reinforced_'
'redi'
'reat'
'raz'
'raf'
'racing_'
'qa'
'protracted_'
'priv'
'preventing_'
'predict'
'postcard_'
'postage_'
'porterage_'
'ponder'
'politic'
'platinums_'
'picturesque_'
'pick'
'phrases_'
'personal'
'peoples'
'pear_'
'pb'
'payable_'
'patronage_'
'passage_'
'pani'
'pala'
'padd'
'pac'
'oz'
'overseen_'
'overe'
'overco'
'outw'
'outr'
'ound_'
'othing_'
'oslo_'
'oor_'
'online'
'ona_'
'olympic_'
'oir'
'occurring_'
'noisiest_'
'niti'
'nicew'
'nge'
'newark_'
'ndo'
'nav_'
'nau'
'nak'
'muttered_'
'multi'
'mud'
'mozzarella_'
'mornings'
'morningi_'
'mori'
'monument_'
'monthly_'
'moi'
'modestly_'
'modern'
'miracle_'
'metre_'
'meg'
'mber'
'maurya_'
'materialized_'
'mask'
'marilyn_'
'mang'
'maltese_'
'makings_'
'lyand_'
'lve'
'lu'
'lowry_'
'louis'
'loses_'
'loosing_'
'lock'
'llo'
'lla'
'liquors_'
'licence_'
'leaks_'
'leaflets_'
'language'
'lago'
'kt'
'kle'
'kitted_'
'kir'
'kerry_'
'kayak'
'kay_'
'katrina_'
'kari'
'kara'
'joints_'
'jock'
'jen_'
'jell'
'jas'
'jai'
'itthey_'
'isolation_'
'isn'
'isle_'
'irrespective_'
'irrelevant_'
'ioni'
'invaluable_'
'interval_'
'installing_'
'inl'
'ink'
'ingre'
'indicator_'
'inco'
'ilit'
'ign'
'idyllic_'
'iate'
'ially_'
'husband'
'hurst_'
'hub_'
'hoteli'
'hotelcheck_'
'horn_'
'hopeful_'
'hongkong_'
'honey'
'homethe_'
'hold'
'hoi'
'hog_'
'hoe'
'hk'
'helpthe_'
'helpfulso_'
'heatwave_'
'headboard_'
'hau'
'hastily_'
'happythe_'
'handlers_'
'hamp'
'hab'
'guarantees_'
'gt'
'grunt_'
'grumpi'
'gret'
'greats_'
'gouge_'
'gossip_'
'goodespecially_'
'gong_'
'golfer_'
'goldfish_'
'goings_'
'gne'
'glimpse_'
'glasshouse_'
'glamour_'
'gio'
'gig'
'ghastly_'
'gers_'
'generate_'
'gene'
'gee'
'gbp'
'gateway_'
'galore_'
'friends'
'frantically_'
'fr'
'forthe_'
'foodwe_'
'fly'
'flakes_'
'fiendly_'
'ffe'
'fever_'
'feeling'
'fears_'
'fashionable_'
'facility'
'eze_'
'extends_'
'exten'
'excused_'
'excl'
'ett'
'establish_'
'envelopes_'
'ente'
'enta'
'enabling_'
'empty'
'emphasise_'
'eme'
'embar'
'elsewhere'
'elses_'
'els'
'eliminated_'
'edward_'
'eded_'
'eau_'
'earns_'
'dying_'
'dw'
'duplex_'
'dron'
'drift'
'donald_'
'dle'
'divi'
'distress_'
'disappointing'
'dil'
'dge'
'desktop_'
'deskso_'
'design'
'deg'
'definetely_'
'deactivated_'
'dde'
'davi'
'das_'
'cum_'
'crou'
'critique_'
'crime_'
'creativity_'
'council_'
'costumer_'
'coolers_'
'contributors_'
'conserv'
'congress_'
'complete'
'complaints'
'communicat'
'commit_'
'colourful_'
'colon'
'colo'
'coffees'
'coeliac_'
'cocoa_'
'cloying_'
'clip_'
'clientel'
'clea'
'clayton_'
'clarified_'
'cl'
'citing_'
'circulation_'
'circuit_'
'chooses_'
'chin_'
'cher_'
'cheque_'
'cheered_'
'chand'
'chan_'
'chalets_'
'ceased_'
'cash'
'carte'
'carpeted_'
'cari'
'capitol_'
'cano'
'call'
'cale'
'bygone_'
'bw'
'busyand_'
'bust'
'burmese_'
'bumping_'
'brewery_'
'brekky_'
'bree'
'breathe_'
'br_'
'boun'
'bose_'
'boot'
'bombay_'
'blt_'
'bl'
'bk'
'beverly_'
'bespoke_'
'bert'
'belonging_'
'belonged_'
'bele'
'beat'
'bea'
'basi'
'barw'
'bagged_'
'badthe_'
'backpack_'
'aways_'
'avia'
'attentively_'
'asso'
'ass'
'asc'
'ars_'
'arri'
'arn'
'arl'
'ard'
'arb'
'aqua'
'apathy_'
'ao_'
'ane_'
'andth'
'amr'
'ami_'
'amended_'
'amb'
'alu'
'alf'
'aff'
'actioned_'
'acio'
'accus'
'accosted_'
'accessibility_'
'95'
'90s_'
'84_'
'81'
'78_'
'74_'
'70th_'
'63_'
'62_'
'54_'
'47'
'35th_'
'2003_'
'1130_'
'105_'
' ? ? ) _'
' ;-)_'
' :) ._'
' ........... _'
' ,( _'
' ) .. _'
'yl_'
'ye_'
'xe'
'wyn'
'wt'
'workingthe_'
'wk'
'wish'
'willi'
'whistle_'
'whichever_'
'wha'
'wedged_'
'web'
'weather'
'wea'
'warrants_'
'wardrobes_'
'wand'
'wah'
'vul'
'vpn_'
'vivian_'
'vie'
'vibes_'
'viable_'
'uv'
'ution_'
'ustomer_'
'usit_'
'urt'
'ure'
'uous_'
'unreasonably_'
'unreal_'
'unm'
'unhygienic_'
'unfriendliness_'
'unexceptional_'
'understaffing_'
'unct'
'uncoordinated_'
'unaccommodating_'
'uma_'
'uma'
'uf'
'uce'
'tres'
'trepidation_'
'tray'
'travelocity_'
'trait_'
'tr'
'tors_'
'tis_'
'tiredness_'
'tightly_'
'tier'
'thompson_'
'tent'
'tel'
'tasti'
'tarnished_'
'switchboard_'
'swiping_'
'swe'
'suck_'
'subs'
'stunk_'
'stuffs_'
'strips_'
'stripped_'
'strat'
'stor'
'stodgy_'
'stock'
'stately_'
'stamps_'
'stal'
'staggered_'
'staffe'
'staffbreakfast_'
'sri'
'sq_'
'spreading_'
'spot'
'sparsely_'
'spacious'
'sothe_'
'solitary_'
'snarky_'
'snag_'
'slum'
'skipping_'
'ski'
'sita'
'simil'
'sideways_'
'shortfalls_'
'sheep_'
'sharply_'
'sf'
'servicem'
'seri'
'selective_'
'sel_'
'sector_'
'secretary_'
'seater_'
'seafront_'
'sd_'
'sculptures_'
'screening_'
'scowl'
'science_'
'scant_'
'scanned_'
'scampi_'
'scaffolding_'
'savo'
'samples_'
'sall_'
'saffron_'
'rust_'
'rui'
'rosette_'
'roomso'
'roomse'
'roomd'
'rooma_'
'roma'
'rog'
'rod'
'roam_'
'roa'
'rk'
'risers_'
'ril'
'rights_'
'rif'
'returns_'
'residential_'
'rele'
'relay_'
'rehearsed_'
'receptionstaff_'
'receptions'
'rec'
'rea_'
'rav'
'ratt'
'rash'
'raj'
'raises_'
'raining'
'raid_'
'rage_'
'race'
'quilt_'
'quieted_'
'qi'
'putt'
'push'
'pune_'
'prostitutes_'
'props_'
'prone_'
'prominent_'
'pomp'
'plague_'
'pittsburgh_'
'pillars_'
'phe'
'pepper'
'pajamas_'
'paella_'
'owl'
'outfitted_'
'outf'
'oti'
'orn'
'orderthe_'
'orders'
'opus_'
'ono'
'oneself_'
'omnipresent_'
'olympics_'
'ola'
'oki'
'okey_'
'ofcourse_'
'occupie'
'occa'
'obscene_'
'oa'
'number'
'nth'
'nte_'
'nsive_'
'nr'
'np'
'notion_'
'nominal_'
'nity_'
'nines_'
'nig'
'niceties_'
'nicethey_'
'ngthe_'
'ners_'
'nera'
'nep'
'nego'
'nde'
'nced_'
'naughty_'
'nama'
'mush_'
'mthe_'
'mpe'
'mouth'
'moneythe_'
'mond'
'moa'
'mn_'
'mix'
'misunderstood_'
'mints_'
'mew'
'metropolitan_'
'mess'
'meni'
'meeting'
'medal_'
'maître_'
'math_'
'margarine_'
'margaret_'
'maneuver_'
'mal'
'maintenence_'
'magazine_'
'machinery_'
'maa'
'ls'
'lord_'
'lollies_'
'logs_'
'lm'
'live'
'lemon'
'leasant_'
'le'
'law'
'laurels_'
'lasts_'
'lal'
'kon'
'kl'
'kerri_'
'kayla_'
'katy_'
'kata'
'kas'
'joey_'
'jn'
'jeffrey_'
'janice_'
'ited_'
'ite'
'isha'
'irony_'
'ipa_'
'ip_'
'ions'
'intolerable_'
'interns_'
'intere'
'inkaterra_'
'ingbut_'
'inflat'
'indo'
'incu'
'inconveniencing_'
'incomprehensible_'
'inch'
'ince_'
'inca'
'imo'
'immediatly_'
'images_'
'ima'
'ilt'
'ik'
'ibi'
'hus_'
'hq_'
'hotelall_'
'hope'
'honoring_'
'herb_'
'henri'
'helpings_'
'hazel_'
'haunted_'
'hara'
'happened'
'hap'
'hairdresser_'
'gue_'
'grigio_'
'gram'
'goof'
'goa'
'glue_'
'glorified_'
'gla'
'gill'
'gge'
'gel'
'gay'
'garb'
'gam'
'furnace_'
'funny'
'froze_'
'fresco_'
'frank'
'fr_'
'forma'
'foc_'
'fob_'
'floored_'
'flatter'
'files_'
'fib'
'feature'
'faxed_'
'faceless_'
'fa_'
'eye'
'extemely_'
'exquisitely_'
'experiences'
'excluded_'
'europe'
'etta_'
'ett_'
'est'
'esque_'
'especialy_'
'erra'
'entre'
'entrance'
'entice_'
'enforcing_'
'encounted_'
'ely'
'els_'
'effects_'
'eem'
'ee'
'edly_'
'edi'
'edgar_'
'earning_'
'dysfunctional_'
'dubious_'
'drum_'
'drowned_'
'dripped_'
'draws_'
'draw'
'double'
'dothe_'
'doorthe_'
'dolphin_'
'doing'
'doa'
'dl'
'divers_'
'displaying_'
'discourage_'
'dinners'
'din'
'dict'
'desks'
'descript_'
'deposited_'
'denial_'
'demi'
'deceptive_'
'decaffeinated_'
'debited_'
'dau'
'dating_'
'darken'
'cure_'
'cupcakes_'
'ctor'
'cristina_'
'cous_'
'costumes_'
'cosmetics_'
'coordinating_'
'conversely_'
'continent_'
'contempt_'
'cone'
'concierage_'
'conceded_'
'compote_'
'coldest_'
'coast'
'closets_'
'client'
'cleanup_'
'clam_'
'circles_'
'chutney_'
'chuck_'
'chin'
'child'
'cheddar_'
'chalk_'
'cent'
'catal'
'carved_'
'cambridge_'
'cala'
'cafet'
'butnothing_'
'buti'
'busywe_'
'burritos_'
'burner_'
'bureau_'
'buff'
'buddy_'
'buck'
'bt_'
'bright'
'brian'
'breathing_'
'breakfast'
'braz'
'brave_'
'bounds_'
'boul'
'boon_'
'boathouse_'
'blueberries_'
'blasé_'
'blackberry_'
'bis'
'bh'
'bewildered_'
'bern'
'beg'
'bedi_'
'beard_'
'bark_'
'barcelo_'
'balloon_'
'baffled_'
'bacon'
'awsome_'
'aweful_'
'aug_'
'attributed_'
'ats_'
'ator_'
'arora_'
'argentina_'
'ards_'
'arche'
'arch'
'appro'
'applicable_'
'appa'
'anyone'
'anu'
'antly_'
'animated_'
'angkor_'
'angie_'
'andin'
'andi'
'amusement_'
'amenities'
'amelia_'
'altered_'
'allo'
'allit_'
'alerting_'
'aka'
'agent'
'affecting_'
'adj'
'act'
'accord_'
'accommodates_'
'absurdly_'
'76_'
'71_'
'63'
'60th_'
'5mins_'
'56'
'47_'
'46'
'43'
'1960_'
'150'
'140'
'110'
'0700_'
'03_'
'" ( _'
' ]_'
' ? " '
' ;)_'
' : )_'
' ...( _'
' ... ) , _'
' " ) , _'
'”_'
'— _'
'zie'
'zer_'
'yd'
'worker'
'woo_'
'wn'
'width_'
'went'
'wella'
'weak'
'waver'
'wat_'
'warners_'
'walkable_'
'wage_'
'waft'
'vr'
'vocabulary_'
'vl'
'visitthe_'
'vert_'
'variations_'
'varia'
'utility_'
'utilitarian_'
'uta'
'usher_'
'upright_'
'until'
'unma'
'unkind_'
'unkempt_'
'unhe'
'uneaten_'
'uncle_'
'una_'
'umm'
'ular_'
'uck'
'uat'
'twin'
'tues_'
'troubling_'
'troubled_'
'travell'
'tp'
'towns_'
'touted_'
'touchthe_'
'tom'
'tol'
'toileteries_'
'tog'
'tisf'
'tikka_'
'tidy'
'thiss'
'thembut_'
'thel'
'thei'
'thb_'
'thank'
'tense_'
'tati'
'tap'
'tanzania_'
'tah'
'swimmingpool_'
'sweep_'
'sunday'
'summarise_'
'sui'
'stunningly_'
'stuart_'
'stroller_'
'strengths_'
'straight'
'stin'
'stee'
'steaming_'
'ste'
'stayer_'
'staffit_'
'stab'
'squeezing_'
'spread'
'sprays_'
'spiel_'
'spic'
'spathe_'
'spark_'
'sow'
'sophia_'
'sop'
'solid'
'soho_'
'socializing_'
'sniff'
'sneaky_'
'smack'
'sli'
'singular_'
'sic'
'sia_'
'shut'
'shou'
'share'
'sham'
'sexy_'
'serviceall_'
'serv'
'seg'
'seagulls_'
'scum_'
'screams_'
'scowl_'
'scare_'
'scandic_'
'savory_'
'sans_'
'sanitize'
'sama'
'salute_'
'safe'
'runner_'
'rse'
'rp'
'rose'
'roomh'
'rity_'
'rin_'
'ribeye_'
'rey_'
'revel'
'restarant_'
'respectively_'
'resemble_'
'researched_'
'rer_'
'requ'
'repu'
'reopen_'
'rentals_'
'relish_'
'relais_'
'regi'
'rega'
'refunds_'
'rect'
'recommendthe_'
'reb'
'read'
'rdered_'
'rce'
'rar'
'ran'
'rame'
'rab'
'que'
'qatar_'
'puzzling_'
'pumps_'
'pumpkin_'
'pumped_'
'proven_'
'procure'
'problemand_'
'privileged_'
'prim'
'prest'
'presidents_'
'preferential_'
'pray'
'ppy_'
'pp'
'popularity_'
'pole_'
'pmso_'
'pmi_'
'ploy_'
'pl'
'pigs_'
'phoneand_'
'peruvian_'
'persist_'
'pel'
'pavillion_'
'pavement_'
'pause_'
'partie'
'pant'
'panc'
'palates_'
'padding_'
'overdoing_'
'overal_'
'outso_'
'outnumbered_'
'outlined_'
'outa'
'othe_'
'ort_'
'ond'
'omlet_'
'oko'
'oin'
'office'
'offense_'
'ode'
'obst'
'objection_'
'obby_'
'o2_'
'nter'
'nove'
'noti'
'norman'
'nondescript_'
'nni'
'ninth_'
'ning'
'nil_'
'nighta'
'nial'
'netherlands_'
'nell'
'neg'
'needed'
'nee'
'nant_'
'mysteriously_'
'mt'
'moon'
'molton_'
'mobiles_'
'misc'
'minutesand_'
'minuscule_'
'minu'
'minimally_'
'mick'
'mena'
'mela'
'maz'
'massage'
'marrakech_'
'marketed_'
'marion_'
'marc'
'map'
'malfunctioned_'
'maintenance'
'maintainence_'
'magnolia_'
'macdonalds_'
'lt_'
'lovelya'
'loung_'
'los'
'lls_'
'lling_'
'lifts'
'ley'
'lex'
'lers_'
'lemons_'
'laundromat_'
'last'
'l'
'knot'
'kia'
'kep'
'kebabs_'
'kan_'
'jurys_'
'jou'
'jogging_'
'jit'
'jessie_'
'jes'
'ject'
'jay'
'jar'
'itte'
'itm'
'items'
'italian'
'ished_'
'irritations_'
'ipa'
'intercom_'
'insta'
'inoperative_'
'inf'
'induc'
'indications_'
'inconvience_'
'incomp'
'included'
'inat'
'imported_'
'ieve'
'idly_'
'ida'
'hv_'
'hus'
'huh_'
'hose'
'hood_'
'holl'
'hiltonhonors_'
'herd_'
'helpfulw'
'hellos_'
'headphones_'
'haute_'
'hassan_'
'halves_'
'gy'
'guy'
'gum'
'granite_'
'goose_'
'gold'
'glum_'
'glow_'
'globalist_'
'glamorous_'
'gigantic_'
'gib'
'ghan'
'gerald_'
'gen_'
'gem'
'garden'
'frightened_'
'fridge'
'fraud_'
'fountains_'
'forte_'
'fors'
'forgo_'
'foodth'
'flowed_'
'floorboards_'
'flamenco_'
'flam'
'fix'
'fijian_'
'fig_'
'ffer'
'ferr'
'feel'
'favoured_'
'faucets_'
'fancier_'
'famed_'
'extremley_'
'extrem'
'expresses_'
'explored_'
'expectations'
'everytime'
'eth'
'etcand_'
'estimated_'
'esa'
'eople_'
'enoughthe_'
'embers_'
'ell'
'eliminate_'
'eld'
'eff'
'eatable_'
'easy'
'eas'
'ean_'
'ean'
'ead'
'dud'
'ducks_'
'du'
'dotted_'
'dorm'
'domini'
'doll'
'docking_'
'distracting_'
'distinctive_'
'disrepair_'
'disease_'
'discretionary_'
'discretely_'
'disconnecting_'
'disclaimer_'
'disappointment'
'disappointed'
'directors_'
'detect'
'detail'
'desp'
'deliberate_'
'defeat'
'deadbolt_'
'daisy_'
'cud'
'cuc_'
'crumb'
'cracker_'
'courier_'
'count'
'cott'
'cort'
'copied_'
'contribute_'
'contend_'
'consultant_'
'console_'
'condition'
'conceriege_'
'conce'
'complement'
'competently_'
'commotion_'
'committ'
'commitments_'
'commensurate_'
'commenced_'
'comfy'
'columbus_'
'colorful_'
'collins_'
'collegues_'
'coffe'
'clothe'
'cler'
'cistern_'
'cing_'
'chos'
'chit'
'chips'
'chilean_'
'chf_'
'chaise_'
'celebrities_'
'carri'
'cards'
'carb_'
'cane_'
'canberra_'
'camps_'
'bv'
'butthere_'
'butso_'
'buton'
'bute'
'buss'
'bumps_'
'bui'
'bts_'
'bs'
'breakfastservice_'
'breakfastm'
'braised_'
'bracelets_'
'box'
'bomb_'
'boisterous_'
'bodies_'
'bobby_'
'blow'
'blink_'
'blended_'
'blen'
'bleach_'
'bish'
'bedlam_'
'bear'
'beams_'
'bau'
'battle'
'bash'
'barre'
'barged_'
'bap'
'bangalore_'
'band'
'balk'
'baileys_'
'baffling_'
'availablethe_'
'austere_'
'attent'
'attendents_'
'atr'
'astonishingly_'
'aru'
'arts_'
'arre'
'armed_'
'arevery_'
'areaand_'
'appreciates_'
'appo'
'apple'
'appetisers_'
'appease_'
'appaling_'
'ap'
'antiques_'
'andma'
'andif_'
'andfront_'
'ams'
'amaz'
'amari'
'als'
'alon'
'alm'
'ally'
'allot_'
'alison_'
'aite'
'aid'
'againa'
'adhered_'
'ack'
'accor'
'abut_'
'? ?_'
'? '
'830_'
'64'
'500'
'45mins_'
'301_'
'24x7_'
'225_'
'20pm_'
'2019_'
'19'
'121'
'0800_'
',._'
'%'
' ° _'
' : • _'
' .> _'
' .' _'
' ( ' _'
' " : _'
' " .. _'
' ! ! ! ! ! '
' ! ! !'
'€ _'
'ée'
'zin'
'youtube_'
'york'
'yh'
'yer'
'yep_'
'yea_'
'yc'
'yam'
'xed_'
'wristband_'
'wow'
'workable_'
'word'
'wol'
'wlan_'
'whopping_'
'whispered_'
'when'
'westbury_'
'welcomingthe_'
'weeks'
'weed_'
'website'
'watt'
'watersports_'
'waterslide_'
'wasstaff_'
'ward_'
'waf'
'vy_'
'visits'
'vie_'
'venturing_'
'vati'
'vase_'
'uz'
'usu'
'upa'
'untr'
'unt_'
'unsurprisingly_'
'unres'
'unre'
'unpleasantly_'
'uneasy_'
'uin'
'uil'
'ub_'
'uar'
'ture_'
'tui'
'tuck_'
'tst'
'truffles_'
'transparent_'
'tran'
'toi'
'tobacco_'
'tipp'
'tine'
'timest'
'till'
'tica'
'thrice_'
'thorough'
'think'
'thick'
'thew'
'therapy_'
'themes_'
'thatw'
'terrasse_'
'termin'
'tenth_'
'tenner_'
'tender'
'teat'
'tay_'
'tash'
'takeout_'
'tailored_'
'tack'
'taba'
'sweden_'
'swanky_'
'swan_'
'suv_'
'sustain'
'suprisingly_'
'summari'
'subm'
'sua'
'strip'
'stress'
'strain_'
'steered_'
'stayh'
'startled_'
'starch'
'stamped_'
'stairway_'
'stag'
'staffw'
'stacey_'
'spill_'
'spider_'
'spect'
'specialise'
'spar_'
'spam_'
'south'
'sot'
'soso_'
'sos'
'somewhere'
'som_'
'soft'
'sofabed_'
'snowing_'
'smart'
'slu'
'skybar_'
'skin'
'skimp_'
'skills'
'singaporean_'
'simple'
'signal'
'shoving_'
'shiraz_'
'shelter_'
'sheila_'
'shaky_'
'servie'
'sele'
'seaw'
'seams_'
'scru'
'screw'
'sche'
'sc'
'sauna'
'sanj'
'samp'
'ryder_'
'rump_'
'rsi'
'roped_'
'roomwhen_'
'roomst'
'roof'
'rome'
'rocked_'
'roasts_'
'rious_'
'riad_'
'rge'
'rey'
'rew'
'reve'
'returning'
'retun'
'rett'
'restaura'
'respect'
'resp'
'remade_'
'relo'
'relentless_'
'relegated_'
'regent_'
'refrigerated_'
'refr'
'refinement_'
'redecoration_'
'recommended'
'rebu'
'rebooted_'
'rebook_'
'reas'
'raven'
'raul_'
'rats_'
'rating'
'raph'
'ramsay_'
'rama'
'rally_'
'rah'
'quent'
'queing_'
'quebec_'
'punters_'
'puk'
'pros'
'prop'
'profession'
'problemthe_'
'prevalent_'
'prem_'
'porta'
'population_'
'poorthe_'
'poll'
'pointe'
'pn'
'plaster_'
'pier'
'philadelphia_'
'phase_'
'persons'
'perf'
'pep'
'pent'
'peaches_'
'patios_'
'pars'
'parrot_'
'parr'
'pamela_'
'package'
'owe_'
'overload_'
'overcharging_'
'outp'
'outlining_'
'ouse_'
'oso'
'orn_'
'org'
'opting_'
'ope'
'oneand_'
'oked_'
'ois_'
'offending_'
'oe_'
'obstructed_'
'oba'
'numbers'
'nothi'
'nose'
'nm'
'nikko_'
'nightw'
'nightlife_'
'nicol'
'niche_'
'nga'
'necessitated_'
'nearby'
'nea'
'nder'
'namaste_'
'nair'
'mut'
'must'
'murder_'
'multitude_'
'mpt'
'moved'
'mouthed_'
'mothers_'
'morgan_'
'morale_'
'mopped_'
'minutesthe_'
'miniscule_'
'mindset_'
'mimi_'
'mex_'
'methey_'
'mes_'
'ments'
'meli'
'mb'
'mazing_'
'mayonnaise_'
'maya'
'margi'
'manu'
'mant'
'malay_'
'mak'
'magnifying_'
'lux'
'lungs_'
'lump_'
'loy'
'lovey_'
'lous'
'lope'
'lod'
'little'
'lis'
'lever_'
'lett'
'legend_'
'lava_'
'laundry'
'launder'
'lani_'
'laden_'
'kuala_'
'kris'
'kr'
'knowled'
'kni'
'kingsize_'
'kings'
'kim'
'kettles_'
'kana'
'jus_'
'julio_'
'juggle_'
'jin'
'jim'
'jh'
'jesse_'
'jerk'
'jane'
'ize_'
'itw'
'ither_'
'itf'
'irritant_'
'ironic_'
'ior'
'intoxicated_'
'internationally_'
'intern'
'intending_'
'integrated_'
'institution_'
'indulged_'
'incur_'
'inclin'
'incessant_'
'imply_'
'immi'
'imi'
'ille_'
'hydro_'
'hugh_'
'horns_'
'hood'
'homes_'
'hol_'
'hight'
'hero'
'herebut_'
'herea'
'hem'
'helpfulm'
'helpfulespecially_'
'hello'
'hector_'
'headquarters_'
'hauled_'
'harm'
'hammer_'
'hamburg_'
'hal_'
'hadthe_'
'gust'
'gun_'
'grove_'
'ground'
'greatw'
'graham_'
'gradually_'
'goodp'
'gooda_'
'goi'
'glued_'
'glo'
'glitzy_'
'glen'
'gho'
'geti'
'gener'
'galway_'
'gad'
'future'
'frontline_'
'friendlyness_'
'friendlye'
'friedly_'
'fp'
'forgot'
'forgiving_'
'forces_'
'foods'
'flushes_'
'fluff'
'flows_'
'flori'
'flawed_'
'finish'
'finely_'
'fights_'
'fiesta_'
'fer_'
'fed'
'fas'
'fantasticthe_'
'fam'
'facilitating_'
'facil'
'eyes'
'ext'
'exemplifies_'
'excellenti_'
'exa'
'evol'
'eventi_'
'esk_'
'ese'
'equ'
'entit'
'entertainment'
'ensi'
'enjoy'
'englishthe_'
'ene_'
'enda'
'ena_'
'empt'
'emp'
'eman'
'elusive_'
'elle'
'elbow_'
'ej'
'eit'
'eep'
'edit'
'eden_'
'ede'
'ecta'
'echoed_'
'ece'
'eate'
'drums_'
'dream'
'drainage_'
'doubts_'
'doubt'
'dosas_'
'dori'
'doom'
'doll_'
'doha_'
'doggy_'
'dob'
'division_'
'div'
'distances_'
'dist'
'discipline_'
'disadvantage_'
'diff'
'dian'
'depressed_'
'deposits_'
'denali_'
'delux_'
'delicious'
'delegate_'
'decorate_'
'dearer_'
'deafening_'
'dayi_'
'das'
'dang'
'dance'
'dakota_'
'dai'
'cycling_'
'cupboards_'
'cui'
'crud'
'croatia_'
'creaked_'
'cou'
'cords_'
'cope'
'conven'
'contin'
'contest_'
'contemp'
'conta'
'consistant_'
'congestion_'
'confe'
'complian'
'comp'
'command'
'collegue_'
'coincidence_'
'cody_'
'coc'
'clubb'
'close'
'climbed_'
'clearer_'
'cleana'
'clattering_'
'clam'
'clad_'
'cis'
'cil'
'cie'
'christi'
'chir'
'chew_'
'chet'
'chel'
'ced'
'cci'
'caviar_'
'cav'
'casi'
'carbo'
'cape'
'canopy_'
'cai'
'cage_'
'ca'
'button'
'buto'
'butho'
'bush_'
'bursting_'
'buffe'
'buc'
'brune'
'bru'
'brownies_'
'brook_'
'bron'
'broc'
'broadway_'
'brit'
'brighten_'
'brie_'
'brews_'
'brewer_'
'breakfastvery_'
'brakfast_'
'bowled_'
'bott'
'bog_'
'bmw_'
'blinking_'
'bj'
'bistro'
'billy_'
'biggie_'
'bhu'
'beth'
'bests'
'benefited_'
'being'
'beh'
'begs_'
'becuase_'
'bb_'
'barso_'
'barri'
'barging_'
'barge_'
'bann'
'bang'
'baltimore_'
'bah'
'backa'
'ayu'
'ays_'
'awe'
'attach'
'atri'
'atho'
'assa'
'asia'
'artists_'
'aromatherapy_'
'armchair_'
'arizona_'
'arises_'
'arctic_'
'arab'
'application_'
'antic'
'ante_'
'annoying'
'anis'
'andwi'
'andt'
'andafter_'
'amigo_'
'americano_'
'ambar_'
'aly_'
'alter_'
'allison_'
'alco'
'alarmed_'
'aided_'
'agree'
'affinia_'
'affects_'
'aesthetically_'
'advisor'
'admit'
'adly_'
'adept_'
'adel'
'adams_'
'acr'
'accusing_'
'accompaniment_'
'accomodating'
'abel'
';'
': '
'99'
'91'
'82_'
'73'
'5pm_'
'57_'
'37'
'230_'
'210_'
'1hr_'
'194'
'1600_'
'0s_'
'00hrs_'
',- _'
'''
' @'
' ? ? )_'
' ? ? ) ._'
' ? ! '
' ;-) _'
' : * _'
' .... '
' . ?_'
' - ' _'
' + + '
' ) ?_'
' % , _'
' $ $ $ '
' ! ? '
' ! '_'
'è'
'zet'
'yway_'
'yvonne_'
'youbut_'
'yne_'
'wy_'
'wth_'
'wr'
'workso_'
'won'
'wns'
'wiring_'
'wim'
'whiskies_'
'whereabouts_'
'wet'
'weres'
'wasw'
'warp_'
'warnings_'
'ward'
'walker_'
'wad'
'vicki_'
'vic'
'versa_'
'vera'
'vening_'
'veni'
'vani'
'vai'
'vad'
'utilised_'
'ury_'
'uptight_'
'unta'
'unseasonably_'
'unsatisfied_'
'unsa'
'unheated_'
'unforeseen_'
'understand'
'underpaid_'
'underdone_'
'unc'
'umber'
'ught'
'uca'
'ubiquitous_'
'tz_'
'tweaks_'
'tweak'
'tta_'
'tsi'
'truthful_'
'troy_'
'trough_'
'transport'
'trade'
'tra_'
'toured_'
'torre'
'tooth'
'tm'
'tis'
'tir'
'thur'
'throughout'
'through'
'threaten_'
'thoughout_'
'thou_'
'thos'
'thereb'
'theat'
'thatbut_'
'tex_'
'tering_'
'teeny_'
'tec'
'tc_'
'tasty'
'tami'
'tallinn_'
'tal'
'tagged_'
'tactics_'
'tablew'
'swore_'
'swimwear_'
'swimmers_'
'sweater_'
'svery_'
'suspicion_'
'survived_'
'surley_'
'supurb_'
'suppliers_'
'sul'
'sugar'
'stiff'
'stew'
'sters_'
'stefan_'
'stayth'
'staya'
'stas'
'starwoods_'
'startling_'
'staples_'
'sta_'
'ssion_'
'spruce_'
'spri'
'splashed_'
'spir'
'specialthe_'
'someones_'
'soi_'
'sofitels_'
'society_'
'snorkel_'
'snob_'
'sneezing_'
'smooththe_'
'slim'
'sleeves_'
'skiing_'
'sittings_'
'sions_'
'sio'
'simpli'
'signposted_'
'sia'
'shuffle_'
'showerhead_'
'shorte'
'shoeshine_'
'shift'
'shes_'
'shabbi'
'set'
'serviceh'
'servicecheck_'
'sent'
'sek'
'seag'
'sd'
'scu'
'screened_'
'scr'
'scoring_'
'scorching_'
'scor'
'sapp'
'sap'
'sana_'
'salad'
'sak'
'rural_'
'rub'
'rst_'
'rry_'
'rr_'
'routines_'
'rough'
'rouge_'
'roomth'
'roomswe_'
'rk_'
'riv'
'ritual_'
'rite'
'rise'
'rio'
'rhe'
'revert_'
'restraint_'
'restaurantwe_'
'restaurantbut_'
'restaurantand_'
'restauranta'
'restaraunts_'
'reserv'
'resembling_'
'resemblance_'
'rendering_'
'remodelled_'
'reimbursement_'
'regina_'
'regime_'
'refurbishment'
'redesign_'
'redemption_'
'recu'
'reconfirmed_'
'reconfirm_'
'reccom'
'reasoning_'
'reaches_'
'rde'
'raw'
'raves_'
'raquel_'
'ramb'
'radios_'
'raddison_'
'races_'
'quo'
'quiche_'
'quet'
'questiona'
'qualms_'
'qe'
'pul'
'puffing_'
'pud'
'ptic'
'provo'
'provisioned_'
'protest_'
'prospective_'
'proportion_'
'promotes_'
'programming_'
'prevail'
'prese'
'prep'
'preo'
'preface_'
'pree'
'prat'
'practise_'
'powerless_'
'possible'
'poss'
'poo_'
'policy'
'pmbut_'
'pma'
'ply'
'plagued_'
'pizzeria_'
'pity'
'pila'
'philip'
'peso_'
'personthe_'
'permeated_'
'peoplethe_'
'peo'
'pens_'
'pend'
'peach_'
'patched_'
'pat'
'pastas_'
'particular'
'parade_'
'paola_'
'palette_'
'palatial_'
'oy_'
'oversee_'
'override_'
'overflowed_'
'outsh'
'outings_'
'outc'
'ousi'
'ourt_'
'oun'
'oria'
'ora_'
'ople_'
'ooooo'
'onderful_'
'ona'
'olga_'
'offered'
'oceanview_'
'obi'
'nuggets_'
'nota'
'nobu_'
'nitpick'
'nightsh'
'nicolas_'
'nico'
'ngo'
'ngand_'
'nerves_'
'nephew_'
'ned'
'necessitating_'
'near'
'nces_'
'nate'
'nam_'
'nal'
'nailed_'
'nada_'
'naan_'
'muttering_'
'mumbling_'
'multinational_'
'movements_'
'mouthful_'
'moto_'
'moron'
'morningwe_'
'morningthe'
'morninga'
'mopping_'
'monsoon_'
'moni'
'modified_'
'model'
'mob_'
'mob'
'misma'
'minibus_'
'mimosa_'
'mimi'
'mie_'
'mez'
'meth'
'meta'
'mend_'
'meaningless_'
'mea'
'maximize_'
'marm'
'mare'
'maitre'
'maho'
'madel'
'lways_'
'luna'
'lumps_'
'lue'
'lua'
'lotions_'
'loitering_'
'lodge'
'lightbulb_'
'lexington_'
'leis_'
'leek_'
'leat'
'laziness_'
'lasagna_'
'las'
'labour_'
'kristina_'
'knobs_'
'kip'
'kinder_'
'kimberly_'
'kicker_'
'kesh_'
'kend'
'kath'
'kandy_'
'jun'
'jump'
'jill_'
'jamb'
'jag'
'jacuzzis_'
'ity'
'itis'
'iron'
'irked_'
'invi'
'investigating_'
'intruding_'
'interpretation_'
'interpersonal_'
'interface_'
'instrument'
'insignificant_'
'inni'
'ingi'
'infrequent_'
'infra'
'infr'
'iner'
'indonesia_'
'incon'
'ince'
'impressive'
'impos'
'impart'
'illustrate'
'iko'
'igh_'
'iga'
'idiotic_'
'iconic_'
'ico'
'hyper_'
'hunger_'
'humanity_'
'hugs_'
'huffing_'
'huffed_'
'huddled_'
'hovered_'
'hover_'
'hourand_'
'hotw'
'hotelit_'
'hog'
'hock_'
'hoc_'
'hoards_'
'highs'
'hie'
'hes'
'hera'
'helsinki_'
'helpl'
'helpfulservice_'
'helpfulg'
'helpf'
'heap_'
'hd'
'hayley_'
'happen'
'hank'
'halal_'
'haggling_'
'gwl_'
'guil'
'gui'
'guarded_'
'grout_'
'groom_'
'grin_'
'grief_'
'greed_'
'gree'
'greate'
'graf'
'grad'
'gp'
'goodthis_'
'goodon_'
'goodal'
'gog'
'goan_'
'glared_'
'giovanni_'
'gesture'
'genuinly_'
'gee_'
'gb_'
'gant'
'fying_'
'fudge_'
'frindly_'
'friendlyf'
'freight_'
'freebie_'
'freaked_'
'fran'
'forth'
'formerly_'
'foodo'
'fom_'
'foil_'
'fog_'
'floridian_'
'float_'
'flashy_'
'filing_'
'fiddling_'
'fia'
'ff'
'festivities_'
'fell'
'fathom_'
'fares_'
'fantas'
'exu'
'experts_'
'exits_'
'exhorbitant_'
'exemplified_'
'evry'
'evidenced_'
'evi'
'everywherethe_'
'etr'
'eted_'
'escorts_'
'ery'
'enthusiast'
'embarras'
'ellipticals_'
'eli_'
'ek_'
'eighth_'
'eev'
'eed'
'eds_'
'eds'
'edr'
'edo'
'edison_'
'edbut_'
'ected_'
'ebo'
'dvds_'
'dus'
'dumplings_'
'duct'
'dragon_'
'dra_'
'dp'
'downstairs'
'dow'
'dough_'
'doubletrees_'
'doo'
'dong_'
'domin'
'docks_'
'distinction_'
'distasteful_'
'dissappointing_'
'disputed_'
'disingenuous_'
'dish'
'discovering_'
'disc'
'dim'
'digit'
'digging_'
'differentiator_'
'diapers_'
'dia_'
'devon_'
'developing_'
'deter_'
'deska'
'deri'
'deo'
'dentist_'
'denny_'
'definitively_'
'dead'
'cutt'
'custo'
'cusco_'
'cull'
'crude_'
'crisp'
'cremated_'
'creat'
'coz'
'corr'
'corinthia_'
'contradict'
'conten'
'consolation_'
'consent_'
'confirms_'
'compliment'
'complaint'
'compensating_'
'compensates_'
'compe'
'collapsed_'
'colla'
'coe'
'cobb_'
'cluster_'
'clunky_'
'cloud'
'clipboard_'
'cli'
'cite'
'cion'
'cient_'
'christ'
'chess_'
'chen_'
'cheeri'
'checklist_'
'chau'
'changed'
'cha_'
'centrali'
'cebu_'
'cease_'
'cco_'
'carving_'
'cann'
'butin_'
'burl'
'bund_'
'bugged_'
'brin'
'bril'
'breakfastit_'
'breaka'
'brat'
'bran'
'brad_'
'botched_'
'bosphorus_'
'bore'
'borders_'
'bookings'
'bonuses_'
'bomb'
'bli'
'bleak_'
'bisc'
'binder_'
'biltmore_'
'billi'
'bett'
'benn'
'beneficial_'
'belvedere_'
'belo'
'belle_'
'beige_'
'beautiful'
'bd'
'bby_'
'bathe_'
'baro'
'barn'
'barbeque_'
'banking_'
'ballrooms_'
'axi'
'avoid'
'aveda_'
'av'
'authorities_'
'attenti'
'atl'
'atit'
'atic_'
'aste'
'ariel_'
'arian'
'approaches_'
'applying_'
'apol'
'apart'
'anne'
'anna'
'angeli'
'angeles_'
'andoverall_'
'andco'
'amit_'
'amenties_'
'alma'
'alland_'
'aligned_'
'alicia_'
'alejandro_'
'airplanes_'
'aho'
'af'
'ady_'
'advers'
'adv'
'adopted_'
'addit'
'addict'
'acco'
'abraham_'
']._'
'7a'
'650_'
'400'
'33rd_'
'30s'
'2h'
'29'
'230'
'2000'
'1960s_'
'195'
'106_'
'/'
'$ '
'"._'
'" - _'
'!!!!'
' …'
' ] , _'
' \u _'
' ? ' _'
' =_'
' :* _'
' :) '
' ............ _'
' ... , _'
' .. )_'
' ----'
' ( € _'
' ( ? ) ._'
' " ! !_'
'ythe'
'ystaff_'
'youth'
'youand_'
'yg'
'yang_'
'xp'
'ww_'
'ww'
'wrinkle'
'wrappers_'
'wonder'
'wisely_'
'wisdom_'
'winston_'
'wil_'
'wig'
'wie'
'wicked_'
'werea'
'welcomes'
'webpage_'
'weaknesses_'
'wax_'
'watert'
'wasp'
'waso'
'warehouse_'
'ware'
'wand_'
'waiters'
'wag'
'waa'
'vu_'
'vomiting_'
'voluntarily_'
'volu'
'void_'
'visi'
'visa'
'virginia_'
'vien'
'vic_'
'verde_'
'venetian_'
'valiant'
'valentina_'
'uy'
'ute_'
'uso'
'ura'
'upr'
'upmost_'
'upl'
'upcharge_'
'unripe_'
'unpersonal_'
'unnerving_'
'unhappiness_'
'undress'
'undo'
'uncomplicated_'
'unbeli'
'unapproachable_'
'unannounced_'
'umi_'
'uled_'
'ude_'
'ude'
'u'
'turf_'
'tum'
'tree'
'tread'
'trap'
'translates_'
'transformed_'
'transactional_'
'tortilla_'
'toppers_'
'toni_'
'tone'
'tles'
'titi'
'tireless_'
'timeso_'
'timel'
'tig'
'ticket'
'tht'
'ths_'
'throughput_'
'threa'
'thieves_'
'thie'
'thet'
'therein_'
'themwe_'
'thames_'
'texan_'
'territory_'
'temper_'
'technique_'
'td'
'tattoo'
'tania_'
'tandoori_'
'tame'
'taller_'
'tall'
'talents_'
'take'
'sync_'
'swere_'
'swat'
'sv'
'suz'
'surround_'
'supr'
'supervis'
'sum'
'sultan'
'suk'
'suites'
'suburban_'
'su_'
'stun'
'stubborn_'
'stri'
'strap'
'stinking_'
'stayi'
'station'
'staple'
'stainless_'
'staffwh'
'ssa'
'sr_'
'spon'
'spl'
'spit_'
'spirited_'
'spas'
'spacy_'
'sort'
'sona'
'somb'
'sol'
'socialis'
'sno'
'smil'
'smack_'
'sma'
'slimy_'
'slack'
'skewers_'
'sk'
'simp'
'silvia_'
'sig'
'sib'
'showers'
'shove_'
'shortc'
'shoppe'
'shock'
'sheri'
'shaw'
'shal'
'settees_'
'settee_'
'servicewh'
'servicer'
'serviceb'
'seperately_'
'sen_'
'seared_'
'screwdriver_'
'scree'
'scraps_'
'scraping_'
'scooter_'
'sasha_'
'sams'
'salary_'
'sac'
'rye_'
'rut'
'russians_'
'runn'
'rugs_'
'rudes'
'ruder_'
'rud'
'rubens_'
'rosa'
'root_'
'rooom_'
'roomsw'
'roomshe_'
'roomp'
'roomon_'
'rooml'
'rooming_'
'roomb'
'roofs_'
'ronald_'
'romania_'
'roman'
'roll'
'rock'
'rn'
'riverwalk_'
'risk'
'rik'
'ridd'
'rian_'
'reviv'
'revised_'
'resur'
'restaurantso_'
'restauarant_'
'restaruant_'
'respecting_'
'respectfully_'
'resistance_'
'resa'
'request'
'repairing_'
'rende'
'regulated_'
'regret'
'reg'
'refugee'
'ref_'
'recruitment_'
'recruited_'
'recruit_'
'recpetion_'
'recommendedthe_'
'recieve_'
'recepti'
'receipt'
'rebuilt_'
'ravi_'
'rau'
'rat'
'rashers_'
'ras_'
'rap_'
'rainfall_'
'radissons_'
'ques'
'queens'
'quar'
'py'
'punish'
'puffed_'
'pta'
'prote'
'properly'
'promotions_'
'promis'
'prix_'
'priva'
'priscilla_'
'principal_'
'pricethe_'
'prevailed_'
'preten'
'pret'
'preserve_'
'prepayment_'
'precooked_'
'preci'
'ppr'
'positioning_'
'poori'
'pon_'
'pon'
'polites'
'po_'
'pms'
'pleasantbut_'
'pimms_'
'pill'
'pictured_'
'pi'
'photograph'
'photocop'
'phi'
'petra_'
'perky_'
'period'
'performers_'
'pent_'
'penang_'
'pei'
'peek_'
'pee_'
'pd'
'paste'
'passi'
'passer'
'parlor_'
'parkingthe_'
'parallel_'
'pap'
'pall'
'pak'
'padded_'
'pacif'
'oy'
'overwhelm_'
'overw'
'overstate'
'overla'
'overhear_'
'overc'
'outth'
'outdo'
'ours'
'ottawa_'
'ots_'
'ose_'
'oro'
'orient'
'ook'
'onl'
'oldi'
'obvious'
'obstructi'
'obsessed_'
'obscured_'
'o'
'nya'
'nursing_'
'num'
'nui'
'nto_'
'nse'
'notthe_'
'noses_'
'normal'
'noir_'
'nites_'
'nis_'
'nile_'
'nightst'
'nightso_'
'nighti'
'nicky_'
'nicen'
'niceall_'
'next'
'newness_'
'nel_'
'nect'
'necks_'
'ndra_'
'nda'
'nci'
'nasi_'
'narita_'
'names'
'nairobi_'
'myr'
'muzak_'
'muted_'
'music'
'mous'
'motor'
'moro'
'morningw'
'morningbut_'
'moods_'
'monorail_'
'monies_'
'mixes_'
'minutesi_'
'minimise_'
'miner'
'mimosas_'
'mills_'
'mili'
'mik'
'mignon_'
'midwest_'
'midway_'
'michele_'
'messe'
'meridian_'
'menti'
'mend'
'memo_'
'masterc'
'master'
'masseur_'
'marr'
'mardi_'
'manufacture'
'mandy_'
'malt'
'makati_'
'maintained'
'madeira_'
'mackerel_'
'lyn_'
'lydia_'
'luca_'
'lthe_'
'low'
'loi'
'locat'
'lobbys'
'lled_'
'listens_'
'lips_'
'lill'
'lights'
'lic_'
'lewis_'
'lep'
'lend'
'least'
'leap'
'laur'
'lateness_'
'lao'
'kuredu_'
'kk'
'kins'
'kent_'
'kelsey_'
'kc'
'kati_'
'judi'
'jol'
'johnson_'
'jobbut_'
'jewellery_'
'jetty_'
'jared_'
'jala'
'jacob_'
'jack'
'ix_'
'iven'
'iv_'
'itself'
'isl'
'iq'
'inundated_'
'intolerant_'
'intensive_'
'inten'
'institute'
'inspector_'
'inr_'
'inha'
'inex'
'ineffectual_'
'inebriated_'
'incorporate'
'inclusions_'
'incense_'
'inadequately_'
'inad'
'inaccessible_'
'improvise'
'illa'
'iit'
'ight'
'ified_'
'ience_'
'ida_'
'ick'
'ication_'
'ibe'
'iah_'
'hydrotherapy_'
'hung'
'hul'
'housekeepingthe_'
'household_'
'hourthe_'
'hould_'
'hotl'
'hotelbreakfast_'
'horse'
'hoovering_'
'hone'
'holidays'
'hkg_'
'hires_'
'hio'
'himand_'
'hiker'
'het'
'hesitated_'
'hermes_'
'helper_'
'helpdesk_'
'heavens_'
'hb_'
'hazard'
'hashbrowns_'
'harpist_'
'hari_'
'hapless_'
'handrail'
'handheld_'
'haha_'
'hable_'
'habits_'
'haba'
'guestrooms_'
'grun'
'gritt'
'gris'
'greeting'
'greenery_'
'greatness_'
'grape_'
'grandmother_'
'goodvery_'
'goodn'
'goodevery'
'goodd'
'gone'
'gma'
'glob'
'gl'
'gha'
'geni'
'gail_'
'fuel_'
'fue'
'frig'
'frienl'
'friendlycheck_'
'frequency_'
'fran_'
'fork'
'footsteps_'
'foodf'
'fold'
'flat'
'flabbergasted_'
'fille'
'fields_'
'fence_'
'fanc'
'faire_'
'factor'
'fabulous'
'fabi'
'extrememly_'
'expiration_'
'expedi'
'exacerbated_'
'eventual'
'evan_'
'evaluation_'
'evaluate_'
'europa_'
'eto'
'ethe'
'escalate_'
'erve'
'erst'
'erroneous_'
'erika_'
'eri_'
'ergonomic_'
'entertainer_'
'entertain'
'ens'
'enhance'
'engl'
'enge'
'ener'
'endea'
'empties_'
'empathi'
'embarrassingly_'
'embarassed_'
'ellie_'
'elia'
'elf_'
'electrics_'
'elan'
'eit_'
'efficienti_'
'efficienta'
'effec'
'edwe_'
'edn'
'edge'
'economic_'
'econd_'
'eased_'
'eally_'
'dull'
'duck'
'dt_'
'drills_'
'drie'
'dles_'
'dk'
'distinguish_'
'displeased_'
'displ'
'dishes'
'dishe'
'discolo'
'disagreement_'
'dipping_'
'diplomat_'
'dimme'
'diligence_'
'dilapidated_'
'difficult'
'different'
'differed_'
'diet'
'didnot_'
'dialogue_'
'dho'
'devere_'
'develop'
'deva'
'deteriorating_'
'deta'
'depart'
'denmark_'
'deni'
'demotivated_'
'demonstrating_'
'demonstrates_'
'dela'
'defrosted_'
'defence_'
'deeper_'
'deceiving_'
'dc'
'daft_'
'curly_'
'cular_'
'crepe_'
'credentials_'
'cream'
'creaking_'
'cover'
'cough'
'cote_'
'cory_'
'cordial'
'copthorne_'
'convert'
'conve'
'consum'
'consulting_'
'constance_'
'consisten'
'conservation_'
'conn'
'congierge_'
'condos_'
'condescen'
'cond_'
'concier'
'concei'
'compu'
'components_'
'complex'
'complained'
'communist_'
'communi'
'commande'
'combat'
'column'
'colli'
'coladas_'
'coincided_'
'cock'
'cobble'
'coated_'
'clearance_'
'clarke_'
'clan'
'citadines_'
'cia'
'churlish_'
'cht'
'choices'
'chez_'
'chek_'
'cheerful'
'cheer'
'champaign_'
'champagne'
'cert'
'centr'
'cedric_'
'cecilia_'
'cec'
'ceasar_'
'cathy_'
'carne'
'carlo'
'cardand_'
'captured_'
'candies_'
'canap'
'camill'
'calories_'
'calculat'
'caffeine_'
'cafe'
'butthis_'
'burns_'
'bt'
'browse_'
'brig'
'breeze'
'breath'
'breakfastw'
'breakfastf'
'bow'
'bottom'
'bob'
'bn'
'blur'
'bles'
'blea'
'birthdays_'
'bev'
'bellman'
'belligerent_'
'beetroot_'
'beeping_'
'beckon'
'bargain'
'barefoot_'
'banner_'
'banned_'
'balle'
'backside_'
'aye'
'automat'
'authori'
'attendee_'
'ats'
'astray_'
'artistic_'
'articulate_'
'arrivedthe_'
'arrivals'
'ark_'
'argu'
'arat'
'appreciated'
'appologised_'
'applause_'
'applauded_'
'apologizes_'
'apologetically_'
'apo'
'aper'
'anton_'
'anticipates_'
'anno'
'angl'
'andone_'
'andat_'
'american'
'amaze_'
'amal'
'alto_'
'alti'
'alter'
'alright'
'allu'
'alleviate_'
'allen_'
'alfredo_'
'alamo_'
'aj_'
'aj'
'agressive_'
'againi_'
'admired_'
'acle'
'achieving_'
'acce'
'abso'
'abominable_'
'ables_'
'abh'
'abd_'
'\\_'
'? _'
'5h'
'57'
'50pm_'
'260_'
'250'
'20am_'
'1990_'
'145_'
'11a'
'119_'
'101'
'1000'
'0630_'
'00the_'
'/ '
'....'
'.-_'
'---_'
'-- '
',,,_'
'+'
')-_'
' ;'
' :-) ._'
' :-( _'
' ./_'
' ...- _'
' .. .'
' .* , _'
' . ) '
' . )'
' - -_'
' , .. _'
' ) -- _'
' ' . _'
' " " _'
' ! ! ! ! _'
'á'
'½_'
'zh'
'zen'
'zach_'
'yourself'
'youa'
'yon'
'yolanda_'
'yness_'
'yan_'
'yad'
'yacht_'
'xavier_'
'wri'
'woud'
'woodwork_'
'wong_'
'witha_'
'witha'
'wink_'
'winery_'
'wic'
'whisk'
'where'
'wew'
'wellbeing_'
'welcomeand_'
'weeknight_'
'wasps_'
'wasn'
'wasf'
'warmi'
'walmart_'
'vs'
'vouch_'
'voi'
'vino_'
'vine_'
'villa'
'vigorous'
'versions_'
'vermo'
'verification_'
'ventilate'
'vegans_'
'vd'
'valuethe_'
'validation_'
'utions_'
'utili'
'usw'
'usthey_'
'usive_'
'usal'
'urge'
'upi_'
'unte'
'unso'
'unsecured_'
'uno'
'unk'
'unfl'
'unfi'
'unexperienced_'
'unduly_'
'undert'
'unco'
'unch_'
'unad'
'ulati'
'ula'
'uh'
'ually_'
'tz'
'type'
'twee'
'tus'
'tter'
'tren'
'trekking_'
'traveller'
'trainedand_'
'trailer_'
'trades_'
'tract'
'tr_'
'tori'
'topi'
'told'
'tod'
'toa'
'tme'
'tise'
'timew'
'timesa'
'tif'
'tides_'
'tically_'
'throught_'
'thl'
'thirt'
'thin'
'thi_'
'thet_'
'thermostats_'
'thermometer_'
'therew'
'therethey_'
'theo'
'testi'
'terrible'
'terrace'
'teppanyaki_'
'tell'
'tbh_'
'tay'
'taxi'
'tau'
'tastless_'
'tarts_'
'tanya_'
'tang_'
'tamara_'
'taka'
'tact'
'syr'
'symp'
'syl'
'swish_'
'swinging_'
'surviv'
'support'
'superstar_'
'sunt'
'sunscreen_'
'sunloungers_'
'sunk'
'sulk'
'stuffiness_'
'stroppy_'
'stre'
'straws_'
'stormed_'
'stomping_'
'stirrer'
'sthis_'
'stewards_'
'stem'
'standardthe_'
'stalls_'
'stake_'
'stairwells_'
'stairs'
'staggering_'
'staffd'
'squirt'
'squeal'
'square'
'spott'
'spoke'
'spills_'
'spike'
'spie'
'spend'
'spad'
'spaciousness_'
'spaci'
'someday_'
'soe'
'social'
'soap'
'sneeze_'
'snarl'
'sn'
'smilethe_'
'slush'
'slop_'
'slipper_'
'slight'
'skinny_'
'skim_'
'skil'
'skewe'
'sis_'
'sis'
'sion'
'sink'
'simone_'
'sightsee'
'sider'
'sic_'
'shuttle'
'shortfall_'
'shirt'
'shea'
'sharpen_'
'shark'
'sey'
'serviettes_'
'serviceservice_'
'sep'
'sensors_'
'sely_'
'sef'
'seedy_'
'seating'
'screws_'
'scratching_'
'scrambling_'
'scen'
'sburg_'
'sauce'
'sardines_'
'sang'
'sal_'
'sagg'
'sag'
'rul'
'rubb'
'rted_'
'rro'
'roux_'
'routed_'
'rotation_'
'rotate_'
'rop'
'roomsstaff_'
'roomr'
'roomno_'
'roc'
'roach_'
'rni'
'rne'
'rmi'
'rme'
'rium_'
'rint'
'ringly_'
'ricky_'
'richmond_'
'rhubarb_'
'reykjavik_'
'revere'
'retrained_'
'retire'
'retaurant_'
'restoring_'
'reste'
'restauraunt_'
'resonate'
'reputed_'
'reply'
'repetative_'
'renovation'
'remov'
'remote'
'relocating_'
'reliability_'
'relati'
'reh'
'regulation_'
'refrig_'
'refi'
'refers_'
'redo'
'redirected_'
'recou'
'recon'
'recommends'
'recession_'
'receptionwas_'
'receptionn'
'reassurance_'
'rearranging_'
'reall'
'rati'
'ratethe_'
'rans'
'ranger_'
'randolph_'
'ramp'
'rainbow_'
'quite'
'quis'
'quickthe_'
'purpose'
'pumping_'
'provide'
'proverbial_'
'prosec'
'proprietors_'
'propertythe_'
'properties'
'proper'
'proofed_'
'pronunciation_'
'pronounced_'
'prom'
'professionali'
'prob_'
'pris'
'prior'
'pricier_'
'pretension'
'pretense_'
'preserved_'
'prepo'
'preca'
'pram'
'pparently_'
'powers_'
'pose_'
'portugal_'
'porto_'
'portioned_'
'porti'
'porter'
'poop_'
'poolwe_'
'plentyful_'
'pix'
'pitchers_'
'pirate_'
'pim'
'pillar_'
'pig'
'pie'
'philly_'
'pher'
'peti'
'pet'
'peggy_'
'peeves_'
'peac'
'patt'
'patric'
'pas_'
'parma_'
'pare'
'pande'
'pamphlet'
'paltry_'
'pale'
'pairs_'
'paintwork_'
'page'
'packaging_'
'oversi'
'overse'
'overb'
'overa'
'ove'
'outwardly_'
'outward_'
'outit_'
'outbound_'
'outb'
'oul'
'ote'
'ose'
'orr'
'ork'
'orb'
'opr'
'oos'
'onwe_'
'omm'
'omitted_'
'omission_'
'olo_'
'olin'
'okwe_'
'oktoberfest_'
'offe'
'och'
'occured_'
'observing_'
'obli'
'oats_'
'nun'
'nth_'
'notice'
'nook_'
'nola_'
'nne'
'nite'
'ninet'
'niko'
'nightf'
'niceso_'
'nicer'
'nica'
'ngw'
'nett'
'nest'
'neighbourhood_'
'negotiation_'
'ndi'
'nav'
'nameand_'
'naff_'
'murphy_'
'mum'
'mosaic_'
'mond_'
'moha'
'mock_'
'mock'
'mmm_'
'mme'
'missi'
'miso_'
'mirage_'
'milli'
'milestone'
'michel_'
'mf'
'mewe_'
'merits_'
'meringue_'
'merchant_'
'menuthe_'
'mentary_'
'meno'
'mely_'
'mate'
'masseurs_'
'marina'
'maint'
'm2'
'lux_'
'lucas_'
'lovelys'
'loungethe_'
'lou_'
'lori_'
'longish_'
'longer'
'local'
'llin'
'lities_'
'linden_'
'lih'
'lightbulbs_'
'lier'
'liber'
'liability_'
'lf'
'lenny_'
'legacy_'
'led'
'layouts_'
'lay'
'lanai_'
'knowledge'
'knowand_'
'kiss_'
'kill'
'kfast_'
'kerala_'
'kei'
'karim_'
'justification_'
'julian_'
'judith_'
'jon'
'jog'
'jobs'
'jet'
'jen'
'jarr'
'janitor'
'jaipur_'
'jad'
'ize'
'iy_'
'itl'
'itive_'
'iting_'
'itemi'
'ital'
'isan'
'irs'
'irma_'
'irene_'
'intrude'
'inthere_'
'interr'
'internetthe_'
'interl'
'intentional_'
'intelligence_'
'insights_'
'inserted_'
'inoperable_'
'inju'
'initiated_'
'initiate_'
'init'
'ingrid_'
'infested_'
'indis'
'indic'
'impaired_'
'impacts_'
'illit'
'illi'
'ill'
'igua'
'idge'
'ible'
'humiliating_'
'housekeepingand_'
'hottub_'
'hots'
'hoppa_'
'hop'
'holi'
'hogg'
'hertz_'
'herm'
'herbs_'
'hemm'
'helicopter_'
'helen'
'heath'
'hear'
'harrassed_'
'hardthe_'
'hardship_'
'harass'
'har_'
'hando'
'handmade_'
'hammam_'
'hamilton_'
'hallo'
'half'
'hak'
'gy_'
'guts_'
'gut_'
'grumbling_'
'grow'
'grooming_'
'grizzl'
'greath'
'grated_'
'goodr'
'goodm'
'goodc'
'golf'
'ggle'
'geta'
'georgian_'
'general'
'gea'
'gd_'
'gay_'
'gator'
'gard'
'gamb'
'furniture'
'fundamentally_'
'fru'
'froth'
'fritt'
'friendlyit_'
'friendliest'
'freak_'
'franco_'
'fot'
'forward'
'fort'
'forbid_'
'footing_'
'foolish_'
'foodh'
'foll'
'fod'
'flute'
'fluke_'
'flavorless_'
'fj'
'fishy_'
'fetching_'
'feeble_'
'federal_'
'feared_'
'fear'
'fc'
'faw'
'faultthe_'
'farmer_'
'fanta'
'fala'
'faithful_'
'fai'
'fad'
'facetime_'
'facecloths_'
'exuberant_'
'extremelly_'
'experiment_'
'experienced'
'experiance_'
'expen'
'excruciating_'
'exclu'
'exasperated_'
'eveningi_'
'euros'
'etic'
'ethics_'
'ete_'
'etci_'
'etch'
'etcbut_'
'eta_'
'especi'
'esp'
'esca'
'esb'
'ern_'
'ergonomic'
'epitomize'
'epitomise'
'entr'
'enthusia'
'enrique_'
'enhancing_'
'englishand_'
'endeavour'
'employment_'
'employers_'
'emerge'
'ements_'
'elysium_'
'elsethe_'
'elemis_'
'eled_'
'eld_'
'either'
'efully_'
'effiecient_'
'effie'
'effici'
'edy_'
'educate_'
'edso_'
'edgy_'
'ecause_'
'eau'
'eal_'
'eal'
'each'
'dwe_'
'dwa'
'dulles_'
'duff'
'due'
'dribble_'
'downs'
'dos_'
'dorchester_'
'doorm'
'doorand_'
'doo_'
'doctors_'
'diversi'
'disregarded_'
'dispe'
'dismiss'
'disgusting'
'discriminati'
'discriminate'
'dirhams_'
'direction'
'dio'
'dinnerwe_'
'dinneri'
'diningroom_'
'dings_'
'dine'
'diately_'
'dialing_'
'dg'
'detect_'
'dete'
'deskwe_'
'dering_'
'depr'
'dented_'
'dente_'
'deno'
'demand'
'delivered'
'delight'
'delaying_'
'deficient_'
'deficiency_'
'deepak_'
'dee'
'deduction_'
'decrepit_'
'decadent_'
'david'
'dani'
'dame_'
'dall'
'cuto'
'curr'
'cultures_'
'cudos_'
'crust_'
'cruise'
'crow'
'criticize_'
'crist'
'cranked_'
'cowboy_'
'cov'
'counterparts_'
'coud'
'cotta_'
'cosmopolitan_'
'corresponding_'
'corin'
'cookery_'
'contributor_'
'contribution_'
'consultation_'
'constitute'
'conspicuous_'
'consi'
'conse'
'congregating_'
'congregated_'
'condo'
'condensation_'
'concourse_'
'concoction_'
'compromis'
'compo'
'complimentry_'
'complications_'
'compensat'
'compendium_'
'comi'
'coleslaw_'
'colda'
'coil'
'cogn'
'cloakroom_'
'cleaniness_'
'classthe_'
'clara_'
'circulating_'
'cig'
'cic'
'choicest'
'chocs_'
'chlorinated_'
'chipp'
'chile_'
'ches'
'chemi'
'cheeseboard_'
'chea'
'chateaux_'
'charmed_'
'chaotic'
'chang'
'chance'
'cf'
'ceramic_'
'cep'
'cedar_'
'ccu'
'catalogue_'
'cast'
'cars'
'carousel_'
'carn'
'carl_'
'caring'
'capuccino_'
'cappuc'
'canary_'
'canari'
'cabo_'
'buy'
'butvery_'
'busses_'
'burners_'
'bunfight_'
'buenos_'
'bryce_'
'brulee_'
'broke'
'broadcast'
'brisk'
'bridge'
'brewing_'
'brace'
'bp'
'bossy_'
'bonvoy_'
'bloom'
'block'
'blizzard_'
'blanca_'
'bind'
'bets_'
'besti_'
'bestand_'
'berb'
'bends_'
'bellini_'
'believes_'
'bees_'
'beef'
'beca'
'bbe'
'bayview_'
'basins_'
'baros_'
'barma'
'barbados_'
'bana'
'balla'
'balancing_'
'backward_'
'bacc'
'aya_'
'ax_'
'awaythe_'
'authenticity_'
'aut'
'audit_'
'attic_'
'atti'
'attentitive_'
'association_'
'asp'
'arrivedand_'
'arr'
'appre'
'apologise'
'apa'
'anth'
'announcements_'
'anks_'
'angle'
'andwa'
'andlo'
'andhe'
'andgreat_'
'andg'
'andevery_'
'anc'
'ameneties_'
'ambitious_'
'amazings'
'amazement_'
'alternatively_'
'alittle_'
'aldo_'
'alas'
'alan'
'aking_'
'airportthe_'
'aires_'
'ail_'
'aha'
'aggre'
'aggravated_'
'ages'
'againthe'
'aesthetic_'
'advisable_'
'adventures_'
'adriana_'
'admitting_'
'adelaide_'
'activites_'
'acqui'
'aches_'
'ach'
'accomm'
'academy_'
'aca'
'abundantly_'
'86_'
'65'
'5p'
'5i'
'5am_'
'5a'
'59'
'53_'
'49'
'405_'
'39'
'2b'
'275_'
'2200_'
'20s_'
'203'
'199_'
'1950_'
'1700_'
'139_'
'131_'
'129_'
'1030'
'00pm'
'.)_'
'. )_'
',,,,'
'!!'
'! )_'
'! !_'
' € '
' ” ( _'
' ] '
' ? ...'
' < _'
' :-'
' : “ _'
' : -'
' ..." _'
' . ..._'
' . -_'
' , ....'
' ' ..._'
' ' ....'
' ' ) _'
' ''
' " ! '
' !* _'
' ! ! ! ! ! ! !_'
'ó'
'és_'
'zipp'
'yw'
'youthe'
'youse'
'yok'
'yme'
'yield_'
'ycl'
'xton_'
'xin'
'workload_'
'worki_'
'wond'
'withw'
'whelmed_'
'wheelchairs_'
'wen'
'wells_'
'welcomew'
'weirdly_'
'wedges_'
'wasi'
'wasexcellent_'
'wasbreakfast_'
'wasa_'
'wart'
'wang'
'walnut_'
'waitthe_'
'vulgar_'
'vor'
'volunteer_'
'vo_'
'vlad'
'virus_'
'violet'
'viking_'
'victory_'
'vice'
'vet'
'verifying_'
'vend'
'vela'
'vein_'
'vega'
'vau'
'vale'
'vacancy_'
'utilizing_'
'upwe_'
'unt'
'unsuitable_'
'unlo'
'unhapp'
'unfortu'
'uneatable_'
'underw'
'undergo_'
'unblock'
'ulin'
'ule'
'uits_'
'uch'
'tutt'
'tuning_'
'tunes_'
'tuk'
'tthe'
'tted_'
'trustworthy_'
'trou'
'tripthe_'
'tripa'
'trim_'
'tricks_'
'trevor_'
'trash'
'transmit'
'transfered_'
'trail'
'trag'
'trader_'
'toy'
'toma'
'toasty_'
'tment_'
'tive'
'tione'
'timec'
'timeb'
'tili'
'tighte'
'thump_'
'thrust_'
'throwback_'
'thiswe_'
'thim'
'texts_'
'terminate'
'term'
'tem'
'teams'
'tav'
'tapped_'
'tango_'
'tanding_'
'tanc'
'tama'
'tam_'
'tahiti_'
'taf'
'tad'
'tact_'
'tabs_'
'tablecloth_'
'sympathetically_'
'swo'
'sweetener_'
'swarm'
'sut'
'sush'
'surprisethe_'
'surpass_'
'surf'
'summer'
'suburb'
'suberb_'
'studiously_'
'strained_'
'storms_'
'stom'
'still'
'stil'
'stero'
'stein_'
'stead_'
'starve_'
'stall'
'stage'
'staffthis_'
'staffp'
'staffl'
'staffh'
'squid_'
'spur_'
'spritz'
'spla'
'spencer_'
'spectacle'
'specious_'
'specifics_'
'spai'
'soup'
'sorrento_'
'soothe'
'softly_'
'soften_'
'sock'
'snu'
'snot'
'snore'
'smug_'
'smit'
'smilling_'
'smiles'
'sling'
'sleepw'
'slat'
'sizable_'
'sisters_'
'siri'
'singled_'
'sina'
'sigh'
'siesta_'
'sickly_'
'sick'
'shuffling_'
'shuffled_'
'showever_'
'showerthe_'
'shiv'
'shisha_'
'shepherd'
'shelburne_'
'sharma_'
'shank_'
'shamethe_'
'shadow'
'shad'
'seven'
'servicevery_'
'servicel'
'seren'
'sensation'
'sei'
'scroll'
'scrapp'
'scou'
'scoop'
'scheck_'
'scanner'
'sazerac_'
'sao_'
'sank_'
'sandos_'
'sande'
'sach'
'saba'
'rup'
'rumo'
'rug_'
'rring_'
'rred_'
'royalton_'
'rowing_'
'row'
'roundthe_'
'rotated_'
'ross'
'rosen_'
'roomwas_'
'roommate_'
'roomfr'
'roomcheck_'
'rook'
'roni'
'rode'
'rocke'
'robb'
'rna'
'rmo'
'rma'
'ris'
'rioja_'
'rina_'
'rider'
'returne'
'retreated_'
'retire_'
'reta'
'restuar'
'restu'
'responsib'
'resorti'
'resol'
'resist_'
'residences_'
'resi'
'reprogram'
'repl'
'repai'
'reo'
'rennovation_'
'rennovat'
'ren_'
'remiss_'
'rema'
'rela'
'reiterated_'
'rehab'
'regulat'
'regretfully_'
'refund'
'refillable_'
'references_'
'redundant_'
'reconnect_'
'reconnect'
'recomme'
'recomm'
'reckon_'
'reasonable'
'rattle_'
'rationed_'
'rath'
'range'
'raisins_'
'rai'
'rachael_'
'quir'
'quin_'
'puppy_'
'pup'
'publici'
'propertys'
'professionnal_'
'proclaimed_'
'problema'
'prizes_'
'privil'
'prince'
'preside'
'prescription_'
'prepped_'
'prem'
'pred'
'preauthoris'
'pran'
'practic'
'prab'
'power'
'possession_'
'possess'
'posa'
'portugese_'
'portray_'
'popula'
'poise'
'pod'
'plethora_'
'plent'
'pleaseant_'
'plain'
'pk'
'pizza'
'pitt'
'pitch'
'piss'
'pipe'
'pinn'
'ping'
'pickle_'
'pia'
'phones'
'phillip_'
'phil'
'pesto_'
'pestana_'
'personnal'
'persistence_'
'permits_'
'permeates_'
'perfection'
'pennies_'
'peers_'
'pect'
'pears_'
'payment'
'paw'
'particu'
'pari'
'parfait_'
'parent'
'parc'
'paras'
'paragraph_'
'pang'
'panelled_'
'pana'
'palazzo_'
'pairings_'
'packe'
'paci'
'own'
'overzealous_'
'overriding_'
'overr'
'overkill_'
'overheated_'
'ov'
'outsiders_'
'outo'
'oustanding_'
'oud'
'oss'
'ory'
'orry_'
'orh'
'organi'
'ordinator_'
'opinion'
'opi'
'onw'
'onf'
'onar'
'oming_'
'okw'
'okr'
'okaythe'
'okaya'
'ofa'
'oeuvre_'
'oceana_'
'obsolete_'
'obligat'
'numb'
'nst'
'novi'
'nov'
'nottingham_'
'noticable_'
'nothe_'
'notches_'
'nos_'
'nordic_'
'noice_'
'niv'
'nightstaff_'
'nightsi_'
'niceservice_'
'newb'
'nev'
'networks_'
'negate'
'nded_'
'nb_'
'nb'
'navigat'
'nat_'
'naomi_'
'nam'
'nagement_'
'nad'
'mw'
'musician_'
'muddy_'
'mouthwash_'
'moss'
'morsel'
'morse_'
'morg'
'mora'
'moo'
'moneys'
'mohammad_'
'moh'
'modify_'
'modernize_'
'mode'
'mixologist_'
'mitigate_'
'mite'
'mislead_'
'mira_'
'mingle_'
'microphone_'
'michaela_'
'mice_'
'menus'
'melt'
'mel_'
'meeru_'
'mechanis'
'mec'
'meb'
'mbe'
'mayhem_'
'mastered_'
'massa'
'martina_'
'marsh'
'mars'
'marker_'
'mara_'
'mania'
'manc'
'mamm'
'makan_'
'maintain'
'magnificently_'
'magnet'
'mage'
'lyr'
'lunche'
'luncha'
'lumpur_'
'lum'
'ludicrous_'
'lowe'
'lovel'
'loungeand_'
'loose'
'loooo'
'logistical_'
'lof'
'ln'
'llen'
'lingo'
'lilli'
'lif'
'lew'
'lema'
'legitimate_'
'laterooms_'
'lash'
'lara_'
'lands_'
'lamb'
'lagu'
'lagers_'
'lace'
'kun'
'kum'
'ku_'
'knox'
'knowlegable_'
'km'
'kitty_'
'kirsty_'
'kiddie_'
'khali'
'kes'
'kell'
'kee'
'kea_'
'karl'
'kare'
'kai_'
'jumper_'
'julian'
'js'
'josephine_'
'jefferson_'
'jed'
'jam'
'itr'
'itia'
'item'
'itb'
'isw'
'island'
'irritatingly_'
'irrita'
'irresponsible_'
'iran_'
'inwas_'
'invaded_'
'inva'
'intri'
'inthey_'
'interview_'
'inspiration_'
'insinuat'
'insa'
'input'
'innovation_'
'innkeeper'
'inla'
'inga'
'infuriating_'
'infants_'
'inexplicable_'
'india'
'implement_'
'impersona'
'imperi'
'ili'
'iki'
'ik_'
'idio'
'ide'
'ici'
'icelandic_'
'iated_'
'ias_'
'hyp'
'huss'
'hurriedly_'
'huff_'
'hthe_'
'hrs'
'howeverthe_'
'hounded_'
'hound_'
'hotp'
'hotelthere_'
'hotelsi'
'hotelservice_'
'hotelon'
'hoteln'
'hotelfr'
'hotelb'
'hota'
'hostel'
'horrendously_'
'hoppers_'
'hopp'
'hoover_'
'hook'
'holland_'
'hof'
'hobb'
'hob'
'hn'
'hinder'
'hig'
'hide'
'hhonours_'
'herethe'
'herestaff_'
'helpfulit_'
'helpfulb'
'helpfulall_'
'heir_'
'hb'
'hazel'
'hasty_'
'hari'
'hardy_'
'hands'
'handbag_'
'hampered_'
'halifax_'
'hairdr'
'hada'
'gus_'
'guestsand_'
'gthe_'
'groundskeepers_'
'grips_'
'grind'
'grime_'
'grim'
'greenb'
'greats'
'greatn'
'greata'
'graphic'
'grace'
'govern'
'goodno_'
'goodness'
'golfing_'
'goe'
'gno'
'gna'
'glas_'
'glacial_'
'ght'
'geri'
'gentleman'
'gent'
'genial_'
'generating_'
'gaud'
'gastronomic_'
'gastro_'
'gastro'
'gaining_'
'fuzz'
'funniest_'
'fry'
'fruitless_'
'frowned_'
'fronted_'
'frigid_'
'friendlyon'
'friendli'
'fraser_'
'frankie_'
'francesca_'
'frances_'
'foyer'
'foundation_'
'fought_'
'forwards_'
'forego'
'forceful_'
'forbidden_'
'fools_'
'foodm'
'foli'
'fm'
'flu'
'flower'
'flour_'
'flou'
'flin'
'flightthe_'
'flee'
'flatbread_'
'flags_'
'fixed'
'fisherman_'
'fis'
'firmness_'
'fines'
'finei_'
'fig'
'fie'
'fication'
'fic_'
'ffic'
'fere'
'fenc'
'faulti'
'fat'
'fart'
'farcical_'
'fantasic_'
'falter'
'faint_'
'fabio_'
'extreemly_'
'extract'
'extr'
'expo'
'explan'
'experiencei_'
'expanding_'
'except'
'excelsior_'
'excellentwe_'
'evo'
'eveningwe_'
'eveninga'
'ethnic_'
'etca'
'essa'
'espa'
'esk'
'escaped_'
'escalati'
'erw'
'eries_'
'erg_'
'erd'
'equal'
'epo'
'entrée_'
'entries_'
'enticing_'
'enjoyable'
'enforcement_'
'ember'
'elvis_'
'elv'
'elle_'
'ella'
'electronically_'
'elder'
'efficients'
'efficiant_'
'effcient_'
'ees'
'edm'
'edg'
'ecti'
'ecc'
'eared_'
'dul'
'dsta'
'drive'
'dreadful'
'draughty_'
'doze'
'downt'
'downmarket_'
'dowdy_'
'doughnuts_'
'dominate_'
'dom'
'dock'
'dn_'
'distribut'
'distressing_'
'dissappointment_'
'dispite_'
'dispatch'
'discouraging_'
'discon'
'dignified_'
'dick_'
'dhi'
'dhar'
'dew'
'devi'
'deteriorate_'
'destroy_'
'desc'
'derby_'
'deploy'
'dent'
'delu'
'dell'
'deh'
'defines_'
'defi'
'defen'
'defects_'
'deed_'
'decreased_'
'deborah_'
'deadl'
'dazzl'
'daw'
'dart'
'daniella_'
'dad'
'curfew_'
'cula'
'crus'
'cross'
'croque'
'crook'
'creak_'
'coz_'
'cous'
'coup'
'costed_'
'costco_'
'coopers_'
'convoluted_'
'conversed_'
'contrived_'
'contented_'
'contagious_'
'considers_'
'conscierge_'
'consci'
'congratulati'
'confo'
'conditioning'
'concerts_'
'computer'
'comprising_'
'complicat'
'compara'
'como'
'commodity_'
'comically_'
'comb'
'coma'
'cobwebs_'
'coarse_'
'cm'
'clutter_'
'cling'
'cle_'
'claret_'
'citi'
'cially_'
'christy_'
'christchurch_'
'chok'
'chocolat_'
'chennai_'
'checkins_'
'charts_'
'charme_'
'charismatic_'
'charisma_'
'characterized_'
'characteris'
'changea'
'chad_'
'cellent_'
'cc'
'cb'
'casserole_'
'casa'
'carpe'
'carolyn_'
'capr'
'canopies_'
'cani'
'calmed_'
'calle'
'californian_'
'cajun_'
'caffe_'
'cafetiere_'
'butthe'
'butbe'
'busyi_'
'busboy'
'bunn'
'bulgarian_'
'bugbear_'
'budgets_'
'buddha_'
'brutal_'
'brown'
'brittania_'
'britt'
'brie'
'brides'
'bridal_'
'brew'
'brett_'
'breakfastth'
'breakfastn'
'breakfastc'
'breaded_'
'brash_'
'bracelet_'
'bowe'
'boo_'
'bonnie_'
'bolognese_'
'bode'
'blis'
'biryani_'
'bio'
'bid'
'bever'
'berating_'
'benny_'
'belt'
'bedsthe_'
'beck_'
'beautifull_'
'beac'
'batt'
'batht'
'bass'
'bari'
'barbi'
'barber'
'balm'
'bake'
'bak'
'bain_'
'baguettes_'
'bagg'
'bads'
'backwe_'
'backlog_'
'bacardi_'
'babysitter_'
'az_'
'ayurvedic_'
'aya'
'avoidable_'
'avery_'
'avai'
'aus_'
'aun'
'atu'
'att_'
'athlete'
'assess'
'assembly_'
'asked'
'arth'
'arten'
'arrange'
'arma'
'arit'
'areasthe_'
'ardi'
'apt'
'apr'
'approve_'
'appreciati'
'appologetic_'
'appealed_'
'anythingand_'
'anxiety_'
'anomaly_'
'angles_'
'andra_'
'andr'
'andh'
'andfrom_'
'analog'
'amply_'
'amicably_'
'alternati'
'allstaff_'
'alin'
'alig'
'alex'
'alcho'
'al'
'aks'
'ajar_'
'agin_'
'agencies_'
'afr'
'affiliat'
'adviser_'
'advi'
'adjective'
'address'
'actual'
'acom'
'accumulat'
'accl'
'accidently_'
'accented_'
'absorb_'
'aboutthe_'
'abide_'
'abd'
'aar'
'aand_'
']_'
'://_'
':- )'
'81_'
'5m'
'53'
'50am_'
'430_'
'4000_'
'38th_'
'30minutes_'
'30am'
'2006_'
'130'
'12noon_'
'115_'
'104_'
'0600_'
'0400_'
'. ) '
'------'
'+++'
'* * * * * '
'*'
'! ! '
' 👍 '
' ? "_'
' ; -_'
' ; " _'
' :-('
' : ) '
' ..........._'
' ...... '
' ..... '
' .... ) ._'
' ... - _'
' .. ) _'
' .. !_'
' . :-)_'
' -- '
' , ..'
' , " '
' ) ;'
' ) " _'
' ('
' ' .'
' ' ' '
' %_'
' $ '
' " -- _'
' " ! ! !'
' ! ! ) , _'
' ! ! ! ! ! ! ! ! ! !'
'‘_'
'~ _'
'~'
'zs'
'zation_'
'yv'
'ythi'
'youn'
'youi_'
'yhe_'
'yel'
'ydo'
'yangon_'
'xo'
'writer_'
'wre_'
'wrapper_'
'wrangl'
'workman_'
'workd'
'wool_'
'woods'
'wok_'
'wn_'
'withe_'
'withe'
'wis'
'wines'
'wiling_'
'wigwam'
'wifia'
'wierd_'
'widest_'
'whoop'
'whining_'
'wheat'
'wembley_'
'welcomingand_'
'welco'
'wec'
'wealthy_'
'washrooms_'
'wasbut_'
'wakes_'
'waiving_'
'vt'
'vowed_'
'volcano_'
'voic'
'visita'
'viol'
'villages_'
'vig'
'viewthe_'
'victim_'
'verry_'
'vern'
'venu'
'vela_'
'vea'
'vand'
'valid'
'uu'
'uts_'
'urd'
'urants_'
'upso_'
'upped_'
'upc'
'unwi'
'unwarranted_'
'unw'
'unto'
'unscr'
'unrelated_'
'unprompted_'
'unpolite_'
'unpleasant'
'unnec'
'unn'
'unhelpful'
'unfussy_'
'unfr'
'unethical_'
'undercover_'
'uncom'
'unap'
'umbr'
'uli'
'ukrain'
'uit_'
'ugh'
'udaipur_'
'ubud_'
'ua_'
'typifie'
'typhoon_'
'twitter_'
'tut'
'tuscany_'
'turnoff_'
'tures_'
'tta'
'trudged_'
'trudge_'
'troll'
'trea'
'travelo'
'traveler'
'transporting_'
'transformation_'
'transa'
'towell'
'tout_'
'tout'
'tourn'
'tough'
'touchs'
'tote'
'tos_'
'tory_'
'toni'
'tome'
'toh'
'toastie_'
'tize'
'tivoli_'
'tious'
'timi'
'timewe_'
'timesh'
'tik'
'thursdays_'
'thumb_'
'ths'
'thisa'
'thinne'
'thes'
'thereon'
'thereh'
'theref'
'themso_'
'theme'
'thef'
'thay_'
'thais_'
'tge_'
'terre'
'teria'
'temperature'
'teamthe_'
'tched_'
'taw'
'tatiana_'
'tast'
'tanks_'
'tand'
'tala'
'taker_'
'tak'
'tahoe_'
'swimm'
'swiming_'
'swee'
'swarming_'
'swans_'
'swallow_'
'sustainable_'
'susann'
'surveys_'
'surve'
'surpri'
'surp'
'supermarkets_'
'sunni'
'sung'
'sundown'
'suitethe_'
'suitcase'
'substan'
'subo'
'stur'
'stupid'
'stung_'
'stud'
'structure'
'struct'
'stow_'
'stormy_'
'storm'
'stomachs_'
'sting'
'stica'
'stha'
'stefano_'
'stealing_'
'stea'
'stayc'
'static_'
'stanley_'
'stampede_'
'stam'
'staffo'
'staffm'
'staffb'
'stad'
'sra'
'spruced_'
'sprite_'
'spr'
'spontaneously_'
'splendido_'
'spiff'
'speci'
'spark'
'sonn'
'snuff_'
'snowstorm_'
'snooker_'
'smoking'
'sme'
'sman'
'slowi_'
'sloppi'
'slope_'
'slope'
'slipp'
'sleepi'
'slee'
'skimping_'
'skimp'
'sition_'
'sional_'
'singularly_'
'sings_'
'silver'
'sighed_'
'sian_'
'shoutout_'
'shoe'
'shl'
'shire_'
'shipment_'
'shawn_'
'shank'
'shang_'
'shang'
'shane_'
'shaker_'
'sfa'
'seth'
'servicethey_'
'serviceth'
'servicef'
'servce_'
'servant_'
'serice_'
'semi'
'seemd_'
'seem'
'seelbach_'
'seda'
'section'
'second'
'seb'
'seated'
'seas_'
'screeching_'
'scrape_'
'scrape'
'scari'
'scan'
'sbury_'
'sawa'
'saut'
'sash_'
'sari'
'salzburg_'
'salt'
'salesman_'
'sail'
'sacked_'
'ryanair_'
'rv_'
'russell_'
'russ'
'rta'
'rson'
'rre'
'rra'
'royally_'
'royal'
'rov'
'roomt'
'roomsf'
'roomsbut_'
'roomhowever_'
'roomg'
'ronnie_'
'rond'
'roadworks_'
'rish'
'rion_'
'rin'
'rid'
'rico_'
'rez'
'revolve'
'revisited_'
'reveal_'
'reus'
'reuni'
'retrieval_'
'retrain_'
'resu'
'resturant'
'restauranti_'
'restauranti'
'ressed_'
'resortthe_'
'resonable_'
'resolved'
'resid'
'reserved'
'requisite_'
'repack'
'renat'
'remnants_'
'rell'
'relentlessly_'
'rel'
'reinstate'
'reign'
'reid'
'reheat_'
'rehab_'
'refurbishments_'
'refrigeration_'
'rees_'
'redress'
'reconstruction_'
'recie'
'receptionso_'
'receptionists'
'receptionistand_'
'receiver_'
'reboo'
'rebate_'
'readiness_'
'rch'
'rbut_'
'raymond_'
'rative_'
'rationale_'
'rates'
'rancid_'
'ramps_'
'ramon_'
'ramo'
'rait'
'rainforest_'
'raff'
'quizzed_'
'quet_'
'quart'
'qualia_'
'puzzle_'
'purposely_'
'pulo'
'pudong_'
'puck_'
'pub'
'prunes_'
'protest'
'protective_'
'protea_'
'prospect_'
'propriet'
'proposition_'
'promptly'
'prohibit'
'profitab'
'prodd'
'proceeds_'
'probe'
'prob'
'prise'
'prioritize'
'priorit'
'principe_'
'priceless_'
'pric'
'presumed_'
'pressure'
'press'
'prefers_'
'prefered_'
'preferably_'
'predict_'
'preceded_'
'practiced_'
'ppe'
'potter'
'potatoe'
'poolth'
'pony'
'pont'
'poly'
'politea'
'poison'
'plen'
'pleasantstaff_'
'pleading_'
'plaster'
'plaque_'
'planted_'
'plant'
'placest'
'pitty_'
'piper_'
'pilots_'
'pills_'
'picc'
'phony_'
'phonethe_'
'philippin'
'philippe_'
'phi_'
'phere_'
'phant'
'pervades_'
'pertaining_'
'persuasion_'
'persp'
'personali'
'perpetual_'
'perla_'
'perched_'
'penne_'
'pencil_'
'pelican_'
'peep'
'peel_'
'peeked_'
'pear'
'peak'
'pave'
'paulina_'
'patient'
'patches_'
'participated_'
'parador_'
'paige_'
'overweight_'
'overwater_'
'overtime_'
'overcrowding_'
'overalls'
'oute'
'ourn'
'ouch_'
'otte'
'osh'
'orst'
'oro_'
'orm'
'ores_'
'ordina'
'orderand_'
'optic'
'opo'
'operat'
'oper'
'oot_'
'ooo'
'oons_'
'ooking_'
'oner'
'onbut_'
'ompl'
'omit'
'omi'
'omet'
'oman_'
'ols'
'oke'
'okayi'
'ois'
'offi'
'offere'
'offence_'
'oda'
'octo'
'objects_'
'objection'
'nr_'
'nowi'
'nou'
'nott'
'notoriously_'
'nonplussed_'
'noisier_'
'nik'
'nigel_'
'nickel'
'niceth'
'niceon'
'nicec'
'nibble'
'ngi'
'nge_'
'nen'
'nem'
'nelson_'
'negro'
'neglect'
'nee_'
'nec_'
'nearing_'
'ndly_'
'natt'
'nations_'
'nate_'
'nas_'
'nana'
'namibia_'
'nac'
'muse'
'muscle_'
'murky_'
'mst'
'mp_'
'mov'
'most'
'morningso_'
'mondays_'
'mona'
'moment'
'mok'
'moan'
'misu'
'mismanaged_'
'ming'
'mina_'
'mighty_'
'micha'
'mia'
'mey'
'metro'
'merit'
'merg'
'meo'
'menue_'
'mens_'
'memori'
'meme'
'memberst'
'melting_'
'mediocrity_'
'md'
'mbi'
'matte'
'matin'
'mater'
'maswik_'
'masseuses_'
'masc'
'marvel_'
'marvel'
'maro'
'mariana_'
'manta'
'mans'
'mange'
'manda'
'managers'
'manageri_'
'managerbut_'
'maintence_'
'maine_'
'magiquest_'
'mada'
'macy'
'mach'
'macarons_'
'maca'
'm6_'
'lw'
'lump'
'lowering_'
'loveliest_'
'lorraine_'
'loren'
'loosely_'
'loin_'
'logan_'
'loews_'
'lodged_'
'ller'
'litt'
'litre_'
'listen'
'lina_'
'limes'
'liam_'
'lest_'
'lerie'
'leonardo_'
'leo'
'lent'
'lenox_'
'leaned_'
'laun'
'laterand_'
'lanes_'
'labelling_'
'kul'
'kshi'
'kristi'
'koi_'
'knowthe_'
'knowi'
'knack_'
'kle_'
'kidney_'
'keyst'
'kennel'
'kem'
'ked'
'kea'
'karina_'
'kand'
'justifiabl'
'julie'
'juicer_'
'judge'
'jp'
'journeys_'
'jord'
'join'
'john'
'johann'
'jets'
'jetlagged_'
'jb'
'jackhammer'
'ivor'
'ivi'
'ivat'
'itall_'
'italia_'
'istic_'
'isla'
'isb'
'ird_'
'inv'
'ints_'
'interruptions_'
'intermi'
'interc'
'instinct'
'installation'
'innthe_'
'innocent_'
'inno'
'inna'
'ining_'
'inin'
'ingw'
'ingth'
'ingso_'
'informal'
'inconvenien'
'incons'
'impression'
'impractical_'
'imper'
'impeccable'
'imes_'
'ila'
'ighte'
'idle_'
'ibrahim_'
'iati'
'huts_'
'humour'
'human'
'huff'
'hp_'
'housek'
'hotplate_'
'hotelre'
'hoteld'
'hort'
'horseradish_'
'hoovered_'
'holidaymakers_'
'histori'
'hist'
'hipster_'
'hing'
'hind'
'himi'
'hilar'
'hgis_'
'herei_'
'herded_'
'helpfulvery_'
'helpfulthis_'
'helpfulthey_'
'helpfulthere_'
'helpfulre'
'helpfuli'
'helpfu_'
'hell'
'heeled_'
'heck'
'headl'
'hate'
'hassle'
'hardwood_'
'hansar_'
'hangout_'
'handset_'
'handp'
'handi'
'hana_'
'hailed_'
'h00_'
'gutte'
'gusts_'
'guns_'
'gula'
'guinea_'
'guide'
'guess'
'groups'
'grin'
'grimy_'
'gres'
'greatth'
'greatb'
'grate_'
'grassy_'
'grasp'
'grap'
'granting_'
'grandsons_'
'gradua'
'gracefully_'
'gosh_'
'goody'
'goodreception_'
'goodo'
'goni'
'glad'
'giu'
'gie_'
'ghts_'
'gha_'
'getti'
'georgetown_'
'gems_'
'gang'
'game'
'galley_'
'gabrielle_'
'fy'
'fussing_'
'fus'
'function'
'fuji_'
'fte'
'frustrate'
'frugal_'
'fron'
'frog'
'frightening_'
'friendlly_'
'frequent'
'frederick'
'freaking_'
'four'
'fou'
'footprint_'
'foh_'
'flyers_'
'fluorescent_'
'fluid'
'floorwe_'
'flippant_'
'flick'
'flan'
'fl'
'fixings_'
'fisher'
'firmer_'
'firem'
'fineand_'
'finea'
'final'
'filip'
'fies_'
'field'
'ffle'
'fest'
'feri'
'fellows_'
'feli'
'fay'
'faultlessly_'
'fatima_'
'fate'
'farther_'
'fara'
'fanat'
'fame_'
'fairy_'
'faint'
'extreamly_'
'exposure_'
'expir'
'experince_'
'expensivethe_'
'expedition'
'exag'
'everythingthe_'
'everthe'
'events'
'eva'
'eurostar_'
'ette'
'eton_'
'etcwe_'
'etce'
'estuary_'
'estimate_'
'esther_'
'establishment'
'espite_'
'escalators_'
'erved_'
'ersa'
'ernesto_'
'erm_'
'erik_'
'erat'
'erased_'
'equipments_'
'epti'
'ept'
'entourage_'
'ening_'
'enic_'
'engrossed_'
'englishi_'
'endo'
'ende'
'encountered'
'ence'
'empower'
'employee'
'empl'
'emo'
'emil'
'emerged_'
[...]
