'<pad>'
'<EOS>'
'<GO>'
'<OOV>'
'<DOC>'
'</DOC>'
' ._'
'the_'
'a_'
' , _'
'and_'
'was_'
'is_'
'to_'
'good_'
'for_'
'i_'
'in_'
'it_'
'of_'
'hotel_'
'very_'
'but_'
'not_'
'we_'
'this_'
'breakfast_'
'with_'
'room_'
'that_'
'at_'
'on_'
'had_'
' - _'
'stay_'
'as_'
'you_'
'were_'
'have_'
'are_'
'there_'
'would_'
'food_'
'be_'
't_'
'which_'
'n_'
' '_'
's_'
''_'
'nice_'
'so_'
'all_'
'an_'
'my_'
'if_'
'no_'
'one_'
'great_'
' ( _'
'expensive_'
'price_'
'night_'
'our_'
'here_'
'service_'
'only_'
'they_'
'really_'
' !_'
'quality_'
'from_'
'rooms_'
'restaurant_'
'did_'
'free_'
'buffet_'
'value_'
'overall_'
'again_'
'more_'
'better_'
'also_'
'excellent_'
'than_'
'stayed_'
'or_'
'well_'
'just_'
'what_'
'get_'
'do_'
'choice_'
'other_'
'hotels_'
'quite_'
'ok_'
'when_'
'bar_'
'out_'
' ) _'
'experience_'
'small_'
'rate_'
'fine_'
'wifi_'
'worth_'
'much_'
'time_'
'average_'
'has_'
'could_'
'too_'
'reasonable_'
'can_'
'like_'
' . _'
'up_'
' $ _'
'by_'
' " _'
'place_'
'pool_'
'bit_'
'some_'
'day_'
'been_'
'will_'
'best_'
'little_'
'about_'
'standard_'
'staff_'
'money_'
'even_'
' ' _'
'dinner_'
'however_'
'selection_'
'got_'
'pretty_'
'me_'
'5_'
'hot_'
'star_'
'._'
'internet_'
'decent_'
'2_'
'high_'
'two_'
'comfortable_'
'included_'
'business_'
'nights_'
' ) ._'
' / _'
'_'
'us_'
'parking_'
'floor_'
'area_'
'over_'
'poor_'
'first_'
'bed_'
' £ _'
'most_'
'your_'
'after_'
'paid_'
'nothing_'
'coffee_'
'lounge_'
'water_'
'sleep_'
'prices_'
'booked_'
'3_'
'disappointing_'
'cheap_'
'disappointed_'
'4_'
'though_'
'pay_'
'its_'
'found_'
'still_'
'view_'
'think_'
'although_'
'check_'
'next_'
'because_'
'am_'
'available_'
'hilton_'
'their_'
'per_'
'any_'
'expect_'
'large_'
'cost_'
'deal_'
'everything_'
'bad_'
'shower_'
'many_'
'back_'
'location_'
'then_'
'use_'
'say_'
'gym_'
'property_'
'cold_'
'extra_'
'facilities_'
' : _'
'drinks_'
'bathroom_'
'being_'
'evening_'
'full_'
'go_'
'd_'
'should_'
'made_'
'size_'
'both_'
'definitely_'
'limited_'
'club_'
'recommend_'
'adequate_'
'before_'
'lobby_'
'given_'
'enough_'
'probably_'
'off_'
'charge_'
'need_'
' & _'
'meal_'
'staying_'
'find_'
'pricey_'
'menu_'
'inn_'
'morning_'
'does_'
'priced_'
'same_'
'options_'
'marriott_'
'few_'
'down_'
'thought_'
'impressed_'
'overpriced_'
'rather_'
'people_'
'way_'
'lot_'
'never_'
'another_'
'big_'
'around_'
'top_'
' ... _'
'1_'
'last_'
' ; _'
'expected_'
'certainly_'
'having_'
'special_'
'basic_'
'spa_'
'such_'
'airport_'
'during_'
'resort_'
'happy_'
'air_'
'tv_'
'every_'
'noise_'
'work_'
'offer_'
'make_'
'pleased_'
'want_'
'used_'
'old_'
'while_'
'felt_'
'thing_'
'days_'
'restaurants_'
'where_'
'holiday_'
'surprised_'
'choices_'
'told_'
'door_'
'executive_'
'upgrade_'
'less_'
'especially_'
'ever_'
'sure_'
'plenty_'
'level_'
'clean_'
'pleasant_'
'new_'
'them_'
'offered_'
'guests_'
'variety_'
'said_'
'times_'
'friendly_'
'lovely_'
'long_'
'wine_'
'feel_'
'10_'
' ?_'
'eat_'
'tea_'
'access_'
'acceptable_'
'etc_'
'trip_'
'option_'
'far_'
'main_'
'return_'
'ate_'
'through_'
'things_'
'see_'
'into_'
'quiet_'
'these_'
'plus_'
'went_'
'dining_'
'suite_'
'paying_'
'now_'
'extremely_'
'always_'
've_'
'slow_'
'usual_'
'otherwise_'
'enjoyed_'
'reasonably_'
'going_'
'typical_'
'looking_'
'tasty_'
'second_'
'early_'
' ..._'
'beds_'
'open_'
' ) , _'
'visit_'
'else_'
'’_'
'complimentary_'
'cooked_'
'rates_'
'seemed_'
' ’_'
'fresh_'
'side_'
'reception_'
'conference_'
'how_'
'served_'
'part_'
'amenities_'
'each_'
'look_'
'lunch_'
'style_'
'/_'
'who_'
'outside_'
'booking_'
'hour_'
'continental_'
'wi_'
'fi_'
'standards_'
'something_'
'including_'
'since_'
'park_'
'asked_'
'looked_'
'range_'
'london_'
'least_'
'three_'
'years_'
'worst_'
'know_'
'actually_'
'why_'
'space_'
're_'
'6_'
'without_'
'left_'
'meals_'
'try_'
'hours_'
'huge_'
'drink_'
'family_'
'come_'
'm_'
'either_'
'take_'
'problem_'
'provided_'
'ca_'
'noisy_'
'reviews_'
'fruit_'
'end_'
'30_'
'eggs_'
'- _'
'lots_'
'hard_'
'weekend_'
'nt_'
'fairly_'
'items_'
'due_'
'luxury_'
'book_'
'arrived_'
'compared_'
'real_'
'needs_'
'considering_'
' ., _'
'week_'
'four_'
'give_'
'itself_'
'may_'
'late_'
'couple_'
'low_'
'50_'
'offers_'
'e_'
' ,_'
'order_'
'once_'
'20_'
'seems_'
'desk_'
'half_'
'charged_'
'year_'
'points_'
'-_'
'put_'
'above_'
' ! !_'
'modern_'
'different_'
'fact_'
'must_'
'away_'
'fair_'
'double_'
'course_'
'busy_'
'those_'
'cheaper_'
'anything_'
'almost_'
'took_'
'fantastic_'
'car_'
'member_'
'package_'
'unfortunately_'
'rating_'
'disappointment_'
'enjoyable_'
'00_'
' -_'
'elsewhere_'
'start_'
'short_'
'issue_'
'hyatt_'
'bath_'
'minutes_'
'building_'
'plentiful_'
'generally_'
'came_'
'terrible_'
'premier_'
'whole_'
' -- _'
'might_'
', _'
'until_'
'flight_'
'spread_'
'table_'
'15_'
'pm_'
'needed_'
'light_'
'class_'
'several_'
'budget_'
' )_'
'point_'
'okay_'
'person_'
'lack_'
'yes_'
'despite_'
'fee_'
'wanted_'
'delicious_'
'front_'
'kids_'
'reason_'
'getting_'
'window_'
'maybe_'
'8_'
'spent_'
'let_'
'wo_'
'touch_'
'set_'
'difficult_'
'able_'
'areas_'
'overnight_'
'similar_'
'7_'
'city_'
'swimming_'
'between_'
'upgraded_'
'site_'
'particularly_'
'chain_'
'stars_'
'others_'
'wide_'
'right_'
'five_'
'unless_'
'warm_'
'choose_'
'rest_'
'slightly_'
'wait_'
'checked_'
'b_'
'safe_'
'snacks_'
'higher_'
'mediocre_'
'worked_'
'ordered_'
'own_'
'perfectly_'
'bottle_'
'number_'
'group_'
'll_'
'below_'
'review_'
'non_'
'done_'
'sized_'
' .( _'
'mini_'
'expectations_'
'tried_'
'accommodation_'
'under_'
'conditioning_'
'helpful_'
'type_'
'breakfasts_'
'website_'
'views_'
'guest_'
'amazing_'
' ! _'
'normal_'
'he_'
'brand_'
'loud_'
'negative_'
'sheraton_'
'close_'
'ask_'
'arrival_'
'simple_'
'fitness_'
'annoying_'
'making_'
'except_'
'travel_'
'places_'
'working_'
'makes_'
'spacious_'
'decided_'
'wonderful_'
'somewhat_'
'westin_'
'y_'
'card_'
'awful_'
'fast_'
'totally_'
'charges_'
'near_'
'using_'
'towels_'
'satisfied_'
'world_'
' .- _'
'keep_'
'fridge_'
'usually_'
'center_'
'100_'
'pressure_'
'seem_'
'connection_'
'amount_'
'positive_'
'recently_'
'perhaps_'
'machine_'
'absolutely_'
'dated_'
'varied_'
'ridiculous_'
'tired_'
'bedroom_'
'single_'
'pleasantly_'
'spend_'
'toiletries_'
'dishes_'
'24_'
'throughout_'
'western_'
'guess_'
'la_'
'12_'
'seen_'
'walk_'
'meeting_'
'opinion_'
' ...._'
'properties_'
' % _'
'taste_'
'later_'
'speed_'
'members_'
'received_'
'believe_'
'afternoon_'
':_'
'atmosphere_'
'premium_'
' .. _'
'ing_'
'instead_'
'windows_'
'consider_'
'wife_'
'beer_'
'king_'
'somewhere_'
'gave_'
'glass_'
'9_'
'wrong_'
'avoid_'
'25_'
'change_'
'grand_'
'previous_'
'nearby_'
'offering_'
'impressive_'
'lighting_'
'advance_'
'tiny_'
'issues_'
'house_'
'ago_'
'terms_'
'euros_'
'crowded_'
'toilet_'
'customer_'
'closed_'
'important_'
'hear_'
'channels_'
'relaxing_'
'provide_'
'ed_'
'uncomfortable_'
'quick_'
'line_'
'looks_'
'home_'
'wall_'
'someone_'
'biggest_'
'beach_'
'enjoy_'
'nicer_'
'minor_'
'presented_'
'major_'
'complaint_'
'balcony_'
' .._'
'shame_'
'facility_'
'expecting_'
'english_'
'run_'
'convenient_'
'lower_'
'platinum_'
'located_'
'apart_'
'sound_'
'inside_'
'bill_'
'whilst_'
'local_'
'beautiful_'
'bacon_'
'bread_'
'case_'
'turned_'
'fault_'
'shop_'
'kept_'
'chose_'
'lodge_'
'children_'
'perfect_'
'longer_'
'gold_'
'across_'
'call_'
'kind_'
'c_'
'highly_'
' ! ! !_'
'valet_'
'self_'
'simply_'
'super_'
'indeed_'
'based_'
'called_'
'leave_'
'( _'
'surprise_'
'decor_'
'general_'
'temperature_'
'trying_'
'relatively_'
'system_'
'services_'
'public_'
'outstanding_'
'surprisingly_'
'break_'
'elevators_'
'costs_'
'superb_'
'inclusive_'
'unacceptable_'
'additional_'
'clearly_'
'past_'
'o_'
'upon_'
'street_'
'already_'
'pillows_'
'minute_'
'fare_'
'comfort_'
'liked_'
'cafe_'
'complaints_'
'ritz_'
'prepared_'
'equipment_'
'completely_'
'generous_'
'coming_'
'anyone_'
'soft_'
'welcome_'
'checking_'
'phone_'
'extensive_'
'worse_'
'suites_'
'party_'
'experienced_'
'downside_'
'impression_'
'difference_'
'ready_'
'bland_'
'yet_'
'understand_'
'twice_'
'steak_'
'moved_'
'she_'
'regular_'
'age_'
'head_'
'ordinary_'
'eating_'
'hampton_'
'exceptional_'
' – _'
'within_'
'equipped_'
'read_'
'superior_'
'help_'
'often_'
'fish_'
'juice_'
'euro_'
'anyway_'
'separate_'
'ended_'
'doors_'
'downstairs_'
'love_'
'fan_'
'charging_'
'salad_'
'mind_'
'sofitel_'
'motel_'
'dark_'
'200_'
'problems_'
'40_'
'meant_'
'elevator_'
'bargain_'
'sit_'
'outrageous_'
'finally_'
'affordable_'
'note_'
'gets_'
'efficient_'
'recommended_'
'floors_'
'con_'
'cheese_'
' .... _'
'tub_'
'express_'
'leisure_'
'international_'
'true_'
'reservation_'
'move_'
'management_'
'means_'
'husband_'
'added_'
'11_'
'solid_'
'appointed_'
'disney_'
'anywhere_'
'list_'
'ground_'
'add_'
'waiting_'
' + _'
'scrambled_'
'radisson_'
'loved_'
'foods_'
'stays_'
'pastries_'
'novotel_'
'pre_'
'daily_'
'tour_'
'road_'
'changed_'
'serves_'
'everyone_'
' € _'
'95_'
'chicken_'
'machines_'
'cool_'
'complain_'
'centre_'
'obviously_'
'feeling_'
'chips_'
'none_'
'lacking_'
'total_'
'stop_'
'concierge_'
'strange_'
'luggage_'
'empty_'
'carte_'
'discount_'
'entire_'
'credit_'
'ones_'
'idea_'
' ( $ _'
'sauna_'
'renovation_'
'impossible_'
'&_'
'outdoor_'
'bathrooms_'
'visited_'
'larger_'
'central_'
'sleeping_'
'online_'
'normally_'
'returned_'
'cheapest_'
'possible_'
'music_'
'com_'
'pub_'
'appreciated_'
'taken_'
'sufficient_'
'design_'
'comfy_'
'works_'
'include_'
'cereals_'
'smaller_'
'nyc_'
'tables_'
'corner_'
'nearly_'
'lift_'
'wireless_'
'glad_'
'board_'
'sunday_'
'pools_'
'nicely_'
'horrible_'
'odd_'
'offerings_'
'easy_'
'requested_'
'honest_'
'. _'
'fully_'
'egg_'
'bring_'
'via_'
'minibar_'
'comment_'
'chairs_'
'furniture_'
'renovated_'
'managed_'
'ice_'
'american_'
' * _'
'treat_'
'surprising_'
'months_'
'weak_'
'sadly_'
'tax_'
'smoking_'
'job_'
'future_'
'spg_'
'par_'
'housekeeping_'
'third_'
'middle_'
'walls_'
'key_'
'usd_'
'deluxe_'
'attention_'
'truly_'
'seating_'
'satisfactory_'
'bonus_'
'request_'
'families_'
'diamond_'
'comes_'
'turn_'
'town_'
'pizza_'
'competitive_'
'indoor_'
'asian_'
'opened_'
'300_'
'example_'
'dollars_'
'name_'
'station_'
'recent_'
'cocktails_'
'pricing_'
'her_'
'friends_'
'chair_'
'burger_'
'garden_'
'convenience_'
'ac_'
'sort_'
'signal_'
'r_'
'care_'
'wish_'
'kitchen_'
'therefore_'
'basically_'
'summer_'
'portions_'
'maintained_'
'complete_'
'functional_'
'singapore_'
'roof_'
'provides_'
'taking_'
'along_'
'uk_'
'inexpensive_'
'indian_'
'saw_'
'heard_'
'sea_'
'heating_'
'european_'
' " ._'
'vacation_'
'serve_'
'smell_'
'unusual_'
'suggest_'
'show_'
'mid_'
'easily_'
'returning_'
'buy_'
'toast_'
'italian_'
'shuttle_'
'weeks_'
'thin_'
'luxurious_'
'mentioned_'
'bottles_'
'feels_'
'sink_'
'saturday_'
'heat_'
'exactly_'
'weather_'
'quickly_'
'g_'
'convention_'
'selections_'
'improved_'
'status_'
'event_'
'addition_'
'following_'
'alone_'
'slept_'
'stocked_'
'sausages_'
'intercontinental_'
'flat_'
'aware_'
' “ _'
'myself_'
'screen_'
'ocean_'
'bother_'
'courtyard_'
'common_'
'nor_'
'ly_'
'rated_'
'wedding_'
'hand_'
'doubt_'
'running_'
'reliable_'
'starbucks_'
'his_'
'useful_'
'rip_'
'overlooking_'
'live_'
'delivered_'
'category_'
'sitting_'
'mostly_'
'hardly_'
'comparable_'
'ibis_'
'corporate_'
'minimal_'
'attentive_'
'walking_'
'round_'
'facing_'
'together_'
'older_'
'fixed_'
'18_'
'14_'
'hope_'
'company_'
'bottled_'
'imagine_'
'hall_'
'cramped_'
'alternative_'
'please_'
'travelers_'
'pounds_'
'likely_'
'japanese_'
'stuff_'
'broken_'
'supposed_'
'reading_'
'control_'
'sometimes_'
'sign_'
'lights_'
'twin_'
'taxes_'
'season_'
'sandwich_'
'leaving_'
'attractive_'
'attached_'
'fit_'
'comparison_'
'dry_'
',_'
'upscale_'
'extras_'
'everywhere_'
'condition_'
'apparently_'
'tell_'
'advertised_'
'power_'
'mean_'
'consistent_'
'write_'
'travelling_'
'inns_'
'fancy_'
'refurbished_'
'missing_'
'gone_'
'saying_'
'lifts_'
'massage_'
'europe_'
'clear_'
'notch_'
'customers_'
'ample_'
'yourself_'
'es_'
'adults_'
'occasion_'
'manager_'
'frustrating_'
'elite_'
'started_'
'taxi_'
'bigger_'
'snack_'
'terrace_'
'pricy_'
'plaza_'
' :_'
'traveler_'
'strong_'
'60_'
'york_'
'laundry_'
'fun_'
'incredibly_'
'accor_'
'chinese_'
'mattress_'
'forward_'
'feature_'
'entertainment_'
'2nd_'
'plan_'
'paper_'
'christmas_'
'/ _'
'sad_'
'remember_'
'private_'
'particular_'
'l_'
'improvement_'
'experiences_'
'tasteless_'
'properly_'
'negatives_'
'doing_'
'white_'
'purpose_'
'personal_'
'exec_'
'knew_'
'frankly_'
'checkout_'
'red_'
'mention_'
'asking_'
' ! )_'
'brought_'
'visiting_'
'traveling_'
'construction_'
'store_'
'steam_'
'soon_'
'maker_'
'required_'
'hong_'
'fabulous_'
'worn_'
'suitable_'
'priceline_'
'noticed_'
'le_'
'entrance_'
'wing_'
'travellers_'
'friday_'
'tasted_'
'traveller_'
'previously_'
'happened_'
'16_'
'kong_'
'ihg_'
'dirty_'
'arrive_'
'soap_'
'opted_'
'allowed_'
'outlets_'
'includes_'
' ” _'
'oh_'
'excessive_'
'cup_'
'cleanliness_'
'corridor_'
' ’ _'
'tower_'
'ridiculously_'
'bars_'
'accommodations_'
'receive_'
'prefer_'
'penny_'
'match_'
'layout_'
'freshly_'
'directly_'
'sandwiches_'
'grill_'
'designed_'
'barely_'
'whether_'
'w_'
'tight_'
'poorly_'
'exception_'
'corridors_'
'beyond_'
'unit_'
'spending_'
'meat_'
'matter_'
'voucher_'
'mixed_'
'curtains_'
'awesome_'
'sorry_'
'prior_'
'miss_'
'joke_'
'watch_'
'neither_'
'buffets_'
'waste_'
'refurbishment_'
'giving_'
'35_'
'sun_'
'juices_'
'french_'
'advantage_'
'tip_'
'save_'
'pick_'
'iron_'
'further_'
'eventually_'
'80_'
'possibly_'
'catering_'
'ideal_'
'f_'
'st_'
'resorts_'
'honestly_'
'bottom_'
'plastic_'
'45_'
'150_'
' . )_'
'fruits_'
'stand_'
'soup_'
'seriously_'
'seasons_'
'ambience_'
'17_'
'tripadvisor_'
'inconvenient_'
'boring_'
'cereal_'
'carlton_'
'400_'
'considered_'
'$ _'
'starwood_'
'setting_'
'establishment_'
'cocktail_'
'interesting_'
'chance_'
'bedrooms_'
'rack_'
'arriving_'
'3rd_'
'venue_'
'preferred_'
'market_'
'complained_'
'ng_'
'appeared_'
'sports_'
'salmon_'
'groups_'
'fees_'
'result_'
'necessary_'
'living_'
'hence_'
'healthy_'
'u_'
'security_'
'90_'
'stuck_'
'breads_'
'black_'
'albeit_'
' ....._'
'unable_'
'goes_'
'certain_'
'bags_'
'70_'
'state_'
'stairs_'
'mistake_'
'river_'
'maintenance_'
'behind_'
'chocolate_'
'orange_'
'effective_'
'deals_'
'complementary_'
'basis_'
'agree_'
'13_'
'flights_'
'earlier_'
'various_'
'serving_'
'opening_'
'news_'
'jacuzzi_'
'hair_'
'cons_'
'substantial_'
'happen_'
'handy_'
'gives_'
'extortionate_'
'workout_'
'proper_'
'notice_'
'massive_'
'known_'
'bus_'
'brilliant_'
'wines_'
'unpleasant_'
'relax_'
'cruise_'
'walked_'
'sofa_'
'reasons_'
'cut_'
'plates_'
'hit_'
'fire_'
'decorated_'
'aircon_'
'spectacular_'
'sausage_'
'policy_'
'meetings_'
'grounds_'
'exorbitant_'
'dollar_'
'benefit_'
'plate_'
'placed_'
'met_'
'function_'
'bangkok_'
'levels_'
'birthday_'
'allocated_'
'vegetarian_'
'heated_'
'appears_'
'22_'
'wow_'
'till_'
'spoilt_'
'ceiling_'
'thai_'
'suppose_'
'informed_'
'dish_'
' ? _'
'terminal_'
'plug_'
'mornings_'
'downtown_'
'carpet_'
'basement_'
'shampoo_'
'renovations_'
'queen_'
'newer_'
'milk_'
'lucky_'
'immediately_'
'date_'
'closet_'
'chef_'
' : - _'
'honors_'
'gripe_'
'compare_'
'boutique_'
'block_'
'steep_'
'products_'
'lacks_'
'embassy_'
'court_'
'against_'
'tastes_'
'k_'
'health_'
'gift_'
'equally_'
'cleaned_'
'500_'
'welcoming_'
'features_'
'discounted_'
'character_'
'sat_'
'overly_'
'nowhere_'
'detail_'
'bag_'
' ." _'
'towel_'
'showers_'
'jw_'
'friend_'
'badly_'
' ! ) ._'
'waited_'
'queue_'
'mine_'
'250_'
'young_'
'portion_'
'beverages_'
'thoroughly_'
'period_'
'cleaning_'
'casino_'
'become_'
'alcohol_'
'winter_'
'surely_'
'replaced_'
'mainly_'
'dreadful_'
'cream_'
'traffic_'
'refrigerator_'
'mirror_'
'fried_'
'traditional_'
'mins_'
'microwave_'
'concerned_'
' ' ._'
'paris_'
'costly_'
'memorable_'
'99_'
'wise_'
'thank_'
'spaces_'
'inadequate_'
'fairmont_'
'factor_'
'beware_'
'dubai_'
'constant_'
'aspect_'
'vegas_'
'occasions_'
'chicago_'
'sydney_'
'p_'
'expectation_'
'benefits_'
'storage_'
'personally_'
'junior_'
'loyalty_'
'frequent_'
'disaster_'
'web_'
'updated_'
'tap_'
'swim_'
'inconvenience_'
'box_'
'beers_'
'75_'
'onto_'
'nevertheless_'
'exercise_'
'clothes_'
'thanks_'
'rooftop_'
'life_'
'courses_'
'account_'
'underwhelming_'
'modest_'
'golf_'
'details_'
'conditioner_'
'tad_'
'stated_'
'says_'
'hallway_'
'built_'
'beef_'
'al_'
'taj_'
'shut_'
'meet_'
'decision_'
'crowne_'
'bought_'
'allow_'
'obvious_'
'frills_'
'finished_'
'er_'
'boston_'
'nd_'
'keeping_'
'expedia_'
'dessert_'
'country_'
'summary_'
'slippers_'
'situation_'
'improve_'
'green_'
'became_'
'19_'
' ( £ _'
'sent_'
'royal_'
'program_'
'email_'
'changing_'
'andthe_'
'ahead_'
'wardrobe_'
'stopped_'
'quantity_'
'picture_'
'peak_'
'asia_'
'adjacent_'
'(_'
' " , _'
'treatments_'
'tag_'
'spot_'
'face_'
'lost_'
'literally_'
'lacked_'
'kettle_'
'highlight_'
'environment_'
'charm_'
' ..... _'
'useless_'
'treatment_'
'reviewers_'
'product_'
'presentation_'
'opposite_'
'midnight_'
'meats_'
'expense_'
'daughter_'
'conrad_'
'champagne_'
'brasserie_'
'impressions_'
'comments_'
'professional_'
'privacy_'
'irritating_'
'doubletree_'
'bedding_'
'reserved_'
'regency_'
'luckily_'
'cash_'
'aspects_'
'starter_'
'rare_'
'information_'
'glasses_'
'effort_'
'cuisine_'
'cable_'
'adjoining_'
'activities_'
'thinking_'
'heavy_'
'cover_'
'weights_'
'weekends_'
'travelodge_'
'seat_'
'proofing_'
'month_'
'hhonors_'
'unexpected_'
'thus_'
'switch_'
'serious_'
'piece_'
'impersonal_'
'freezing_'
'final_'
'covered_'
'calls_'
'aside_'
'appealing_'
'worthy_'
'word_'
'treated_'
'original_'
'computer_'
'spoiled_'
'partner_'
'hallways_'
'uninspiring_'
'television_'
'rewards_'
'popular_'
'pillow_'
'noted_'
'garage_'
'furnishings_'
'cakes_'
'bistro_'
'typically_'
'secure_'
'providing_'
'hk_'
'distance_'
'criticism_'
'visits_'
'takes_'
'soundproofing_'
'sold_'
'showing_'
'romantic_'
'ran_'
'hospitality_'
'eaten_'
'bright_'
'ut_'
'suited_'
'starting_'
'son_'
'plugs_'
'pleasure_'
'packed_'
'falls_'
'couples_'
'constantly_'
'chains_'
'appreciate_'
'advised_'
'4th_'
' ) - _'
'renaissance_'
'ourselves_'
'lake_'
'laid_'
'cafeteria_'
'missed_'
'attending_'
'atrium_'
'team_'
'stopover_'
'insulation_'
'gbp_'
'shocked_'
'national_'
'interior_'
'base_'
'unlike_'
'tokyo_'
'suit_'
'drive_'
'appear_'
'advisor_'
'tough_'
'pictures_'
'multiple_'
'mix_'
'july_'
'him_'
'gesture_'
'flying_'
'described_'
'appropriate_'
'actual_'
'school_'
'heathrow_'
'tray_'
'hold_'
'dinners_'
'crazy_'
'1st_'
'0_'
'upgrades_'
'sub_'
'reservations_'
'india_'
'de_'
'colleagues_'
'child_'
'beverage_'
'bedside_'
'beans_'
'alarm_'
'square_'
'smoke_'
'shape_'
'pass_'
'pancakes_'
'manchester_'
'inedible_'
'dined_'
'ambiance_'
'ironing_'
'closer_'
' ‘ _'
'significantly_'
'receptionist_'
'planning_'
'numerous_'
'hotwire_'
'helped_'
'exceptionally_'
'croissants_'
'catch_'
'biscuits_'
'29_'
'today_'
'supply_'
'straight_'
'south_'
'section_'
'pity_'
'overcooked_'
'luck_'
'h_'
'touches_'
'terrific_'
'sky_'
'positives_'
'highest_'
'elegant_'
'cake_'
'alcoholic_'
' .* _'
'upper_'
'signs_'
'rs_'
'parts_'
'onsite_'
'hanging_'
'excited_'
'delighted_'
'wake_'
'shangri_'
'north_'
'hiltons_'
'encountered_'
'depending_'
'curry_'
'connected_'
'adult_'
'tourist_'
'nightly_'
'hi_'
'extended_'
'direct_'
'beautifully_'
'trouble_'
'six_'
'sense_'
'remote_'
'regularly_'
'reduced_'
'firstly_'
'firm_'
'finding_'
'eur_'
'alternatives_'
'towards_'
'proved_'
'picked_'
'omelette_'
'update_'
'replenished_'
'fix_'
'eye_'
'evenings_'
'comprehensive_'
'upstairs_'
'standing_'
'sounds_'
'share_'
'process_'
'outdated_'
'moment_'
'cups_'
'blu_'
'vouchers_'
'unique_'
'step_'
'refused_'
'priority_'
'photos_'
'office_'
'initially_'
'furnished_'
'forget_'
'attitude_'
'afford_'
'san_'
'lukewarm_'
'hoping_'
'form_'
'filling_'
'feet_'
'exchange_'
'dryer_'
'channel_'
'catered_'
' ! ! ! !_'
'unnecessary_'
'pasta_'
'counter_'
'clock_'
'yogurt_'
'wear_'
'warned_'
'shopping_'
'rush_'
'refund_'
'prepaid_'
'plain_'
'ingredients_'
'ham_'
'favorite_'
'entry_'
'classic_'
'agreed_'
'000_'
'* _'
' , $ _'
' ! ) _'
'thankfully_'
'moving_'
'foyer_'
'checkin_'
'attended_'
'v_'
'shown_'
'sauce_'
'play_'
'paint_'
'devices_'
'carpets_'
'apartment_'
'agent_'
'wet_'
'weird_'
'potatoes_'
'pint_'
'omni_'
'lodging_'
'heater_'
'21_'
'patio_'
'fortunately_'
'existent_'
'degrees_'
'chosen_'
'chargeable_'
'stuffy_'
'sockets_'
'seeing_'
'relaxed_'
'lady_'
'incredible_'
'availability_'
'x_'
'updating_'
'ten_'
'quieter_'
'lit_'
'january_'
'hate_'
'grateful_'
'game_'
'departure_'
'deliver_'
'curtain_'
'28_'
' .$ _'
'supposedly_'
'promised_'
'pain_'
'minimum_'
'bowl_'
'amenity_'
'" _'
'wonder_'
'vegetables_'
'stale_'
'spotty_'
'showed_'
'sheets_'
'man_'
'ers_'
'bucks_'
'august_'
'accept_'
'story_'
'seafood_'
'saving_'
'remains_'
'pot_'
'inviting_'
'filled_'
'connect_'
'cheeses_'
'brunch_'
'woke_'
'visitors_'
'unlimited_'
'terribly_'
'refurb_'
'ours_'
'explained_'
'consistently_'
'careful_'
'120_'
'$_'
'west_'
'upgrading_'
'tourists_'
'ny_'
'needless_'
'entirely_'
'describe_'
'depressing_'
'cabin_'
'blue_'
'tariff_'
'suspect_'
'slight_'
'shows_'
'shocking_'
'rock_'
'happily_'
'dc_'
'cook_'
'waffles_'
'types_'
'train_'
'themselves_'
'satisfying_'
'occupancy_'
'excuse_'
'classy_'
'carvery_'
'captive_'
'buildings_'
'accomodation_'
'wash_'
'speak_'
'sell_'
'reakfast_'
'practical_'
'omelettes_'
'essential_'
'significant_'
'roll_'
'response_'
'led_'
'goodthe_'
'equivalent_'
'discovered_'
'anymore_'
'trips_'
'repeat_'
'overlooked_'
'medium_'
'lowest_'
'fell_'
'en_'
'beat_'
'accessible_'
'zero_'
'sister_'
'putting_'
'iceland_'
'holidays_'
'hesitate_'
'hassle_'
'hairdryer_'
'cosy_'
'besides_'
'ages_'
'transfer_'
'melbourne_'
'lines_'
'leaves_'
'hotelthe_'
'deep_'
'competition_'
'apology_'
'admit_'
'talking_'
'surroundings_'
'spring_'
'smoked_'
'reputation_'
'poolside_'
'nightmare_'
'narrow_'
'membership_'
'hang_'
'guarantee_'
'grade_'
'desserts_'
'december_'
'absolute_'
'wood_'
'watching_'
'purchase_'
'loads_'
'hopefully_'
'events_'
'deserves_'
'definately_'
'cardio_'
'anniversary_'
'accurate_'
'5th_'
'term_'
'pushed_'
'purchased_'
'newly_'
'march_'
'laptop_'
'item_'
'harbour_'
'desired_'
'score_'
'rain_'
'quoted_'
'dine_'
'confirmed_'
'changes_'
'annoyed_'
'accommodate_'
'supplied_'
'somehow_'
'reality_'
'present_'
'pet_'
'oriental_'
'irish_'
'description_'
'currently_'
'whatever_'
'upset_'
'shared_'
'outrageously_'
'mobile_'
'min_'
'meaning_'
'justify_'
'frequently_'
'eve_'
'diner_'
'connecting_'
'andi_'
'26_'
'23_'
'tend_'
'ship_'
'norm_'
'menus_'
'lousy_'
'fries_'
'forced_'
'followed_'
'dull_'
'dim_'
'coach_'
'cities_'
'appetizers_'
'appalling_'
'theme_'
'rolls_'
'potential_'
'mercure_'
'lounges_'
'island_'
'held_'
'entering_'
'current_'
'complaining_'
'brands_'
'waiter_'
'upmarket_'
'taxis_'
'smallest_'
'shops_'
'seats_'
'removed_'
'moderate_'
'mandarin_'
'hungry_'
'bathtub_'
'australia_'
'advice_'
'30pm_'
'yoghurt_'
'skip_'
'palace_'
'nespresso_'
'minus_'
'layover_'
'favourite_'
'exterior_'
'espresso_'
'electrical_'
'drawback_'
'demand_'
'cooking_'
'brown_'
'bothered_'
'awake_'
'warning_'
'silly_'
'post_'
'pork_'
'enter_'
'deck_'
'continue_'
'concern_'
'computers_'
'complex_'
'beginning_'
'assume_'
'art_'
'alright_'
'writing_'
'underwhelmed_'
'training_'
'tasting_'
'rude_'
'picky_'
'opportunity_'
'october_'
'lets_'
'dried_'
'conferences_'
'coke_'
'canteen_'
'burgers_'
'british_'
'basics_'
'65_'
' (_'
'salads_'
'report_'
'parties_'
'nonetheless_'
'length_'
'hoped_'
'ensure_'
'caters_'
' .£ _'
' , ( _'
'villa_'
'sum_'
'regarding_'
'ratio_'
'queues_'
'lamb_'
'keys_'
'advise_'
'aaa_'
'27_'
' ? ?_'
' ;_'
'virtually_'
'stylish_'
'polite_'
'playing_'
'marriot_'
'glazing_'
'drop_'
'bits_'
'approx_'
'600_'
'wanting_'
'unbelievable_'
'treadmills_'
'transit_'
'towers_'
'starters_'
'sparse_'
'ruined_'
'foot_'
'faced_'
'drinking_'
'disabled_'
'bizarre_'
'assortment_'
'accepted_'
'sounded_'
'represented_'
'reminded_'
'rarely_'
'june_'
'journey_'
'handle_'
'electric_'
'east_'
'cookies_'
'colleague_'
'bay_'
'manage_'
'frozen_'
'finish_'
'dropped_'
'cell_'
'amazed_'
'130_'
' _'
'unfortunate_'
'selected_'
'pros_'
'ordering_'
'log_'
'japan_'
'horrendous_'
'cater_'
'bank_'
'among_'
'30am_'
'strongly_'
'sale_'
'robes_'
'planned_'
'pieces_'
'nicest_'
'mark_'
'locations_'
'linen_'
'las_'
'ie_'
'hugely_'
'duvet_'
'dressing_'
'device_'
'comparing_'
'cause_'
'casual_'
'body_'
'arrangement_'
' , " _'
'words_'
'wired_'
'ta_'
'similarly_'
'represents_'
'question_'
'perk_'
'latter_'
'investment_'
'delivery_'
'compensation_'
'carry_'
'avoided_'
'april_'
'affair_'
'ways_'
'unfair_'
'ts_'
'shabby_'
'reported_'
'pudding_'
'nobody_'
'mall_'
'locked_'
'entered_'
'correct_'
'claustrophobic_'
'banging_'
'assigned_'
' - $ _'
'ventilation_'
'understandable_'
'springs_'
'outlet_'
'misleading_'
'gluten_'
'gel_'
'fans_'
'butthe_'
'baked_'
'awkward_'
'6th_'
'55_'
'32_'
' –_'
'waldorf_'
'staythe_'
'safety_'
'respect_'
'movies_'
'miles_'
'meridien_'
'loungers_'
'knowing_'
'individual_'
'caliber_'
'wants_'
'sweet_'
'smelled_'
'sheet_'
'sharing_'
'saved_'
'ry_'
'print_'
'poached_'
'orlando_'
'natural_'
'exciting_'
'edible_'
'conclusion_'
'balance_'
'annoyance_'
'350_'
'variable_'
'th_'
'stunning_'
'states_'
'sides_'
'salt_'
'ripped_'
'porridge_'
'pathetic_'
'ness_'
'movie_'
'flow_'
'fashioned_'
'consisted_'
'charming_'
'cancelled_'
'array_'
'afraid_'
'trendy_'
'switched_'
'spirits_'
'reach_'
'november_'
'marriotts_'
'initial_'
'greasy_'
'football_'
'folks_'
'failed_'
'delhi_'
'considerably_'
'apple_'
'absurd_'
'woken_'
'willing_'
'vs_'
'tvs_'
'sushi_'
'soulless_'
'scale_'
'ride_'
'promptly_'
'inflated_'
'inconsistent_'
'grab_'
'flush_'
'exceeded_'
'equal_'
'destination_'
'confusing_'
'chaotic_'
'appearance_'
'units_'
'stained_'
'speaking_'
'secret_'
'noticeable_'
'noises_'
'newspaper_'
'listed_'
'lamp_'
'ic_'
'history_'
'gardens_'
'formal_'
'fly_'
'enormous_'
'deposit_'
'delightful_'
'code_'
'canapes_'
'8th_'
'verall_'
'ugly_'
'surcharge_'
'supplement_'
'select_'
'refreshing_'
'recommendation_'
'position_'
'omelet_'
'numbers_'
'needing_'
'manhattan_'
'justified_'
'interested_'
'instant_'
'desert_'
'café_'
'7th_'
' , £ _'
'vegetarians_'
'valley_'
'usa_'
'unreliable_'
'ticket_'
'stick_'
'specifically_'
'situated_'
'rich_'
'reviewer_'
'residence_'
'recognition_'
'realize_'
'payment_'
'parks_'
'organised_'
'opens_'
'nibbles_'
'mattresses_'
'lock_'
'kimpton_'
'getaway_'
'decide_'
'confirmation_'
'bet_'
'waitress_'
'unlikely_'
'supermarket_'
'smart_'
'send_'
'gourmet_'
'exclusive_'
'dog_'
'dissapointed_'
'completed_'
'centrally_'
'cases_'
'vast_'
'shock_'
'residents_'
'reflect_'
'marks_'
'lay_'
'faster_'
'challenge_'
'caused_'
'canapés_'
'berlin_'
' --_'
' ) ; _'
'wooden_'
'vending_'
'turns_'
'suitcase_'
'shelf_'
'screaming_'
'require_'
'guy_'
'guaranteed_'
'fitted_'
'figure_'
'crown_'
'audience_'
'140_'
'weight_'
'powerful_'
'phones_'
'perks_'
'mushrooms_'
'loyal_'
'jet_'
'intermittent_'
'hey_'
'gotten_'
'forgot_'
'fall_'
'el_'
'declined_'
'contemporary_'
'boxes_'
'blocks_'
'180_'
'veg_'
'teas_'
'sleeper_'
'september_'
'pack_'
'neighbors_'
'kitchenette_'
'hole_'
'hh_'
'greatly_'
'driving_'
'drain_'
'dangerous_'
'cheerful_'
'america_'
'according_'
'unreasonable_'
'rice_'
'relaxation_'
'height_'
'extraordinary_'
'cabins_'
'amsterdam_'
')_'
'suitcases_'
'solution_'
'reward_'
'reflected_'
'potato_'
'plane_'
'photo_'
'originally_'
'mains_'
'linens_'
'drawers_'
'courteous_'
'claim_'
'attempt_'
'assured_'
'altogether_'
' . ._'
'£ _'
'worthwhile_'
'whatsoever_'
'vibe_'
'vary_'
'unbearable_'
'tickets_'
'supper_'
'smile_'
'rubbish_'
'realised_'
'purposes_'
'peaceful_'
'partial_'
'mess_'
'ion_'
'hoteli_'
'gorgeous_'
'everyday_'
'delivers_'
'cozy_'
'burnt_'
'serviced_'
'proximity_'
'plumbing_'
'pastry_'
'lunches_'
'ish_'
'hen_'
'hefty_'
'disgusting_'
'cuts_'
'coupon_'
'choosing_'
'airline_'
'volume_'
'village_'
'travelled_'
'thermostat_'
'setup_'
'relative_'
'regret_'
'proof_'
'neighbours_'
'miami_'
'mass_'
'lodges_'
'greeted_'
'explain_'
'essentially_'
'easter_'
'ear_'
'consideration_'
'closing_'
'cards_'
'buffett_'
'basin_'
'band_'
'yosemite_'
'triple_'
'trained_'
'struggle_'
'stayi_'
'sets_'
'separately_'
'scones_'
'scheme_'
'regard_'
'realise_'
'practice_'
'oatmeal_'
'join_'
'ies_'
'hrs_'
'hie_'
'fill_'
'ere_'
'duty_'
'decoration_'
'cab_'
'arranged_'
'apparent_'
'adding_'
'ur_'
'turning_'
'sorted_'
'sizes_'
'resturant_'
'pull_'
'prime_'
'pp_'
'parents_'
'ne_'
'marked_'
'inferior_'
'improvements_'
'cope_'
'concept_'
'closes_'
'china_'
'ble_'
'benedict_'
'becomes_'
'stations_'
'starts_'
'shall_'
'shade_'
'se_'
'liking_'
'historic_'
'dublin_'
'disturbing_'
'countries_'
'bookings_'
'boiled_'
'bear_'
'accommodating_'
' .: _'
' --- _'
'washing_'
'tree_'
'thick_'
'tall_'
'surprises_'
'studio_'
'soggy_'
'seated_'
'ring_'
'requests_'
'parked_'
'lobster_'
'fittings_'
'display_'
'cutlery_'
'ad_'
'written_'
'wasted_'
'tier_'
'thailand_'
'temp_'
'support_'
'smallish_'
'silver_'
'roast_'
'regardless_'
'privilege_'
'nasty_'
'mumbai_'
'mandatory_'
'fab_'
'electricity_'
'dust_'
'desperate_'
'crowd_'
'couch_'
'copenhagen_'
'coffees_'
'ce_'
'brief_'
'blocked_'
'andwe_'
'2014_'
'wished_'
'tomato_'
'stone_'
'stockholm_'
'settled_'
'pullman_'
'ons_'
'locally_'
'lax_'
'lamps_'
'kid_'
'eg_'
'dogs_'
'cross_'
'cooling_'
'answer_'
' .-_'
'worried_'
'varieties_'
'struggled_'
'squeezed_'
'secondly_'
'persons_'
'overcrowded_'
'monday_'
'lavish_'
'internal_'
'incl_'
'inches_'
'guys_'
'gin_'
'fireplace_'
'downsides_'
'coverage_'
'conversation_'
'connectivity_'
'circumstances_'
'branded_'
'aud_'
'85_'
'-- _'
' '
'yummy_'
'undercooked_'
'title_'
'tiles_'
'steakhouse_'
'stains_'
'sites_'
'selling_'
'resulted_'
'rail_'
'perspective_'
'learn_'
'hangers_'
'disturbed_'
'dinning_'
'contrast_'
'compact_'
'cars_'
'canyon_'
'ai_'
' … _'
' - £ _'
'version_'
'understaffed_'
'specific_'
'specials_'
'restful_'
'ratings_'
'packages_'
'ot_'
'muffins_'
'happens_'
'hands_'
'explanation_'
'economical_'
'complicated_'
'combined_'
'century_'
'balconies_'
'attend_'
'arrangements_'
'alot_'
'110_'
'1000_'
'toilets_'
'telephone_'
'structure_'
'spoil_'
'splurge_'
'rome_'
'reviewed_'
'rear_'
'owners_'
'omelets_'
'occupied_'
'lap_'
'falling_'
'ey_'
'edge_'
'driver_'
'disgrace_'
'contact_'
'combination_'
'chocolates_'
'ceilings_'
'bathrobes_'
'adjust_'
' ' , _'
'´_'
'tips_'
'tacky_'
'stupid_'
'steaks_'
'sick_'
'rent_'
'refreshed_'
'nowadays_'
'niggles_'
'mile_'
'maintain_'
'hamburger_'
'grossly_'
'figured_'
'february_'
'expects_'
'discover_'
'delay_'
'amazingly_'
'allows_'
'125_'
' ) . _'
'vietnam_'
'unusable_'
'unimpressed_'
'travels_'
'toaster_'
'tennis_'
'suggested_'
'sliding_'
'restuarant_'
'remain_'
'produce_'
'ous_'
'ood_'
'noon_'
'inner_'
'humid_'
'faithful_'
'establishments_'
'décor_'
'disturb_'
'baby_'
'tomatoes_'
'thru_'
'supplies_'
'roomthe_'
'repair_'
'passable_'
'newspapers_'
'motels_'
'mexican_'
'insufficient_'
'hawaii_'
'halls_'
'granted_'
'generic_'
'gatwick_'
'functioning_'
'focus_'
'earplugs_'
'doubles_'
'disappoint_'
'cuba_'
'concrete_'
'collection_'
'brussels_'
'bagels_'
'39_'
'160_'
' ...... _'
'stood_'
'slamming_'
'reflects_'
'promotion_'
'opt_'
'net_'
'marble_'
'ill_'
'hidden_'
'hesitation_'
'heart_'
'forever_'
'eyes_'
'energy_'
'effect_'
'drawer_'
'dire_'
'definite_'
'dbb_'
'colour_'
'capacity_'
'bell_'
'becoming_'
'bbq_'
'800_'
'warmer_'
'utterly_'
'usage_'
'undergoing_'
'sparkling_'
'solo_'
'slices_'
'singles_'
'replacement_'
'pretentious_'
'pointed_'
'pod_'
'patchy_'
'page_'
'lifetime_'
'lesser_'
'hotelbut_'
'glasgow_'
'geared_'
'fourth_'
'edinburgh_'
'dropping_'
'cupboard_'
'critical_'
'cooler_'
'conveniently_'
'cent_'
'apartments_'
' …_'
'wings_'
'waiters_'
'ton_'
'stands_'
'sour_'
'runs_'
'research_'
'recall_'
'preference_'
'posted_'
'matters_'
'majority_'
'insane_'
'francisco_'
'enjoying_'
'elaborate_'
'clientele_'
'bringing_'
'automatically_'
'approach_'
'app_'
'action_'
'2012_'
' ! ) , _'
'ted_'
'strength_'
'spite_'
'skipped_'
'requirements_'
'ranch_'
'posh_'
'pop_'
'overrated_'
'orleans_'
'nz_'
'multi_'
'meets_'
'massages_'
'heavily_'
'gas_'
'dissapointing_'
'count_'
'costing_'
'cookie_'
'continues_'
'breeze_'
'boat_'
' .’_'
'vastly_'
'tours_'
'surrounding_'
'slide_'
'signature_'
'sight_'
'resolved_'
'premises_'
'passed_'
'necessarily_'
'mentioning_'
'knows_'
'insisted_'
'harbor_'
'fortune_'
'fits_'
'fat_'
'controls_'
'clients_'
'butter_'
'bare_'
'assumed_'
'ambassador_'
'advertising_'
'9th_'
'2016_'
' # _'
'unremarkable_'
'underground_'
'turkey_'
'transport_'
'suggestion_'
'stock_'
'sterile_'
'spoke_'
'soda_'
'snow_'
'signage_'
'seattle_'
'search_'
'respects_'
'refundable_'
'realized_'
'prompt_'
'operation_'
'mineral_'
'loose_'
'load_'
'lived_'
'leela_'
'kit_'
'jam_'
'gap_'
'ft_'
'ends_'
'employees_'
'economy_'
'disco_'
'dingy_'
'crab_'
'continued_'
'buti_'
'baths_'
'australian_'
'associated_'
': _'
'welcomed_'
'trust_'
'staffed_'
'socket_'
'shanghai_'
'remembered_'
'makeover_'
'kl_'
'groupon_'
'flavour_'
'connections_'
'commented_'
'cancel_'
'calling_'
'caesar_'
'buying_'
'bite_'
'2013_'
'wind_'
'ty_'
'te_'
'talk_'
'salty_'
'reserve_'
'rental_'
'reduction_'
'redeeming_'
'pie_'
'passing_'
'overwhelming_'
'oil_'
'nature_'
'luke_'
'lie_'
'insult_'
'inc_'
'hoteland_'
'hostel_'
'hat_'
'greater_'
'finger_'
'escape_'
'conditions_'
'cap_'
'blinds_'
'automatic_'
'10th_'
'worldwide_'
'watery_'
'unusually_'
'unhappy_'
'trade_'
'tolerable_'
'thursday_'
'shouting_'
'rydges_'
'robe_'
'replace_'
'promise_'
'pan_'
'michelin_'
'men_'
'leading_'
'inexcusable_'
'impact_'
'hurry_'
'greatest_'
'gratuity_'
'fuss_'
'emails_'
'dime_'
'cutting_'
'contained_'
'communal_'
'andit_'
'2015_'
'+_'
'tube_'
'toronto_'
'tlc_'
'strip_'
'roomi_'
'quid_'
'pulled_'
'pound_'
'plans_'
'mb_'
'marginal_'
'latest_'
'headed_'
'games_'
'extreme_'
'exhausted_'
'everybody_'
'creek_'
'coupons_'
'confirm_'
'camp_'
'beside_'
'advertise_'
' ? )_'
'xmas_'
'wotif_'
'whenever_'
'usb_'
'specially_'
'spanish_'
'remained_'
'rave_'
'radiator_'
'primarily_'
'payed_'
'operate_'
'ongoing_'
'memory_'
'honeymoon_'
'hd_'
'grilled_'
'forgotten_'
'famous_'
'efficiently_'
'deserve_'
'death_'
'boy_'
'afterwards_'
'ability_'
'38_'
' ? ? ?_'
'uses_'
'unavailable_'
'un_'
'timeshare_'
'tepid_'
'subject_'
'stretch_'
'speeds_'
'smooth_'
'secured_'
'pure_'
'peninsula_'
'metal_'
'marina_'
'maid_'
'loudly_'
'largest_'
'largely_'
'increased_'
'inch_'
'impeccable_'
'honor_'
'hearty_'
'heading_'
'goodbut_'
'fixtures_'
'faultless_'
'duration_'
'draft_'
'distinctly_'
'degree_'
'build_'
'begin_'
'banquet_'
'admittedly_'
'700_'
' ......_'
'warrant_'
'stingy_'
'steps_'
'sliced_'
'server_'
'ripoff_'
'refreshments_'
'rang_'
'press_'
'powdered_'
'pointless_'
'petty_'
'ould_'
'nickel_'
'message_'
'learned_'
'lastminute_'
'ladies_'
'joined_'
'intimate_'
'incident_'
'importantly_'
'holder_'
'follow_'
'fairfield_'
'dump_'
'dress_'
'dealt_'
'costa_'
'claims_'
'california_'
'authentic_'
'address_'
'additionally_'
'21st_'
'.. _'
'wrote_'
'villas_'
'unbelievably_'
'tinned_'
'thrown_'
'tent_'
'spots_'
'social_'
'sf_'
'represent_'
'radio_'
'q_'
'pleasing_'
'pipes_'
'mr_'
'measure_'
'imperial_'
'hundred_'
'handled_'
'fussy_'
'frame_'
'fight_'
'external_'
'eight_'
'easier_'
'diet_'
'covers_'
'coat_'
'carpark_'
'appeal_'
'airconditioning_'
'49_'
'33_'
'2011_'
'. , _'
' ....... _'
'yen_'
'yellowstone_'
'taps_'
'staybut_'
'sand_'
'risk_'
'requires_'
'raw_'
'prepare_'
'noting_'
'lotion_'
'liverpool_'
'leg_'
'ipad_'
'helps_'
'grey_'
'goodi_'
'fraction_'
'fluffy_'
'exist_'
'error_'
'era_'
'dismal_'
'detract_'
'deli_'
'dead_'
'comp_'
'bw_'
'alas_'
'accomodations_'
'`_'
'warsaw_'
'wallpaper_'
'test_'
'temperatures_'
'telling_'
'tapas_'
'shirt_'
'seconds_'
'scottish_'
'route_'
'reply_'
'queens_'
'produced_'
'predictable_'
'magnificent_'
'lives_'
'letdown_'
'keeps_'
'ireland_'
'image_'
'heavenly_'
'heads_'
'harsh_'
'grace_'
'false_'
'fairness_'
'effectively_'
'delight_'
'croissant_'
'broke_'
'atlantis_'
'amongst_'
'ally_'
'airy_'
'addressed_'
' ? ) _'
'uninspired_'
'ultimately_'
'tremendous_'
'tends_'
'substandard_'
'sri_'
'smells_'
'shot_'
'rule_'
'problematic_'
'port_'
'pocket_'
'peeling_'
'okbut_'
'nuisance_'
'mouth_'
'mood_'
'miserable_'
'keen_'
'frustrated_'
'florida_'
'expansive_'
'elements_'
'conditioned_'
'climate_'
'chill_'
'celebrate_'
'boarding_'
'blackpool_'
'billed_'
'bathrobe_'
'ball_'
'applied_'
'allowing_'
'accordingly_'
';_'
'video_'
'tons_'
'sumptuous_'
'squeeze_'
'spare_'
'riu_'
'remarkable_'
'quarter_'
'privileges_'
'practically_'
'peace_'
'itc_'
'ineffective_'
'god_'
'exit_'
'ent_'
'electronic_'
'deserts_'
'client_'
'cleaner_'
'chipped_'
'canada_'
'cafes_'
'bucket_'
'broadband_'
'abysmal_'
'absence_'
' ! ! ! ! !_'
'waffle_'
'visitor_'
'venues_'
'veggie_'
'tries_'
'transportation_'
'tidy_'
'sunny_'
'sugar_'
'split_'
'showering_'
'seven_'
'row_'
'roomy_'
'purely_'
'orders_'
'oberoi_'
'mounted_'
'mobility_'
'ment_'
'marred_'
'increase_'
'ignored_'
'hotelit_'
'funny_'
'fatty_'
'excess_'
'drunk_'
'drab_'
'downhill_'
'courtesy_'
'chilly_'
'carefully_'
'calibre_'
'breakfastthe_'
'boiling_'
'blackout_'
'bakery_'
'aircraft_'
'34_'
'220_'
'170_'
') _'
'whereas_'
'trays_'
'suffered_'
'shaving_'
'rise_'
'rib_'
'restricted_'
'presumably_'
'possibility_'
'played_'
'passes_'
'os_'
'opposed_'
'merely_'
'maximum_'
'lumpy_'
'loo_'
'isolated_'
'instance_'
'hundreds_'
'hip_'
'friendliness_'
'diners_'
'content_'
'clerk_'
'blankets_'
'bikes_'
'anticipated_'
'ant_'
'31_'
'-$_'
'woman_'
'venetian_'
'vanity_'
'themed_'
'sweets_'
'subpar_'
'soul_'
'sorely_'
'runway_'
'resulting_'
'reluctant_'
'regis_'
'reflection_'
'prawns_'
'piano_'
'partially_'
'panel_'
'overhaul_'
'nuts_'
'moderately_'
'max_'
'mail_'
'listen_'
'kinda_'
'iphone_'
'invest_'
'industrial_'
'hotelwe_'
'highway_'
'happening_'
'german_'
'gaylord_'
'frankfurt_'
'featured_'
'eastern_'
'duck_'
'dial_'
'conversations_'
'considerable_'
'caught_'
'castle_'
'britannia_'
'brick_'
'blow_'
'barcelona_'
' [ _'
' . - _'
' , & _'
' " - _'
'worry_'
'wondering_'
'women_'
'weddings_'
'warmth_'
'vietnamese_'
'vegetable_'
'unimpressive_'
'ting_'
'tho_'
'switches_'
'stress_'
'signed_'
'sales_'
'rustic_'
'rules_'
'rubber_'
'roombut_'
'rollaway_'
'relation_'
'related_'
'reduce_'
'recommending_'
'reached_'
'provision_'
'pluses_'
'planes_'
'pizzas_'
'performance_'
'owned_'
'oriented_'
'midweek_'
'metro_'
'matched_'
'lettuce_'
'lager_'
'judge_'
'indicated_'
'hotter_'
'hire_'
'hell_'
'gravy_'
'goods_'
'feather_'
'extension_'
'erratic_'
'drawbacks_'
'data_'
'concert_'
'concerns_'
'capital_'
'cancellation_'
'bunch_'
'blowing_'
'blanket_'
'architecture_'
'airlines_'
'aged_'
'89_'
'00pm_'
'+ _'
'!_'
' ” ._'
' — _'
'unfriendly_'
'tubs_'
'tion_'
'tin_'
'tear_'
'systems_'
'spotless_'
'remove_'
'region_'
'quirky_'
'prevent_'
'prague_'
'plush_'
'pays_'
'neck_'
'mystery_'
'mold_'
'lastly_'
'kinds_'
'ity_'
'heck_'
'gloomy_'
'functions_'
'france_'
'feedback_'
'familiar_'
'exact_'
'entrees_'
'england_'
'dozen_'
'don_'
'crisps_'
'crap_'
'contacted_'
'consequently_'
'compensate_'
'chaos_'
'cappuccino_'
'bills_'
'atrocious_'
'approximately_'
'andthis_'
'amex_'
'ala_'
'adds_'
'240_'
' ? ) ._'
'waking_'
'usable_'
'unlucky_'
'truth_'
'throw_'
'subjective_'
'stream_'
'serviceable_'
'sensible_'
'scene_'
'rough_'
'requesting_'
'remodeled_'
'remodel_'
'refunded_'
'rectified_'
'platter_'
'personnel_'
'perfection_'
'official_'
'network_'
'neighbor_'
'musty_'
'museum_'
'munich_'
'mould_'
'lunchtime_'
'lose_'
'league_'
'lazy_'
'knock_'
'inspiring_'
'honours_'
'holes_'
'holding_'
'hkd_'
'hill_'
'goodand_'
'former_'
'forgettable_'
'faded_'
'extent_'
'est_'
'ess_'
'emailed_'
'dispenser_'
'discounts_'
'decidedly_'
'dear_'
'correctly_'
'converted_'
'comfortably_'
'cardboard_'
'cancun_'
'browns_'
'bali_'
'award_'
'appetizer_'
'andbreakfast_'
'48_'
' .– _'
' !, _'
' !( _'
'z_'
'younger_'
'vienna_'
'user_'
'traveled_'
'tonic_'
'sunset_'
'sthe_'
'staywe_'
'stating_'
'ss_'
'smokers_'
'scalding_'
'requirement_'
'refresh_'
'raised_'
'quibble_'
'push_'
'pots_'
'positioned_'
'player_'
'passport_'
'pancake_'
'marginally_'
'lying_'
'locals_'
'likewise_'
'letter_'
'instructions_'
'indifferent_'
'ignore_'
'hvac_'
'hors_'
'guide_'
'fed_'
'fayre_'
'enjoyment_'
'emergency_'
'edges_'
'dislike_'
'dip_'
'crowds_'
'conventions_'
'claimed_'
'chic_'
'cheated_'
'cardiff_'
'bitter_'
'birmingham_'
'bang_'
'arm_'
'againthe_'
'activity_'
'2017_'
' ? !_'
' . ) _'
'yellow_'
'waterfront_'
'ups_'
'unimaginative_'
'trick_'
'travelzoo_'
'statement_'
'stage_'
'sheer_'
'sensitive_'
'sells_'
'seek_'
'repeated_'
'remaining_'
'rely_'
'packet_'
'optional_'
'occasionally_'
'minuses_'
'locker_'
'les_'
'laps_'
'language_'
'land_'
'italy_'
'irritation_'
'info_'
'hgi_'
'hated_'
'girls_'
'giant_'
'flaw_'
'facelift_'
'ex_'
'evident_'
'escapes_'
'elegance_'
'desperately_'
'deserved_'
'decline_'
'danish_'
'create_'
'convinced_'
'co_'
'cared_'
'buses_'
'blown_'
'ar_'
'apply_'
'act_'
'69_'
'00am_'
' ] _'
'vicinity_'
'ver_'
'vat_'
'unsatisfactory_'
'underneath_'
'umbrella_'
'twenty_'
'ther_'
'surface_'
'stops_'
'spain_'
'shrimp_'
'shallow_'
'servers_'
'senior_'
'roomand_'
'programme_'
'painful_'
'pacific_'
'oven_'
'organisation_'
'oddly_'
'nite_'
'nightthe_'
'niggle_'
'nce_'
'na_'
'monaco_'
'mill_'
'maui_'
'massively_'
'ludicrous_'
'lead_'
'hearing_'
'gripes_'
'government_'
'fellow_'
'fail_'
'entree_'
'entitled_'
'element_'
'draw_'
'downgrade_'
'delayed_'
'dates_'
'crispy_'
'controlled_'
'consistency_'
'bearable_'
'bandwidth_'
'asleep_'
'apples_'
'amounts_'
'ale_'
'agency_'
'abundant_'
'135_'
'129_'
'& _'
' /_'
'vodka_'
'vip_'
'ultra_'
'tonight_'
'temporary_'
'sunbeds_'
'stayit_'
'stable_'
'speedy_'
'spartan_'
'slice_'
'savings_'
'receipt_'
'readily_'
'personality_'
'pampered_'
'palm_'
'painfully_'
'overlook_'
'overcharged_'
'loss_'
'liquor_'
'insulated_'
'insist_'
'host_'
'hash_'
'drove_'
'dressed_'
'draught_'
'disneyland_'
'department_'
'coast_'
'cart_'
'bridge_'
'bracket_'
'bearing_'
'bbc_'
'baht_'
'attractions_'
'astoria_'
'anybody_'
'andaz_'
'allowance_'
'59_'
'37_'
'36_'
'!. _'
'washer_'
'versus_'
'values_'
'valued_'
'unbeatable_'
'uber_'
'transfers_'
'suits_'
'suffice_'
'streaming_'
'spicy_'
'sightseeing_'
'severely_'
'semi_'
'sample_'
'saigon_'
'rose_'
'reports_'
'quarters_'
'qualify_'
'ps_'
'passengers_'
'pair_'
'overhead_'
'od_'
'ns_'
'mushroom_'
'mountain_'
'involved_'
'horribly_'
'heritage_'
'haul_'
'handicapped_'
'global_'
'fortunate_'
'fitting_'
'faulty_'
'esp_'
'dodgy_'
'difficulty_'
'die_'
'depends_'
'dependable_'
'deco_'
'daylight_'
'dance_'
'crappy_'
'crammed_'
'conscious_'
'conducive_'
'competitors_'
'challenging_'
'caribbean_'
'butlins_'
'butit_'
'breakfasti_'
'blast_'
'bites_'
'anytime_'
'450_'
'42_'
'14th_'
' .& _'
' . , _'
'yogurts_'
'won_'
'weekdays_'
'vancouver_'
'users_'
'updates_'
'understatement_'
'turndown_'
'trains_'
'thanksgiving_'
'teh_'
'staffs_'
'soundproof_'
'sophisticated_'
'smelly_'
'shortcomings_'
'shaped_'
'sed_'
'sandals_'
'rushing_'
'rushed_'
'record_'
'pro_'
'printer_'
'poorest_'
'onion_'
'object_'
'neighborhood_'
'necessity_'
'narita_'
'meters_'
'lively_'
'legs_'
'injury_'
'immediate_'
'hr_'
'hopes_'
'helping_'
'goodwe_'
'goodbreakfast_'
'gladly_'
'girl_'
'flavor_'
'extensively_'
'elderly_'
'ee_'
'dream_'
'downgraded_'
'color_'
'clue_'
'chilled_'
'catching_'
'breaks_'
'basket_'
'ation_'
'asset_'
'... _'
' .; _'
' ' - _'
'wider_'
'weekday_'
'websites_'
'washington_'
'viewing_'
'umbrellas_'
'trees_'
'tourism_'
'topped_'
'thinks_'
'suddenly_'
'staircase_'
'smelt_'
'slipped_'
'shortly_'
'shoes_'
'settle_'
'screens_'
'satisfy_'
'rasa_'
'ranking_'
'raffles_'
'prosecco_'
'odor_'
'obtained_'
'navajo_'
'muscat_'
'moneythe_'
'model_'
'macau_'
'lso_'
'latte_'
'installed_'
'industry_'
'hurt_'
'hotelthis_'
'horrid_'
'historical_'
'handed_'
'gouging_'
'garlic_'
'foreign_'
'fiji_'
'fifth_'
'feast_'
'favour_'
'faces_'
'excellence_'
'ending_'
'embarrassing_'
'electronics_'
'digital_'
'damaged_'
'cubicle_'
'cottage_'
'canadian_'
'button_'
'began_'
'ay_'
'avail_'
'au_'
'andbut_'
'affect_'
'2000_'
' = _'
'yoghurts_'
'wonderfully_'
'waterpark_'
'variation_'
'universal_'
'undrinkable_'
'unappealing_'
'um_'
'tuna_'
'tuesday_'
'trash_'
'trapped_'
'touring_'
'torn_'
'swiss_'
'spray_'
'shoe_'
'sharp_'
'rubbery_'
'replacing_'
'regards_'
'ranging_'
'raise_'
'questioned_'
'puts_'
'profile_'
'praise_'
'pile_'
'neat_'
'moreover_'
'mcdonalds_'
'manner_'
'magic_'
'ling_'
'limit_'
'likes_'
'lcd_'
'lanka_'
'lackluster_'
'interest_'
'hopeless_'
'greeting_'
'glazed_'
'gate_'
'furthermore_'
'furnace_'
'frustration_'
'flagship_'
'fillet_'
'explore_'
'excluding_'
'endless_'
'dvd_'
'directions_'
'desire_'
'def_'
'decently_'
'corrected_'
'communication_'
'cigarette_'
'celebration_'
'carried_'
'beijing_'
'beauty_'
'balanced_'
'assistance_'
'aging_'
'againbut_'
'accustomed_'
'accommodated_'
'260_'
'24hrs_'
'105_'
' !- _'
'wondered_'
'whirlpool_'
'venture_'
'unappetising_'
'treats_'
'toothbrush_'
'til_'
'theatre_'
'teenagers_'
'tayed_'
'takeaway_'
'stiff_'
'staffing_'
'source_'
'somebody_'
'seperate_'
'schedule_'
'scam_'
'requiring_'
'physical_'
'periods_'
'pc_'
'overdone_'
'otel_'
'operated_'
'negotiated_'
'midtown_'
'melia_'
'marketing_'
'manageable_'
'lighter_'
'letting_'
'lane_'
'ipod_'
'infrastructure_'
'inform_'
'impress_'
'imagination_'
'hare_'
'granola_'
'funky_'
'festival_'
'female_'
'favor_'
'encounter_'
'earned_'
'download_'
'creative_'
'crash_'
'coupled_'
'cot_'
'comforts_'
'chewy_'
'canal_'
'camping_'
'budapest_'
'bristol_'
'breakfastwe_'
'breaker_'
'baggage_'
'annual_'
'anda_'
'accompanied_'
'5star_'
'44_'
'1970_'
'18th_'
'12th_'
' :-)_'
' ......._'
'– _'
'workers_'
'winner_'
'wave_'
'treadmill_'
'tech_'
'swissotel_'
'swing_'
'struggling_'
'sticky_'
'stellar_'
'steal_'
'sport_'
'soaps_'
'slowly_'
'sinks_'
'sh_'
'seasoned_'
'revamp_'
'resolve_'
'repetitive_'
'random_'
'pushing_'
'promotional_'
'promises_'
'outlook_'
'organized_'
'monopoly_'
'meagre_'
'materials_'
'ls_'
'jug_'
'itthe_'
'insanely_'
'identical_'
'id_'
'gyms_'
'golden_'
'genuinely_'
'flowers_'
'flaws_'
'finishes_'
'faulted_'
'duvets_'
'diverse_'
'db_'
'courts_'
'colonial_'
'cabs_'
'butwe_'
'brighton_'
'boot_'
'bird_'
'ba_'
'attempted_'
'aed_'
'79_'
'23rd_'
'165_'
' • _'
' @ _'
'windy_'
'wearing_'
'watering_'
'warn_'
'visible_'
'uninviting_'
'trend_'
'track_'
'thrilled_'
'thistle_'
'suffer_'
'spoon_'
'sometime_'
'sleepless_'
'slam_'
'shortage_'
'satisfaction_'
'roughly_'
'roomit_'
'risotto_'
'retreat_'
'replied_'
'relief_'
'refurbishing_'
'rank_'
'positively_'
'portable_'
'partly_'
'oslo_'
'norway_'
'nine_'
'niagara_'
'neighbouring_'
'mirrors_'
'million_'
'managers_'
'ks_'
'kicked_'
'jackson_'
'interconnecting_'
'intended_'
'ins_'
'flexible_'
'flew_'
'factory_'
'extend_'
'experiencethe_'
'et_'
'established_'
'encourage_'
'ease_'
'ds_'
'drinkable_'
'disappointingly_'
'dirt_'
'damp_'
'cracked_'
'counts_'
'corners_'
'bun_'
'blew_'
'blame_'
'bench_'
'bartender_'
'attendant_'
'assist_'
'antiquated_'
'angle_'
'andand_'
'airports_'
'70s_'
'20th_'
'199_'
'16th_'
'145_'
' :)_'
'zone_'
'ys_'
'waters_'
'waits_'
'varies_'
'upkeep_'
'unsure_'
'touched_'
'thankful_'
'suggests_'
'subsequently_'
'streets_'
'stayand_'
'spotlessly_'
'someplace_'
'slip_'
'si_'
'scratch_'
'scandinavian_'
'sachets_'
'rupees_'
'revisit_'
'renovate_'
'refuse_'
'quicker_'
'questionable_'
'processed_'
'pricier_'
'preferable_'
'password_'
'muesli_'
'melon_'
'ley_'
'leeds_'
'knocking_'
'kings_'
'jury_'
'jack_'
'informal_'
'ifi_'
'homemade_'
'heaven_'
'happier_'
'germany_'
'gala_'
'gain_'
'flies_'
'flash_'
'favorable_'
'fails_'
'efficiency_'
'earth_'
'direction_'
'ded_'
'created_'
'crackers_'
'context_'
'compares_'
'collect_'
'clubs_'
'clothing_'
'climb_'
'chip_'
'chefs_'
'buck_'
'boys_'
'bin_'
'beforehand_'
'ballroom_'
'anyhow_'
'annex_'
'allergies_'
'airplane_'
'aimed_'
'affected_'
'adelaide_'
'; _'
'115_'
'--_'
' ; - _'
' , , _'
'van_'
'understood_'
'tops_'
'tone_'
'terminals_'
'tempted_'
'tatty_'
'substantially_'
'stamford_'
'southern_'
'sorts_'
'skype_'
'silent_'
'separated_'
'seemingly_'
'searching_'
'scored_'
'remarkably_'
'recognized_'
'rainy_'
'printing_'
'preparation_'
'piping_'
'owever_'
'offset_'
'oeuvres_'
'nottingham_'
'noodles_'
'neighboring_'
'negotiate_'
'nearest_'
'motor_'
'microwaved_'
'malmaison_'
'makers_'
'liquid_'
'leaked_'
'lame_'
'lagoon_'
'jan_'
'irritated_'
'indigo_'
'independent_'
'hubby_'
'harder_'
'genuine_'
'ge_'
'flushing_'
'flexibility_'
'filthy_'
'faults_'
'evidence_'
'drilling_'
'disruptive_'
'departing_'
'dealing_'
'continually_'
'cloud_'
'cinnamon_'
'ch_'
'caution_'
'burn_'
'bummer_'
'btw_'
'broad_'
'brighter_'
'bly_'
'bid_'
'arrange_'
'argue_'
'appetising_'
'ancient_'
'agoda_'
'19th_'
'109_'
' " ( _'
'£_'
'zurich_'
'yoga_'
'woefully_'
'whose_'
'wheelchair_'
'wee_'
'vey_'
'upto_'
'upside_'
'unwelcoming_'
'unexciting_'
'tropical_'
'tomorrow_'
'tempting_'
'switching_'
'stressful_'
'strangely_'
'stopping_'
'stall_'
'slippery_'
'sleepers_'
'sheratons_'
'scheduled_'
'saver_'
'ribs_'
'rented_'
'remainder_'
'rd_'
'raining_'
'quote_'
'proposition_'
'prawn_'
'popped_'
'plugged_'
'ping_'
'phuket_'
'peeve_'
'paradise_'
'oxford_'
'opulent_'
'operator_'
'olives_'
'okthe_'
'obtain_'
'nighti_'
'naturally_'
'mother_'
'mo_'
'meh_'
'manor_'
'madrid_'
'luxe_'
'lly_'
'laughable_'
'jazz_'
'interiors_'
'incorrect_'
'incidentals_'
'imo_'
'ia_'
'hung_'
'houston_'
'houses_'
'highlights_'
'headache_'
'favourable_'
'fashion_'
'fake_'
'factors_'
'engine_'
'district_'
'displayed_'
'disgraceful_'
'discussion_'
'compromise_'
'compensated_'
'companies_'
'cnn_'
'chat_'
'causing_'
'caring_'
'buttons_'
'bulbs_'
'bulb_'
'breakfastbut_'
'breakfastand_'
'bored_'
'bones_'
'boards_'
'attempts_'
'230_'
'179_'
'15th_'
'139_'
'*. _'
' … ._'
' : -_'
' : $ _'
' .-- _'
' ! ! )_'
'zed_'
'wrapped_'
'wrap_'
'worthless_'
'win_'
'whoever_'
'wary_'
'virgin_'
'vere_'
'veranda_'
'vacations_'
'urban_'
'tissue_'
'ticked_'
'tended_'
'tel_'
'sums_'
'suffers_'
'struck_'
'sore_'
'solved_'
'sole_'
'slower_'
'slot_'
'slides_'
'skin_'
'scary_'
'ruin_'
'registration_'
'ranks_'
'questions_'
'prove_'
'pricei_'
'porter_'
'overdue_'
'outdoors_'
'orchard_'
'operating_'
'observation_'
'names_'
'mushy_'
'ms_'
'leather_'
'langham_'
'knocked_'
'jurys_'
'inclined_'
'hype_'
'hyatts_'
'hesitant_'
'hazard_'
'fter_'
'franchise_'
'forth_'
'force_'
'flooded_'
'finest_'
'ferry_'
'feed_'
'facial_'
'extractor_'
'employee_'
'embarrassed_'
'eateries_'
'dripping_'
'dreary_'
'downer_'
'dock_'
'directed_'
'devoid_'
'desirable_'
'dedicated_'
'dare_'
'custom_'
'currency_'
'cuisines_'
'crack_'
'containers_'
'confusion_'
'compete_'
'chalet_'
'carlson_'
'cans_'
'cabana_'
'bugs_'
'bug_'
'brochure_'
'books_'
'blind_'
'bike_'
'barman_'
'balls_'
'ated_'
'assuming_'
'answered_'
'andthere_'
'abundance_'
'11th_'
'"_'
' ]_'
' . ) ._'
' .'
'yard_'
'watered_'
'waikiki_'
'vent_'
'ure_'
'upsetting_'
'tells_'
'teenage_'
'swedish_'
'surrounded_'
'suprised_'
'strawberries_'
'sticks_'
'stark_'
'servicethe_'
'secondary_'
'seaview_'
'scotland_'
'saves_'
'roomwe_'
'rim_'
'results_'
'restaraunt_'
'repeatedly_'
'remodeling_'
'realistic_'
'reaction_'
'ramada_'
'published_'
'pressed_'
'powder_'
'poorer_'
'pods_'
'pinching_'
'pepper_'
'peas_'
'painted_'
'overwhelmed_'
'overseas_'
'nit_'
'nightand_'
'nh_'
'mistakes_'
'mexico_'
'mbps_'
'mary_'
'mariott_'
'leaking_'
'lag_'
'label_'
'kindly_'
'kempinski_'
'ked_'
'jets_'
'isolation_'
'islands_'
'ings_'
'hygiene_'
'hospital_'
'hint_'
'hike_'
'hectic_'
'ha_'
'grubby_'
'greedy_'
'grandeur_'
'goodness_'
'gem_'
'ful_'
'fooled_'
'follows_'
'focused_'
'feelings_'
'expenses_'
'exhorbitant_'
'enclosed_'
'driven_'
'disadvantage_'
'denver_'
'deeply_'
'decaf_'
'darkness_'
'creating_'
'covering_'
'continuous_'
'confident_'
'comparatively_'
'colder_'
'cleared_'
'classes_'
'browsing_'
'breakfastit_'
'bfast_'
'bellman_'
'background_'
'audible_'
'astronomical_'
'assessment_'
'ashamed_'
'aloft_'
'akin_'
'againi_'
'225_'
'210_'
'2010_'
'169_'
'1500_'
'119_'
' ........_'
' ! ! _'
'zoo_'
'zealand_'
'whisky_'
'wharf_'
'watched_'
'unstable_'
'unpack_'
'unnecessarily_'
'uneventful_'
'uncomfortably_'
'unattractive_'
'tune_'
'toasted_'
'temperamental_'
'tavern_'
'tahiti_'
'stuffed_'
'straw_'
'staybreakfast_'
'splash_'
'spire_'
'skimpy_'
'sake_'
'revenue_'
'renovating_'
'recognize_'
'poured_'
'potentially_'
'poster_'
'polish_'
'pin_'
'patrons_'
'pad_'
'notwithstanding_'
'nose_'
'nec_'
'named_'
'metropole_'
'mere_'
'mat_'
'makeup_'
'magical_'
'library_'
'jump_'
'judging_'
'ipads_'
'individually_'
'imaginative_'
'iced_'
'hooks_'
'honesty_'
'hindsight_'
'greet_'
'goodit_'
'goa_'
'flushed_'
'expresso_'
'ethernet_'
'domestic_'
'ding_'
'designer_'
'delux_'
'decorations_'
'decades_'
'debit_'
'daughters_'
'damage_'
'cy_'
'crying_'
'crew_'
'container_'
'companion_'
'classed_'
'celebrating_'
'cbd_'
'cares_'
'cambridge_'
'bowls_'
'bothersome_'
'boasts_'
'bass_'
'annoyances_'
'africa_'
'advertises_'
'admission_'
'active_'
'achieved_'
'51_'
'24th_'
'175_'
'149_'
'06_'
' :) _'
' " . _'
'walkway_'
'waitresses_'
'veggies_'
'unsuitable_'
'unheard_'
'unexpectedly_'
'understanding_'
'tissues_'
'thoughts_'
'therwise_'
'tesco_'
'tart_'
'stored_'
'staythis_'
'sq_'
'soak_'
'sing_'
'shine_'
'shave_'
'shampoos_'
'shameful_'
'session_'
'servings_'
'series_'
'serena_'
'seeking_'
'scared_'
'scarce_'
'rocket_'
'repaired_'
'receiving_'
'railway_'
'race_'
'ra_'
'princess_'
'primary_'
'presidential_'
'pics_'
'phoned_'
'peru_'
'peoples_'
'parcs_'
'oversized_'
'nly_'
'nightclub_'
'neutral_'
'myanmar_'
'muffin_'
'mode_'
'moab_'
'minuscule_'
'master_'
'male_'
'mad_'
'login_'
'lisbon_'
'lesson_'
'lasted_'
'landing_'
'labor_'
'itbut_'
'irritant_'
'insulting_'
'indication_'
'improving_'
'hote_'
'honored_'
'homewood_'
'herethe_'
'hammering_'
'grapefruit_'
'furnishing_'
'forest_'
'foam_'
'flawless_'
'fear_'
'exquisite_'
'ensured_'
'ence_'
'eats_'
'eater_'
'drying_'
'drapes_'
'downfall_'
'doubled_'
'distinct_'
'dispensers_'
'disconcerting_'
'diego_'
'detracted_'
'denied_'
'deceptive_'
'cushions_'
'culture_'
'crisp_'
'copy_'
'condo_'
'comped_'
'cm_'
'circa_'
'certificate_'
'butbreakfast_'
'bungalow_'
'brings_'
'berries_'
'beaten_'
'beachfront_'
'ary_'
'applies_'
'ants_'
'andso_'
'americans_'
'african_'
'advanced_'
'achieve_'
'accounts_'
'72_'
'40th_'
'17th_'
' ... ) ._'
'yelling_'
'yards_'
'whom_'
'westerns_'
'washed_'
'venice_'
'uld_'
'trivial_'
'trek_'
'thumbs_'
'thousands_'
'tastefully_'
'tasteful_'
'subway_'
'subsequent_'
'spreads_'
'splendid_'
'spice_'
'speaker_'
'soundproofed_'
'smoothly_'
'sirloin_'
'shorter_'
'shelves_'
'shake_'
'seasonal_'
'robbery_'
'rid_'
'responsive_'
'refill_'
'redone_'
'reconsider_'
'recognised_'
'queuing_'
'profit_'
'printed_'
'planet_'
'pinot_'
'pineapple_'
'ped_'
'painting_'
'packing_'
'packets_'
'packaged_'
'oceanfront_'
'nightstand_'
'moan_'
'mixture_'
'minded_'
'mezzanine_'
'merit_'
'memories_'
'maze_'
'marquis_'
'mac_'
'ma_'
'lowered_'
'loft_'
'lockers_'
'listening_'
'lemon_'
'leak_'
'laugh_'
'jfk_'
'ive_'
'iti_'
'intercon_'
'interaction_'
'intend_'
'incentive_'
'humidity_'
'hum_'
'hotelbreakfast_'
'horizon_'
'haggis_'
'grub_'
'grocery_'
'greek_'
'grande_'
'finishing_'
'fingers_'
'finebut_'
'festive_'
'exposed_'
'efforts_'
'eco_'
'ears_'
'dubious_'
'drops_'
'disturbance_'
'dissapointment_'
'disapointing_'
'dependent_'
'demanded_'
'decade_'
'criticisms_'
'cove_'
'cooled_'
'contains_'
'cents_'
'cava_'
'cambodia_'
'cad_'
'burning_'
'brisbane_'
'bf_'
'battery_'
'banana_'
'bahamas_'
'bagel_'
'attract_'
'angry_'
'allegedly_'
'ahwahnee_'
'afterthought_'
'afforded_'
'900_'
'80s_'
'54_'
' ... )_'
'ze_'
'youth_'
'ying_'
'wellington_'
'warmed_'
'valuables_'
'upfront_'
'unsafe_'
'unhelpful_'
'unforgivable_'
'undoubtedly_'
'undergone_'
'tucked_'
'thomson_'
'technology_'
'switzerland_'
'suffering_'
'stomach_'
'sticking_'
'standout_'
'stag_'
'springhill_'
'solve_'
'smiling_'
'sir_'
'shockingly_'
'shirts_'
'shining_'
'shell_'
'shades_'
'severe_'
'screwed_'
'salon_'
'rolled_'
'rocks_'
'roadside_'
'remind_'
'recommendable_'
'rained_'
'quay_'
'professionally_'
'prevented_'
'preferences_'
'pr_'
'ports_'
'porch_'
'politely_'
'plant_'
'pi_'
'oz_'
'ow_'
'outweigh_'
'offensive_'
'odds_'
'occurred_'
'oasis_'
'novotels_'
'noodle_'
'nervous_'
'mugs_'
'miniscule_'
'minimalist_'
'mash_'
'martini_'
'map_'
'lean_'
'lately_'
'landed_'
'lan_'
'jumeirah_'
'jammed_'
'ir_'
'intrusive_'
'instantly_'
'ini_'
'ine_'
'inappropriate_'
'ian_'
'horrendously_'
'hook_'
'homely_'
'handicap_'
'gross_'
'goodies_'
'glitches_'
'glance_'
'gentleman_'
'fireworks_'
'faucet_'
'failure_'
'explaining_'
'excessively_'
'exceed_'
'ery_'
'ensuring_'
'enhanced_'
'edwardian_'
'doorman_'
'dishwasher_'
'disconnected_'
'delta_'
'courtyards_'
'confused_'
'coffe_'
'clever_'
'ck_'
'cheesecake_'
'charger_'
'categories_'
'carrying_'
'cabinet_'
'cabanas_'
'bone_'
'beats_'
'approached_'
'anyways_'
'ance_'
'alaska_'
'absurdly_'
'58_'
'550_'
'189_'
'159_'
')._'
' . . ._'
' , ._'
' ) : _'
' ) ..._'
' ' ( _'
'yesterday_'
'yacht_'
'wildly_'
'wherever_'
'victoria_'
'valid_'
'utilitarian_'
'utensils_'
'unprofessional_'
'unknown_'
'uneven_'
'trident_'
'toward_'
'tovar_'
'tiring_'
'thoughtful_'
'tacos_'
'sweden_'
'student_'
'strict_'
'strawberry_'
'stifling_'
'spouse_'
'soups_'
'smiles_'
'sloppy_'
'sleeps_'
'sits_'
'shuttles_'
'shoddy_'
'sgd_'
'sections_'
'sealed_'
'scruffy_'
'sa_'
'reviewing_'
'reminiscent_'
'reluctantly_'
'refurbish_'
'refilled_'
'reference_'
'recommendations_'
'rc_'
'procedure_'
'principle_'
'pricethe_'
'prepay_'
'pavilion_'
'paddington_'
'ottawa_'
'orientated_'
'occasional_'
'ncp_'
'moscow_'
'mega_'
'link_'
'knife_'
'kick_'
'keg_'
'joint_'
'j_'
'invoice_'
'interestingly_'
'inter_'
'inclusion_'
'imho_'
'hop_'
'hanoi_'
'hairs_'
'generator_'
'gathering_'
'fry_'
'freezer_'
'fo'
'film_'
'facilites_'
'ervice_'
'embarrassment_'
'earn_'
'disappeared_'
'disapointed_'
'delivering_'
'daytime_'
'crockery_'
'cp_'
'cord_'
'conveniences_'
'configuration_'
'competent_'
'college_'
'cod_'
'closest_'
'cleaners_'
'chowder_'
'chilli_'
'chest_'
'cheeky_'
'champions_'
'cat_'
'brekkie_'
'breath_'
'borderline_'
'bora_'
'booze_'
'bloody_'
'blanc_'
'bizarrely_'
'biscuit_'
'beige_'
'bananas_'
'ard_'
'appointment_'
'apologised_'
'alternate_'
'alongside_'
'airco_'
'adjusted_'
'[ _'
'70'
'66_'
'5'
'270_'
' $ $ _'
' ! - _'
'yangon_'
'ya_'
'well'
'weekly_'
'wednesday_'
'weary_'
'ware_'
'vfm_'
'vegan_'
'valuable_'
'upwards_'
'university_'
'trimmings_'
'toddler_'
'thyme_'
'therethe_'
'ter_'
'tender_'
'temps_'
'task_'
'swift_'
'success_'
'substitute_'
'stronger_'
'stores_'
'speciality_'
'soooo_'
'sofas_'
'soaked_'
'settings_'
'servicing_'
'scandic_'
'santa_'
'safari_'
'ripe_'
'restored_'
'regal_'
'reflective_'
'recomend_'
'que_'
'pump_'
'pointing_'
'pink_'
'picking_'
'physically_'
'pets_'
'partake_'
'ors_'
'occupants_'
'nightcap_'
'ned_'
'nearer_'
'montreal_'
'mildly_'
'midland_'
'meter_'
'material_'
'manila_'
'malta_'
'louder_'
'limp_'
'landmark_'
'keurig_'
'jr_'
'istanbul_'
'install_'
'inroom_'
'indicative_'
'ikea_'
'iconic_'
'hurricane_'
'ho_'
'hide_'
'here'
'handles_'
'halfway_'
'grabbed_'
'george_'
'fulfilled_'
'fs_'
'frosted_'
'freshness_'
'fountain_'
'formula_'
'flip_'
'filter_'
'filet_'
'fighting_'
'feb_'
'extravagant_'
'existing_'
'exhibition_'
'enquired_'
'employer_'
'ell_'
'dusty_'
'dramatically_'
'disappointments_'
'didn_'
'depend_'
'da_'
'consists_'
'conservatory_'
'consequence_'
'confortable_'
'coloured_'
'clearing_'
'cheaply_'
'canned_'
'cancelling_'
'butler_'
'busier_'
'blessing_'
'blah_'
'behaviour_'
'ayers_'
'awards_'
'arms_'
'apologies_'
'agents_'
'advantages_'
'?_'
'43_'
'280_'
'2008_'
'20'
'!._'
' ~_'
' +_'
' % ._'
' " ) _'
'wyndham_'
'whopping_'
'wever_'
'wandering_'
'wallet_'
'valuethe_'
'value'
'utilized_'
'unwind_'
'unreasonably_'
'unjustified_'
'underway_'
'trump_'
'tipping_'
'ticks_'
'televisions_'
'teeth_'
'tab_'
't5_'
'swe_'
'sucks_'
'strips_'
'storey_'
'steel_'
'stadium_'
'sporadic_'
'softer_'
'smoker_'
'slipping_'
'skyline_'
'signing_'
'shangrila_'
'sending_'
'runny_'
'room'
'riverside_'
'rival_'
'rings_'
'respond_'
'renting_'
'redemption_'
'recognise_'
'rattled_'
'quality'
'pulling_'
'project_'
'presume_'
'portland_'
'polynesian_'
'plasma_'
'pipe_'
'philadelphia_'
'optimal_'
'noteworthy_'
'noisey_'
'nightso_'
'nightbut_'
'navigate_'
'motorway_'
'mayfair_'
'malaysia_'
'maintains_'
'law_'
'kidding_'
'kensington_'
'ke_'
'junk_'
'joining_'
'jaded_'
'itwe_'
'irrelevant_'
'ions_'
'introduction_'
'inthe_'
'ingly_'
'indicate_'
'increasingly_'
'inconsiderate_'
'impractical_'
'immensely_'
'hosts_'
'hawaiian_'
'handful_'
'gs_'
'grand'
'gm_'
'glitch_'
'girlfriend_'
'fridges_'
'folk_'
'finethe_'
'ff_'
'favourites_'
'experiencei_'
'exemplary_'
'examples_'
'eu_'
'entertaining_'
'empire_'
'emirates_'
'elected_'
'echo_'
'dly_'
'dive_'
'descript_'
'defiantly_'
'cute_'
'cuban_'
'criteria_'
'commensurate_'
'clinical_'
'choice'
'chlorine_'
'chi_'
'chateau_'
'cdg_'
'brush_'
'boom_'
'blocking_'
'belly_'
'avocado_'
'average'
'ave_'
'attendees_'
'anonymous_'
'andnot_'
'allergy_'
'airways_'
'againwe_'
'adapter_'
'90s_'
'68_'
'62_'
'56_'
'52_'
'41_'
'25'
'16'
' @_'
' ) ., _'
' ) .( _'
' " ... _'
' ! ! ! ! ! !_'
'xanterra_'
'worth'
'workable_'
'were'
'wasting_'
'wasthe_'
'voices_'
'vista_'
'ving_'
'unpacked_'
'trouser_'
'tricky_'
'traders_'
'tile_'
'tic_'
'thomas_'
'thermal_'
'syrup_'
'swipe_'
'strike_'
'stranded_'
'storm_'
'stories_'
'sterling_'
'squash_'
'spoons_'
'spas_'
'sights_'
'shoulder_'
'seoul_'
'seminar_'
'seaside_'
'seal_'
'satellite_'
'sampled_'
'safer_'
'rugby_'
'rowdy_'
'representative_'
'reminds_'
'remembering_'
'readers_'
'ranked_'
'raddison_'
'racket_'
'promo_'
'programs_'
'priceit_'
'presence_'
'players_'
'pages_'
'overrun_'
'overal_'
'outs_'
'ou_'
'operational_'
'operates_'
'one'
'okaybut_'
'okay'
'occupant_'
'observations_'
'obscene_'
'notes_'
'nonsense_'
'newest_'
'nachos_'
'mouse_'
'mount_'
'moon_'
'ml_'
'med_'
'marathon_'
'macdonald_'
'losing_'
'loaded_'
'lima_'
'lakeside_'
'kowloon_'
'knob_'
'kauai_'
'jams_'
'ise_'
'invested_'
'intolerable_'
'intermittently_'
'innovative_'
'inefficient_'
'indulgence_'
'indoors_'
'ight_'
'ide_'
'human_'
'hourly_'
'hotelso_'
'hosting_'
'hosted_'
'horrific_'
'holds_'
'handling_'
'haddock_'
'guinness_'
'guessing_'
'grumble_'
'grown_'
'gowns_'
'freshen_'
'field_'
'facade_'
'expensivethe_'
'exceedingly_'
'evian_'
'everytime_'
'endure_'
'elliptical_'
'ele'
'dresser_'
'dozens_'
'dissappointed_'
'differences_'
'desks_'
'delegates_'
'definition_'
'dancing_'
'crews_'
'cotton_'
'corn_'
'copthorne_'
'conversion_'
'containing_'
'consisting_'
'consecutive_'
'compliment_'
'competitively_'
'combo_'
'colombo_'
'chelsea_'
'carpeting_'
'capsules_'
'calm_'
'calamari_'
'breaking_'
'breakfastbreakfast_'
'bkk_'
'billing_'
'belong_'
'awaiting_'
'austin_'
'aqua_'
'appropriately_'
'andoverall_'
'ah_'
'accident_'
'9'
'60'
'46_'
'45'
'2018_'
'2009_'
'190_'
'185_'
'101_'
'*._'
' ) !_'
' $ $ $ _'
' ! ?_'
'xcellent_'
'width_'
'wc_'
'voice_'
'verandah_'
'united_'
'union_'
'unhealthy_'
'ue_'
'toothpaste_'
'timing_'
'ties_'
'thirty_'
'theirs_'
'talked_'
'survive_'
'surf_'
'sure'
'superbly_'
'sunrise_'
'substance_'
'students_'
'stain_'
'sorting_'
'sleepi_'
'shout_'
'scallops_'
'scaffolding_'
'roomso_'
'roombreakfast_'
'roaming_'
'roads_'
'rm_'
'rides_'
'ri_'
'rethink_'
'remotely_'
'regulate_'
'regrettably_'
'reccomend_'
'rarity_'
'quantities_'
'quaint_'
'puddings_'
'prohibitive_'
'progress_'
'prison_'
'pricebut_'
'price'
'popcorn_'
'pokey_'
'plus'
'plays_'
'plat_'
'placement_'
'pier_'
'pickup_'
'philly_'
'pen_'
'pcs_'
'papers_'
'pace_'
'owner_'
'oversight_'
'overbooked_'
'orchid_'
'om_'
'olive_'
'oki_'
'nternet_'
'notable_'
'ning_'
'nicethe_'
'newcastle_'
'misfortune_'
'mint_'
'messy_'
'mechanical_'
'mashed_'
'maintaining_'
'maids_'
'lounging_'
'lol_'
'lite_'
'lengthy_'
'ka_'
'jacket_'
'increasing_'
'imaginable_'
'ideally_'
'hotel'
'honour_'
'hiking_'
'hiccup_'
'haphazard_'
'hamburgers_'
'grosvenor_'
'ghastly_'
'gear_'
'gaps_'
'fronts_'
'frig_'
'freeview_'
'flair_'
'finei_'
'fineand_'
'fewer_'
'favorites_'
'fancier_'
'experienceand_'
'existed_'
'exceptions_'
'etc'
'essentials_'
'engineer_'
'drury_'
'drank_'
'downright_'
'doubtful_'
'dj_'
'divine_'
'disposable_'
'disorganised_'
'di_'
'deserving_'
'definetely_'
'default_'
'deciding_'
'dallas_'
'curries_'
'cracks_'
'counters_'
'copley_'
'contract_'
'continuously_'
'compromised_'
'coin_'
'cloth_'
'circulation_'
'cigarettes_'
'cider_'
'chaise_'
'carries_'
'buzz_'
'burned_'
'brazilian_'
'bog_'
'blank_'
'batteries_'
'awoken_'
'awfully_'
'audio_'
'attracted_'
'assure_'
'artificial_'
'alley_'
'again'
'adjustment_'
'adequately_'
'acknowledged_'
'accompanying_'
'82_'
'750_'
'64_'
'6'
'4star_'
'360_'
'30th_'
'2x_'
'25th_'
'24hr_'
'2006_'
'.'
' ... ) _'
' . '_'
' ) -_'
'yours_'
'wishing_'
'wires_'
'wire_'
'wifi'
'wembley_'
'warrants_'
'wanna_'
'vintage_'
'victorian_'
'ven_'
'vehicles_'
'us'
'upsell_'
'understated_'
'ultimate_'
'ul_'
'twist_'
'tusayan_'
'transferred_'
'touching_'
'times'
'tiled_'
'thousand_'
'thirdly_'
'tablet_'
'synthetic_'
'sweat_'
'sufficiently_'
'successful_'
'styles_'
'storing_'
'stew_'
'stepped_'
'stature_'
'splashing_'
'spirit_'
'socks_'
'smelling_'
'slowest_'
'slots_'
'ski_'
'sixth_'
'shutters_'
'shorts_'
'sfo_'
'sek_'
'scrum_'
'screams_'
'scandinavia_'
'rosen_'
'revealed_'
'retired_'
'responded_'
'resident_'
'reliability_'
'reflecting_'
'refined_'
'razor_'
'quibbles_'
'provider_'
'president_'
'presentations_'
'plunge_'
'pit_'
'pig_'
'percent_'
'pedicure_'
'overlooks_'
'ought_'
'organic_'
'ooked_'
'notified_'
'northern_'
'nightit_'
'nail_'
'mountains_'
'military_'
'mickey_'
'metre_'
'melted_'
'measures_'
'mats_'
'lu'
'lounger_'
'locks_'
'loaf_'
'limo_'
'lime_'
'leads_'
'ld_'
'l'
'kyoto_'
'ky_'
'knowledgeable_'
'irritations_'
'inspired_'
'influence_'
'il_'
'icelandair_'
'horror_'
'hoppa_'
'heaters_'
'hardware_'
'habit_'
'grille_'
'greens_'
'gran_'
'graded_'
'globally_'
'gar'
'freely_'
'flowing_'
'floor'
'fir_'
'financial_'
'films_'
'experiencing_'
'exotic_'
'existant_'
'exhaust_'
'excellant_'
'ellipticals_'
'eaters_'
'drunken_'
'disgusted_'
'disastrous_'
'denali_'
'demanding_'
'delays_'
'del_'
'damn_'
'curious_'
'criticise_'
'corinthia_'
'competing_'
'codes_'
'citadines_'
'childrens_'
'cheap'
'characterless_'
'cave_'
'butoverall_'
'buffer_'
'britain_'
'boyfriend_'
'bountiful_'
'beneficial_'
'battered_'
'bathing_'
'barbecue_'
'ayed_'
'avoiding_'
'automated_'
'austere_'
'aussie_'
'auckland_'
'attraction_'
'armchair_'
'argument_'
'are'
'arcade_'
'ans_'
'alarms_'
'aim_'
'admitted_'
'accessed_'
'abu_'
'aa_'
'74_'
'60s_'
'47_'
'320_'
'27'
'15'
'05_'
' ) & _'
' ! ! ! _'
'à_'
'yr_'
'worlds_'
'workspace_'
'wo'
'wholesome_'
'wheel_'
'westins_'
'way'
'visit'
'vice_'
'ves_'
'vehicle_'
'utility_'
'trolley_'
'trickle_'
'trainers_'
'timethe_'
'tie_'
'thb_'
'text_'
'tes_'
'tents_'
'tea'
'surly_'
'supervisor_'
'styled_'
'stunned_'
'steamed_'
'stays'
'splurged_'
'spinach_'
'specify_'
'speaks_'
'sourced_'
'sodas_'
'sleep'
'skills_'
'showerhead_'
'sept_'
'scores_'
'scandalous_'
'sbut_'
'ru'
'routine_'
'roomthere_'
'rewarded_'
'reunion_'
'restocked_'
'restless_'
'refreshment_'
'refills_'
'rapidly_'
'presents_'
'pour_'
'police_'
'pitch_'
'picchu_'
'paste_'
'parker_'
'panoramic_'
'palms_'
'pa_'
'outer_'
'oo_'
'offsite_'
'occur_'
'objective_'
'nutshell_'
'noisiest_'
'nick_'
'ni_'
'nes_'
'necessities_'
'na'
'moorea_'
'mod_'
'millennium_'
'midday_'
'messed_'
'marvellous_'
'mar'
'majestic_'
'magnifying_'
'machu_'
'louise_'
'linked_'
'limits_'
'lemonade_'
'leaf_'
'laptops_'
'ko'
'knowledge_'
'kingsize_'
'ka'
'je'
'james_'
'itand_'
'inspection_'
'indicating_'
'impacted_'
'immaculately_'
'ied_'
'ich_'
'housekeeper_'
'hours'
'honey_'
'hitting_'
'hing_'
'havana_'
'hamptons_'
'guided_'
'guessed_'
'gown_'
'goodthis_'
'ginger_'
'generously_'
'gambling_'
'fox_'
'fort_'
'fork_'
'food'
'fold_'
'flower_'
'flooring_'
'floating_'
'flavours_'
'fares_'
'failing_'
'facilities'
'f'
'extraordinarily_'
'expensivebut_'
'exorbitantly_'
'errors_'
'emptied_'
'eli'
'el'
'drains_'
'drag_'
'dimly_'
'dietary_'
'developed_'
'designated_'
'deserted_'
'denny_'
'decorative_'
'd'
'cucumber_'
'creamy_'
'copious_'
'convince_'
'convert_'
'contrary_'
'contents_'
'commercial_'
'colours_'
'collected_'
'cloths_'
'closets_'
'circle_'
'cigar_'
'cherry_'
'cheesy_'
'cheek_'
'challenged_'
'cc_'
'caveat_'
'casa_'
'canceled_'
'canberra_'
'buzzing_'
'butbut_'
'buta_'
'but'
'buffet'
'breast_'
'branding_'
'bowling_'
'belongings_'
'barcelo_'
'backed_'
'back'
'awakened_'
'appliances_'
'andif_'
'ana_'
'alert_'
'adaptor_'
'accomodate_'
'accidentally_'
'87_'
'8'
'26th_'
'21'
'2007_'
'1980s_'
'195_'
'100'
'09_'
'00'
' ( '
' $ ._'
'yrs_'
'wowed_'
'wifithe_'
'west'
'weigh_'
'warranted_'
'walks_'
'waitstaff_'
'wa_'
'vin_'
'viking_'
'viable_'
'vanilla_'
'useable_'
'upgrade'
'up'
'unpacking_'
'unexceptional_'
'unclear_'
'ty'
'twins_'
'turnover_'
'turkish_'
'turf_'
'tubes_'
'trucks_'
'truck_'
'tru'
'tremendously_'
'tradition_'
'torture_'
'toiletry_'
'toileteries_'
'tions_'
'thumping_'
'that'
'technical_'
'sy_'
'swimmers_'
'sunshine_'
'sundays_'
'stolen_'
'stench_'
'stella_'
'staff'
'spices_'
'specialty_'
'spa'
'snoring_'
'sizeable_'
'shuts_'
'shambles_'
'sewage_'
'ses_'
'service'
'sea'
'saunas_'
'rundown_'
'rudely_'
'router_'
'roomsthe_'
'rooms'
'rom_'
'resturants_'
'resonable_'
'resembled_'
'replenish_'
'repairs_'
'relocated_'
'refrigerators_'
'radissons_'
'quirks_'
'queried_'
'qualities_'
'promising_'
'proceeded_'
'pride_'
'priceythe_'
'priced'
'pretend_'
'pressing_'
'predictably_'
'pot'
'posts_'
'pints_'
'phoenix_'
'phenomenal_'
'personalized_'
'permitted_'
'permanently_'
'permanent_'
'peculiar_'
'path_'
'patch_'
'partying_'
'palatable_'
'paintwork_'
'paintings_'
'overflow_'
'outweighed_'
'outback_'
'organization_'
'orangery_'
'oppressive_'
'operations_'
'ome_'
'okit_'
'now'
'not'
'nights'
'night'
'neighbour_'
'nap_'
'money'
'misses_'
'miffed_'
'messages_'
'mes'
'meager_'
'marco_'
'managing_'
'manages_'
'mal'
'luxuries_'
'ludicrously_'
'logged_'
'linger_'
'lid_'
'lick_'
'lhr_'
'leisurely_'
'lebua_'
'laughlin_'
'lasagne_'
'labelled_'
'ku'
'ketchup_'
'ja'
'j'
'ities_'
'ised_'
'ironic_'
'ious_'
'inward_'
'invited_'
'insipid_'
'infinity_'
'iness_'
'inconveniences_'
'incidentally_'
'immaculate_'
'iffy_'
'ically_'
'husbands_'
'hotelall_'
'hk'
'hin_'
'hilton'
'hideous_'
'hello_'
'headboard_'
'hbo_'
'haute_'
'growing_'
'glowing_'
'glorified_'
'glacier_'
'gifts_'
'garbage_'
'fyi_'
'full'
'fri_'
'fresher_'
'frequency_'
'forty_'
'foodbut_'
'fo_'
'extract_'
'exploring_'
'executed_'
'etap_'
'estate_'
'es'
'ely_'
'ear'
'dual_'
'du_'
'dread_'
'dome_'
'doctor_'
'desk'
'describes_'
'definitively_'
'deal'
'darn_'
'cs_'
'criminal_'
'crib_'
'creamer_'
'core_'
'continuing_'
'constructed_'
'congested_'
'concentrate_'
'combine_'
'coffeemaker_'
'classify_'
'clarion_'
'chase_'
'carts_'
'carrot_'
'cal_'
'busiest_'
'bunk_'
'bumped_'
'bt_'
'bs_'
'brewed_'
'br_'
'birds_'
'believed_'
'belfast_'
'banyan_'
'bad'
'backs_'
'b'
'available'
'attendants_'
'arrives_'
'arking_'
'apps_'
'appetizing_'
'anantara_'
'aid_'
'aforementioned_'
'adventure_'
'adjustable_'
'accessories_'
'80'
'78_'
'650_'
'57_'
'32'
'30'
'27th_'
'1200_'
'12'
'11'
'10'
'0'
'++ _'
'' _'
' > _'
' > $ _'
' .+ _'
' - -_'
' , ' _'
' ), _'
' ) .- _'
' ) .'
' ) '
'zen_'
'yed_'
'x'
'ws_'
'worrying_'
'wild_'
'wetherspoons_'
'waves_'
'wait'
'visa_'
'vinegar_'
'valuebut_'
'unplug_'
'uninteresting_'
'uncooked_'
'unaware_'
'unappetizing_'
'uk'
'uffet_'
'trip'
'travel'
'tolerate_'
'toddlers_'
'ti_'
'threw_'
'thisthe_'
'therei_'
'tested_'
'tariffs_'
'tape_'
'sweating_'
'surfing_'
'summarise_'
'suck_'
'stupidly_'
'studios_'
'strictly_'
'stodgy_'
'stayso_'
'staycation_'
'sponge_'
'spendy_'
'sooner_'
'smoothies_'
'sin_'
'sided_'
'shy_'
'shame'
'shaft_'
'sensational_'
'selection'
'seldom_'
'searched_'
'scope_'
'sauces_'
'sama_'
'salsa_'
'rolling_'
'roaring_'
'rising_'
'rio_'
'ridge_'
'responsible_'
'rep_'
'relevant_'
'relationship_'
'rejected_'
'refit_'
'redeemed_'
'red'
'ray_'
'ranges_'
'queenstown_'
'protein_'
'proofed_'
'production_'
'precisely_'
'prebooked_'
'pra'
'poor'
'policies_'
'plague_'
'pisco_'
'pinch_'
'perception_'
'peanuts_'
'payable_'
'panorama_'
'palate_'
'packs_'
'overheated_'
'ously_'
'oth_'
'oranges_'
'opaque_'
'omlette_'
'omg_'
'oldest_'
'okwe_'
'oj_'
'ob'
'nonexistent_'
'noisier_'
'nicei_'
'ner_'
'neglected_'
'nationalities_'
'mum_'
'mouldy_'
'motion_'
'ming_'
'mild_'
'milan_'
'medical_'
'mcdonald_'
'matching_'
'matches_'
'masala_'
'marketed_'
'mainland_'
'long'
'loch_'
'litre_'
'lightly_'
'ledge_'
'laying_'
'laterooms_'
'kuala_'
'kolkata_'
'kitchens_'
'kill_'
'ju'
'irst_'
'investigate_'
'int_'
'institutional_'
'inquired_'
'inns'
'infact_'
'indicates_'
'illy_'
'iest_'
'ier_'
'hu'
'hoteloverall_'
'hostels_'
'hose_'
'honoured_'
'hershey_'
'herewe_'
'herei_'
'haven_'
'had'
'grotty_'
'gordon_'
'goodso_'
'gon_'
'glory_'
'glamorous_'
'get'
'furious_'
'functionality_'
'fun'
'freebies_'
'foul_'
'forewarned_'
'for'
'fool_'
'floorboards_'
'fixing_'
'fires_'
'fills_'
'feeding_'
'fedex_'
'favourably_'
'fallsview_'
'fallen_'
'extortion_'
'expensivei_'
'exiting_'
'excel_'
'exceeds_'
'exaggerated_'
'evening'
'essence_'
'equiped_'
'environmental_'
'ensuite_'
'engineering_'
'elsewhere'
'ect_'
'economic_'
'dvc_'
'drivers_'
'drake_'
'discuss_'
'directory_'
'dhabi_'
'detailed_'
'departures_'
'departed_'
'dawn_'
'crystal_'
'creates_'
'creaky_'
'couches_'
'condensation_'
'conclude_'
'compliments_'
'comforter_'
'claiming_'
'chinle_'
'chardonnay_'
'cellar_'
'cavernous_'
'capable_'
'cameron_'
'cables_'
'bump_'
'bugbear_'
'buffalo_'
'buenos_'
'brother_'
'bothering_'
'blows_'
'blood_'
'blend_'
'bitterly_'
'belief_'
'bean_'
'beaches_'
'barn_'
'awhile_'
'awarded_'
'assorted_'
'artwork_'
'architectural_'
'appreciative_'
'appetite_'
'apologise_'
'animal_'
'andfood_'
'ammenities_'
'ales_'
'ago'
'againand_'
'advising_'
'activated_'
'acoustics_'
'acknowledgement_'
'90'
'53_'
'40'
'330_'
'299_'
'290_'
'28th_'
'2'
'1800_'
'116_'
'104_'
'08_'
'02_'
'.- _'
'----_'
' ? ? ? ?_'
' : '
' .:) _'
' . !_'
'ythe_'
'yo'
'wound_'
'world'
'wich_'
'wholly_'
'weekend'
'wdw_'
'wateringly_'
'warmly_'
'warm'
'waived_'
'ville_'
'verything_'
'verdict_'
'vely_'
'ved_'
'valueand_'
'vacuum_'
'urgent_'
'upload_'
'uplift_'
'unprepared_'
'undersized_'
'under'
'und_'
'uncommon_'
'unbearably_'
'tweaks_'
'towns_'
'toasting_'
'tly_'
'time'
'tick_'
'this'
'there'
'texture_'
'tenaya_'
'teenager_'
'target_'
'tar'
'tank_'
'swap_'
'swanky_'
'sunbed_'
'sucked_'
'sublime_'
'straightforward_'
'stinks_'
'stewed_'
'stay'
'star'
'stamp_'
'stair_'
'spell_'
'specified_'
'speakers_'
'spaghetti_'
'solely_'
'sna'
'smoothie_'
'slick_'
'sleek_'
'sketchy_'
'sirens_'
'singer_'
'shutting_'
'shocker_'
'shiny_'
'shaver_'
'shares_'
'sessions_'
'servicei_'
'selecting_'
'seamless_'
'scratched_'
'scotch_'
'scenery_'
'scenario_'
'sashimi_'
'safely_'
'ryanair_'
'rico_'
'reykjavik_'
'retained_'
'restrictions_'
'rendezvous_'
'rendered_'
'relieved_'
'relations_'
'regional_'
'regarded_'
'refurbed_'
'redo_'
'recieved_'
'receptionists_'
'realy_'
'rea'
'quit_'
'quiet'
'qui'
'purple_'
'purchasing_'
'pubs_'
'provisions_'
'professionalism_'
'prestige_'
'premise_'
'posting_'
'polished_'
'points'
'pleasurable_'
'placei_'
'picnic_'
'peppers_'
'penthouse_'
'pay'
'pate_'
'partners_'
'pantry_'
'pans_'
'palomar_'
'ownership_'
'outcome_'
'ory_'
'opulence_'
'opting_'
'open'
'oo'
'onwards_'
'olympics_'
'oct_'
'observed_'
'obliged_'
'nye_'
'noticeably_'
'much'
'mozzarella_'
'more'
'moneyit_'
'moneyi_'
'mon_'
'mom_'
'modernised_'
'mixer_'
'micro_'
'michael_'
'metres_'
'merits_'
'measly_'
'meals'
'marvelous_'
'maple_'
'mango_'
'makings_'
'magnolia_'
'lump_'
'lug_'
'lowry_'
'low'
'lounge'
'logical_'
'location'
'loading_'
'lined_'
'limitations_'
'lifted_'
'lessons_'
'legal_'
'leftovers_'
'lebanese_'
'layer_'
'lat'
'lacklustre_'
'labeled_'
'kippers_'
'keycard_'
'justifies_'
'jumping_'
'juan_'
'jar_'
'itso_'
'io'
'interrupted_'
'informing_'
'individuals_'
'incidents_'
'inability_'
'hua_'
'housing_'
'house'
'hotelthere_'
'hostess_'
'hopeful_'
'hits_'
'high'
'hiccups_'
'heineken_'
'have'
'hand'
'grumpy_'
'grim_'
'grigio_'
'grease_'
'grass_'
'graciously_'
'google_'
'goodoverall_'
'golfers_'
'ges_'
'fuel_'
'ft'
'friendlier_'
'fri'
'forgive_'
'flops_'
'flooding_'
'flight'
'flatscreen_'
'fizz_'
'filtered_'
'file_'
'fe_'
'father_'
'fact'
'explains_'
'excuses_'
'excursions_'
'exaggeration_'
'europeans_'
'euro'
'escorted_'
'enticing_'
'eing_'
'eatery_'
'dy_'
'dryers_'
'dribble_'
'drained_'
'drainage_'
'doormen_'
'door'
'don'
'do'
'divided_'
'dissatisfied_'
'disrupted_'
'dislikes_'
'disappoints_'
'din_'
'dim'
'difficulties_'
'development_'
'detergent_'
'descriptions_'
'des_'
'decadent_'
'dec_'
'dar'
'dad_'
'credited_'
'crashing_'
'craft_'
'cornflakes_'
'continual_'
'congress_'
'congealed_'
'comprised_'
'competitor_'
'command_'
'closely_'
'clo'
'cliff_'
'cleanest_'
'churchill_'
'choicethe_'
'choices'
'chester_'
'chatting_'
'chances_'
'ces_'
'butthis_'
'business'
'bulk_'
'buggy_'
'bu'
'brownie_'
'breakfastso_'
'breakfast'
'brainer_'
'boxed_'
'bolt_'
'boil_'
'blasting_'
'biz_'
'bill'
'bidet_'
'bidding_'
'beneath_'
'barthe_'
'barrier_'
'banged_'
'bands_'
'avenue_'
'attempting_'
'ations_'
'at'
'ast_'
'associate_'
'arrogant_'
'aroma_'
'ari'
'area'
'appointments_'
'any'
'antique_'
'angel_'
'andvery_'
'andgood_'
'am'
'allergic_'
'alike_'
'alarming_'
'aires_'
'able'
'aberdeen_'
'aarp_'
'84_'
'73_'
'61_'
'3'
'29th_'
'28'
'22'
'1990s_'
'1980_'
'1100_'
'.(_'
'--- _'
' ’ ._'
' ` _'
' .• _'
' ( " _'
' ( ! ) _'
' ' ' _'
' $ $ ._'
'zi'
'worries_'
'woeful_'
'wit_'
'winds_'
'wilderness_'
'wheat_'
'westerners_'
'weaknesses_'
'we'
'waterfall_'
'warner_'
'wander_'
'wall'
'vpn_'
'verging_'
'valentines_'
'vacuumed_'
'utilised_'
'ur'
'unwelcome_'
'unspectacular_'
'uns'
'unreal_'
'unmemorable_'
'unc'
'udaipur_'
'tv'
'tur'
'trusted_'
'tri'
'travelocity_'
'trap_'
'transiting_'
'trading_'
'tooth_'
'timei_'
'thrills_'
'thing'
'thereof_'
'theory_'
'then'
'the'
'texas_'
'technically_'
'tarnished_'
'suspicious_'
'sur'
'supplements_'
'super'
'suite'
'stretching_'
'starving_'
'starred_'
'stank_'
'spruce_'
'spoken_'
'speed'
'special'
'sophistication_'
'sooo_'
'sons_'
'small'
'slow'
'slim_'
'slammed_'
'sion_'
'silence_'
'signals_'
'showered_'
'shakes_'
'sha'
'settling_'
'servicebut_'
'seafront_'
'science_'
'sails_'
'safes_'
'sachet_'
'ruth_'
'rusty_'
'royalty_'
'roosevelt_'
'roomsi_'
'romance_'
'return'
'restaurant'
'reset_'
'reserving_'
'representation_'
'renowned_'
'regretted_'
'registered_'
'register_'
'reception'
'reat_'
'reap_'
'reaching_'
'rabbit_'
'r'
'quilt_'
'qualifies_'
'prohibitively_'
'prize_'
'pricey'
'premiere_'
'powered_'
'pouring_'
'pn_'
'pm'
'play'
'pissed_'
'pierre_'
'person'
'perfume_'
'pepsi_'
'pennies_'
'pence_'
'pattern_'
'participants_'
'parent_'
'par'
'pants_'
'panini_'
'panels_'
'pan'
'pale_'
'overwater_'
'overpowering_'
'ost_'
'order'
'oom_'
'olympic_'
'okaythe_'
'offer'
'occurrence_'
'occassions_'
'occassion_'
'oak_'
'nut_'
'notoriously_'
'nope_'
'non'
'noice_'
'nightwe_'
'nicewe_'
'netflix_'
'negligible_'
'nation_'
'napkins_'
'mosquitoes_'
'moroccan_'
'monument_'
'moneywe_'
'moneybut_'
'moist_'
'mis_'
'mildew_'
'mia_'
'mesa_'
'memorial_'
'mecure_'
'marriott'
'markets_'
'mandalay_'
'maldives_'
'malaysian_'
'mails_'
'machinery_'
'macaroons_'
'luton_'
'lumpur_'
'lotions_'
'london'
'locate_'
'lists_'
'line'
'lifeless_'
'le'
'laws_'
'lauderdale_'
'kudos_'
'ko_'
'know'
'kicker_'
'judged_'
'john_'
'jobs_'
'jersey_'
'jakarta_'
'itthis_'
'itit_'
'isthe_'
'ist_'
'irons_'
'ip'
'inn'
'inhouse_'
'ingthe_'
'indulge_'
'incurred_'
'immense_'
'ily_'
'ility_'
'ii_'
'icelandic_'
'iberostar_'
'hut_'
'hum'
'housed_'
'hotelgood_'
'hiltonthe_'
'heartbeat_'
'healthier_'
'harvester_'
'harry_'
'hard'
'gulf_'
'grout_'
'grandchildren_'
'glaring_'
'ght_'
'geyser_'
'ge'
'gbp'
'gather_'
'frequented_'
'freeway_'
'foodthe_'
'fond_'
'flu'
'floridian_'
'flavoured_'
'fireplaces_'
'fine'
'fifteen_'
'fault'
'faucets_'
'facilties_'
'fabric_'
'emphasis_'
'embers_'
'elites_'
'egypt_'
'eager_'
'dro'
'drawn_'
'dosa_'
'distant_'
'dismayed_'
'disagree_'
'diamonds_'
'determined_'
'deteriorated_'
'descent_'
'den'
'deducted_'
'dearer_'
'daft_'
'cumberland_'
'crt_'
'creme_'
'cre'
'cracking_'
'cra'
'counting_'
'coral_'
'con'
'complement_'
'comparably_'
'commitment_'
'colors_'
'coats_'
'club'
'climbing_'
'classified_'
'circular_'
'cing_'
'chunks_'
'choicei_'
'choicebut_'
'chi'
'chf_'
'chennai_'
'cheeseburger_'
'che_'
'charmless_'
'charity_'
'cha'
'cast_'
'cappuccinos_'
'candles_'
'canary_'
'bur'
'bungalows_'
'bumping_'
'brits_'
'brilliantly_'
'bridges_'
'breakers_'
'bordering_'
'boats_'
'bleak_'
'blaring_'
'bitten_'
'betterthe_'
'ber_'
'belongs_'
'bells_'
'behavior_'
'beg_'
'before'
'bedroom'
'beachside_'
'bb_'
'batter_'
'baltimore_'
'bait_'
'bag'
'ays_'
'attracts_'
'astonishing_'
'arguably_'
'arena_'
'archaic_'
'appalled_'
'anti_'
'animals_'
'and'
'amusing_'
'amused_'
'als_'
'allocation_'
'all'
'ali'
'ak'
'agreeable_'
'agra_'
'ageing_'
'againthis_'
'advert_'
'accompany_'
'absent_'
'91_'
'71_'
'55'
'50th_'
'4000_'
'4'
'340_'
'245_'
'2005_'
'1970s_'
'155_'
'124_'
'1'
'...... _'
') ._'
' ” , _'
' ” '
' ~ _'
' ? ) , _'
' .€ _'
' .” _'
' ) ... _'
' ( € _'
' ( ? ) _'
' ( # _'
' &_'
'” _'
'yuk_'
'yo_'
'ymca_'
'xi'
'work'
'widely_'
'westbury_'
'wells_'
'was'
'warming_'
'war'
'vowed_'
'void_'
'visually_'
'visual_'
'vine_'
'vents_'
'varying_'
'utter_'
'utilize_'
'unused_'
'unsettling_'
'unplugged_'
'undertaken_'
'understandably_'
'unavoidable_'
'ugh_'
'uae_'
'turquoise_'
'truely_'
'tripadvisor'
'trifle_'
'treating_'
'town'
'toe_'
'todays_'
'timely_'
'ti'
'thread_'
'them'
'ter'
'sweaty_'
'surrounds_'
'supporting_'
'supervision_'
'sundries_'
'steady_'
'stayvery_'
'staya_'
'static_'
'standpoint_'
'standard'
'sta'
'sprawling_'
'spe'
'souless_'
'son'
'software_'
'sofitels_'
'smoky_'
'sleepthe_'
'situations_'
'shoulders_'
'shop'
'shed_'
'sequoia_'
'sensor_'
'seniors_'
'sauvignon_'
'sao_'
'sagged_'
'sacrifice_'
'rv_'
'rounds_'
'rotten_'
'rocking_'
'roanoke_'
'ro_'
'ro'
'rivals_'
'risers_'
'retro_'
'retail_'
'restuarants_'
'restraunt_'
'resting_'
'rese'
'res_'
'republic_'
'representing_'
'reopened_'
'reheated_'
'refilling_'
'refer_'
'ree_'
'rediculous_'
'recover_'
'reckon_'
'rec'
'reasonable'
'reader_'
'rattling_'
'rating'
'ras'
'rant_'
'ramp_'
'rains_'
'radiators_'
'r1'
'quinta_'
'qt_'
'puzzled_'
'purchases_'
'puerto_'
'proposed_'
'promenade_'
'prix_'
'printers_'
'prices'
'prestigious_'
'preferring_'
'pp'
'portfolio_'
'porters_'
'pond_'
'poisoning_'
'point'
'pockets_'
'phnom_'
'persistent_'
'per'
'pen'
'pe_'
'paulo_'
'parking'
'para'
'padding_'
'oysters_'
'owns_'
'overkill_'
'overheard_'
'overall'
'ot'
'osaka_'
'os'
'organizers_'
'ore_'
'orbitz_'
'option'
'oozes_'
'ook_'
'onions_'
'oman_'
'olds_'
'officially_'
'offices_'
'off'
'of'
'odour_'
'obliging_'
'novelty_'
'nov_'
'nightsi_'
'nigh_'
'nice'
'ni'
'nassau_'
'napa_'
'movement_'
'mousse_'
'morning'
'monthly_'
'moments_'
'mojito_'
'minimalistic_'
'ment'
'member'
'mei_'
'media_'
'mc'
'matress_'
'married_'
'mar_'
'lthough_'
'lover_'
'loud'
'littered_'
'listing_'
'lied_'
'lb_'
'lankan_'
'lanai_'
'lan'
'laguna_'
'lagged_'
'labels_'
'kits_'
'justification_'
'jumped_'
'judgement_'
'itinerary_'
'ironically_'
'ir'
'io_'
'insurance_'
'inr_'
'inquire_'
'inkaterra_'
'ing'
'infinitely_'
'ine'
'indore_'
'indonesia_'
'income_'
'inca_'
'inaccurate_'
'illegal_'
'ig_'
'icing_'
'hs_'
'hottest_'
'horrified_'
'honolulu_'
'hongkong_'
'honest'
'home'
'holland_'
'holiday'
'hkg_'
'hen'
'helsinki_'
'helpfull_'
'hearted_'
'hb_'
'hang'
'h'
'guilty_'
'guard_'
'grouting_'
'greatthe_'
'great'
'grandson_'
'gouge_'
'goodthere_'
'goodno_'
'goodgood_'
'glorious_'
'gf_'
'generation_'
'fr_'
'forms_'
'foodi_'
'folded_'
'flyers_'
'flood_'
'flimsy_'
'flavors_'
'flashing_'
'flag_'
'fifty_'
'fer'
'feeble_'
'featuring_'
'farce_'
'fancied_'
'fa'
'f1_'
'extra'
'expanded_'
'exists_'
'eventi_'
'ered_'
'era'
'ensures_'
'eligible_'
'dungeon_'
'dumped_'
'drip_'
'drill_'
'dreaded_'
'draining_'
'downmarket_'
'dorm_'
'doona_'
'distinctive_'
'disliked_'
'discomfort_'
'discerning_'
'dinner'
'diminished_'
'diming_'
'differential_'
'di'
'depth_'
'depart_'
'definetly_'
'deemed_'
'decorating_'
'darwin_'
'danieli_'
'cutter_'
'customary_'
'cultural_'
'culinary_'
'cube_'
'cru'
'cop'
'conventional_'
'contributed_'
'consuming_'
'consumed_'
'conditioners_'
'condiments_'
'concession_'
'companions_'
'comfortable'
'com'
'cold'
'cokes_'
'cloudy_'
'clotted_'
'chunky_'
'christchurch_'
'chris_'
'chops_'
'ched_'
'cheapbut_'
'cebu_'
'cdn_'
'cd_'
'case'
'cape_'
'candy_'
'cal'
'cabbage_'
'butnothing_'
'butand_'
'businessmen_'
'bunker_'
'bullet_'
'budget'
'brutal_'
'breathe_'
'breakfastthis_'
'brazil_'
'bound_'
'bliss_'
'better'
'best'
'bend_'
'belvedere_'
'bella_'
'behaved_'
'bedthe_'
'bedded_'
'bed'
'basic'
'bartenders_'
'banks_'
'bal'
'aving_'
'avg_'
'autograph_'
'au'
'attractively_'
'astounding_'
'associates_'
'asks_'
'arrivals_'
'army_'
'approaching_'
'apologized_'
'apologize_'
'annoyingly_'
'ani'
'andno_'
'andhowever_'
'ambar_'
'airconditioner_'
'againit_'
'againbreakfast_'
'afternoons_'
'after'
'adlon_'
'adjusting_'
'activate_'
'acknowledge_'
'absorb_'
'abandoned_'
'ab'
'a1_'
'88_'
'50p_'
'50'
'41'
'35'
'31st_'
'300'
'275_'
'269_'
'265_'
'26'
'22nd_'
'1700_'
'17'
'13'
'118_'
'108_'
',- _'
')- _'
'# _'
' ? '
' : " _'
' .[ _'
' ...'
' .. '
' - ( _'
' ) ,_'
' ! ._'
' ! ! ) ._'
' !'
'• _'
'é_'
'z'
'yu'
'you'
'yorkshire_'
'y'
'wrongly_'
'with'
'wipe_'
'winning_'
'washbasin_'
'war_'
'wan_'
'walkways_'
'verizon_'
'veal_'
'valuei_'
'valentine_'
'vacationing_'
'usly_'
'usa'
'ure'
'unwilling_'
'unwarranted_'
'uniform_'
'ue'
'uch_'
'twelve_'
'tuned_'
'tu'
'trousers_'
'tre'
'toothbrushes_'
'tones_'
'tive_'
'tit'
'tiniest_'
'tiered_'
'thro'
'threadbare_'
'tho'
'thereand_'
'thereafter_'
'themes_'
'thee_'
'th'
'terraces_'
'ten'
'teething_'
'teens_'
'teen_'
'tedious_'
'tail_'
'tablets_'
'table'
'swi'
'swa'
'surcharges_'
'supplier_'
'supermarkets_'
'summed_'
'subdued_'
'sthis_'
'ster_'
'staythere_'
'standards'
'staggering_'
'stacked_'
'sprite_'
'splitting_'
'spectrum_'
'space'
'soya_'
'southwest_'
'soaking_'
'snob_'
'slightest_'
'sizable_'
'singing_'
'sideways_'
'shinjuku_'
'shift_'
'shattered_'
'sex_'
'settee_'
'servicewe_'
'scrub_'
'screw_'
'scratchy_'
'savoy_'
'sau'
'saturdays_'
'saratoga_'
'sanctuary_'
's'
'ry'
'runner_'
'rub_'
'rt_'
'roomthis_'
'rm'
'riding_'
'rickety_'
'retrospect_'
'retrieve_'
'retiring_'
'restroom_'
'restrictive_'
'restaurent_'
'resolution_'
'resent_'
'reporting_'
'reminder_'
'regrets_'
'refurbishments_'
'redecorated_'
'rectify_'
'rateso_'
'rate'
'raising_'
'rails_'
'quietness_'
'query_'
'qube_'
'proud_'
'proportion_'
'promote_'
'profiteering_'
'principal_'
'pretzels_'
'preparing_'
'possibilities_'
'pleasent_'
'pleasant'
'plated_'
'plants_'
'pittsburgh_'
'pies_'
'pic_'
'pic'
'personalised_'
'peeves_'
'participate_'
'paper'
'pane_'
'paltry_'
'palette_'
'palates_'
'pads_'
'pa'
'p'
'ow'
'overcome_'
'overcharge_'
'over'
'ouch_'
'ott_'
'ots_'
'opera_'
'ooms_'
'onthe_'
'omlettes_'
'olde_'
'old'
'ol_'
'okbreakfast_'
'og'
'occitane_'
'obscenely_'
'obnoxious_'
'obligatory_'
'nt'
'notices_'
'notably_'
'nordic_'
'nominal_'
'noisy'
'no'
'nighter_'
'neighbourhood_'
'negatively_'
'nd'
'nashville_'
'nairobi_'
'mussels_'
'ms'
'mrs_'
'moana_'
'mm'
'mission_'
'miserly_'
'minute'
'millions_'
'merlot_'
'mer'
'mediterranean_'
'meal'
'mayo_'
'marketplace_'
'mark'
'mantra_'
'manners_'
'mainstream_'
'macdonalds_'
'lux_'
'lufthansa_'
'lucerne_'
'loving_'
'loves_'
'loudest_'
'logs_'
'lodgings_'
'lobby'
'lo_'
'lli'
'lle'
'lity_'
'lifting_'
'level'
'laughing_'
'large'
'lar'
'lani_'
'lands_'
'land'
'knives_'
'kiosk_'
'kicking_'
'key'
'kalahari_'
'jungle_'
'junction_'
'joke'
'joints_'
'jo'
'jaipur_'
'is'
'iphones_'
'introduced_'
'inevitably_'
'inevitable_'
'indulgent_'
'independently_'
'inconsistency_'
'inclusions_'
'incessant_'
'ina'
'in'
'images_'
'ia'
'hydro_'
'hy'
'humming_'
'hub_'
'ht_'
'ht'
'hotspot_'
'hotelfood_'
'hot'
'horse_'
'hired_'
'herebut_'
'helpfulness_'
'heatwave_'
'halal_'
'greenbrier_'
'greed_'
'got'
'gold'
'go'
'glasshouse_'
'gibraltar_'
'gh_'
'gan'
'gamble_'
'fusion_'
'fumes_'
'fu'
'fro_'
'freeze_'
'free'
'foremost_'
'fore'
'foodwe_'
'floorthe_'
'flavourless_'
'flashy_'
'fixture_'
'fire'
'finewe_'
'favorably_'
'faux_'
'fare'
'fair'
'faint_'
'extremly_'
'expresses_'
'experiencebut_'
'expensive'
'excelsior_'
'excellently_'
'eurostar_'
'eu'
'ese_'
'equation_'
'episode_'
'entrée_'
'enabled_'
'employed_'
'elevated_'
'eh_'
'ed'
'eaton_'
'duly_'
'drinkers_'
'drawing_'
'dough_'
'doorway_'
'donuts_'
'diversity_'
'distract_'
'dispute_'
'displays_'
'dishonest_'
'disappear_'
'disapointment_'
'dis_'
'differ_'
'devere_'
'designers_'
'der'
'depressed_'
'denarau_'
'debris_'
'de'
'days'
'dayi_'
'day'
'dairy_'
'da'
'cuc_'
'cubes_'
'ct'
'crust_'
'cp'
'cousin_'
'county_'
'coped_'
'cooks_'
'contain_'
'considering'
'confidence_'
'concierges_'
'compensates_'
'communicate_'
'cola_'
'classical_'
'clarify_'
'citizens_'
'circles_'
'chopped_'
'choo_'
'chilling_'
'ches_'
'cheddar_'
'characters_'
'chap_'
'celebrated_'
'carrots_'
'capsule_'
'candle_'
'cairo_'
'c'
'bus'
'bubble_'
'breezes_'
'breathtaking_'
'breathing_'
'breakfasts'
'breakast_'
'brandy_'
'bra'
'bps_'
'boscolo_'
'borgata_'
'boots_'
'bon'
'boast_'
'blemish_'
'blandness_'
'black'
'bins_'
'benches_'
'belgian_'
'befitting_'
'beeping_'
'beds'
'bears_'
'beakfast_'
'bc_'
'battle_'
'bar'
'bamboo_'
'badbut_'
'backpackers_'
'backi_'
'babies_'
'ba'
'aw'
'avoidable_'
'averagethe_'
'aus_'
'atmospheric_'
'atmosphere'
'atlantic_'
'astonishingly_'
'ash_'
'asap_'
'art'
'arrival'
'arguing_'
'apprehensive_'
'anxious_'
'answers_'
'annoys_'
'andin_'
'andall_'
'anaheim_'
'ana'
'ambient_'
'amazing'
'almond_'
'allocate_'
'alive_'
'airport'
'aircondition_'
'ai'
'ah'
'affiliated_'
'adjustments_'
'ache_'
'accurately_'
'access'
'accepting_'
'ably_'
'99'
'77_'
'76_'
'67_'
'51'
'500'
'45pm_'
'375_'
'3000_'
'24hours_'
'23'
'212_'
'1990_'
'120'
'112_'
'110'
'07_'
','
'+/_'
'),_'
' ?, _'
' ?( _'
' ? ._'
' :( _'
' .“ _'
' ......... _'
' ........ _'
' - € _'
' , € _'
' ) ?_'
' ' '
' "_'
' " ..._'
' " '
' !" _'
' ! ! ) _'
' ! '
'zo'
'za_'
'za'
'youngsters_'
'yikes_'
'yi_'
'years'
'ya'
'working'
'wore_'
'wolf_'
'windowless_'
'wilted_'
'whiskey_'
'wellness_'
'website'
'waterloo_'
'wasa'
'warp_'
'walker_'
'walkable_'
'wa'
'vistana_'
'vision_'
'view'
'vet'
'validated_'
'ut'
'usthe_'
'use'
'usd1'
'upi_'
'upholstery_'
'unobtrusive_'
'uninterested_'
'unforgettable_'
'um'
'ubiquitous_'
'u'
'two'
'tuk_'
'ts'
'tro'
'trader_'
'tra'
'tot'
'topper_'
'tools_'
'too'
'tonics_'
'ton'
'toll_'
'toasts_'
'tipped_'
'tin'
'timer_'
'tied_'
'throwing_'
'though'
'thorough_'
'thisbut_'
'thirsty_'
'theater_'
'thatthe_'
'thati_'
'tenerife_'
'temple_'
'tely_'
'tb'
'tar_'
'taped_'
'tai'
'taco_'
'surpassed_'
'surfaces_'
'superbreak_'
'suitably_'
'suggesting_'
'su'
'style'
'study_'
'stu'
'sts_'
'struggles_'
'stroll_'
'strategy_'
'strange'
'stove_'
'stop'
'stools_'
'ster'
'stepping_'
'ste'
'stayoverall_'
'stars'
'stainless_'
'stack_'
'sso_'
'ss'
'sprucing_'
'spotted_'
'sporting_'
'splashed_'
'sounding_'
'some'
'snot_'
'snorkeling_'
'ski'
'skeptical_'
'size'
'sing'
'siem_'
'show'
'shots_'
'short'
'ships_'
'shifted_'
'shaking_'
'shaded_'
'sf'
'served'
'segment_'
'seals_'
'scent_'
'say'
'sauce'
'rust_'
'rubens_'
'rth_'
'rounded_'
'rouge_'
'roomswe_'
'roomservice_'
'roomsand_'
'roomoverall_'
'roofs_'
'rob'
'roasting_'
'roasted_'
'rmb_'
'rly_'
'riverwalk_'
'ris'
'right'
'rica_'
'ribeye_'
'restrooms_'
'restauranti_'
'rest'
'responsibility_'
'respite_'
'resort'
'replenishing_'
'reno_'
'renewed_'
'reducing_'
'redeem_'
'recharge_'
'realm_'
'realistically_'
'ratethe_'
'ranged_'
'randomly_'
'quest_'
'qualified_'
'pur'
'protest_'
'proportions_'
'promoted_'
'programmes_'
'primitive_'
'prides_'
'pricewe_'
'priceand_'
'preserved_'
'preface_'
'postage_'
'post'
'por'
'poolthe_'
'pool'
'poky_'
'placing_'
'pizzeria_'
'pitiful_'
'photographs_'
'ph'
'peterborough_'
'pesos_'
'personable_'
'performing_'
'people'
'penh_'
'pending_'
'pear_'
'paul_'
'pat'
'passports_'
'passage_'
'park'
'paperwork_'
'pampering_'
'pal'
'pains_'
'overprice_'
'overflowing_'
'ov'
'outi_'
'ottoman_'
'organisers_'
'ord_'
'or'
'opinions_'
'op_'
'ool_'
'ons'
'oni_'
'omission_'
'okand_'
'oe'
'nzd_'
'nu'
'nozzle_'
'notify_'
'norwegian_'
'nites_'
'nicebut_'
'ngs_'
'ngly_'
'needed'
'neatly_'
'nearby'
'nations_'
'namely_'
'naked_'
'myr_'
'muted_'
'muse_'
'mud_'
'mt_'
'mp'
'mosquitos_'
'morningthe_'
'monitor_'
'moneyand_'
'modernization_'
'mm_'
'mixers_'
'misunderstanding_'
'misrepresentation_'
'miraculously_'
'minds_'
'midst_'
'midrange_'
'mi_'
'metropol_'
'metered_'
'ments_'
'meatballs_'
'meantime_'
'mccormick_'
'maurya_'
'masquerading_'
'marmalade_'
'margarita_'
'manicure_'
'man'
'malfunctioning_'
'makati_'
'mahi_'
'magazines_'
'lustre_'
'lunch'
'lovers_'
'lou'
'logging_'
'logan_'
'lodge'
'lobbies_'
'lining_'
'ling'
'lift'
'li_'
'leep_'
'learnt_'
'lea'
'lc'
'layers_'
'latin_'
'late'
'latch_'
'lalit_'
'korean_'
'knees_'
'km_'
'kingdom_'
'killer_'
'kicks_'
'ken'
'kebab_'
'kan'
'justice_'
'jamaica_'
'itoverall_'
'itbreakfast_'
'ita'
'ip_'
'intimacy_'
'internally_'
'intention_'
'intense_'
'insignificant_'
'infront_'
'infant_'
'indonesian_'
'indeed'
'incorrectly_'
'incorporated_'
'inclusives_'
'impossibly_'
'imply_'
'imagined_'
'ight'
'ie'
'identity_'
'hunting_'
'hotels'
'hotela'
'holders_'
'hoi_'
'hix_'
'himself_'
'hie'
'hideously_'
'hermitage_'
'head'
'hammer_'
'hallmark_'
'gymnasium_'
'gym'
'gun'
'grandiose_'
'grainy_'
'gracious_'
'goodhowever_'
'goal_'
'gloucester_'
'glimpse_'
'gimmick_'
'ghost_'
'ged_'
'fussed_'
'fundamental_'
'freebie_'
'fra'
'forthcoming_'
'forces_'
'foolishly_'
'folding_'
'fluctuate_'
'flavorful_'
'flaky_'
'flagstaff_'
'fillings_'
'files_'
'figures_'
'fiasco_'
'ff'
'fence_'
'fast'
'fantastically_'
'faith_'
'fading_'
'faceless_'
'expressed_'
'expensiveso_'
'expectations'
'exp'
'exhausting_'
'excitement_'
'ever'
'estimated_'
'ers'
'ering_'
'environmentally_'
'envelope_'
'ently_'
'enquire_'
'enable_'
'ement_'
'else'
'een_'
'ee'
'edthe_'
'ect'
'earns_'
'dysfunctional_'
'dutch_'
'dusit_'
'drowned_'
'drinker_'
'drier_'
'dream'
'dramatic_'
'drama_'
'dragged_'
'dr_'
'downs_'
'dos_'
'dong_'
'docking_'
'diving_'
'ditto_'
'distracting_'
'disruption_'
'disinterested_'
'discussed_'
'disappointing'
'dirhams_'
'dining'
'died_'
'dic'
'dhaka_'
'deter_'
'des'
'dept_'
'denmark_'
'delights_'
'deliberate_'
'deficiencies_'
'defense_'
'defeats_'
'decisions_'
'deceiving_'
'decaff_'
'dec'
'dealthe_'
'dd'
'danger_'
'cycle_'
'cumbersome_'
'cu'
'ct_'
'cs'
'creams_'
'creaking_'
'crawling_'
'countless_'
'council_'
'coughing_'
'connection'
'conferencing_'
'conceirge_'
'compelling_'
'comical_'
'comforters_'
'cockroaches_'
'coca_'
'closure_'
'clogged_'
'clicking_'
'class'
'claret_'
'cl_'
'chop_'
'cho'
'cher'
'chedi_'
'chargers_'
'chalets_'
'chain'
'cauliflower_'
'cascades_'
'carved_'
'carbs_'
'caps_'
'cappucino_'
'campground_'
'camp'
'camera_'
'calories_'
'ca'
'butwhen_'
'butno_'
'buthowever_'
'builders_'
'bubbly_'
'bro'
'brekky_'
'breakdown_'
'br'
'book'
'bodies_'
'ble'
'bingo_'
'benchmark_'
'belmond_'
'behalf_'
'begging_'
'bath'
'basketball_'
'barramundi_'
'backing_'
'aug_'
'attendance_'
'ating_'
'ates_'
'astounded_'
'arts_'
'armchairs_'
'areathe_'
'architect_'
'apex_'
'anticipate_'
'announced_'
'ane'
'ando'
'ambassadors_'
'ama'
'alo'
'allthe_'
'aiming_'
'agreement_'
'aggressive_'
'aesthetic_'
'advertisement_'
'ada'
'ack_'
'accommodation'
'abroad_'
'aa'
']. _'
'\u_'
'?'
'98_'
'97_'
'7'
'63_'
'49'
'380_'
'36'
'325_'
'24'
'235_'
'215_'
'200'
'1960s_'
'168_'
'114_'
'04_'
'01_'
'000'
'.._'
'-'
'$/_'
' ° _'
' ./_'
' ./ _'
' ...( _'
' ... '
' . '
' - - _'
' - " _'
' ,, _'
' , ... _'
' )'
' % '
' !£ _'
' !* _'
'ye'
'yas_'
'yan'
'xpensive_'
'www_'
'woodwork_'
'wonders_'
'wobbly_'
'wishes_'
'wise'
'wifibut_'
'whistling_'
'wheels_'
'wentworth_'
'wellthe_'
'week'
'weber_'
'web'
'weakest_'
'wasi_'
'wasbut_'
'warwick_'
'warehouse_'
'ward_'
'vote_'
'vital_'
'views'
'viewed_'
'variety'
'varadero_'
'uswe_'
'urge_'
'upthe_'
'upcharge_'
'untrue_'
'unt'
'unpredictable_'
'une'
'unde'
'uncovered_'
'unchanged_'
'unattended_'
'unacceptably_'
'uluru_'
'trough_'
'troublesome_'
'trio_'
'treasure_'
'trail_'
'toys_'
'tow_'
'tour'
'tors_'
'toppings_'
'tool_'
'tom_'
'tolerated_'
'token_'
'ting'
'timers_'
'timed_'
'thisit_'
'thi'
'than'
'tgi_'
'tet'
'terrine_'
'tequila_'
'telly_'
'teapot_'
'teabags_'
'te'
'taxi'
'taller_'
'ta'
'swinging_'
'swear_'
'swallow_'
'supplying_'
'sunsets_'
'sunlight_'
'suggestions_'
'subtle_'
'sub'
'styrofoam_'
'stung_'
'stressed_'
'street'
'stool_'
'sto'
'sting_'
'steer_'
'stayfood_'
'staybridge_'
'stationary_'
'start'
'stalls_'
'staffthe_'
'stables_'
'st'
'ssa'
'squashed_'
'sqm_'
'sprung_'
'springy_'
'spread'
'spoiling_'
'spill_'
'specialties_'
'sparkle_'
'spacious'
'soverall_'
'sorbet_'
'sooooo_'
'snow'
'snag_'
'sliver_'
'sliders_'
'sle'
'slc_'
'sla'
'sive_'
'singapore'
'sincerely_'
'simpler_'
'signal'
'shower'
'shoved_'
'shipped_'
'she'
'seventh_'
'sensibly_'
'sedona_'
'sector_'
'sec'
'seagulls_'
'scuffed_'
'schnitzel_'
'scant_'
'savoury_'
'sas_'
'sandy_'
'sandos_'
'san'
'safe'
'rotating_'
'rot'
'roomhowever_'
'ron'
'rod_'
'rn_'
'rn'
'rises_'
'risen_'
'ringing_'
'rin'
'rig'
'ri'
'revolving_'
'reviews'
'reversed_'
'revamped_'
'restaurantthe_'
'restaurantbut_'
'resemble_'
'reminding_'
'relying_'
'reliably_'
'released_'
'rein'
'reimbursed_'
'redundant_'
'rebranded_'
'rb'
'ratebut_'
'range'
'randolph_'
'ral'
'rainfall_'
'races_'
'qa'
'q'
'purports_'
'pumps_'
'pu'
'protection_'
'property'
'properties'
'promotions_'
'prominent_'
'profits_'
'practices_'
'posters_'
'poker_'
'ply_'
'plentiful'
'plazas_'
'placethe_'
'place'
'pits_'
'piri_'
'phl_'
'petit_'
'penalty_'
'peek_'
'pax_'
'patties_'
'passion_'
'pass'
'partition_'
'panes_'
'oyster_'
'overpriced'
'overallthe_'
'outset_'
'outs'
'outage_'
'ori'
'ordeal_'
'options'
'optimistic_'
'opener_'
'ony_'
'onward_'
'ona'
'on'
'oktoberfest_'
'okish_'
'oceanview_'
'oaks_'
'nyc'
'ny'
'nti'
'np_'
'notification_'
'noti'
'nor'
'noone_'
'nondescript_'
'nola_'
'noise'
'nner_'
'nit'
'nikko_'
'nightbreakfast_'
'nickle_'
'nia'
'ng'
'newark_'
'ner'
'negotiation_'
'nb'
'naples_'
'nails_'
'naff_'
'mut'
'mustard_'
'murphy_'
'mur'
'multi'
'mug_'
'mtr_'
'move'
'mos'
'monies_'
'modernisation_'
'modem_'
'mex_'
'metropolitan_'
'method_'
'meridian_'
'mentions_'
'melt_'
'meikle_'
'mean'
'mayonnaise_'
'mate_'
'mas_'
'mart_'
'margin_'
'maps_'
'mans_'
'manned_'
'manic_'
'mal_'
'mai_'
'macao_'
'mac'
'lure_'
'ls'
'louis_'
'lotus_'
'los_'
'lone_'
'lle_'
'limousine_'
'lightning_'
'life'
'lies_'
'lexington_'
'lev_'
'ler_'
'lent_'
'lattes_'
'lasting_'
'landscaping_'
'kong'
'kenya_'
'ke'
'kar'
'k'
'ji'
'jacuzzis_'
'jacked_'
'its'
'iti'
'ith_'
'ita_'
'irrespective_'
'invitation_'
'investing_'
'invariably_'
'internationally_'
'institution_'
'insects_'
'ins'
'ini'
'indifference_'
'increases_'
'ina_'
'improves_'
'ime_'
'ima'
'ile_'
'ights_'
'if'
'ideas_'
'ice'
'ic'
'hyatt'
'hy_'
'hummus_'
'hucks_'
'howling_'
'howard_'
'hotelvery_'
'hotelsthe_'
'hotelsi_'
'hotelas_'
'hotela_'
'hmm_'
'hin'
'hile_'
'highlighted_'
'hiding_'
'hi'
'her'
'hel'
'hed_'
'heaps_'
'hcmc_'
'harrah_'
'har'
'guarantees_'
'guacamole_'
'gristle_'
'grip_'
'greati_'
'gre'
'gratis_'
'grape_'
'granddaughter_'
'grabbing_'
'goodwill_'
'goodour_'
'goodnot_'
'goers_'
'gob'
'gm'
'ging_'
'gi'
'gg'
'geneva_'
'generators_'
'generated_'
'gateway_'
'gastro_'
'gammon_'
'gaming_'
'gallon_'
'gadgets_'
'ga_'
'ga'
'fuzzy_'
'from'
'freshening_'
'frames_'
'fountains_'
'forum_'
'formerly_'
'forks_'
'foodit_'
'folder_'
'focussed_'
'fluorescent_'
'fluctuating_'
'flo'
'fla'
'fit'
'firmly_'
'finesse_'
'finer_'
'fi'
'fears_'
'fax_'
'fastest_'
'fairmonts_'
'facetime_'
'facebook_'
'extortionately_'
'extending_'
'exclusivity_'
'exclusively_'
'excl_'
'excellentthe_'
'excellent'
'evidently_'
'everything'
'evaluation_'
'euston_'
'eur2'
'eur'
'ets_'
'ethiopia_'
'est'
'ess'
'ere'
'er'
'entertained_'
'enormously_'
'eng'
'enamel_'
'emptying_'
'eleven_'
'ei_'
'egyptian_'
'eggs'
'efinitely_'
'ef'
'edi'
'ecent_'
'eb'
'earl_'
'ea_'
'dry'
'drunks_'
'drink'
'dragging_'
'down'
'doubts_'
'done'
'dn'
'diy_'
'distinguish_'
'disrespectful_'
'displaying_'
'disjointed_'
'disclosed_'
'disappointed'
'disa'
'dis'
'diluted_'
'differently_'
'different'
'diets_'
'did'
'describing_'
'der_'
'dep'
'den_'
'demands_'
'delish_'
'degustation_'
'deg_'
'defi'
'declining_'
'deception_'
'debated_'
'deaf_'
'dea'
'dbut_'
'daythe_'
'darling_'
'daniels_'
'dame_'
'dam_'
'cy'
'cupboards_'
'ction_'
'cted_'
'crumble_'
'cro'
'creepy_'
'crawl_'
'counted_'
'cottages_'
'cosmopolitan_'
'converter_'
'contacting_'
'confined_'
'conference'
'conduct_'
'concluded_'
'compulsory_'
'communications_'
'commission_'
'commend_'
'coldest_'
'col'
'coffee'
'coconut_'
'cla'
'city'
'chili_'
'checks_'
'check'
'charleston_'
'change'
'chan'
'chalk_'
'ceasar_'
'cation_'
'carpeted_'
'care'
'car'
'captain_'
'capitals_'
'cap'
'butthere_'
'butfor_'
'busy'
'bustle_'
'businesses_'
'burst_'
'bull_'
'buisness_'
'buds_'
'brutally_'
'brugge_'
'broccoli_'
'breakfeast_'
'breafast_'
'bre'
'bou'
'bot_'
'bot'
'bose_'
'bolted_'
'boiler_'
'board'
'bo'
'blt_'
'blip_'
'bin'
'berna_'
'bengali_'
'belgium_'
'bel'
'bec'
'beacon_'
'beach'
'bb'
'bathroom'
'basil_'
'bash_'
'barking_'
'bari_'
'ball'
'balcony'
'bain_'
'baileys_'
'bahia_'
'baguette_'
'backwards_'
'backthe_'
'baby'
'bab'
'awoke_'
'ava'
'autumn_'
'auto_'
'authenticity_'
'aud'
'attitudes_'
'atm_'
'ata'
'ast'
'asparagus_'
'ars_'
'around'
'arora_'
'argued_'
'areai_'
'arabic_'
'aquarius_'
'applicable_'
'ap_'
'ao'
'anti'
'andwhen_'
'andmy_'
'andas_'
'amuse_'
'amiss_'
'amentities_'
'amd_'
'amarillo_'
'alto_'
'alcove_'
'aka_'
'age'
'affinia_'
'aerobic_'
'advisable_'
'adventurous_'
'advance'
'ado_'
'addressing_'
'additions_'
'ada_'
'ace_'
'accomplished_'
'accomodating_'
'abit_'
'a'
'96_'
'94_'
'71'
'65'
'630_'
'53'
'410_'
'3star_'
'359_'
'34'
'33'
'32nd_'
'314_'
'30mins_'
'295_'
'279_'
'259_'
'250'
'24h_'
'249_'
'2004_'
'174_'
'14'
'136_'
'128_'
'126_'
'122_'
'117_'
'1000'
'-£_'
'*_'
'!!. _'
' ?- _'
' ; ( _'
' ; $ _'
' : * _'
' : ( _'
' .......... _'
' .... '
' . ) , _'
' , - _'
' , '
' )- _'
' ) .._'
' % , _'
' $ $ $ $ _'
' $ '
' " ) ._'
' " !_'
'zz'
'zan'
'ys'
'youthe_'
'yourselves_'
'yep_'
'year'
'yeah_'
'xo'
'xed_'
'wraps_'
'wou'
'worlde_'
'worker_'
'woburn_'
'wlan_'
'windsor_'
'wimbledon_'
'willingly_'
'whole'
'who'
'whites_'
'whitbread_'
'whit'
'which'
'whereby_'
'whe'
'westin'
'welli_'
'wedged_'
'weather'
'wealthy_'
'water'
'washroom_'
'wash'
'warners_'
'wakes_'
'wailea_'
'vit'
'vic_'
'veri'
'ventured_'
'vacuuming_'
'va'
'usd'
'urine_'
'uri'
'urgently_'
'unwell_'
'unw'
'unsecured_'
'unresponsive_'
'unrealistic_'
'unre'
'unpretentious_'
'unmatched_'
'unload_'
'unhygienic_'
'uneaten_'
'undisturbed_'
'uncertain_'
'ult'
'ul'
'twin'
'tthe_'
'truffles_'
'trivago_'
'trips'
'tripping_'
'travelodges_'
'tram_'
'tp_'
'touch'
'tossed_'
'top'
'toasters_'
'to'
'timber_'
'tiki_'
'tighter_'
'thunderbird_'
'thump_'
'ths_'
'they'
'thereit_'
'therapists_'
'texan_'
'testing_'
'territory_'
'terrible'
'terminal'
'tenner_'
'teddy_'
'teams_'
'tay_'
'taster_'
'tanzania_'
'tan'
'tainted_'
't4_'
'system'
'swo'
'swiming_'
'swearing_'
'swapped_'
'swan_'
'swam_'
'sus'
'survey_'
'surround_'
'surprised'
'supreme_'
'superlative_'
'superficially_'
'sunken_'
'sunbathing_'
'sun'
'summer'
'sul'
'sudden_'
'styling_'
'sty_'
'stopovers_'
'stones_'
'steak'
'stayer_'
'staurant_'
'staring_'
'starbut_'
'stanford_'
'spin'
'specialities_'
'spec_'
'spar'
'soviet_'
'somethings_'
'soho_'
'smorgasbord_'
'smokey_'
'smartphone_'
'sma'
'sm_'
'slum'
'sleepa'
'skybar_'
'skipping_'
'sip_'
'sin'
'sil'
'signposted_'
'siam_'
'sherry_'
'shelving_'
'sh'
'seville_'
'services'
'servi'
'separating_'
'sel'
'see'
'seasoning_'
'se'
'scrumptious_'
'scraping_'
'scone_'
'scented_'
'scales_'
'sand'
'sam'
'salad'
'saddened_'
'sack_'
'ropey_'
'roomo'
'roomnot_'
'roman_'
'role_'
'rock'
'river'
'ritz'
'ripping_'
'ries_'
'rh'
'reverse_'
'returnthe_'
'retain_'
'rested_'
'resist_'
'resembles_'
'researched_'
'reputable_'
'ren'
'removing_'
'remarks_'
'remarked_'
'release_'
'regulated_'
'refusing_'
'refrigerated_'
'referred_'
'reef_'
'ree'
'rediculously_'
'recovery_'
'reason'
'rc'
'ration_'
'rates'
'ratei_'
'rateand_'
'rapid_'
'rammed_'
'rain'
'rage_'
'racing_'
'quietly_'
'quiche_'
'questioning_'
'quesadilla_'
'quebec_'
'qualitythe_'
'qualityi_'
'qua'
'puzzling_'
'pushes_'
'punt'
'pros'
'programming_'
'prob_'
'pristine_'
'prints_'
'pricy'
'priceybut_'
'pricewise_'
'pri'
'presently_'
'pres'
'pre'
'ppl_'
'power'
'positions_'
'popularity_'
'polo_'
'plo'
'platform_'
'plat'
'plaster_'
'pit'
'pi'
'phil'
'petite_'
'perth_'
'peroni_'
'perfect'
'penny'
'pedestrian_'
'pea_'
'patience_'
'pati'
'passenger_'
'parmesan_'
'package'
'owing_'
'overnighter_'
'outskirts_'
'outside'
'outlay_'
'out'
'our'
'ound_'
'ough_'
'ou'
'orient_'
'operators_'
'op'
'only'
'online'
'om'
'oli'
'oked_'
'oka'
'obstructed_'
'obsidian_'
'objection_'
'numbered_'
'nta'
'nsi'
'ns'
'note'
'norwich_'
'nobu_'
'ney_'
'negotiable_'
'neglect_'
'nec'
'native_'
'my'
'museums_'
'mu'
'mrt_'
'movenpick_'
'mosquito_'
'morningi_'
'monsoon_'
'monotonous_'
'mono'
'moneythis_'
'moneybreakfast_'
'mon'
'moldy_'
'moisturiser_'
'modernized_'
'mo'
'miss'
'miso_'
'mismatch_'
'mis'
'mind'
'mignon_'
'meriton_'
'mercedes_'
'menu'
'measured_'
'mckinley_'
'mazing_'
'matter'
'marg'
'manual_'
'manoeuvre_'
'malls_'
'make'
'main'
'ma'
'm'
'ly'
'luggages_'
'luggage'
'lot'
'lonely_'
'locking_'
'loca'
'lla_'
'lis'
'liner_'
'limited'
'limitation_'
'lieu_'
'let'
'less'
'leftover_'
'lee'
'leadership_'
'lay'
'lavatory_'
'laundered_'
'laughably_'
'lapses_'
'landscaped_'
'ks'
'kleenex_'
'killed_'
'kids'
'kerala_'
'joe_'
'jabiru_'
'items'
'it'
'issued_'
'iso'
'isi'
'ish'
'ise'
'irritants_'
'ironed_'
'ique_'
'ion'
'inwe_'
'intrusion_'
'internet'
'integral_'
'installation_'
'inspite_'
'inspire_'
'ink_'
'ingredient_'
'informative_'
'influenced_'
'inconvenienced_'
'incompetent_'
'incidental_'
'ignoring_'
'ig'
'idiot_'
'id'
'icy_'
'icon_'
'iceberg_'
'ial_'
'i'
'hyper_'
'hyderabad_'
'hustle_'
'hunt_'
'however'
'hotelnot_'
'hotelin_'
'hopping_'
'hoo_'
'homeless_'
'hoi'
'hmmm_'
'hhonours_'
'hereit_'
'hereand_'
'helpful'
'hei'
'heels_'
'hdv_'
'hay'
'hats_'
'hat'
'hangars_'
'handy'
'hams_'
'gy'
'gutted_'
'guiness_'
'guards_'
'grime_'
'grew_'
'greatwe_'
'grapes_'
'grandkids_'
'grain_'
'gra'
'gouldings_'
'gor'
'goodthey_'
'goodif_'
'goodb'
'gooda_'
'golfing_'
'globe_'
'glo'
'gc'
'gaudy_'
'garnish_'
'galway_'
'furthest_'
'fur'
'funds_'
'fulfilling_'
'froze_'
'frosty_'
'fro'
'freshener_'
'fre'
'fran_'
'fours_'
'fortnight_'
'format_'
'forgiven_'
'fore_'
'ford_'
'forcing_'
'footprint_'
'foolish_'
'foodie_'
'foodbreakfast_'
'foc_'
'floors'
'fle'
'fl_'
'fixings_'
'fist_'
'firmer_'
'finland_'
'fineit_'
'feeling'
'fawlty_'
'fan'
'factored_'
'experiencebreakfast_'
'experience'
'experiance_'
'expensivethis_'
'expensiveand_'
'expedia'
'execution_'
'excelent_'
'every'
'evelyn_'
'evacuation_'
'ethe_'
'estaurant_'
'escalator_'
'eri'
'equipments_'
'equates_'
'equate_'
'ents_'
'enti'
'ent'
'enough'
'engines_'
'enforce_'
'ened_'
'encouraged_'
'enclosure_'
'ena'
'embarassing_'
'em'
'elemis_'
'ek'
'eg'
'eded_'
'ec'
'early'
'eally_'
'ea'
'duplex_'
'dumplings_'
'dukes_'
'drown_'
'dra'
'dongle_'
'donatello_'
'doe'
'doable_'
'disturbances_'
'distressed_'
'disproportionate_'
'disorganized_'
'disneyworld_'
'disney'
'discussions_'
'discount'
'disappointment'
'disability_'
'diplomat_'
'dimed_'
'dig'
'differentiate_'
'dia'
'dge'
'detector_'
'destinations_'
'derby_'
'dental_'
'dent_'
'delicate_'
'deliberately_'
'defective_'
'dearly_'
'daywe_'
'daybut_'
'david_'
'dash_'
'dan'
'dal'
'dai'
'crowded'
'cross'
'cricket_'
'credits_'
'creature_'
'creativity_'
'crater_'
'cramp'
'crabtree_'
'cough_'
'cotai_'
'cost'
'coronado_'
'cook'
'controlling_'
'consumption_'
'consume_'
'console_'
'consist_'
'confirming_'
'condition'
'cond'
'comps_'
'compressor_'
'complains_'
'complacency_'
'compatible_'
'commenting_'
'comfy'
'comfortablethe_'
'comfort'
'comedy_'
'come'
'combinations_'
'colored_'
'collecting_'
'coarse_'
'coaches_'
'cm'
'clu'
'cleanness_'
'cke'
'ck'
'civilised_'
'citizen_'
'cinema_'
'churlish_'
'chrome_'
'choise_'
'cheery_'
'cheaper'
'che'
'chatrium_'
'channels'
'chandigarh_'
'ch'
'cesar_'
'cement_'
'ced_'
'cattle_'
'casinos_'
'carriage_'
'carousel_'
'carltons_'
'cardi'
'carafe_'
'capitol_'
'canvas_'
'cantonese_'
'cameras_'
'cairns_'
'cac'
'cabinets_'
'by'
'bw'
'buzzed_'
'buys_'
'butt_'
'butso_'
'butin_'
'buta'
'bush_'
'budweiser_'
'brl_'
'brit'
'brioche_'
'bride_'
'bri'
'breakfastfor_'
'breakfastall_'
'breakfasta_'
'bread'
'brand'
'branch_'
'bore_'
'border_'
'booth_'
'booking'
'bond_'
'bloomsbury_'
'bling_'
'bleu_'
'bland'
'blackberry_'
'bircher_'
'berry_'
'bermuda_'
'bengal_'
'bell'
'belfry_'
'begins_'
'bangkok'
'bangalore_'
'ban_'
'ban'
'baguettes_'
'bagged_'
'backyard_'
'ayurvedic_'
'ay'
'awkwardly_'
'away'
'awaits_'
'averageand_'
'av_'
'authority_'
'authorisation_'
'atypical_'
'attributes_'
'atlanta_'
'athens_'
'ath'
'ater_'
'aswell_'
'aston_'
'assumption_'
'assistant_'
'arusha_'
'arizona_'
'areas'
'ar'
'apr'
'appreciation_'
'applying_'
'appetites_'
'apologetic_'
'ape'
'anyone'
'anticipating_'
'answering_'
'ano'
'annoy_'
'angles_'
'andp'
'andone_'
'andfor_'
'anda'
'amusement_'
'amounted_'
'amo'
'amenties_'
'amb'
'also'
'allotted_'
'alleged_'
'ale'
'alaskan_'
'al'
'ains_'
'aggravating_'
'aesthetically_'
'adly_'
'ade'
'adapted_'
'acts_'
'acted_'
'ach_'
'accessibility_'
'accepts_'
'acc'
'abrupt_'
'about'
'\\_'
'> _'
':- _'
'95'
'92_'
'83_'
'82'
'81'
'75'
'63'
'61'
'54'
'52'
'5000_'
'4the_'
'45am_'
'42'
'37'
'310_'
'301_'
'29'
'285_'
'255_'
'229_'
'197'
'1950s_'
'190'
'1600_'
'15pm_'
'154_'
'150'
'138_'
'10x_'
'102_'
'- $ _'
')'
'!!_'
'!'
' … '
' £ '
' =_'
' ;)_'
' ; '
' :(_'
' ..., _'
' ... ) , _'
' .. !_'
' .' _'
' ." '
' . ' _'
' . " _'
' . ! !_'
' ---_'
' + + _'
' ) -- _'
' ( ~_'
' %_'
' " ; _'
' !$ _'
'€_'
'€ _'
'‘ _'
'—_'
'— _'
'ö'
'~_'
'youtube_'
'yl'
'ye_'
'xi_'
'wuksachi_'
'wristband_'
'wre'
'worththe_'
'worse'
'workmen_'
'worka'
'wor'
'wool_'
'woods_'
'wood'
'witnessed_'
'witness_'
'wins_'
'wine'
'window'
'wil'
'wifii_'
'wifibreakfast_'
'wi'
'whistles_'
'wf'
'wer_'
'weeknight_'
'weekends'
'wedge_'
'wd_'
'wat'
'wasteful_'
'wasn_'
'washers_'
'warren_'
'walt'
'waive_'
'wafer_'
'w'
'voted_'
'volleyball_'
'vo'
'vino_'
'vik_'
'vie_'
'videos_'
'veneer_'
've'
'vans_'
'valuebreakfast_'
'vaguely_'
'vacationers_'
'vacant_'
'v'
'uts_'
'uti'
'urn_'
'upit_'
'unsu'
'uniforms_'
'unheated_'
'unfounded_'
'underfloor_'
'undercover_'
'uncon'
'una'
'un'
'ui'
'uckily_'
'ub'
'tunnel_'
'ttering_'
'tte_'
'try'
'trout_'
'trepidation_'
'travels'
'trainer_'
'trainee_'
'tradeoff_'
'trademark_'
'tr'
'tournament_'
'touristy_'
'tothe_'
'tor'
'topping_'
'tony_'
'toiletries'
'toffee_'
'toes_'
'today'
'toast'
'tl_'
'tively_'
'tiresome_'
'tired'
'tiramisu_'
'tides_'
'tic'
'thought'
'thisand_'
'thier_'
'thet'
'therefor_'
'theo'
'themi_'
'thei'
'tha'
'tex_'
'ternet_'
'tenth_'
'tem'
'teeny_'
'technician_'
'teaspoon_'
'tbut_'
'tasty'
'taste'
'tap'
'tand_'
'tal'
'tacked_'
'sy'
'swiftly_'
'sweltering_'
'sweeping_'
'surprise'
'surgery_'
'surfrider_'
'suprisingly_'
'suprise_'
'suites'
'sugary_'
'suburban_'
'submit_'
'stuttgart_'
'stunk_'
'stumble_'
'stuffing_'
'stuff'
'stro'
'stretched_'
'streaky_'
'strand_'
'stra'
'stopper_'
'stopover'
'sticker_'
'steamroom_'
'std_'
'staymy_'
'staygood_'
'starve_'
'starbuck_'
'standardi_'
'stand'
'squi'
'squeezing_'
'spiral_'
'span_'
'spaciousness_'
'sp'
'soy_'
'souvenirs_'
'southampton_'
'soured_'
'sought_'
'soothing_'
'songs_'
'soles_'
'snowy_'
'sno_'
'smith_'
'smalli_'
'slo'
'sli'
'sleepand_'
'slapped_'
'slanted_'
'slaley_'
'slab_'
'sl_'
'sky'
'skinny_'
'skewers_'
'sit'
'similiar_'
'sickly_'
'si'
'shudder_'
'shrug_'
'showerthe_'
'shortcoming_'
'shipping_'
'shines_'
'shi'
'shelter_'
'shambolic_'
'sha_'
'seventies_'
'servicethis_'
'sep'
'senses_'
'sends_'
'selectionthe_'
'sei'
'sebel_'
'seaworld_'
'season'
'sd_'
'screen'
'scream_'
'scottsdale_'
'scoring_'
'schemes_'
'scenic_'
'sbreakfast_'
'savannah_'
'sauna'
'sar'
'sank_'
'sandpaper_'
'sana_'
'sam_'
'salami_'
'sal'
'sailing_'
'sad'
'russians_'
'rumpus_'
'rum_'
'rugs_'
'rudeness_'
'rst_'
'rse'
'rs'
'routinely_'
'rotting_'
'rotana_'
'roomsbut_'
'roomin'
'rooma_'
'rog'
'rinse_'
'ring'
'rightly_'
'rie_'
'ridiculous'
'ria_'
'rf'
'revolting_'
'revellers_'
'returning'
'retr'
'restoration_'
'restaurantwe_'
'restaurantso_'
'restauarant_'
'responsiveness_'
'responses_'
'respectively_'
'respectable_'
'resemblance_'
'researching_'
'repeating_'
'rendering_'
'remedy_'
'remedied_'
'remark_'
'relies_'
'relaxing'
'relatives_'
'relates_'
'rel'
'reimbursement_'
'regulations_'
'rega'
'refrig_'
'refillable_'
'rede'
'reconnect_'
'recompense_'
'recommended'
'recommand_'
'recipe_'
'recess_'
'reccommend_'
'really'
'realising_'
'real'
'reakfasts_'
'ready'
'reads_'
're'
'rci_'
'ravioli_'
'ran'
'ramsey_'
'railings_'
'racks_'
'rac'
'quinoa_'
'quer'
'pushy_'
'purpose'
'purifier_'
'pub'
'pt'
'prot'
'prop'
'proceed_'
'problems'
'prince_'
'priceless_'
'preten'
'prefered_'
'pred'
'precious_'
'ppo'
'pped_'
'poo'
'pong_'
'polynesia_'
'polyester_'
'political_'
'pole_'
'poland_'
'po'
'plunger_'
'pleasently_'
'pleased'
'ple_'
'playground_'
'playford_'
'platters_'
'platinum'
'pigeons_'
'pianist_'
'pho_'
'philosophy_'
'petrol_'
'pert'
'perplexed_'
'periodically_'
'perfunctory_'
'percentage_'
'pel'
'peer_'
'payments_'
'paying'
'patron_'
'past'
'parti'
'part'
'parkroyal_'
'parasols_'
'parador_'
'paradisus_'
'pancras_'
'pamper_'
'palatial_'
'paella_'
'own'
'owed_'
'overs_'
'overp'
'overnight'
'overcharging_'
'overbooking_'
'outweighs_'
'outward_'
'outstandingly_'
'outright_'
'outing_'
'outbut_'
'others'
'othe_'
'ose_'
'orth_'
'ors'
'ordinarily_'
'ora'
'opportunities_'
'onally_'
'ole_'
'okthis_'
'ok'
'oi'
'offense_'
'occupying_'
'obtaining_'
'objected_'
'oad'
'o2_'
'nts_'
'nto'
'ntly_'
'notion_'
'notice'
'nothing'
'nother_'
'noisily_'
'nno'
'nk_'
'nightsthe_'
'nightsand_'
'niceit_'
'nicea'
'nic'
'news'
'new'
'networks_'
'nerve_'
'negatives'
'ne'
'nationality_'
'n'
'mundane_'
'multitude_'
'muggy_'
'mouths_'
'mont'
'moneyso_'
'momo_'
'mol'
'mist_'
'min'
'millenium_'
'mig'
'middling_'
'micro'
'mg'
'mews_'
'met'
'mentality_'
'mem'
'mel'
'medication_'
'meat'
'meaningful_'
'mask_'
'mas'
'martinis_'
'markup_'
'manicured_'
'mahal_'
'magazine_'
'mag'
'lush_'
'luncheon_'
'lumps_'
'loung_'
'lor'
'loin_'
'logo_'
'logic_'
'lobbybut_'
'lo'
'little'
'literature_'
'lip_'
'lion_'
'links_'
'lin'
'limiting_'
'lil'
'lifeguards_'
'lh'
'lg_'
'letters_'
'lessly_'
'lengths_'
'legendary_'
'lease_'
'layovers_'
'latitude_'
'lar_'
'languages_'
'laminate_'
'lakeview_'
'lakes_'
'labour_'
'kra'
'knee_'
'kimptons_'
'killing_'
'kiddie_'
'kes_'
'ker'
'ken_'
'kat'
'karaoke_'
'jul'
'jetlagged_'
'jer'
'jasper_'
'jas'
'jacks_'
'ized_'
'iven_'
'itt'
'italia_'
'ist'
'iss'
'inwards_'
'invisible_'
'inventory_'
'intermediate_'
'inter'
'inte'
'instructor_'
'instances_'
'insists_'
'insisting_'
'inside'
'ino'
'innbut_'
'inline_'
'init_'
'ings'
'ingi_'
'inflexible_'
'inexplicably_'
'inexplicable_'
'individuality_'
'inde'
'included'
'impressed'
'imported_'
'ii'
'ience_'
'ido'
'ibis'
'ians_'
'hyped_'
'husband'
'hurts_'
'hunger_'
'humble_'
'huge'
'hs'
'hou'
'hotelno_'
'hotelif_'
'hope'
'hooked_'
'homey_'
'hollow_'
'hol'
'hockey_'
'hl'
'hiltoni_'
'hiltonhonors_'
'hil'
'hich_'
'hh'
'hg'
'hermes_'
'herethis_'
'hereso_'
'help'
'hell'
'heights_'
'heed_'
'heavier_'
'heat'
'headline_'
'hayfield_'
'hav'
'hassles_'
'hardest_'
'happened'
'hanger_'
'handset_'
'hampton'
'gymn_'
'gy_'
'guestroom_'
'guest'
'gu'
'gt'
'groceries_'
'gro'
'greenhouse_'
'gray_'
'gras_'
'gran'
'gosh_'
'goodvery_'
'goodthat_'
'goods'
'goodness'
'goodall_'
'goo_'
'goo'
'god'
'gobsmacked_'
'goa'
'gloom_'
'glitz_'
'gle'
'girlfriends_'
'gins_'
'gigantic_'
'gestures_'
'ger_'
'ger'
'gent'
'gen'
'gels_'
'gates_'
'gas'
'gallery_'
'gall'
'gained_'
'gag'
'fying_'
'fy_'
'fuss'
'furnitures_'
'furnish_'
'functioned_'
'front'
'fridge'
'freestanding_'
'fraud_'
'francs_'
'franc'
'formulaic_'
'formed_'
'form'
'forf'
'footage_'
'foot'
'fog_'
'floori_'
'flakes_'
'fish'
'firm'
'fin_'
'fin'
'filipino_'
'figuring_'
'fields_'
'fiddly_'
'ffi'
'ffe'
'feel'
'featureless_'
'farther_'
'facilitiesthe_'
'eyesore_'
'express'
'explicitly_'
'expired_'
'experiencewe_'
'experiencethis_'
'experienceit_'
'existence_'
'exhibit_'
'exec'
'excite_'
'exceptional'
'exa'
'everthing_'
'event'
'etter_'
'eternity_'
'etci_'
'establish_'
'esque_'
'ergonomic_'
'equated_'
'epic_'
'ep'
'enjoys_'
'enjoy'
'enhancement_'
'engaging_'
'enforced_'
'endured_'
'emb'
'emanating_'
'els_'
'elephant_'
'elegantly_'
'electrics_'
'eit_'
'eighth_'
'ei'
'egg'
'effort'
'eds'
'edison_'
'east'
'easiest_'
'eal'
'dying_'
'dwe_'
'durham_'
'dump'
'dthe_'
'dt_'
'driveway_'
'drives_'
'dripped_'
'draughty_'
'drastic_'
'dragon_'
'drafty_'
'doubletrees_'
'dot_'
'dose_'
'dominated_'
'dolphins_'
'dol'
'document_'
'doc'
'dit'
'distraction_'
'distinction_'
'dissatisfaction_'
'dissappointing_'
'diss'
'disrepair_'
'disease_'
'disconnects_'
'disconnecting_'
'disclosure_'
'disappointedthe_'
'dirham_'
'directing_'
'dips_'
'dimmer_'
'differentiates_'
'dif'
'developing_'
'detracts_'
'destroyed_'
'dent'
'demolished_'
'defence_'
'decaying_'
'deali_'
'dealbut_'
'darker_'
'cure_'
'cul'
'crème_'
'cry_'
'crunchy_'
'cruises_'
'croutons_'
'crossed_'
'creak_'
'cracker_'
'course'
'countryside_'
'counterparts_'
'counter'
'couldn_'
'costs'
'cosmetics_'
'cosmetic_'
'cos_'
'corp_'
'cordial_'
'cor'
'copacabana_'
'coo'
'convenient'
'convenience'
'controllable_'
'contribute_'
'confronted_'
'configured_'
'conditioning'
'concerts_'
'concerning_'
'components_'
'complain'
'compelled_'
'comparative_'
'comment'
'comforting_'
'combining_'
'comb_'
'colon'
'coins_'
'cockroach_'
'cobb_'
'clutter_'
'clip_'
'cleverly_'
'clerks_'
'clearer_'
'cle'
'clarke_'
'cistern_'
'circuit_'
'choiceand_'
'chit_'
'chilean_'
'cheapthe_'
'cheapi_'
'chased_'
'charles_'
'charges'
'characteristics_'
'char'
'changeable_'
'chandelier_'
'chamber_'
'cham'
'chal'
'chains'
'centers_'
'center'
'cea'
'cco'
'casita_'
'carton_'
'carribean_'
'carl'
'card'
'caravan_'
'cancellations_'
'can'
'camper_'
'calais_'
'cabled_'
'bye_'
'butwhat_'
'butter'
'butgood_'
'bustling_'
'businessman_'
'bumps_'
'bukhara_'
'buffetwe_'
'bubbles_'
'brulee_'
'bru'
'briefly_'
'brie_'
'brekfast_'
'breakfastoverall_'
'breakfastnot_'
'breakfasthowever_'
'breakf'
'breach_'
'brakfast_'
'brag_'
'boy'
'bovey_'
'bor'
'boost_'
'bookable_'
'boo'
'bomb_'
'bolton_'
'boar_'
'blueberries_'
'blo'
'bled_'
'bleach_'
'blatant_'
'bla'
'bit'
'bility_'
'biggie_'
'bia'
'bi_'
'bewleys_'
'benefitted_'
'ben'
'belt_'
'belonging_'
'belonged_'
'beep_'
'beatles_'
'beating_'
'bear'
'bd'
'barista_'
'bargains_'
'barefoot_'
'banner_'
'ballrooms_'
'balloons_'
'balancing_'
'bake_'
'bacon'
'backbut_'
'awful'
'awaken_'
'awa'
'aus'
'att_'
'atleast_'
'ately_'
'association_'
'ask'
'asia'
'ash'
'asa'
'artist_'
'arrived'
'aro'
'aria_'
'argentinian_'
'ared_'
'aramark_'
'aqua'
'apt_'
'approved_'
'appearing_'
'apa'
'ap'
'anything'
'angkor_'
'ang'
'anemic_'
'andwifi_'
'andthat_'
'andt'
'ands'
'andother_'
'andon_'
'andok_'
'andm'
'ande'
'ance'
'analog_'
'ame_'
'amazon_'
'amari_'
'amalia_'
'ama_'
'alternatively_'
'alm'
'alli_'
'albuquerque_'
'alacarte_'
'ala'
'airports'
'airless_'
'airflow_'
'aircon'
'air'
'ain_'
'aims_'
'aggravation_'
'agenda_'
'agencies_'
'afternoon'
'affects_'
'aff'
'aesthetics_'
'admire_'
'admin_'
'adequate'
'ade_'
'adapters_'
'acting_'
'accross_'
'accompaniments_'
'accompaniment_'
'accomodated_'
'acceptable'
'academy_'
'aca'
'abt_'
'abnormal_'
'= _'
'93_'
'91'
'86_'
'850_'
'85'
'830_'
'81_'
'62'
'5the_'
'500ml_'
'46'
'44'
'430_'
'420_'
'3x_'
'38th_'
'36th_'
'365_'
'31'
'289_'
'2300_'
'219_'
'209_'
'207_'
'2019_'
'1960_'
'1930_'
'19'
'18'
'178_'
'142_'
'1400_'
'1300_'
'10pm_'
'107_'
'106_'
'0800_'
'05'
'..... _'
'. $ _'
') , _'
' ’ '
' —_'
' ? ? ? ? ?_'
' ? ? )_'
' .--_'
' .# _'
' . -_'
' -- $ _'
' - ' _'
' )( _'
' ) ...._'
' ( ! )_'
' ' ) _'
' $ , _'
' $ $ $ ._'
' !-_'
' ! ) . _'
' ! '_'
' ! ! ! ) _'
' ! ! ! ! ! ! !_'
' ! ! ! '
'€/_'
'… _'
'è'
'á'
'zing_'
'ze'
'zagreb_'
'ywe_'
'yum_'
'yuan_'
'youngest_'
'yi'
'yet'
'yes'
'yaiza_'
'xx'
'xt_'
'wy'
'ws'
'wrinkled_'
'wrapping_'
'wr'
'workshop_'
'worki_'
'wonky_'
'winters_'
'wink_'
'winds'
'wildlife_'
'wholeheartedly_'
'whist_'
'whi'
'where'
'whack_'
'westminster_'
'weirdly_'
'weeks'
'wedges_'
'wed'
'wastage_'
'wardrobes_'
'want'
'walton_'
'walmart_'
'wales_'
'waist_'
'wag'
'wading_'
'wad_'
'vt'
'voyager_'
'vodafone_'
'vivanta_'
'vist'
'visitthe_'
'vin'
'victory_'
'vibrating_'
'vibrant_'
'versions_'
'verity_'
'verify_'
'verage_'
'vera'
'ver'
'vendors_'
'ven'
'velvet_'
'valet'
'vai'
'vague_'
'ute_'
'uss'
'usit_'
'usi_'
'usand_'
'uros_'
'unripe_'
'unobstructed_'
'unnerving_'
'unjustifiable_'
'universally_'
'uni'
'unex'
'unclean_'
'uncalled_'
'uff'
'ud_'
'uc'
'ub_'
'uar'
'twi'
'twee'
'turn'
'ture_'
'tummy_'
'tucson_'
'true'
'tripwe_'
'tripped_'
'trial_'
'tree'
'travellodge_'
'traveler'
'transparent_'
'transformed_'
'tranquility_'
'tranquil_'
'trait_'
'traditionally_'
'toured_'
'toss_'
'torch_'
'tor_'
'tobacco_'
'tm'
'tle_'
'tle'
'tis'
'tip'
'tion'
'tint'
'timesthe_'
'timeit_'
'til'
'tightly_'
'ticking_'
'thy_'
'throught_'
'throat_'
'thou_'
'thisi_'
'thisa'
'thin'
'theses_'
'therewe_'
'thereso_'
'thereby_'
'therebut_'
'themthe_'
'themit_'
'theft_'
'tg'
'terrasse_'
'terra'
'tempura_'
'temporarily_'
'telephoned_'
'tee_'
'tched_'
'tc'
'tbh_'
'tau'
'tatt'
'tastless_'
'tastier_'
'tan_'
'tambo_'
'tale_'
'tails_'
'tags_'
'swim'
'swe'
'sut'
'sustain_'
'surname_'
'supported_'
'sup'
'sunday'
'suffocating_'
'succulent_'
'sturdy_'
'stripped_'
'string_'
'striking_'
'strikes_'
'strangers_'
'str'
'stock'
'stir_'
'stin'
'stic_'
'steamy_'
'staynot_'
'staying'
'stayed'
'stayb'
'stateroom_'
'state'
'stat_'
'starwoods_'
'stare_'
'staple_'
'stanley_'
'stairway_'
'staircases_'
'staffi_'
'ssi'
'spoils_'
'splurging_'
'spirited_'
'spin_'
'specification_'
'sparsely_'
'spar_'
'spaced_'
'southeast_'
'sou'
'sort'
'soo'
'solutions_'
'soi_'
'sofabed_'
'soccer_'
'so'
'snowing_'
'snooker_'
'sneaky_'
'snapped_'
'snap_'
'smiled_'
'slussen_'
'slowi'
'sloping_'
'slope_'
'slider_'
'sley_'
'sleepover_'
'slats_'
'sl'
'skylight_'
'skimp_'
'sizethe_'
'site'
'sisters_'
'sir'
'sipping_'
'singers_'
'singaporean_'
'simplicity_'
'similar'
'sidewalk_'
'sib'
'shredded_'
'shot'
'shopped_'
'shook_'
'shiraz_'
'ship'
'sheraton'
'sher'
'sheffield_'
'shady_'
'shadow_'
'sg_'
'sg'
'sewer_'
'seward_'
'serviceit_'
'servicebreakfast_'
'serviceb'
'serviceand_'
'servicea_'
'servicea'
'servery_'
'ser'
'seminyak_'
'self'
'secluded_'
'sec_'
'seas_'
'sealant_'
'sd'
'scro'
'screamed_'
'scramble_'
'scou'
'scot'
'scattered_'
'scar'
'scampi_'
'scallop_'
'saturday'
'satt_'
'satay_'
'sat'
'sandwiched_'
'sands_'
'salisbury_'
'sag'
'russia_'
'rupee_'
'runways_'
'runners_'
'rung_'
'run'
'rump_'
'ruining_'
'rte'
'rst'
'royale_'
'roundtrip_'
'round'
'rosette_'
'rose'
'roomyou_'
'roomthey_'
'roomsthis_'
'rooma'
'roller_'
'robbed_'
'riverview_'
'riverfront_'
'rioja_'
'rie'
'rg'
'rew'
'revere_'
'revelation_'
'reu'
'restore_'
'resto_'
'resteraunt_'
'restaurants'
'resources_'
'residential_'
'resembling_'
'request'
'replenishment_'
'repa'
'rentals_'
'removal_'
'remotes_'
'remoteness_'
'remembers_'
'reliant_'
'reinforced_'
'refurbishment'
'refurb'
'reeked_'
'recycling_'
'rectangular_'
'recorded_'
'recommend'
'recieve_'
'receives_'
'rd'
'raves_'
'rat'
'rancid_'
'ramsay_'
'ramadan_'
'rad_'
'quoting_'
'quite'
'quick'
'questionnaire_'
'quesadillas_'
'que'
'qu'
'py_'
'pun_'
'pullout_'
'puff'
'pts_'
'ptic'
'protected_'
'propertythe_'
'promoting_'
'projector_'
'producing_'
'produces_'
'processing_'
'procedures_'
'problem'
'proactive_'
'privately_'
'priorities_'
'pringles_'
'princesa_'
'priceyi_'
'pricetag_'
'pricedi'
'pretending_'
'pret'
'pressured_'
'presidents_'
'presenting_'
'preferably_'
'practicality_'
'pr'
'pping_'
'pours_'
'pounding_'
'possible'
'positioning_'
'posher_'
'portugal_'
'porti'
'pops_'
'popping_'
'pop'
'poolwe_'
'poolit_'
'pleasure'
'plate'
'plan'
'plainly_'
'placebut_'
'pla'
'pitched_'
'piped_'
'pine_'
'pillar_'
'pictured_'
'piccadilly_'
'pia'
'peter_'
'pet'
'peruvian_'
'permission_'
'perched_'
'perceived_'
'pee'
'pe'
'patches_'
'particular'
'pars'
'parisian_'
'parc_'
'palacio_'
'pak'
'paix_'
'paidthe_'
'page'
'padded_'
'ox_'
'owl_'
'overs'
'overprized_'
'overpaid_'
'overnite_'
'overalli_'
'overallbut_'
'ove'
'outthis_'
'outit_'
'oti'
'othing_'
'ost'
'orry_'
'organising_'
'ore'
'opr'
'oon_'
'ong_'
'oneself_'
'onal_'
'omi'
'okura_'
'okayi_'
'oily_'
'offs_'
'offb'
'oddity_'
'od'
'oco'
'ocean'
'occurring_'
'occupy_'
'occupation_'
'occ'
'obs'
'obably_'
'oat_'
'nusa_'
'nting_'
'nr'
'notthe_'
'noticable_'
'nostalgia_'
'nos_'
'norms_'
'norma_'
'noisyi_'
'noi'
'nob'
'nm'
'nity_'
'nightsbut_'
'nighta'
'nig'
'nick'
'nfortunately_'
'nf'
'newport_'
'newness_'
'newish_'
'net'
'ness'
'nes'
'nep'
'nde'
'nav_'
'nathan_'
'nat_'
'nan'
'nal_'
'nailed_'
'nab'
'myself'
'musical_'
'mus'
'mt'
'moves_'
'mouth'
'mot'
'mortgage_'
'mort'
'morninga'
'mor'
'monte_'
'mont_'
'monitored_'
'modernising_'
'moaning_'
'mn'
'mistake'
'mist'
'misplaced_'
'miserably_'
'miracle_'
'minutes'
'minimi'
'minibars_'
'mini'
'mighty_'
'midnight'
'mid'
'microwaves_'
'mice_'
'mi'
'metate_'
'meri'
'meg'
'mee'
'mediocrity_'
'mechanism_'
'mebut_'
'meaningless_'
'maximise_'
'matresses_'
'masses_'
'mass'
'marriotts'
'marking_'
'market'
'maritim_'
'marine_'
'marie_'
'manually_'
'manhattan'
'maneuver_'
'mand'
'malt_'
'makeshift_'
'maj'
'maitre_'
'mailed_'
'magically_'
'madison_'
'made'
'm2_'
'm25_'
'lw'
'luxury'
'luxembourg_'
'luster_'
'lus_'
'lue'
'luau_'
'lp'
'lox_'
'lotte_'
'loos_'
'look'
'loo'
'longleat_'
'londonthe_'
'log'
'locale_'
'loan_'
'litter_'
'liter_'
'liquors_'
'lingering_'
'liness_'
'lind'
'lin_'
'limerick_'
'lim'
'like'
'lightening_'
'lifestyle_'
'lid'
'liberty_'
'lib'
'li'
'lf_'
'levied_'
'leek_'
'leclub_'
'leave'
'learning_'
'leaky_'
'ld'
'lawn_'
'lau'
'lasagna_'
'largish_'
'lanzarote_'
'lanes_'
'landscape_'
'lam'
'lai'
'krakow_'
'kr_'
'known'
'knowledgable_'
'kni'
'kle'
'kiva_'
'kitted_'
'kitchen'
'kip_'
'kindness_'
'kie'
'kickback_'
'khajuraho_'
'ket_'
'ker_'
'kat_'
'kandy_'
'kampala_'
'kailyard_'
'justifiable_'
'just'
'juicer_'
'joy_'
'johnson_'
'johnny_'
'johannesburg_'
'jewellery_'
'jelly_'
'jeddah_'
'jeans_'
'jars_'
'jail_'
'jaccuzi_'
'ito'
'ited_'
'ite_'
'ital'
'issue'
'israel_'
'investigation_'
'invest'
'intuitive_'
'introduce_'
'intervals_'
'interstate_'
'internetthe_'
'intern'
'interent_'
'insi'
'insect_'
'innthe_'
'ink'
'injured_'
'inflict'
'infants_'
'indo'
'incon'
'incoming_'
'inbut_'
'inat'
'inand_'
'imposition_'
'importance_'
'impo'
'implied_'
'impl'
'impeccably_'
'impa'
'imes_'
'ime'
'im'
'illumination_'
'ilk_'
'ili'
'ile'
'il'
'iin'
'igh_'
'idea'
'ics_'
'ica'
'ian'
'huts_'
'hunters_'
'how'
'hotthe_'
'hotelp'
'hotelnice_'
'hotelmy_'
'hotele'
'hordes_'
'hor_'
'hood_'
'hoo'
'homework_'
'hols_'
'hollandaise_'
'hn'
'hit'
'hips_'
'hilst_'
'hhonor_'
'herring_'
'hereo'
'hered'
'hem'
'helpings_'
'heel_'
'heartily_'
'heart'
'health'
'he'
'hcm_'
'hb'
'has'
'hangover_'
'han'
'hammam_'
'halloween_'
'halibut_'
'halekulani_'
'hade'
'hack'
'hab'
'gwl_'
'gul'
'guests'
'grumbles_'
'group'
'grills_'
'gri'
'greenery_'
'greece_'
'grasp_'
'granite_'
'grange_'
'graduation_'
'goulding_'
'goose_'
'goodyou_'
'goodmy_'
'goode'
'gooda'
'good'
'golfer_'
'gly_'
'glo_'
'glamour_'
'gin'
'giles_'
'gift'
'ght'
'getaway'
'georgetown_'
'gentle_'
'gb_'
'gauge_'
'gau'
'gathered_'
'gat'
'gastronomic_'
'gale_'
'gal'
'g'
'fundamentally_'
'frying_'
'frustratingly_'
'friendly'
'friendliest_'
'friend'
'freshened_'
'freindly_'
'frayed_'
'fr'
'forth'
'foreigners_'
'forego_'
'fluff_'
'fluctuated_'
'floorand_'
'flicking_'
'flex_'
'fleeced_'
'flavored_'
'flats_'
'flannel_'
'fix'
'fis'
'find'
'financially_'
'fierce_'
'fel'
'fe'
'fat'
'fascinating_'
'fantastic'
'fairs_'
'fairbanks_'
'fail'
'facts_'
'ey'
'extraction_'
'extends_'
'ext_'
'expression_'
'expir'
'expensiveit_'
'expensivebreakfast_'
'exi'
'excursion_'
'excruciatingly_'
'excluded_'
'exchanged_'
'exc'
'exaggerating_'
'eventhough_'
'even'
'eva'
'euros'
'eureka_'
'eur1'
'eton_'
'eti'
'etcthe_'
'etca'
'et'
'estimation_'
'esse'
'esp'
'escort_'
'err'
'ero'
'eo'
'entryway_'
'enthusiastic_'
'enthusiasm_'
'entertain_'
'enhance_'
'ene'
'end'
'en'
'emi'
'eme'
'ely'
'elsewherethe_'
'elle'
'elk_'
'ela'
'either'
'egregious_'
'eel_'
'eds_'
'edgewater_'
'econd_'
'eclectic_'
'echo'
'eat'
'eas'
'ean'
'e1'
'dus'
'dur'
'dumpy_'
'dumbbells_'
'dumb_'
'duke_'
'due'
'duct_'
'duc'
'dua_'
'dthere_'
'dri'
'drew_'
'dresses_'
'dreadfully_'
'dre'
'drafts_'
'downstairs'
'downscale_'
'downloads_'
'doubletree'
'dosas_'
'dormitory_'
'dor'
'doorstep_'
'dolphin_'
'dl'
'ditch_'
'dit_'
'distressing_'
'distracted_'
'distances_'
'disservice_'
'dissapoint_'
'disregard_'
'disppointed_'
'dispensed_'
'disgust_'
'discretionary_'
'discreet_'
'discovery_'
'disco'
'disappointingthe_'
'disappointedwe_'
'disapoint'
'disadvantages_'
'dipped_'
'dig_'
'differing_'
'die'
'dial'
'diagonal_'
'dia_'
'dge_'
'dev'
'deterioration_'
'dete'
'det'
'departments_'
'demo'
'deliveries_'
'delectable_'
'defo_'
'define_'
'deficient_'
'deed_'
'decking_'
'deb'
'dealso_'
'deals'
'dd_'
'dared_'
'cycles_'
'cut'
'customs_'
'curved_'
'curt'
'cur'
'cup'
'cum_'
'cula'
'cub'
'cti'
'crumbs_'
'crime_'
'crewe_'
'credible_'
'creaked_'
'covent_'
'couple'
'cou'
'corr'
'corporation_'
'cori'
'cordoba_'
'copies_'
'coordination_'
'cools_'
'convey_'
'convention'
'contributors_'
'contrasting_'
'contracted_'
'continent_'
'contemplating_'
'constr'
'considers_'
'conservation_'
'conn'
'conjunction_'
'congee_'
'conducting_'
'compound_'
'component_'
'compliant_'
'compli'
'complaints'
'comparisons_'
'company'
'compa'
'commonwealth_'
'committed_'
'commendable_'
'comically_'
'cole'
'coincidence_'
'coated_'
'cn'
'cluttered_'
'clunky_'
'clumsy_'
'clothes'
'closeness_'
'closed'
'clocks_'
'clear'
'clean'
'clayton_'
'claustrophobia_'
'classier_'
'clarity_'
'clam_'
'cks_'
'citrus_'
'cious_'
'cin'
'cia'
'church_'
'chu'
'choises_'
'chocolat_'
'chlorinated_'
'chipping_'
'chintzy_'
'chelly_'
'checkin'
'cheapskate_'
'cheapo_'
'cheapand_'
'chasing_'
'charge'
'chandeliers_'
'champ'
'chai_'
'cet'
'ces'
'ceremony_'
'centre'
'celsius_'
'cellular_'
'cel'
'cd'
'cathode_'
'cat'
'cash'
'cartons_'
'carte'
'carlton'
'carlo_'
'captured_'
'capped_'
'cancellable_'
'campus_'
'call'
'caffe_'
'buyer_'
'butwould_'
'butwi'
'butnot_'
'butfood_'
'butall_'
'bust_'
'businessthe_'
'busines_'
'bushes_'
'burns_'
'burg'
'bund_'
'building'
'buffetthe_'
'buffetbreakfast_'
'bs'
'brushing_'
'breakfest_'
'breakfastvery_'
'breakfastthere_'
'breakfastgood_'
'breakfastc'
'breakfasta'
'brassiere_'
'braised_'
'bracelet_'
'bout_'
'bournemouth_'
'bouche_'
'borrow_'
'borders_'
'boracay_'
'booths_'
'booked'
'bomb'
'bog'
'bodied_'
'bod'
'bn'
'blueberry_'
'blu'
'blob_'
'bles'
'blamed_'
'bl'
'bison_'
'birthday'
'bie'
'bid'
'besti_'
'berg'
'ber'
'believes_'
'bee_'
'bee'
'bedhead_'
'becuase_'
'beams_'
'bathroomi_'
'bases_'
'baseball_'
'barbeque_'
'band'
'baffled_'
'bads'
'backside_'
'axum_'
'aviv_'
'averagei_'
'averaged_'
'aveda_'
'availed_'
'availablei_'
'attention'
'attachment_'
'attach_'
'ats_'
'ati'
'ath_'
'ate'
'astronomically_'
'astonished_'
'ashe'
'ase'
'asda_'
'artists_'
'artisan_'
'arrive'
'arose_'
'aromatherapy_'
'arise_'
'arethe_'
'ard'
'applaud_'
'appealed_'
'anyway'
'ant'
'anomaly_'
'annexe_'
'anne'
'animation_'
'angeles_'
'andyou_'
'andthey_'
'andst'
'andho'
'andg'
'andalthough_'
'andalso_'
'an'
'amigo_'
'ami'
'amen'
'ame'
'ambitious_'
'amateurish_'
'aly_'
'althought_'
'altho_'
'alter_'
'alone'
'allo'
'alleviate_'
'alle'
'alla'
'alerted_'
'ajar_'
'airfare_'
'ail'
'againgood_'
'adu'
'adorned_'
'ado'
'admiral_'
'adina_'
'adi'
'ad'
'actively_'
'acquired_'
'accord_'
'accor'
'accent_'
'abuse_'
'abode_'
'abbey_'
'aback_'
'=_'
'://_'
'930_'
'60th_'
'5pm_'
'4s'
'49er_'
'43'
'400'
'339_'
'30min_'
'30a'
'305_'
'3030_'
'239_'
'230'
'226_'
'221_'
'2200_'
'205_'
'202_'
'2001_'
'2000'
'198_'
'198'
'1950_'
'1900_'
'180'
'175'
'170'
'15am_'
'148_'
'144_'
'133_'
'10mins_'
'101'
'. £ _'
'. ) _'
'- '
'* * * * '
'* '
'$ '
'"'
'! _'
'! !_'
' “_'
' ’ , _'
' ~$_'
' @ $ _'
' ? - _'
' ?'
' = £ _'
' :-(_'
' :) ._'
' : • _'
' : + _'
' . . . ._'
' - '
' , ) _'
' + '
' % ) _'
' " : _'
' " $ _'
' ! ? '
' ! ) - _'
' ! ) '
' ! ! ! )_'
' ! ! ! ! ! ! ! !_'
'“ _'
'é'
'ä'
'½_'
'zones_'
'zo_'
'zin'
'zi_'
'zation_'
'yso_'
'yr'
'ypical_'
'youbut_'
'yog'
'yn'
'ym_'
'ym'
'yit_'
'yea_'
'ybut_'
'yat'
'xt'
'xian_'
'xe'
'wrong'
'wrinkles_'
'woud_'
'worst'
'workstation_'
'workit_'
'workingthe_'
'withthe_'
'wiser_'
'wisely_'
'wis'
'wiped_'
'winter'
'winston_'
'win'
'will'
'wigwam_'
'wifiand_'
'wide'
'whittlebury_'
'whitebait_'
'whistle_'
'whirring_'
'wherein_'
'whelming_'
'whatsoever'
'what'
'wha'
'western'
'wer'
'wel'
'weighing_'
'wee'
'wed_'
'webpage_'
'weakness_'
'waterslide_'
'watermelon_'
'wat_'
'waswe_'
'wasit_'
'washcloths_'
'wase'
'wasand_'
'wasa_'
'warnings_'
'wardman_'
'wandered_'
'wan'
'walled_'
'walk'
'wakeup_'
'waistline_'
'vulcano_'
'vr'
'vouch_'
'vou'
'vomit_'
'volumes_'
'vol'
'visito'
'visitbut_'
'visibly_'
'vis_'
'virginia_'
'vinyl_'
'vile_'
'vil'
'vie'
'viceroy_'
'vic'
'vibrations_'
'vibration_'
'vibrated_'
'via'
'vi'
'vertically_'
'verbal_'
'venue'
'ventilated_'
'venison_'
'vene'
'vendome_'
'velo'
'vel'
'vein_'
'vei'
'vegans_'
'vas'
'variations_'
'varanasi_'
'var'
'van'
'valve_'
'valuewe_'
'valets_'
'val_'
'val'
'vacation'
'vac'
'va_'
'ute'
'ust_'
'usi'
'ushered_'
'ush'
'usd3'
'usd2'
'usbut_'
'ury_'
'urg_'
'ures_'
'ura'
'upt'
'upsides_'
'ups'
'upright_'
'uploaded_'
'upho'
'upcoming_'
'unwi'
'unwanted_'
'untrained_'
'unseasonably_'
'unpleasantly_'
'unloved_'
'unlocked_'
'unk'
'uniqueness_'
'uniquely_'
'unin'
'unh'
'unfortunatley_'
'unfinished_'
'unen'
'undressed_'
'undr'
'undesirable_'
'unders'
'und'
'uncrowded_'
'unconscionable_'
'unacceptable'
'ully_'
'ud'
'ua_'
'tz'
'tyne_'
'tw'
'tut'
'tus_'
'turnaround_'
'tuck_'
'tuck'
'tter_'
'tt'
'tst_'
'tst'
'tsi'
'trumped_'
'tripthe_'
'tripit_'
'trigger_'
'tregenna_'
'translation_'
'transition_'
'transatlantic_'
'transaction_'
'trans_'
'train'
'tracking_'
'touted_'
'tori'
'toot'
'tom'
'toliet_'
'tokyo'
'tokens_'
'toilet'
'toi_'
'tl'
'titled_'
'titanium_'
'tire_'
'timebut_'
'tilt_'
'tiling_'
'tid'
'tia'
'thunder_'
'thu'
'throws_'
'thri'
'threat_'
'thoughtless_'
'thoughtfully_'
'thisthis_'
'thiso'
'thimble_'
'thicker_'
'therein_'
'thered'
'theming_'
'thanked_'
'thani_'
'terrace'
'term'
'teri'
'tendency_'
'temples_'
'telephones_'
'tel'
'tee'
'tec'
'tat'
'tas'
'tampa_'
'tall'
'talks_'
'takeout_'
'taipei_'
'tain'
'tai_'
'tahoe_'
'taff_'
'tack_'
't'
'sydney'
'swung_'
'swore_'
'swindon_'
'swimmingpool_'
'swept_'
'sweet'
'sw'
'suspects_'
'survived_'
'surpri'
'surfers_'
'supportive_'
'superlatives_'
'superc'
'superb'
'sundry_'
'sundae_'
'suit'
'sugar'
'subsidised_'
'suboptimal_'
'subjected_'
'stuffi'
'strive_'
'stringy_'
'streak_'
'strap'
'stranger_'
'strai'
'stovepipe_'
'stomping_'
'stically_'
'sti'
'steigenberger_'
'steep'
'sted_'
'stayt'
'stayi'
'stayers_'
'stayas_'
'stared_'
'standardsthe_'
'stan'
'stal'
'stairwell_'
'stairs'
'staid_'
'staggered_'
'staffo'
'staffit_'
'staffbut_'
'ssion_'
'sr'
'squeaky_'
'squeak_'
'sque'
'sprayed_'
'spout_'
'spott'
'spo'
'spit'
'spilled_'
'spider_'
'spiced_'
'spic'
'specialist_'
'spas'
'sp_'
'sow'
'souvenir_'
'southport_'
'southbank_'
'soup'
'sound'
'sorry'
'soooooo_'
'soo_'
'song_'
'sole'
'society_'
'snuff_'
'snowstorm_'
'snooty_'
'snip'
'snacks'
'snacking_'
'smothered_'
'smooth'
'sm'
'sloped_'
'slimy_'
'sleepwe_'
'sleepo'
'sleepbreakfast_'
'slaw_'
'slabs_'
'skycity_'
'sixteen_'
'sitter_'
'sis_'
'singular_'
'sim_'
'sim'
'silverware_'
'silver'
'sill_'
'sigh_'
'sierra_'
'sie_'
'sie'
'side'
'sickness_'
'sic_'
'shut'
'shrimps_'
'showever_'
'showerwe_'
'showerand_'
'shouted_'
'shore_'
'shore'
'shone_'
'shifts_'
'shelburne_'
'shannon_'
'shang_'
'shan'
'sgd1'
'sgd'
'sevice_'
'setting'
'set'
'seri'
'serene_'
'ser_'
'seminars_'
'segments_'
'seelbach_'
'seaweed_'
'seater_'
'seared_'
'seams_'
'sculptures_'
'scu'
'scru'
'scratches_'
'scra'
'scoop_'
'sco'
'scathing_'
'scarborough_'
'scam'
'sb'
'sayang_'
'savory_'
'sati'
'sash_'
'sarajevo_'
'sara'
'sance'
'sampler_'
'salted_'
'salt'
'sage_'
'sac'
'sab'
'ryder_'
'ruth'
'rusted_'
'russian_'
'rti'
'rr'
'rp'
'roy_'
'roxy_'
'rowing_'
'row'
'rou'
'rot_'
'roomvery_'
'roomss'
'roomsm'
'roomsa'
'roomp'
'roomgood_'
'roomb'
'roo'
'roll'
'rocco_'
'robust_'
'rit'
'risking_'
'rio'
'rink_'
'rights_'
'rif'
'ride'
'rices_'
'rib'
'rhodes_'
'rge_'
'rev'
'reuse_'
'returns_'
'retaurant_'
'ret'
'resume_'
'rests_'
'rests'
'restriction_'
'restraunts_'
'restraint_'
'restaurantand_'
'restauranta'
'restauran'
'restar'
'respected_'
'resorted_'
'resonably_'
'resistance_'
'resi'
'resented_'
'res'
'reportedly_'
'replicate_'
'repaint'
'rent'
'renovations'
'ren_'
'remi'
'reme'
'relay'
'rela'
'reject_'
'reimburse_'
'rei'
'rehab_'
'regulat'
'regrettable_'
'regretfully_'
'regret'
'refuses_'
'refusal_'
'refers_'
'ref'
'redi'
'redecoration_'
'recycle_'
'recovered_'
'records_'
'reconstituted_'
'recon'
'rece'
'recalled_'
'rebuilt_'
'rebu'
'rebooked_'
'rebook_'
'reassuring_'
'reassured_'
'reas'
'rearrange_'
'reall'
'realizing_'
'reais_'
'read'
'reaches_'
'rci'
'raving_'
'ravel'
'raved_'
'rattle_'
'ratea'
'rat_'
'rar'
'rand'
'ral_'
'rak'
'raisin_'
'raft_'
'radar_'
'rable_'
'ra'
'quietest_'
'queue'
'ques_'
'queries_'
'qualitywe_'
'qualitys'
'push'
'purported_'
'pune_'
'punctual_'
'pun'
'pumpkin_'
'pumping_'
'pti'
'pt_'
'prunes_'
'provincial_'
'providers_'
'proudly_'
'protectors_'
'protect_'
'prospective_'
'proportioned_'
'propertyi_'
'prompted_'
'programmed_'
'program'
'profusely_'
'professionals_'
'pro'
'prizes_'
'principe_'
'princeton_'
'pricethere_'
'priceo'
'pricea'
'pretends_'
'presumed_'
'pressure'
'presented'
'prem_'
'prego_'
'pregnant_'
'prefect_'
'predominantly_'
'precor_'
'precise_'
'ppi'
'ppe'
'ppa'
'portuguese_'
'portman_'
'pontins_'
'poly'
'pollution_'
'poking_'
'pmi_'
'plum'
'pls_'
'ploy_'
'plonked_'
'pli'
'plethora_'
'plent'
'playa_'
'plantation_'
'places'
'placeit_'
'pl'
'pj_'
'pity'
'pis'
'pioneer_'
'pinpoint_'
'piling_'
'piles_'
'pil'
'pier'
'pictures'
'pickings_'
'pick'
'photograph_'
'philippines_'
'pher'
'petra_'
'persisted_'
'permeates_'
'peri'
'pergula_'
'pens_'
'penn_'
'pend'
'peers_'
'peeled_'
'pee_'
'pedestal_'
'pearl_'
'peanut_'
'peacock_'
'paving_'
'patty_'
'patronised_'
'patong_'
'patient_'
'pathetically_'
'pasti'
'pasteries_'
'pasta'
'partner'
'parma_'
'parlor_'
'parfait_'
'parcel_'
'papaya_'
'pap'
'palm'
'pallets_'
'paddle_'
'packagethe_'
'oy'
'ox'
'owe_'
'overw'
'overt'
'overhauled_'
'overc'
'outwards_'
'outthe_'
'outsourced_'
'outlandish_'
'outbound_'
'ous'
'ound'
'ott'
'other'
'ota_'
'oscar_'
'ort_'
'ornate_'
'origin'
'organise_'
'org'
'ora_'
'opus_'
'oozing_'
'oor_'
'onwe_'
'once'
'onbut_'
'ole'
'ol'
'okw'
'okr'
'okoverall_'
'oh'
'og_'
'offit_'
'offa'
'ofcourse_'
'odi'
'octopus_'
'och'
'occurs_'
'oblivious_'
'objects_'
'oa'
'o'
'nzd'
'nya'
'number'
'nth'
'nter'
'nouveau_'
'noth'
'nonsmoking_'
'nok_'
'nn'
'ninth_'
'nile_'
'nightvery_'
'nightthis_'
'nightstands_'
'nightlife_'
'nighti'
'nightc'
'nightal'
'nicew'
'nicer'
'niceb'
'nibble_'
'ngton_'
'nge'
'nets_'
'nest_'
'nest'
'nescafe_'
'nepal_'
'nemacolin_'
'nel'
'needs'
'necessitating_'
'ncy_'
'nc'
'navy_'
'nat'
'napkin_'
'name'
'nally_'
'nah_'
'nagpur_'
'nad'
'mutton_'
'must'
'musky_'
'mush_'
'murky_'
'mumbai'
'muffled_'
'mps_'
'mped_'
'movements_'
'mouthwash_'
'mouthed_'
'mountain'
'motto_'
'morton_'
'morocco_'
'mornings'
'moral_'
'monica_'
'moneyt'
'moneys'
'monetary_'
'mond'
'modestly_'
'model'
'mob'
'moans_'
'mmmm_'
'ml'
'mixing_'
'mistaken_'
'missi'
'misled_'
'mislead_'
'mishap_'
'mish_'
'misc_'
'mirrored_'
'mira_'
'mint'
'mins'
'minimally_'
'minibar'
'miniature_'
'minh_'
'mince_'
'minat'
'milling_'
'millers_'
'milking_'
'michigan_'
'michelangelo_'
'mic'
'mgmt_'
'mfortable_'
'mewe_'
'methe_'
'messing_'
'merrion_'
'merri'
'merited_'
'mercy_'
'mer_'
'menuthe_'
'menue_'
'mentally_'
'mens_'
'memphis_'
'melbourne'
'meetings'
'medicore_'
'medicine_'
'mec'
'meanwhile_'
'mealthe_'
'mealsthe_'
'me'
'mcc'
'mc_'
'mbs_'
'mb'
'mayhem_'
'mauna_'
'mature_'
'mattress'
'mattered_'
'matt'
'materialise_'
'marvel_'
'marrakech_'
'marr'
'marquee_'
'maries_'
'margaritaville_'
'margaritas_'
'mansion_'
'mannered_'
'manchester'
'mammoth_'
'mam'
'mali'
'malay_'
'mail'
'magnifi'
'magna_'
'madhouse_'
'mad'
'mach'
'm6_'
'lyi'
'lut'
'lus'
'lur'
'lung_'
'lunchi'
'lugging_'
'lucky'
'luck'
'lub_'
'lte_'
'lt'
'lst'
'lowlights_'
'lovely'
'love'
'lottery_'
'loses_'
'los'
'looked'
'longi'
'longer'
'longboards_'
'londoni_'
'lom'
'loews_'
'locationw'
'locationi_'
'lobbyi_'
'loa'
'lm'
'ljubljana_'
'livid_'
'live'
'livable_'
'litera'
'listened_'
'lipstick_'
'lint_'
'lifts'
'lifefitness_'
'lic'
'liar_'
'lhw_'
'ler'
'lenty_'
'lend_'
'lem'
'lei_'
'lei'
'lega'
'leg'
'left'
'leas'
'leaks_'
'leader_'
'lco'
'lawns_'
'launder'
'latei_'
'lasts_'
'las'
'lapse_'
'lal'
'lagers_'
'lag'
'ladder_'
'lad'
'lab'
'la'
'kr'
'korea_'
'knackered_'
'klia_'
'klia2_'
'kitkat_'
'kir'
'kings'
'king'
'kind'
'kin'
'kil'
'kigali_'
'kidsthe_'
'ki_'
'kgb_'
'kfc_'
'kfast_'
'kf'
'keyboard_'
'kevin_'
'keeper_'
'kea_'
'kapalua_'
'jun'
'juicy_'
'jpy_'
'jolly_'
'jo_'
'ji_'
'jet'
'jerk_'
'jen_'
'jaz'
'jama'
'jai'
'jackets_'
'ives_'
'ive'
'itthere_'
'itp'
'itnot_'
'ithowever_'
'ither_'
'ite'
'itch'
'itb'
'isth'
'isk_'
'isit_'
'ising_'
'isi_'
'isbut_'
'irksome_'
'iri'
'ire_'
'ira'
'involve_'
'invite_'
'invigorating_'
'inva'
'into'
'intimidating_'
'interrupt_'
'interconti_'
'interacted_'
'intentional_'
'intent_'
'intenet_'
'intending_'
'inten'
'int'
'instruction_'
'installing_'
'inspect_'
'inso_'
'inordinate_'
'injury'
'initiative_'
'infused_'
'infuriating_'
'infrequent_'
'inf'
'inexperienced_'
'ind_'
'incomprehensible_'
'incompetence_'
'inco'
'incl'
'incapable_'
'inb'
'inadequately_'
'improvement'
'impressively_'
'impressedthe_'
'impress'
'imposing_'
'important'
'imperfections_'
'illuminated_'
'ignorant_'
'ifi'
'ies'
'idiots_'
'idi'
'identify_'
'identified_'
'ida'
'iba'
'ib'
'hv_'
'humans_'
'hudson_'
'http_'
'hr'
'hq_'
'hower_'
'hourthe_'
'hotelwas_'
'hotelthey_'
'hotelswe_'
'hotelo'
'hotelhowever_'
'hotelg'
'hotelb'
'hospitable_'
'horn_'
'hor'
'honestthe_'
'honesti_'
'hon'
'hollywood_'
'hog'
'hoc_'
'hm'
'hive_'
'hiroshima_'
'hinge_'
'hills_'
'hill'
'hilarious_'
'hight_'
'hic'
'hes_'
'hers_'
'herd_'
'herbal_'
'helm'
'heaving_'
'headphones_'
'hdtv_'
'hdmi_'
'hazardous_'
'harvest_'
'harrogate_'
'harm'
'hardship_'
'happen'
'ham'
'hallway'
'hake_'
'habits_'
'gwr_'
'gv'
'gut_'
'gus'
'gur'
'guess'
'guarded_'
'guarantee'
'guanacaste_'
'gua'
'grouse_'
'ground'
'grits_'
'gristly_'
'green'
'greatit_'
'grea'
'grate_'
'grander_'
'grading_'
'grades_'
'grad'
'gp_'
'gouged_'
'goth'
'gos'
'goodno'
'goodnice_'
'goodm'
'goodfr'
'goodfood_'
'goodc'
'goldfish_'
'goats_'
'goan_'
'gned_'
'gloves_'
'gloss_'
'gk'
'given'
'ging'
'gig_'
'gh'
'getbut_'
'geo'
'gents_'
'general'
'gellert_'
'gbp15_'
'gbp1'
'gauging_'
'garish_'
'gang_'
'galore_'
'futuristic_'
'future'
'furbished_'
'furama_'
'funeral_'
'fulfill_'
'ful'
'fts_'
'fs'
'fruity_'
'fron_'
'frites_'
'fridays_'
'freshest_'
'fresh'
'frenetic_'
'freight_'
'freak_'
'frat_'
'frankie_'
'frank_'
'fran'
'found'
'forw'
'forte_'
'forgo_'
'forgiving_'
'foor_'
'foodand_'
'flowed_'
'flour'
'floorwe_'
'floored_'
'floods_'
'flatbread_'
'flare_'
'flame_'
'fl'
'fixes_'
'fixable_'
'fiver_'
'fired_'
'fir'
'finethis_'
'filth_'
'fif'
'fiesta_'
'fied_'
'fie'
'ffed_'
'fever_'
'fest_'
'ferringhi_'
'fees'
'feed'
'feathers_'
'feasible_'
'fav'
'fate_'
'fatal_'
'fashionable_'
'far'
'fanta'
'fanciest_'
'families'
'fal'
'fajitas_'
'failings_'
'facilitiesbut_'
'exudes_'
'extreme'
'externally_'
'explored_'
'exploitation_'
'expl'
'experiment_'
'experiencethere_'
'experiencea'
'expensivethere_'
'expen'
'expect'
'expe'
'exited_'
'exercising_'
'exempt_'
'excused_'
'excusable_'
'excellenti_'
'exceeding_'
'excecutive_'
'exacerbated_'
'ew_'
'evidenced_'
'eveningand_'
'eve'
'evaluate_'
'ety_'
'ett_'
'ett'
'etr'
'ethos_'
'ethnic_'
'etcwe_'
'esti'
'essi'
'ese'
'ermin_'
'erm'
'erhaps_'
'equipment'
'equals_'
'equal'
'epitome_'
'epi'
'environment'
'entrances_'
'entice_'
'ensi'
'ens_'
'enoughthe_'
'enought_'
'enjoyed'
'eni'
'engaged_'
'engage_'
'energetic_'
'enerally_'
'encounters_'
'empty'
'emp'
'emin'
'em_'
'ella_'
'eliminate_'
'elect_'
'elbow_'
'eiffel_'
'eh'
'effortless_'
'effi'
'effects_'
'effected_'
'effecient_'
'eff'
'eet'
'een'
'edwe_'
'edward_'
'edit_'
'edd'
'eda'
'eco'
'ebut_'
'eate'
'eakfast_'
'e'
'durango_'
'dunston_'
'dug_'
'dubai'
'ds'
'drum_'
'drone_'
'drenched_'
'draws_'
'drapers_'
'drape'
'downloading_'
'downgrading_'
'dover_'
'doughnuts_'
'dou'
'dorchester_'
'donation_'
'documents_'
'docks_'
'docklands_'
'docked_'
'dn_'
'dling_'
'dl_'
'dkk_'
'dividing_'
'dissappointment_'
'disposal_'
'displeased_'
'dismissive_'
'dismay_'
'disingenuous_'
'dishwater_'
'dishes'
'disguised_'
'discussing_'
'disc'
'disabilities_'
'director_'
'dipping_'
'dinneri_'
'diminish_'
'dimensions_'
'dilapidated_'
'differed_'
'diem_'
'dice_'
'diabolical_'
'dh'
'dfw_'
'devoted_'
'devine_'
'detraction_'
'deteriorate_'
'detail'
'desperation_'
'desktop_'
'designs_'
'desert'
'deposits_'
'depleted_'
'dense_'
'demonstrated_'
'demographic_'
'delightfully_'
'delicious'
'delicacies_'
'delic'
'delegate_'
'del'
'dei'
'degraded_'
'deg'
'defrosted_'
'deflated_'
'definitly_'
'defines_'
'defects_'
'decrepit_'
'decreased_'
'decorate_'
'decor'
'debate_'
'deafening_'
'dbreakfast_'
'db'
'daz'
'dayswe_'
'daysthe_'
'dayso_'
'dayo'
'daybreakfast_'
'das_'
'darkened_'
'dan_'
'dampener_'
'czk_'
'cycled_'
'cus'
'curtains'
'curiously_'
'curiosity_'
'cured_'
'cupcakes_'
'cultures_'
'ctually_'
'crusty_'
'crush_'
'crowdedi_'
'crowd'
'crow'
'crossing_'
'crook'
'crocodile_'
'croatia_'
'crisis_'
'crieff_'
'credentials_'
'craving_'
'crashed_'
'cranberry_'
'crackling_'
'coventry_'
'count'
'costco_'
'cos'
'corridor'
'corre'
'cork_'
'copied_'
'cope'
'cool'
'cooked'
'convience_'
'controller_'
'contra'
'conta'
'consolation_'
'considera'
'conservative_'
'conrads_'
'connects_'
'coni'
'congestion_'
'confirms_'
'conf'
'condemned_'
'cond_'
'concur_'
'concorde_'
'conce'
'complimented_'
'completion_'
'complete'
'complemented_'
'complacent_'
'communicated_'
'commanding_'
'coma'
'columbus_'
'colourful_'
'collins_'
'collapsed_'
'coleslaw_'
'coi'
'coex_'
'coded_'
'coco_'
'cobwebs_'
'co'
'clueless_'
'clubroom_'
'clubhouse_'
'clubb'
'closures_'
'clos'
'clock'
'cling_'
'clicked_'
'cli'
'classification_'
'clar'
'cl'
'cking_'
'cked_'
'civilized_'
'citi'
'cis'
'circumstance_'
'chy_'
'chunk_'
'chuck'
'chop'
'choose'
'choicewe_'
'choicethis_'
'choicethere_'
'choicebreakfast_'
'chip'
'chiller_'
'chill'
'chile_'
'chicken'
'chic'
'ches'
'chemicals_'
'chees'
'checkout'
'cheapish_'
'chauffeur_'
'chat'
'charter_'
'chart_'
'charm'
'chargable_'
'chant'
'challenges_'
'chablis_'
'certificates_'
'certain'
'ceo'
'centerparcs_'
'cent'
'cells_'
'celery_'
'cease_'
'ce'
'cds_'
'cc'
'caveats_'
'cavalieri_'
'category'
'cate'
'catch'
'cata'
'casually_'
'cast'
'casserole_'
'casablanca_'
'carrier_'
'carparking_'
'cards'
'carb_'
'caramel_'
'canne'
'canals_'
'cana'
'calorie_'
'cally_'
'cali'
'calculate_'
'cai'
'caf'
'cabo_'
'cab'
'bygone_'
'butyou_'
'butvery_'
'butts_'
'buts'
'butonly_'
'buton'
'butmy_'
'bute'
'busses_'
'buns_'
'bun'
'bull'
'build'
'bui'
'buggies_'
'buffets'
'bud_'
'buck'
'buc'
'bt'
'bsolutely_'
'broth_'
'broken'
'broader_'
'brittania_'
'brighten_'
'brief'
'brewery_'
'brew_'
'bretagne_'
'breath'
'breakie_'
'breakfats_'
'breakfastth'
'breakfastst'
'breakfastg'
'breakfasted_'
'break'
'brave_'
'brass_'
'boxy_'
'bourne_'
'bour'
'bottle'
'bothers_'
'bos'
'boring'
'booklet_'
'bonuses_'
'bol'
'body'
'bo_'
'bluetooth_'
'blot_'
'bles_'
'blends_'
'blended_'
'bkfst_'
'bitt'
'biti'
'bis'
'biryani_'
'bir'
'billion'
'bic'
'bias_'
'bi'
'bh'
'bet'
'bespoke_'
'bes'
'bergen_'
'bent_'
'bene'
'bemused_'
'behave_'
'begun_'
'beg'
'beau'
'bea'
'be'
'bc'
'bbe'
'bbc1_'
'bathrooms'
'batch_'
'bat'
'basis'
'basins_'
'bas'
'barren_'
'barked_'
'bargin_'
'bargain'
'bara'
'bank'
'baking_'
'bah'
'badge_'
'backpacker_'
'bacardi_'
'bacara_'
'awfull_'
'awareness_'
'avoid'
'avery_'
'averagely_'
'ave'
'avarage_'
'av'
'aut'
'australia'
'attribute_'
'attic_'
'attentiveness_'
'attentive'
'attack_'
'atl'
'ation'
'atic_'
'athroom_'
'athletic_'
'asu'
'asthma_'
'assign_'
'assi'
'ass'
'asiate_'
'asians_'
'articles_'
'arn'
'arm'
'arge_'
'arch_'
'aquarium_'
'apportioned_'
'apper'
'appa'
'api'
'anyplace_'
'antonio_'
'antly_'
'annoying'
'anna_'
'ank_'
'ank'
'ani_'
'andyes_'
'andwas_'
'andw'
'andstayed_'
'andrew_'
'andrestaurant_'
'andre'
'andonly_'
'andnice_'
'andne'
'andma'
'andiamo_'
'andhotel_'
'andgreat_'
'andb'
'ancy_'
'anchovies_'
'anchorage_'
'ams'
'amp'
'ami_'
'american'
'amenities'
'amaze_'
'although'
'alls_'
'alli'
'aligned_'
'ald'
'alca'
'albert_'
'aksum_'
'akfast_'
'ake'
'ak_'
'aj'
'airplanes_'
'aiport_'
'agu'
'agent'
'againhad_'
'againa_'
'ag'
'affairs_'
'af'
'aerobics_'
'advi'
'advertisements_'
'adverse_'
'advantageous_'
'adult'
'ads_'
'adore_'
'adaptors_'
'adam_'
'aco'
'acknowledging_'
'aci'
'achiev'
'accra_'
'abused_'
'above'
'abound_'
'abo'
';'
':) _'
'9am_'
'950_'
'92'
'84'
'77'
'76'
'5m'
'5h'
'5d'
'5a'
'560_'
'50s_'
'4we_'
'4stars_'
'480_'
'48'
'47'
'440_'
'430'
'415_'
'407_'
'37th_'
'370_'
'350'
'345_'
'330'
'329_'
'315_'
'304_'
'2nights_'
'288_'
'24hour_'
'220'
'217_'
'20pm_'
'208_'
'1995_'
'1911_'
'189'
'176_'
'173_'
'156_'
'153_'
'143_'
'140'
'13th_'
'134_'
'127_'
'121_'
'113_'
'103_'
'100s_'
'/- _'
'.... _'
'.. '
'.)_'
',,_'
'+ '
'* , _'
'" '
'!!'
' … .._'
' ”_'
' ” ( _'
' ¥ _'
' ` '
' ? ? ) _'
' ? ..._'
' .~ _'
' .> _'
' ............ _'
' ...., _'
' ... ?_'
' ... $ _'
' ... !_'
' .., _'
' .* , _'
' .* * '
' .) _'
' ." ( _'
' -'
' , “ _'
' + ) _'
' + $ _'
' * ) _'
' ) , '
' ( ? ) ._'
' ( + _'
' ( & _'
' ('
' ' .'
' $ ) _'
' ! )'
'•_'
'”'
'’ _'
'‘_'
'ü'
'~ _'
'zzi_'
'zy_'
'zoo'
'zer_'
'zar'
'yth'
'youwe_'
'youths_'
'youa'
'york'
'yon'
'yd'
'yc'
'ybe_'
'yavapai_'
'yand_'
'yal'
'y1'
'x1'
'ww_'
'wristbands_'
'wri'
'wrangler_'
'wowcher_'
'worthit_'
'wort'
'worldi'
'workwe_'
'word'
'woo_'
'woo'
'wonder'
'wk'
'wither'
'withdrawn_'
'withdraw'
'witha'
'wit'
'wipes_'
'windows'
'winchester_'
'wii_'
'wifithis_'
'wifiit_'
'wifes_'
'widest_'
'widespread_'
'wick'
'why'
'whip'
'whining_'
'whichever_'
'whic_'
'whcih_'
'wetherspoon_'
'wether_'
'wet'
'wern'
'werethe_'
'went'
'wen'
'wellwe_'
'wells'
'wellbut_'
'welcomes_'
'welcome'
'weight'
'wei'
'weekthe'
'weeki_'
'weekendthe_'
'weeds_'
'weed_'
'wedding'
'wears_'
'wear'
'weakthe_'
'wav'
'waterview_'
'waterside_'
'waters'
'waterford_'
'wass'
'washrooms_'
'wasd'
'warmer'
'walgreens_'
'waiver_'
'waitrose_'
'waiti_'
'wail'
'wai'
'wagyu_'
'wad'
'vue_'
'vrbo_'
'voucher'
'voluntary_'
'voip_'
'vl'
'viva'
'visiti'
'visibility_'
'visi'
'virtual_'
'villages_'
'villa'
'viewthe_'
'viewi'
'vid'
'vi_'
'verve_'
'verti'
'vert'
'vers_'
'verde_'
'venti'
'vent'
'venerable_'
'vendor_'
'vegetation_'
'veer'
'vea'
'vd'
'vati'
'vases_'
'var_'
'vamp_'
'valueso_'
'valueit_'
'vale_'
'vag'
'vacu'
'vacationi'
'vacated_'
'vacate_'
'vable_'
'uve'
'utive_'
'usual'
'ust'
'urs_'
'urprisingly_'
'urni'
'uring_'
'urf'
'uplifting_'
'uple'
'upcharge'
'upa'
'unwatchable_'
'untill_'
'until'
'unsuspecting_'
'unsurprisingly_'
'unsupervised_'
'unruly_'
'unpre'
'unplanned_'
'unpersonal_'
'unparalleled_'
'unp'
'unor'
'unmade_'
'uninterrupted_'
'uniformly_'
'uni_'
'unhurried_'
'ung_'
'unfi'
'unf'
'unexplained_'
'uneatable_'
'uneasy_'
'unduly_'
'underwear_'
'underw'
'understands_'
'underlying_'
'underhand_'
'undergo_'
'underdone_'
'unda'
'uncontrollable_'
'uncomplicated_'
'uncomfortable'
'unco'
'uncleared_'
'unch_'
'uncaring_'
'unassuming_'
'unanswered_'
'ums_'
'umb'
'uli'
'ule'
'uit'
'ui_'
'ught_'
'ught'
'ug_'
'uf'
'ues_'
'udi'
'ude'
'typing_'
'twice'
'tvs'
'tus'
'ture'
'tuning_'
'tun'
'tumble_'
'tty_'
'tsa'
'trysting_'
'truthfully_'
'troubling_'
'troubles_'
'trolleys_'
'tripand_'
'tripadviser_'
'trio'
'triggered_'
'tribute_'
'triangle_'
'trekking_'
'travelo'
'travellers'
'traveller'
'travelers'
'trappings_'
'transmission_'
'translate_'
'transfered_'
'trans'
'trams_'
'trailfinders_'
'trai'
'trafalgar_'
'tradewinds_'
'trace_'
'tp'
'toyota_'
'toy_'
'tou'
'totalling_'
'torrential_'
'toom'
'tongue_'
'tomatoe_'
'toil'
'together'
'tog'
'tod'
'toc'
'toby_'
'tley_'
'tivoli_'
'tings_'
'tine_'
'tine'
'timings_'
'timewe_'
'timep'
'timeno'
'timeless_'
'timea'
'tilted_'
'tile'
'tikka_'
'thurs_'
'thumb_'
'throwback_'
'through'
'thrilling_'
'threatened_'
'thread'
'thre_'
'thre'
'thoughth'
'thou'
'thompson_'
'thisbreakfast_'
'thinner_'
'things'
'thingi'
'thingbut_'
'thief_'
'thethe_'
'these'
'thermostats_'
'therebreakfast_'
'therea'
'theatres_'
'thea'
'thatwe_'
'thatbut_'
'thatb'
'thata'
'thali_'
'thailand'
'tha_'
'tether_'
'terre'
'termin'
'teriyaki_'
'tered_'
'tera'
'teppanyaki_'
'tep'
'tempt_'
'tempered_'
'temperature'
'tele'
'technogym_'
'teaspoons_'
'tears_'
'teach'
'teabag_'
'td'
'tch'
'tasks_'
'tartare_'
'tartar_'
'tart'
'tarrif_'
'tara_'
'tape'
'tandoori_'
'tand'
'tallinn_'
'tallahassee_'
'take'
'tahitian_'
'tabs_'
'tablew'
'tablethe'
'tablei'
'tablecloths_'
'syn'
'swivel_'
'switch'
'sweater_'
'swayed_'
'swanston_'
'sw_'
'suspicion_'
'suspected_'
'surr'
'surge_'
'surf'
'sureif_'
'supports_'
'suppliers_'
'supervised_'
'superst'
'sunt'
'sunroute_'
'sunglasses_'
'sund'
'sunborn_'
'sumpt'
'summari'
'sullen_'
'sukhumvit_'
'sufficed_'
'suede_'
'succeeds_'
'suc'
'submitted_'
'stv_'
'stumbled_'
'structures_'
'stripping_'
'stripe'
'stri'
'stretches_'
'streets'
'strangest_'
'strain_'
'storms_'
'stomach'
'stocking_'
'stockholm'
'stirling_'
'stipulated_'
'stip'
'stinking_'
'stink_'
'stil_'
'stil'
'stick'
'sthey_'
'sthere_'
'sters_'
'steeply_'
'steeper_'
'steaming_'
'steam'
'stead_'
'staywell_'
'staythey_'
'stayth'
'staystayed_'
'staysa'
'stayon'
'stayo'
'stayif_'
'stayhowever_'
'stayhad_'
'staygreat_'
'stayfor_'
'stayf'
'staybe'
'statues_'
'statue_'
'starthis_'
'starsbut_'
'stari'
'starbucks'
'staples_'
'standby_'
'standardthe_'
'standardised_'
'standardand_'
'standar'
'standalone_'
'stairwells_'
'stair'
'stai'
'staggeringly_'
'staffwe_'
'staffthis_'
'staffg'
'stadtpark_'
'sses_'
'sse'
'ssa_'
'sre'
'squid_'
'squeezy_'
'squea'
'spu'
'sprinkle'
'springfield_'
'spri'
'sporadically_'
'spoon'
'spontaneously_'
'sponsored_'
'spon'
'spoiler_'
'spiders_'
'spi'
'spg'
'spend'
'spencer_'
'spectacularly_'
'specialthe_'
'speak'
'spaw'
'spades_'
'spacing_'
'spabut_'
'spaa'
'sourdough_'
'soundproof'
'sothe_'
'sorryi_'
'sone_'
'somewhere'
'somerset_'
'solv'
'solidly_'
'solar_'
'sol'
'soiled_'
'sofitel'
'sod'
'soc'
'sobe'
'snorkel_'
'sne'
'snagged_'
'snafu_'
'sms_'
'smi'
'smallthe_'
'smalls'
'sly_'
'sloww'
'slight'
'slieve_'
'sleepthis_'
'sleepn'
'sleepd'
'sleepbut_'
'slap_'
'skyr_'
'skye_'
'skins_'
'skim_'
'skies_'
'ske'
'skating_'
'skates_'
'sk_'
'sk'
'sixt'
'sittings_'
'siting_'
'sis'
'sincere_'
'simultaneously_'
'simple'
'silicone_'
'sidew'
'sic'
'sia'
'shuffled_'
'shrugged_'
'shoving_'
'shout'
'shoots_'
'shoot_'
'sho'
'shly_'
'shivering_'
'shing_'
'shinagawa_'
'shin_'
'shee'
'shar'
'sham_'
'sham'
'shabbiness_'
'sewing_'
'sever'
'ses'
'serviceoverall_'
'seperately_'
'separation_'
'sep_'
'sentence_'
'sensors_'
'sensi'
'sensatori_'
'sen'
'semi'
'sem'
'selfish_'
'sees_'
'secrets_'
'seatac_'
'seal'
'scuba_'
'screened_'
'screech'
'scrapped_'
'scrape'
'score'
'schm'
'schi'
'sche'
'sceptical_'
'scenes_'
'scan'
'scaffold'
'sca'
'savouries_'
'savi'
'savera_'
'sav'
'saucers_'
'satisfies_'
'sata'
'santiago_'
'sanitary_'
'sang'
'sandwich'
'sandpearl_'
'samp'
'samey_'
'salv'
'salts_'
'salmon'
'sall_'
'sai'
'sahara_'
'saggy_'
'sagging_'
'saga'
'sable_'
'sa'
'ryi'
'rve'
'russell_'
'rumbling_'
'rumble_'
'rum'
'ruins_'
'rude'
'rub'
'rre'
'rp_'
'rows_'
'rous'
'rough'
'roti_'
'roth_'
'rost'
'rosettes_'
'rosemont_'
'roomwh'
'roomwas_'
'roomsoverall_'
'roomsok_'
'roomso'
'roomsi'
'roomno_'
'roomm'
'rooml'
'roomier_'
'roomha'
'roomfood_'
'roombe'
'rooftops_'
'roof'
'ront'
'rom'
'rol'
'rod'
'rocky_'
'rockliffe_'
'rockies_'
'roadtrip_'
'road'
'rm1'
'rive_'
'rivaled_'
'ritual_'
'risk'
'riser_'
'ripp'
'ripoff'
'rinks_'
'rigid_'
'ried_'
'richmond_'
'ria'
'rhin'
'rey_'
'rewarding_'
'reverberate'
'returne'
'returna'
'retirement_'
'retains_'
'retaining_'
'result'
'resti'
'restauranto'
'respect'
'residences_'
'reside'
'reservation'
'resa'
'rer'
'required'
'reputed_'
'repro'
'replacements_'
'repacking_'
'repack_'
'renovation'
'remodelling_'
'remodelled_'
'remo'
'relish_'
'religious_'
'reli'
'relati'
'relate_'
'rej'
'reinvest'
'reindeer_'
'regulation_'
'regi'
'reg'
'refuge_'
'refu'
'refresh'
'refinement_'
'reethi_'
'rees_'
'reduces_'
'redmonds_'
'rect'
'recommendthe_'
'recommen'
'recom'
'recogniz'
'recliner_'
'reckon'
'recharging_'
'reat'
'reasons'
'reasonal'
'reasonablew'
'reali'
'reaaly_'
'rda'
'rattles_'
'rats_'
'ratingthe_'
'rap_'
'rance_'
'ram'
'raises_'
'rainshower_'
'rail'
'raid_'
'rag'
'radis'
'racke'
'rab'
'quint'
'quet'
'quays_'
'quate_'
'qualityi'
'qualityand_'
'qual'
'quadr'
'quad_'
'qantas_'
'pyramid_'
'py'
'pursue_'
'puri'
'puree'
'punched_'
'pulls_'
'pul'
'pudong_'
'pud_'
'psych'
'pseudo_'
'ps'
'pru'
'providence_'
'proves_'
'propped_'
'propertyit_'
'propertiesthe_'
'proper'
'proo'
'pronounced_'
'prompt'
'prom'
'prohibit'
'profitable_'
'product'
'proce'
'probl'
'probably'
'probab'
'prized_'
'privileged_'
'principally_'
'prima'
'priciest_'
'priceywe_'
'priceyw'
'priceya'
'pricew'
'priceso'
'pricesh'
'pricepoint_'
'pricenot_'
'pricei'
'priceh'
'pricedthe_'
'pric'
'prevents_'
'prevails_'
'prevail_'
'prev'
'pretense_'
'presum'
'preserve_'
'prese'
'prepaying_'
'preparations_'
'prep'
'premis'
'premade_'
'prefers_'
'pref'
'preci'
'prec'
'prea'
'powerpoints_'
'potions_'
'poss'
'posada_'
'portray_'
'portioned_'
'portal_'
'port'
'por_'
'poolso_'
'poole'
'poolbut_'
'pooland_'
'pompous_'
'pomp'
'pom'
'politic'
'polis_'
'poles_'
'pointi_'
'pointe_'
'podium_'
'pocket'
'pmthe_'
'plumbed_'
'plugging_'
'plug'
'plonk_'
'plesantly_'
'plen'
'pleaseda'
'platinums_'
'placewe_'
'pl_'
'pizza'
'piti'
'pin'
'pillows'
'pigeon_'
'pied_'
'picturesque_'
'pickles_'
'pickled_'
'pickle_'
'phoning_'
'pho'
'phe'
'pha'
'ph_'
'pest'
'pes'
'personit_'
'perr'
'permit_'
'periodic_'
'perform_'
'perc'
'pepper'
'pent_'
'pent'
'penne_'
'peking_'
'pei'
'peg'
'peep_'
'ped'
'peckish_'
'pealing_'
'peak'
'pb'
'pavillon_'
'pavillion_'
'pause_'
'paucity_'
'patt'
'patronize_'
'patronising_'
'patisserie_'
'paths_'
'patched_'
'pastries'
'pastel'
'pastas_'
'passion'
'party'
'parliament_'
'parki'
'parka'
'pared_'
'paramount_'
'panwa_'
'panelling_'
'paned_'
'pall'
'palace'
'pajamas_'
'pairs_'
'pain'
'paid'
'pai'
'pac'
'pablo_'
'overwhelm'
'overused_'
'overstuffed_'
'oversold_'
'overpricedand_'
'overloaded_'
'overload_'
'overi'
'overhyped_'
'overcrowding_'
'overcast_'
'overbearing_'
'overally_'
'outwe_'
'outstanding'
'outso_'
'outrigger_'
'outraged_'
'outrage_'
'output_'
'outpost_'
'outp'
'outfitted_'
'outfit_'
'outb'
'ouse_'
'oun'
'othersi'
'ote_'
'ota'
'ostensibly_'
'oscars_'
'orwe_'
'oro'
'orn'
'orm_'
'orm'
'ork_'
'ork'
'ori_'
'organize_'
'orb'
'oran'
'optionso'
'optionit_'
'optioni_'
'opi'
'ope'
'opa'
'oozed_'
'oooo'
'oomph_'
'ool'
'onto'
'ono'
'onethe_'
'oned_'
'oms_'
'omm'
'omani_'
'omaha_'
'oma'
'olympia_'
'olu'
'olo'
'oliv'
'oko'
'okey_'
'oke_'
'okb'
'oka_'
'oint'
'oiled_'
'ohare_'
'ofo'
'ofit_'
'offs'
'offputting_'
'offi_'
'offerred_'
'offended_'
'offend_'
'oda'
'occasions'
'obscure_'
'oblige_'
'objecti'
'obic'
'obe'
'nyway_'
'nutella_'
'nut'
'nur'
'num'
'nuggets_'
'ntl'
'ntal_'
'nsive_'
'nowa'
'novotel'
'nouvelle_'
'nou'
'notorious_'
'notebook_'
'nosy_'
'nostalgic_'
'northe'
'north'
'nooks_'
'noo'
'nons'
'nonrefundable_'
'nominally_'
'nom'
'noisei_'
'noiseb'
'noc'
'nitpicking_'
'nities_'
'nished_'
'nis'
'nio'
'ninety_'
'nine'
'nil_'
'nightwould_'
'nightst'
'nightp'
'nighto'
'nightno_'
'nightfor_'
'nif'
'nies_'
'nie_'
'nie'
'niceties_'
'nicethere_'
'niceth'
'niceo'
'nib'
'nha'
'ngthe_'
'ngorongoro_'
'ngi'
'ngb'
'nex'
'nestly_'
'nero_'
'nephew_'
'nent'
'nem'
'nell'
'neig'
'nei'
'negotiating_'
'negated_'
'nearing_'
'ndo'
'nder'
'nded_'
'nda_'
'nda'
'nces_'
'nce'
'ncaa_'
'nb_'
'nautical_'
'nati'
'nas'
'narrower_'
'nan_'
'nai'
'naan_'
'myth'
'mysteriously_'
'mysterious_'
'myriad_'
'musicians_'
'music'
'museli_'
'munchies_'
'muchbut_'
'mpw_'
'mou'
'motorized_'
'motivated_'
'mothers_'
'morrison_'
'morningwe_'
'morningo'
'morningbreakfast_'
'morningand_'
'mores_'
'mop'
'moor'
'monty_'
'monterey_'
'monte'
'monitors_'
'moni'
'moneya_'
'monarch_'
'moisture_'
'moder'
'mna'
'mmmmm_'
'mming_'
'mme'
'mit'
'mistakenly_'
'mishaps_'
'miscommunication_'
'misc'
'minu'
'minority_'
'minibus_'
'minbar_'
'mille'
'milestones_'
'mild'
'milan'
'mil'
'midway_'
'middle'
'mich'
'mic_'
'mgallery_'
'mezz'
'metropol'
'methere_'
'methe'
'meta'
'messe_'
'mersey_'
'mercure'
'merce'
'merc'
'menui'
'mention'
'menti'
'mend_'
'memorabilia_'
'memberthe_'
'memberi_'
'meli'
'mela_'
'meit_'
'meeting'
'medi'
'med'
'mech'
'mebreakfast_'
'means'
'md_'
'mbo'
'mbe'
'maya'
'maximize_'
'math_'
'mates_'
'mate'
'match'
'mat'
'masse'
'masculine_'
'martin_'
'mars_'
'marriotti_'
'marriage_'
'mari'
'mare_'
'marc'
'manu'
'mant'
'mani'
'mang'
'management'
'mall'
'makemytrip_'
'majorly_'
'mainten'
'maintained'
'mai'
'maha'
'magellan_'
'maddening_'
'machine'
'macaroni_'
'lys'
'lyn'
'lute'
'lump'
'lty_'
'lt_'
'lsi'
'lows_'
'loungew'
'lounges'
'louis'
'lord_'
'loosing_'
'longe'
'locationthe_'
'locality_'
'lobbywe_'
'lobbythis_'
'lobbythe_'
'lobbybreakfast_'
'lob'
'ln'
'lly'
'lling_'
'lla'
'll'
'livingstone_'
'liver_'
'lities_'
'lit'
'listi'
'list'
'lised_'
'liqueur_'
'lip'
'lineup_'
'lincoln_'
'limes'
'lighthouse_'
'licking_'
'lian'
'lia'
'lgw_'
'lf'
'lest_'
'les'
'lers_'
'lenox_'
'len'
'leis_'
'legitimate_'
'lecture_'
'leasure_'
'leaned_'
'lean'
'lb'
'laze_'
'laz'
'layouts_'
'law'
'lava_'
'laura_'
'launch_'
'laugh'
'lati'
'later'
'lass_'
'lap'
'landings_'
'lake'
'lai_'
'lady'
'lac'
'kota_'
'kon'
'kok'
'knocks_'
'knobs_'
'kna'
'kling_'
'kle_'
'kla'
'kl'
'kiwi_'
'kitsch_'
'kipper_'
'kinzie_'
'kins'
'kin_'
'kimo'
'kim'
'kiln_'
'kidsi'
'kho'
'kg_'
'kettle'
'kers_'
'kenn'
'kell'
'kebabs_'
'kb_'
'kayaks_'
'kandalama_'
'kakadu_'
'kab'
'kaanapali_'
'jw'
'justifying_'
'jumper_'
'juice'
'jugs_'
'joy'
'journeys_'
'jordan_'
'joking_'
'joh'
'job'
'jewel_'
'jetlag_'
'jen'
'jee'
'ject'
'jd_'
'jaw_'
'java_'
'jane'
'jal'
'jac'
'ja_'
'iv'
'iu'
'itvery_'
'itst'
'itself'
'ithe'
'itfood_'
'itc'
'isn_'
'isl'
'irritatingly_'
'irritates_'
'irregular_'
'irre'
'irony_'
'irked_'
'ipe'
'ioni'
'involves_'
'investments_'
'inver'
'inventive_'
'invaded_'
'intri'
'interval_'
'interneti'
'interfere_'
'intere'
'intercontinentals_'
'intercontinental'
'intercon'
'interactions_'
'interact_'
'integrated_'
'insure_'
'insulted_'
'insti'
'insta'
'insight_'
'inserted_'
'insert_'
'inoperative_'
'inlcuded_'
'inl'
'ining_'
'ingwe_'
'ingo'
'ingbut_'
'inga'
'influx_'
'inflat'
'ines_'
'indis'
'indians_'
'indi'
'incre'
'inconvenience'
'inconsistencies_'
'includedo'
'incheon_'
'ince_'
'inal_'
'inaccessible_'
'impressive'
'impresseda'
'imposed_'
'implemented_'
'impact'
'immigration_'
'imm'
'imitation_'
'iment_'
'ilton_'
'ille'
'illa_'
'ike'
'ihop_'
'ihc_'
'ige'
'ided_'
'ideal'
'icu'
'ici'
'icecream_'
'ibu'
'iat'
'ially_'
'hyde_'
'hwa'
'hurrah_'
'hurr'
'hur'
'hungary_'
'hug'
'hter'
'hould_'
'hoto'
'hotle_'
'hotelyou_'
'hotelss'
'hotelsp'
'hotelsand_'
'hotelour_'
'hotelno'
'hotelm'
'hotelin'
'hotelhad_'
'hotelfr'
'hoteleverything_'
'hotelat_'
'hotelalso_'
'hospitality'
'hospital'
'honeymoon'
'homew'
'homestead_'
'homes_'
'homeo'
'holl'
'holidaysthe_'
'holidaying_'
'hold'
'hol_'
'hoe'
'hobart_'
'hob'
'hoa'
'ho'
'hkd1'
'his'
'hipper_'
'hip'
'hio'
'hinges_'
'hind'
'hiltons'
'hiltona'
'hight'
'highspeed_'
'highs_'
'highi_'
'hick_'
'hf'
'hesitated_'
'hes'
'herself_'
'heri'
'hereha'
'herefor'
'herebreakfast_'
'herb_'
'helicopter_'
'hee'
'hect'
'heats_'
'heath'
'hear'
'heap_'
'headquarters_'
'hc'
'hau'
'hatt'
'hates_'
'hastily_'
'harvey_'
'harshly_'
'harm_'
'harge'
'hare'
'har_'
'hapuna_'
'hant'
'hank'
'handrail_'
'handing_'
'handbasin_'
'hana'
'hamp'
'hamm'
'hame_'
'hall'
'half'
'hal_'
'hairdryers_'
'hai'
'haggling_'
'hadthe_'
'h10_'
'gw'
'gut'
'gust'
'gurgling_'
'gurgled_'
'gum'
'guildford_'
'guil'
'guidance_'
'guestrooms_'
'growth_'
'grow_'
'grove_'
'grou'
'gritty_'
'grips_'
'grinding_'
'grin'
'grimy_'
'grill'
'greets_'
'greatand_'
'grated_'
'gram_'
'graci'
'graces_'
'gpi_'
'gp'
'gou'
'gothic_'
'goof'
'goodwo'
'goodwhen_'
'goodw'
'goodto_'
'goodr'
'goodp'
'goodl'
'goodin'
'goodas_'
'goodafter_'
'gondola_'
'goe'
'godsend_'
'gnocchi_'
'gni'
'gne'
'gna'
'glitter'
'gli'
'glazing'
'glass'
'glacial_'
'gir'
'giovan'
'gio'
'gig'
'gies_'
'gib'
'gi_'
'ghe'
'ghan'
'gey'
'geta'
'gently_'
'gentlemen_'
'gen_'
'gems_'
'gea'
'gazing_'
'gaug'
'gauche_'
'gatherings_'
'gated_'
'gate'
'gasp'
'gary_'
'garden'
'gam'
'galling_'
'galley_'
'galle'
'gall_'
'gale'
'gal_'
'gain'
'gab'
'fuse_'
'fus'
'furniture'
'fulness_'
'fulle'
'frustrations_'
'fruit'
'fronting_'
'frontage_'
'fringe_'
'frightening_'
'frig'
'friends'
'french'
'freaked_'
'frank'
'francisco'
'fragrance_'
'fp'
'forwards_'
'formica_'
'forgivable_'
'forgetting_'
'forget'
'forecourt_'
'forecast_'
'fora_'
'fora'
'foodwise_'
'foodstuffs_'
'foodo'
'font_'
'fondant_'
'fold'
'foggy_'
'fogg'
'fodder_'
'focuses_'
'focal_'
'focaccia_'
'fly'
'fluctuates_'
'flows_'
'flown_'
'flower'
'flop_'
'floorw'
'flock_'
'flip'
'flin'
'flights'
'fleet_'
'fleece_'
'flavoursome_'
'flavorless_'
'flash'
'flannels_'
'flaking_'
'flagged_'
'fitzwilliam_'
'fitout_'
'fishy_'
'fisher'
'firmness_'
'finicky_'
'finger'
'fineo'
'fineno'
'fined_'
'finea'
'finds_'
'filtration_'
'file'
'fibre_'
'fiancé_'
'fhr_'
'fetch_'
'feta_'
'ferries_'
'fer_'
'felt'
'feeth'
'feet'
'feared_'
'fc'
'favoured_'
'favola_'
'faultbut_'
'fasci'
'familythe_'
'factor'
'facillities_'
'facilitiesso_'
'facilitiesi'
'face'
'fac'
'eyewatering_'
'exude_'
'extrem'
'extras'
'extrai'
'extort'
'exte'
'expo'
'exploration_'
'exploiting_'
'exploited_'
'expesive_'
'expertise_'
'expert_'
'experiencevery_'
'experienceso_'
'experienceb'
'experien'
'expensivewe_'
'expensives'
'expensiveoverall_'
'expensivee'
'expecti'
'expectedly_'
'expectation'
'expecially_'
'expats_'
'expand_'
'exits_'
'exhibitions_'
'exhaustion_'
'exe'
'exclude_'
'excercise_'
'excels_'
'excellents'
'excelle'
'exce'
'ewe'
'ew'
'evry'
'evi'
'everywhere'
'evertheless_'
'eveningw'
'eveningthe_'
'evacuate_'
'etiquette_'
'ethiopian_'
'etch'
'eta'
'eswe_'
'esta'
'essa'
'espa_'
'eso'
'escaping_'
'escaped_'
'erthe_'
'ert'
'erri'
'eros_'
'erawan_'
'equi'
'ep_'
'eous_'
'entr'
'enticed_'
'enthusiasts_'
'enthusiast_'
'entails_'
'enta'
'ensued_'
'enlarge'
'enjoyable'
'engagement_'
'enf'
'ener'
'enemy_'
'endi'
'ency'
'enclave_'
'ence'
'enc'
'emitted_'
'emergencies_'
'ements_'
'embar'
'emailing_'
'elysian_'
'els'
'elon'
'eliminated_'
'elevators'
'elevate_'
'elephants_'
'electronically_'
'eld_'
'ein'
'eho'
'ega'
'effective'
'eem'
'edso_'
'edn'
'edin'
'edi_'
'edge'
'edand_'
'eau_'
'easyjet_'
'eas_'
'earth'
'earls_'
'ean_'
'eagles_'
'ead'
'eable_'
'e2'
'dy'
'dwi'
'duxton_'
'dut'
'dun'
'dumbfounded_'
'dul'
'dud_'
'ducts_'
'drums_'
'drowning_'
'droning_'
'driers_'
'dresden_'
'dreamliner_'
'drastically_'
'draped_'
'drakes_'
'downw'
'downthe_'
'downi'
'dow'
'dour_'
'doubted_'
'doubly_'
'doubling_'
'dos'
'doorwe_'
'doorthe_'
'doori_'
'doo'
'dominican_'
'dom'
'dollop_'
'doggie_'
'dm'
'dle'
'division_'
'divide_'
'dives_'
'dissapoint'
'disrupt_'
'disrespect_'
'dispiriting_'
'dispensing_'
'disi'
'discriminate'
'discretion_'
'discourage_'
'disconnect_'
'disaster'
'disappointingwe_'
'disappearing_'
'dirty'
'direct'
'dir'
'dio'
'dinosaur_'
'dinnerwe_'
'dinnerthe_'
'dings_'
'dinged_'
'ding'
'dimmed_'
'dimin'
'dimension_'
'digs_'
'difficu'
'difference'
'dhs_'
'dg'
'dfo'
'df'
'develop'
'detrimental_'
'detour_'
'detached_'
'design'
'dered_'
'demonstrate_'
'delusion'
'delphi_'
'definitley_'
'definatly_'
'def'
'deeper_'
'deduction_'
'decides_'
'decent'
'decay_'
'dealit_'
'ddle_'
'dayt'
'daysa'
'dayit_'
'dayand_'
'daya'
'daw'
'dav'
'dated'
'danube_'
'dampness_'
'damper_'
'damned_'
'dam'
'dale_'
'dakota_'
'cyprus_'
'cycling_'
'cuz_'
'customer'
'custard_'
'cushioned_'
'curtly_'
'curl'
'curio_'
'cuppa_'
'cupcake_'
'cum'
'cts_'
'cto'
'ctions_'
'ction'
'cting_'
'cry'
'crunch_'
'crud'
'crowns_'
'crowding_'
'critique_'
'crit'
'cringe_'
'cried_'
'crescent_'
'cremated_'
'creeping_'
'crat'
'crass_'
'crap'
'cranky_'
'cran'
'crafts_'
'coz_'
'cow'
'cove'
'courtyard'
'countdown_'
'cotta_'
'costthe_'
'costi'
'correspondingly_'
'corresponding_'
'correspond_'
'cornwall_'
'corkscrew_'
'corkage_'
'cords_'
'cordon_'
'coping_'
'coopers_'
'cooperative_'
'cooper_'
'cooker_'
'convinient_'
'contributions_'
'contradictory_'
'contradict'
'continental'
'continent'
'contin'
'conti'
'contend_'
'contacts_'
'consult'
'constructive_'
'consolidator_'
'conserve_'
'consensus_'
'cons'
'conned_'
'connectors_'
'congratulations_'
'cong'
'confess_'
'concoction_'
'conci'
'concessions_'
'compromising_'
'comprises_'
'comprehend_'
'compr'
'compounded_'
'composed_'
'complex'
'completing_'
'complement'
'competative_'
'compartment_'
'compari'
'commotion_'
'commonplace_'
'commodore_'
'commodity_'
'commode_'
'commit_'
'coml'
'comfortablei_'
'cologne_'
'collegues_'
'collegue_'
'collectively_'
'colle'
'collapse_'
'collage_'
'coke'
'coincided_'
'coffin_'
'coffeewe_'
'coffeee_'
'cofee_'
'coeliac_'
'cocoa_'
'cock'
'cob'
'coating_'
'coa'
'cnbc_'
'cluster_'
'clunking_'
'cloud'
'close'
'clinic_'
'cleveland_'
'clearance_'
'cleans'
'cleanl'
'cleaning'
'cleani'
'cleane'
'cleanb'
'clas'
'cityview_'
'citybox_'
'citron_'
'cit'
'circulate_'
'cigars_'
'cies_'
'cie'
'ci_'
'ci'
'chutney_'
'churning_'
'chun'
'chorizo_'
'chore_'
'chooses_'
'choked_'
'choiceso_'
'choi'
'choc_'
'chobe_'
'chips'
'chin'
'child'
'chiang_'
'chew'
'chen'
'cheltenham_'
'cheeseboard_'
'cheer_'
'cheep_'
'chatty_'
'charts_'
'charlotte_'
'charitable_'
'chari'
'charcoal_'
'chanced_'
'chance'
'chair'
'ceviche_'
'cerials_'
'cerial_'
'cer'
'cepti'
'centric_'
'centres_'
'central'
'centi'
'cen'
'cellphone_'
'cellent_'
'celebrations_'
'cedar_'
'cca'
'caviar_'
'cautious_'
'causes_'
'cau'
'cats_'
'cations_'
'catamaran_'
'cashews_'
'cas'
'carri'
'carpet'
'carmel_'
'cardiovascular_'
'carbon_'
'cara'
'cappuc'
'cao'
'canopy_'
'canopies_'
'candle'
'cancer_'
'canaries_'
'canapé_'
'came'
'cambodian_'
'camb'
'calmer_'
'cages_'
'caff'
'cafet'
'cafe'
'cabin'
'butto_'
'butthey_'
'butthat_'
'butpr'
'butm'
'butits_'
'butif_'
'buth'
'butexcellent_'
'butb'
'butas_'
'butal'
'businessi_'
'businessbut_'
'burritos_'
'burrito_'
'buried_'
'bureau_'
'bumpy_'
'bum_'
'bulky_'
'bugged_'
'buffetit_'
'buffering_'
'buff'
'budge_'
'budd'
'buckets_'
'bubbling_'
'brûlée_'
'bruised_'
'brooklands_'
'broc'
'broadway_'
'broadcast_'
'brisk_'
'brigade_'
'bridal_'
'bricks_'
'brick'
'bred_'
'breaky_'
'breakfat_'
'breakfastwo'
'breakfastwas_'
'breakfastt'
'breakfastp'
'breakfastb'
'breakfas'
'breakaway_'
'breaka'
'breadcrumbs_'
'brea'
'bravo_'
'brass'
'branches_'
'bran'
'brain'
'bradford_'
'boxing_'
'box'
'bow'
'bourbon_'
'bouncy_'
'bounce'
'boulders_'
'boul'
'bottomline_'
'bottomless_'
'both'
'bore'
'bordered_'
'boosted_'
'boon_'
'bookingthis_'
'boo_'
'bonus'
'bonn_'
'bonkers_'
'boisterous_'
'boggles_'
'boca_'
'bobs_'
'boardwalk_'
'bm'
'blvd_'
'blunt_'
'blue'
'blow'
'blooms_'
'blond_'
'blog_'
'block'
'bloc_'
'blobs_'
'blissful_'
'blink_'
'bli'
'blessed_'
'bldg_'
'blanc'
'bkf_'
'biz'
'bite'
'birthdays_'
'bintan_'
'bik'
'bijou_'
'bicycle_'
'biased_'
'bettera'
'bett'
'bethe_'
'bert'
'benefited_'
'ben_'
'below'
'bellevue_'
'belle_'
'beit_'
'behold_'
'begrudge_'
'beggars_'
'beforethe_'
'bef'
'beeing_'
'beef'
'bedd'
'bedbugs_'
'bearings_'
'bayside_'
'bayshore_'
'bauer_'
'bathtubs_'
'bathroomand_'
'bathe_'
'basing_'
'bart_'
'barso_'
'barriers_'
'barrel_'
'barr'
'baro'
'bare'
'barc'
'barbut_'
'barbe'
'banter_'
'banquet'
'bann'
'bangs_'
'banff_'
'balloon_'
'balance'
'bail'
'bags'
'badthe_'
'badi'
'bada'
'backward_'
'backw'
'backup_'
'backpack_'
'backo'
'backache_'
'az_'
'az'
'ayn'
'awfuli_'
'aweful_'
'awe'
'awarding_'
'awake'
'avid_'
'averaging_'
'averagebut_'
'aven'
'avail'
'auto'
'authorise_'
'austrian_'
'aur'
'august'
'audience'
'audacity_'
'ature_'
'attire_'
'atthe_'
'attendee_'
'attend'
'atte'
'attain'
'ats'
'atrociously_'
'atory_'
'ato'
'atmos'
'athenaeum_'
'athe_'
'asylum_'
'astronomic_'
'assurance_'
'assignment_'
'assets_'
'assembly_'
'aspires_'
'aso'
'asically_'
'asi'
'ashtray_'
'asce'
'artemide_'
'arte'
'arranging_'
'arra'
'aroundi_'
'arma'
'arlanda_'
'arguments_'
'arei_'
'areast'
'arde'
'arctic_'
'arc_'
'ara'
'aps_'
'approach'
'appr'
'application_'
'appearances_'
'appartment_'
'appallingly_'
'app'
'apo'
'aph_'
'apartment'
'antigua_'
'anticipation_'
'ante_'
'ante'
'answer'
'ano_'
'annually_'
'announcements_'
'announcement_'
'anno'
'ann'
'ankle_'
'angus_'
'angel'
'aner'
'andwould_'
'andwh'
'android_'
'andfo'
'andeven_'
'andc'
'andbe'
'ancillary_'
'amthe_'
'amm'
'amin'
'amidst_'
'americas_'
'americano_'
'amended_'
'amenable_'
'ambivalent_'
'amazes_'
'alton_'
'altitude_'
'alt'
'alsos'
'allw'
'allowances_'
'allmy_'
'allit_'
'alland_'
'alittle_'
'align_'
'alexandria_'
'alco'
'alad'
'aking_'
'airline'
'aire'
'airbnb_'
'airb'
'ained_'
'ain'
'ahi_'
'aguas_'
'agreeing_'
'agi'
'agan'
'againso_'
'agains'
'againo'
'againh'
'againgot_'
'againd'
'againb'
'againal'
'aftertaste_'
'afterall_'
'afi'
'affordable'
'affordability_'
'affecting_'
'afe'
'aero'
'ae'
'advert'
'adr'
'ador'
'adopted_'
'admirable_'
'adit'
'address'
'adapt'
'acquire_'
'acoustic_'
'acknowledgment_'
'ack'
'aching_'
'account'
'accorhotels_'
'accommodates_'
'accomm'
'accident'
'accessing_'
'abruptly_'
'abouti'
'ablet'
'ables_'
'aberration_'
'abd_'
'aba'
'[_'
'? _'
':-)_'
':- '
': '
'94'
'9000_'
'79'
'747_'
'720_'
'6pm_'
'630am_'
'6000_'
'600'
'5x_'
'5f'
'5c'
'5breakfast_'
'59'
'57th_'
'57'
'530_'
'525_'
'50th'
'50m'
'50i'
'502_'
'4n'
'4a'
'490_'
'470_'
'416_'
'401_'
'3w'
'3s'
'39th_'
'390_'
'38'
'349_'
'30s'
'309_'
'2a'
'280'
'24x7_'
'2400'
'238_'
'224_'
'221'
'218_'
'211_'
'2100_'
'210'
'20usd_'
'20mins_'
'20e_'
'206_'
'204_'
'201_'
'2003_'
'2002_'
'1the_'
'1l_'
'1k_'
'1hr_'
'1985_'
'187_'
'181_'
'1800'
'177_'
'171_'
'161_'
'15mins_'
'152_'
'141_'
'137_'
'130'
'123_'
'111_'
'1030_'
'0900_'
'0700_'
'0630_'
'0600_'
'06'
'02'
'00hrs_'
'00a'
'/$_'
'/ '
'.-_'
'. '
'---'
'-- '
'--'
',(_'
', '
'++ .'
')-_'
')--_'
'( £ _'
'( $ _'
'( '
'('
'$. _'
'$+'
'!!!_'
'! )'
' … .. _'
' –'
' { _'
' @ £ _'
' ?" _'
' ? ? '
' ? , _'
' ? '_'
' ? " _'
' ? ! ) ._'
' = $ _'
' ;-)_'
' ;-) _'
' :-) ._'
' :-( ._'
' :* _'
' : “ _'
' .‘ _'
' .— _'
' .~'
' ........._'
' ............. _'
' .....'
' .... )_'
' .* * * * * '
' .* '
' .( £ _'
' .( '
' -- '
' -( _'
' , ” _'
' , , , _'
' + £ _'
' * , _'
' ) ; - _'
' ) :_'
' ) -'
' ( ~$_'
' ( ? _'
' ( ? ) , _'
' ( > '
' ( < _'
' ' ..._'
' ' . _'
' ' ) ._'
' ' '_'
' ''
' $_'
' " .. _'
' " .'
' " -_'
' " ) , _'
' " " _'
' !:'
' ! ..._'
' ! -_'
' ! ) ; _'
' ! !- _'
' ! ! ! ) ._'
' ! ! ! ) , _'
' ! ! ! ! ! _'
' ! ! !'
' ! ! '
'👎 '
'い'
'、_'
'—-'
'ño'
'ê'
'ée'
'å'
'zz_'
'zur'
'zu'
'zt'
'zle'
'zl_'
'zip_'
'zip'
'zest_'
'zer'
'zeal'
'zar_'
'zam'
'zabeel_'
'zab'
'ywa'
'yvery_'
'yv'
'yup_'
'yulara_'
'yuk'
'yuck_'
'yu_'
'ythere_'
'yt'
'yri'
'yra_'
'youn'
'youg'
'yorkthe_'
'yorks'
'yolks_'
'yob'
'yn_'
'yhe'
'yha'
'yeti_'
'yester'
'yer'
'yell_'
'yell'
'yearly_'
'yeari'
'ybreakfast_'
'yawn'
'yard'
'yama'
'yab'
'xx_'
'xter'
'xp'
'xl_'
'xes_'
'xecutive_'
'xa'
'x2_'
'wyoming_'
'wynn_'
'wrongbut_'
'wrappers_'
'wound'
'would'
'woul'
'woudl_'
'woth_'
'worthwile_'
'wortha'
'worsti'
'worm'
'worldthe_'
'worldc'
'workthe_'
'works'
'workplace_'
'workouts_'
'workman_'
'workbut_'
'worht_'
'wording_'
'woodland'
'wobble'
'wne'
'wn_'
'wn'
'wives_'
'witho'
'within'
'withi'
'withe_'
'wiset'
'winners_'
'wines'
'winding_'
'winc'
'william_'
'willi'
'willard_'
'wild'
'wifib'
'wife'
'wif_'
'wie'
'wicker_'
'whoop'
'whomever_'
'wholesale'
'white'
'whisper_'
'whiske'
'whis'
'whirl'
'whipped_'
'whing'
'whine_'
'whim'
'while'
'whet'
'wheezing_'
'wheeled_'
'wheelchairs_'
'whee'
'whar'
'whammy_'
'wetroom_'
'wethe_'
'westerner_'
'wered'
'welsh_'
'wellit_'
'wellbreakfast_'
'welcoming'
'weighed_'
'weav'
'weaker_'
'weak'
'wea'
'wd'
'waythe_'
'waw'
'watts_'
'waterway'
'watertable_'
'waterslides_'
'waterpr'
'watero'
'wateri_'
'waterfalls_'
'waterf'
'waterc'
'watch'
'wasthere_'
'wast'
'wasps_'
'wasp'
'waso'
'wasgood_'
'wasc'
'warrior_'
'warn'
'warmers_'
'wao'
'wand_'
'wallets_'
'walkers_'
'wal'
'waken'
'wak'
'waht_'
'wages_'
'waffle'
'waaay_'
'vy_'
'vy'
'vu_'
'voy'
'vot'
'vos'
'vor'
'von'
'vomiting_'
'volunt'
'voltage_'
'volcano_'
'volcan_'
'voil'
'voi'
'voca'
'vity_'
'vitale_'
'vital'
'visitors'
'visitng_'
'visa'
'virtuoso_'
'vir'
'violent_'
'violation_'
'violat'
'ving'
'vine'
'vinc'
'vinales_'
'vig'
'viewso'
'viewb'
'vibrate'
'viand'
'vf'
'vest'
'vessel_'
'ves'
'veryt'
'very'
'vertheless_'
'verse_'
'versailles_'
'verpriced_'
'vermont_'
'vere'
'verba'
'ventu'
'ventilat'
'venet'
'vela_'
'vege'
'vegas'
'vc'
'vaul'
'vation_'
'vate'
'varsity_'
'varq_'
'varietythe_'
'vani'
'vanderbilt_'
'vanda_'
'vana_'
'valuew'
'valuethis_'
'valuet'
'valuen'
'valuei'
'valuegood_'
'valuefo'
'valued'
'valueal'
'valuea_'
'validati'
'valid'
'vacancy_'
'uu'
'utt'
'utside_'
'utiliz'
'uth'
'usthis_'
'uss_'
'usp'
'usoverall_'
'usour_'
'user'
'usel'
'usefull'
'used'
'us1'
'urt'
'urr'
'urge'
'urg'
'uren'
'urc'
'urban'
'urant_'
'upward_'
'upper'
'upm'
'uper_'
'uous_'
'unvar'
'unti_'
'unthinkable_'
'unsuccessful'
'unserviced_'
'unscrupulous_'
'unsa'
'unrest'
'unrenovated_'
'unread'
'unpleas'
'unpalatable_'
'unpa'
'unoccupied_'
'uno'
'unne'
'unna'
'unlock_'
'unli'
'unit'
'uninv'
'uninte'
'uninspiring'
'unimportant_'
'unimaginabl'
'uniform'
'unhe'
'unge_'
'ung'
'unforgiveable_'
'unfold'
'unfo'
'unfla'
'unfamiliar_'
'unedible_'
'undone_'
'underwater_'
'undertaking_'
'undert'
'underst'
'underrated_'
'underp'
'underco'
'uncoo'
'uncomfy_'
'uncar'
'unbel'
'unbe'
'unba'
'unb'
'unav'
'unatt'
'unadventurous_'
'unad'
'umpteen'
'umi'
'ume'
'umber'
'umalu_'
'ulu'
'ulo'
'ull_'
'ulated_'
'ulat'
'ula'
'uka'
'uite'
'ugliest_'
'ugh'
'uga'
'ug'
'uded_'
'udaivilas_'
'uda'
'uck'
'ublic_'
'uble_'
'uat'
'uary_'
'uan'
'ually_'
'ual_'
'ua'
'u232_'
'typi'
'type'
'twist'
'twickenham_'
'twa'
'tvth'
'tuscany_'
'turnoff_'
'tulip_'
'tul'
'tui'
'tude_'
'tud'
'tubi'
'tub'
'tting_'
'tti'
'tte'
'truthful_'
'trust'
'trunk'
'trudge'
'trop'
'tripso_'
'trimmed_'
'trim_'
'tricks_'
'trick'
'tres'
'trendie'
'trend'
'treatments'
'treat'
'trea'
'tray'
'trat'
'trash'
'traps_'
'transpired_'
'transparency_'
'translates_'
'translated_'
'transit'
'transformation'
'transfer'
'tramp'
'trails_'
'trailer'
'traffic'
'tradi'
'tradeshow_'
'trad'
'toweling_'
'towel'
'tought'
'tougher_'
'total'
'tossing_'
'tos'
'toppers_'
'toothe'
'toooo_'
'tomo'
'tolietries_'
'tolerant_'
'tolerance_'
'tol'
'tok'
'togethers'
'toe'
'tob'
'toasty_'
'toastie_'
'tne'
'tj'
'tiv'
'tisfied_'
'tise'
'tis_'
'tional_'
'tiona'
'tinny_'
'timethe'
'timetable_'
'timet'
'timeshares_'
'timem_'
'timeframe_'
'timef'
'timeand_'
'tim_'
'tight'
'tiger_'
'tig'
'tiff'
'tidied_'
'tide_'
'ticket'
'tian_'
'thw'
'thud'
'tht_'
'throughput_'
'throbbing_'
'thro_'
'thrill_'
'threatening_'
'thr_'
'thoughi_'
'thoughh'
'thoughand_'
'thoroughfare_'
'thorough'
'thorn'
'thiswe_'
'thisso_'
'thisi'
'thisc'
'thirteen_'
'thirst_'
'thir'
'thinnest_'
'thinking'
'think'
'thingsbut_'
'thingand_'
'thig'
'thickly_'
'thew'
'thermo'
'therethere_'
'theres'
'thereno'
'therei'
'therego'
'therapist_'
'theni_'
'thembut_'
'thel'
'thames_'
'texts_'
'tex'
'testament_'
'ters_'
'terr'
'tension_'
'tending_'
'tenderloin_'
'temptation_'
'tempo_'
'temperaturethe'
'temp'
'tels_'
'teli'
'telford_'
'tele_'
'tei_'
'teenth_'
'techni'
'tech'
'tear'
'teak'
'tchi'
'tax'
'taurant_'
'tatin'
'tate'
'tat_'
'tastings_'
'tastethe'
'tast'
'tasman'
'targeted_'
'tard'
'tanning_'
'tami'
'tales_'
'takayama_'
'taka'
'taht_'
'tah'
'tagth'
'tagged_'
'tag'
'tables'
't3_'
't2_'
'syo'
'synonymous_'
'symptomatic_'
'symposium_'
'sympathetically_'
'sympathetic_'
'symbol'
'sydneythe_'
'swiping_'
'swimsuit'
'swimmer_'
'swill'
'sweated_'
'swb_'
'swamp_'
'swallowed_'
'sv'
'suv_'
'sustainability_'
'sustaina'
'survives_'
'surreal_'
'surprising'
'surpise'
'surp'
'surmise_'
'surfcomber_'
'surei'
'support'
'supplementary_'
'supers'
'superm'
'superfluous_'
'superficial_'
'superf'
'sunway_'
'sunscreen_'
'sunk_'
'sunde'
'summing_'
'sulphur_'
'suk'
'suggest'
'suffocate_'
'sufficent_'
'sue_'
'sucking_'
'such'
'succinct'
'suburbs_'
'substan'
'subsidi'
'subscribed_'
'submi'
'stylist'
'styleit_'
'sty'
'stunningly_'
'stun'
'stub'
'sts'
'structur'
'strongest_'
'stroganoff_'
'strip'
'strings_'
'stric'
'stret'
'streamlined_'
'straws_'
'stratford_'
'strate'
'straining_'
'straighten_'
'strada_'
'stow'
'stormont_'
'store'
'stor'
'stopp'
'stoo'
'ston_'
'stoke_'
'stl'
'stirrers_'
'stir'
'stingi'
'stills_'
'stiflingly_'
'stiff'
'stickers_'
'stic'
'sti_'
'stg_'
'stereo_'
'stem_'
'stee'
'stealing_'
'stayyou_'
'staywi'
'stayroom_'
'stayre'
'stayour_'
'stayon_'
'stayok_'
'stayno_'
'staym'
'stayex'
'stayeverything_'
'staye'
'stayd'
'stayall_'
'stayal'
'staya'
'statusthe_'
'status'
'stats_'
'statione'
'station'
'stately_'
'stat'
'starview_'
'starthe_'
'starters'
'starh'
'stant_'
'standouts_'
'standardwe_'
'standardsi'
'standardized_'
'standardit_'
'standardb'
'standa'
'stamps_'
'staining_'
'stages_'
'stag'
'staffth'
'staffif_'
'staffand_'
'staffa_'
'staffa'
'sson_'
'sso'
'ssion'
'sse_'
'squishy_'
'squire_'
'squeaking_'
'squat_'
'square'
'sq'
'spur_'
'spur'
'spruced_'
'spro'
'sprinkler_'
'sprinkled_'
'spreading_'
'spraying_'
'spotlights_'
'sportsbar_'
'spoonful'
'spoo'
'splu'
'splendo'
'splashes_'
'spla'
'spl'
'spitting_'
'spilling_'
'spill'
'spikes_'
'speech'
'spectac'
'species_'
'specialt'
'speciali'
'speci'
'speac'
'spark_'
'sparingly_'
'spared_'
'span'
'souther'
'sourcing_'
'soundly_'
'soun'
'sorr'
'soro'
'sopwell_'
'sony_'
'sonoma_'
'sono'
'sonable_'
'sommelier_'
'somewherei'
'something'
'som'
'solicit'
'soli'
'soldier_'
'soit_'
'soi'
'soften_'
'soft'
'sofia_'
'sofa'
'sof'
'sock'
'sociali'
'soaring_'
'soap'
'snug_'
'snowed_'
'snorkelling_'
'snoo'
'snobs_'
'snobby_'
'snobbish_'
'sno'
'snic'
'sni'
'sneezing_'
'snaks_'
'snail_'
'smudge'
'smor'
'smoother_'
'smoker'
'smoke'
'smo'
'smirnoff_'
'smell'
'sme'
'smashing_'
'smarten_'
'smallth'
'smacks_'
'smacked_'
'smack_'
'sluggish_'
'slr_'
'slows_'
'slowish_'
'slowbut_'
'slopp'
'slop_'
'slogan_'
'sling'
'slicing_'
'slh_'
'sleeve'
'sleepy_'
'sleeps'
'sleepit_'
'sleepi'
'slee'
'slav'
'slate'
'slat'
'slack'
'skill_'
'skiing_'
'skew'
'sked_'
'skate_'
'ska'
'sive'
'situation'
'sites'
'sions_'
'sional'
'sinking_'
'single'
'singaporei'
'sine'
'simm'
'sill'
'silk_'
'silence'
'signposting_'
'sign'
'sightsee'
'sighted_'
'sif'
'sidethe_'
'sides'
'sidebut_'
'sickening_'
'shuttle'
'shulas_'
'shu'
'shrubs_'
'shrivelled_'
'shri'
'showers'
'shoudl_'
'shorte'
'shortchanged_'
'shortbread_'
'shoppers_'
'shooting_'
'shocked'
'shock'
'shire_'
'shir'
'shing'
'shin'
'shield_'
'shield'
'sherlock_'
'shelled_'
'shel'
'sheeted_'
'sheep_'
'shea'
'shaved_'
'shave'
'shattering_'
'sharpen_'
'shard'
'shapes_'
'shank_'
'shamethe_'
'shameless'
'shamefully_'
'shallo'
'shaky_'
'shaker_'
'shake'
'sfood_'
'sey_'
'sew'
'seve'
'settees_'
'servicest'
'serviceon'
'serviceno'
'servicehow'
'servicefood_'
'servicec'
'servedi'
'servants_'
'serenity_'
'serai_'
'separates_'
'seo'
'sentiment'
'sent'
'sensation_'
'sens'
'semblance_'
'selv'
'selective_'
'selectionit_'
'selectionb'
'segregated_'
'seeming_'
'seemd_'
'seekers_'
'seedy_'
'seeds_'
'seed'
'seda'
'sed'
'securi'
'securely_'
'section'
'secretly_'
'seating'
'seat'
'searing_'
'seabank_'
'scrubbing_'
'scrub'
'scroll_'
'scrimp'
'screws_'
'screw'
'scrape_'
'scorching_'
'scooter'
'sci'
'school'
'schmick'
'schedules_'
'scent'
'sce'
'scare_'
'scarcely_'
'scan_'
'scalp_'
'scaled_'
'scalded_'
'sc'
'saz'
'saw'
'satyed_'
'satisfied'
'sate'
'sas'
'sapp'
'sante_'
'saniti'
'sanitation_'
'sandwiche'
'sandwhich_'
'sande'
'sams_'
'sampling_'
'samples_'
'sampan_'
'sameness_'
'salu'
'saloon_'
'salary_'
'sala'
'sal_'
'sainsburys_'
'sail_'
'sail'
'saffron_'
'safeway_'
'saf'
'sacrificing_'
'sacred_'
'sacramento_'
'sabean_'
's1'
'rwanda_'
'rwa'
'rvi'
'russ'
'rupt'
'rund'
'rumour'
'rumfire_'
'ruling_'
'rudding_'
'ruck'
'ruc'
'ruble_'
'rubbing_'
'rtunately_'
'rts_'
'rthe_'
'rt'
'rsh'
'rra'
'rr_'
'rpo'
'royce_'
'royally_'
'roulette_'
'rotorua_'
'ros_'
'rope'
'rop'
'rooom_'
'roon'
'roomthat_'
'roomsy'
'roomsw'
'roomsthere_'
'roomsth'
'roomsb'
'roomrate_'
'roomr'
'roomonly_'
'roomn'
'roommy_'
'roomli'
'roomla'
'roomexcellent_'
'roomex'
'roomco'
'ron_'
'roms_'
'romm_'
'roma'
'rok'
'rocked_'
'roc'
'robbing_'
'roared_'
'roam_'
'rni'
'rmal'
'rl'
'rks_'
'rking_'
'rivers_'
'rivall'
'ritzy_'
'rity_'
'risks_'
'ris_'
'rip'
'riot'
'ringit'
'rind_'
'righti_'
'riff_'
'rid'
'ricotta_'
'rici'
'richer_'
'richard_'
'rican_'
'ric_'
'rian'
'rialto_'
'rhubarb_'
'revo'
'reviv'
'revisited_'
'revis'
'reviewthe_'
'reviewswe_'
'reviewand_'
'review'
'revert_'
'rever'
'revelers_'
'reveals_'
'reveal_'
'reveal'
'returni'
'retty_'
'reth'
'resur'
'resu'
'restricting_'
'restrict_'
'restrict'
'restocking_'
'restauraunt_'
'restaurantth'
'restaurantit_'
'restaurantbreakfast_'
'restaur'
'restarant'
'restan'
'ress_'
'ress'
'respon'
'respective_'
'resona'
'reso'
'resh'
'rescued_'
'resc'
'requisite_'
'repute_'
'repo'
'replen'
'repetiti'
'repeater'
'repeat'
'repairing_'
'reo'
'renoir_'
'rennovations_'
'rennovat'
'rennaisance_'
'renew_'
'rene'
'rena'
'remodel'
'remitted_'
'reminders_'
'rememb'
'remake_'
'rema'
'reloc'
'rell'
'relied_'
'relic_'
'reliance_'
'relentless_'
'rele'
'relax'
'rejuvenated_'
'reheat_'
'regulars_'
'regu'
'regent_'
'regen'
'reg_'
'refurbish'
'refunds_'
'refunding_'
'refund'
'refridgerator_'
'refresher_'
'reflexology_'
'refectory_'
'refe'
'reek_'
'redwood_'
'reductions_'
'reds_'
'redesigned_'
'recurring_'
'recurrent_'
'recreational_'
'recovering_'
'record'
'reconstruction_'
'reconsidered_'
'reconfirmed_'
'recomment_'
'recommends_'
'recommendb'
'recomm'
'recomended_'
'reco'
'reclin'
'recit'
'receptions_'
'receptionist'
'recept'
'recently'
'receive'
'receipts_'
'reccommended_'
'reataurant_'
'reasonnable_'
'reasoni'
'reasonbl'
'reasonablethe_'
'reas_'
'rear'
'realisation_'
'reagan_'
'rder'
'rau'
'ratty_'
'rationali'
'ratio'
'ratingi'
'ratew'
'rateo'
'rateit_'
'ratebreakfast_'
'raspberry_'
'rapids_'
'raph'
'rants_'
'rankl'
'ranger'
'rangali_'
'ranch'
'rams'
'ramps_'
'rambling_'
'ramb'
'rajputana_'
'rajasthan_'
'raining'
'rainforest_'
'railroad_'
'ragged_'
'raft'
'raf'
'rad'
'race'
'quotes_'
'quiz'
'quirk_'
'quiries_'
'quintessential_'
'quin'
'quietthe_'
'quieti'
'queueing_'
'queued_'
'quen'
'quattro_'
'quat'
'qualitythe'
'qualityit_'
'qualitybut_'
'qualitybreakfast_'
'qualitative'
'quali'
'quail'
'quai'
'qm'
'qhotels_'
'putt'
'purée'
'pursuit'
'punish'
'punakaiki_'
'pumped_'
'puk'
'pudding'
'puck'
'pu_'
'pta'
'prudent_'
'proving_'
'provid'
'provi'
'prove'
'protracted_'
'protecting_'
'protea_'
'propriet'
'propose'
'proportionate_'
'propertyo'
'propertyand_'
'prop_'
'prong_'
'promi'
'prolonged_'
'projects_'
'progress'
'profit'
'productiv'
'proclaimed_'
'processes_'
'probs_'
'problemsb'
'problemi_'
'prob'
'proactive'
'proa'
'privelege'
'privat'
'priva'
'priv'
'prisoner_'
'priorityclub_'
'prioritise'
'printout_'
'princip'
'princely_'
'prim'
'pricing'
'priceyth'
'priceyn'
'priceyi'
'priceth'
'pricess'
'priceso_'
'pricesi_'
'pricesb'
'pricesa'
'pricer'
'pricepr'
'priceno_'
'pricemy_'
'pricel'
'pricedi_'
'pricebreakfast_'
'priceall_'
'pricea_'
'preventing_'
'prevalent_'
'prevailing_'
'pretensions_'
'pret_'
'presso_'
'preserves_'
'preservation_'
'present'
'prep_'
'premiers_'
'premi'
'prem'
'prefer'
'pree'
'predict_'
'precinct_'
'preciados_'
'preceded_'
'precautions_'
'prc'
'pray_'
'pram_'
'prague'
'practica'
'pppn_'
'pow'
'pov'
'pou'
'potte'
'postcard'
'positive'
'pose_'
'pose'
'portugese_'
'portholes_'
'porc'
'popp'
'poorw'
'poorthe_'
'poorth'
'poop'
'pools'
'poolb'
'pony_'
'pont'
'pon_'
'pon'
'pomme'
'poll'
'polite'
'policed_'
'poli'
'polenta_'
'polar_'
'pola'
'pol'
'poke_'
'poi'
'poh'
'pmwe_'
'pmo'
'pmit_'
'pmbreakfast_'
'plywood_'
'pluswe_'
'plusses_'
'plusher_'
'plummet'
'plr_'
'pln_'
'plentyful_'
'please'
'pleasantthe'
'plea'
'ple'
'plaz'
'plaster'
'plank_'
'planetarium_'
'plaice_'
'placeso_'
'placeoverall_'
'placejust_'
'plac'
'pk'
'pitt'
'pitching_'
'pins_'
'pino'
'pines_'
'pinch'
'pillow'
'piled_'
'pigs'
'picks_'
'phrase'
'php_'
'photography_'
'phone'
'phon'
'phoenician_'
'phillip'
'philip'
'phenomen'
'phase_'
'pharmacy_'
'petty'
'petals_'
'pesto_'
'pest_'
'peso_'
'pes_'
'perus'
'persuade_'
'personthe_'
'personn'
'personb'
'persist_'
'persist'
'pers_'
'perpetual'
'permit'
'permeate_'
'perimeter_'
'peril'
'pergola_'
'performs_'
'performer_'
'performed_'
'perform'
'perf'
'perch'
'pepperoni_'
'pep'
'peoplei'
'pentagon_'
'pensive_'
'pension'
'penin'
'penguin'
'penetrati'
'penetrate_'
'pencil'
'pelle'
'peerless_'
'peep'
'pedi'
'pebble'
'pears_'
'peaks_'
'peach_'
'peace'
'peabody_'
'pea'
'pdx_'
'pd'
'pavement_'
'pav'
'paul'
'patios_'
'pathumwan_'
'pastrami_'
'passwords_'
'passi'
'passers_'
'passageway_'
'pas'
'partie'
'particulary_'
'participat'
'parramatta_'
'parkway_'
'parkingthe_'
'parkingt'
'parkingi_'
'parisi'
'paris'
'parent'
'pare'
'paraphernalia_'
'parap'
'parag'
'paperi'
'papa'
'panic_'
'pani'
'paneling_'
'panam'
'pana'
'palpable_'
'palmer'
'palazzo_'
'pair'
'paint'
'paidi_'
'paidb'
'padlock'
'paddling_'
'packers_'
'packaging_'
'packagea'
'pace'
'overv'
'overstatement_'
'oversta'
'overshadow_'
'override'
'overra'
'overpricedthe_'
'overpricedb'
'overpri'
'overpower'
'overpay'
'overnighters_'
'overla'
'overl'
'overha'
'overgrown_'
'overflow'
'overe'
'overd'
'overcharges_'
'oval_'
'outw'
'outsidei_'
'outragous_'
'outrag'
'outn'
'outlined_'
'outline_'
'outh'
'outg'
'outf'
'outdo'
'outages_'
'outa'
'ousness_'
'oush'
'ourg'
'ounce_'
'oulton_'
'oul'
'otheri'
'oth'
'otc'
'ostentatious_'
'oscillating_'
'osa'
'ory'
'ortunately_'
'orthe_'
'orna'
'orma'
'orlando'
'orl'
'orks_'
'orking_'
'originality_'
'orientation_'
'organizing_'
'organizer_'
'organi'
'orf'
'orev'
'ords_'
'ordered'
'ord'
'orbit_'
'opu'
'optionw'
'optionsthe_'
'optionsi'
'optimum_'
'optimi'
'opposition_'
'opl'
'operat'
'opera'
'oooooo'
'ooo'
'ood'
'ony'
'onthis_'
'ont_'
'onsidering_'
'onlyth'
'onl'
'onit_'
'onis'
'oni'
'ong'
'onew'
'onest'
'ones'
'oneo'
'onea'
'ond_'
'onb'
'omlets_'
'omfortable_'
'omen_'
'omelette'
'oma_'
'oly_'
'olin'
'ola_'
'okthere_'
'okt'
'okso_'
'oks'
'oknot_'
'okn'
'okm'
'okfood_'
'okd'
'okaywe_'
'okayso_'
'okaynot_'
'okayit_'
'okaybreakfast_'
'okaya_'
'oit'
'oin'
'oils_'
'ohio_'
'ogs_'
'ofthe_'
'often'
'ofr'
'office'
'offering'
'offere'
'offend'
'offen'
'oe_'
'odor'
'odern_'
'odati'
'occurance_'
'occupies_'
'ocat'
'oc_'
'oc'
'obvious'
'obsolete_'
'observat'
'observ'
'obscured_'
'obligation'
'obligated_'
'oas'
'oak'
'nyo'
'nylon_'
'nwe'
'nw'
'nutrition_'
'nursing_'
'nug'
'nuclear_'
'nty_'
'ntr'
'ntia'
'nted_'
'nstr'
'nstead_'
'nowthe_'
'nowaday'
'novo'
'novel_'
'novatel_'
'nov'
'noticing_'
'notch'
'nota'
'norway'
'northwoods_'
'norma'
'nori'
'nonstop_'
'noneth'
'nomi_'
'noisythe_'
'noisyso_'
'noir_'
'noi_'
'nog'
'nodd'
'nod_'
'nod'
'noa'
'nni'
'nne_'
'nl'
'nking_'
'nitpicky_'
'nite'
'nip_'
'ning'
'nikki_'
'nightw'
'nighttime_'
'nightt'
'nightswe_'
'nightsthis_'
'nightss'
'nightsit_'
'nightsa'
'nightre'
'nightmy_'
'nightmarish_'
'nightmare'
'nightin'
'nighter'
'nighta_'
'niggly_'
'niggling_'
'nige'
'nico'
'nicked_'
'nici'
'niche_'
'nices'
'niceour_'
'niceno'
'nicel'
'nicei'
'nh'
'ngy'
'ngwe_'
'ngo'
'nge_'
'nga_'
'nfl'
'nfel'
'newb'
'neve'
'neu'
'netting_'
'nett_'
'nett'
'netherlands_'
'ners_'
'nera'
'neptunes_'
'neon_'
'neo_'
'nell_'
'neighborhood'
'negr'
'negativeb'
'negative'
'needlessly_'
'need'
'nee_'
'nee'
'ned'
'neb'
'nea'
'nds_'
'ndon_'
'nding_'
'nderful_'
'ncin'
'nch_'
'nca'
'nbut_'
'navo_'
'nause'
'naughty_'
'nast'
'nasi_'
'nar'
'nap'
'nam_'
'naively_'
'nag'
'méridien_'
'myeong'
'mx'
'muzak_'
'muslim_'
'mundial_'
'munch'
'mum'
'multistory_'
'mulled_'
'mull'
'muffle_'
'muddy_'
'muck_'
'muchand_'
'muc'
'mpton_'
'mpt'
'mpli'
'mpe'
'moved'
'mouthfuls_'
'mous_'
'mounti'
'motors'
'motorcycle'
'motorbike'
'motions_'
'motif_'
'motel'
'most'
'mosque_'
'mosaic_'
'morsels_'
'morse_'
'moron_'
'morningr'
'morningbut_'
'morimoto_'
'morebut_'
'mop_'
'moot_'
'moore'
'moon'
'moody_'
'moods_'
'monuments_'
'month'
'montcalm_'
'monstrosity_'
'monorail_'
'monkey_'
'moneys_'
'moneyr'
'moneyp'
'moneyif_'
'moneyho'
'moneygood_'
'momentary_'
'moment'
'molton_'
'mola'
'moh'
'moet_'
'modified_'
'modernizing_'
'modernity_'
'modernistic_'
'moderni'
'modation'
'moc'
'mobiles_'
'mobbed_'
'moaned_'
'mmm_'
'mmer_'
'mly_'
'mizzen_'
'mixe'
'mitt'
'mitigate'
'mismatched_'
'mismanagement_'
'mish'
'misg'
'misery_'
'mira'
'minist'
'minimize_'
'minimise_'
'minimal'
'mingle_'
'minde'
'mindb'
'mina'
'mimosa'
'mills_'
'millennia'
'milk'
'mileage_'
'mile'
'mik'
'mie'
'midge'
'michell'
'mia'
'mezzo_'
'mexic'
'metallic_'
'mers'
'merger_'
'merge'
'merchant_'
'merchandise_'
'meo'
'meny_'
'menubut_'
'mentary_'
'menta'
'mena'
'men'
'memorabl'
'members'
'membero'
'melting_'
'melons_'
'mela'
'meho'
'mega'
'mediocre'
'medioc'
'medieval_'
'medica'
'media'
'mechanic'
'meb'
'meatloaf_'
'meas'
'meand_'
'mealsi_'
'meali'
'mead'
'mcd_'
'mbu'
'mbr'
'mble'
'mbi'
'mayflower_'
'maybe'
'maxim'
'max'
'mauritius_'
'mation_'
'matin'
'materialised_'
'material'
'maswik_'
'masterchef_'
'master'
'mason'
'masked_'
'martin'
'marshmallows_'
'marsa'
'maro'
'marm'
'marlo'
'mario'
'marina'
'marin'
'mardi_'
'marcos_'
'marchi'
'mapi_'
'manyara_'
'many'
'mano'
'manning_'
'mange'
'mane'
'manda'
'manchesteri'
'managment_'
'manager'
'mana'
'malts_'
'maltese_'
'males_'
'maldron_'
'malbec_'
'mala'
'makan'
'mak'
'maine_'
'maid'
'magn'
'mage'
'madness_'
'madeira_'
'macy'
'mactan_'
'macbook_'
'm1_'
'lyr'
'lya'
'lv_'
'luxuryi'
'luxuriously_'
'luxuri'
'luxor'
'luxe'
'lured_'
'lung'
'lunched_'
'lud'
'luc'
'ltr'
'lovelyb'
'lovel'
'lough_'
'louge_'
'loudthe_'
'loudi_'
'losses_'
'lorries_'
'loot_'
'loosely_'
'loop_'
'loop'
'looking'
'longest_'
'londonth'
'londons'
'londoner'
'lon_'
'lollies_'
'lol'
'logistics_'
'logins_'
'lod'
'lock'
'locationbreakfast_'
'locational'
'localiz'
'loc'
'lobbys'
'lobbyand_'
'llo_'
'llo'
'lli_'
'lled_'
'lk_'
'littl'
'litl'
'lira_'
'lini'
'lingered_'
'liners_'
'lil_'
'likethe_'
'likene'
'likea'
'lightweight_'
'lightsw'
'lighti'
'lighted_'
'light'
'ligh'
'lids_'
'lice'
'liar'
'liability_'
'lia_'
'leys_'
'lex'
'levels'
'leveli_'
'leva'
'lemongrass_'
'lele'
'leith_'
'legit_'
'legi'
'legends_'
'led'
'lec'
'least'
'leaning_'
'leaf'
'ldi'
'lda'
'layover'
'lavish'
'lavender_'
'laundromat_'
'laundrette_'
'launch'
'laughter_'
'laughed_'
'latte'
'lates'
'latene'
'lassi'
'lashings_'
'lark'
'laos_'
'lansdowne_'
'lang'
'lance'
'lamb'
'lair'
'lain'
'laguardia_'
'lads_'
'lactose_'
'lacking'
'lack'
'labor'
'lable_'
'ky'
'kt'
'krone'
'kp'
'kovalam_'
'kor'
'kop'
'knox'
'knowingly_'
'knowi'
'kne'
'kn'
'kk_'
'kk'
'kitt'
'kit'
'kilter_'
'kilomet'
'kilo'
'kills_'
'kie_'
'kid'
'kiama_'
'kia'
'ki'
'khmer_'
'khalifa_'
'kh'
'kg'
'keyed_'
'kew'
'kerb'
'kelloggs_'
'keenly_'
'kayak_'
'kay'
'kati'
'kathmandu_'
'kas'
'karo'
'kand'
'kal'
'kahala_'
'jutt'
'justifi'
'jus_'
'jur'
'june'
'judgment_'
'jub'
'js_'
'jos'
'jord'
'jol'
'jokingly_'
'jin_'
'jimmy_'
'jim_'
'jett'
'jets'
'jean_'
'japan'
'jap'
'jan'
'jamie_'
'jacuz'
'jackson'
'izen'
'ize'
'iz'
'iy_'
'ix_'
'iw'
'iving'
'iva'
'iv_'
'itwhen_'
'itwas_'
'itv_'
'itu'
'itthat_'
'itr'
'iton_'
'itn'
'itm'
'itl'
'itison_'
'ition'
'itho'
'itha'
'itgood_'
'itg'
'itf'
'ites_'
'itemsi'
'itche'
'iswe_'
'isu'
'istan'
'issuethe_'
'issues'
'issa'
'ism_'
'isla'
'ishly_'
'ishi'
'isfood_'
'isf'
'ises_'
'isation_'
'isappoint'
'isan'
'irs_'
'irritat'
'irrati'
'irr'
'iron'
'iro'
'irks_'
'ire'
'ira_'
'iously_'
'ios_'
'ior'
'ions'
'ional_'
'iona'
'inyo'
'inwa'
'inverness_'
'invented_'
'inutes_'
'intru'
'introduc'
'intr'
'intolerance'
'intolerably_'
'inthis_'
'inthat_'
'inters'
'interruptions_'
'interruption_'
'interrogat'
'interpretation_'
'interpret'
'internetw'
'intermitt'
'interi'
'interfered_'
'interests_'
'interconnected_'
'interc'
'integrity_'
'intangible'
'insur'
'insulate'
'insuff'
'instructed_'
'inspires_'
'inspector_'
'inso'
'inse'
'inoverall_'
'innth'
'inno'
'inna'
'inm'
'inka'
'initely_'
'inin'
'inher'
'ingw'
'ington'
'ingr'
'ingit_'
'ingin'
'ingh'
'info'
'infl'
'infestation_'
'infest'
'infer'
'inex'
'inet'
'ineffectual_'
'ined_'
'indulg'
'inducing_'
'induce'
'indistinguishable_'
'indig'
'indicator_'
'indent'
'inda_'
'incu'
'incomplete_'
'incompatible_'
'includedw'
'includeda'
'incident'
'incentives_'
'inbreakfast_'
'inattentive_'
'inan'
'inadvertently_'
'inacceptable_'
'improved'
'improper_'
'impromptu_'
'impro'
'imprint_'
'impossibility_'
'impose_'
'implement_'
'imper'
'impen'
'imped'
'imminent_'
'immers'
'imme'
'immaterial_'
'imit'
'iment'
'imbalance_'
'imagin'
'imac_'
'ils'
'illustrate_'
'illustrate'
'illus'
'illuminati'
'illuminate'
'illa'
'ilan'
'ike_'
'ika'
'ik'
'iii'
'igua'
'ignorance_'
'ign_'
'ign'
'igi'
'ighti'
'iga_'
'ified_'
'iff'
'iev'
'iet'
'ier'
'ient'
'ien'
'ield_'
'idli_'
'idli'
'idl'
'idiotic_'
'idge_'
'identi'
'ideaw'
'ict'
'ico'
'icky_'
'ick_'
'ices'
'icehotel_'
'iceb'
'icc_'
'ican_'
'ican'
'ical_'
'iber'
'ibahn_'
'iate_'
'hysteri'
'hypoallergenic_'
'hyp'
'hygienic_'
'hydrotherapy_'
'hwy_'
'hwe'
'hw'
'hutch_'
'hus'
'hurdle_'
'hunts'
'hungarian_'
'hung'
'hun'
'humour_'
'humiliating_'
'humiliated_'
'humidifier_'
'humid'
'huf'
'hue_'
'hue'
'hto'
'hthe_'
'hovering_'
'houses'
'housekeeping'
'housekeepers_'
'hoursthe'
'hour'
'hound'
'hough'
'hotwire'
'hotplate_'
'hoti_'
'hoti'
'hotelwi'
'hotelwhat_'
'hotelwh'
'hotelwell_'
'hotelsthis_'
'hotelstayed_'
'hotelsif_'
'hotelsho'
'hotelsbut_'
'hotelopia_'
'hotelon_'
'hotello'
'hotellet_'
'hotell'
'hotelhotel_'
'hotelho'
'hotelexcellent_'
'hoteldo'
'hotelde'
'hotelcl'
'hotelbe'
'hotelan_'
'hotelal'
'hote'
'hotdog_'
'hotand_'
'hostel'
'horses_'
'horse'
'horrors_'
'horrif'
'horrid'
'horns_'
'hore'
'hoppers_'
'hop'
'hoot_'
'hoot'
'hooray_'
'hoop'
'honouring_'
'honors'
'honeymooners_'
'hon_'
'holmes_'
'hollins_'
'holidayinn_'
'hole'
'holder'
'hok'
'hogmanay_'
'hogging_'
'hofn_'
'hof_'
'hod'
'hob_'
'hmmmm_'
'hly_'
'hitch_'
'hiring_'
'hine_'
'hiltonthis_'
'hiltone'
'highw'
'highthe_'
'highland'
'highl'
'highb'
'hig'
'hiex_'
'hideaway_'
'hid'
'hickory_'
'hibiscus_'
'hibachi_'
'hia'
'hhonors'
'hho'
'hhh'
'heyday_'
'hert'
'heritance_'
'hereinternet_'
'hereg'
'herbs_'
'henry_'
'hellnar_'
'hef'
'heen_'
'heck'
'heavi'
'heath_'
'heate'
'heartburn_'
'heads'
'haz'
'hawk'
'haw'
'havn'
'having'
'havea'
'haunted_'
'hast'
'hassle'
'hass'
'hash'
'hart'
'harrison_'
'harpist_'
'harpe'
'hardness_'
'harbourview_'
'harbo'
'harass'
'happ'
'hap'
'hann'
'hangings_'
'handsome_'
'handrails_'
'handheld_'
'handful'
'han_'
'hammock_'
'hammersmith_'
'hammers_'
'halved_'
'halt_'
'halloumi_'
'hallmarks_'
'haggle_'
'hadwe_'
'hadrians_'
'hadit_'
'hadi_'
'hacienda_'
'habitat'
'habitable_'
'habarana_'
'habana_'
'ha'
'gymi'
'gvr_'
'guys'
'gusts_'
'guin'
'guilt_'
'guestst'
'guestsa'
'gst_'
'gs'
'grung'
'grouping'
'groupe'
'grot'
'grossed_'
'groom'
'grohe_'
'groan'
'grisly_'
'griffin'
'grievance'
'grid_'
'greatw'
'greatso_'
'greats_'
'greats'
'greatbut_'
'graze'
'gravel'
'grave_'
'gratuities_'
'gratitude_'
'gratifying_'
'gratefully_'
'grass'
'grasp'
'granting_'
'grant'
'grandsons_'
'grandest_'
'grafton_'
'gradually_'
'grade'
'grace'
'grab'
'gr'
'gps_'
'gow'
'gouges_'
'gothenburg_'
'gorilla_'
'goreng_'
'gor_'
'goodyes_'
'goodroom_'
'goodone_'
'goodon'
'goodo'
'goodhotel_'
'goodhad_'
'goodexcellent_'
'gooddo'
'goodde'
'goodco'
'goodal'
'gonder_'
'golds_'
'gol'
'goals_'
'gno'
'gn'
'glutinous_'
'glued_'
'glow_'
'glossy_'
'glories_'
'gloo'
'glitzy_'
'gles_'
'glassw'
'glanced_'
'glam_'
'glam'
'gills_'
'gie'
'gian'
'ghte'
'ghosts_'
'ggle'
'gging_'
'ggg'
'geti_'
'gers_'
'germans_'
'george'
'gent_'
'generally'
'gener'
'gee'
'gd_'
'gb'
'gatsby_'
'gator'
'gateshead_'
'garner'
'gard'
'garcia_'
'garages_'
'gaping_'
'gan_'
'game'
'galveston_'
'gadget_'
'gad_'
'gable_'
'fy'
'futile_'
'furt'
'furnishings'
'furb'
'fur_'
'fund_'
'fullso_'
'fue'
'fudge_'
'fryer_'
'fry'
'fruitthe'
'fruits'
'frugal_'
'fru'
'frontier_'
'frontenac_'
'fritters_'
'fritt'
'frightfully_'
'freshi'
'frenz'
'freewe'
'freethe_'
'freei'
'freedom_'
'fred_'
'freaking_'
'freak'
'frankies_'
'francis_'
'frai'
'frag'
'fra_'
'fourt'
'four'
'fot_'
'forthe_'
'fort'
'fors'
'forc'
'forbidden_'
'forb'
'footing_'
'fools_'
'foodwas_'
'foodthere_'
'foods'
'foodp'
'foodh'
'foodall_'
'fooda'
'foo'
'fondue_'
'foll'
'folkestone_'
'foi'
'focus'
'fobbed_'
'flyer_'
'flush'
'fluke_'
'florida'
'floorno'
'floorm'
'floorboard_'
'floo'
'floats_'
'flightthe'
'flighti'
'flighta'
'flick'
'fled_'
'fleas_'
'flea_'
'flatte'
'flashlight_'
'flashes_'
'flapjacks_'
'flap'
'flam_'
'flam'
'flags_'
'flag'
'fixe_'
'fishing_'
'fishcake_'
'fishbone'
'fins'
'finitely_'
'finished'
'finethere_'
'fineso_'
[...]
