'<pad>'
'<EOS>'
'<GO>'
'<OOV>'
'<DOC>'
'</DOC>'
'the_'
' ._'
'and_'
' , _'
'a_'
'to_'
'was_'
'is_'
'in_'
'of_'
'hotel_'
'we_'
'for_'
'it_'
'i_'
'very_'
'with_'
'this_'
'on_'
'room_'
'you_'
'at_'
'but_'
'are_'
'were_'
'good_'
'from_'
' - _'
'not_'
'that_'
'as_'
'there_'
'staff_'
'great_'
'had_'
'our_'
'stay_'
's_'
'have_'
'all_'
'nice_'
'breakfast_'
'location_'
' '_'
'be_'
'which_'
'so_'
' ( _'
'would_'
'area_'
'rooms_'
'an_'
't_'
'if_'
'n_'
'one_'
'they_'
'my_'
'service_'
'well_'
''_'
'here_'
'just_'
'walk_'
'out_'
'friendly_'
' !_'
'by_'
'food_'
'also_'
'or_'
'excellent_'
'stayed_'
'no_'
'night_'
'restaurant_'
'place_'
'_'
'only_'
'comfortable_'
'did_'
'about_'
'us_'
'has_'
'again_'
'restaurants_'
'get_'
'when_'
'pool_'
'can_'
'up_'
'really_'
' ) _'
'do_'
'close_'
'helpful_'
'time_'
'view_'
'will_'
'bar_'
'some_'
'clean_'
'airport_'
'other_'
' . _'
'small_'
'could_'
'right_'
'parking_'
'located_'
'large_'
'back_'
'check_'
'free_'
'city_'
'front_'
'like_'
'more_'
'around_'
'next_'
'day_'
'lovely_'
'easy_'
'town_'
'bed_'
'quiet_'
' / _'
'beach_'
'best_'
'your_'
'away_'
'minutes_'
' " _'
'than_'
'street_'
'little_'
'walking_'
'two_'
'go_'
'desk_'
'many_'
'after_'
'too_'
'floor_'
'me_'
'bathroom_'
'park_'
'beautiful_'
'even_'
'2_'
'much_'
'5_'
'what_'
' ) ._'
'main_'
'over_'
'way_'
'station_'
'bit_'
'quite_'
'car_'
'its_'
'recommend_'
'most_'
'off_'
'first_'
'reception_'
' ' _'
'their_'
'where_'
'been_'
'hotels_'
'outside_'
'old_'
'few_'
'distance_'
'definitely_'
'everything_'
'into_'
' & _'
'down_'
'near_'
'lobby_'
'perfect_'
'wonderful_'
'property_'
'within_'
'road_'
'nights_'
'views_'
'visit_'
'10_'
'who_'
'spacious_'
'dinner_'
'always_'
'business_'
'need_'
'however_'
'see_'
'being_'
'find_'
'short_'
'made_'
'across_'
'better_'
'although_'
'3_'
'lot_'
'convenient_'
'because_'
'morning_'
'people_'
' : _'
'want_'
'any_'
'trip_'
'buffet_'
'big_'
'side_'
'though_'
'choice_'
'shower_'
'water_'
'door_'
'lots_'
'new_'
'price_'
'shopping_'
'plenty_'
'shuttle_'
'centre_'
'found_'
'noise_'
'pleasant_'
'take_'
'both_'
'experience_'
'every_'
'modern_'
'minute_'
'while_'
'then_'
'd_'
'make_'
'resort_'
'overall_'
'nearby_'
'coffee_'
'drive_'
'center_'
'enjoyed_'
'inn_'
'got_'
'quality_'
'._'
'evening_'
'building_'
'enough_'
'amazing_'
'before_'
'use_'
'fantastic_'
'long_'
'far_'
'access_'
' ; _'
'hot_'
'return_'
'beds_'
'downtown_'
'staying_'
'bus_'
'etc_'
'top_'
'during_'
'busy_'
'4_'
'value_'
'through_'
'size_'
'lounge_'
'efficient_'
'1_'
'nothing_'
'part_'
'high_'
'them_'
'pretty_'
'went_'
'train_'
'fine_'
'wifi_'
'booked_'
'central_'
'still_'
'places_'
'feel_'
'took_'
'going_'
'looking_'
'available_'
'river_'
'eat_'
'am_'
'arrived_'
'local_'
'guests_'
'huge_'
' ... _'
'ok_'
'full_'
'he_'
'early_'
'especially_'
'times_'
'worth_'
'another_'
'15_'
'several_'
'expensive_'
'shops_'
'areas_'
'extremely_'
'dining_'
'standard_'
'taxi_'
'itself_'
'e_'
'facilities_'
'suite_'
'sure_'
' ) , _'
'having_'
'days_'
'work_'
'special_'
'come_'
'does_'
'each_'
'couple_'
'end_'
' $ _'
'stop_'
'highly_'
're_'
'say_'
'happy_'
'quick_'
'spa_'
'family_'
'open_'
'options_'
'look_'
'same_'
'sea_'
'hour_'
'think_'
'balcony_'
'drinks_'
'20_'
'never_'
'loved_'
'used_'
'welcome_'
'last_'
'-_'
'things_'
'such_'
'said_'
' ’_'
'tv_'
'should_'
'without_'
'lake_'
'decent_'
'space_'
'given_'
'enjoy_'
'overlooking_'
'sleep_'
'house_'
'warm_'
'mall_'
'star_'
'm_'
'needed_'
'looked_'
'amenities_'
'problem_'
'included_'
've_'
'she_'
'grounds_'
'30_'
'asked_'
'along_'
'ca_'
'selection_'
'how_'
'bars_'
'club_'
'late_'
'try_'
'less_'
'second_'
'thing_'
'including_'
'able_'
'three_'
'plus_'
'ever_'
'left_'
'told_'
'rather_'
'tour_'
'seemed_'
'rate_'
'holiday_'
'y_'
'air_'
'fresh_'
'since_'
'meal_'
'expect_'
'money_'
'reasonable_'
'certainly_'
'probably_'
'traffic_'
'cold_'
'bad_'
'hard_'
'noisy_'
' ..._'
'wanted_'
'situated_'
'served_'
'internet_'
'square_'
'offer_'
'set_'
'help_'
'gym_'
'concierge_'
'superb_'
'entrance_'
'visiting_'
'due_'
'tea_'
'spent_'
'provided_'
'garden_'
'different_'
'love_'
'getting_'
'wine_'
'arrival_'
'welcoming_'
'’_'
'once_'
'ing_'
'super_'
'know_'
'ed_'
'- _'
'marriott_'
'extra_'
'drink_'
'weekend_'
'came_'
'felt_'
'course_'
'attentive_'
'hours_'
'bath_'
'year_'
'professional_'
'offered_'
'metro_'
'appointed_'
'ride_'
'style_'
'6_'
'home_'
'bedroom_'
'may_'
'own_'
'public_'
'delicious_'
'those_'
'must_'
'between_'
' -- _'
'safe_'
'hilton_'
'checked_'
'average_'
'week_'
'table_'
'real_'
'swimming_'
'menu_'
'relaxing_'
'lunch_'
'ocean_'
'level_'
'site_'
'st_'
'fast_'
'manager_'
'o_'
'years_'
'7_'
'kids_'
'everyone_'
'makes_'
'absolutely_'
'ask_'
'now_'
'corner_'
'needs_'
'middle_'
', _'
' ,_'
'something_'
'gave_'
'thought_'
'mins_'
'pay_'
'll_'
'choices_'
'window_'
'number_'
'wait_'
'world_'
'island_'
'flight_'
'almost_'
'lodge_'
'these_'
'actually_'
'block_'
'outstanding_'
'ate_'
'attractions_'
'king_'
'grand_'
'hear_'
'fabulous_'
'give_'
'inside_'
'comfy_'
'book_'
'poor_'
'/_'
'light_'
'complimentary_'
'above_'
'courtyard_'
'order_'
'facing_'
'else_'
'either_'
'done_'
'blocks_'
'called_'
'point_'
'anything_'
'decor_'
'making_'
'offers_'
'gardens_'
'bay_'
'travel_'
'reviews_'
'spot_'
' -_'
'private_'
'prices_'
'run_'
'chose_'
'sit_'
' ! !_'
'south_'
'ideal_'
'pm_'
'whole_'
'slow_'
'others_'
'windows_'
'limited_'
'start_'
'worked_'
'per_'
'towels_'
'his_'
'luggage_'
'easily_'
'kept_'
' ! _'
'put_'
'line_'
'until_'
'walked_'
'cost_'
'fun_'
'highway_'
'recommended_'
'8_'
'four_'
'nt_'
'nicely_'
'guest_'
'half_'
'fairly_'
'throughout_'
'working_'
'london_'
' £ _'
'min_'
'priced_'
'variety_'
'kind_'
'outdoor_'
'her_'
'wife_'
'double_'
'setting_'
'separate_'
'deal_'
'fact_'
'la_'
'pools_'
' )_'
'atmosphere_'
'meals_'
'market_'
'choose_'
'north_'
'tourist_'
'major_'
'polite_'
'seems_'
'issue_'
'member_'
'adequate_'
'usual_'
'charge_'
'interesting_'
'despite_'
'stunning_'
'five_'
'particularly_'
'housekeeping_'
'maintained_'
' ?_'
'paid_'
'sitting_'
'coming_'
'b_'
'leave_'
'decided_'
'afternoon_'
'terrace_'
'basic_'
'liked_'
'might_'
'person_'
'english_'
'tub_'
'golf_'
'option_'
'anywhere_'
'conference_'
'directly_'
'booking_'
'recently_'
'miles_'
'call_'
'keep_'
'fruit_'
'difficult_'
'looks_'
'cheap_'
'bathrooms_'
'valet_'
':_'
'cooked_'
'ready_'
'let_'
'shop_'
'least_'
'anyone_'
'group_'
'eating_'
'equipped_'
'reasonably_'
'decorated_'
'weather_'
'eggs_'
'under_'
'relax_'
'behind_'
'expected_'
'upon_'
'class_'
'heart_'
'kitchen_'
'suites_'
'upgraded_'
'overnight_'
'chairs_'
'dated_'
'opposite_'
'sun_'
'why_'
'impressed_'
'customer_'
'village_'
'rest_'
'hampton_'
'yet_'
'friends_'
'disappointed_'
'store_'
'typical_'
'dark_'
' .. _'
'perfectly_'
'pillows_'
'spend_'
'historic_'
'enjoyable_'
'conveniently_'
'executive_'
'tired_'
'whilst_'
'seem_'
'awesome_'
'thank_'
'fitness_'
'courteous_'
'hill_'
'touch_'
'luxury_'
'west_'
'cool_'
'team_'
'truly_'
'care_'
'( _'
'waiting_'
'yes_'
'taking_'
'upgrade_'
'past_'
'pick_'
'driving_'
'charming_'
'mile_'
'takes_'
'sized_'
'spectacular_'
'saw_'
'glass_'
'tried_'
'activities_'
'steps_'
'thanks_'
'r_'
'everywhere_'
'otherwise_'
'buildings_'
'exceptional_'
'base_'
' ., _'
'simply_'
'management_'
'9_'
'adjacent_'
'motel_'
'quickly_'
'loud_'
'job_'
'ground_'
'turn_'
'music_'
'later_'
'unfortunately_'
'fi_'
'gorgeous_'
'fridge_'
'breakfasts_'
'checking_'
'except_'
'wall_'
'break_'
'elevator_'
'wi_'
'visited_'
'seating_'
'c_'
'mini_'
'points_'
'items_'
'maybe_'
'tasty_'
'children_'
'san_'
'someone_'
'es_'
'crowded_'
'via_'
' .( _'
'name_'
' ...._'
'watch_'
'design_'
'greeted_'
'husband_'
'met_'
'meeting_'
'young_'
'handy_'
'closed_'
'change_'
'beautifully_'
'seen_'
'returned_'
'driver_'
'subway_'
'cafe_'
'impressive_'
'furniture_'
'key_'
'standards_'
'range_'
'bridge_'
'district_'
'50_'
'provide_'
'entertainment_'
'terminal_'
'using_'
'proximity_'
'reason_'
'surrounding_'
'office_'
'pub_'
'wedding_'
'general_'
'accommodating_'
'western_'
'tiny_'
'peaceful_'
'doors_'
'chain_'
'l_'
'issues_'
'review_'
'national_'
'museum_'
'slightly_'
'lady_'
'round_'
'tower_'
'generally_'
'00_'
'floors_'
'pleased_'
'plaza_'
'country_'
'receptionist_'
'explore_'
'hall_'
'soon_'
'phone_'
'note_'
'accommodation_'
'premier_'
'instead_'
'trying_'
'taken_'
'surprised_'
'living_'
'toilet_'
'convention_'
'show_'
'arrive_'
'head_'
'often_'
'centrally_'
'non_'
'services_'
'24_'
'25_'
'complex_'
' .._'
'tables_'
'wish_'
'card_'
'entire_'
'wide_'
'brilliant_'
'indoor_'
'boat_'
'future_'
'construction_'
'usually_'
'onto_'
'single_'
'below_'
'low_'
'east_'
'wrong_'
'transport_'
'snacks_'
'sights_'
'toiletries_'
'problems_'
'attention_'
'received_'
'ly_'
'tram_'
'fault_'
'casino_'
'request_'
'white_'
'type_'
'longer_'
'doing_'
'sites_'
'harbour_'
'roof_'
'compared_'
'cruise_'
'lack_'
'forward_'
'bags_'
'walls_'
'de_'
'patio_'
'members_'
'luxurious_'
'previous_'
'relatively_'
'palace_'
'12_'
'comfort_'
'facility_'
'negative_'
'streets_'
'possible_'
'bonus_'
'11_'
'somewhat_'
'100_'
' – _'
'garage_'
'u_'
'literally_'
'cab_'
'further_'
'appreciated_'
'self_'
'moment_'
'live_'
'mountains_'
'downside_'
'helped_'
'underground_'
'hyatt_'
'stops_'
'positive_'
'neighborhood_'
'older_'
'boutique_'
'directions_'
'port_'
'sound_'
'heard_'
'ample_'
'delightful_'
'machine_'
'attractive_'
'fish_'
'castle_'
'renovated_'
'arriving_'
'brand_'
'convenience_'
'already_'
'running_'
'lift_'
'beyond_'
'terrific_'
'man_'
'mention_'
'perhaps_'
'red_'
'trips_'
'party_'
'disappointing_'
'beer_'
'traveling_'
'bring_'
'pricey_'
'stores_'
'reservation_'
'furnished_'
'immediately_'
'unless_'
'information_'
'conditioning_'
'incredible_'
'smile_'
'turned_'
'returning_'
'prepared_'
'game_'
'apartment_'
'families_'
'international_'
'ferry_'
'unique_'
'route_'
'built_'
'daily_'
'various_'
'hope_'
'spread_'
'charm_'
'stars_'
'finally_'
'40_'
'rates_'
'express_'
'system_'
'apart_'
'twice_'
'consider_'
'hand_'
'works_'
'reach_'
'simple_'
'fair_'
'. _'
'important_'
'ng_'
'ice_'
'life_'
'please_'
'based_'
' .- _'
'soft_'
'designed_'
'wo_'
'properties_'
'mountain_'
'summer_'
'somewhere_'
'plentiful_'
'flat_'
'considering_'
'villa_'
' ! ! !_'
'mind_'
'sunset_'
'fire_'
'art_'
'provides_'
'interstate_'
'trouble_'
'avoid_'
'beat_'
'higher_'
'cheaper_'
'feeling_'
'elevators_'
'clearly_'
'overlooked_'
'pleasure_'
'stairs_'
'lighting_'
'favorite_'
'miss_'
'read_'
'green_'
'railway_'
'third_'
'sunday_'
'means_'
'vacation_'
'continental_'
'er_'
'plan_'
'security_'
'added_'
'taxis_'
'presented_'
'larger_'
'ago_'
'picked_'
'totally_'
'closer_'
'attached_'
'coast_'
'towards_'
'common_'
'smaller_'
'edge_'
'opened_'
'&_'
'position_'
'ordered_'
'exploring_'
'freeway_'
'trees_'
'gets_'
'surprise_'
'move_'
'case_'
'dishes_'
'travelling_'
'mentioned_'
'watching_'
'screen_'
'accessible_'
'treat_'
'exit_'
' .... _'
'history_'
'complaint_'
'leaving_'
'french_'
'expectations_'
'g_'
'foot_'
'popular_'
'package_'
'offering_'
'advantage_'
'event_'
'bright_'
'functional_'
'italian_'
'indeed_'
'saturday_'
'clear_'
'rooftop_'
'starbucks_'
'supermarket_'
'pressure_'
'managed_'
'personal_'
'fully_'
'seeing_'
'buses_'
'valley_'
'downstairs_'
'stroll_'
'queen_'
'believe_'
'ten_'
'straight_'
'true_'
'chair_'
'goes_'
'notch_'
'requested_'
'stations_'
'regular_'
'chef_'
'le_'
'sink_'
'pass_'
'transportation_'
'mostly_'
'tube_'
'christmas_'
'direct_'
'cafes_'
'brought_'
'particular_'
'list_'
'completely_'
'tell_'
'cleaning_'
'serve_'
'canal_'
'bottle_'
'strip_'
'lights_'
'website_'
'laundry_'
'experienced_'
'sign_'
'tourists_'
'tours_'
'runs_'
'placed_'
'euros_'
'finding_'
'arranged_'
'paying_'
'ended_'
'incredibly_'
'unit_'
'numerous_'
'surrounded_'
'catch_'
'slept_'
'season_'
'credit_'
'moved_'
'swim_'
'following_'
'addition_'
'spaces_'
'disney_'
'marina_'
'ones_'
'magnificent_'
'harbor_'
'deck_'
'layout_'
'cars_'
'none_'
'knew_'
'complete_'
'sheraton_'
'walks_'
'obviously_'
'face_'
'normal_'
'lower_'
'him_'
'stopped_'
'rental_'
'encountered_'
'elegant_'
'45_'
'yourself_'
'feels_'
'prefer_'
'meant_'
'stocked_'
'sightseeing_'
'journey_'
'sort_'
'gate_'
'allowed_'
'furnishings_'
'buy_'
'updated_'
'advice_'
'state_'
'recent_'
'sometimes_'
'blue_'
'nicer_'
' " ._'
'budget_'
'paris_'
'elsewhere_'
'andthe_'
'okay_'
'exactly_'
'traditional_'
'transfer_'
'meet_'
'glad_'
'process_'
'minor_'
'smell_'
'smooth_'
'changed_'
'sofa_'
'character_'
'parks_'
'en_'
'evenings_'
'mid_'
'complaints_'
'microwave_'
'surroundings_'
'parked_'
'terrible_'
'thoroughly_'
'path_'
'relaxed_'
'aware_'
'waterfront_'
'hospitality_'
'started_'
'locations_'
'sat_'
'guide_'
'rain_'
'cross_'
'hesitate_'
'board_'
'impression_'
'empty_'
'secure_'
'bill_'
'2nd_'
'extensive_'
'pre_'
'drop_'
'lucky_'
'superior_'
'westin_'
'understand_'
'connected_'
'comes_'
'interior_'
'remember_'
'royal_'
'deluxe_'
'giving_'
'narrow_'
'laid_'
'terms_'
'ac_'
'fee_'
'similar_'
'/ _'
'guess_'
'odd_'
'anyway_'
'reservations_'
'fan_'
'bedrooms_'
'together_'
'worst_'
'sand_'
'gives_'
'h_'
'dirty_'
'covered_'
'drove_'
'tip_'
' “ _'
'attending_'
'stuff_'
'temperature_'
'weeks_'
'k_'
'add_'
'taste_'
'company_'
'faced_'
'dog_'
'cheese_'
'grocery_'
'gem_'
'travelers_'
'beaches_'
'chance_'
'leisure_'
'delivered_'
'memorable_'
'court_'
'detail_'
'amount_'
' % _'
'worn_'
'spotless_'
'steep_'
'rating_'
'w_'
'carpet_'
'fare_'
'serving_'
'speak_'
'indian_'
' + _'
'guy_'
'juice_'
'serves_'
'age_'
'university_'
'parts_'
'nd_'
'famous_'
'massage_'
'bread_'
'cathedral_'
'rail_'
'enter_'
'checkin_'
'cleaned_'
'prior_'
'sleeping_'
'roads_'
'idea_'
'cocktails_'
'al_'
'cons_'
'rock_'
'stays_'
'quieter_'
'jacuzzi_'
'ambience_'
'gold_'
'york_'
'map_'
'pizza_'
'stylish_'
'outlets_'
'advance_'
'bell_'
'chinese_'
'f_'
'venue_'
'overpriced_'
'rear_'
'son_'
'smoking_'
'stand_'
'massive_'
'pros_'
'prompt_'
'falls_'
'clerk_'
'welcomed_'
'channels_'
'appeared_'
'keeping_'
'acceptable_'
'attitude_'
'dubai_'
'ceiling_'
'winter_'
'gas_'
'checkout_'
'bedding_'
' ’ _'
'charged_'
'connection_'
'biggest_'
'black_'
'varied_'
'renovation_'
'suggest_'
'play_'
'surprisingly_'
'friday_'
'features_'
'sports_'
'resorts_'
'eateries_'
'euro_'
'residence_'
'highlight_'
'step_'
'equipment_'
'waited_'
'spoke_'
'lit_'
'cleanliness_'
'hit_'
'birthday_'
'rude_'
'bacon_'
'loads_'
'daughter_'
'opinion_'
'3rd_'
'pastries_'
'exceptionally_'
'lifts_'
'multiple_'
'passing_'
'wood_'
'groups_'
'feature_'
'departure_'
'friend_'
'condition_'
'twin_'
'visitors_'
'hills_'
'nearly_'
'heat_'
'bother_'
'maintenance_'
'trains_'
'trained_'
'refurbished_'
'noticed_'
'asking_'
'customers_'
'waiter_'
'sauna_'
'inviting_'
'closet_'
'hop_'
'direction_'
'recommendations_'
'platinum_'
' . )_'
'fancy_'
'nyc_'
'favourite_'
'enjoying_'
'el_'
'additional_'
'romantic_'
'con_'
'exception_'
'action_'
'upscale_'
'reading_'
'imagine_'
'ideally_'
'heated_'
'comment_'
'awful_'
'pleasantly_'
'beside_'
' ! )_'
'whether_'
'steak_'
'spots_'
'inclusive_'
'required_'
'shame_'
'(_'
'european_'
'basically_'
'adults_'
'nowhere_'
'destination_'
'willing_'
'strange_'
'counter_'
'owners_'
'fit_'
'section_'
'useful_'
'employees_'
'missed_'
'speed_'
'disappointment_'
'lines_'
'flying_'
'birds_'
'mainly_'
'months_'
'matter_'
'showed_'
'bangkok_'
'land_'
'pubs_'
'4th_'
'walkable_'
'example_'
'sent_'
'sight_'
'meetings_'
'myself_'
'doubt_'
'bigger_'
'upper_'
'japanese_'
'quaint_'
'generous_'
'feet_'
'grill_'
'american_'
'opportunity_'
'newer_'
'cookies_'
'sense_'
'uncomfortable_'
'p_'
'camp_'
'questions_'
'complain_'
'ourselves_'
'boston_'
'knowledgeable_'
'curtains_'
'normally_'
'cozy_'
'tree_'
'duty_'
'snack_'
'details_'
'thin_'
'venice_'
'corridor_'
'filled_'
'difference_'
'costs_'
'corridors_'
'santa_'
'preferred_'
'oasis_'
'lost_'
'alone_'
'fireplace_'
'signs_'
'visits_'
'heavy_'
'locals_'
'quarter_'
'rs_'
'strong_'
'pier_'
'annoying_'
'200_'
'touches_'
'gone_'
'situation_'
'starting_'
'mattress_'
' ! ) ._'
'foods_'
'happily_'
'cosy_'
'couples_'
'apparently_'
'architecture_'
'power_'
'nature_'
'yards_'
'therefore_'
'saying_'
'heading_'
'immediate_'
'planning_'
'accommodations_'
'carte_'
'reviewers_'
'machines_'
'tuk_'
'bottom_'
'5th_'
'linens_'
' ” _'
'sits_'
'entry_'
'tickets_'
'earlier_'
'positives_'
'inns_'
'treated_'
'thai_'
'notice_'
'km_'
'ers_'
'egg_'
'ways_'
'peace_'
'stone_'
'refrigerator_'
'remote_'
'ritz_'
'oh_'
'bike_'
'tight_'
'drivers_'
'sky_'
'cocktail_'
'chicago_'
'novotel_'
'appears_'
'stadium_'
'nicest_'
'chocolate_'
'historical_'
'alternative_'
'forget_'
'maker_'
' ....._'
'requests_'
'classic_'
'freshly_'
'hallway_'
'travellers_'
'fixed_'
'bank_'
'calm_'
'providing_'
'smiling_'
'showers_'
'includes_'
'original_'
'effort_'
'delight_'
' : - _'
'ie_'
' :_'
'sister_'
'impeccable_'
'discount_'
'salad_'
'asian_'
'villas_'
'lacking_'
'folks_'
'previously_'
'informed_'
'church_'
'canyon_'
'towel_'
'owner_'
'likely_'
'environment_'
'theme_'
'ski_'
'theatre_'
'wing_'
'avenue_'
'apartments_'
'gift_'
'levels_'
'opening_'
'wet_'
'shows_'
'exercise_'
'bistro_'
'touring_'
'privacy_'
'include_'
'newly_'
'nearest_'
'equally_'
'ran_'
'spending_'
'expecting_'
'impossible_'
'premium_'
'missing_'
'nor_'
'school_'
'allocated_'
'midnight_'
'junior_'
'guys_'
'tripadvisor_'
'packed_'
'ensure_'
'training_'
'depending_'
'broken_'
'control_'
'balconies_'
'cramped_'
'opted_'
'forest_'
'van_'
'mornings_'
'toast_'
'natural_'
'allow_'
'campus_'
'victoria_'
'interested_'
'appreciate_'
'interest_'
'uk_'
'storage_'
'definately_'
'computer_'
'organised_'
'occasions_'
'hallways_'
'paper_'
'playing_'
'ticket_'
'photos_'
' € _'
'cheerful_'
'tokyo_'
'1st_'
'ahead_'
'malls_'
'spotlessly_'
'heating_'
'events_'
'traveler_'
'95_'
'waitress_'
'ambiance_'
'occasion_'
'story_'
'unlike_'
'residential_'
'till_'
'ours_'
'total_'
'cream_'
'unusual_'
'eventually_'
'hair_'
'europe_'
',_'
'mean_'
'affordable_'
'pedestrian_'
'solid_'
'museums_'
'flights_'
'among_'
'frequent_'
'bag_'
'trail_'
'hike_'
'concerned_'
'cereals_'
'upstairs_'
'email_'
'champagne_'
'animals_'
'palm_'
'tidy_'
'online_'
'fort_'
'improved_'
'hardly_'
'contemporary_'
'save_'
'known_'
'track_'
'hidden_'
'bottles_'
'scrambled_'
'wow_'
'roomy_'
'houses_'
'meters_'
'six_'
'v_'
'wanting_'
'trendy_'
'breeze_'
'lagoon_'
'wildlife_'
'lively_'
'personnel_'
'bathtub_'
'pictures_'
'hang_'
'cake_'
'worse_'
'tucked_'
'properly_'
'themselves_'
'18_'
'proper_'
'suggestions_'
'talking_'
'hiking_'
'ibis_'
'dogs_'
'bikes_'
'snow_'
'14_'
'orange_'
'safari_'
'explained_'
'activity_'
'diamond_'
'promptly_'
'tennis_'
'atrium_'
'adjoining_'
'certain_'
'bustle_'
'closest_'
'movie_'
'radisson_'
'hesitation_'
'sadly_'
'talk_'
'coach_'
'cook_'
'shown_'
'smoke_'
'sheets_'
'dc_'
'dine_'
'easier_'
'negatives_'
'weekends_'
'word_'
'seafood_'
'charges_'
'x_'
'chicken_'
'vicinity_'
'beauty_'
'attended_'
'led_'
'smart_'
'temple_'
' * _'
'metres_'
'scenery_'
'showing_'
'planned_'
'possibly_'
'uber_'
'peak_'
'finished_'
'shape_'
'sorry_'
'ton_'
'faces_'
'crowds_'
'keys_'
'sweet_'
'concert_'
'purpose_'
'tips_'
'mix_'
'35_'
'onsite_'
'fly_'
'courses_'
'rush_'
'cut_'
'stopover_'
'breads_'
'greeting_'
'complained_'
'date_'
'box_'
'boats_'
'80_'
'hanging_'
'happened_'
'breathtaking_'
'marble_'
'sausage_'
'advised_'
'iron_'
'reasons_'
'90_'
'dropped_'
'wake_'
'grab_'
'transit_'
'experiences_'
'cup_'
'noted_'
'markets_'
'dry_'
'drawback_'
'horrible_'
'getaway_'
'leading_'
'necessary_'
'rome_'
'wines_'
'tons_'
'loungers_'
'dinners_'
' # _'
'fruits_'
'walkway_'
'sydney_'
'offerings_'
'july_'
'southern_'
'reserved_'
'seat_'
'contact_'
'ut_'
'springs_'
'reliable_'
'steam_'
'cable_'
'attend_'
'te_'
'barely_'
'appear_'
'eye_'
'enormous_'
'flowers_'
'answer_'
'hire_'
'friendliness_'
'industrial_'
'ladies_'
'cereal_'
'fix_'
'share_'
'plates_'
'60_'
'waiters_'
'followed_'
'fab_'
'status_'
'personally_'
'hong_'
'kitchenette_'
'desert_'
'whenever_'
'6th_'
'ta_'
'products_'
'waffles_'
'scenic_'
'foyer_'
'paradise_'
'gps_'
'field_'
'vibe_'
'exterior_'
'workout_'
'comments_'
'absolute_'
'hassle_'
'amsterdam_'
'constantly_'
'melbourne_'
'held_'
'queue_'
'sounds_'
'albeit_'
'las_'
' ! ) _'
'pet_'
'immaculate_'
'milk_'
'standing_'
'wise_'
'month_'
'calls_'
'isolated_'
'deep_'
'picture_'
'beginning_'
'reserve_'
'overlooks_'
'host_'
'anniversary_'
'airy_'
'kong_'
'assist_'
'ts_'
'countryside_'
' _'
'cbd_'
'spanish_'
'hustle_'
'recommendation_'
'become_'
'outlet_'
'aspect_'
'arrange_'
'overly_'
'ies_'
'wireless_'
'16_'
'agree_'
'clothes_'
'units_'
'woman_'
'entering_'
'lane_'
'cabin_'
'motorway_'
'berlin_'
'shared_'
'honest_'
'basement_'
'quirky_'
'ce_'
'mixed_'
'juices_'
'girl_'
'approx_'
'soap_'
'slight_'
'northern_'
'manhattan_'
'follow_'
'cuisine_'
'trails_'
'confusing_'
'ness_'
'establishment_'
'na_'
'firstly_'
'barcelona_'
'inner_'
'seasons_'
'tastefully_'
'70_'
'traveller_'
'says_'
'dryer_'
'crowd_'
'sides_'
'ship_'
'manchester_'
'form_'
'inexpensive_'
'helping_'
'0_'
'sandwiches_'
'dock_'
'wonderfully_'
' " , _'
'décor_'
'fashioned_'
'accommodate_'
'sofitel_'
'period_'
'rent_'
'continue_'
'moving_'
'spring_'
'finish_'
'sufficient_'
'speaking_'
'hi_'
'china_'
'throw_'
'compact_'
'creek_'
'burger_'
'advisor_'
'write_'
'classy_'
'replaced_'
'rated_'
'refreshing_'
'union_'
'travelled_'
'bought_'
'wooden_'
'wardrobe_'
'del_'
'adult_'
'charging_'
'hosts_'
'function_'
'college_'
'wild_'
'embassy_'
'ring_'
'corporate_'
'changing_'
'arena_'
'hospital_'
'chips_'
'mediocre_'
'agent_'
'mine_'
'vehicle_'
'francisco_'
'improvement_'
'suit_'
'football_'
'ne_'
'meat_'
'firm_'
'whatever_'
'suited_'
'obvious_'
'post_'
'cities_'
'refurbishment_'
'reached_'
'question_'
'outdated_'
'multi_'
'cooking_'
'satisfied_'
'approach_'
'minibar_'
'mirror_'
'vast_'
'linen_'
'genuinely_'
'wear_'
'cute_'
'against_'
'glasses_'
' ‘ _'
'catering_'
'opera_'
'spg_'
'extended_'
'colonial_'
'august_'
'th_'
'ion_'
'vegas_'
'cape_'
'benefit_'
'drinking_'
'pull_'
'supposed_'
'theater_'
'seattle_'
' ) - _'
'june_'
'suggested_'
'region_'
'crazy_'
'rocks_'
'portland_'
'prime_'
'selected_'
'fairfield_'
'library_'
'constant_'
'couch_'
'ey_'
'300_'
'trolley_'
'carpets_'
'positioned_'
'17_'
'delighted_'
'stuck_'
'minimal_'
'genuine_'
'conditioner_'
'dead_'
' ..... _'
'yogurt_'
'century_'
'correct_'
'promenade_'
'taj_'
'estate_'
'attraction_'
'aside_'
'premises_'
'updating_'
'happen_'
'visitor_'
'shanghai_'
'actual_'
'india_'
'soup_'
'selections_'
'handled_'
'games_'
'warmly_'
'challenge_'
'efficiently_'
'crowne_'
'poorly_'
'mr_'
'bothered_'
'informative_'
'sunny_'
'shampoo_'
'maid_'
'tricky_'
'stated_'
'send_'
'ia_'
'dealt_'
'maps_'
'signal_'
'fall_'
'match_'
'staffs_'
' ' ._'
'os_'
'eager_'
'men_'
'march_'
'wharf_'
'festival_'
'october_'
'regularly_'
'chill_'
'address_'
'poolside_'
'improve_'
'par_'
'unable_'
'thus_'
'islands_'
'beware_'
'careful_'
'towers_'
'aircon_'
'pillow_'
'complementary_'
'courtesy_'
'mark_'
'ble_'
'singapore_'
'frequently_'
'ny_'
'assistance_'
'recommending_'
'allows_'
'bbq_'
'75_'
'renovations_'
'zone_'
'tropical_'
'13_'
'result_'
'casual_'
'ave_'
'relaxation_'
'studio_'
'gracious_'
'rough_'
'planes_'
'initially_'
'florida_'
'shade_'
'sunrise_'
'types_'
'bottled_'
'ted_'
'washington_'
'receive_'
'plane_'
'discovered_'
'present_'
'infinity_'
'miami_'
'headed_'
'consistently_'
'travels_'
'carry_'
'luckily_'
'ages_'
'former_'
'george_'
'co_'
'ordinary_'
'bargain_'
'secluded_'
'magical_'
'fortunately_'
'salmon_'
'became_'
'waves_'
'tasting_'
'sorted_'
'7th_'
'neither_'
'december_'
'beers_'
'surely_'
' ( $ _'
'badly_'
'proved_'
'shore_'
'ceilings_'
'touristy_'
'golden_'
'mexican_'
'disappoint_'
'sad_'
'amongst_'
'cart_'
'plastic_'
'suitable_'
'marks_'
'cottage_'
'april_'
'mistake_'
'entered_'
'worry_'
'september_'
'basis_'
'response_'
'leaves_'
'bland_'
'cakes_'
'chosen_'
'attendant_'
'ham_'
'plate_'
'individual_'
'honestly_'
'presentation_'
'porch_'
'com_'
'piece_'
'liverpool_'
'seriously_'
'healthy_'
'forgot_'
'sandwich_'
'gentleman_'
'scene_'
'tranquil_'
'trams_'
'intercontinental_'
'employee_'
'wash_'
'carpark_'
'nightlife_'
'neighbourhood_'
'kettle_'
'january_'
' , ( _'
'zoo_'
'virtually_'
'owned_'
'seats_'
'lush_'
'pacific_'
'thinking_'
'clock_'
'rare_'
'ra_'
'plugs_'
'putting_'
'neat_'
'dined_'
'dollars_'
'besides_'
'z_'
'john_'
'hence_'
'chaotic_'
'strongly_'
'overlook_'
'hopefully_'
'serious_'
'partner_'
'shut_'
' '
'voucher_'
'portions_'
'500_'
'commercial_'
'beaten_'
'treatment_'
'lodging_'
'landing_'
'cover_'
'staffed_'
'highest_'
'keen_'
'wind_'
'regarding_'
'chic_'
'ur_'
'treatments_'
'passed_'
'dublin_'
'amazingly_'
'final_'
'everyday_'
' , " _'
'wants_'
'edinburgh_'
'tastes_'
'greet_'
'fourth_'
'starts_'
'decision_'
'row_'
'extras_'
'thru_'
'shuttles_'
'impressions_'
'chat_'
'dessert_'
'cabins_'
'girls_'
'30am_'
'hold_'
'picturesque_'
'america_'
'sold_'
'tasted_'
'server_'
'info_'
'fittings_'
'hundred_'
'computers_'
'paint_'
'circle_'
'lacked_'
'colleagues_'
'transfers_'
'mt_'
'television_'
'eaten_'
'* _'
'caught_'
'ihg_'
'rise_'
'crossing_'
'reef_'
'lounges_'
'collection_'
'factor_'
'concern_'
'splendid_'
'slippers_'
'elite_'
'glasgow_'
'knowledge_'
'conversation_'
'" _'
' ! ! ! !_'
'considered_'
'passes_'
'oxford_'
'stopping_'
'pointed_'
'hole_'
'prague_'
'wished_'
'ry_'
'retreat_'
'stretch_'
'heritage_'
'converted_'
'serviced_'
' ? _'
'cliff_'
'locally_'
'weird_'
'tvs_'
'suitcases_'
'holidays_'
'drives_'
'climb_'
'british_'
'bartender_'
'november_'
'plug_'
'exciting_'
'pulled_'
'advise_'
'decoration_'
'asset_'
'viewing_'
'arrangements_'
'advertised_'
'manor_'
'sunbeds_'
'removed_'
'escape_'
'curtain_'
'sets_'
'rd_'
'manner_'
'doorman_'
'carlton_'
'monday_'
'lisbon_'
'combination_'
'health_'
'connecting_'
'news_'
'calling_'
'chains_'
'salt_'
'responsive_'
'warned_'
'deliver_'
'aspects_'
'managers_'
'tough_'
'peninsula_'
'electric_'
'biscuits_'
'jungle_'
'smiles_'
'assigned_'
'exceeded_'
'wonder_'
'orlando_'
'hands_'
'consistent_'
'beverage_'
'madrid_'
'lazy_'
'disneyland_'
'vancouver_'
'doorstep_'
'sandy_'
'irish_'
'pickup_'
'die_'
'yard_'
'bird_'
'replenished_'
'ish_'
'meats_'
'lacks_'
'fell_'
'brown_'
'residents_'
'dish_'
'sleeper_'
'deserves_'
' –_'
'bellman_'
'chinatown_'
'photo_'
'typically_'
'familiar_'
'authentic_'
'vegetarian_'
'lawn_'
'remembered_'
'crown_'
'wander_'
'roll_'
'fill_'
'today_'
'tend_'
'partial_'
'bts_'
'8th_'
'driveway_'
'towns_'
'changes_'
'restored_'
'bakery_'
'supplied_'
'watched_'
'opens_'
'ere_'
'buffets_'
'doubletree_'
'stood_'
'ic_'
'omelette_'
'thick_'
'band_'
' .* _'
'intimate_'
'currently_'
'capital_'
'22_'
'butler_'
'comparison_'
')_'
'weak_'
'chateau_'
'nevertheless_'
'sunsets_'
'sliding_'
'brussels_'
'brief_'
'parties_'
'pancakes_'
'drag_'
'riverwalk_'
'outskirts_'
'child_'
'played_'
'funky_'
'adventure_'
'warmth_'
'mobile_'
'tall_'
'nightly_'
'delhi_'
'update_'
'fitted_'
'robes_'
'banks_'
'department_'
'café_'
'30pm_'
'glacier_'
'cases_'
'manage_'
'fishing_'
'les_'
'promised_'
'beef_'
'effective_'
'plain_'
'web_'
'venture_'
'renaissance_'
'criticism_'
'alley_'
'organized_'
'fountain_'
'described_'
'eastern_'
'happening_'
'channel_'
'stained_'
'rides_'
'schedule_'
'ease_'
'rustic_'
'eve_'
'clubs_'
'sausages_'
'denver_'
'needing_'
'mrt_'
'italy_'
'require_'
'fixtures_'
'cards_'
'navigate_'
'lived_'
'connect_'
'importantly_'
'accessed_'
'servers_'
'saved_'
'handle_'
'costa_'
'usd_'
'florence_'
'compare_'
'venues_'
'mercure_'
'kings_'
'ge_'
'et_'
'excursions_'
'answered_'
'visible_'
'hip_'
'france_'
'approximately_'
'toward_'
'jet_'
'dive_'
'boarding_'
'originally_'
'woke_'
'tracks_'
'delivery_'
'cups_'
'beverages_'
'fields_'
'completed_'
'$ _'
'unpleasant_'
'supply_'
'se_'
'farm_'
'cheapest_'
'signage_'
'beijing_'
'150_'
'umbrellas_'
'switch_'
'awkward_'
'diner_'
'cater_'
'appearance_'
'tion_'
'parents_'
'policy_'
'nobody_'
'trucks_'
'boardwalk_'
'shabby_'
'purchase_'
'fluffy_'
'restful_'
'boring_'
'bang_'
'remains_'
'butthe_'
'safety_'
'forth_'
'desired_'
'mcdonalds_'
'degrees_'
'category_'
'ridiculous_'
'reported_'
'heathrow_'
'skyline_'
'smallish_'
'horse_'
'smelled_'
'accor_'
'menus_'
'supplies_'
'cove_'
'bear_'
'cash_'
'pit_'
'pricing_'
'powerful_'
'appealing_'
'riverside_'
'quay_'
'selling_'
'log_'
'largest_'
'crew_'
'worried_'
'turns_'
'knows_'
'satisfactory_'
'retail_'
'colleague_'
'pain_'
'locate_'
'21_'
'fried_'
'ns_'
'bahn_'
'staircase_'
'alarm_'
'pond_'
'junction_'
'extraordinary_'
'baby_'
'repeat_'
'traveled_'
'beachfront_'
'swift_'
'walmart_'
'seated_'
'noises_'
'display_'
'truck_'
'trade_'
'ironing_'
'rented_'
'mount_'
'inconvenient_'
'ty_'
'boxes_'
'condo_'
'munich_'
'leads_'
'deco_'
'-- _'
'porter_'
'culture_'
' --- _'
'landscaped_'
'lodges_'
'snorkeling_'
'tad_'
'february_'
'disturbed_'
'stands_'
'california_'
'array_'
'explain_'
'dream_'
'print_'
'sell_'
'montreal_'
'initial_'
'body_'
'establishments_'
'omelettes_'
'joy_'
'directed_'
'meaning_'
'luck_'
'caring_'
'heavenly_'
'faultless_'
'challenging_'
'hoteland_'
'remodeled_'
'pot_'
'magic_'
'fireworks_'
'describe_'
' (_'
'ft_'
'perfection_'
'gripe_'
'panoramic_'
'excited_'
'steakhouse_'
'apology_'
'priority_'
'highlights_'
'dressing_'
'bungalow_'
'everybody_'
'cheeses_'
'adds_'
'ma_'
'surprising_'
'oriented_'
'istanbul_'
'diego_'
'thankfully_'
'program_'
'plans_'
'length_'
'benefits_'
'knowing_'
'starwood_'
'respect_'
'inconvenience_'
'heater_'
'rich_'
'yummy_'
'uphill_'
'majority_'
'distant_'
'baked_'
'los_'
'croissants_'
'businesses_'
'offices_'
'landscaping_'
'broadway_'
'zurich_'
' --_'
'plants_'
'19_'
'ball_'
'figure_'
'fortunate_'
'flew_'
' … _'
'seven_'
'personable_'
'accomodating_'
'400_'
'vienna_'
'rice_'
'guides_'
'halls_'
'ay_'
'words_'
'motels_'
'boys_'
'rewards_'
'frankly_'
'dinning_'
'washing_'
'cabs_'
'frustrating_'
'apologetic_'
'potential_'
'lay_'
'homewood_'
'grass_'
' ;_'
'waikiki_'
'catching_'
'da_'
'outdoors_'
'locked_'
'plush_'
'tasteful_'
'tray_'
'tax_'
'blocked_'
'ons_'
'highways_'
'numbers_'
'kyoto_'
'giant_'
'desserts_'
'catered_'
'helps_'
'unwind_'
'specially_'
'101_'
'loch_'
'bustling_'
'ous_'
'availability_'
'unfriendly_'
'unbelievable_'
'receptionists_'
'links_'
'boy_'
'piazza_'
'asia_'
'summary_'
'unexpected_'
'ley_'
'allowing_'
' ) ; _'
'target_'
'guided_'
'stuffy_'
'cottages_'
'sunshine_'
'dedicated_'
'crystal_'
'learn_'
'marked_'
'exquisite_'
'charles_'
'bali_'
'waters_'
'africa_'
'antonio_'
'competent_'
'difficulty_'
'baggage_'
'rarely_'
'trek_'
'structure_'
'gates_'
'vanity_'
'shall_'
'hungry_'
'concept_'
'caters_'
'michigan_'
'nightmare_'
'filling_'
'choosing_'
'ar_'
'waste_'
'tent_'
'telling_'
'ment_'
'ancient_'
'stains_'
'concrete_'
'bunch_'
'turning_'
'names_'
'marco_'
'exchange_'
'forever_'
'lock_'
'ling_'
'lakes_'
'apple_'
'temples_'
'tap_'
'jw_'
'bund_'
'fans_'
'don_'
'bush_'
'agreed_'
'weights_'
'windy_'
'exec_'
'expansive_'
'arrangement_'
'reminded_'
'diving_'
'usa_'
'somehow_'
'german_'
'failed_'
'lives_'
'canada_'
'haven_'
'starter_'
'supermarkets_'
'paths_'
'gm_'
'neighbors_'
'alcohol_'
'woods_'
'disabled_'
'deals_'
'language_'
'books_'
'james_'
'alot_'
'du_'
'9th_'
'gourmet_'
'funny_'
'background_'
'movies_'
'cinema_'
'celebrate_'
'decide_'
'waffle_'
'glorious_'
'tiles_'
'serene_'
'rose_'
'storey_'
'continued_'
'england_'
'10th_'
'universal_'
'instructions_'
'warning_'
'suggestion_'
'mexico_'
'occupied_'
'active_'
'practically_'
'formal_'
'community_'
'seconds_'
'police_'
'support_'
'lets_'
'kudos_'
'bedside_'
'jr_'
'routes_'
'riding_'
' ." _'
'regret_'
'practical_'
'internal_'
'bowl_'
'male_'
'competition_'
'pity_'
'term_'
'specific_'
'comparable_'
'buggy_'
'tapas_'
'terminals_'
'sushi_'
'oatmeal_'
'worthwhile_'
'connections_'
'upmarket_'
'women_'
'midtown_'
'monkeys_'
'courts_'
' ) . _'
'workers_'
'ville_'
'smoked_'
'muffins_'
'lax_'
'vehicles_'
'ships_'
'charleston_'
'portion_'
'elegance_'
'volcano_'
'hk_'
'ability_'
': _'
'remarkable_'
'kindly_'
'weddings_'
'suspect_'
'ss_'
'requires_'
'refused_'
'named_'
'japan_'
'fifth_'
'draw_'
'factory_'
'suppose_'
'mosque_'
'cause_'
'primarily_'
'seaside_'
'mill_'
'closing_'
'australia_'
' ! ) , _'
'naples_'
'communal_'
'assured_'
'raining_'
'ireland_'
'seafront_'
'pasta_'
'kinds_'
'electrical_'
'massages_'
'fellow_'
'rolls_'
'realize_'
'significant_'
'saving_'
'mtr_'
'greatest_'
'birmingham_'
'split_'
'freezing_'
' , & _'
'landscape_'
'travelodge_'
'wandering_'
'hey_'
'downhill_'
'ultra_'
'bringing_'
'ingredients_'
'hoping_'
'ation_'
'regency_'
'lincoln_'
'hairdryer_'
'greatly_'
'000_'
'whom_'
'pro_'
'clients_'
'pack_'
'confirmed_'
'ugly_'
'speedy_'
'opportunities_'
'brings_'
'heaven_'
'playa_'
'kid_'
'escorted_'
'doormen_'
'buffalo_'
'honors_'
'sh_'
'comfortably_'
'specifically_'
'listen_'
'ian_'
'cell_'
'breath_'
'woken_'
'fairmont_'
'fe_'
'enthusiastic_'
'zero_'
'produce_'
'mess_'
'atlanta_'
'andi_'
'springhill_'
'current_'
'report_'
'laptop_'
'gladly_'
'cared_'
'cancun_'
'written_'
'immaculately_'
'ramp_'
'ms_'
'bungalows_'
'sinks_'
'lead_'
'hotelthe_'
'themed_'
'hub_'
'coral_'
'resolved_'
'orders_'
'amenity_'
'23_'
'pieces_'
'accomodation_'
'lined_'
'hundreds_'
'´_'
'vegetables_'
'settled_'
'hwy_'
'unbeatable_'
'suitcase_'
'penny_'
'race_'
'caribbean_'
'google_'
'yellow_'
'reputation_'
'noon_'
'dollar_'
'capitol_'
'2012_'
'soundproofing_'
'smoothly_'
'queues_'
'chocolates_'
'praise_'
'tubs_'
'sthe_'
'rocky_'
'account_'
'nespresso_'
'bite_'
'listening_'
'hospitable_'
'helpfull_'
'hectic_'
'underneath_'
'rang_'
'omelet_'
'joke_'
'silver_'
'ruins_'
'phoenix_'
'alternatives_'
'hollywood_'
'female_'
'contained_'
'albert_'
'vibrant_'
'dressed_'
'begin_'
'research_'
'piano_'
'social_'
'shoes_'
'resident_'
'gallery_'
'chilly_'
'anytime_'
'shangri_'
'intrusive_'
'competitive_'
'ting_'
'urban_'
'energy_'
'demand_'
'circular_'
'amazed_'
'whatsoever_'
'driven_'
'blu_'
' ...... _'
'combined_'
'brunch_'
'mart_'
'hello_'
'fashion_'
'unacceptable_'
'rip_'
'realized_'
'des_'
'veranda_'
'sri_'
'honeymoon_'
'era_'
'reviewer_'
'resturant_'
'mother_'
'glazing_'
'skip_'
'soho_'
'manicured_'
'fascinating_'
'minimum_'
'writing_'
'salads_'
'max_'
'um_'
'snorkelling_'
' . , _'
'confused_'
'thursday_'
'sparkling_'
'smallest_'
'ear_'
'commented_'
'bits_'
'stream_'
'waterfall_'
'complaining_'
'awake_'
'select_'
'puerto_'
'courtyards_'
'code_'
'upgrades_'
'hate_'
'ent_'
'mobility_'
'flawless_'
'attendants_'
'exclusive_'
' …_'
'spoilt_'
'prepare_'
'involved_'
'occasional_'
'admit_'
'semi_'
'hie_'
'ends_'
'degree_'
'99_'
'est_'
'destinations_'
'lunches_'
'disturb_'
' . ) _'
'pounds_'
'lion_'
'memorial_'
'discover_'
'hyde_'
'bet_'
'rainy_'
'casa_'
'mary_'
'mattresses_'
'easter_'
'mumbai_'
'enclosed_'
'separated_'
'jose_'
'alongside_'
'chaos_'
'phones_'
'ha_'
'atlantic_'
'potatoes_'
'ill_'
'cleared_'
'baths_'
'omelets_'
'hillside_'
'adelaide_'
'mansion_'
'basin_'
'join_'
'dust_'
'sorts_'
'load_'
'carts_'
'washer_'
'paul_'
'ka_'
'definite_'
'accept_'
'un_'
'outlook_'
'arranging_'
'frills_'
'pop_'
'forgotten_'
'bristol_'
'repair_'
'lamb_'
'dance_'
'aquarium_'
'ps_'
'twenty_'
'happens_'
'q_'
'ignored_'
'dull_'
'cookie_'
'medical_'
'keeps_'
'brasserie_'
'registration_'
'scotland_'
'heartbeat_'
'assume_'
'2013_'
'sounded_'
'relative_'
'rack_'
'hrs_'
'homemade_'
'created_'
'blinds_'
'loyalty_'
' .: _'
'bookings_'
'piccadilly_'
'musty_'
'conferences_'
'siam_'
'picking_'
'elephants_'
'conditioned_'
'ally_'
'vouchers_'
'fees_'
'afford_'
'liking_'
'discounted_'
'according_'
'appropriate_'
'ya_'
'ood_'
'tuesday_'
'phenomenal_'
'pride_'
'warmer_'
'terribly_'
'savannah_'
'purchased_'
'airline_'
'slide_'
'requirements_'
'milan_'
'stones_'
'professionalism_'
'arrivals_'
'tremendous_'
'tranquility_'
'andwe_'
'brick_'
'hat_'
'roomthe_'
'minus_'
'ter_'
'duomo_'
'cultural_'
'que_'
'cancelled_'
'barman_'
'ls_'
'understaffed_'
'deer_'
'annex_'
'medium_'
'thoughtful_'
'thailand_'
'worthy_'
'upgrading_'
'toilets_'
'impersonal_'
'search_'
'nashville_'
'cleaner_'
'spain_'
'hgi_'
'decorations_'
'starters_'
'lobster_'
'overwhelmed_'
'maria_'
'ful_'
'ri_'
'collect_'
'abundance_'
'pushed_'
'guard_'
'endless_'
'dangerous_'
'ding_'
'casinos_'
'david_'
'ch_'
'mail_'
'jazz_'
'duvet_'
'county_'
'tops_'
'accommodated_'
'16th_'
'tunnel_'
'tourism_'
'concerns_'
'charlotte_'
'phuket_'
'hoped_'
'flow_'
'continues_'
'eyes_'
'spoiled_'
'border_'
'wherever_'
'sumptuous_'
'2014_'
'lamp_'
'patong_'
'exhibition_'
'ad_'
'jump_'
'financial_'
'caused_'
'rural_'
'closes_'
'nestled_'
'hen_'
'coastal_'
'stock_'
'domestic_'
'ridge_'
'carried_'
'grateful_'
'ordering_'
'deli_'
'29_'
'stories_'
'maze_'
'flower_'
'28_'
'stayand_'
' ' , _'
'sofas_'
'unhelpful_'
'pork_'
'seperate_'
'sa_'
'finest_'
'deserve_'
'chefs_'
'ys_'
'learned_'
'regardless_'
'existent_'
'essential_'
'chatting_'
'listed_'
'jam_'
'balance_'
'scale_'
'earth_'
'dozen_'
' . ._'
'tended_'
'motor_'
'drury_'
'joined_'
'development_'
'undergoing_'
'entertaining_'
'posted_'
'ds_'
'states_'
'skiing_'
'realised_'
'fuss_'
'entirely_'
'dame_'
'superbly_'
'sales_'
'link_'
'ess_'
'saint_'
'noticeable_'
'memories_'
'dirt_'
'dancing_'
'hostess_'
'mass_'
'yellowstone_'
'scones_'
'readily_'
'pleasing_'
'orleans_'
'lakeside_'
'basics_'
'storm_'
'sockets_'
'proofing_'
'whose_'
'loop_'
'lions_'
'2015_'
'spite_'
'item_'
'heads_'
'unload_'
'obliging_'
'latter_'
'intersection_'
'26_'
'appeal_'
'contrast_'
'sauce_'
'treadmills_'
'insulation_'
'bagels_'
'grace_'
'baseball_'
'struggle_'
'series_'
'seamless_'
'clientele_'
'build_'
'brands_'
'winding_'
'monument_'
'iceland_'
'dealing_'
'ba_'
'contacted_'
'setup_'
'newspaper_'
'nonetheless_'
'annual_'
' .-_'
'stress_'
'michelin_'
'gesture_'
'emailed_'
'shout_'
'gulf_'
'dip_'
'dallas_'
'vista_'
'surf_'
'sharing_'
'dunes_'
'carefully_'
'attempt_'
'– _'
'treats_'
'empire_'
'colors_'
'efficiency_'
'curry_'
'abundant_'
'parliament_'
'dozens_'
'waking_'
'rt_'
'struggled_'
'spotty_'
'mood_'
'il_'
'umbrella_'
'tech_'
'frankfurt_'
'delay_'
'substantial_'
'preference_'
'expectation_'
'engaging_'
'hired_'
'unlimited_'
'monorail_'
'ant_'
'wings_'
'brewery_'
'essentially_'
'communication_'
'personality_'
'vs_'
'colorado_'
'chilled_'
'approached_'
'rubbish_'
'excuse_'
'ai_'
'taipei_'
'cat_'
'accurate_'
'wineries_'
'greek_'
'juan_'
'devices_'
'crisp_'
'toronto_'
'athens_'
'12th_'
'goodthe_'
'sorrento_'
'improvements_'
'bw_'
'eur_'
'picnic_'
'reviewed_'
'poached_'
' /_'
'bend_'
'riu_'
'modest_'
'cooler_'
'chalet_'
'talked_'
'handed_'
'burgers_'
'pace_'
'switched_'
'pluses_'
'ity_'
'drawers_'
'darling_'
'cleaners_'
'layover_'
'stage_'
'master_'
'addressed_'
'seoul_'
'dreadful_'
'bathrobes_'
'aloft_'
'.. _'
'professionally_'
'terraces_'
'create_'
'purposes_'
'printed_'
'operate_'
'duck_'
'blvd_'
'height_'
'confirmation_'
'skytrain_'
'princess_'
'app_'
'stepped_'
'ping_'
'timeshare_'
'stockholm_'
'printer_'
'jackson_'
'emails_'
'dim_'
'assisted_'
'appetizers_'
'featured_'
'texas_'
'conditions_'
'secret_'
'pure_'
'ana_'
'yosemite_'
'smokers_'
'realise_'
'dropping_'
'understanding_'
'villages_'
'va_'
'lounging_'
'depressing_'
'250_'
'rushed_'
'patient_'
'marvelous_'
'hhonors_'
'aircraft_'
'african_'
'external_'
'houston_'
'delayed_'
'tile_'
'lamps_'
'fifteen_'
'di_'
'victorian_'
'midst_'
'fits_'
'sheet_'
'assortment_'
'2016_'
'parador_'
'liquor_'
'falling_'
'useless_'
'tesco_'
'shelf_'
'shallow_'
'color_'
'celebration_'
'antique_'
'teas_'
'reality_'
'operated_'
'lly_'
'hr_'
'cutlery_'
'scheduled_'
'runway_'
'ferries_'
'elephant_'
'sands_'
'marvellous_'
'largely_'
'basketball_'
'solo_'
'government_'
'count_'
'bridges_'
'11th_'
'departing_'
'grove_'
'pricy_'
'mcdonald_'
'knowledgable_'
'shaped_'
'bells_'
'melia_'
'cuba_'
'supper_'
'majestic_'
'penn_'
'ine_'
'ier_'
'friendliest_'
'cooling_'
'eiffel_'
'edges_'
'tide_'
'overhead_'
'leisurely_'
'atm_'
'acropolis_'
'indifferent_'
'conversations_'
'encounter_'
'refurb_'
'grey_'
'sample_'
'holes_'
'gluten_'
'drops_'
'desire_'
'regis_'
'nce_'
'gated_'
'gel_'
'screaming_'
'banquet_'
'sedona_'
'blown_'
'ridiculously_'
'eg_'
'related_'
'smells_'
'sf_'
'focus_'
' ? ) _'
'wallpaper_'
'scottish_'
'poster_'
'hearing_'
'trust_'
'galleria_'
'maids_'
'coupon_'
'chester_'
'pastry_'
'confirm_'
'neighbours_'
'conservatory_'
'skills_'
'proud_'
'ale_'
'lawns_'
'stick_'
'plantation_'
'divine_'
'gran_'
'boiled_'
'55_'
'yoghurt_'
'mar_'
'gin_'
'forced_'
'began_'
'sleek_'
'priceline_'
'delivers_'
'expense_'
'associated_'
'walkways_'
'landmark_'
'puts_'
'description_'
'copenhagen_'
'olympic_'
'ni_'
'reduced_'
'lie_'
'network_'
'plumbing_'
'opt_'
'neighbouring_'
' :)_'
'similarly_'
'oriental_'
'peter_'
'net_'
'soaking_'
'drawer_'
'docks_'
'painted_'
'nearer_'
'railroad_'
'& _'
'meter_'
'groceries_'
'comprehensive_'
'afterwards_'
'ings_'
'disaster_'
'stale_'
'seemingly_'
'ot_'
'walled_'
'consisted_'
'chris_'
'tear_'
'senior_'
'cliffs_'
'client_'
'27_'
'mere_'
'eight_'
'companies_'
'smack_'
'j_'
'tone_'
'ck_'
'arts_'
'goods_'
'bartenders_'
'cracker_'
'np_'
'granted_'
'denny_'
'cordial_'
'cap_'
'omni_'
'earplugs_'
'trash_'
'remain_'
'eco_'
'centers_'
'additionally_'
'abbey_'
'wee_'
'feedback_'
'drain_'
'weight_'
'radius_'
'pa_'
'havana_'
'farther_'
'barrel_'
'singing_'
'cigarette_'
'damp_'
'passengers_'
'diners_'
'cleveland_'
'telephone_'
'ups_'
'posh_'
'madison_'
'aged_'
'greenery_'
'budapest_'
'act_'
'topped_'
'michael_'
'dingy_'
'refreshed_'
'player_'
'xmas_'
'neighboring_'
'becomes_'
'accompanied_'
'soak_'
'resturants_'
'18th_'
'exemplary_'
'rio_'
'phoned_'
'newspapers_'
'austin_'
'alamo_'
'whirlpool_'
'taxes_'
'elderly_'
'coffees_'
'insisted_'
'$_'
'verandah_'
'meets_'
'geneva_'
'daytime_'
'cope_'
'abu_'
'product_'
'pavilion_'
'memory_'
'pristine_'
'tasteless_'
'gare_'
'focused_'
'annoyed_'
'suits_'
'lap_'
'entrances_'
'00am_'
'zion_'
'restuarant_'
'operation_'
'2011_'
'carrying_'
'ins_'
'espresso_'
'15th_'
'studios_'
'excursion_'
'occasionally_'
'jetty_'
'sanctuary_'
'fountains_'
'boulevard_'
'queens_'
'miserable_'
'14th_'
'!_'
'pittsburgh_'
'paddington_'
'hare_'
'swiss_'
'yoga_'
'timely_'
'palms_'
'overwhelming_'
'deserted_'
'buzz_'
'younger_'
'replace_'
'industry_'
'burg_'
') _'
'relations_'
'raised_'
'adding_'
'turndown_'
'steaks_'
'speaks_'
'ford_'
'congested_'
'claim_'
'separately_'
'pudding_'
'grande_'
'dvd_'
'radio_'
'porters_'
'avoided_'
'newport_'
'fed_'
'covers_'
'beans_'
'anymore_'
'00pm_'
'refresh_'
'narita_'
'hut_'
'elements_'
'colour_'
'sol_'
'ranch_'
'osaka_'
'thermostat_'
'disco_'
'designer_'
'likes_'
'philadelphia_'
'louis_'
'ions_'
'interiors_'
'cardio_'
'65_'
'frozen_'
'crab_'
'andit_'
'opposed_'
'evident_'
'sum_'
'quinta_'
'hotelbut_'
'kl_'
'bruges_'
'tel_'
'squeezed_'
'presence_'
'comforts_'
'shot_'
'rolling_'
'ensured_'
'sidewalk_'
'shocked_'
'sed_'
'oslo_'
'animal_'
'vineyards_'
'richmond_'
'replacement_'
'gondola_'
'cambridge_'
'wheel_'
'sprawling_'
'housekeeper_'
'guaranteed_'
'wave_'
'unfortunate_'
'reply_'
'. , _'
' ( £ _'
'responded_'
'newcastle_'
'message_'
'downsides_'
'controls_'
'bare_'
'turkey_'
'roman_'
' [ _'
'deposit_'
'ambassador_'
'marriot_'
'lanka_'
'effect_'
'explanation_'
'corners_'
'complicated_'
'atmospheric_'
'surrounds_'
'olive_'
'controlled_'
'afraid_'
'tournament_'
'regards_'
'ated_'
' ......_'
'waitresses_'
'notre_'
' — _'
'concierges_'
'triple_'
'taff_'
'recognition_'
'outback_'
'loudly_'
'idyllic_'
'spare_'
'marathon_'
'66_'
'colours_'
'sing_'
'ou_'
'filthy_'
'affair_'
'salzburg_'
'homeless_'
'broad_'
'cycle_'
'cupboard_'
'ben_'
'sfo_'
'jfk_'
'bucks_'
'vip_'
'orchard_'
'norm_'
'faster_'
'dusty_'
'columbus_'
'platz_'
'napa_'
'membership_'
'cardiff_'
'basket_'
'sirens_'
'heavily_'
'fisherman_'
'figured_'
'bourbon_'
'needless_'
'explaining_'
'winner_'
'surly_'
'seville_'
'secondly_'
'plunge_'
'vary_'
'roundabout_'
'interaction_'
'climbing_'
'signature_'
'perspective_'
'lanes_'
'maintain_'
'ee_'
'inadequate_'
'title_'
'restricted_'
'inconsistent_'
'fires_'
'columbia_'
'banging_'
'; _'
'peeling_'
'marine_'
'jersey_'
'rue_'
'faulted_'
'surface_'
'gateway_'
'dome_'
'rank_'
'med_'
'hikes_'
'foreign_'
' ? ?_'
'rep_'
'remained_'
'sub_'
'painless_'
'lo_'
'tents_'
'suburban_'
'10min_'
'waldorf_'
'solution_'
'slides_'
'galleries_'
'expedia_'
'reakfast_'
'vending_'
'oak_'
'dress_'
'dam_'
'blowing_'
'ubud_'
'god_'
'ded_'
'ventilation_'
'significantly_'
'pink_'
'nz_'
'independent_'
'iconic_'
'war_'
'uses_'
'remove_'
'gotten_'
'10mins_'
'shortly_'
'loose_'
'dhabi_'
'beefeater_'
'leg_'
'insulated_'
'electronic_'
'wheelchair_'
'proof_'
'latest_'
'ance_'
'payment_'
'ro_'
'consists_'
'imperial_'
'apparent_'
'volume_'
'usb_'
'sketchy_'
'galway_'
'valets_'
'thames_'
'crater_'
'moderate_'
'expressway_'
'metal_'
'scary_'
'picky_'
'li_'
'tlc_'
'jobs_'
'playground_'
'disgusting_'
'accepted_'
'19th_'
'tag_'
'pampered_'
'stall_'
'mold_'
'tries_'
'lemon_'
'meridien_'
'medieval_'
'conrad_'
'bicycles_'
'satisfaction_'
'perched_'
'partly_'
'17th_'
'regard_'
'homes_'
'sugar_'
'lies_'
'landed_'
'geared_'
'bored_'
'ramblas_'
'porridge_'
'sq_'
'consideration_'
'extension_'
'sizes_'
' .'
'hvac_'
'efforts_'
'shares_'
'uninspiring_'
'supervisor_'
'rainforest_'
'ginza_'
'unforgettable_'
'parkway_'
'enjoyment_'
'pie_'
'+ _'
'temp_'
'pullman_'
'pets_'
'minimalist_'
'garbage_'
'bucket_'
'arch_'
'`_'
'lunchtime_'
'capacity_'
'unsafe_'
'soul_'
'outer_'
'newest_'
'disturbing_'
'button_'
'guarantee_'
'unusually_'
'supposedly_'
'occupancy_'
'grade_'
'williamsburg_'
'ky_'
'indoors_'
'nav_'
'ensuite_'
'waterpark_'
'press_'
'kinda_'
'outrageous_'
'biking_'
'stratford_'
'loft_'
'carvery_'
'understated_'
'brisbane_'
'push_'
'mediterranean_'
'oregon_'
'ipod_'
'hurry_'
'ruby_'
'roast_'
'jams_'
'gear_'
'acres_'
'georgetown_'
'sells_'
'countries_'
'spray_'
'relief_'
'jewel_'
'detailed_'
'artwork_'
'homely_'
'shades_'
'mission_'
'arms_'
'altogether_'
'bs_'
'20th_'
'specials_'
'ff_'
'core_'
'butter_'
'a1_'
';_'
'makeover_'
'theatres_'
'riad_'
'snorkel_'
'shouting_'
'rim_'
'refund_'
'perk_'
'perks_'
'matters_'
'shortage_'
'floating_'
'ensuring_'
'assistant_'
'signed_'
'ga_'
'stored_'
'sparse_'
'functions_'
'excessive_'
' :-)_'
'printing_'
'overcrowded_'
'auckland_'
'wrote_'
'ors_'
'linked_'
' . ) ._'
'vintage_'
'silent_'
'pint_'
'nasty_'
'bowling_'
' " ( _'
'upset_'
'secured_'
'ide_'
'id_'
'quarters_'
'monaco_'
'strength_'
'cuts_'
'clothing_'
'feed_'
' . - _'
'wa_'
'nibbles_'
'moon_'
'ke_'
'ipad_'
'invited_'
'gathering_'
'oceanfront_'
'mandarin_'
'hourly_'
'fries_'
'cave_'
'barrier_'
'queenstown_'
'quebec_'
'ell_'
'alcoholic_'
'spoil_'
'porto_'
'hawaii_'
'clearing_'
'carmel_'
'breaks_'
'stepping_'
'privilege_'
'helpfulness_'
'seeking_'
'denali_'
'2017_'
'turkish_'
'ks_'
'persons_'
'lima_'
'gap_'
'leeds_'
'buying_'
'architectural_'
'patrons_'
'coupons_'
'marriotts_'
'luke_'
'gatwick_'
'depends_'
'instant_'
'roughly_'
'necessarily_'
'buzzing_'
'mouth_'
'backs_'
'... _'
'wilderness_'
'scottsdale_'
'letting_'
'ist_'
'sophisticated_'
'120_'
'moments_'
'mirrors_'
'fight_'
'exhausted_'
'durham_'
'bench_'
'loyal_'
'lcd_'
'interacted_'
'connects_'
'wan_'
'oddly_'
'greater_'
'developed_'
'coconut_'
'gentle_'
'veg_'
'sofia_'
'si_'
'pancake_'
'alright_'
'doubles_'
'arcade_'
'conveniences_'
'considerable_'
'blackout_'
'barbara_'
'sometime_'
'respond_'
'32_'
'waterloo_'
'performance_'
'operator_'
'lastly_'
'facade_'
'emirates_'
'apologized_'
'tly_'
'oil_'
'gravy_'
'daylight_'
'adequately_'
'won_'
'jack_'
'excellence_'
'cubicle_'
'ending_'
'easiest_'
'angeles_'
'ncp_'
'confusion_'
'commute_'
'au_'
'reflect_'
'anybody_'
'wednesday_'
'tho_'
'irritating_'
'handling_'
'classes_'
'robe_'
'kms_'
'indicated_'
'glazed_'
'collected_'
'warsaw_'
'indigo_'
'sport_'
'shaded_'
'nh_'
'dual_'
'baht_'
'halfway_'
'fayre_'
'pearl_'
'mod_'
' ] _'
'thrilled_'
'astoria_'
'sensational_'
'lose_'
'elevated_'
'students_'
'jumping_'
'version_'
'platform_'
'kowloon_'
'imposing_'
'humid_'
'christchurch_'
'varieties_'
'gorge_'
'negotiate_'
'blankets_'
'ignore_'
'anda_'
'requesting_'
'midway_'
'liberty_'
'craft_'
'cheery_'
'temperatures_'
'restuarants_'
'emergency_'
'celebrating_'
'sweeping_'
'screens_'
'opulent_'
'shady_'
'respects_'
'airports_'
'den_'
'cares_'
'sale_'
'monastery_'
'explored_'
'drab_'
'clerks_'
'botanical_'
'boards_'
'wellington_'
'shift_'
'confortable_'
'slamming_'
'excellently_'
'declined_'
'page_'
'busses_'
'bugs_'
'belfast_'
'ary_'
'10'
'waterfalls_'
'safely_'
'cycling_'
'acknowledged_'
'searching_'
'feeding_'
'cafeteria_'
'benedict_'
'understood_'
'surprises_'
'lukewarm_'
'lowest_'
'letter_'
'hin_'
'grilled_'
'appalling_'
'stellar_'
'somebody_'
'score_'
'law_'
'joe_'
'hearty_'
' ....... _'
'cork_'
'ul_'
'recognized_'
'mara_'
'bart_'
'slopes_'
'def_'
' ? )_'
'perth_'
'oldest_'
'slowly_'
'lying_'
'knock_'
'grown_'
'panel_'
'medina_'
'horrendous_'
'swing_'
'sheer_'
'ratings_'
'tic_'
'tacky_'
'parade_'
'quantity_'
'pulling_'
'spotted_'
'smelt_'
'petrol_'
'lighthouse_'
'holding_'
'baltimore_'
'royalty_'
'hung_'
'error_'
'21st_'
'sharp_'
'risk_'
'kimpton_'
'hanoi_'
'designated_'
'za_'
'germany_'
'flies_'
'becoming_'
'unbelievably_'
'fortune_'
'relatives_'
'ideas_'
'himself_'
'dried_'
'canadian_'
'slope_'
'ottawa_'
'desperate_'
'zealand_'
'nicethe_'
'limo_'
'frank_'
'exact_'
'600_'
'teenagers_'
'suburb_'
'reykjavik_'
'success_'
'pudong_'
'mi_'
'martin_'
'lexington_'
'favorites_'
'reward_'
'reaching_'
'quietly_'
'kandy_'
'kensington_'
'produced_'
'friendlier_'
'chapel_'
'pine_'
'oven_'
'bellmen_'
'banff_'
'thomson_'
'sidewalks_'
'caution_'
'bass_'
'thorough_'
'tampa_'
'asleep_'
'ure_'
'ruined_'
'isle_'
'4'
'turtle_'
'popcorn_'
'horn_'
'ducks_'
'climate_'
'chatty_'
'centres_'
'!. _'
'thomas_'
'seek_'
'nine_'
'moscow_'
'hd_'
'ti_'
'scattered_'
'redone_'
'partially_'
'carpeting_'
'wishing_'
'rules_'
'spirits_'
'mentioning_'
'legs_'
'colombo_'
'official_'
'monterey_'
'ki_'
'intend_'
'loaded_'
'ina_'
'donuts_'
'pharmacy_'
'manila_'
'likewise_'
'blast_'
'blanket_'
'whereas_'
'virginia_'
'thumbs_'
'spoken_'
'informal_'
'extreme_'
'gs_'
'esp_'
'straightforward_'
'claustrophobic_'
'prince_'
'plant_'
'apples_'
'mont_'
'cinnamon_'
'ue_'
' " - _'
'jogging_'
'investment_'
'flush_'
' @ _'
'sincere_'
'furnishing_'
'dates_'
'busier_'
'turtles_'
'suburbs_'
'stalls_'
'riverfront_'
'moab_'
'test_'
'respite_'
'fame_'
'dishwasher_'
'roaring_'
'sixth_'
'nightclub_'
'goa_'
'30'
'sailing_'
' ” ._'
'pan_'
'daughters_'
'ongoing_'
'kindness_'
'gain_'
'drunk_'
'washed_'
'chip_'
'aaa_'
'sandals_'
'recall_'
'ramada_'
'mounted_'
'maldives_'
'50'
'hua_'
'housing_'
'vietnam_'
'grassy_'
'resulted_'
'physical_'
'kick_'
'functioning_'
'exposed_'
'unhappy_'
'strolling_'
'guards_'
'ery_'
'duration_'
'como_'
'replacing_'
'niagara_'
'jakarta_'
'fox_'
'monica_'
'atlantis_'
'arm_'
'wyndham_'
'sick_'
'resolve_'
'exotic_'
'tivoli_'
'tavern_'
'refreshments_'
'delays_'
'covent_'
'singles_'
'scheme_'
'satisfying_'
'furthest_'
'ned_'
'answering_'
'winds_'
'sacramento_'
'pp_'
'organise_'
'correctly_'
'here'
'fussy_'
'accomodations_'
'tom_'
'toaster_'
'representative_'
'quicker_'
'introduction_'
'cats_'
'ver_'
'vendors_'
'rely_'
'entertained_'
'chi_'
'adjust_'
'soulless_'
'horses_'
'promise_'
'eclectic_'
'branded_'
'81_'
'windsor_'
'teams_'
'potato_'
'blocking_'
'sweets_'
'surround_'
'tender_'
'sukhumvit_'
'seedy_'
'inspiring_'
'alike_'
'wearing_'
'hamilton_'
'eurostar_'
'beverly_'
'alaska_'
'againthe_'
'2'
'1000_'
'valued_'
'treadmill_'
'ranging_'
'mai_'
'inch_'
'compound_'
'nanjing_'
'lavish_'
'hotelso_'
'desks_'
'souvenir_'
'soda_'
'picks_'
'loo_'
'arizona_'
'finger_'
'australian_'
'primary_'
'mo_'
'silly_'
'cracked_'
'ballroom_'
'grandeur_'
'drapes_'
'creative_'
'tiled_'
'rum_'
'presumably_'
'practice_'
'lotion_'
'ive_'
'ho_'
'tends_'
'ely_'
'considerably_'
'advantages_'
'extend_'
'ervice_'
'departures_'
'costly_'
'treasure_'
'leather_'
'camping_'
'splurge_'
'notes_'
'maximum_'
'loading_'
'banana_'
'jan_'
'dulles_'
'cabanas_'
'boot_'
'airport'
'beats_'
'housekeepers_'
'causeway_'
'cabana_'
'broke_'
'renting_'
'overcooked_'
'hangers_'
'wondering_'
'reminds_'
'fro_'
'fjord_'
'cloud_'
'statue_'
'million_'
'hamptons_'
'+_'
'user_'
'euston_'
'tayed_'
'rer_'
'cairo_'
'attract_'
'thanksgiving_'
'specialty_'
'leopard_'
'instance_'
'sterile_'
'paintings_'
'enhanced_'
'dawn_'
'sections_'
'project_'
'eats_'
'discounts_'
'connectivity_'
'ripped_'
'lovers_'
'cutting_'
'boasts_'
'automatic_'
'nile_'
'congress_'
'camps_'
'bathing_'
'800_'
'preferences_'
'pots_'
'mixture_'
'enthusiasm_'
'dolphin_'
'switzerland_'
'soccer_'
'prepaid_'
'pointing_'
'mom_'
'film_'
'faded_'
'equal_'
'bora_'
'85_'
'36_'
'comparing_'
'watering_'
'kit_'
'discreet_'
'btw_'
'award_'
'grumpy_'
'esplanade_'
'canals_'
'revisit_'
'palma_'
'disadvantage_'
'circus_'
'ala_'
'settle_'
'ray_'
'dlr_'
'wales_'
'solved_'
'passport_'
'krakow_'
'hint_'
'pretentious_'
'kill_'
'depart_'
'cvs_'
'sensitive_'
'personalized_'
'hockey_'
'hobart_'
'dire_'
'unloading_'
'jo_'
'cherry_'
'buffett_'
'bicycle_'
'alhambra_'
'blackpool_'
'backed_'
'anticipated_'
'wooded_'
'winery_'
'pitch_'
'op_'
'lancaster_'
'itthe_'
'goodies_'
'essentials_'
'dodgy_'
'der_'
'blow_'
'0'
'video_'
'staythe_'
'ong_'
'nuts_'
'oversized_'
'equiped_'
'chipped_'
'brisk_'
'appointments_'
'temporary_'
'folk_'
'exiting_'
'disinterested_'
'compliments_'
'colourful_'
'serengeti_'
'lengthy_'
'gloomy_'
'aqua_'
'william_'
'ria_'
'inform_'
'housed_'
'auto_'
'airplane_'
'5'
'shores_'
'seaview_'
'reflected_'
'pi_'
'bizarre_'
'townbut_'
'rapid_'
'flexible_'
'transferred_'
'sunbathing_'
'lifetime_'
'hiltons_'
'andaz_'
'2010_'
' ? ) ._'
'smelly_'
'slippery_'
'purely_'
'ning_'
'instantly_'
'haul_'
'echo_'
'diverse_'
'reflects_'
'ki'
'itinerary_'
'colorful_'
'admittedly_'
' ! ! ! ! !_'
'soothing_'
'sam_'
'glimpse_'
'displayed_'
'delights_'
'apologies_'
'turnpike_'
'shinjuku_'
'sbut_'
'rave_'
'minded_'
'mekong_'
'element_'
'spirit_'
'salamanca_'
'politely_'
'paved_'
'odor_'
'horizon_'
'ele'
'whale_'
'discovery_'
'chap_'
' .$ _'
'ying_'
'incident_'
'honor_'
'za'
'struck_'
'pod_'
'pike_'
'nervous_'
'lime_'
'impeccably_'
'fail_'
'afternoons_'
'25'
')._'
'utterly_'
'toll_'
'settings_'
'rooftops_'
'lanai_'
'25th_'
'there'
'soaps_'
'rica_'
'granada_'
'frontage_'
'back'
' , $ _'
'tin_'
'suffer_'
'satisfy_'
'place'
'panama_'
'maine_'
'kansas_'
'dubrovnik_'
'condos_'
'canteen_'
'borrow_'
'reap_'
'happier_'
'ging_'
'cy_'
'bryce_'
'win_'
'updates_'
'technology_'
'splash_'
'capri_'
'bliss_'
'battery_'
'accordingly_'
'tim_'
'saves_'
'distances_'
'conclusion_'
'chalets_'
'apologised_'
'39_'
'remarkably_'
'ner_'
'mad_'
'covering_'
'cal_'
'motorcycle_'
'louvre_'
'device_'
'ants_'
' , , _'
'vegetation_'
'uneven_'
'termini_'
'q'
'hershey_'
'departed_'
'uniformly_'
'numbered_'
'hilly_'
'yogurts_'
'whisked_'
'strangely_'
'rambla_'
'flavour_'
'15min_'
'upside_'
'tahoe_'
'ze_'
'weary_'
'military_'
'io_'
'feather_'
'couches_'
'calgary_'
'busiest_'
'horns_'
'blend_'
'antiques_'
'pad_'
'ingly_'
'handicapped_'
'sublime_'
'repeated_'
'm1_'
'staff'
'siem_'
'hacienda_'
'growing_'
'enjoys_'
'wired_'
'squeeze_'
'remodel_'
'canapés_'
'"_'
'vatican_'
'spartan_'
'portsmouth_'
'hotwire_'
'coat_'
'thrown_'
'service'
'fence_'
'creating_'
'animation_'
'acknowledge_'
'ticks_'
'roma_'
'operates_'
'custom_'
'rectified_'
'outs_'
'operating_'
'student_'
'shutters_'
'proceeded_'
'impress_'
'dolphins_'
'verall_'
'systems_'
'rugby_'
'frame_'
'cruises_'
' !, _'
'philly_'
'effectively_'
'burj_'
'are'
'unnecessary_'
'dramatic_'
'and'
'sso_'
'lumpy_'
'difficulties_'
'delta_'
'cappuccino_'
'walkers_'
'kayaks_'
'drawbacks_'
'neighbor_'
'memphis_'
'jasper_'
'granola_'
'flowing_'
'utensils_'
'ould_'
'crashing_'
'breakfast'
'ard_'
'hoteli_'
'customs_'
'venetian_'
'sporting_'
'serenity_'
'retro_'
'knocked_'
'intended_'
'favor_'
'3'
'variable_'
'louise_'
'exceedingly_'
'carmen_'
'ann_'
'southbank_'
'sonoma_'
'golfers_'
'unobtrusive_'
'drawn_'
' !( _'
'remind_'
'prosecco_'
'nu'
'niggles_'
'hopping_'
'handful_'
'fitting_'
'fairness_'
'excel_'
'circumstances_'
'automatically_'
'15mins_'
'wrap_'
'underwhelming_'
'theaters_'
'reports_'
'myanmar_'
'beneath_'
'hubby_'
'duval_'
'admire_'
' : -_'
'striking_'
'pouring_'
'matched_'
'impact_'
'warren_'
'waits_'
'vineyard_'
'slick_'
'mains_'
'lousy_'
'jets_'
'flavor_'
'flag_'
'wasted_'
'night'
'mercedes_'
'eatery_'
'decently_'
'buckingham_'
'airlines_'
'touristic_'
'small'
'rentals_'
'pc_'
'mainland_'
'amtrak_'
'ranger_'
'possibility_'
'popped_'
'goodand_'
'flatscreen_'
'suggesting_'
'm6_'
'city'
'americans_'
'sour_'
'riviera_'
'reunion_'
'qui'
'dutch_'
'ses_'
'monkey_'
'energetic_'
'dy_'
'dom_'
'canapes_'
'signposted_'
'shining_'
'procedure_'
'nord_'
'31_'
'zed_'
'jamaica_'
'finishing_'
'amidst_'
'amalfi_'
'worries_'
'laps_'
'hh_'
'kitchens_'
'force_'
'ex_'
'ara_'
'affect_'
'packages_'
'macau_'
'jewish_'
'slip_'
'misleading_'
'mature_'
'grabbed_'
'cdg_'
'bob_'
'--_'
'rained_'
'neighborhoods_'
'roaming_'
'polished_'
'organic_'
'korean_'
'glory_'
'amusement_'
'torn_'
'relation_'
'helsinki_'
'divided_'
'andthis_'
'alex_'
'5min_'
'110_'
'squares_'
'rushing_'
'neck_'
'hood_'
' ( # _'
'soundproof_'
'russian_'
'represents_'
'record_'
'logan_'
'ing'
'free'
'elizabeth_'
'characters_'
'anchorage_'
'undoubtedly_'
'taps_'
'shell_'
'rhine_'
'frig_'
'constructed_'
'ans_'
'utah_'
'saigon_'
'nottingham_'
'ban'
'were'
'recognize_'
'inedible_'
'featuring_'
'extensively_'
' :) _'
'paddle_'
'native_'
'inches_'
'granite_'
'freeways_'
'wal_'
'tiring_'
'teh_'
'prevent_'
'newark_'
'j'
'corrected_'
'accross_'
'us'
'suggests_'
'roomand_'
'ments_'
'fat_'
'culinary_'
'combo_'
'catalunya_'
'assumed_'
'yo'
'shorter_'
'pigeon_'
'detract_'
' ) !_'
'z'
'tells_'
'mould_'
'staffing_'
'pair_'
'beach'
'warehouse_'
'rooms'
'patrick_'
'henry_'
'classical_'
'backdrop_'
'installed_'
'deserved_'
'compliment_'
'browns_'
'boutiques_'
'bbc_'
'star'
'painting_'
'ceremony_'
'carolina_'
'camera_'
'acted_'
'vietnamese_'
'heck_'
'encourage_'
'arrives_'
' • _'
'tucson_'
'ponds_'
'noting_'
'dj_'
'champs_'
' .’_'
'versus_'
'trays_'
'platter_'
'hide_'
'breaking_'
'patios_'
'gather_'
'barking_'
'agency_'
'shirt_'
'hurricane_'
'ged_'
'crash_'
'swe_'
'pe_'
'materials_'
'goodbut_'
'180_'
'oaks_'
'limit_'
'feast_'
'defiantly_'
'compensation_'
'bumpy_'
' ) '
'moderately_'
'luxembourg_'
'lauderdale_'
'honesty_'
'hitting_'
'spas_'
'ries_'
'random_'
'nelson_'
'model_'
'area'
'approachable_'
'afforded_'
'repeatedly_'
'ped_'
'pathetic_'
'helicopter_'
'contains_'
'con'
'ythe_'
'wondered_'
'spice_'
'electricity_'
'canary_'
'timing_'
'satnav_'
'recomend_'
'appointment_'
'lighted_'
'damage_'
'containing_'
'cellar_'
'wolf_'
'mike_'
'bucharest_'
'brother_'
'salon_'
'refill_'
'hugely_'
'food'
'desirable_'
'burning_'
'42_'
'punta_'
'miraflores_'
'mat_'
'funicular_'
'carriage_'
'teenage_'
'stuffed_'
'soi_'
'mushrooms_'
'justice_'
'yorkshire_'
'strawberries_'
'greatand_'
'generic_'
'westfield_'
'ves_'
'styled_'
'princes_'
'od_'
'ir_'
'equivalent_'
'coastline_'
'cancel_'
'buenos_'
'beachside_'
'asheville_'
'mosquito_'
'honey_'
'helpful'
'feb_'
'2018_'
'wandered_'
'sleepers_'
'replied_'
'presidential_'
'cava_'
'bin_'
'bands_'
'albuquerque_'
'accessing_'
'switches_'
'sticky_'
'sons_'
'minneapolis_'
'luang_'
'hotelwe_'
'fireplaces_'
'death_'
'subject_'
'stanley_'
'receipt_'
'ola_'
'congestion_'
'churches_'
'aging_'
'vegetable_'
'unsure_'
'ports_'
'no'
'machu_'
'location'
'gbp_'
'waterhole_'
'surfers_'
'struggling_'
'mills_'
'ihop_'
'harder_'
'exist_'
'singer_'
'oberoi_'
'dale_'
'brighton_'
'£ _'
'smiley_'
'reminiscent_'
'protected_'
'consistency_'
'chase_'
'bay'
'tuscany_'
'styles_'
'slot_'
'needle_'
'lar'
'dar'
'coke_'
'biltmore_'
'anne_'
'6'
' = _'
'tier_'
'souvenirs_'
'shoe_'
'manageable_'
'humour_'
'hosted_'
'depot_'
'claimed_'
'alexandria_'
'whoever_'
'ticked_'
'showering_'
'mon_'
'jumeirah_'
'disturbance_'
'dfw_'
'day'
'caves_'
'captain_'
'by'
'accident_'
'33_'
'23rd_'
'til_'
'street'
'refilled_'
'picchu_'
'lyon_'
'kayaking_'
'favour_'
'bowls_'
'suffered_'
'eleven_'
'eden_'
'ney_'
'naturally_'
'great'
'ating_'
'remodeling_'
'programme_'
'finishes_'
'facelift_'
'cologne_'
'boulder_'
'absence_'
'ventured_'
'suddenly_'
'quest_'
'hotels'
'breakfastthe_'
'sited_'
'landmarks_'
'cobbled_'
'aman_'
'sipping_'
'regional_'
'exits_'
'costco_'
'9'
'pizzas_'
'observation_'
'h'
'fronts_'
'aires_'
'task_'
'source_'
'brewers_'
'yacht_'
'v'
'photographs_'
'handicap_'
'halifax_'
'capable_'
'boots_'
'angkor_'
'shock_'
'moreover_'
'bug_'
'affected_'
'patchy_'
'maya_'
'inclined_'
'grubby_'
'engaged_'
'director_'
'considerate_'
'cabinet_'
'airconditioning_'
'stable_'
'speciality_'
'southwest_'
'maui_'
'gloucester_'
'expo_'
'currency_'
'attempts_'
'unprofessional_'
'tions_'
'periods_'
'makers_'
'iness_'
'ikea_'
'grand'
'captive_'
'was'
'rule_'
'requiring_'
'reno_'
'ghost_'
'adventures_'
'vaporetto_'
'gentlemen_'
'frequented_'
'evidence_'
'electronics_'
'dun'
'blind_'
'barbecue_'
'yen_'
'privileges_'
'marrakech_'
'brilliantly_'
'48_'
'burn_'
'assisting_'
'undercover_'
'paragon_'
'bury_'
'aman'
'ngs_'
'malaga_'
'generously_'
'elegantly_'
'buck_'
'bins_'
'stressful_'
'springfield_'
'shower'
'pressed_'
'overseas_'
'foam_'
'beforehand_'
'aberdeen_'
'sheep_'
'sebastian_'
'raise_'
'passage_'
'myrtle_'
'loves_'
'jordan_'
'greatthe_'
'economical_'
'delivering_'
'chiang_'
'15'
'1'
'sorting_'
'of'
'manned_'
'comfortable'
'360_'
'safaris_'
'k'
'goodness_'
'fake_'
'daniel_'
'clarion_'
'unlikely_'
'ther_'
'mesa_'
'unfailingly_'
'shocking_'
'rialto_'
'pits_'
'hell_'
'greets_'
'coverage_'
'bellevue_'
'organisation_'
'laugh_'
'kempinski_'
'avoiding_'
'stark_'
'session_'
'regent_'
'pancras_'
'heaps_'
'trick_'
'tomato_'
'swiftly_'
'iphone_'
'drug_'
'dra'
'carlos_'
'angel_'
'smiled_'
'had'
'eli'
'backside_'
'top'
'res_'
'mayfair_'
'gar'
'convent_'
'80'
'yesterday_'
'vey_'
'tatty_'
'solve_'
'resulting_'
'kfc_'
'hamburg_'
'dump_'
'problematic_'
'lee_'
'human_'
'gravel_'
'dresser_'
'dispenser_'
'yoghurts_'
'limousine_'
'dusk_'
'annoyance_'
' .– _'
'you'
'wn_'
'vegetarians_'
'stove_'
'malta_'
'ler_'
'disappeared_'
'canopy_'
'volleyball_'
'dotted_'
'bananas_'
'sha'
'scruffy_'
'remaining_'
'quoted_'
'preparing_'
'password_'
'partake_'
'nooks_'
'micro_'
'greasy_'
'estuary_'
'ultimately_'
'tte_'
'mega_'
'justify_'
'cabo_'
'awhile_'
'uptown_'
'bubbly_'
'approaching_'
'annexe_'
'alto_'
'agents_'
'yangon_'
'precinct_'
'otel_'
'notable_'
'nice'
'hats_'
'duke_'
'weekdays_'
'transported_'
'smelling_'
'rick_'
'kruger_'
'airplanes_'
'understandable_'
'stupid_'
'recognised_'
'pantry_'
'nite_'
'locker_'
'johannesburg_'
'harry_'
'gigantic_'
'flash_'
'continually_'
'compensate_'
' , '
'rid_'
'register_'
'rays_'
'plymouth_'
'nar'
'ld_'
'ko'
'coupled_'
'blew_'
'beams_'
'abound_'
'20mins_'
' ( '
'preserved_'
'ammenities_'
'takeaway_'
'peru_'
'morning'
'immigration_'
'cuisines_'
'basel_'
'tallinn_'
'red'
'quietness_'
'que'
'mud_'
'distinct_'
'cornwall_'
'bre'
'serviceable_'
'santiago_'
'copy_'
'700_'
'trainee_'
'operations_'
'macy_'
'bazaar_'
'backwards_'
' ? ? ?_'
'townand_'
'rolled_'
'introduced_'
'incl_'
'doha_'
'croissant_'
'candy_'
'bagan_'
'ah_'
'11'
'time'
'tariff_'
'smoky_'
'pound_'
'pierre_'
'passion_'
'moroccan_'
'ise_'
'inle_'
'edible_'
'ces_'
'ome_'
'lle_'
'inverness_'
'clever_'
' , ._'
'slice_'
'roadside_'
'planet_'
'partying_'
'chelsea_'
'charlie_'
'assuming_'
'zen_'
'vacations_'
'thereand_'
'papers_'
'mosquitoes_'
'critical_'
'content_'
'calming_'
'attracts_'
'ano'
'science_'
'mineral_'
'mid'
'infrastructure_'
'cedar_'
'' _'
' ) & _'
'united_'
'under'
'portugal_'
'incorrect_'
'hippos_'
'hairs_'
'guesthouse_'
'greens_'
'creates_'
'blame_'
'shrimp_'
'shine_'
'rode_'
'itand_'
'ght_'
'everytime_'
'bergen_'
'aff_'
'8'
'12'
'wat_'
'steel_'
'ohio_'
'married_'
'harrogate_'
'extent_'
'chobe_'
'too'
'tes_'
'scuba_'
'rowdy_'
'reflection_'
'nuisance_'
'madness_'
'andrew_'
'penthouse_'
'overflow_'
'makeup_'
'lounger_'
'ily_'
'hawaiian_'
'crescent_'
'truth_'
'serena_'
'cricket_'
'compensated_'
'stiff_'
'sourced_'
'servicing_'
'sand'
'ow_'
'navy_'
'clue_'
'ben'
'angle_'
'verde_'
'furthermore_'
'experiencing_'
'cushions_'
'turquoise_'
'town'
'panorama_'
'congratulations_'
'collins_'
'closely_'
'clinic_'
'41_'
'perimeter_'
'joint_'
'fog_'
'excitement_'
'buggies_'
'bournemouth_'
'areathe_'
'use'
'purple_'
'om_'
'nec_'
'mis'
'joints_'
'dreary_'
'avenida_'
'avail_'
'38_'
'30th_'
'wc_'
'park'
'floor'
'door'
'contrary_'
'chandeliers_'
'alive_'
'albany_'
'walgreens_'
'ties_'
'rocking_'
'painfully_'
'ja_'
'inspired_'
'hudson_'
'galle_'
'cuban_'
'60'
' " '
'ultimate_'
'skipped_'
'sir_'
'sensible_'
'polo_'
'isolation_'
'en'
'detroit_'
'bearing_'
'warn_'
'pavement_'
'nj_'
'lands_'
'je'
'amazing'
'5mins_'
'minuses_'
'league_'
'jaipur_'
'iced_'
'hunting_'
'forum_'
'autumn_'
'yo_'
'trader_'
'shelves_'
'quiet'
'prabang_'
'patience_'
'ji'
'bills_'
'accessibility_'
'obtain_'
'o2_'
'hostel_'
'ets_'
'concerts_'
'cafés_'
'bath'
'appliances_'
'aa'
'veggie_'
'successful_'
'shaving_'
'queuing_'
'queries_'
'luxe_'
'fold_'
'definetly_'
'dad_'
'costing_'
'ana'
'worlds_'
'tomorrow_'
'stating_'
'merely_'
'maintaining_'
'ial_'
'gifts_'
'fuel_'
'freezer_'
'bathrobe_'
'13th_'
'sufficiently_'
'see'
'ob'
'mun'
'kiosk_'
'closeby_'
'arlanda_'
'afield_'
'westminster_'
'trap_'
'tive_'
'thoroughfare_'
'proactive_'
'keurig_'
'wa'
'trailer_'
'ten'
'soundproofed_'
'radiator_'
'northwest_'
'humidity_'
'commend_'
'weekday_'
'sightings_'
'safeway_'
'repaired_'
'renovating_'
'permit_'
'elliptical_'
'dthe_'
' ' '
'ty'
'surfing_'
'sundays_'
'powder_'
'oom_'
'marie_'
'jeep_'
'ini_'
'house'
'hosting_'
'for'
'flooring_'
'cloth_'
'closeness_'
'als_'
'40'
' " . _'
'tiki_'
'thirty_'
'jog_'
'freedom_'
'fills_'
'damaged_'
'bosphorus_'
'reccomend_'
'plays_'
'nts_'
'new'
'nap_'
'icing_'
'fiji_'
'established_'
'danube_'
'causing_'
'bahia_'
'wall'
'ur'
'townso_'
'silom_'
'pin_'
'manages_'
'hoi_'
'hermitage_'
'flu'
'docking_'
'chili_'
'awe_'
'areaso_'
'2009_'
'vent_'
'unattractive_'
'stay'
'prison_'
'polish_'
'ownership_'
'lessons_'
'identical_'
'holder_'
'pipes_'
'nes_'
'insist_'
'elaborate_'
'cincinnati_'
'bond_'
'bologna_'
'7'
'ws_'
'norfolk_'
'ii_'
'forbidden_'
'foliage_'
'exorbitant_'
'comp_'
'tor'
'taxi'
'occupies_'
'mango_'
'knocking_'
'ke'
'hon'
'closets_'
'chargeable_'
'cemetery_'
'16'
'nairobi_'
'lesson_'
'inefficient_'
'grim_'
'frustrated_'
'flooded_'
'crammed_'
'arches_'
'64_'
'water'
'ight_'
'danish_'
'countless_'
'cotton_'
'branson_'
'bee'
'tan_'
'socket_'
'raw_'
'racing_'
'plethora_'
'ontario_'
'inexperienced_'
'engineer_'
'ales_'
'130_'
'tou'
'ringing_'
'mum_'
'modernised_'
'ible_'
'hash_'
'candles_'
'benches_'
'bakeries_'
'unremarkable_'
'media_'
'ls'
'kin'
'highlands_'
'glance_'
'flags_'
'elk_'
'coin_'
'aggressive_'
'advertise_'
'work'
'pathway_'
'duvets_'
' ? !_'
'unobstructed_'
'sunbed_'
'gala_'
'father_'
'comforter_'
'bellagio_'
'ao_'
'accomodate_'
' ), _'
'ore_'
'joining_'
'image_'
'una'
'tor_'
'decades_'
'barn_'
'xi'
'unreliable_'
'steve_'
'rundown_'
'raffles_'
'ol_'
'jo'
'homey_'
'georgian_'
'digital_'
'deserts_'
'zermatt_'
'rosa_'
'receiving_'
'norway_'
'eu'
'cotswolds_'
'cia_'
'anna_'
' ! ! _'
'thousands_'
'shortcomings_'
'cigar_'
'stain_'
'rivers_'
'overhaul_'
'ns'
'laguna_'
'girlfriend_'
'consequently_'
'clouds_'
'buti_'
'arrogant_'
'ss'
'shed_'
'sar'
'powell_'
'pleasurable_'
'jean_'
'desperately_'
'dear_'
'cruz_'
'zip_'
'someplace_'
'reduce_'
'mer'
'hunt_'
'fter_'
'follows_'
'extortionate_'
'py_'
'now'
'cheesecake_'
'audible_'
'wider_'
'ub'
'trafalgar_'
'tradition_'
'strand_'
'immensely_'
'diet_'
'russell_'
'rabbit_'
'dreams_'
'discussion_'
'coco_'
'attracted_'
'34_'
'2008_'
'slots_'
'room'
'freshen_'
'escalator_'
'banyan_'
'ba'
'antigua_'
'alas_'
'17'
'verona_'
'strike_'
'st'
'necessities_'
'copacabana_'
'coloured_'
'brook_'
'ark_'
'yelling_'
'wellness_'
'rhino_'
'pushing_'
'publix_'
'leicester_'
'leela_'
'ju'
'gambling_'
'cation_'
'burlington_'
'scent_'
'reluctant_'
'reat_'
'orientation_'
'ming_'
'gay_'
'galore_'
'deciding_'
'conducive_'
'chaise_'
'audience_'
'attempted_'
'ara'
'140_'
'wendy_'
'voice_'
'users_'
'tiger_'
'pre'
'noisey_'
'messy_'
'mahal_'
'laying_'
'fluent_'
'adi'
'wishes_'
'tro'
'rib_'
'refined_'
'organising_'
'niggle_'
'managing_'
'individually_'
'ied_'
'iberostar_'
'communicate_'
'77_'
'70'
' .; _'
'san'
'results_'
'palazzo_'
'orchid_'
'latin_'
'inc_'
'holds_'
'24th_'
'whisky_'
'w'
'ok'
'facial_'
'expects_'
'dec_'
'begins_'
' … ._'
' ; - _'
'ser'
'riga_'
'richard_'
'rains_'
'ord_'
'mezzanine_'
'hauptbahnhof_'
'gatlinburg_'
'berg_'
'artificial_'
'pics_'
'bangalore_'
'ali_'
'aimed_'
'abrupt_'
'waitstaff_'
'stra'
'ory_'
'nest_'
'ges_'
'festive_'
'ethe_'
'cordoba_'
'paperwork_'
'oozes_'
'millennium_'
' ~_'
'valuable_'
'thermal_'
'sending_'
'sculptures_'
'rom_'
'rm_'
'residences_'
'pianist_'
'navigating_'
'monte_'
'gra'
'flair_'
'bo_'
'ware_'
'tony_'
'shannon_'
'proofed_'
'progress_'
'mas'
'individuals_'
'iest_'
'gibraltar_'
'ed'
'eagle_'
'dan_'
'350_'
'west'
'tow_'
'tea'
'swan_'
'silence_'
'sha_'
'peacocks_'
'fle'
'balls_'
'ane'
'viewed_'
'noodles_'
'lag_'
'hits_'
'forms_'
'formerly_'
'ette_'
'bc_'
'acts_'
'trip'
'swam_'
'stamford_'
'rising_'
'respectful_'
'repetitive_'
'insufficient_'
'graduation_'
'gal_'
'f'
'appetizer_'
'walkand_'
'th'
'ston_'
'road'
'represented_'
'nightcap_'
'down'
'cot_'
'borough_'
'bla'
'attractively_'
'70s_'
'warwick_'
'unwelcoming_'
'toured_'
'times'
'stressed_'
'marketplace_'
'hammocks_'
'economy_'
'ari'
'again'
'worker_'
'upkeep_'
'parallel_'
'jumped_'
'hof_'
'funchal_'
'fraction_'
'tomatoes_'
'the'
'sole_'
'resting_'
'replenish_'
'recreation_'
'prawns_'
'pleasent_'
'ku'
'good'
'doctor_'
'comfortablethe_'
'bathroom'
'ations_'
'abandoned_'
'22'
'.(_'
'pushy_'
'mari'
'ko_'
'ered_'
'effortless_'
'alps_'
'play'
'kayak_'
'grills_'
'associate_'
'applebee_'
'yr_'
'unbearable_'
'lucerne_'
'flavours_'
'fantastically_'
'brochure_'
'trekking_'
'relais_'
'leafy_'
'etc'
'dissapointed_'
'conscious_'
'é_'
'sheltered_'
'right'
'piping_'
'multitude_'
'entrance'
'dr_'
'aka_'
'. '
'tenerife_'
'steal_'
'quibble_'
'over'
'musicians_'
'ked_'
'high'
'canberra_'
'bites_'
'arlington_'
'41'
'te'
'rydges_'
'fs_'
'fails_'
'bunk_'
'ably_'
'30mins_'
' ......._'
'zo'
'wrapped_'
'retains_'
'onward_'
'guidance_'
'conventions_'
'caliber_'
'utilized_'
'pool'
'mist_'
'lso_'
'circuit_'
'areaand_'
'80s_'
'standout_'
'shirts_'
'seine_'
'referred_'
'mississippi_'
'marienplatz_'
'inland_'
'home'
'ds'
'cluster_'
'busy'
'adventurous_'
'20'
'spicy_'
'per'
'ir'
'decking_'
'combine_'
'ches_'
'rollaway_'
'roam_'
'repairs_'
'north'
'nightthe_'
'mer_'
'lla_'
'ie'
'claims_'
' : '
' - '
'tented_'
'noodle_'
'man'
'inthe_'
'g'
'disorganised_'
'arabian_'
'seaweed_'
'recommendable_'
'ms'
'franz_'
'excellant_'
'es'
'doable_'
'bly_'
'backyard_'
'whales_'
'vely_'
'river'
'midday_'
'kennedy_'
'encouraged_'
'drank_'
'displays_'
'arc_'
'with'
'supplement_'
'responsible_'
'ree'
'musical_'
'lat'
'lankan_'
'kona_'
'hor'
'celebrations_'
'ce'
'cambria_'
'burnt_'
'35'
'roadand_'
'plains_'
'mint_'
'intermittent_'
'ical_'
'also'
'ai'
'1970_'
'positively_'
'phnom_'
'onsen_'
'globe_'
'did'
'cs_'
'bkk_'
'worldwide_'
'staircases_'
'promotion_'
'pocket_'
'goers_'
'ct_'
'continuing_'
'clueless_'
'attentiveness_'
'aim_'
's'
'ross_'
'pad'
'motorcycles_'
'fl_'
'faults_'
'craziness_'
'confidence_'
'bears_'
'31'
'walker_'
'minibus_'
'lol_'
'kingdom_'
'flaws_'
'castles_'
'billing_'
'yas_'
'fyi_'
'favourites_'
'23'
'televisions_'
'stair_'
'quietest_'
'interactions_'
'imaginative_'
'ile_'
'creaky_'
'bull'
'bidet_'
'adorable_'
'37_'
'24'
'woodland_'
'shooting_'
'pineapple_'
'ottoman_'
'mrs_'
'mosquitos_'
'lesser_'
'killarney_'
'hurt_'
'hand'
'entitled_'
'counters_'
'chilling_'
'90'
'44_'
'winning_'
'tuks_'
'slower_'
'roadworks_'
'pines_'
'pagoda_'
'locale_'
'limits_'
'choice'
'checks_'
'areabut_'
'anxious_'
'rushmore_'
'profile_'
'interact_'
'inquired_'
'hard'
'freindly_'
'districts_'
'curious_'
'che'
'world'
'taco_'
'robert_'
'remembering_'
'refurbishing_'
'ng'
'mushroom_'
'learning_'
'ically_'
'eand_'
'catherine_'
'blanc_'
'behaved_'
'bal'
'upto_'
'shi'
'operators_'
'graciously_'
'cnn_'
'cloudy_'
'booth_'
'vistas_'
'sao_'
'reachable_'
'petra_'
'measure_'
'int_'
'glen'
'flinders_'
'erratic_'
'configuration_'
'coaches_'
'belongings_'
'wealth_'
'washroom_'
'sequoia_'
'restaraunt_'
'monuments_'
'louisville_'
'languages_'
'honored_'
'egypt_'
'ee'
'council_'
'black'
'be'
'andthere_'
'alternatively_'
'aba'
'vallarta_'
'traffic'
'sur_'
'stop'
'sh'
'retired_'
'rest'
'ji_'
'ious_'
'bull_'
'42'
'sleep'
'rt'
'r'
'pedestrianised_'
'nick_'
'locality_'
'exudes_'
'engine_'
'enabled_'
'dunkin_'
'andyou_'
'51'
'20min_'
'é'
'virgin_'
'seasonal_'
'ru'
'pla'
'observed_'
'nana_'
'mb_'
'increase_'
'comp'
'ys'
'welcomes_'
'satellite_'
'rc'
'pousada_'
'oakland_'
'crack_'
'advising_'
'.'
' ! ! )_'
'yand_'
'thi'
'georgia_'
'fighting_'
'cod_'
'witnessed_'
'unavailable_'
'teens_'
'rv_'
'restocked_'
'restaurant'
'ni'
'lone_'
'locks_'
'hated_'
'discuss_'
'arenal_'
'tempted_'
'shar'
'rochester_'
'races_'
'palermo_'
'painful_'
'onwards_'
'holland_'
'freely_'
'detour_'
'del'
'cairns_'
'age'
'84_'
' ) ..._'
'visa_'
'tonic_'
'song_'
'shoreline_'
'scandic_'
'pit'
'pays_'
'passable_'
'overrun_'
'masses_'
'invest_'
'greetings_'
'eric_'
'cusco_'
'crockery_'
'caravan_'
'alpine_'
'160_'
'winchester_'
'stunningly_'
'speakers_'
'on'
'myriad_'
'milwaukee_'
'kingston_'
'ities_'
'dial_'
'cor'
'bones_'
'22nd_'
' . . ._'
'sunlight_'
'ry'
'rounds_'
'nusa_'
'herself_'
'fridays_'
'douglas_'
'bays_'
'againwe_'
'49_'
'405_'
'thoughts_'
'sticks_'
'scandinavian_'
'mur'
'mayor_'
'lan_'
'han_'
'flip_'
'den'
'clean'
'cha'
'battle_'
'strasse_'
'staffthe_'
'rs'
'roofs_'
'pedro_'
'drunken_'
'corn_'
'bagel_'
'zan'
'wifi'
'wel'
'varying_'
'vans_'
'ratio_'
'processed_'
'noisier_'
'nc_'
'hook_'
'draft_'
'decks_'
'cloths_'
'answers_'
'ale'
'unlucky_'
'spouse_'
'roomi_'
'republic_'
'marred_'
'locating_'
'judging_'
'dislike_'
'convinced_'
'advertising_'
' ... '
'tracker_'
'surcharge_'
'soaked_'
'retrieve_'
'recharge_'
'players_'
'mystery_'
'martini_'
'khalifa_'
'eti'
'entrees_'
'chai_'
'care'
'caesar_'
'butwe_'
'whi'
'unpack_'
'touched_'
'text_'
'secrets_'
'routine_'
'pm'
'ously_'
'much'
'marginal_'
'maitre_'
'lli'
'io'
'feelings_'
'een_'
'dave_'
'atop_'
'armchairs_'
'ruth_'
'refuge_'
'mac_'
'improving_'
'ia'
'hereand_'
'heights_'
'grandson_'
'farmers_'
'connaught_'
'cancellation_'
'bul'
'ber'
' ... ) ._'
'tail_'
'prove_'
'pattaya_'
'lakefront_'
'fewer_'
'evening'
'cent_'
'bru'
'branch_'
'apply_'
'airportand_'
'ua_'
'stately_'
'namibia_'
'ine'
'heaters_'
'departments_'
'dancers_'
'continuous_'
'cana_'
'2007_'
'trump_'
'swa'
'station'
'ryokan_'
'omaha_'
'midweek_'
'marta_'
'jammed_'
'crossed_'
' !- _'
'usable_'
'sharks_'
'scratch_'
'roombut_'
'quito_'
'killer_'
'horseback_'
'hors_'
'hilltop_'
'green'
'forge_'
'downright_'
'dietary_'
'cutter_'
'compete_'
'awards_'
'adjusted_'
'yed_'
'toothbrush_'
'safer_'
'penh_'
'movement_'
'listened_'
'labor_'
'false_'
'boise_'
'balinese_'
'toys_'
'toddler_'
'sau'
'salisbury_'
'questionable_'
'preparation_'
'leaked_'
'highland_'
'ya'
'sal'
'pile_'
'pi'
'nga'
'my'
'montana_'
'leaking_'
'leaf_'
'lafayette_'
'i'
'hotelit_'
'fusion_'
'faucet_'
'fa'
'drawing_'
'cheetah_'
'bellhop_'
'away'
'automated_'
'wayne_'
'versailles_'
'pin'
'personalised_'
'em_'
'edmonton_'
'easy'
'bled_'
'tt_'
'scenes_'
'os'
'lookout_'
'frustration_'
'clubhouse_'
'charger_'
'ch'
'butlers_'
'brew_'
'armchair_'
'amounts_'
'tate_'
'spokane_'
'parc_'
'ow'
'makati_'
'gli'
'fry_'
'examples_'
'dua_'
'curb_'
'bordeaux_'
'beds'
'vacant_'
'sub'
'staybridge_'
'sophia_'
'shinagawa_'
'screened_'
'pet'
'oyster_'
'lounge'
'flagstaff_'
'extraordinarily_'
'epcot_'
'entertain_'
'bushes_'
'ven_'
'tooth_'
'sip_'
'seal_'
'requirement_'
'refunded_'
'reagan_'
'potentially_'
'peaks_'
'oo'
'markt_'
'mandalay_'
'luis_'
'ker'
'hy'
'glen_'
'dryers_'
'dragging_'
'dispensers_'
'berry_'
'200'
' ........_'
'wallet_'
'sf'
'rb'
'nowadays_'
'masai_'
'imaginable_'
'horseshoe_'
'hiring_'
'ga'
'fair'
'demanding_'
'triangle_'
'stranded_'
'receptions_'
'out'
'morocco_'
'guessing_'
'gross_'
'golfing_'
'blessing_'
'2000_'
'zi_'
'wells_'
'strategically_'
'sept_'
'rmb_'
'ranks_'
'minutes'
'metropolitan_'
'hours'
'grille_'
'earned_'
'cooled_'
'citadel_'
'scallops_'
'rey_'
'ole_'
'lea'
'itc_'
'glamorous_'
'gi'
'faulty_'
'accessories_'
'vin_'
'venturing_'
'tides_'
'sta_'
'rock'
'qu'
'olde_'
'neighbour_'
'm25_'
'lining_'
'goal_'
'escort_'
'drying_'
'avon_'
'attendees_'
'ala'
'89_'
'unusable_'
'trinity_'
'therethe_'
'than'
'spaced_'
'ron_'
'performing_'
'off'
'ner'
'mia_'
'mana'
'kal'
'independence_'
'formed_'
'fer'
'exploration_'
'ero'
'bean_'
'basilica_'
'ati'
' .+ _'
'tie_'
'streetcar_'
'smoothies_'
'nathan_'
'mistakes_'
'luggages_'
'lia_'
'laughing_'
'grandchildren_'
'ea'
'dismal_'
'brooklyn_'
'bi'
'americas_'
'upbeat_'
'sma'
'sleepy_'
'rubber_'
'placeand_'
'ph'
'interchange_'
'fenced_'
'eo'
'eg'
'confident_'
'billed_'
' ! - _'
'zu'
'that'
'sliced_'
'sizeable_'
'shire_'
'nia_'
'lin_'
'ht'
'gor'
'flora_'
'experience'
'downfall_'
'clarke_'
'chu'
'bedded_'
'batteries_'
'shoppers_'
'lic'
'les'
'lab'
'judge_'
'inter'
'honolulu_'
'gothic_'
'ginger_'
'bound_'
'macdonald_'
'insects_'
'id'
'harvester_'
'fortress_'
'faint_'
'darwin_'
'celebrated_'
'cally_'
'100'
'05_'
'wetherspoons_'
'ts'
'stag_'
'romance_'
'rings_'
'ly'
'geo'
'fla'
'ens_'
'bordering_'
'available'
' ~ _'
'sto'
'rainfall_'
'possibilities_'
'physically_'
'nicebut_'
'mode_'
'know'
'kilometers_'
'innovative_'
'bus'
'behaviour_'
'beachand_'
'alternate_'
'allergies_'
'61'
'usage_'
'tank_'
'talented_'
'ruin_'
'nights'
'muesli_'
'matches_'
'lighter_'
'journeys_'
'holiday'
'frosted_'
'blood_'
'33'
'waterside_'
'valuables_'
'tgi_'
'shake_'
'ington_'
'hammock_'
'depth_'
'coffee'
'ands'
'50th_'
' ' - _'
'zing_'
'noise'
'nearby'
'mu'
'capped_'
'buffet'
'associates_'
' .-- _'
' ) .'
'x'
'ton'
'redeeming_'
'leak_'
'ite_'
'hall'
'friendly'
'exceptions_'
'excellent'
'col'
'youth_'
'whiskey_'
'slc_'
'privately_'
'plaka_'
'ornate_'
'm4_'
'headquarters_'
'fond_'
'crackers_'
'colony_'
'cleanest_'
'challenges_'
'blessed_'
'babies_'
'06_'
'visit'
'this'
'tel'
'old'
'mp'
'israel_'
'fear_'
'fares_'
'fan'
'executed_'
'directing_'
'char'
'argue_'
'401_'
'28th_'
'zebra_'
'them'
'skye_'
'passenger_'
'nor'
'manger_'
'illuminated_'
'huts_'
'brazilian_'
'blanca_'
'areas'
'ago'
'26th_'
' .£ _'
'weekly_'
'sampled_'
'salty_'
'portuguese_'
'panera_'
'muddy_'
'lotus_'
'london'
'lean_'
'karon_'
'harrah_'
'conversion_'
'campground_'
'architect_'
'alert_'
'war'
'seals_'
'packing_'
'owns_'
'helpfulthe_'
'dia'
'days'
'cheltenham_'
'brush_'
'bella_'
'alo'
'tick_'
'restoration_'
'nly_'
'mayo_'
'lin'
'everywhere'
'devon_'
'carriageway_'
'brighter_'
'balloon_'
'apprehensive_'
'week'
'snowy_'
'shack_'
'pri'
'hing_'
'fairy_'
'disorganized_'
'competitors_'
'commended_'
'cody_'
'centara_'
' . '
' " ) _'
'ure'
'trolleys_'
'travel'
'sus'
'pepper_'
'p'
'neglected_'
'kenya_'
'josef_'
'hideaway_'
'ca'
'arabic_'
'32'
' - $ _'
'uninterrupted_'
'sy_'
'subtle_'
'sho'
'santorini_'
'pricier_'
'posts_'
'plo'
'mi'
'lovely'
'lake'
'ks'
'frogs_'
'footpath_'
'ear'
'dover_'
'dly_'
'darkness_'
'brochures_'
'at'
'architecturally_'
'willingness_'
'va'
'thankful_'
'taormina_'
'tallest_'
'supportive_'
'streetso_'
'increased_'
'continuously_'
'belt_'
'zi'
'yn_'
'unexpectedly_'
'spire_'
'shoulders_'
'pur'
'price'
'noisy'
'newish_'
'matterhorn_'
'lucca_'
'head'
'dy'
'delightfully_'
'd'
'bed'
'bad'
'asi'
'anau_'
'year'
'tonight_'
'study_'
'statement_'
'shampoos_'
'scott_'
'rai_'
'provision_'
'pollution_'
'mayan_'
'mare_'
'ice'
'har'
'ers'
'camp'
'1970s_'
' , ' _'
'utmost_'
'shiny_'
'seminyak_'
'recommended'
'recommend'
'niceand_'
'mildew_'
'hum_'
'gan_'
'foggy_'
'fillet_'
'def'
'bothersome_'
'big'
'bha'
'awakened_'
'apologise_'
'anthony_'
'visually_'
'subways_'
'stairway_'
'sandton_'
'roomsthe_'
'risotto_'
'ol'
'marketing_'
'laura_'
'latte_'
'flo'
'dunedin_'
'crafts_'
'cool'
'botanic_'
'ash'
'all'
'voices_'
'tub'
'tar_'
'promises_'
'princeton_'
'ort_'
'hamburger_'
'gazebo_'
'clo'
'casita_'
'bulbs_'
'bluff_'
'technically_'
'statues_'
'slam_'
'ranges_'
'neu'
'flats_'
'enchanting_'
'ence_'
'ea_'
'decorating_'
'boom_'
'199'
'-$_'
' .& _'
' &_'
'unassuming_'
'terre_'
'tay_'
'sor'
'perfect'
'ou'
'modernized_'
'everything'
'cheap'
'ballpark_'
'aid_'
'uninviting_'
'tur'
'threw_'
'storing_'
'runners_'
'rarity_'
'ranked_'
'pump_'
'owever_'
'ey'
'egyptian_'
'earl_'
'cold'
'chatted_'
'awayand_'
'assorted_'
'army_'
'ad'
'accompanying_'
'viking_'
'uninterested_'
'tempting_'
'settee_'
'sel'
'revellers_'
'rapids_'
'memorabilia_'
'lind'
'imagination_'
'expert_'
'eu_'
'des'
'depend_'
'cro'
'cooks_'
'borders_'
'24hr_'
'tulum_'
'sy'
'smith_'
'servicethe_'
'rain'
'prettiest_'
'populated_'
'pesos_'
'mbk_'
'lb'
'indulge_'
'immense_'
'gamble_'
'engage_'
'chi'
'book'
'stretched_'
'rises_'
'racecourse_'
'petit_'
'ock_'
'loving_'
'lia'
'imagined_'
'i95_'
'grosvenor_'
'greatbut_'
'gardeners_'
'dur'
'criteria_'
'coffeemaker_'
'cast_'
'cambodia_'
'bro'
'bellboy_'
'anti'
'ww'
'vermont_'
'sm_'
'sie'
'shu'
'notified_'
'life'
'incheon_'
'grazing_'
'fest_'
'enquired_'
'dand_'
'awaiting_'
'any'
'amusing_'
'ace_'
'sympathetic_'
'skin_'
'seasoned_'
'overview_'
'orientated_'
'nang_'
'magazines_'
'legendary_'
'kar'
'haymarket_'
'groupon_'
'ft'
'dri'
'dis'
'counts_'
'cooperative_'
'clearwater_'
'butit_'
'bur'
'bol'
'whistles_'
'um'
'tin'
'stumbled_'
'streetand_'
'southwark_'
'scrumptious_'
'scar'
'rundle_'
'questioned_'
'mani'
'lang'
'bamboo_'
'angry_'
'andwhen_'
'ada'
'wis'
'vel'
'stretching_'
'ska'
'savings_'
'professionals_'
'ized_'
'hill'
'herd_'
'hal'
'fine'
'fast'
'enroute_'
'detached_'
'crews_'
'tune_'
'singers_'
'raleigh_'
'hot'
'gal'
'characterful_'
'bell'
'aviv_'
'ative_'
'van'
'u'
'terminus_'
'spe'
'soooo_'
'seventh_'
'rockefeller_'
'presents_'
'parking'
'one'
'n'
'mit'
'kai'
'hs'
'have'
'deskand_'
'committed_'
'ayed_'
'access'
'urs_'
'tribute_'
'slow'
'portable_'
'lobbies_'
'lity_'
'lasted_'
'expensive'
'59_'
'ta'
'stairwell_'
'species_'
'shin'
'rewarded_'
'observe_'
'nighttime_'
'nightand_'
'muscat_'
'loss_'
'lava_'
'fixing_'
'dependable_'
'ung'
'stables_'
'spa'
'sle'
'searched_'
'quays_'
'prom_'
'poured_'
'parisian_'
'oct_'
'mauritius_'
'indication_'
'fe'
'esi'
'ering_'
'else'
'buttons_'
'brothers_'
'adjustable_'
'( '
'vol'
'separating_'
'rockies_'
'headboard_'
'exeter_'
'emptied_'
'anyways_'
'ak_'
'24hrs_'
'wood'
'timber_'
'show'
'president_'
'liquid_'
'laundromat_'
'jim_'
'ime_'
'hue_'
'flexibility_'
'beale_'
'appropriately_'
'applies_'
'apologize_'
'ama'
'14'
' : ( _'
'way'
'warmed_'
'vegan_'
'tuna_'
'spotting_'
'sou'
'ri'
'paso_'
'losing_'
'itself'
'hefty_'
'forthcoming_'
'etosha_'
'downs_'
'designs_'
'crispy_'
'ck'
'breezes_'
'ars_'
'08_'
' , £ _'
'tian'
'mal'
'mai'
'corniche_'
'container_'
'cheerfully_'
'blo'
'ando'
'125_'
'wil'
'valencia_'
'tipping_'
'thoughtfully_'
'tha'
'tablet_'
'shadow_'
'plasma_'
'morro_'
'l'
'knoxville_'
'jan'
'ille_'
'germain_'
'forgetting_'
'escalators_'
'coffe_'
'buta'
'ard'
'speedboat_'
'shrubs_'
'selecting_'
'seaworld_'
'portofino_'
'permanent_'
'peri'
'participate_'
'material_'
'lla'
'decorative_'
'containers_'
'circles_'
'alexanderplatz_'
'williams_'
'touch'
'sainsbury_'
'ramps_'
'rad'
'pul'
'nondescript_'
'lc'
'jimmy_'
'jacket_'
'fo_'
'flushing_'
'brightly_'
'archery_'
'72_'
'52'
'und_'
'tv'
'thro'
'son'
'sarah_'
'revamp_'
'registered_'
'predictable_'
'goodi_'
'gh'
'divers_'
'desk'
'central'
'camino_'
'aspen_'
'1980_'
'13'
'wind'
'values_'
'unappealing_'
'sing'
'resort'
'provisions_'
'nets_'
'hay_'
'garages_'
'flight'
'flaw_'
'ect_'
'do'
'citadines_'
'circa_'
'centro_'
'buc'
'ani'
'ang_'
'ami'
'underwhelmed_'
'traverse_'
'therapist_'
'sultanahmet_'
'sleeps_'
'permitting_'
'ics_'
'hi'
'dusseldorf_'
'data_'
'boyfriend_'
'ber_'
'wei'
'vas'
'twist_'
'summit_'
'styling_'
'strawberry_'
'size'
'rn'
'par'
'jacksonville_'
'hes_'
'download_'
'carries_'
'canterbury_'
'camden_'
'wary_'
'toledo_'
'pong_'
'pen_'
'overbearing_'
'obtained_'
'mt'
'like'
'kil'
'indicate_'
'barcelo_'
'wait'
'views'
'surpassed_'
'sse'
'sisters_'
'port'
'ore'
'nce'
'fulfilled_'
'formula_'
'dam'
'coped_'
'best'
'av_'
'artists_'
'sue_'
'south'
'sore_'
'rapidly_'
'pour_'
'phil'
'lockers_'
'lisa_'
'hotelthis_'
'grout_'
'gray_'
'grant_'
'chateaux_'
'caveat_'
'wheels_'
'utilize_'
'sti'
'slices_'
'scores_'
'rig'
'priceless_'
'paulo_'
'pampering_'
'me'
'lengths_'
'hail_'
'front'
'fashionable_'
'fabric_'
'ens'
'enable_'
'berries_'
'veggies_'
'tissues_'
'suv_'
'soggy_'
'secondary_'
'roses_'
'rm'
'quad_'
'metre_'
'm'
'lobby'
'hardware_'
'greece_'
'giraffe_'
'fleet_'
'elected_'
'comforting_'
'cheaply_'
'aa_'
'wick_'
'westerns_'
'varadero_'
'unpretentious_'
'unfamiliar_'
'taksim_'
'swissotel_'
'role_'
'remainder_'
'qua'
'owing_'
'outgoing_'
'organize_'
'hers_'
'greenville_'
'glowing_'
'global_'
'estes_'
'creepy_'
'cp_'
'collecting_'
'ci_'
'attitudes_'
'achieve_'
'?_'
'79_'
'45'
'value'
'trout_'
'tom'
'tb'
'stic_'
'prints_'
'prado_'
'long'
'light'
'lewis_'
'harvard_'
'earls_'
'didn_'
'dar_'
'commitment_'
'carved_'
'bayside_'
'ar'
'anyhow_'
' !'
'ym'
'travelzoo_'
'tra'
'sloppy_'
'rows_'
'reference_'
'promising_'
'nt'
'michelle_'
'metered_'
'lucia_'
'indi'
'ever'
'essence_'
'elo'
'die'
'consisting_'
'bum'
'brugge_'
'abi'
'00'
'watch'
'unimpressive_'
'undercooked_'
'steady_'
'speeds_'
'seaplane_'
'rudely_'
'rou'
'powered_'
'pedestrians_'
'goodwe_'
'curt_'
'alcove_'
' @_'
'withing_'
'ui'
'summer'
'sooner_'
'some'
'smokey_'
'reaction_'
'rate'
'ranking_'
'rangers_'
'ps'
'ml'
'la'
'kerry_'
'island'
'cos_'
'concerning_'
'colosseum_'
'cle'
'bu'
'aud_'
'websites_'
'tai'
'sculpture_'
'saunas_'
'pen'
'patch_'
'occurred_'
'milford_'
'locationand_'
'joshua_'
'interconnecting_'
'haneda_'
'crepes_'
'brian_'
' ) : _'
'working'
'watersports_'
'victor_'
'tissue_'
'timem_'
'shelter_'
'sb'
'preserve_'
'preferable_'
'nova_'
'messe_'
'kingsize_'
'kat'
'im_'
'guangzhou_'
'engines_'
'els_'
'dusit_'
'cara'
'cans_'
'canoe_'
'though'
'thatched_'
'southampton_'
'seldom_'
'seatac_'
'reserving_'
'pies_'
'overworked_'
'onion_'
'namba_'
'mira'
'lover_'
'ka'
'if'
'fooled_'
'drive'
'cc_'
'calle_'
'andand_'
'ae'
'sommelier_'
'mc_'
'margaret_'
'm5_'
'kinsale_'
'hesitant_'
'fresco_'
'escapes_'
'blends_'
'beachbut_'
'backing_'
'amo'
' ' ( _'
'scratched_'
'scooter_'
'sake_'
'roadso_'
'prevented_'
'postcard_'
'po'
'phi_'
'kee'
'interrupted_'
'inquire_'
'handles_'
'ei_'
'disconcerting_'
'carlsbad_'
'amp'
' : " _'
' ) -_'
'wonderfull_'
'val'
'trans'
'spar'
'roomwe_'
'pavillion_'
'norwich_'
'neutral_'
'mono'
'lee'
'it'
'hotter_'
'hopes_'
'fizz_'
'determined_'
'cre'
'cour'
'conceirge_'
'che_'
'authority_'
'accustomed_'
'yum_'
'wine'
'unfair_'
'tt'
'transformed_'
'strictly_'
'staring_'
'sky'
'salsa_'
'programs_'
'monsoon_'
'kilometres_'
'insight_'
'hs_'
'gua'
'gowns_'
'gil'
'gh_'
'finds_'
'factors_'
'enhance_'
'cai'
'br_'
'ter'
'tepid_'
'tacos_'
'spiral_'
'soups_'
'pisa_'
'pat_'
'offs_'
'ngton_'
'mala'
'hassles_'
'ger_'
'fu'
'docklands_'
'business'
'bhutan_'
'andbut_'
'yp'
'subsequent_'
'someday_'
'round'
'roadhouse_'
'refer_'
'overall'
'notably_'
'muffin_'
'montparnasse_'
'kauai_'
'iffy_'
'family'
'excess_'
'corn'
'civil_'
'buts'
'briefly_'
'boating_'
'26'
' .. '
'warner_'
'pleasant'
'ora'
'ona_'
'money'
'miniature_'
'launch_'
'ic'
'gripes_'
'glitch_'
'expressed_'
'exceed_'
'durango_'
'atrocious_'
'accompany_'
'well'
'tipped_'
'sincerely_'
'shorts_'
'sail_'
'indianapolis_'
'horribly_'
'grew_'
'engineering_'
'dimly_'
'dee'
'dan'
'bit'
'beige_'
'balanced_'
'airportbut_'
'ade'
'2006_'
'vo_'
'view'
'varies_'
'subsequently_'
'shoulder_'
'senses_'
'sco'
'ron'
'restroom_'
'pay'
'pathways_'
'obnoxious_'
'oban_'
'nap'
'mans_'
'loud'
'kc_'
'karen_'
'jug_'
'job'
'interests_'
'fringe_'
'fran_'
'cy'
'coles_'
'boat'
'bearings_'
'[ _'
'tanzania_'
'stephen_'
'simon_'
'savoy_'
'rouge_'
'rectify_'
'ral'
'qualities_'
'preferring_'
'population_'
'nov_'
'maintains_'
'lug_'
'joseph_'
'expanded_'
'bab'
'arab_'
' ’ ._'
'urgent_'
'tri'
'smartly_'
'skis_'
'optional_'
'ne'
'karaoke_'
'is'
'inter_'
'husbands_'
'haddock_'
'fairbanks_'
'du'
'dit'
'cs'
'compromise_'
'brave_'
'bloody_'
'bedthe_'
'againi_'
'advisable_'
'weekend'
'uneventful_'
'supported_'
'ssi'
'speaker_'
'sevilla_'
'sapporo_'
'roosevelt_'
'recognise_'
'pra'
'meadows_'
'louder_'
'hertz_'
'heartily_'
'fit'
'faithful_'
'erie_'
'el'
'commons_'
'blaring_'
'94_'
'69_'
'• _'
'wen'
'weather'
'tart_'
'suffice_'
'square'
'shines_'
'pro'
'lemonade_'
'law'
'kha'
'ide'
'gazing_'
'ei'
'deb'
'cracking_'
'comfy'
'bypass_'
'belly_'
'augustine_'
'as'
'ant'
'09_'
'01_'
'whistle_'
'threadbare_'
'thankyou_'
'restrictions_'
'palais_'
'organization_'
'oo_'
'offset_'
'mind'
'lifeguards_'
'kiev_'
'kevin_'
'incidentally_'
'hap'
'cleanthe_'
'chesterfield_'
'break'
'aqua'
'applied_'
'affords_'
'30min_'
'18'
'xa'
'waterway_'
'thunder_'
'skies_'
'sealed_'
'ren'
'people'
'multi'
'meticulously_'
'manners_'
'mandatory_'
'linger_'
'ky'
'indonesia_'
'hindsight_'
'fallen_'
'ere'
'comped_'
'candle_'
'avignon_'
'arrival'
'anticipate_'
'ambient_'
'alba'
'advertises_'
'27th_'
'zo_'
'thing'
'sherry_'
'seg'
'sac_'
'ribs_'
'limerick_'
'kol'
'involves_'
'ingthe_'
'gri'
'generator_'
'federal_'
'farthest_'
'der'
'dep'
'curved_'
'crannies_'
'cost'
'bourke_'
'ata'
' ( ? ) _'
'wonders_'
'une'
'tion'
'sur'
'stayi_'
'start'
'sse_'
'severe_'
'rod_'
'placa_'
'pig_'
'palaces_'
'mongkok_'
'issued_'
'ipanema_'
'interestingly_'
'garlic_'
'flood_'
'fish'
'dir'
'christian_'
'centre'
'academy_'
'ze'
'wi'
'theirs_'
'technical_'
'rac'
'mor'
'freight_'
'drunks_'
'cord_'
'chief_'
'breaker_'
'beat'
'altitude_'
'airportso_'
'yl'
'wo'
'vote_'
'vesuvius_'
'swipe_'
'strategic_'
'sthis_'
'sla'
'parkland_'
'occupants_'
'northeast_'
'murano_'
'mon'
'mo'
'lthough_'
'lite_'
'kicked_'
'humor_'
'gw'
'groomed_'
'exists_'
'ett_'
'duplex_'
'das_'
'bryant_'
'bridge'
'beaune_'
'aurora_'
'arthur_'
'40th_'
'07_'
'taste'
'swans_'
'ring'
'replenishing_'
'ras_'
'pizzeria_'
'overheard_'
'mos'
'lord_'
'lonely_'
'kremlin_'
'hel'
'hardwood_'
'funeral_'
'full'
'ese_'
'ella_'
'cowboy_'
'card'
'yi_'
'watery_'
'township_'
'sever'
'refuse_'
'permits_'
'part'
'moan_'
'midi_'
'michel_'
'ght'
'gently_'
'eater_'
'dripping_'
'dating_'
'cou'
'belle_'
'am'
'acc'
'" '
'window'
'wever_'
'ured_'
'ue'
'twins_'
'spencer_'
'sher'
'property'
'nose_'
'nit_'
'mas_'
'land'
'jer'
'humble_'
'hooks_'
'gary_'
'franklin_'
'find'
'contributed_'
'challenged_'
'ak'
' ” , _'
'wonderful'
'toby_'
'tee_'
'sure'
'spring'
'snow'
'quit_'
'pt'
'pala'
'outrageously_'
'ooms_'
'nassau_'
'mc'
'hed_'
'ger'
'gent_'
'from'
'fen'
'dong_'
'cross'
'colored_'
'cattle_'
'bldg_'
'belgium_'
'around'
'agra_'
'198'
'wag'
'vodka_'
'ugh_'
'tire_'
'tedious_'
'shy_'
'relevant_'
'recover_'
'rafting_'
'performed_'
'parque_'
'nan'
'mall'
'lick_'
'laptops_'
'gordon_'
'gen'
'fun'
'famed_'
'eagles_'
'chattanooga_'
'behold_'
'visual_'
'thousand_'
'staywe_'
'songs_'
'sin'
'paddy_'
'oe'
'ler'
'lent_'
'granddaughter_'
'embarrassed_'
'dominated_'
'cebu_'
'bwi_'
'beau'
'a1'
', '
') ._'
' ... ) _'
'wai'
'universally_'
'touching_'
'territory_'
'rie'
'negril_'
'edthe_'
'delicacies_'
'deal'
'cra'
'bir'
'undergone_'
'thu'
'stretches_'
'premise_'
'prayer_'
'pebble_'
'packet_'
'oa'
'not'
'nagoya_'
'luton_'
'ken'
'kata_'
'han'
'fre'
'definetely_'
'close'
'burbank_'
'ash_'
'wright_'
'warming_'
'warm'
'then'
'spar_'
'return'
'reminder_'
'permitted_'
'other'
'mont'
'ment'
'koh_'
'ian'
'hilo_'
'hen'
'gu'
'grange_'
'decked_'
'decidedly_'
'carl'
'camel_'
'ay'
'ans'
'aloof_'
'27'
'yarra_'
'usand_'
'sil'
'rot'
'point'
'nie'
'maha'
'gadgets_'
'gab'
'denied_'
'defense_'
'beatles_'
'bar'
'anaheim_'
'220_'
' . '_'
'wre'
'tele'
'obstructed_'
'integrated_'
'infront_'
'hopeless_'
'highlighted_'
'fi'
'failure_'
'drink'
'documents_'
'de'
'beautiful'
'battlefield_'
'atocha_'
'applebees_'
'109_'
'zer'
'zayed_'
'years'
'tr'
'syracuse_'
'strict_'
'sooo_'
'sign'
'shuttle'
'scaffolding_'
'sanur_'
'reviewing_'
'restaurants'
'reception'
'palo_'
'metro'
'messed_'
'lifestyle_'
'lido_'
'hin'
'goings_'
'gig_'
'ess'
'emphasis_'
'embarrassing_'
'doorway_'
'clifton_'
'ali'
'43'
'ster'
'special'
'sodas_'
'slipped_'
'side'
'prominent_'
'may'
'marais_'
'kilda_'
'ithaca_'
'ith_'
'inlet_'
'ig_'
'help'
'hei'
'franchise_'
'foremost_'
'float_'
'ensures_'
'eat'
'dal'
'compares_'
'burned_'
'bel'
'az_'
' ... )_'
' - £ _'
' ! ! ) ._'
'ven'
'unloaded_'
'researched_'
'mins'
'kes_'
'dairy_'
'better'
'ö'
'yrs_'
'we'
'timei_'
'through'
'sting_'
'squeaky_'
'roadbut_'
'quayside_'
'prix_'
'prawn_'
'outside'
'opulence_'
'ong'
'necessity_'
'montego_'
'miss'
'mini'
'lus'
'hype_'
'gr'
'gat'
'erg_'
'dupont_'
'distinctive_'
'dha'
'deadwood_'
'colleges_'
'checkpoint_'
'busch_'
'barbados_'
'assure_'
'amex_'
'ura'
'tones_'
'sheikh_'
'ro'
'reduction_'
'peppers_'
'motivated_'
'maneuver_'
'lunch'
'inflated_'
'gyms_'
'fastest_'
'enough'
'cin'
'caldera_'
'andour_'
'wee'
'vail_'
'unpacked_'
'uma_'
'toothpaste_'
'team'
'tar'
'slap_'
'showerhead_'
'sak'
'reps_'
'printers_'
'maritime_'
'ling'
'kor'
'jason_'
'imo_'
'hordes_'
'hiked_'
'definitively_'
'cop'
'comings_'
'carpeted_'
'bri'
'boss_'
'boarded_'
'baker_'
'areai_'
'alexander_'
'- '
'yours_'
'ups'
'ted'
'switching_'
'sat'
'samui_'
'salem_'
'roy_'
'recycling_'
'quality'
'paphos_'
'hydro_'
'extractor_'
'every'
'coi'
'change'
'cameras_'
'about'
'tis'
'thereafter_'
'surfaces_'
'sun'
'splashing_'
'souk_'
'softer_'
'socks_'
'sloping_'
'seminar_'
'roadway_'
'rif'
'retained_'
'rested_'
'payed_'
'ond'
'metropole_'
'mantra_'
'madeira_'
'loire_'
'ljubljana_'
'late'
'itbut_'
'hastings_'
'gon'
'ge'
'fo'
'et'
'era'
'concourse_'
'command_'
'chest_'
'cd_'
'cannery_'
'asse'
'ye_'
'usthe_'
'trident_'
'tre'
'torch_'
'springdale_'
'sheffield_'
'seas_'
'por'
'oranges_'
'obscured_'
'legoland_'
'lag'
'intention_'
'infact_'
'importance_'
'eaters_'
'drew_'
'discovering_'
'dare_'
'biz_'
'bitter_'
'admiring_'
' ( " _'
'wardrobes_'
'val_'
'uss'
'uncrowded_'
'trevi_'
'tranquillity_'
'temps_'
'shopping'
'restaraunts_'
'pipe_'
'manu'
'linda_'
'langham_'
'kie'
'harbour'
'gym'
'firepit_'
'ez_'
'decline_'
'clark_'
'chal'
'casitas_'
'brea'
'bel_'
'bag'
'adeje_'
'aber'
'walk'
'swimmers_'
'swanky_'
'ssa'
'refreshment_'
'nn_'
'nightstand_'
'ip'
'inn'
'indonesian_'
'fro'
'extends_'
'distinctly_'
'cumberland_'
'brook'
' ; '
'usa'
'ti'
'thanked_'
'shad'
'scared_'
'nook_'
'maison_'
'ino_'
'harsh_'
'fork_'
'ef'
'distance'
'discrete_'
'broadband_'
':- _'
'wins_'
'width_'
'wasthe_'
'unreasonable_'
'trapped_'
'transiting_'
'rose'
'refills_'
'ota'
'okay'
'oeuvres_'
'informing_'
'inferior_'
'gaming_'
'concession_'
'bles_'
'ards_'
'amazon_'
'achi'
'welsh_'
'watered_'
'stylishly_'
'ste'
'stal'
'soon'
'renowned_'
'perkins_'
'oi'
'occitane_'
'moines_'
'low'
'lon_'
'ken_'
'irritated_'
'ig'
'event'
'ethnic_'
'developing_'
'cider_'
'chlorine_'
'chandelier_'
'calibre_'
'buckhead_'
'blows_'
'b'
'www_'
'uni_'
'suffers_'
'stomach_'
'stan_'
'sharm_'
'sag'
'rom'
'represent_'
'recoleta_'
'rails_'
'pods_'
'placement_'
'oro_'
'oli'
'miguel_'
'lovingly_'
'ita'
'intimidating_'
'institute_'
'humming_'
'dn'
'course'
'contain_'
'cl'
'chennai_'
'bara'
'ashley_'
'additions_'
'ach_'
' , - _'
'“ _'
'ymca_'
'tun'
'sunrises_'
'storms_'
'sop'
'optimal_'
'ode'
'nut_'
'mystic_'
'moana_'
'mau'
'lan'
'justified_'
'ish'
'hote_'
'footsteps_'
'fiesta_'
'experienceand_'
'ena'
'comprised_'
'ci'
'ces'
'center'
'cale'
'boo'
'apt_'
'admission_'
'woodlands_'
'vines_'
'twelve_'
'truely_'
'technician_'
'spi'
'responsibility_'
'rag'
'pp'
'located'
'line'
'lavender_'
'jorge_'
'inconsiderate_'
'fire'
'farmer_'
'disa'
'brits_'
'bent_'
'argentina_'
'andall_'
' ! !'
'ved_'
'variation_'
'up'
'tremendously_'
'tot'
'terminal'
'quirks_'
'powdered_'
'panels_'
'novel_'
'mugs_'
'mn'
'lagged_'
'gy'
'grub_'
'gly_'
'ep'
'early'
'crap_'
'aria_'
'whistler_'
'which'
'wanna_'
'vice_'
'unaware_'
'tuscan_'
'terraced_'
'tai_'
'sunbathe_'
'sts_'
'ster_'
'steeped_'
'shop'
'quick'
'outing_'
'ntly_'
'mel'
'manuel_'
'manning_'
'luxuries_'
'lot'
'giraffes_'
'familia_'
'entree_'
'disgrace_'
'crying_'
'ched_'
'cas'
'bubble_'
'boiling_'
'wan'
'vale_'
'ul'
'tan'
'squirrels_'
'scarce_'
'refrigerators_'
'ori'
'navigation_'
'li'
'level'
'kirk'
'itza_'
'fri_'
'flown_'
'croatia_'
'class'
'c'
'boracay_'
'antelope_'
'ante'
'andy_'
'ait'
'abroad_'
'170_'
'105_'
'''
'sg'
'sampling_'
'pris'
'past'
'kas'
'ito'
'hagia_'
'elysees_'
'cm_'
'but'
'bow'
' )- _'
'thinks_'
'streaming_'
'spaciousness_'
'sec'
'reset_'
'petals_'
'pe'
'overs'
'oval_'
'oscar_'
'nye_'
'messages_'
'mash_'
'loc'
'hops_'
'gur'
'exhaust_'
'companion_'
'cla'
'bea'
'awoken_'
'aw'
'auberge_'
'astonishing_'
'02_'
' ? '
'xi_'
'ws'
'visitand_'
'villa'
'ust'
'ula'
'superb'
'rotana_'
'rink_'
'ree_'
'packaged_'
'moni'
'mir'
'men'
'kippers_'
'kent_'
'grabbing_'
'dot_'
'dor'
'det'
'context_'
'chee'
'building'
'ado_'
'worrying_'
'uar'
'table'
'rust_'
'ran'
'overcome_'
'misses_'
'gs'
'eas'
'dm'
'differently_'
'deter_'
'chichen_'
'cat'
'before'
'bats_'
'bars'
'acknowledgement_'
'!._'
'vic_'
'vacuumed_'
'starred_'
'sham'
'rodeo_'
'remotely_'
'palatial_'
'ox_'
'mn_'
'mestre_'
'map'
'mag'
'lau'
'incline_'
'herethe_'
'gem'
'foreigners_'
'fishermans_'
'favorable_'
'chen'
'cents_'
'carrefour_'
'believed_'
'arn'
'zar'
'windhoek_'
'veg'
'tag'
'sundowner_'
'spur_'
'smoker_'
'ship'
'servi'
'sburg_'
'sachets_'
'rese'
'ple'
'olives_'
'nei'
'marsh_'
'kuta_'
'everglades_'
'draught_'
'downer_'
'dia_'
'dependent_'
'bingo_'
'ate'
'apollo_'
'agi'
'ybut_'
'ures_'
'uniform_'
'thin'
'tely_'
'structures_'
'silverware_'
'sagrada_'
'sabi_'
'rusty_'
'runner_'
'rp'
'problem'
'pokey_'
'oysters_'
'mr'
'mats_'
'magazine_'
'koi_'
'jun'
'indicating_'
'haphazard_'
'flooding_'
'facilities'
'extending_'
'db'
'chit_'
'bogota_'
'underway_'
'townhouse_'
'tol'
'tam'
'sen'
'sca'
'rod'
'pointe_'
'photography_'
'overdue_'
'nig'
'nevada_'
'nationalities_'
'milano_'
'matching_'
'just'
'invoice_'
'floral_'
'fault'
'din_'
'courthouse_'
'absent_'
'43_'
'2005_'
','
'zambezi_'
'yan'
'wal'
'uti'
'squash_'
'royale_'
'prop'
'patiently_'
'mora'
'mad'
'longest_'
'kuwait_'
'king'
'iri'
'ino'
'ik'
'festivities_'
'exceeds_'
'eureka_'
'bride_'
'bangor_'
'ball'
'appreciation_'
'ano_'
'trans_'
'tottenham_'
'suffering_'
'rand_'
'pt_'
'ous'
'oe_'
'nda_'
'isthe_'
'ise'
'ians_'
'gras_'
'gle'
'foot'
'fal'
'cosmopolitan_'
'chin'
'browse_'
'bl'
'aro'
'anywhere'
'aero'
'will'
'volcanic_'
'venison_'
'upcoming_'
'unt'
'seniors_'
'sala'
'ret'
'positano_'
'oke'
'od'
'nd'
'jolly_'
'jasmine_'
'interstates_'
'inspection_'
'helpfully_'
'gro'
'gems_'
'fore'
'corner'
'colder_'
'coast'
'bow_'
'behalf_'
'achieved_'
'93_'
' ? ) , _'
' . ) , _'
'usly_'
'swim'
'skywalk_'
'robin_'
'putt_'
'para'
'options'
'offsite_'
'more'
'market'
'lid_'
'leopards_'
'ku_'
'jaded_'
'ised_'
'insane_'
'goose_'
'goodbye_'
'fridges_'
'frayed_'
'footbridge_'
'exce'
'discussed_'
'decade_'
'cli'
'cleverly_'
'bout_'
'bec'
'asap_'
'vieux_'
'su_'
'staycation_'
'silk_'
'shibuya_'
'rly_'
'rio'
'relocated_'
'rant_'
'ome'
'nse'
'nikko_'
'kuala_'
'iso'
'hygiene_'
'fli'
'faux_'
'dro'
'dorm_'
'dea'
'carnival_'
'bud'
'born_'
'againthis_'
'a4'
'yourselves_'
'uluru_'
'ters_'
'specialties_'
'snug_'
'shard_'
'sees_'
'rea'
'prat'
'plazas_'
'pioneer_'
'passports_'
'noice_'
'mails_'
'lodgings_'
'lend_'
'khao_'
'keeper_'
'ire_'
'grow_'
'golfer_'
'goats_'
'fira_'
'fingers_'
'fa_'
'exited_'
'disc'
'disappoints_'
'chengdu_'
'castle'
'cant'
'bratislava_'
'belongs_'
' ! '
'welcome'
'ung_'
'teri'
'tape_'
'ske'
'revolving_'
'ral_'
'pune_'
'passionate_'
'parlor_'
'packs_'
'outweigh_'
'nightbut_'
'negotiated_'
'ndo'
'lightning_'
'inu'
'flat'
'drown_'
'distracted_'
'cyprus_'
'crisps_'
'cons'
'cocoa_'
'bumped_'
'bleak_'
'ande'
'ade_'
'wembley_'
'waverley_'
'uni'
'trend_'
'therapists_'
'solitude_'
'solely_'
'severely_'
'seaport_'
'scuffed_'
'run'
'ride'
'rein'
'places'
'permanently_'
'overbooked_'
'moose_'
'met'
'melon_'
'maple_'
'lim'
'kim_'
'ih'
'horrid_'
'gun'
'gaylord_'
'fenway_'
'este'
'dd'
'commanding_'
'citi'
'boy'
'blues_'
'attic_'
'areawe_'
'52_'
'29th_'
'1980s_'
' ! ! ! _'
'wound_'
'understatement_'
'underpass_'
'saratoga_'
'responses_'
'plugged_'
'pers_'
'peoples_'
'pdx_'
'outs'
'milling_'
'member'
'matt_'
'jerusalem_'
'intense_'
'facilites_'
'crowded'
'confirming_'
'cobblestone_'
'chowder_'
'cheesy_'
'cen'
'bose_'
'belong_'
'aya_'
'arguably_'
'91_'
'-'
'windows'
'starbuck_'
'somerset_'
'skating_'
'settling_'
'roller_'
'redecorated_'
'ot'
'nn'
'nail_'
'll'
'kerala_'
'glow_'
'filter_'
'dean_'
'comb'
'cd'
'bothers_'
'bone_'
'bei'
'bee_'
'andrea_'
'46_'
'yi'
'worth'
'ward_'
'unknown_'
'tsa'
'shenzhen_'
'reflecting_'
'nk'
'napkins_'
'napier_'
'look'
'hearted_'
'glamour_'
'di'
'dart_'
'catamaran_'
'carlo_'
'awoke_'
'average'
'arrived'
'akin_'
'advanced_'
'add'
'wild'
'uil'
'tthe_'
'throwing_'
'teeth_'
'tastings_'
'syrup_'
'reviews'
'prestige_'
'precious_'
'piped_'
'oh'
'millenium_'
'menu'
'let'
'guests'
'gran'
'framed_'
'films_'
'existing_'
'congregate_'
'butter'
'blenheim_'
'amb'
'amarillo_'
'34'
'vilnius_'
'vents_'
'schiphol_'
'runways_'
'rc_'
'punctual_'
'punch_'
'path'
'notwithstanding_'
'nola_'
'malmaison_'
'kolkata_'
'kara'
'kan'
'hell'
'harris_'
'glo'
'europeans_'
'ct'
'cer'
'br'
'bilbao_'
'belgrade_'
'bearable_'
'alleyway_'
'900_'
'28'
' ) ,_'
'yds_'
'things'
'stool_'
'som'
'shinkansen_'
'scrap'
'rei'
'rail'
'posters_'
'plus'
'pic'
'nw_'
'natchez_'
'ld'
'laos_'
'korea_'
'kings'
'inattentive_'
'ima'
'iguanas_'
'hippo_'
'expanse_'
'ex'
'ela'
'charity_'
'aveda_'
' -'
' )'
'unparalleled_'
'tied_'
'thani_'
'sup'
'stre'
'sicily_'
'rece'
'provider_'
'pools'
'municipal_'
'mouse_'
'lifeguard_'
'laws_'
'jack'
'interstate'
'influence_'
'he'
'excelent_'
'emp'
'charlottesville_'
'bothering_'
'belgian_'
'beacon_'
'tubes_'
'tracking_'
'tolerable_'
'stuttgart_'
'shrewsbury_'
'rightly_'
'researching_'
'procedures_'
'pic_'
'mild_'
'martin'
'marquis_'
'keycard_'
'itt'
'identify_'
'hy_'
'hiccup_'
'fronting_'
'floorboards_'
'fare'
'eni'
'embassies_'
'dime_'
'demanded_'
'crime_'
'ching_'
'bat_'
'aroma_'
'appetite_'
'whit'
'vo'
'topper_'
'sunken_'
'reassuring_'
'power'
'pennsylvania_'
'pasadena_'
'mond'
'lu'
'lloyd_'
'lace_'
'lac'
'itwe_'
'insult_'
'insect_'
'ingles_'
'ici'
'honfleur_'
'hazard_'
'glaciers_'
'garden'
'flagship_'
'drum_'
'crocodile_'
'chia'
'canyons_'
'brunswick_'
'britannia_'
'austria_'
'attractions'
'ashland_'
'+ '
' +_'
' ) ... _'
' ) .( _'
'wisconsin_'
'walking'
'volcanoes_'
'uncomfortably_'
'unattended_'
'tuktuk_'
'super'
'stolen_'
'spoon_'
'specialities_'
'sought_'
'sizable_'
'rosen_'
'relationship_'
'photograph_'
'okthe_'
'myers_'
'im'
'ility_'
'hur'
'highway'
'frau'
'dvds_'
'cote_'
'competing_'
'co'
'cks_'
'charm'
'centraal_'
'cala_'
'brandenburg_'
'brand'
'board'
'bai'
'asks_'
'apo'
'abysmal_'
' ) .- _'
'uz'
'uo'
'timethe_'
'signing_'
'removing_'
'petronas_'
'pa'
'moldy_'
'macdonalds_'
'learnt_'
'kon'
'keswick_'
'iti_'
'ite'
'hummingbirds_'
'glitches_'
'gathered_'
'fet'
'evidently_'
'evans_'
'dresden_'
'doorand_'
'cu'
'club'
'andthey_'
'andbreakfast_'
'alleys_'
'udaipur_'
'tinned_'
'therapy_'
'tain'
'rn_'
'regulars_'
'reccommend_'
'ranged_'
'pou'
'patties_'
'omlettes_'
'litter_'
'jet'
'hu'
'ew'
'environs_'
'devoid_'
'derby_'
'connell_'
'complexes_'
'commuting_'
'car'
'burn'
'behavior_'
'aerobics_'
'197'
'y'
'woodstock_'
'state'
'sche'
'rancho_'
'rainbow_'
'oma'
'midland_'
'malaysia_'
'lizards_'
'len'
'interlaken_'
'hurst_'
'hilton'
'farms_'
'enclosure_'
'coronado_'
'coats_'
'cigarettes_'
'cher'
'bulb_'
'birding_'
'binoculars_'
'beirut_'
'bb'
'ava'
'ao'
'amar'
' " !_'
'uniforms_'
'temp'
'shell'
'sea'
'sci'
'robson_'
'quer'
'puerta_'
'principe_'
'petite_'
'pes'
'noteworthy_'
'nge'
'mum'
'ledge_'
'knee_'
'jane_'
'ives_'
'ini'
'haw'
'forks_'
'devi'
'croquet_'
'cow'
'complement_'
'comedy_'
'childrens_'
'bygone_'
'bozeman_'
'ble'
'31st_'
'~_'
'vi'
'try'
'ski'
'sideways_'
'sessions_'
'safe'
'rumble_'
'reli'
'regal_'
'pu'
'onthe_'
'ny'
'min'
'magnolia_'
'lugging_'
'incompetent_'
'ile'
'holy_'
'favourable_'
'explains_'
'elevator'
'east'
'dune_'
'daunting_'
'copper_'
'cityand_'
'chatsworth_'
'cal'
'att'
'aga'
'adams_'
'accidentally_'
'abu'
'270_'
'# _'
'wasa'
'warthogs_'
'urn_'
'uniquely_'
'terri'
'sticking_'
'spacious'
'scented_'
'ros_'
'rico_'
'py'
'ought_'
'nonsense_'
'nightclubs_'
'nat_'
'mac'
'lausanne_'
'its'
'il'
'frei'
'eng'
'doo'
'died_'
'creme_'
'bun_'
'bon'
'bil'
'bear'
'bavarian_'
'arguing_'
'71_'
' .• _'
'yachts_'
'wonderland_'
'uts_'
'sna'
'saver_'
'rival_'
'reverse_'
'rabbits_'
'presume_'
'pop'
'pel'
'pec'
'pattern_'
'ost_'
'migration_'
'lille_'
'lama'
'lal'
'kt'
'kentucky_'
'heels_'
'get'
'expertly_'
'descent_'
'cul_'
'commuter_'
'burg'
'brewed_'
'brazil_'
'bi_'
'alice_'
'adina_'
'57_'
'53'
'therebut_'
'tack'
'superlative_'
'scored_'
'ros'
'renovate_'
'ready'
'pr'
'ponte_'
'placing_'
'op'
'noticeably_'
'nit'
'lebanese_'
'ire'
'etcthe_'
'esta'
'ek'
'diss'
'differences_'
'dash_'
'dark'
'corinthia_'
'caverns_'
'band'
'avi'
'artist_'
'alle'
'45am_'
'widely_'
'wat'
'seagulls_'
'racks_'
'ngly_'
'honking_'
'hints_'
'handsome_'
'gorilla_'
'english'
'duties_'
'copious_'
'bli'
'backthe_'
'ark'
'argument_'
'accounts_'
' ” '
'tim'
'rye_'
'roomo'
'rie_'
'pho'
'pac'
'ows_'
'oon_'
'nou'
'nk_'
'mussels_'
'midlands_'
'manic_'
'lumpur_'
'loo'
'ii'
'gracia_'
'go'
'gad'
'fic'
'fauna_'
'far'
'fabulously_'
'ext'
'dw'
'disney'
'cruising_'
'cru'
'counted_'
'clinical_'
'calais_'
'basins_'
'accent_'
'walnut_'
'valid_'
'turn'
'supremely_'
'straw_'
'stee'
'popping_'
'penang_'
'parkingbut_'
'oia_'
'nutshell_'
'nab'
'mitte_'
'ker_'
'kanazawa_'
'jefferson_'
'hour'
'hos'
'guggenheim_'
'gion_'
'ffe'
'darn_'
'cup'
'clogged_'
'churchill_'
'chf_'
'arbor_'
'appetising_'
'amman_'
'ame_'
'51_'
'* '
'rounded_'
'roasted_'
'pueblo_'
'pine'
'pillars_'
'perfume_'
'neon_'
'nde'
'luxuriously_'
'limitations_'
'internally_'
'indiana_'
'gru'
'ful'
'extra'
'drilling_'
'drier_'
'draws_'
'cur'
'concord_'
'chore_'
'bid_'
'bat'
'acadia_'
' ( € _'
'zagreb_'
'vest'
'valentine_'
'unpacking_'
'tang'
'sian_'
'sad'
'purchasing_'
'ove'
'murals_'
'moo'
'minh_'
'mechanical_'
'lux_'
'lily_'
'ists_'
'gurgaon_'
'flavors_'
'discerning_'
'deserving_'
'decaf_'
'criticisms_'
'cows_'
'cinque_'
'butterfly_'
'booze_'
'bloomsbury_'
'arro'
'andrews_'
'andin_'
'allergy_'
'ald'
'alarms_'
'60s_'
'wool'
'wadi_'
'traditionally_'
'takayama_'
'stare_'
'she'
'roar_'
'pot'
'placethe_'
'petersburg_'
'perform_'
'opener_'
'namely_'
'logistics_'
'knife_'
'indy_'
'freeway'
'folded_'
'first'
'exclusively_'
'enti'
'eno'
'dramatically_'
'dragon_'
'curries_'
'cupboards_'
'chances_'
'bon_'
'beaver_'
'barbeque_'
'an'
'admitted_'
'adjoins_'
'aand_'
' ! ! ! ! ! !_'
'validated_'
'vacuum_'
'ult'
'to'
'suitably_'
'shambles_'
'sc_'
'sandwiched_'
'rally_'
'pom'
'orient_'
'ook_'
'officer_'
'obliged_'
'minimalistic_'
'mega'
'leas'
'disappear_'
'coo'
'attempting_'
'anda'
'150'
'--- _'
'yu'
'yb'
'wl'
'upi'
'uae_'
'tria'
'train'
'sno'
'shakespeare_'
'seclusion_'
'rich'
'rand'
'person'
'nted_'
'meri'
'lh'
'lands'
'lai'
'iti'
'iowa_'
'hq_'
'hotelthere_'
'gratuity_'
'forests_'
'failing_'
'excuses_'
'ently_'
'earn_'
'cand'
'bling_'
'artifacts_'
'winds'
'uk'
'tho'
'tara_'
'surreal_'
'spreads_'
'shave_'
'shame'
'say'
'sainsburys_'
'poly'
'pitt_'
'og'
'nickel_'
'lt'
'lodge'
'leon_'
'icy_'
'hampshire_'
'fir_'
'bishop_'
'ban_'
'anti_'
'aiport_'
':) _'
' + '
' ' ' _'
'tp'
'swept_'
'sweat_'
'stationso_'
'shel'
'rat_'
'oz_'
'nf'
'marg'
'mansions_'
'mannered_'
'mailed_'
'lucas_'
'loaf_'
'kids'
'ila'
'hoo'
'gaze_'
'gai'
'end'
'elevation_'
'doubled_'
'diff'
'cook'
'categories_'
'cane_'
'balcony'
'andvery_'
'201_'
'192'
'1800_'
'),_'
'wholeheartedly_'
'vat'
'uring_'
'un'
'ume'
'tacoma_'
'supervision_'
'sul'
'strolled_'
'stri'
'stadiums_'
'squa'
'route'
'pounding_'
'need'
'lasting_'
'hig'
'heart'
'hangout_'
'ding'
'charms_'
'caroline_'
'carlson_'
'boulders_'
'bettered_'
'atta'
'amid_'
'45pm_'
'— _'
'à_'
'wha'
'vik_'
'ust_'
'unimpressed_'
'tennessee_'
'stat'
'smallthe_'
'safes_'
'rotorua_'
'quin'
'ound_'
'omlette_'
'oj_'
'non'
'lis'
'lager_'
'innsbruck_'
'hil'
'dinner'
'crib_'
'cing_'
'bintang_'
'badge_'
'audio_'
'a3'
'5star_'
'ü'
'ud'
'twi'
'ture_'
'transition_'
'tram'
'store'
'spot'
'soa'
'sex_'
'set'
'sd_'
'rugs_'
'ques_'
'pest_'
'pere'
'peacock_'
'oni_'
'nation_'
'mykonos_'
'leadership_'
'hunter_'
'headland_'
'governor_'
'got'
'fool_'
'ece'
'disappointments_'
'designers_'
'cn_'
'certificate_'
'bump_'
'bravo_'
'belief_'
'bamb'
'ato'
'atms_'
'addressing_'
'210_'
'('
' .:) _'
'wig'
'vis_'
'vaulted_'
'vastly_'
'tres'
'sweet'
'sundowners_'
'spell_'
'sacred_'
'roomso_'
'roanoke_'
'porta'
'outfitted_'
'mill'
'mil'
'marina'
'ma'
'idaho_'
'hardworking_'
'epic_'
'encounters_'
'cumbersome_'
'cornell_'
'const'
'conduct_'
'competitively_'
'cole'
'closure_'
'cart'
'beating_'
'akumal_'
'zebras_'
'yon'
'vet'
'utilitarian_'
'ushered_'
'unesco_'
'surgery_'
'subpar_'
'stone'
'sta'
'southeast_'
'skill_'
'sintra_'
'sic'
'showered_'
'shipping_'
'ryan_'
'put'
'pullout_'
'nti'
'llo_'
'krabi_'
'koo'
'key'
'kangaroos_'
'exhausting_'
'definition_'
'debris_'
'comparatively_'
'chat'
'bw'
'ast'
'appearing_'
'andso_'
'1960_'
')'
' % ._'
'where'
'warmest_'
'traders_'
'tour'
'stingy_'
'short'
'row'
'roger_'
'rit'
'reb'
'provence_'
'philippines_'
'nda'
'mol'
'margarita_'
'less'
'lanzarote_'
'lackluster_'
'ize_'
'ita_'
'independently_'
'impala_'
'iers_'
'greenwich_'
'gon_'
'gan'
'form'
'erb'
'downtown'
'deliveries_'
'daythe_'
'complimented_'
'centrale_'
'au'
'artistic_'
'anta'
' ! ! '
'xcellent_'
'woodwork_'
'varanasi_'
'tired'
'tah'
'surf'
'stationand_'
'rox'
'okbut_'
'name'
'mario_'
'lawrence_'
'ique_'
'involve_'
'gettysburg_'
'garda_'
'dog'
'dayton_'
'dartmouth_'
'dakota_'
'curt'
'courtyard'
'bog'
'baboons_'
'austrian_'
'amused_'
'adam_'
'wor'
'usd'
'triomphe_'
'thyme_'
'stationary_'
'proportioned_'
'planted_'
'picadilly_'
'partners_'
'paro_'
'overdone_'
'luggage'
'locationthe_'
'laughed_'
'intent_'
'ham'
'frankie_'
'fly'
'fantastic'
'ellipticals_'
'drains_'
'doll'
'click_'
'buta_'
'browsing_'
'booths_'
'bern_'
'attributes_'
'ater_'
'arte'
'aj'
'airways_'
'29'
'190'
'yog'
'wich_'
'walkbut_'
'troubles_'
'tri_'
'stro'
'spoons_'
'spilled_'
'soo'
'sin_'
'seater_'
'rhinos_'
'pon'
'pointless_'
'order'
'mis_'
'mak'
'listing_'
'knees_'
'kau'
'jul'
'int'
'hat'
'gul'
'gi_'
'ez'
'dos_'
'cran'
'butlins_'
'breezy_'
'biscuit_'
'bike'
'airco_'
'ae_'
'119_'
'yn'
'wowed_'
'workspace_'
'verything_'
'uli'
'uit'
'tunnels_'
'trou'
'tos'
'timed_'
'tep'
'sr'
'specious_'
'sp_'
'sch'
'rupees_'
'rebuilt_'
'quid_'
'overs_'
'overcharged_'
'operational_'
'oklahoma_'
'nyhavn_'
'mata'
'jessica_'
'jacuzzis_'
'inevitable_'
'hitch_'
'hes'
'heat'
'grassed_'
'delegates_'
'dca_'
'cubs_'
'cracks_'
'cousin_'
'conducted_'
'clear'
'cavernous_'
'cala'
'blank_'
'beautifull_'
'ately_'
'ais'
'airstrip_'
'agu'
'47_'
'240_'
' , ... _'
'€ _'
'workshop_'
'wire_'
'trading_'
'token_'
'together'
'teen_'
'swedish_'
'sv'
'substandard_'
'shee'
'rui'
'purchases_'
'oard_'
'mouth'
'marbella_'
'lyft_'
'large'
'kit'
'internet'
'hiccups_'
'gate'
'ene'
'ell'
'ela_'
'ega'
'crumbs_'
'changi_'
'bukit_'
'blue'
'arenas_'
'antic'
'anne'
'450_'
' ( & _'
'ye'
'waters'
'vis'
'tec'
'sided_'
'schedules_'
'scarborough_'
'rhodes_'
'rh'
'remembers_'
'reluctantly_'
'quietthe_'
'prestigious_'
'pirate_'
'ox'
'outweighed_'
'outthe_'
'miller_'
'mark'
'liner_'
'invariably_'
'ined_'
'inand_'
'hammersmith_'
'foul_'
'finethe_'
'europa_'
'ect'
'disco'
'diplomatic_'
'decadent_'
'dec'
'crappy_'
'conc'
'carri'
'beg'
'bd'
'ap'
'anc'
'alan_'
'airportthe_'
'46'
') '
' "_'
'yes'
'uro_'
'urg_'
'streetbut_'
'resto_'
'puddings_'
'postcode_'
'phe'
'ola'
'oahu_'
'nal_'
'monitor_'
'manyara_'
'maa'
'lalit_'
'kel'
'investigate_'
'inside'
'ins'
'hu_'
'forty_'
'fancied_'
'expresso_'
'earthquake_'
'dives_'
'dai'
'convince_'
'convien'
'complex'
'colo'
'cali'
'bellboys_'
'bayview_'
'artic'
'anything'
'aci'
'abit_'
'youngsters_'
'vin'
'trio_'
'toes_'
'thb_'
'sparsely_'
'shark_'
'seri'
'separates_'
'sa'
'rug_'
'ref'
'protection_'
'ono'
'oceanview_'
'nos_'
'nag'
'monks_'
'mickey_'
'leftovers_'
'kitchen'
'invite_'
'hbo_'
'ghent_'
'fra'
'ethernet_'
'emer'
'eable_'
'duly_'
'dot'
'conservation_'
'chess_'
'cari'
'boast_'
'bathroomthe_'
'barefoot_'
'anonymous_'
'adjustment_'
'191'
'/'
' .... '
'toy_'
'tigers_'
'supp'
'substantially_'
'staples_'
'slo'
'sewage_'
'ru_'
'rothenburg_'
'rau'
'open'
'neatly_'
'motor'
'meanwhile_'
'matthew_'
'lightly_'
'led'
'kidding_'
'jardin_'
'ignoring_'
'hyderabad_'
'fresh'
'evenings'
'eur'
'dum'
'cp'
'commendable_'
'citizen_'
'cement_'
'ast_'
'app'
'ame'
'ain_'
'115_'
'winter'
'vision_'
'vine_'
've'
'var'
'themes_'
'taka'
'sprayed_'
'spices_'
'sit'
'sep'
'santo_'
'salt'
'rossio_'
'rk'
'raj'
'query_'
'newbury_'
'nen'
'morningand_'
'mist'
'locationbut_'
'largo_'
'jag'
'irst_'
'ike_'
'hir'
'haggis_'
'grounds'
'grotto_'
'gos_'
'gelato_'
'euro'
'creaking_'
'crawl_'
'christ'
'campo_'
'bradford_'
'bistros_'
'backs'
'appreciative_'
'allowance_'
'í'
'wholesome_'
'stray_'
'snake_'
'resembles_'
'poll'
'omg_'
'ole'
'maca'
'kla'
'kitted_'
'junk_'
'jeff_'
'itu'
'isi'
'hunt'
'guinness_'
'gett'
'fronted_'
'foodie_'
'file_'
'ff'
'em'
'dre'
'ction_'
'contract_'
'champ'
'buzzy_'
'bush'
'awaits_'
'andc'
'62_'
'120'
'04_'
'! _'
'york'
'xt'
'wir'
'waitrose_'
'ver'
'vanilla_'
'unit'
'tourist'
'text'
'tab_'
'survey_'
'suprised_'
'staffer_'
'spinach_'
'soundly_'
'seward_'
'sei'
'regina_'
'rab'
'po_'
'piers_'
'pantheon_'
'oktoberfest_'
'nm'
'kangaroo_'
'intervals_'
'in'
'honest'
'gree'
'gou'
'fab'
'cos'
'christina_'
'chap'
'chamber_'
'canoes_'
'bos'
'bes'
'aswell_'
'anticipating_'
'angles_'
'abc_'
'windermere_'
'wet'
'vert'
'vacationing_'
'urge_'
'timetable_'
'thal'
'su'
'stru'
'steep'
'skyway_'
'saturdays_'
'router_'
'rf'
'restrooms_'
'queried_'
'penguins_'
'overflowing_'
'ops_'
'ons'
'object_'
'mojito_'
'modernisation_'
'mali'
'lied_'
'iva'
'isa'
'intercon_'
'initiative_'
'hum'
'hospitals_'
'her'
'heli'
'generation_'
'future'
'formalities_'
'excelsior_'
'environmentally_'
'don'
'dbb_'
'combines_'
'com'
'cis'
'cabinets_'
'baden_'
'aesthetic_'
'36'
'205_'
'win'
'white'
'upfront_'
'uma'
'spelling_'
'rut'
'rescue_'
'pole_'
'plat'
'parkingand_'
'murphy_'
'mammoth_'
'longish_'
'lately_'
'lakeview_'
'kul'
'inver'
'hiding_'
'gods_'
'foodthe_'
'floorthe_'
'evi'
'emma_'
'ek_'
'cow_'
'chile_'
'az'
'arm'
'ain'
'ada_'
' ( ! ) _'
'zones_'
'yso_'
'witness_'
'vul'
'uninteresting_'
'unb'
'ua'
'trimmings_'
'timer_'
'swap_'
'skyscrapers_'
'sj'
'si'
'sala_'
'rua'
'recreational_'
'recon'
'pants_'
'opp'
'observations_'
'motion_'
'mei'
'measures_'
'lp'
'lagoons_'
'jury_'
'jonathan_'
'instructed_'
'guitar_'
'graffiti_'
'exhibit_'
'eau_'
'dou'
'diversity_'
'dge_'
'cheshire_'
'bang'
'4x4_'
'½_'
'ywe_'
'uth'
'unin'
'spruce_'
'sour'
'snooty_'
'shots_'
'repu'
'reims_'
'qa'
'pricey'
'pisco_'
'pat'
'pale'
'overwater_'
'onal_'
'objective_'
'miramar_'
'mccormick_'
'mate_'
'lynn_'
'log'
'lit'
'liberdade_'
'kanab_'
'joes_'
'jade_'
'ida'
'hbf_'
'guiding_'
'golf'
'genoa_'
'fishermen_'
'fied_'
'efficient'
'efficent_'
'dragged_'
'dissapointing_'
'descript_'
'deci'
'country'
'contacting_'
'coaching_'
'cinemas_'
'blamed_'
'billings_'
'base'
'> _'
' ....'
'yuan_'
'whe'
'timers_'
'slim_'
'sara_'
'sara'
'sam'
'remark_'
'realy_'
'porta_'
'perfunctory_'
'oin'
'odour_'
'normandy_'
'nis_'
'net'
'nam'
'minute'
'medi'
'mann'
'lugano_'
'lo'
'lap'
'ipa'
'hom'
'focussed_'
'entryway_'
'dumped_'
'disconnected_'
'dh'
'departs_'
'cn'
'cheeky_'
'check'
'buchanan_'
'brainer_'
'bracket_'
'blah_'
'bin'
'aug_'
'atmosphere'
'andif_'
'amanda_'
'alcazar_'
'ah'
'agreeable_'
'adapter_'
'a2'
'yst'
'wyoming_'
'taupo_'
'space'
'sophistication_'
'sive_'
'scotch_'
'rte_'
'remo'
'proceed_'
'panelling_'
'packets_'
'oak'
'nominal_'
'noi'
'muted_'
'mob'
'meantime_'
'llandudno_'
'lie'
'jamie_'
'install_'
'injury_'
'igh_'
'helier_'
'gallup_'
'fortuna_'
'forewarned_'
'consuming_'
'charge'
'ced_'
'aul'
'arth'
'90s_'
'----_'
'*. _'
'uns'
'toiletry_'
'toasted_'
'tit'
't'
'shops'
'shells_'
'rendezvous_'
'rainier_'
'quote_'
'pli'
'pee'
'pang'
'obtrusive_'
'nl'
'meridian_'
'matt'
'marginally_'
'lettuce_'
'letdown_'
'lei_'
'ineffective_'
'hoi'
'hobby_'
'guessed_'
'galley_'
'eys_'
'eta'
'disappointingly_'
'consequence_'
'communications_'
'celebrity_'
'cap'
'call'
'bmw_'
'68_'
'yy'
'welli'
'veri'
'trouser_'
'tale_'
'symphony_'
'sas_'
'responding_'
'rds_'
'pil'
'pete_'
'ndi'
'moonstone_'
'mask_'
'leaning_'
'kind'
'jay_'
'iu'
'huge'
'harrods_'
'fuji_'
'floors'
'filtered_'
'fell'
'errors_'
'eb'
'coex_'
'ation'
'wilson_'
'wilmington_'
'upwards_'
'tut'
'thread_'
'staybut_'
'society_'
'slat'
'shuts_'
'rg'
'readers_'
'petty_'
'passeig_'
'owl_'
'nthe_'
'netflix_'
'negotiating_'
'moe'
'meta'
'lod'
'lisboa_'
'lifted_'
'lf'
'left'
'kansai_'
'impr'
'habit_'
'etna_'
'ears_'
'drama_'
'disruption_'
'deira_'
'daw'
'corp'
'clayton_'
'cascade_'
'billy_'
'asda_'
'affiliated_'
'yet'
'vit'
'vere_'
'ventura_'
'uninspired_'
'turnover_'
'tuesdays_'
'tay'
'sums_'
'stilts_'
'ssa_'
'rook_'
'retaining_'
'rar'
'qualify_'
'pim'
'parasols_'
'occur_'
'novelty_'
'nett'
'mou'
'motorways_'
'main'
'lift'
'jewelry_'
'ib'
'hr'
'hav'
'gas'
'fri'
'er'
'calories_'
'belize_'
'art'
'arctic_'
'amy_'
'300'
'202_'
'1960s_'
'vientiane_'
'utter_'
'ubiquitous_'
'treating_'
'til'
'sen_'
'seamlessly_'
'rst'
'professional'
'please'
'np'
'mary'
'marmalade_'
'liz_'
'legal_'
'knightsbridge_'
'isla_'
'ipads_'
'hooked_'
'hau'
'f1_'
'esk'
'dales_'
'clay_'
'cia'
'cctv_'
'buds_'
'bia'
'aux_'
'ail'
'301_'
'understandably_'
'tow'
'strikes_'
'shopped_'
'sey_'
'scu'
'relieved_'
'raven'
'peek_'
'nta'
'nas_'
'molton_'
'mar'
'mainline_'
'kebab_'
'hottest_'
'horror_'
'hearst_'
'handily_'
'gis'
'fying_'
'fernando_'
'explo'
'est'
'ern'
'enclave_'
'ema'
'elm'
'ean_'
'creams_'
'conventional_'
'consecutive_'
'civic_'
'chill'
'canned_'
'bing_'
'anantara_'
'£_'
'wit_'
'tta_'
'thre'
'sty_'
'rambling_'
'peeve_'
'nea'
'munch'
'mul'
'mentions_'
'mano'
'lou'
'loa'
'lk'
'leader_'
'horton_'
'guarded_'
'foss'
'fishes_'
'dismissive_'
'detect'
'dept_'
'demo'
'demands_'
'deca'
'dbut_'
'dana_'
'cotswold_'
'corte_'
'corr'
'chain'
'bread'
'bod'
'annapolis_'
'è'
'wie'
'vanderbilt_'
'ura_'
'unl'
'toulouse_'
'tle_'
'tand_'
'spic'
'smoothie_'
'slu'
'seat'
'scrub_'
'recovery_'
'prescott_'
'pis'
'mariott_'
'knob_'
'jones_'
'jar'
'inclement_'
'ili'
'howler_'
'hotelw'
'hast'
'gui'
'dom'
'citizens_'
'chan'
'cay'
'case'
'casablanca_'
'bs'
'bountiful_'
'aston_'
'archaeological_'
'andd'
'amari_'
'altstadt_'
'alls'
'alli'
'aed_'
'81'
' ! ! ) _'
'wynyard_'
'wn'
'wiped_'
'web'
'wanchai_'
'wah'
'validate_'
'undisturbed_'
'terrain_'
'temporarily_'
'sporadic_'
'shrugged_'
'plantations_'
'pill'
'ocean'
'oca'
'minds_'
'mes_'
'malaysian_'
'ital'
'irritation_'
'illy_'
'ico_'
'hk'
'hartford_'
'greati_'
'gha'
'garten_'
'fruit'
'excels_'
'discussing_'
'dat'
'confi'
'clinton_'
'classed_'
'cho'
'cel'
'bye_'
'brusque_'
'beau_'
'backand_'
'arrive'
'armed_'
'againa'
'74_'
'102_'
'wise'
'ury_'
'traps_'
'supporting_'
'rma'
'returns_'
'providence_'
'potter_'
'pasti'
'pablo_'
'oner'
'occ'
'ober'
'motif_'
'missoula_'
'logical_'
'lg'
'kam'
'ium_'
'hun'
'gy_'
'goo'
'glitzy_'
'foo'
'erst'
'eri'
'edand_'
'distraction_'
'diagonally_'
'detergent_'
'chilli_'
'chen_'
'cata'
'bullet_'
'75'
' ./ _'
'zon'
'yokohama_'
'unf'
'una_'
'strasbourg_'
'stocking_'
'shearings_'
'ress_'
'resist_'
'resi'
'repeating_'
'ration_'
'pyramids_'
'pressing_'
'oba'
'med'
'jal'
'invaluable_'
'his'
'hay'
'grafton_'
'gio'
'functioned_'
'fancier_'
'eld'
'ebut_'
'convienent_'
'cluttered_'
'brewing_'
'bounce'
'bfast_'
'bene'
'bedroom'
'barriers_'
'bah'
'attendance_'
'arises_'
'?'
' , # _'
'yt'
'walki'
'wald'
'vie'
'vantage_'
'ual_'
'toddlers_'
'subdued_'
'sted_'
'skeptical_'
'scooters_'
'rideau_'
'repellent_'
'renewed_'
'pockets_'
'percent_'
'obe'
'ning'
'mouldy_'
'morgan_'
'methe_'
'malecon_'
'make'
'images_'
'hould_'
'hose_'
'hix_'
'guatemala_'
'grotty_'
'fund'
'fol'
'dash'
'cozumel_'
'condiments_'
'carol'
'bummer_'
'bou'
'bak'
'ates_'
' ...'
' ) ., _'
'yr'
'yam'
'tn_'
'streets'
'stools_'
'ste_'
'sli'
'sightsee_'
'shrine_'
'scot'
'refundable_'
'patricia_'
'pans_'
'mot'
'meals'
'lime'
'lei'
'knysna_'
'kelly_'
'ij'
'hart_'
'flows_'
'fabrics_'
'embarcadero_'
'eighth_'
'e'
'communicated_'
'catalina_'
'canceled_'
'bot'
'blueberry_'
'beggars_'
'aldgate_'
'agreement_'
'ab_'
'71'
'torres_'
'tir'
'teenager_'
'talks_'
'suite'
'sol'
'sofabed_'
'smo'
'roo'
'retain_'
'prospect_'
'porti'
'pillows'
'ph_'
'partition_'
'oy_'
'olo'
'nis'
'murray_'
'meadow_'
'lowry_'
'lorries_'
'loi'
'login_'
'ist'
'iss'
'icelandic_'
'horrific_'
'grapefruit_'
'gob'
'gent'
'friendlythe_'
'epitome_'
'emo'
'cti'
'convinient_'
'confined_'
'cit'
'centered_'
'cayo_'
'bricktown_'
'bedford_'
'after'
'af'
'1500_'
' ` _'
' > _'
' . !_'
'warrant_'
'wanaka_'
'walter_'
'vad'
'upp'
'understands_'
'two'
'tob'
'timings_'
'take'
'slammed_'
'siesta_'
'shone_'
'sean_'
'pyramid_'
'odi'
'oc_'
'nsi'
'mila'
'mena'
'massively_'
'lucked_'
'lay'
'jelly_'
'ink'
'illinois_'
'hyp'
'hoe'
'halloween_'
'gne'
'geese_'
'fam'
'emerald_'
'edi'
'dense_'
'delux_'
'counter'
'blissfully_'
'bangkok'
'ays_'
'atlas_'
'anu'
'andalthough_'
'andalso_'
'aldi_'
'aforementioned_'
'a'
'victory_'
'ush'
'ud_'
'stran'
'slightest_'
'skilled_'
'scho'
'roomit_'
'roc'
'rec'
'presentations_'
'phone'
'palacio_'
'pages_'
'overt'
'orn_'
'offs'
'micro'
'mara'
'linden_'
'layer_'
'laguardia_'
'kers_'
'jubilee_'
'iz'
'ira_'
'ik_'
'hob'
'grits_'
'gle_'
'gg'
'existed_'
'environmental_'
'duo_'
'dt'
'dong'
'diagonal_'
'dee_'
'brekkie_'
'ari_'
'andb'
'allthe_'
'airs'
'agencies_'
'95'
'55'
'2004_'
'… _'
'zen'
'wipe_'
'trim_'
'trade'
'soller_'
'sid'
'shoot_'
'rubbery_'
'retiro_'
'remedied_'
'rd'
'poo'
'pepper'
'pads_'
'only'
'novotels_'
'nouveau_'
'nb_'
'mp_'
'misc'
'lut'
'littered_'
'laze_'
'kamp'
'ity'
'ies'
'ht_'
'hog'
'hm'
'hera'
'hair'
'grandkids_'
'freshness_'
'flam_'
'faci'
'ert_'
'enabling_'
'dru'
'direct'
'dig'
'cul'
'crossroads_'
'completing_'
'chop_'
'characterless_'
'celebrities_'
'carol_'
'cardboard_'
'butterflies_'
'butt'
'breakers_'
'bloom'
'beaufort_'
'balloons_'
'alis'
';'
'62'
'1200_'
'110'
'waterslide_'
'urb'
'townthe_'
'tab'
'swansea_'
'sud'
'sucks_'
'saloon_'
'redwoods_'
'rap'
'prob'
'poor'
'pha'
'peer'
'parker_'
'palmer_'
'outstandingly_'
'note'
'nightwe_'
'modern'
'marriott'
'magi'
'jac'
'itch'
'ion'
'ield_'
'ido'
'iah_'
'grey'
'fs'
'eco'
'dominican_'
'descriptions_'
'dc'
'cycled_'
'crawling_'
'counting_'
'closed'
'clip'
'chand'
'bubbles_'
'breakfasti_'
'breakfastand_'
'boma_'
'bloom_'
'bayeux_'
'baskets_'
'backpackers_'
'andmy_'
'alk'
'able'
'xe'
'ub_'
'thier_'
'sw_'
'snack'
'regretted_'
'refurbish_'
'racket_'
'punt'
'profit_'
'precise_'
'oat_'
'notices_'
'mm'
'mg_'
'mailbox_'
'lock'
'kom'
'kathmandu_'
'kalahari_'
'institution_'
'ings'
'homestead_'
'hari'
'hai'
'gun_'
'gla'
'frames_'
'fired_'
'fact'
'err'
'endure_'
'emi'
'dio'
'desolate_'
'dear'
'curr'
'chant'
'bulk_'
'bic'
'beech_'
'arl'
'amuse_'
'unreal_'
'uis'
'trailers_'
'thompson_'
'taster_'
'sauces_'
'privileged_'
'potsdamer_'
'overnighter_'
'onand_'
'obligatory_'
'norma'
'ndr'
'nachos_'
'montgomery_'
'mindful_'
'mb'
'maria'
'ladder_'
'keepers_'
'kala'
'jurys_'
'into'
'heidelberg_'
'hans'
'gin'
'gardens'
'fixture_'
'ement_'
'div'
'describes_'
'chargers_'
'cascais_'
'butthis_'
'buena_'
'blissful_'
'barb'
'arose_'
'ado'
'zh'
'washers_'
'vic'
'trainer_'
'tiananmen_'
'stronger_'
'stl'
'sth'
'splendour_'
'slowest_'
'sant'
'rutland_'
'ris'
'remedy_'
'quilt_'
'pub'
'ping'
'peculiar_'
'parki'
'nicei_'
'moves_'
'moon'
'mes'
'meandering_'
'kill'
'kasbah_'
'johnny_'
'ingand_'
'ime'
'harvey_'
'handing_'
'hab'
'grass'
'filet_'
'farewell_'
'ents_'
'enticing_'
'dwe_'
'dated'
'cuc'
'copthorne_'
'carnegie_'
'brun'
'britain_'
'breakfastwe_'
'astounding_'
'aruba_'
'appro'
'andno_'
'aar'
'88_'
' .[ _'
' - - _'
' " ) ._'
'yak'
'xin'
'workmen_'
'warr'
'uff'
'toppings_'
'tegel_'
'tad'
'rous_'
'push'
'protest'
'post'
'politeness_'
'plusses_'
'pitlochry_'
'pf_'
'peruvian_'
'performances_'
'overrated_'
'ouse_'
'odds_'
'news'
'nat'
'motorbike_'
'mort'
'moor_'
'medicine_'
'mba'
'lel'
'lame_'
'jaw_'
'hotela'
'het'
'guildford_'
'grumble_'
'freeview_'
'finer_'
'fifty_'
'erat'
'enquire_'
'elli'
'edo'
'dge'
'dab_'
'coul'
'convenient'
'contribut'
'comprises_'
'chr'
'chit'
'chickens_'
'bet'
'bert'
'arge_'
'76_'
'58_'
'54_'
' ! ?_'
'uri'
'tu_'
'towns'
'topping_'
'teach_'
'tap'
'swi'
'sundries_'
'souks_'
'silicon_'
'shoe'
'robotic_'
'rin'
'remoteness_'
'popularity_'
'parks'
'oni'
'occupy_'
'ngorongoro_'
'naked_'
'monte'
'mm_'
'mighty_'
'lu_'
'lam'
'kur'
'increasingly_'
'hou'
'holborn_'
'gold'
'ella'
'downgrade_'
'decor'
'custer_'
'contents_'
'choc'
'brass_'
'bor'
'austere_'
'athletic_'
'arusha_'
'andp'
'amenties_'
'aesthetically_'
'wore_'
'vila'
'untrained_'
'unspoilt_'
'turf_'
'tambo_'
'stank_'
'spit'
'snap_'
'sl'
'scalding_'
'pun'
'protect_'
'pretend_'
'phu'
'photographer_'
'parcs_'
'oss'
'olds_'
'occupying_'
'nites_'
'mcd_'
'loch'
'lem'
'invested_'
'introduce_'
'inconveniences_'
'incidentals_'
'honours_'
'ferrari_'
'erl'
'disliked_'
'dang'
'complemented_'
'cameron_'
'aways_'
'avocado_'
'andl'
'acting_'
'wildebeest_'
'valentines_'
'unmatched_'
'ull'
'trunk_'
'topkapi_'
'tha_'
'sty'
'stack_'
'spectacularly_'
'sarasota_'
'rum'
'rubb'
'ribe'
'refit_'
'race'
'quet'
'protein_'
'pavements_'
'osa_'
'omi'
'oceanside_'
'nadi_'
'na'
'mildly_'
'mental_'
'mel_'
'margaritas_'
'mallory_'
'lur'
'lists_'
'lao_'
'labyrinth_'
'jit'
'iv_'
'inns'
'hopped_'
'hearts_'
'greenbelt_'
'fraser_'
'forecast_'
'final'
'facebook_'
'enquiries_'
'ennis_'
'elle_'
'ech'
'drinks'
'douro_'
'dock'
'disp'
'disagree_'
'craig_'
'cola_'
'ches'
'butts_'
'build'
'borg'
'bakersfield_'
'aut'
'amat'
'allergic_'
'05'
'zy_'
'uh'
'trolly_'
'tripping_'
'treat'
'tia'
'sos'
'ses'
'screwed_'
'prim'
'paseo_'
'pale_'
'option'
'olympics_'
'oll'
'ocation_'
'near'
'monta'
'microwaves_'
'matress_'
'loan_'
'lad'
'jennifer_'
'intriguing_'
'inappropriate_'
'headache_'
'hak'
'ganges_'
'flops_'
'flimsy_'
'flawlessly_'
'distracting_'
'conno'
'coins_'
'capture_'
'camper_'
'buns_'
'boca_'
'bellhops_'
'ayu'
'awaited_'
'awa'
'ange'
'andstaff_'
'andbe'
'anchor_'
'againand_'
'ache'
'54'
'.._'
'"'
'zin'
'wh'
'waived_'
'vene'
'tui_'
'ting'
'thon_'
'sters_'
'stephanie_'
'stamp_'
'simpler_'
'runny_'
'ross'
'rogers_'
'rob'
'railay_'
'pur_'
'posting_'
'pal'
'oth_'
'ort'
'oran'
'nan_'
'mess'
'mal_'
'lyn'
'lingual_'
'lidl_'
'leb'
'kra'
'jolla_'
'infamous_'
'hut'
'eds_'
'dubious_'
'drinkers_'
'disability_'
'dayand_'
'curve_'
'cruise'
'creature_'
'columns_'
'clockwork_'
'cha_'
'carand_'
'athe_'
'assets_'
'antwerp_'
'antiquated_'
'ani_'
'aerobus_'
'98_'
'175_'
'yne'
'trea'
'tempe_'
'sui'
'span_'
'sounding_'
'rob_'
'rema'
'reco'
'prefect_'
'pompeii_'
'pnc_'
'pert'
'pedicure_'
'oversight_'
'outl'
'ost'
'okc_'
'nav'
'metropol_'
'kenne'
'indo'
'indicates_'
'ina'
'holders_'
'hawkers_'
'fut'
'friends'
'freshener_'
'fort'
'fon'
'exp'
'esse'
'ert'
'electric'
'chuck'
'centric_'
'caro'
'businessmen_'
'allocation_'
'abo'
'1hr_'
'yh'
'whitefish_'
'unused_'
'titanic_'
'syntagma_'
'sympathetically_'
'stripe'
'stac'
'spin'
'shan_'
'reason'
'others'
'oman_'
'octopus_'
'oc'
'mus'
'lad_'
'label_'
'kir'
'kai_'
'inde'
'hermes_'
'garage'
'forgettable_'
'flushed_'
'ewe_'
'db_'
'crest_'
'buck'
'blackfriars_'
'avis_'
'ahi'
' $ '
'willingly_'
'westlake_'
'wedding'
'vila_'
'uen'
'towering_'
'tothe_'
'thought'
'teton_'
'teddy_'
'summers_'
'soviet_'
'soi'
'snowing_'
'savoury_'
'robinson_'
'ren_'
'rde'
'rachel_'
'pr_'
'pose'
'pont'
'plant'
'peep_'
'outings_'
'nightso_'
'msp_'
'greated_'
'frosty_'
'frontdesk_'
'fore_'
'flowering_'
'flash'
'extravagant_'
'excessively_'
'exc'
'eveningand_'
'eing_'
'dingle_'
'condescending_'
'combining_'
'coliseum_'
'chip'
'cane'
'byward_'
'boc'
'beck'
'basic'
'attach'
'aki_'
'ake_'
'act'
'accents_'
'1930_'
'03_'
'zona_'
'yar'
'whirl'
'vau'
'unh'
'tulsa_'
'trippers_'
'trail'
'toe_'
'swe'
'sville_'
'sunb'
'string_'
'sion_'
'shin_'
'servings_'
'seas'
'rogue_'
'rin_'
'predominantly_'
'pier'
'pc'
'oro'
'orm'
'mts_'
'mira_'
'mayflower_'
'marian'
'machinery_'
'logo_'
'lik'
'kilometer_'
'intimacy_'
'honeymooners_'
'greatwe_'
'gau'
'gar_'
'flavored_'
'ev'
'ester_'
'envelope_'
'drift_'
'dle_'
'disposal_'
'danger_'
'conf'
'conditioners_'
'comforters_'
'cade'
'cab'
'banged_'
'ang'
'ambulance_'
'adapt'
'abe'
'3000_'
'15pm_'
'á'
'yal'
'uph'
'tl'
'successfully_'
'substance_'
'spared_'
'spaghetti_'
'sneak'
'shim'
'shaft_'
'ser_'
'sed'
'rivals_'
'quiche_'
'queens'
'qual'
'pate_'
'pamper_'
'mons'
'meh'
'lamb'
'killed_'
'kand'
'incoming_'
'ight'
'hammering_'
'gene'
'gaps_'
'extremly_'
'excluding_'
'disposable_'
'cock'
'cb'
'cath'
'cannes_'
'attribute_'
'areaa'
'aly'
'airb'
'42nd_'
'32nd_'
' ! ._'
'vr'
'vie_'
'unheated_'
'tth'
'tsim_'
'trinidad_'
'tip'
'terry_'
'tenth_'
'strolls_'
'stairs'
'sp'
'sly_'
'sleepless_'
'site'
'rud'
'resteraunt_'
'restaurantthe_'
'reefs_'
'reas'
'overpowering_'
'osi'
'ness'
'nep'
'nds_'
'mosaic_'
'mitchell_'
'marvel_'
'mans'
'julie_'
'itso_'
'h10_'
'gel'
'gaslamp_'
'francis_'
'found'
'firmly_'
'enter'
'dwell'
'disadvantages_'
'detracted_'
'denarau_'
'defintely_'
'damn_'
'cortez_'
'conse'
'centuries_'
'causes_'
'breweries_'
'bis'
'birdlife_'
'belmond_'
'barthe_'
'bargains_'
'bank'
'asy_'
'aran'
'adriatic_'
'absurd_'
'56_'
'! '
'visa'
'vendome_'
'valletta_'
'tf'
'tet'
'sunt'
'stunned_'
'scra'
'safest_'
'sab'
'ror'
'ric'
'rel'
'raising_'
'quibbles_'
'pref'
'pear_'
'pcs_'
'paddies_'
'ostrich_'
'nostalgic_'
'nc'
'mingle_'
'lls_'
'lest'
'jerk_'
'icon_'
'glimpses_'
'frenetic_'
'formations_'
'figuring_'
'fetch_'
'facts_'
'epi'
'eda'
'district'
'disin'
'davis_'
'complains_'
'communicating_'
'chasing_'
'can'
'calmer_'
'buddy_'
'bility_'
'bic_'
'aya'
'aust'
'archeological_'
'american'
':-'
'wheeled_'
'weigh'
'very'
'versa_'
'tik'
'tere'
'tequila_'
'taylor_'
'tas_'
'tand'
'sunloungers_'
'sugar'
'sona'
'slum'
'shoddy_'
'sas'
'sali'
'saba'
'realistic_'
'pelican_'
'parma_'
'ote'
'orta'
'opinions_'
'nte_'
'nighti_'
'niece_'
'mv'
'morningthe_'
'kno'
'ites_'
'instruction_'
'inevitably_'
'ines_'
'indulgence_'
'hotelis_'
'heaving_'
'haunted_'
'giants_'
'flyer_'
'excelled_'
'ebe'
'disruptive_'
'discussions_'
'crocodiles_'
'cong'
'combinations_'
'bour'
'borgata_'
'awesome'
'aviation_'
'aven'
'aura_'
'amish_'
'ambi'
'air'
'aco'
'acce'
'.- _'
'what'
'wealthy_'
'vou'
'tyne_'
'touts_'
'tof'
'strip'
'smoke'
'shutting_'
'self'
'sail'
'rosewood_'
'roberto_'
'regulate_'
'recieved_'
'quickest_'
'pd'
'patisserie_'
'patagonia_'
'oka'
'ngs'
'nas'
'muslim_'
'marm'
'manageress_'
'johnson_'
'jay'
'jackets_'
'invisible_'
'ier'
'hull_'
'hl'
'hamb'
'gymnasium_'
'goodo'
'gers_'
'gard'
'gam'
'egre'
'dukes_'
'demonstrated_'
'dedication_'
'creatures_'
'corona'
'concentrate_'
'butc'
'brac'
'borderline_'
'andthen_'
'49'
'37'
'135_'
'$ '
'whisk_'
'wed_'
'ving_'
'vi_'
'tudor_'
'tsui_'
'tm'
'timeand_'
'telford_'
'stanford_'
'stan'
'snoring_'
'sang_'
'republique_'
'razor_'
'rai'
'prices'
'owed_'
'ough_'
'opo'
'oliver_'
'odo'
'occupant_'
'norman_'
'lage'
'kin_'
'hind'
'hideous_'
'franschhoek_'
'fail'
'ders_'
'derelict_'
'definitly_'
'da'
'cir'
'chop'
'boul'
'boon_'
'booked'
'bahnhof_'
'asa'
'annoyingly_'
'accomplished_'
'accomodated_'
'87_'
' " ... _'
'whichever_'
'urt'
'unwelcome_'
'trips'
'torrential_'
'sudden_'
'stock'
'stewart_'
'sprucing_'
'soo_'
'solvang_'
'smallbut_'
'sighting_'
'scratches_'
'scal'
'sai'
'roppongi_'
'rickshaw_'
'restaura'
're'
'phoning_'
'peterborough_'
'pant'
'pane_'
'organizing_'
'ora_'
'offi'
'ninth_'
'nick'
'navajo_'
'nations_'
'mut'
'merri'
'mendocino_'
'meal'
'manager'
'ller'
'lar_'
'ivi'
'indians_'
'iet'
'gooda'
'gera'
'fresno_'
'fresher_'
'fredericksburg_'
'flashy_'
'flashlight_'
'fax_'
'ena_'
'due'
'dol'
'docked_'
'definatly_'
'darker_'
'crabs_'
'codes_'
'cle_'
'brig'
'borrowed_'
'boiler_'
'bie'
'bayswater_'
'backwaters_'
'audi'
'aren'
'amber_'
'adorned_'
'@_'
'zes_'
'warrior_'
'videos_'
'uss_'
'ums_'
'swings_'
'strenuous_'
'spect'
'smithsonian_'
'sites'
'sim'
'shri'
'revealed_'
'resources_'
'religious_'
'raf'
'pana'
'nr'
'noisiest_'
'nev'
'mores_'
'meticulous_'
'maryland_'
'lovel'
'lg_'
'kho'
'kari'
'isa_'
'iki'
'identified_'
'happiness_'
'gamla_'
'flag'
'fai'
'dv'
'drinkable_'
'convienient_'
'confuse_'
'bordered_'
'body'
'blonde_'
'bahamas_'
'78_'
'35th_'
' ! )'
'yearly_'
'wou'
'whim_'
'washbasin_'
'uncommon_'
'thereso_'
'sitges_'
'scam_'
'sac'
'rte'
'rew'
'ras'
'rams'
'quet_'
'production_'
'premiere_'
'our'
'ots_'
'ont'
'nordic_'
'nod_'
'nicewe_'
'mermaid_'
'mayhem_'
'lys'
'lm'
'lessly_'
'lahaina_'
'kb'
'ideal'
'haus_'
'expenses_'
'ened_'
'ede'
'dream'
'diab'
'defen'
'default_'
'cycles_'
'coolest_'
'brus'
'accord'
'63'
'111_'
'...... _'
' .# _'
'wer'
'ute_'
'sundance_'
'stays'
'rudeness_'
'rk_'
'revamped_'
'reminding_'
'redwood_'
'redi'
'raw'
'raff'
'quincy_'
'palladium_'
'ona'
'office'
'northampton_'
'nh'
'mecca_'
'mason_'
'm2_'
'lom_'
'lago_'
'kun'
'kew_'
'graded_'
'gaudi_'
'externally_'
'exe'
'etta_'
'esque_'
'drowned_'
'daniel'
'creamy_'
'consumed_'
'claw_'
'cien'
'carparking_'
'bowe'
'baron'
'avenues_'
'aussie_'
'assi'
'asparagus_'
'apple'
'appetizing_'
'anderson_'
'agoda_'
'aca'
' - " _'
'wtc_'
'warriors_'
'vn'
'stor'
'staya'
'standards'
'stairways_'
'spr'
'semi'
'raj_'
'posti'
'policies_'
'pas'
'paine_'
'officially_'
'nto'
'myr'
'mirage_'
'mee'
'loom'
'kli'
'kim'
'kilkenny_'
'katherine_'
'jos'
'ille'
'hotel'
'hilarious_'
'herm'
'gardiner_'
'flamingo_'
'finebut_'
'ferry'
'fern'
'fells_'
'ew_'
'espana_'
'eso_'
'edward_'
'doubts_'
'delaware_'
'deeply_'
'creep'
'coop_'
'colca_'
'choices'
'chang_'
'championship_'
'cana'
'buffer_'
'budgets_'
'battlefields_'
'afternoon'
']. _'
'15am_'
' : + _'
' .* '
'wes'
'wayand_'
'tori'
'tog'
'theres'
'tati'
'tallahassee_'
'system'
'stowe_'
'sq'
'speed'
'song'
'sm'
'slipping_'
'sheratons_'
'shan'
'rdu_'
'prom'
'polynesian_'
'ound'
'orchids_'
'oa_'
'motorbikes_'
'misty_'
'merc'
'meh_'
'loma'
'lazing_'
'jetted_'
'jesus_'
'inhouse_'
'illi'
'hotspot_'
'honour_'
'hia'
'hh'
'hee'
'gins_'
'gill'
'fred_'
'format_'
'eye'
'done'
'destroyed_'
'daytona_'
'creamer_'
'cht'
'cavern_'
'cascades_'
'campsite_'
'bug'
'boxing_'
'block'
'backwe_'
'arcades_'
'androoms_'
'aki'
'104_'
'yeah_'
'unnecessarily_'
'uali'
'tx_'
'tree'
'tramp'
'tera'
'sba'
'rer'
'randomly_'
'preserves_'
'plot_'
'ple_'
'pestana_'
'pass'
'parlour_'
'paris'
'palate_'
'oz'
'overland_'
'ors'
'omar_'
'offer'
'offensive_'
'nautical_'
'musk'
'ming'
'manta_'
'kiddie_'
'jum'
'johns_'
'jerry_'
'iona'
'inability_'
'hakata_'
'eric'
'cted_'
'climbed_'
'claire_'
'carrot_'
'buto'
'breakfastbut_'
'bari'
'barc'
'andt'
'72'
'wellthe_'
'unwilling_'
'unlocked_'
'uniqueness_'
'tubing_'
'sustain'
'survive_'
'simplicity_'
'relied_'
'pros'
'plan'
'parti'
'parrots_'
'parrot_'
'papa_'
'paces_'
'ork_'
'naval_'
'mille'
'mallorca_'
'lomond_'
'kay'
'isles_'
'ient_'
'hima'
'helen_'
'healdsburg_'
'hdtv_'
'hass'
'hardest_'
'grapes_'
'game'
'fy_'
'forgive_'
'etic_'
'eth'
'dubai'
'drainage_'
'dow'
'corfu_'
'cob'
'cliff'
'chis'
'beeping_'
'bathtubs_'
'bangla_'
'anyplace_'
'44'
'280_'
'2019_'
'wyn'
'tul'
'trop'
'tg'
'temperamental_'
'stir_'
'steer_'
'staffa'
'southport_'
'soaring_'
'resta'
'reservation'
'ram_'
'qualified_'
'polite'
'parkand_'
'panc'
'pall'
'paintwork_'
'observatory_'
'noosa_'
'nha'
'miracle_'
'mbps_'
'marylebone_'
'leve'
'kop'
'ights_'
'hb'
'grouting_'
'functionality_'
'exchanged_'
'eville_'
'een'
'dera'
'deeper_'
'cott'
'come'
'cm'
'chel'
'cheetahs_'
'cautious_'
'bumps_'
'asp'
'aine_'
'ades_'
'accepting_'
'189'
'101'
'yd'
'whereby_'
'wangfujing_'
'undo'
'umber'
'uch_'
'trainers_'
'therewe_'
'suff'
'stud'
'strangers_'
'sterling_'
'spec'
'soft'
'smashing_'
'silver'
'rowing_'
'rosebank_'
'rl'
'rg_'
'reporting_'
'relax'
'positioning_'
'pl'
'opa'
'ont_'
'nati'
'museum'
'maur'
'leiden_'
'kell'
'jodhpur_'
'jaunt_'
'ively_'
'ism_'
'infrequent_'
'influenced_'
'infe'
'howard_'
'hawk_'
'ghe'
'gd'
'fron_'
'freshening_'
'frantic_'
'foundation_'
'fir'
'feathers_'
'express'
'execution_'
'doubtful_'
'doubt'
'dela'
'curl'
'coincided_'
'coca_'
'bv'
'bandwidth_'
'aug'
'artisan_'
'amenities'
'47'
' , “ _'
' $ $ _'
'wynn_'
'wraps_'
'westport_'
'utilised_'
'twickenham_'
'thisthe_'
'therea'
'thee_'
'stench_'
'stacked_'
'skype_'
'sierra_'
'season'
'sants_'
'real'
'protea_'
'pota'
'phra'
'pho_'
'peck'
'ott_'
'offen'
'nne'
'nin'
'nik'
'muck'
'merge'
'maggiore_'
'lak_'
'keg_'
'julia_'
'isit_'
'iga_'
'i8'
'hkd_'
'hams_'
'grossly_'
'elena_'
'economic_'
'dial'
'dho'
'credited_'
'catholic_'
'blazing_'
'blasting_'
'bill'
'beni'
'bau'
'banter_'
'91'
'24h_'
' ? ? '
' ---_'
'” _'
'xp'
'wimbledon_'
'wilde'
'village'
'viewpoint_'
'ut'
'uno'
'taller_'
'sync'
'swinging_'
'sura'
'seeming_'
'roth'
'rosa'
'remarked_'
'reader_'
'pud'
'parent_'
'panda_'
'own'
'oon'
'moorish_'
'lr'
'liz'
'labelled_'
'kea'
'kata'
'kapa'
'ition_'
'inl'
'impressi'
'ils_'
'i5_'
'hus_'
'hn'
'harrisburg_'
'greg_'
'edwardian_'
'dundee_'
'dive'
'describing_'
'concorde_'
'cod'
'bright'
'brat'
'brandy_'
'beg_'
'awkwardly_'
'ageing_'
'agains'
'abb'
'107_'
'zanzibar_'
'wedged_'
'waft'
'unre'
'undrinkable_'
'ug'
'tors_'
'tj'
'tiresome_'
'tid'
'terrasse_'
'tenders_'
'stirling_'
'sorely_'
'sim_'
'scope_'
'saf'
'reve'
'pron'
'pirates_'
'piled_'
'pent_'
'passageway_'
'padded_'
'opry_'
'oor_'
'noble_'
'nicholas_'
'master'
'marseille_'
'lieu_'
'lid'
'license_'
'lads_'
'kle'
'husband'
'guernsey_'
'glu'
'gir'
'gge'
'garr'
'galveston_'
'furbished_'
'frequency_'
'face'
'duluth_'
'donegal_'
'descend_'
'cuppa_'
'chewy_'
'chauffeur_'
'carson_'
'cannon_'
'belonging_'
'alt'
'actions_'
'acre_'
'5a'
'woolworths_'
'wires_'
'wick'
'weston_'
'vap'
'tripand_'
'towne_'
'thumping_'
'ther'
'tested_'
'stupendous_'
'sive'
'situations_'
'schools_'
'rri'
'reso'
'repro'
'refrig_'
'poolthe_'
'participants_'
'org'
'nw'
'num'
'norwegian_'
'mohammed_'
'mixing_'
'microwaved_'
'marvel'
'magnifying_'
'lis_'
'lent'
'juliet_'
'jin'
'ipe'
'inward_'
'insanely_'
'implies_'
'ich_'
'hvar_'
'harley_'
'hangzhou_'
'fragrance_'
'fil'
'faith_'
'doorso_'
'dishe'
'dg'
'dead'
'courteously_'
'chrome_'
'chew'
'centrum_'
'carr'
'box'
'bong'
'beltway_'
'bard'
'badlands_'
'awe'
'ata_'
'65'
'1920_'
'underfloor_'
'tei'
'tanger_'
'style'
'stead_'
'staffwe_'
'sn'
'simon'
'services'
'sap'
'revenue_'
'reimburse'
'refilling_'
'recipe_'
'question'
'poole_'
'pictured_'
'oversee'
'melt_'
'marlborough_'
'mah'
'lude'
'little'
'lane'
'lain'
'imper'
'impa'
'iguazu_'
'hyatts_'
'hancock_'
'feat_'
'expe'
'employ'
'dul'
'dt_'
'domin'
'dill'
'deri'
'deh'
'claiming_'
'chic'
'burgundy_'
'awarded_'
'argued_'
'ap_'
'angela_'
'alp'
'agenda_'
'ack_'
' :'
' & '
'yu_'
'twee'
'tuck_'
'tramway_'
'toa'
'tesla_'
'tern'
'tau'
'strips_'
'streetthe_'
'stars'
'sqm_'
'snag_'
'sioux_'
'sights'
'shelving_'
'sector_'
'rugged_'
'retrieved_'
'prohibit'
'outward_'
'outset_'
'odd'
'nob'
'mural_'
'melted_'
'lers_'
'isaac_'
'hikers_'
'hend'
'hawks'
'gre'
'grasmere_'
'gown_'
'gos'
'goat_'
'fili'
'facet'
'eccentric_'
'dispe'
'della_'
'deer'
'deceiving_'
'crossings_'
'cri'
'creekside_'
'cramp'
'contin'
'clin'
'cil'
'chong'
'cho_'
'champions_'
'caps_'
'bt_'
'brandon_'
'boxed_'
'boro_'
'bog_'
'blossom_'
'bella'
'battered_'
'attire_'
'ashamed_'
'amiable_'
'21'
'1950_'
'wasting_'
'vicksburg_'
'ves'
'verizon_'
'unpredictable_'
'tn'
'thy_'
'throughly_'
'teak_'
'specified_'
'sek'
'scramble_'
'roe'
'rna'
'riverand_'
'riv'
'rewarding_'
'refurbed_'
'rede'
'propertyand_'
'pilot_'
'pickle'
'penc'
'oy'
'nter'
'nonexistent_'
'movenpick_'
'mistaken_'
'masters_'
'mange'
'manatees_'
'manag'
'lop'
'lol'
'ln'
'literature_'
'layers_'
'lakeshore_'
'jog'
'instructor_'
'insisting_'
'indulgent_'
'hump'
'hotelc'
'hortons_'
'hooters_'
'hazel'
'hauling_'
'gt'
'goods'
'folding_'
'ffi'
'fes_'
'faucets_'
'existence_'
'engagement_'
'enables_'
'disembark'
'deliberately_'
'copies_'
'cochin_'
'clustered_'
'clare_'
'bute'
'breast_'
'brad'
'bop'
'bolt_'
'await_'
'apps_'
'ag'
'affording_'
'acknowledging_'
' ..'
' ,'
'~ _'
'zocalo_'
'vacationers_'
'upgrade'
'und'
'strat'
'sten'
'sr_'
'snorkling_'
'sme'
'shut'
'sexy_'
'separation_'
'scala_'
'saun'
'rotten_'
'riverview_'
'rim'
'ratt'
'precisely_'
'performers_'
'party'
'outh'
'ony'
'onb'
'nicole_'
'mping_'
'motions_'
'millions_'
'masse'
'marc_'
'los'
'leh'
'interactive_'
'impressively_'
'illa'
'ica_'
'hills'
'grave'
'gov'
'fw'
'frank'
'footprint_'
'fatty_'
'farmhouse_'
'eon'
'egg'
'edgy_'
'downgraded_'
'dorm'
'ditto_'
'dip'
'compar'
'comb_'
'clad_'
'chur'
'cheers_'
'calla'
'buildings'
'bui'
'bron'
'both'
'bedtime_'
'baron_'
'aud'
'atl_'
'astronomical_'
'andth'
'alexandra_'
'abq_'
'103_'
' .” _'
' ( ~_'
'ä'
'yc'
'wotif_'
'wend'
'ues_'
'tulip_'
'tting_'
'ths_'
'thirsty_'
'telly_'
'sweaty_'
'superlatives_'
'suit'
'stellenbosch_'
'sossusvlei_'
'sis_'
'shuttled_'
'sd'
'scotia_'
'roads'
'reme'
'raved_'
'quit'
'prize_'
'points'
'platforms_'
'peacefulness_'
'okaybut_'
'nol'
'nim'
'misfortune_'
'merchant_'
'mem'
'm5'
'logging_'
'lava'
'landings_'
'klcc_'
'julian_'
'jon'
'jama'
'jai'
'isl'
'imho_'
'iga'
'honoured_'
'hight'
'hawker_'
'hassled_'
'happen'
'hamburgers_'
'gol'
'glob'
'flea_'
'enc'
'drained_'
'dodge_'
'diligent_'
'devil_'
'cum_'
'consult'
'carlisle_'
'butnot_'
'buddha_'
'bohemian_'
'bo'
'bn'
'bind'
'baking_'
'bait_'
'aub'
'aplenty_'
'andre'
'allo'
'adirondack_'
'96_'
'"-'
'yala_'
'wrist_'
'woburn_'
'vig'
'utt'
'unk'
'uch'
'tto_'
'tiergarten_'
'stifling_'
'stationbut_'
'spo'
'spec_'
'sooooo_'
'soleil_'
'skimpy_'
'sem'
'scrum_'
'same'
'rse'
'roman'
'riders_'
'rectangular_'
'pher'
'parkingi'
'pain'
'oned_'
'nell'
'move'
'lotions_'
'lig'
'le'
'ket'
'jung'
'jenny_'
'jar_'
'ior'
'heal'
'hague_'
'gunwharf_'
'girona_'
'furnitures_'
'fawlty_'
'downtownbut_'
'dining'
'dings_'
'dilapidated_'
'cort'
'cite_'
'bb_'
'avoids_'
'appal'
'63_'
'53_'
'108_'
' : ) _'
'wdw_'
'ville'
'veni'
'vai'
'trousers_'
'towneplace_'
'therei_'
'taught_'
'tasks_'
'strongest_'
'stoke_'
'speedway_'
'slan'
'skip'
'seab'
'scrape'
'russia_'
'ria'
'resembled_'
'rect'
'prides_'
'poker_'
'piazzale_'
'pea'
'passe'
'papa'
'palapas_'
'oryx_'
'orti'
'noc'
'navi'
'mich'
'mgr_'
'llan'
'kh'
'jewel'
'ivy_'
'inventive_'
'ining_'
'i2'
'huntsville_'
'hue'
'how'
'hich_'
'hcmc_'
'hammam_'
'glassed_'
'fini'
'eugene_'
'etihad_'
'elevators'
'eil'
'eche'
'donald_'
'distillery_'
'dennys_'
'cuc_'
'confronted_'
'commission_'
'citrus_'
'cabot_'
'boeing_'
'beauti'
'beachthe_'
'appea'
'amu'
'ambassadors_'
'aloha_'
'alabama_'
'actively_'
'accurately_'
'2x_'
' ' !_'
'‘ _'
'wu'
'watermelon_'
'warnings_'
'ula_'
'tz_'
'trainees_'
'tidal_'
'threatened_'
'takeout_'
'strengths_'
'staythis_'
'skybus_'
'showerthe_'
'saggy_'
'rome'
'rele'
'rash'
'puzzled_'
'promotional_'
'processes_'
'prest'
'pigeons_'
'opting_'
'oliv'
'mode'
'maximize_'
'marsh'
'lowered_'
'live'
'kath'
'joy'
'jc'
'isse'
'hottub_'
'hoot_'
'homework_'
'hile_'
'hib'
'harbor'
'gus'
'gum'
'exquisitely_'
'ente'
'dust'
'dl'
'delu'
'dealings_'
'czech_'
'consist_'
'colle'
'chor'
'cheyenne_'
'centrebut_'
'bugis_'
'broad'
'bore_'
'bird'
'bathrooms'
'bally'
'andi'
'ail_'
'129_'
' : )_'
'xian_'
'woefully_'
'waved_'
'vs'
'vincent_'
'vac'
'unsu'
'troublesome_'
'tren'
'sway'
'supreme_'
'somewhere'
'smartphone_'
'serv'
'rthe_'
'rotate'
'ris_'
'ripp'
'restraunt_'
'reside'
'rainshower_'
'raining'
'prefered_'
'pont_'
'pig'
'phil_'
'panic_'
'oul'
'oti'
'orp'
'mousse_'
'lean'
'katie_'
'kate_'
'kali'
'irons_'
'insurance_'
'inclusion_'
'illa_'
'historically_'
'hands'
'granville_'
'gay'
'frog_'
'footpaths_'
'ette'
'eh'
'eggs'
'draw'
'downt'
'divider_'
'diana_'
'dampen'
'court'
'civilised_'
'citybut_'
'cip'
'cabaret_'
'bust'
'botswana_'
'bold_'
'awaybut_'
'atr'
'aspir'
'artsy_'
'arb'
'almond_'
'allocate_'
'accom'
'ac'
'abut_'
'82_'
'500'
'195'
'wit'
'westerners_'
'ward'
'wailea_'
'vendor_'
'unimaginative_'
'understa'
'uga_'
'uan'
'tusayan_'
'trattoria_'
'tobacco_'
'tiffany_'
'taiwan_'
'strewn_'
'stella_'
'southwestern_'
'sne'
'school'
'revel'
'reno'
'rega'
'rak'
'pping_'
'political_'
'paneling_'
'pan'
'othe_'
'orn'
'oki'
'mous'
'kis'
'ignorant_'
'i75_'
'hongqiao_'
'hipster_'
'gastronomic_'
'fru'
'franc'
'ese'
'ellis_'
'ein'
'earth'
'eal'
'dwar'
'crt_'
'conway_'
'contrast'
'consider'
'coal_'
'carrots_'
'bt'
'breathe_'
'bermuda_'
'batter_'
'avid_'
'authenticity_'
'asso'
'apex_'
'airporti_'
'\\_'
',,_'
'worcester_'
'ways'
'uncovered_'
'uel'
'tum'
'tuk'
'trem'
'tran'
'towels'
'thom'
'stumble_'
'stuff'
'stew_'
'sses_'
'spen'
'snakes_'
'skyl'
'sko'
'siren_'
'sept'
'seam'
'sang'
'rene'
'quantities_'
'prec'
'positions_'
'pharmacies_'
'opaque_'
'newness_'
'newb'
'mews_'
'mbi'
'luna_'
'luck'
'lga_'
'kok_'
'kicking_'
'jackie_'
'infr'
'increasing_'
'impractical_'
'illo'
'idi'
'hoppa_'
'hdmi_'
'gardener_'
'gang_'
'fred'
'fara'
'expresses_'
'expedi'
'exh'
'excellentthe_'
'eva'
'ende'
'elvis_'
'eh_'
'downtownand_'
'disapointed_'
'dina'
'deli'
'cosmos_'
'beh'
'barbe'
'aver'
'artefacts_'
'arc'
'anna'
'angle'
'alcatraz_'
'190_'
'.... _'
' ) + _'
' % '
'yountville_'
'word'
'untouched_'
'target'
'surr'
'supervised_'
'superf'
'sone'
'shangrila_'
'sebel_'
'roadthe_'
'rent'
'reds_'
'proper'
'principal_'
'preco'
'poli'
'plaster_'
'pinch_'
'pentagon_'
'paradis'
'panelled_'
'pains_'
'nothing'
'nb'
'morecambe_'
'missi'
'magn'
'ludlow_'
'liver_'
'linking_'
'kilometre_'
'kama'
'jamaican_'
'ironically_'
'iot'
'involving_'
'insti'
'inge'
'incentive_'
'haveli_'
'hansar_'
'hallmark_'
'gno'
'glitz_'
'gables_'
'filmed_'
'favor'
'esb'
'entre'
'enforced_'
'eit_'
'doc'
'dic'
'deteriorated_'
'crane_'
'comprising_'
'cent'
'bio'
'awfully_'
'ase_'
'announced_'
'allotted_'
'aesthetics_'
'adapted_'
'woo'
'vivanta_'
'verify_'
'valleys_'
'uw'
'useable_'
'urban'
'uncon'
'unavoidable_'
'triumph_'
'tango_'
'tablets_'
'subm'
'spu'
'specialist_'
'sama'
'sage_'
'rumbling_'
'rre'
'rope_'
'rocket_'
'rian_'
'regarded_'
'receives_'
'radiators_'
'quintessential_'
'poipu_'
'pend'
'pavilions_'
'pap'
'olivia_'
'olin'
'occassions_'
'method_'
'mati'
'masterpiece_'
'madr'
'lythe_'
'lill'
'kitty_'
'kelowna_'
'kant'
'jor'
'jee'
'intending_'
'ibiza_'
'hurried_'
'hubbub_'
'hua'
'hew'
'fou'
'fedex_'
'eto'
'earliest_'
'e1'
'demeanor_'
'defo_'
'cue'
'criticise_'
'costa'
'clock'
'carna'
'butp'
'builders_'
'boa'
'beatiful_'
'ath_'
'armas_'
'ares_'
'archi'
'anyone'
'ank'
'androom_'
'alc'
'alaskan_'
'ack'
'0am_'
'wy'
'wt'
'western'
'vor'
'visibility_'
'urine_'
'unfa'
'tru'
'tne'
'theory_'
'stand'
'socialis'
'shir'
'sensor_'
'securing_'
'sande'
'puno_'
'proposition_'
'picton_'
'pg'
'pau'
'nee'
'minuscule_'
'midwest_'
'md_'
'malm'
'magnificient_'
'lled_'
'lapping_'
'kru'
'kes'
'itw'
'inp'
'hugh_'
'hotelf'
'hart'
'grape_'
'georges_'
'gaulle_'
'forcing_'
'fid'
'ento'
'delicate_'
'cucumber_'
'countertop_'
'concierge'
'cerv'
'butno_'
'bust_'
'breakfasta'
'baltic_'
'bale'
'aunt_'
'asta'
'arise_'
'arg'
'anse_'
'amal'
'accolades_'
'48'
'39'
'201'
'121'
'yw'
'ypres_'
'youthe_'
'vat_'
'valet'
'urg'
'tula'
'tie'
'terra_'
'telephoned_'
'sof'
'snowed_'
'scor'
'savi'
'sandra_'
'ramadan_'
'purpose'
'promoted_'
'piles_'
'pikes_'
'pensacola_'
'nic'
'metr'
'mant'
'lect'
'lanterns_'
'langkawi_'
'kah'
'jim'
'ioni'
'hul'
'harbourside_'
'ground'
'gb'
'footage_'
'façade_'
'entertainers_'
'employed_'
'edd'
'cta_'
'confe'
'companions_'
'coeur_'
'clu'
'clari'
'chased_'
'charle'
'bitten_'
'beep_'
'backa'
'assa'
'alton_'
'aback_'
'1900_'
' ’ , _'
' ’ '
' ° _'
'wife'
'vist'
'upholstery_'
'troubled_'
'transport'
'timber'
'tation_'
'tas'
'tail'
'squeak'
'solicitous_'
'snu'
'sist'
'sirloin_'
'signals_'
'se'
'rus'
'relying_'
'randolph_'
'profusely_'
'ped'
'peanut_'
'pea_'
'overb'
'ott'
'osc'
'once'
'okura_'
'nute'
'neil_'
'nal'
'mug_'
'mirrored_'
'mend'
'manda'
'logged_'
'lip_'
'kris'
'kiosks_'
'katoomba_'
'kaikoura_'
'islam'
'infused_'
'impacted_'
'iew'
'ica'
'him'
'herebut_'
'gust'
'gorge'
'gn'
'girl'
'experiencethe_'
'exa'
'erd'
'enterprise_'
'eme'
'easton_'
'dys'
'dle'
'dent'
'cris'
'crabtree_'
'corridor'
'cooke'
'convivial_'
'comm'
'colli'
'civilization_'
'cast'
'canyonlands_'
'campbell_'
'calle'
'caleta_'
'bumper_'
'blackb'
'bethesda_'
'assignment_'
'arre'
'areathis_'
'anima'
'angled_'
'andon_'
'adjusting_'
'275_'
'106_'
'zig'
'windowless_'
'visitthe_'
'unfinished_'
'uf'
'tris'
'tongariro_'
'temper'
'tch_'
'suz'
'substitute_'
'stuart_'
'stationi'
'skiers_'
'sank_'
'rovi'
'rita_'
'risers_'
'plain'
'peach_'
'pars'
'pani'
'or'
'oga'
'nst'
'mount'
'modernis'
'mang'
'legacy_'
'kei'
'ito_'
'ising_'
'insta'
'ih_'
'ifi_'
'holl'
'hol'
'hic'
'herb_'
'gue_'
'gag'
'fts_'
'fallsview_'
'everthing_'
'esa'
'els'
'cres'
'convoluted_'
'conne'
'coni'
'colin_'
'classi'
'casually_'
'carp'
'canton_'
'cactus_'
'bran'
'bish'
'bab_'
'atho'
'afe'
'adored_'
'actor'
'600'
'495_'
')- _'
'! ) '
'westins_'
'waterford_'
'vos'
'unstable_'
'unsatisfactory_'
'twists_'
'torquay_'
'tine_'
'thimphu_'
'tanj'
'sweden_'
'subs'
'specify_'
'sauvignon_'
'residenc'
'rep'
'regrettably_'
'qi'
'pupp'
'promote_'
'predict'
'practic'
'ppe'
'poland_'
'plantings_'
'payable_'
'nna_'
'mojitos_'
'mezquita_'
'melrose_'
'meads_'
'lull'
'limassol_'
'laquinta_'
'killing_'
'jin_'
'iko'
'ich'
'hey'
'herds_'
'haz'
'general'
'furnish'
'fumes_'
'fulfill_'
'filipino_'
'fc_'
'erna'
'ent'
'encouraging_'
'eld_'
'dor_'
'differ'
'desc'
'dav'
'cio_'
'champlain_'
'chair'
'boil_'
'boar_'
'blended_'
'bk'
'belvedere_'
'ballrooms_'
'asin'
'annoyances_'
'andm'
'aire_'
'aig'
'aer'
' < _'
' ........ _'
'wicked_'
'vega'
'upt'
'upsta'
'uls'
'tif'
'tant'
'tal_'
'storm'
'steps'
'skybar_'
'sigh'
'sia_'
'rik'
'regrets_'
'reeked_'
'raz'
'rama'
'pru'
'prem'
'pontoon_'
'parkso_'
'ose_'
'onis'
'omer_'
'ngi'
'mainstream_'
'luxor_'
'lty_'
'llo'
'llen_'
'lenox_'
'kf'
'kad'
'joann'
'istan'
'iron'
'insul'
'hw'
'hc'
'has'
'goodit_'
'god'
'gf_'
'feeders_'
'fairgrounds_'
'enthusiastically_'
'enth'
'enters_'
'enormously_'
'din'
'congratulated_'
'colomb'
'coe'
'clos'
'ciu'
'charter_'
'brown'
'breckenridge_'
'booklet_'
'bomb'
'bentley_'
'bavaro_'
'barbican_'
'\u_'
'>'
'230_'
'workable_'
'walton_'
'vernon_'
'uno_'
'unn'
'unclear_'
'thr_'
'tem'
'surprise'
'sucked_'
'staffi_'
'soli'
'slop'
'skyscraper_'
'rv'
'riva_'
'review'
'returnthe_'
'pony_'
'pinot_'
'pickups_'
'pens'
'noticing_'
'mpa'
'miniscule_'
'mine'
'meth'
'mart'
'kenny_'
'jour'
'innkeeper_'
'ige'
'hoover_'
'highwayso_'
'herbs_'
'heather_'
'hd'
'focal_'
'flori'
'ffer'
'explanations_'
'expansion_'
'ener'
'emily_'
'effects_'
'dreaded_'
'doorthe_'
'deceptive_'
'cula'
'cosmetics_'
'congenial_'
'competitor_'
'chez_'
'bureau_'
'bikers_'
'benny_'
'barren_'
'augusta_'
'ane_'
'amiss_'
'amelia_'
'83_'
'1990_'
'washcloths_'
'volumes_'
'viable_'
'upw'
'unc'
'unbe'
'toyota_'
'tl_'
'therwise_'
'tgv_'
'tat_'
'tails_'
'swish_'
'subt'
'sthere_'
'staf_'
'smooth'
'smi'
'scratchy_'
'rve'
'rog'
'reckon_'
'propos'
'prompted_'
'prevail'
'pol'
'poke'
'pn'
'ploenchit_'
'pera'
'pension_'
'peanuts_'
'paper'
'overwhelmingly_'
'nr_'
'nel_'
'mersey_'
'mates_'
'leave'
'lauren_'
'kota_'
'keystone_'
'ive'
'interacting_'
'inno'
'inexcusable_'
'however'
'gloria_'
'gels_'
'farm'
'ethi'
'estates_'
'esca'
'enjoy'
'edly_'
'dorchester_'
'diy_'
'devo'
'design'
'cus'
'coordinated_'
'closet'
'carrier_'
'carib'
'bing'
'bethlehem_'
'belmont_'
'appo'
'anie'
'andaman_'
'amboise_'
'alm'
'adaptor_'
'a5'
'34th_'
',(_'
' * '
'walla'
'varia'
'vague_'
'uva_'
'uto'
'tter'
'tte'
'troll'
'treasures_'
'transform'
'transferring_'
'trafford_'
'tle'
'timeless_'
'teeny_'
'tasmania_'
'tahiti_'
'streams_'
'steamed_'
'stayit_'
'southe'
'sis'
'sina'
'shortbread_'
'rsi'
'ronda_'
'rable_'
'preferably_'
'potholes_'
'patron'
'overpass_'
'okan'
'obscure_'
'nomi'
'narrow'
'monticello_'
'mona'
'minnesota_'
'members'
'mcc'
'masala_'
'mama_'
'm40_'
'limit'
'lak'
'lack'
'kudu_'
'kan_'
'joburg_'
'jetwing_'
'incomparable_'
'inclu'
'hid'
'halles_'
'hai_'
'gio_'
'freak'
'flamenco_'
'equip'
'elsewhere'
'ein_'
'dali_'
'cot'
'congratulate_'
'cion'
'cheek_'
'chedi_'
'cea'
'cau'
'cartes_'
'cambodian_'
'bukhara_'
'blueberries_'
'ax_'
'ave'
'association_'
'andra'
'ances_'
'alerted_'
'ahmed_'
'adobe_'
'absolut'
'wim'
'wests'
'wea'
'vl'
'udi'
'twin'
'tst'
'treks_'
'tina_'
'tiling_'
'tick'
'tarr'
'tac_'
'sund'
'spin_'
'sound'
'solar_'
'smil'
'rough'
'rios_'
'restauranti'
'restau'
'respect'
'remarks_'
'raymond_'
'pup'
'published_'
'proudly_'
'potomac_'
'parkbut_'
'overgrown_'
'overcharge_'
'orr'
'opposite'
'onn'
'nove'
'myeongdong_'
'mutt'
'murky_'
'mirador_'
'mamo'
'lm_'
'litt'
'linn'
'linea'
'lends_'
'kn'
'klo'
'itr'
'inwe_'
'intelligent_'
'institutional_'
'incorrectly_'
'hood'
'headl'
'harassed_'
'glass'
'fur'
'foothills_'
'facilties_'
'eman'
'dud'
'dislikes_'
'dealers_'
'cyclists_'
'conclude_'
'closures_'
'cine'
'ceramic_'
'canvas_'
'campers_'
'butw'
'butg'
'buckets_'
'brew'
'bottom'
'boot'
'blake'
'bernard'
'author'
'ass'
'appointed'
'alen'
'60th_'
'!'
' ? ? ? ?_'
'zer_'
'yto'
'watford_'
'washrooms_'
'wack'
'vall'
'toilet'
'theo'
'teeming_'
'swimmable_'
'suvarnabhumi_'
'suck'
'salo'
'saa'
'reads_'
'ray'
'rall'
'proprietor_'
'prep'
'pate'
'pam_'
'orl'
'nth'
'nam_'
'mustard_'
'mori'
'moored_'
'moat_'
'mino'
'mei_'
'management'
'maintained'
'lst'
'love'
'lov'
'lemurs_'
'laden_'
'kre'
'kr'
'khan_'
'interi'
'instrument'
'ingbut_'
'ify'
'hte'
'howling_'
'hoste'
'hips_'
'hinge'
'handy'
'guest'
'groom_'
'grin'
'grants_'
'goode'
'flashing_'
'fin'
'ewa'
'ete'
'esti'
'erg'
'dise'
'disconnect_'
'dicey_'
'destination'
'defeat'
'coc'
'clyde_'
'chs'
'chime'
'cera'
'casa'
'availed_'
'atmos'
'armoire_'
'andnot_'
'ance'
'ador'
' .. ) '
'whitby_'
'usual'
'unsurpassed_'
'unda'
'uncle_'
'uat'
'tus'
'transformation_'
'tic'
'terra'
'taverna_'
't2_'
'syn'
'step'
'spon'
'splurged_'
'sociable_'
'skylight_'
'skin'
'scru'
'sc'
'sati'
'sanibel_'
'riverbank_'
'rhe'
'retirement_'
'resemble_'
'rajasthan_'
'quietand_'
'queensway_'
'pulls_'
'preston_'
'persistent_'
'pax_'
'pauls_'
'pann'
'om'
'olympia_'
'noth'
'multilingual_'
'moro'
'mono_'
'merchandise_'
'manual_'
'lui'
'knu'
'joking_'
'itit_'
'ient'
'hip'
'hb_'
'gut'
'guilin_'
'entra'
'enquiry_'
'enci'
'ecti'
'eci'
'ec_'
'dso_'
'dorado_'
'dama'
'custard_'
'corals_'
'copley_'
'conflict'
'carton_'
'busythe_'
'breath'
'brasov_'
'bookstore_'
'booking'
'bodrum_'
'batt'
'barr'
'ayo'
'attack_'
'argentinian_'
'aja'
'addict'
'ach'
'38th_'
' ......... _'
'ó'
'wors'
'windmill_'
'waterways_'
'want'
'vy_'
'viewi'
'upthe_'
'tuni'
'tower'
'toothbrushes_'
'throwback_'
'tenderloin_'
'tasman_'
'tarmac_'
'stormy_'
'stin'
'steam'
'shockingly_'
'screw_'
'roomservice_'
'roadi'
'res'
'reminders_'
'reaches_'
'qualia_'
'press'
'periodically_'
'pali'
'ova_'
'ope'
'nv'
'nordstrom_'
'nm_'
'neys_'
'nes'
'nand_'
'nails_'
'mistakenly_'
'merit_'
'mao'
'lombok_'
'kakadu_'
'ited_'
'iously_'
'intrude'
'incorporated_'
'ias_'
'group'
'graz'
'gdansk_'
'firework_'
'excl'
'esp'
'entertainments_'
'dynamic_'
'dj'
'curtain'
'continent_'
'configured_'
'cola'
'chirping_'
'cham'
'cchi'
'canaveral_'
'cam_'
'buxton_'
'bunk'
'bumping_'
'brick'
'bradley_'
'bem'
'balcon'
'arty_'
'andha'
'adu'
'45mins_'
'320_'
'wheat_'
'walt_'
'versa'
'ux_'
'urgently_'
'unmanned_'
'unheard_'
'uneasy_'
'unclean_'
'uer'
'uct'
'uc'
'tst_'
'trivial_'
'tene'
'tending_'
'takeaways_'
'swar'
'swallow'
'superdome_'
'sundry_'
'saw'
'rights_'
'rightand_'
'rett'
'restrict'
'replies_'
'rach'
'prebooked_'
'peabody_'
'otto'
'notify_'
'nity_'
'nded_'
'mover_'
'mok'
'lux'
'loveliest_'
'logs_'
'limestone_'
'lights'
'layed_'
'lapa'
'kong'
'keith_'
'jeans_'
'iw'
'intuitive_'
'imme'
'identity_'
'hle'
'hero'
'haute_'
'grate'
'freebies_'
'fora'
'fl'
'fication_'
'everythingand_'
'emu'
'eight'
'dumpster_'
'dick_'
'df'
'desp'
'dental_'
'cry_'
'coverings_'
'coco'
'cheer_'
'chaweng_'
'ced'
'bry'
'brak'
'blind'
'aur'
'atri'
'atleast_'
'ational_'
'areaw'
'anyway'
'amble_'
'alleyways_'
'aid'
'againbut_'
'adv'
'abd'
'a12_'
'? '
' ........._'
' .--_'
' ' ...'
' ! ! ! )_'
'while'
'vaci'
'usbut_'
'unplug_'
'tuc'
'trains'
'swivel_'
'sting'
'roosters_'
'roomthis_'
'retreat'
'restocking_'
'rah_'
'puppet_'
'processing_'
'pow'
'pott'
'parr'
'outand_'
'orthe_'
'organi'
'orangery_'
'ngthe_'
'munchies_'
'mimi'
'melissa_'
'manicure_'
'lingering_'
'lili'
'lawson_'
'kickback_'
'kep'
'jebel_'
'jam'
'inquiries_'
'innkeepers_'
'info'
'inat'
'i40_'
'hie'
'hatt'
'harmoni'
'foster'
'fis'
'firmness_'
'exhibits_'
'erm'
'enda'
'edbut_'
'driver'
'denise_'
'dell_'
'dayso_'
'cube_'
'creaked_'
'crank'
'convient_'
'comfythe_'
'cies_'
'cher_'
'chau'
'cann'
'cadd'
'blen'
'beth_'
'beachso_'
'barn'
'azure_'
'andeven_'
'affecti'
') , _'
' - ( _'
'whipped_'
'vei'
'uswe_'
'unde'
'tightly_'
'tering_'
'tears_'
'sula'
'stansted_'
'standpoint_'
'sque'
'sidney_'
'sharon_'
'screams_'
'saltwater_'
'sal_'
'rho'
'replenishment_'
'relaxing'
'receptionand_'
'reali'
'pug'
'pila'
'pie'
'phillips_'
'overd'
'oth'
'octagon_'
'ndl'
'mong_'
'marie'
'loews_'
'layouts_'
'labeled_'
'kw'
'kiwi_'
'karo'
'journal_'
'jima_'
'irvine_'
'inters'
'ick'
'hung'
'horse'
'heath'
'greg'
'garde'
'fll_'
'fig'
'eyre_'
'expen'
'eveningthe_'
'esc'
'ept'
'cruisers_'
'conta'
'citythe_'
'cityso_'
'cinc'
'butte_'
'butin_'
'butb'
'brai'
'bra'
'bomb_'
'blanc'
'bj'
'bizarrely_'
'begging_'
'bask'
'anywhereyou_'
'andas_'
'amaze'
'altho_'
'acu'
'acoustics_'
'wheeling_'
'unst'
'unappetising_'
'ude_'
'trin'
'tirelessly_'
'thorn'
'telluride_'
'tama'
'tac'
'sua'
'staffw'
'spree_'
'socializing_'
'so'
'sleepi'
'sheet'
'sensibly_'
'scan'
'sari_'
'rip'
'renovation'
'reichstag_'
'pitched_'
'pira'
'phi'
'peninsular_'
'passages_'
'ord'
'ool_'
'nza_'
'nobu_'
'nding_'
'monitored_'
'mashed_'
'major'
'lung'
'lizard_'
'limiting_'
'letters_'
'later'
'lari'
'knott'
'kea_'
'inspite_'
'ind_'
'herald_'
'gna'
'galapagos_'
'fot'
'fiori_'
'expanding_'
'exmouth_'
'ements_'
'dumbbells_'
'dors'
'donut_'
'disrepair_'
'debit_'
'customary_'
'crou'
'cranes_'
'cosmetic_'
'constitution_'
'completion_'
'christine_'
'chatter_'
'cashe'
'cappuccinos_'
'cage_'
'cables_'
'booming_'
'bhutanese_'
'berna'
'benz_'
'bele'
'areait_'
'anticipation_'
'alway_'
'@'
'= _'
'youngest_'
'wy_'
'worlde_'
'whin'
'welcoming'
'wed'
'waterbu'
'ved'
'ution'
'unbearably_'
'uld_'
'tric'
'tional_'
'tian_'
'tham'
'swindon_'
'sunning_'
'sumpt'
'suites'
'stun'
'sso'
'spoils_'
'sloped_'
'shep'
'rti'
'resteraunts_'
'respectable_'
'regions_'
'rattled_'
'queued_'
'phillip_'
'paloma'
'overhang'
'orsay_'
'orch'
'netherlands_'
'nesting_'
'nascar_'
'mit_'
'minat'
'mf'
'melo'
'mellow_'
'mec'
'mber'
'martha_'
'marcos_'
'luci'
'locationa'
'leaks_'
'jn'
'jake_'
'induc'
'ills_'
'hyena_'
'humb'
'helpfuls'
'hear'
'hatch'
'greedy_'
'grease_'
'goa'
'gib'
'gand'
'galilee_'
'gained_'
'flavoured_'
'ferris_'
'epo'
'edison_'
'dura'
'dos'
'directory_'
'depict'
'deficiencies_'
'datai_'
'crown'
'communist_'
'cobwebs_'
'charl'
'cesar_'
'budd'
'bok'
'boathouse_'
'barand_'
'backpacker_'
'attentive'
'allit_'
'allegedly_'
'aka'
'aiming_'
'ace'
'203_'
' ? ? ? '
' :( _'
'youtube_'
'visiti'
'vent'
'uck'
'tu'
'trust'
'tracked_'
'torre_'
'swin'
'sola'
'sandp'
'rro'
'rotating_'
'rinse_'
'retiring_'
'restraunts_'
'restaurantbut_'
'reopened_'
'reindeer_'
'realising_'
'rath'
'rake'
'programmed_'
'prin'
'pitt'
'pied'
'pf'
'participating_'
'pano'
'nym'
'ngo'
'mud'
'mornings'
'moorea_'
'minimize_'
'miner'
'milton_'
'marriage_'
'mani_'
'made'
'livingstone_'
'leo_'
'landscapes_'
'kly_'
'input_'
'inb'
'hyenas_'
'helena_'
'gritty_'
'greeter_'
'godsend_'
'freeze_'
'four'
'facilitate_'
'eha'
'edi_'
'domingo_'
'dk'
'divi_'
'distr'
'dig_'
'diesel_'
'dad'
'coup'
'cord'
'continent'
'consol'
'conducting_'
'commi'
'comf'
'coh'
'circulation_'
'cash'
'capi'
'butthere_'
'bob'
'blackberry_'
'bh'
'awaythe_'
'autograph_'
'athroom_'
'arti'
'appartment_'
'aperitif_'
'andjust_'
'addresses_'
'activated_'
'acom'
'accommodates_'
'abs'
'50s_'
'!!_'
' ' ) _'
'ycl'
'wadd'
'tint'
'thurs_'
'threatening_'
'templ'
'teabags_'
'tast'
'tamar'
'tables'
'symp'
'swanston_'
'sundown_'
'stainless_'
'shaw_'
'serviceand_'
'server'
'seed'
'seashore_'
'sangria_'
'rub'
'rto'
'rez'
'rendered_'
'reliably_'
'raa'
'pleas'
'placebut_'
'pian'
'philipp'
'philip_'
'peel_'
'palm'
'nip_'
'nighti'
'nevis_'
'nah'
'mysti'
'monk'
'mina'
'merci'
'mercado_'
'lucy_'
'lovelythe_'
'loca'
'limited'
'lil'
'lifting_'
'liff'
'legian_'
'legend_'
'last'
'kitt'
'kap'
'impe'
'hv'
'hovering_'
'hound'
'hotelg'
'heel_'
'health'
'hanger_'
'hake_'
'gum_'
'gue'
'grip_'
'forrest_'
'expand_'
'eton_'
'ethos_'
'enthusiasts_'
'embankment_'
'dockyard_'
'distress'
'dei'
'danieli_'
'contributors_'
'cere'
'carso_'
'bund'
'bu_'
'broome_'
'beac'
'aper'
'anf'
'alist'
'57th_'
'295_'
'1b'
'yan_'
'yakima_'
'wilt'
'whites_'
'voi'
'vacancy_'
'usth'
'tus_'
'tone'
'tiered_'
'thunderstorm_'
'texture_'
'tami'
'susan_'
'staffs'
'spill_'
'sliver_'
'sir'
'sig'
'setting'
'selection'
'salvador_'
'rost'
'ripe_'
'railways_'
'radi'
'provi'
'pronounced_'
'principle_'
'poi'
'permission_'
'patr'
'paramount_'
'overc'
'outline'
'ours'
'orb'
'niz'
'nices'
'ngu'
'naga'
'moment'
'model'
'minster_'
'mecure_'
'martinis_'
'manually_'
'm62_'
'locations'
'lave'
'jol'
'jerome_'
'iq'
'inclusives_'
'impatient_'
'hotele'
'gp'
'fr'
'ffl'
'feel'
'exec'
'eras'
'dour_'
'dine'
'danny_'
'crowed_'
'cora'
'commerce_'
'circling_'
'cie'
'charlottetown_'
'cani'
'cac'
'bridget'
'bouche_'
'boisterous_'
'bloomington_'
'barista_'
'aus_'
'alr'
'alf'
'73_'
'1950s_'
'+'
'yf'
'wakeup_'
'wad'
'vers_'
'veal_'
'trickle_'
'trick'
'thor'
'tard'
'sve'
'supplying_'
'subjective_'
'strive_'
'stern_'
'staid_'
'sew'
'sera'
'roof'
'rickety_'
'rge_'
'rey'
'repair'
'reed'
'reconstruction_'
'ption_'
'projects_'
'petro'
'persi'
'peas_'
'ori_'
'ones'
'occurrence_'
'nya'
'nga_'
'nair'
'musee_'
'michel'
'merits_'
'maru'
'maris'
'malvern_'
'luxury'
'lish_'
'lacklustre_'
'kochi_'
'kk_'
'kila'
'josh_'
'jewellery_'
'intra'
'imagin'
'hotell'
'hoo_'
'harrahs_'
'graham_'
'goodm'
'gibb'
'fijian_'
'fiddle'
'falcon_'
'evelyn_'
'eso'
'elusive_'
'demonstration_'
'dari'
'corso_'
'conve'
'connecticut_'
'concur_'
'clap'
'cardi'
'burmese_'
'bur_'
'brewer_'
'bombay_'
'befitting_'
'bailey'
'ase'
'ams_'
'action'
'='
'1990s_'
'196'
'! ! !'
' ; ( _'
' ! ! ! '
'wobbly_'
'viewthe_'
'viewa'
'utility_'
'urs'
'tunes_'
'trag'
'trace'
'threa'
'summertime_'
'sukhothai_'
'staggering_'
'spear'
'shuttlebu'
'sans_'
's1'
'rude'
'rebook_'
'rattling_'
'rati'
'rat'
'rasa_'
'rang'
'ramen_'
'racetrack_'
'quirkiness_'
'pum'
'ption'
'proficient_'
'prince'
'prettier_'
'prea'
'plough'
'planting_'
'pints_'
'paw'
'overnighting_'
'ouch'
'onsi'
'noi_'
'nau'
'modernity_'
'mangrove_'
'macquarie_'
'laughable_'
'latz_'
'kk'
'inco'
'housekeeping'
'healthier_'
'gratis_'
'gm'
'floods_'
'flake'
'even'
'enca'
'ello_'
'dreamy_'
'dispense'
'dipping_'
'devoted_'
'delphi_'
'constructive_'
'comer'
'chrysler_'
'children'
'carribean_'
'buisness_'
'brittany_'
'breakfasti'
'bound'
'blizzard_'
'bew'
'beda'
'balla'
'ati_'
'appealed_'
'alone'
'alic'
'agree'
'againit_'
'5m'
'”'
'zil'
'wol'
'wil_'
'welland_'
'wart'
'valparaiso_'
'upholstered_'
'townth'
'tio'
'ticket'
'thistle_'
'ssion'
'spinn'
'som_'
'sion'
'scone_'
'schipol_'
'scen'
'sanit'
'ruct'
'rr_'
'riverb'
'revi'
'raft_'
'pose_'
'portree_'
'porto'
'pigs_'
'oiled_'
'oblige_'
'ngh'
'nao'
'mgm_'
'mentary_'
'melt'
'lhr_'
'lego_'
'kni'
'jon_'
'instances_'
'inna'
'ink_'
'imported_'
'iber'
'honor'
'hit'
'histori'
'hanover_'
'gore'
'gogh_'
'flamingos_'
'firmer_'
'fer_'
'falmouth_'
'extreme'
'especial'
'enviable_'
'emptying_'
'educational_'
'easi'
'dumb_'
'dp'
'determine_'
'depressed_'
'defi'
'creation_'
'cf'
'cate'
'capital'
'calientes_'
'branding_'
'betty_'
'bedspread_'
'beck_'
'avail'
'arkansas_'
'angeli'
'anga'
'amor'
'alfresco_'
'ales'
'aguas_'
'5s'
'302_'
'204_'
'07'
' ;)_'
' .“ _'
'yit_'
'warp_'
'vue_'
'vu_'
'twent'
'tsu'
'tractor_'
'tours'
'tetons_'
'tc'
'suprise_'
'stayed'
'sre'
'solutions_'
'sirmione_'
'sbury_'
'sash_'
'sails_'
'ruth'
'robertson_'
'rne'
'restore_'
'repaint'
'raph'
'postcards_'
'porches_'
'pelicans_'
'passi'
'orte'
'newquay_'
'muse_'
'monopoly_'
'moncton_'
'minutesand_'
'maximi'
'legends_'
'kud'
'kenmore_'
'junk'
'ison_'
'ional_'
'indifference_'
'incu'
'imax_'
'hoop'
'hoe_'
'guestrooms_'
'giz'
'friend'
'frie'
'fitt'
'fas'
'enb'
'employer_'
'effortlessly_'
'edg'
'davi'
'davenport_'
'crowd'
'clara_'
'cistern_'
'christopher_'
'chemical_'
'celi'
'cathedrals_'
'cad_'
'buton'
'brie'
'borghese_'
'benidorm_'
'bbe'
'baker'
'arge'
'anger_'
'accommodation'
'2b'
'yun'
'xton_'
'winnipeg_'
'wars'
'unsupervised_'
'unsightly_'
'tp_'
'towe'
'tive'
'stephens_'
'standard'
'ssta'
'spectrum_'
'sellers_'
'rosemont_'
'ralph_'
'rade'
'pillar_'
'pester'
'patron_'
'patpong_'
'overseeing_'
'oster'
'ortigia_'
'navona_'
'manatee_'
'macc'
'lv_'
'lotte_'
'lorry_'
'lli_'
'limo'
'lakeand_'
'knives_'
'keyboard_'
'jacks_'
'irk'
'ira'
'interl'
'interco'
'influx_'
'independ'
'implement'
'immediat'
'idio'
'hok'
'hg'
'harried_'
'harmony_'
'hamlet_'
'grid_'
'gondolas_'
'gho'
'germans_'
'gen_'
'fuzzy_'
'forgiven_'
'evey'
'eventhough_'
'estimate_'
'edin'
'drugstore_'
'document_'
'dijon_'
'delicious'
'delectable_'
'decisions_'
'crush_'
'creak_'
'coventry_'
'cooker_'
'coba_'
'cler'
'child'
'celebrat'
'birthdays_'
'bathro'
'basil_'
'bala'
'ambulances_'
'alam'
'airf'
'acces_'
'92_'
'!!. _'
'zation_'
'youi'
'weave'
'vino_'
'venice'
'unt_'
'unexciting_'
'transports_'
'tore_'
'tok'
'tiniest_'
'tib'
'thw'
'thati'
'tari'
'tak'
'swamped_'
'survived_'
'sullen_'
'steigenberger_'
'steamboat_'
'statu'
'staffers_'
'sloane_'
'siena_'
'sia'
'servicebut_'
'seperate'
'seb'
'scare_'
'rr'
'roundtrip_'
'roomsa'
'producing_'
'prepa'
'pleasure'
'perr'
'paste'
'paella_'
'outrigger_'
'oto'
'onth'
'offshore_'
'nob_'
'netting_'
'neo'
'marking_'
'margherita_'
'mardi_'
'manoir_'
'locking_'
'local'
'kosh'
'jen_'
'izing_'
'issue'
'inwards_'
'ified_'
'helm'
'growth_'
'goodso_'
'goodi'
'font_'
'fluctuate'
'fist_'
'ferm'
'fei'
'fc'
'exu'
'explorer_'
'ets'
'essex_'
'eer'
'dut'
'dus'
'dob'
'dict'
'detail'
'converti'
'contribute_'
'clotted_'
'cking_'
'christian'
'chops_'
'chine'
'calistoga_'
'burma_'
'brownie_'
'breathtakingly_'
'brave'
'berkeley_'
'bellini_'
'bash'
'barnes_'
'archa'
'appeals_'
'andwell_'
'64'
'188'
'185'
'128_'
'118_'
'! !_'
' :) ._'
' .......... _'
' $ $ $ '
'wellb'
'vertical_'
'velvet_'
'uta'
'universities_'
'umb'
'turnaround_'
'tools_'
'therm'
'teguise_'
'stil'
'stant'
'sorbet_'
'sally_'
'rive_'
'revelstoke_'
'reveal_'
'retire_'
'resorts'
'resolution_'
'representation_'
'relay'
'redecoration_'
'rearrange'
'really'
'rance_'
'ra'
'quot'
'poorest_'
'pooli'
'pois'
'pismo_'
'pick'
'pheasant_'
'partner'
'participated_'
'pamp'
'pag'
'ois_'
'och'
'nun'
'nord'
'must'
'mue'
'mozart_'
'moto'
'mose'
'morrison_'
'mogan_'
'missouri_'
'midnight'
'mick'
'melaka_'
'meat'
'matr'
'marrakesh_'
'marr'
'manta'
'lob'
'lise'
'leonardo_'
'kovalam_'
'kne'
'inca_'
'ilit'
'hwa'
'harp'
'hamper'
'goof'
'goe'
'gatherings_'
'gangnam_'
'fret'
'freshest_'
'flap'
'fib'
'ferri'
'eve'
'edge'
'diversion_'
'deni'
'das'
'cw'
'crist'
'cray'
'convers'
'contr'
'continual_'
'contend_'
'consierge_'
'conference'
'coa'
'chao'
'centrei'
'cecil'
'castro_'
'captured_'
'butd'
'buda_'
'branches_'
'benefited_'
'bathe_'
'armani_'
'announcements_'
'againw'
'a14_'
'2h'
' 👍 '
'zimbabwe_'
'yre'
'xo'
'winston_'
'williams'
'waybut_'
'waving_'
'vir'
'vibes_'
'utrecht_'
'uncom'
'ule'
'uda'
'tryp_'
'torrey_'
'teppanyaki_'
'tch'
'tal'
'suspicious_'
'sunscreen_'
'spoo'
'spit_'
'solving_'
'socialize_'
'sni'
'significance_'
'shear'
'seawall_'
'scout'
'rity_'
'rethink_'
'regi'
'ramon_'
'quar'
'print'
'pram'
'ppl_'
'plated_'
'pia_'
'phx_'
'overnight'
'otters_'
'orderly_'
'ordeal_'
'noisily_'
'niko'
'nevsky_'
'neighborhood'
'neg'
'nama'
'nai_'
'moss_'
'moc'
'mixer_'
'mera'
'meli'
'meg'
'maro'
'lith'
'lett'
'lana'
'laminate_'
'kamloops_'
'jail_'
'iy'
'ix_'
'isc'
'inga'
'infinite'
'idea'
'hydra'
'hoards_'
'ho'
'guacamole_'
'greata'
'gee_'
'gallo'
'elemis_'
'downpour_'
'dori'
'dominic'
'dennis_'
'dealership_'
'dala'
'cut'
'crowding_'
'crafted_'
'corral_'
'charmless_'
'chance'
'cet'
'brekky_'
'breakfa'
'boi'
'bland'
'berg'
'bees_'
'bac'
'aye'
'aun'
'arequipa_'
'angels_'
'anac'
'ael_'
'adel'
'addis_'
'acles_'
'85'
'50p'
'5000_'
'114_'
' ;'
' ! , _'
'wwii_'
'weed_'
'weakness_'
'vacuuming_'
'unwa'
'uin'
'ugh'
'trusted_'
'toileteries_'
'throngs_'
'thei'
'tarts_'
'suspension_'
'sundeck_'
'strad'
'sources_'
'soar'
'sligh'
'sled'
'skaya_'
'shrug_'
'shabb'
'seren'
'scoop'
'sbe'
'rup'
'rion_'
'rider_'
'release_'
'redding_'
'pumpkin_'
'plein_'
'pina_'
'petal'
'paced_'
'outra'
'nicea'
'nha_'
'nberg_'
'mour'
'miser'
'medan'
'mechanism_'
'massachusetts_'
'marl'
'lyn_'
'lep'
'leigh_'
'larry_'
'juhu_'
'john'
'jani'
'jaccuz'
'itl'
'inspect'
'inc'
'habit'
'guilty_'
'ghan'
'ggi'
'generations_'
'flustered_'
'feature'
'ec'
'eati'
'donna_'
'disjointed_'
'cull'
'commun'
'cheeri'
'checkout'
'chatt'
'casino'
'cartagena_'
'calv'
'calm'
'buried_'
'bras'
'bonuses_'
'bluffs_'
'bendi'
'bedr'
'barri'
'awful'
'avo'
'andba'
'andan'
'amphitheater_'
'airportwe_'
'advance'
'adrian_'
'abus'
'absorb_'
'51st_'
'225_'
'1h'
'10minutes_'
'* * _'
' … ..'
'wro'
'wri'
'vy'
'viol'
'vibrati'
'via'
'verdant_'
'ush_'
'thunderbird_'
'tart'
'stony_'
'steven_'
'stages_'
'ssy_'
'spooky_'
'sensatori_'
'sends_'
'sco_'
'rover_'
'realizing_'
'raspberry_'
'ques'
'produc'
'prob_'
'priced'
'pres'
'pendleton_'
'peacefully_'
'patches_'
'owe_'
'nac'
'muse'
'mountainside_'
'miri'
'middleto'
'mane'
'malla'
'madagascar_'
'lym'
'listi'
'lech'
'lattes_'
'kyl'
'kc'
'justin_'
'inten'
'insure_'
'inroom_'
'inm'
'ince_'
'ial'
'hus'
'huntington_'
'hower_'
'hob_'
'highs'
'hick'
'happy'
'gurney_'
'gloves_'
'gimignano_'
'gear'
'gale_'
'fry'
'forces_'
'folder_'
'feared_'
'eva_'
'eted_'
'elk'
'download'
'doncaster_'
'disturbances_'
'distract_'
'distinguish_'
'currents_'
'correcti'
'cloud'
'clocks_'
'calafate_'
'butand_'
'brill_'
'boundary_'
'bev'
'bean'
'apologizing_'
'apolog'
'anton_'
'ank_'
'andwhat_'
'amazingthe_'
'allen_'
'alco'
'agin_'
'afterthought_'
'://_'
':'
'750_'
'61_'
'59'
'165_'
'04'
' , ....'
'zoom'
'wreck_'
'wander'
'vt_'
'unders'
'twe'
'thet'
'themthe_'
'stown_'
'stando'
'stairwells_'
'sophie_'
'sine'
'rga'
'revelers_'
'rci_'
'prepay'
'posada_'
'perception_'
'pedi'
'outw'
'oblivious_'
'nio'
'nephew_'
'nec'
'nancy_'
'mull_'
'moa_'
'ml_'
'mild'
'mezz'
'maya'
'longhorn_'
'lega'
'leaflets_'
'lasts_'
'lakeland_'
'kusa'
'kite_'
'jes'
'inse'
'inaccessible_'
'husk'
'humo'
'hugo_'
'hoof'
'hiroshima_'
'henderson_'
'hapuna_'
'halong_'
'governors_'
'goi'
'frances'
'float'
'flask'
'fin_'
'fences_'
'fat'
'esh_'
'erw'
'employ_'
'ead_'
'dump'
'doughnuts_'
'differ_'
'deu'
'detector_'
'delight'
'dal_'
'dae'
'critic'
'count'
'cornish_'
'convert_'
'condition'
'concluded_'
'compromised_'
'complete'
'coaster_'
'characteristic_'
'character'
'cabbie'
'brain'
'beca'
'barte'
'barrio_'
'bane'
'azur_'
'ator_'
'asoke_'
'ante_'
'ann'
'amphitheatre_'
'amenable_'
'alila_'
'aking_'
'admired_'
'97_'
'30a'
'193'
'139_'
'/-'
' : • _'
'xia'
'wv_'
'waterton_'
'wass'
'vital_'
'vian'
'vc'
'uncertain_'
'ular_'
'uc_'
'trav'
'translation_'
'tali'
'surrey_'
'supervis'
'stonehenge_'
'stein_'
'squashed_'
'spir'
'smoothe'
'smile'
'smalli'
'slog'
'singh_'
'russ'
'robust_'
'rgi'
'revolution_'
'restura'
'restos_'
'regime'
'refer'
'recruit'
'ramble'
'qatar_'
'puri_'
'plaza'
'pk'
'peg'
'patty_'
'ork'
'ofi'
'nut'
'ntal'
'nod'
'networks_'
'nestl'
'nakuru_'
'nad'
'mys'
'mye'
'moritz_'
'marsa'
'lygon_'
'lthe_'
'lte'
'loe'
'latch_'
'kab'
'jas_'
'intermittently_'
'interfere_'
'imi'
'howe'
'hotelsi'
'hers'
'herbal_'
'hame'
'glaz'
'gc_'
'frig'
'fried'
'freshened_'
'franco'
'fortnight_'
'fitz'
'facility'
'expertise_'
'esco'
'ecl'
'cosi'
'convey'
'cleane'
'castell'
'caribe_'
'candlelight_'
'burner_'
'boone_'
'bona_'
'blea'
'berni'
'ascot_'
'amin'
'alum'
'alk_'
'alg'
'alameda_'
'agnes_'
'501_'
'1930s_'
'1700_'
'0s_'
' ,, _'
' ) .._'
'works'
'wing'
'whisper_'
'wentworth_'
'weird'
'watt'
'viaduct_'
'uy'
'upe'
'unr'
'underwater_'
'twilight_'
'tuned_'
'townwe_'
'theatre'
'tex_'
't3_'
'sunglasses_'
'spends_'
'speedily_'
'snowstorm_'
'smu'
'shortcut_'
'shing_'
'send'
'scale'
'santi'
'sant_'
'resistance_'
'reac'
'raddison_'
'proprietors_'
'prompt'
'pia'
'paz_'
'objection'
'nope_'
'noisebut_'
'nant'
'mw'
'mulle'
'most'
'mod'
'miz'
'metropolis_'
'messing_'
'meriton_'
'lorn'
'lice'
'laundr'
'jumb'
'joel_'
'itthe'
'interconnected_'
'insadong_'
'imac_'
'hotelb'
'hostesses_'
'hermanus_'
'hang'
'grandma_'
'gow'
'glue'
'glitter'
'ghastly_'
'genting_'
'gast'
'funi'
'fulfil'
'freeport_'
'forn'
'exclusivity_'
'everyone'
'eta_'
'esl'
'escala'
'erin'
'ep_'
'effi'
'ecc'
'domino'
'dome'
'dif'
'delic'
'defined_'
'crepe_'
'compensates_'
'comme'
'circulat'
'choiceand_'
'capsules_'
'calamari_'
'butbut_'
'burns_'
'brim'
'bren'
'bp_'
'bodies_'
'bengal'
'bc'
'bake_'
'backpack'
'aving_'
'arras_'
'arran_'
'apa_'
'anytime'
'anth'
'andre_'
'af_'
'accessable_'
'1600_'
'*._'
' ️'
' ..........'
' ... !_'
' .( '
' . ' _'
'xb'
'wildly_'
'walko'
'velas_'
'variations_'
'universit'
'truffle_'
'transfer'
'tis_'
'thems'
'terror'
'tens'
'suva_'
'stopper_'
'stations'
'spider_'
'snooker_'
'sip'
'schwa'
'samo'
'sahara_'
'roadways_'
'retrospect_'
'reserves_'
'rescued_'
'repeat'
'recovering_'
'reconsider_'
'raucous_'
'produces_'
'pric'
'previ'
'predictably_'
'preci'
'pich'
'paula_'
'pack'
'paci'
'oya'
'ousi'
'osu_'
'okaythe_'
'ocat'
'nton_'
'novena_'
'ncia'
'mui'
'modestly_'
'mesmerizing_'
'medal'
'mbu'
'matsumoto_'
'masseuse_'
'leis'
'kitchenettes_'
'kaanapali_'
'jose'
'jalan_'
'illumination'
'ign'
'idiot_'
'ick_'
'hub'
'hotelt'
'horne'
'hof'
'halal_'
'haarlem_'
'gull'
'guide'
'greymouth_'
'glenwood_'
'garmin_'
'dorset_'
'dona'
'disastrous_'
'different'
'dall'
'crit'
'coordinat'
'communities_'
'commonwealth_'
'cobb_'
'coarse_'
'clam'
'civi'
'chats_'
'cated_'
'cashier_'
'cars'
'canal'
'camel'
'came'
'buth'
'burford_'
'brutal_'
'brenda_'
'belie'
'beachw'
'bart'
'bandon_'
'badminton_'
'attend'
'ask'
'aries_'
'antr'
'andoverall_'
'ambar_'
'a6'
'4s'
'208_'
'112_'
'zag'
'yang_'
'waythe_'
'warehouses_'
'wagon_'
'visits'
'urr'
'uka'
'uf_'
'twisty_'
'truro_'
'troy_'
'tron'
'trepidation_'
'trastevere_'
'titicaca_'
'thruway_'
'thriving_'
'teething_'
'talent_'
'tailored_'
'sussex_'
'sunbath'
'sponge_'
'sheung_'
'shant'
'scro'
'scarlet_'
'rupe'
'rth'
'rooma'
'ront_'
'rmo'
'ripoff_'
'redeemed_'
'rdin'
'presidents_'
'presentable_'
'prai'
'ppo'
'poop_'
'poisoning_'
'pica'
'phin'
'pepsi_'
'pais'
'oos'
'number'
'nostalgia_'
'nci'
'middle'
'macon_'
'lug'
'launching_'
'kart'
'kalispell_'
'jenn'
'jav'
'iza'
'itely_'
'isn'
'irma_'
'ingi_'
'incessant_'
'improves_'
'hotp'
'hiex'
'hereth'
'herd'
'har_'
'goodw'
'garish_'
'fronta'
'foreshore_'
'foodies_'
'flyover_'
'field'
'extravagan'
'expressi'
'escaping_'
'equidistant_'
'ences'
'emb'
'drums_'
'downtownso_'
'dora'
'doorw'
'dod'
'delish_'
'cozi'
'costumes_'
'corne'
'converse_'
'contractors_'
'compliment'
'commands_'
'comfort'
'chir'
'chick_'
'carbs_'
'candlewood_'
'campfire_'
'californian_'
'bruce_'
'broom_'
'borobudur_'
'bore'
'bonfire_'
'bg'
'barstow_'
'bags'
'ashford_'
'aromatherapy_'
'appearances_'
'andonly_'
'ads_'
'adore_'
'admirably_'
'747_'
'38'
'215_'
'10m'
' - -_'
' " ?'
'yer'
'wye_'
'winn'
'wash'
'wading_'
'vito'
'undertaken_'
'tuc_'
'trainstation_'
'traini'
'toit_'
'timeth'
'tilt'
'thes'
'testament_'
'tat'
'tailor_'
'swimsuit'
'suma'
'stayw'
'staging_'
'sports'
'something'
'skid'
'sions_'
'showcas'
'sewer_'
'scri'
'roadtrip_'
'reuni'
'restaurantsa'
'respectively_'
'resent'
'regg'
'recept'
'rasse_'
'quil'
'quieten'
'puddle'
'plump'
'photographi'
'personalities_'
'perform'
'pane'
'outsidei'
'oust'
'noisethe_'
'nise'
'niche_'
'moan'
'mcg_'
'maza'
'manoeuvre_'
'mam'
'mae_'
'lore'
'lich'
'laughter_'
'ket_'
'kalam'
'jut'
'jungfrau_'
'italia_'
'ironbridge_'
'inis'
'hussle_'
'hive_'
'grain_'
'gents_'
'firm'
'finn'
'evan'
'esthe_'
'eren'
'enri'
'dyna'
'dissapointment_'
'dew'
'desir'
'dei_'
'danielle_'
'cushion_'
'cranky_'
'cout'
'commode_'
'comfora'
'colmar_'
'cloister_'
'claren'
'clam_'
'cityi'
'chateau'
'chas'
'breakfaste'
'breafast_'
'bf_'
'barns'
'balboa_'
'annoy_'
'amend'
'aegean_'
'acquaint'
'academi'
'abso'
'abode_'
'395_'
'303_'
'yth'
'xt_'
'whole'
'weber_'
'walgreen_'
'waco_'
'verd'
'venue'
'upsetting_'
'uated_'
'toast'
'thrill_'
'tgif_'
'teme'
'telescope_'
'swimmingpool_'
'sweating_'
'succ'
'stu'
'staffand_'
'slipper'
'skipping_'
'shouted_'
'shapes_'
'sens'
'sear'
'robe'
'robbery_'
'riendly_'
'reti'
'recomended_'
'rca'
'quo'
'practices_'
'poun'
'poo_'
'polar_'
'pitts'
'pch_'
'particulary_'
'parkroyal_'
'palapa_'
'orv'
'ond_'
'okw'
'ogden_'
'occassion_'
'nia'
'nera'
'nces_'
'naturalist_'
'mole'
'moist_'
'meas'
'marion_'
'malt'
'malo'
'malay_'
'luce'
'lots'
'loses_'
'lope'
'longt'
'kiss'
'karl_'
'ja'
'ivan_'
'invasi'
'interruption'
'ines'
'impecable_'
'ida_'
'hange'
'fuller'
'forested_'
'fog'
'flores_'
'fig_'
'fears_'
'fall'
'fac'
'exellent_'
'enta'
'embark'
'discreetly_'
'disappointed'
'definitley_'
'cz'
'cookery_'
'conven'
'conjunction_'
'comment'
'colla'
'clun'
'clarify_'
'chy_'
'christ_'
'carriages_'
'bullring_'
'beckon'
'banquets_'
'aval'
'atti'
'atic'
'ary'
'andthat_'
'andcheck_'
'amateur_'
'africa'
'administration_'
'ab'
'5minute'
'-)_'
' ! ! !'
'yk'
'wyth'
'westgate_'
'vocal'
'vend'
'trial_'
'thou'
'terrace'
'suprisingly_'
'stroll'
'software_'
'slim'
'shre'
'shook_'
'serra'
'sensor'
'scan_'
'sausalito_'
'rts_'
'routinely_'
'roadw'
'respected_'
'render'
'refurbishments_'
'redo_'
'proves_'
'prett'
'personel_'
'perc'
'patt'
'patriot'
'oco'
'nort'
'nder'
'musta'
'mur_'
'mothers_'
'mondays_'
'misplaced_'
'mex_'
'marquette_'
'marketed_'
'marke'
'maddening_'
'm1'
'lt_'
'locates_'
'jane'
'irre'
'incorporate'
'icia'
'icate'
'ibu'
'hug'
'hne'
'herr'
'habitat_'
'goodn'
'gastro_'
'galli'
'fours_'
'federation_'
'fect'
'farmland_'
'existant_'
'exer'
'ety_'
'essi'
'equi'
'equal'
'effecient_'
'doolin_'
'distancebut_'
'dis_'
'detracts_'
'coon'
'cliffe_'
'classically_'
'chipotle_'
'cca'
'cav'
'canadians_'
'byron_'
'buy'
'brou'
'brigade_'
'bonn'
'ath'
'astro'
'andsh'
'alight_'
'affluent_'
'adl'
'abel_'
'210'
'130'
'06'
'.......'
' : * _'
' ,( _'
'zel_'
'yat_'
'xa_'
'wedge'
'waste'
'wak'
'vist_'
'vault_'
'unresponsive_'
'unplugged_'
'univ_'
'ude'
'tropic_'
'tre_'
'transparent_'
'titan'
'thri'
'thatthe_'
'syr'
'surp'
'sum'
'subway'
'stag'
'springbok_'
'spla'
'solid'
'sok'
'shot'
'shed'
'shat'
'sett'
'servicei_'
'sentosa_'
'scream_'
'scam'
'salts_'
'rush'
'ruben'
'rotterdam_'
'restaruant'
'rejected_'
'reg'
'referring_'
'profession'
'problems'
'presenting_'
'plea'
'pecial'
'pebbles_'
'passers_'
'outage_'
'ordinat'
'oppressive_'
'opera'
'onions_'
'omo'
'omlet'
'nste'
'newc'
'nell_'
'mountain'
'moss'
'mercer_'
'luca_'
'lor_'
'lon'
'ley'
'leipzig_'
'lark'
'lara_'
'kuredu_'
'jets'
'jars_'
'jamb'
'iro_'
'ip_'
'interm'
'ingr'
'inda'
'inau'
'hotelroom'
'hardy_'
'hag'
'goodthis_'
'giggl'
'garibaldi_'
'fudge_'
'fran'
'flower'
'floorand_'
'flagged_'
'exceeding_'
'ethiopia_'
'eds'
'dominates_'
'dist'
'developments_'
'desires_'
'derry_'
'darkening_'
'cypress_'
'coughing_'
'contemp'
'cheddar_'
'cappucino_'
'calmness_'
'butbe'
'busyso_'
'busyi'
'busybut_'
'bris'
'breakfasts'
'bigg'
'bhu'
'beet'
'ascend'
'aroundand_'
'arian'
'ambleside_'
'alst'
'alan'
'adve'
'achiev'
'33rd_'
'160'
'149_'
' € '
' ? ? ? ? ?'
' ? ? ) '
'yous'
'xl'
'wheelchairs_'
'walkw'
'voice'
'vera'
'unanswered_'
'type'
'travelo'
'transaction_'
'tically_'
'thomsons_'
'thir'
'terminate'
'tear'
'tags_'
'tact'
'synthetic_'
'swimmer_'
'surviv'
'straighten'
'stockyards_'
'stocks_'
'snorkel'
'sliders_'
'skirt'
'shoreditch_'
'sent'
'saud'
'romantic'
'ridd'
'rennovat'
'reflective_'
'rec_'
'rame'
'raid'
'rafael_'
'ract'
'quin_'
'pottery_'
'portfolio_'
'plat_'
'philosophy_'
'parisi'
'outb'
'ote_'
'ooked_'
'obtaining_'
'noone_'
'nie_'
'needs'
'namib'
'munnar_'
'mtrs_'
'michael'
'metrop'
'meander_'
'mahe'
'macaroni_'
'longer'
'locat'
'lle'
'lk_'
'liste'
'lex_'
'laser_'
'kenmare_'
'jw'
'indicative_'
'impromptu_'
'hover'
'hongkong_'
'holyrood_'
'highwayand_'
'heron_'
'hed'
'hac'
'grind'
'gradually_'
'goodf'
'george'
'gbp'
'furn'
'flaky_'
'farr'
'fari'
'expo'
'explore'
'europe'
'env'
'emm'
'eddie_'
'eck_'
'dung'
'disrupted_'
'displ'
'devine_'
'cycl'
'corning_'
'coff'
'coati'
'chino'
'charmingly_'
'chardonnay_'
'cess'
'bure_'
'bun'
'bruno_'
'breakast_'
'boogie_'
'benchmark_'
'bedroomed_'
'beachi'
'auto'
'ares'
'anni'
'andal'
'anan'
'amr'
'amd_'
'ake'
'ache_'
'56'
'39th_'
' :-)'
' : $ _'
' ......'
' ) ...._'
'yum'
'would'
'withe'
'weakest_'
'velo'
'vecchio_'
'vanc'
'upa'
'unpaved_'
'unlit_'
'traveller'
'tovar_'
'toffee_'
'thumb_'
'thie'
'thereby_'
'tew'
'stup'
'storeys_'
'stage'
'squid_'
'spoiling_'
'sox_'
'sku'
'sincerity_'
'servicew'
'schil'
'ryth'
'roots_'
'roomss'
'romania_'
'rittenhouse_'
'rid'
'rica'
'rian'
'rend'
'remodelled_'
'rea_'
'ravioli_'
'quartier_'
'pyr'
'programming_'
'prepares_'
'pped_'
'pops_'
'placid_'
'parl'
'pari'
'packe'
'omon'
'omb'
'oint_'
'noti'
'nic_'
'newton_'
'ndant'
'mush'
'muang_'
'motel'
'mom'
'mish_'
'minu'
'mile'
'merry_'
'mering'
'meand_'
'mean'
'maw'
'mandela_'
'malpensa_'
'magically_'
'm6'
'lyi'
'locationi_'
'lib'
'lac_'
'isan'
'iny'
'invent'
'intercity_'
'intensi'
'indulged_'
'ife'
'hurghada_'
'http_'
'hoteliers_'
'holli'
'holb'
'hide'
'hercul'
'hawa'
'harl'
'hamam'
'gut_'
'gray'
'graduate'
'gozo_'
'glad'
'generosity_'
'fod'
'fluff'
'flipp'
'fitzroy_'
'fineand_'
'fav_'
'eyed_'
'escaped_'
'ero_'
'eliminate_'
'elect'
'ege'
'eduardo_'
'downsi'
'donat'
'dling_'
'dism'
'disappearing_'
'diocletian_'
'devonshire_'
'dani'
'cv'
'crus'
'courte'
'corte'
'compos'
'commotion_'
'clearance_'
'cleanl'
'chio'
'chamonix_'
'castello_'
'carm'
'capuc'
'canopie'
'cah'
'butm'
'bunker_'
'bouncy_'
'bolted_'
'balanc'
'assessment_'
'airportit_'
'adrian'
'admiral_'
'accent'
'5the_'
'550_'
'400'
'3x_'
'2a'
'183'
'08'
' ! ..._'
'ythe'
'withi'
'westb'
'volunteer'
'unoccupied_'
'ual'
'twa'
'treacherous_'
'toss_'
'tory_'
'timeshares_'
'thew'
'term'
'teresa_'
'taxis'
't1_'
'swamp_'
'strait_'
'stereo_'
'stephans'
'stef'
'somme'
'soften'
'shield'
'seychelles_'
'santander_'
'sanc'
'rya'
'rul'
'ropes_'
'rha'
'resu'
'repa'
'reopen'
'rena'
'regret'
'refur'
'refreshingly_'
'rage_'
'rack'
'quesadilla'
'prone_'
'prese'
'portr'
'ply_'
'pilgrimage_'
'phen'
'outa'
'o'
'nicer'
'natalie_'
'moma_'
'mk'
'ments'
'maximise_'
'marmara_'
'kot'
'kitsch_'
'jok'
'iya_'
'insist'
'iat'
'hungarian_'
'hti'
'hous'
'hope'
'hop'
'hemm'
'hedge_'
'gwl_'
'gula'
'greensboro_'
'grant'
'grandparents_'
'glaring_'
'gali'
'galeri'
'furnace_'
'fukuoka_'
'frenchman_'
'fragrant_'
'frag'
'fowl_'
'fn'
'firenze_'
'felix_'
'fairways_'
'exhibitions_'
'evergreen_'
'ephesus_'
'entr'
'eet'
'eers_'
'each'
'dry'
'drop'
'dromoland_'
'drip_'
'deve'
'dent_'
'cute'
'cula_'
'cram'
'constance_'
'colon_'
'coinciden'
'church'
'champaign_'
'centralized_'
'centennial_'
'cary_'
'cari_'
'caramel_'
'camb'
'buti'
'burb'
'betw'
'berlin'
'bere'
'bek'
'behave_'
'bedsthe_'
'barrel'
'bake'
'bacar'
'assign'
'areai'
'api'
'ankle_'
'anas'
'alou'
'aho'
']._'
'[_'
'730'
'410_'
'187'
'140'
' , , , _'
' " ....'
'ø'
'zzi'
'yea'
'wool_'
'wichita_'
'westm'
'vu'
'vase'
'unding'
'turin_'
'trucke'
'toky'
'tipp'
'timewe_'
'terrif'
'tbilisi_'
'taw'
'swoo'
'streetw'
'strath'
'still'
'stem'
'steak'
'sprit'
'spra'
'spacy_'
'snobby_'
'sneak_'
'snapp'
'sickness_'
'shout'
'secur'
'seali'
'scat'
'sarlat_'
'rra'
'roadth'
'riche'
'reet_'
'recorded_'
'recommends_'
'receptive_'
'quint'
'pv_'
'proposed_'
'proactively_'
'polanco_'
'outsidebut_'
'oso'
'ooze'
'occurring_'
'obst'
'nightc'
'nighta'
'nico'
'nebraska_'
'mushy_'
'monasteries_'
'mines_'
'meteora_'
'mat'
'maka'
'longi'
'legi'
'lapse'
'knocks_'
'kaya_'
'kampala_'
'irs'
'ingth'
'ilo'
'huan'
'heinz_'
'guy'
'greene'
'getaways_'
'forest'
'fores'
'floored_'
'fjords_'
'finei'
'feni'
'fantasy_'
'exposure_'
'experiment'
'endlessly_'
'enam'
'ees_'
'education_'
'dirhams_'
'dhe'
'dell'
'deducted_'
'daybed_'
'cult'
'cud'
'cockroach_'
'cleans'
'christmas'
'choppy_'
'castillo_'
'carvings_'
'carpa'
'cancelling_'
'cad'
'butt_'
'busan_'
'budget'
'brighten'
'breeze'
'breathing_'
'breakdown_'
'beer'
'backt'
'axi'
'auditorium_'
'attentative_'
'athe'
'ataturk_'
'ashtray_'
'aq'
'apprecia'
'andma'
'algarve_'
'airconditioned_'
'abt_'
'82'
'37th_'
'310_'
'116_'
' ? ! ?'
'ür'
'zie'
'xel'
'wow'
'wolfgang_'
'vina'
'veneto_'
'unen'
'tyre'
'tropicana_'
'tribeca_'
'trappings_'
'transp'
'tommy_'
'tod'
'they'
'terraz'
'tapestry_'
'tame_'
'talkative_'
'superc'
'sultan'
'succeeded_'
'sri'
'smell'
'simi'
'shortcoming_'
'shopper_'
'shimbashi_'
'shacks_'
'securely_'
'schl'
'salford_'
'roomsi'
'rme'
'rise'
'rine'
'ridi'
'ridges_'
'revis'
'repet'
'recomm'
'receptionthe_'
'reccomend'
'rebooked_'
'pton'
'presently_'
'preparations_'
'poorer_'
'poles_'
'plum'
'pedic'
'nuremberg_'
'northw'
'mpl'
'mg'
'menin_'
'march'
'machine'
'leys_'
'jara'
'insulting_'
'inspir'
'inconvenienced_'
'ince'
'inar'
'improve'
'immi'
'illegal_'
'highli'
'hemi'
'hara'
'handi'
'gues'
'greatit_'
'gino'
'giles_'
'fuerteventura_'
'frit'
'floorb'
'fest'
'esh'
'eenth_'
'dono'
'distinction_'
'dictate'
'diam'
'davidson_'
'dain'
'crom'
'cred'
'crate'
'correspond'
'cornerand_'
'corkscrew_'
'coordinator_'
'contacts_'
'confess_'
'coma'
'citizenm_'
'carre'
'canoeing_'
'butwh'
'buffe'
'broadbeach_'
'bottle'
'boliv'
'bode'
'bier'
'benni'
'bbqs_'
'barcel'
'backup_'
'ashi_'
'arine_'
'argument'
'appar'
'andes_'
'amentities_'
'330_'
'209_'
'*_'
' •_'
'yli'
'wl_'
'withthe_'
'wih'
'vio'
'uve'
'uran'
'unwanted_'
'uncaring_'
'tw'
'tolerate_'
'titu'
'thirdly_'
'thereit_'
't4_'
'swear_'
'swarm'
'sunw'
'steves_'
'steepl'
'standardi'
'spacey_'
'sole'
'slovenia_'
'slov'
'sley_'
'singular_'
'screw'
'saskatoon_'
'runa'
'rub_'
'roped_'
'roomb'
'riot_'
'ricardo_'
'returni'
'restaurantand_'
'repl'
'remnants_'
'rejuvenate'
'rear'
'rdo'
'pv'
'provincial_'
'prostitutes_'
'prima'
'powerscourt_'
'playacar_'
'platters_'
'perm'
'parkthe_'
'outla'
'objects_'
'none'
'nighter_'
'nerve_'
'negr'
'nate'
'musician_'
'monotonous_'
'mix'
'mention'
'medellin_'
'matin'
'marker_'
'leura_'
'juneau_'
'jah'
'jackhammer'
'ith'
'ista'
'ill'
'hofn_'
'hani'
'groves_'
'grandiose_'
'graci'
'glas'
'gian'
'garh_'
'fur_'
'funand_'
'franchise'
'fox'
'fob'
'ersa'
'equipments_'
'effic'
'downi'
'deco'
'deaf_'
'daz'
'cranberry_'
'conce'
'comfortablei'
'chao_'
'cease'
'casey'
'cairn'
'blooming_'
'bht_'
'bett'
'ax'
'arteri'
'aps'
'andg'
'aire'
'againo'
'againh'
'< '
'5k'
'304_'
'1920s_'
'1400_'
'..._'
' ) ) '
'yul'
'yin'
'yellow'
'yas'
'yama'
'xic'
'vaca'
'uru_'
'unsavo'
'unhurried_'
'undis'
'ulu'
'tut_'
'titi'
'tidy'
'thl'
'tann'
'sweltering_'
'sutera_'
'sunn'
'staffi'
'splendor_'
'somet'
'skimp'
'sergio_'
'scha'
'sakura_'
'rovinj_'
'resorti'
'rebecca_'
'raya'
'quail_'
'puna'
'pue'
'publici'
'pos'
'ports'
'portico_'
'planters_'
'pizza'
'perfecti'
'pei_'
'parthenon_'
'overcast_'
'onne_'
'onc'
'oily_'
'officious_'
'nos'
'noisei'
'niceo'
'nicaragua_'
'mooring'
'moor'
'month'
'mental'
'measured_'
'mea'
'maspalomas_'
'mala_'
'mainz_'
'lori'
'locationi'
'limb'
'lightening_'
'leon'
'landi'
'kumar'
'kinks_'
'itb'
'investigat'
'infant_'
'immersed_'
'imm'
'iere'
'hotelal'
'herei_'
'heb'
'handrail'
'handheld_'
'haa'
'given'
'fr_'
'flock_'
'floats_'
'fargo_'
'fanta'
'fabulous'
'exi'
'eration_'
'engl'
'ely'
'edgar_'
'dtw_'
'dove_'
'dau'
'crosses_'
'credits_'
'craz'
'complaint'
'compelled_'
'comi'
'cogn'
'cigars_'
'centreso_'
'cc'
'captiva'
'capt'
'butto'
'breaka'
'boost_'
'bleach_'
'bana'
'baku_'
'aus'
'attack'
'annually_'
'annexe'
'amen'
'albans_'
'activites_'
'305_'
' ?'
' ..............'
' ( ? ) '
'zn'
'zel'
'zal'
'yield'
'wur'
'wrongly_'
'wicker_'
'whiskies_'
'vida'
'venti'
'var_'
'unpo'
'tuck'
'tsi'
'trun'
'transatlantic_'
'theft_'
'tendency_'
'temperat'
'tally_'
'sword'
'suffolk_'
'stur'
'stub'
'specta'
'skinny_'
'sime'
'sib'
'settees_'
'scop'
'sana_'
'sagged_'
'ryde'
'rry_'
'ricks'
'ress'
'responsiveness_'
'reservoir_'
'reci'
'ration'
'quests_'
'puzzle'
'puls'
'pti'
'praises_'
'prairie_'
'portray'
'plen'
'photo'
'phl_'
'phan'
'parag'
'overla'
'optim'
'omel'
'oceana_'
'nz'
'nyt'
'nipp'
'nightit_'
'monthly_'
'mayakoba_'
'maxi'
'marcus_'
'manc'
'madero_'
'lex'
'levi'
'lder'
'lagos_'
'jen'
'inw'
'inbut_'
'imp'
'ifc_'
'hotelho'
'holly_'
'hash'
'grapevine_'
'grade'
'gleaming_'
'gimmick'
'gia_'
'geta'
'gart'
'functional'
'friedrichstrasse_'
'fonda'
'flame_'
'fix'
'fiasco_'
'fave_'
'ext_'
'exercising_'
'except'
'everywherewe_'
'eveningi'
'espe'
'erik'
'ening_'
'endorse_'
'embarking_'
'educated_'
'dwi'
'duck'
'drill_'
'dies_'
'denmark_'
'delica'
'definit'
'deansgate_'
'deafening_'
'crumble_'
'cotta_'
'coro'
'cobblestones_'
'claudia_'
'chos'
'chipping_'
'cheated_'
'celeb'
'cardinal'
'cantonese_'
'breakfasto'
'bracelet'
'belt'
'bela'
'ballet_'
'bahama_'
'attracting_'
'asto'
'arra'
'apologising_'
'andu'
'andlo'
'alu'
'advisor'
'86_'
'601'
'4star_'
'306_'
'2min_'
'$'
'ée_'
'xing_'
'woeful_'
'whimsical_'
'vital'
'vaguely_'
'vacation'
'uvr'
'urn'
'untidy_'
'tuf'
'tso'
'trad'
'tos_'
'toba'
'tibetan_'
'tape'
'swivel'
'stacks_'
'squi'
'soiled_'
'shifted_'
'shakes_'
'shaft'
'sde'
'satisf'
'samb'
'rell'
'rej'
'recumbent_'
'reassured_'
'rae'
'quarter'
'porte_'
'plate'
'parade'
'oun'
'nsa'
'notorious_'
'nando'
'naka'
'mph_'
'mow'
'motorized_'
'molly_'
'moi'
'moderniz'
'mig'
'meeru_'
'mediter'
'media'
'mealtimes_'
'meagre_'
'marquee_'
'macaroons_'
'leth'
'lady'
'kyle_'
'khajuraho_'
'julio_'
'jak'
'jacob_'
'isw'
'isu'
'intern'
'intact_'
'inso'
'inne'
'impresses_'
'imo'
'iche'
'icelandair_'
'hro'
'hollow_'
'hibiscus_'
'henri'
'hakone_'
'hairdresser_'
'gris'
'grati'
'gend'
'gautrain_'
'fray'
'flicker'
'fingertips_'
'fah'
'erthe_'
'erc'
'enhanc'
'enchanted_'
'emphasize_'
'ecuador_'
'eaton_'
'ean'
'drafty_'
'downtowni'
'disappears_'
'daybut_'
'cupcakes_'
'croc'
'crea'
'contradict'
'contract'
'constructions_'
'complain'
'cleanness_'
'cious_'
'choo'
'cheat'
'cava'
'casi'
'byw'
'butf'
'brussel'
'briefing_'
'boug'
'borr'
'bisma'
'billi'
'baza'
'bas_'
'awar'
'arma'
'ario'
'alit'
'albertson'
'aggravati'
'affi'
'aff'
'206_'
' . " _'
' " ) , _'
'zet'
'yard'
'yale_'
'xed_'
'workthe_'
'wd'
'visibly_'
'vinc'
'tse'
'travell'
'tract'
'townit_'
'tig'
'thy'
'tana'
'swiming_'
'swh'
'suspended_'
'stride'
'str'
'stow_'
'sojourn_'
'skill'
'siting_'
'shula_'
'shipped_'
'shenandoah_'
'sensitiv'
'ridge'
'resolving_'
'redevelopment_'
'quiz_'
'productive_'
'prey_'
'police'
'planner_'
'placei_'
'pitiful_'
'pave'
'patterns_'
'paste_'
'particular'
'orth'
'ordina'
'opi'
'oft'
'oar'
'nyc'
'nost'
'nba'
'nadi'
'morne_'
'mitsu'
'misunderstanding_'
'meno'
'materialise'
'marts_'
'maritim_'
'mamma'
'lum'
'luc'
'lor'
'locationw'
'lemon'
'krak'
'judy_'
'javier_'
'invitation_'
'instruct'
'industri'
'incidents_'
'icc_'
'hygienic_'
'humorous_'
'hore_'
'hare'
'grime_'
'grander_'
'gia'
'geni'
'gea'
'gastown_'
'furniture'
'fremont_'
'fleet'
'eze_'
'ermo'
'episode_'
'ency'
'encourages_'
'employe'
'elle'
'elin'
'elder'
'effect'
'duque_'
'dumpsters_'
'driftwood_'
'depart'
'debbie_'
'cultur'
'crai'
'cke'
'chil'
'cherish'
'charmed_'
'capsule_'
'canno'
'cancel'
'cabbage_'
'brews_'
'blow'
'bauer_'
'attention'
'atten'
'athi'
'aru_'
'architects_'
'arca'
'angl'
'alleg'
'againg'
'affordab'
'activi'
'abruptly_'
'260_'
' 😊'
' —_'
' . )'
' $ $ $ _'
'zuri'
'zoologi'
'wr'
'whitt'
'waverly_'
'vid'
'vers'
'vanessa_'
'unsettling_'
'uniformed_'
'tz'
'tup'
'tine'
'sz'
'surge'
'struggles_'
'stroller_'
'stranger_'
'stops'
'spotter'
'spitting_'
'spaces'
'shwe_'
'shortest_'
'shepherd_'
'sham_'
'sga'
'sesame_'
'schi'
'samsung_'
'samp'
'roomsi_'
'refr'
'ramparts_'
'quali'
'ptu'
'propertyi'
'pring'
'postage_'
'pins_'
'patronize'
'papaya_'
'paned_'
'owls_'
'ose'
'orvieto_'
'oer'
'obsequious_'
'noo'
'nect'
'ncie'
'moneyand_'
'mold'
'meatballs_'
'mckinley_'
'mbe'
'maldron_'
'mack'
'lub'
'lef'
'lastminute_'
'lade'
'jess'
'jb'
'japan'
'janet_'
'italians_'
'ished_'
'internationally_'
'intention'
'inspect_'
'icecream_'
'human'
'hubs_'
'holi'
'highl'
'haunt_'
'hatte'
'hanga'
'hallway'
'guarantees_'
'graceful_'
'globus_'
'gc'
'gato'
'frenzy_'
'forming_'
'figu'
'fiddl'
'fav'
'fati'
'extract'
'exploit'
'enza'
'emporium_'
'eep'
'duv'
'drifte'
'drake_'
'dowdy_'
'doubl'
'doori'
'domain_'
'dissappointed_'
'delft_'
'deg_'
'daya'
'curiously_'
'conscientious_'
'commute'
'commentary_'
'cide'
'chopped_'
'catalonia_'
'butn'
'butbreakfast_'
'busi'
'bona'
'bolton_'
'boasted_'
'blacks'
'biased_'
'basing'
'bargain'
'ballston_'
'bail'
'backwater_'
'backbut_'
'av'
'astonished_'
'appi'
'ania_'
'andst'
'aligned_'
'alder'
'aerobic_'
'activate_'
'221'
'1a'
'141'
'..'
' ............'
' ( ! )_'
'zle'
'yuk'
'yucatan_'
'wifithe_'
'weekends'
'wayi'
'wang'
'venezia_'
'utilise_'
'uta_'
'usi'
'unprepared_'
'unlock_'
'ully_'
'uan_'
'tze'
'trasse_'
'teat'
'swan'
'stea'
'starving_'
'southbound_'
'sonn'
'solent_'
'smog_'
'smart'
'showcase_'
'sell'
'segment_'
'seek'
'sanda'
'routin'
'reston_'
'resona'
'recp'
'reat'
'ravello_'
'ramp'
'railing_'
'pse'
'prot'
'pricei'
'pret_'
'prep_'
'ppr'
'porter'
'pod'
'plunger_'
'plug'
'pilates_'
'phon'
'pensione'
'parkade_'
'panache_'
'outlying_'
'onet'
'omni'
'northumberland_'
'nigh_'
'nder_'
'nak'
'monk_'
'mints_'
'mh'
'maz'
'mater'
'mag_'
'louis'
'longe'
'llamas_'
'letter'
'lated_'
'lambeau_'
'kale_'
'juice'
'ju_'
'jacque'
'impos'
'imma'
'ibi'
'hotspots_'
'horrified_'
'heatwave_'
'hannah_'
'halekulani_'
'gift'
'gest'
'futuristic_'
'freestanding_'
'forward'
'fors'
'fold'
'foc_'
'flavorful_'
'favourably_'
'favour'
'facilitated_'
'erry_'
'enie'
'eliminat'
'eff'
'drenched_'
'draining_'
'donn'
'dividing_'
'disgusted_'
'disconnect'
'discern'
'dinnerw'
'deliberat'
'cowboys_'
'conditioning'
'column_'
'chef'
'certain'
'centur'
'brentwood_'
'boule'
'beneficial_'
'belonged_'
'bedspreads_'
'bare'
'arta'
'arranges_'
'armour'
'armo'
'arab'
'appre'
'angu'
'alter'
'alpha'
'alla'
'airl'
'acr'
'a9_'
']_'
'145_'
'1100_'
'!!!!'
' !* _'
'‘_'
'yeo'
'wrong'
'winters_'
'whoo'
'whats'
'vre'
'voted_'
'verna'
'vell'
'unwinding_'
'unsuccessful'
'undr'
'turk'
'trot'
'trati'
'tournaments_'
'thur_'
'thisand_'
'surpri'
'sunro'
'summarise_'
'stomping_'
'steri'
'sita'
'simultaneously_'
'shek'
'servicea'
'scandinavia_'
'savour_'
'said'
'royce_'
'roome'
'roomc'
'rge'
'revere_'
'resonable_'
'reserv'
'relati'
'recomend'
'receptionist'
'ranc'
'railings_'
'pso'
'priory_'
'picasso_'
'persiste'
'pause_'
'overst'
'overprice'
'overhea'
'ov'
'omelet'
'northb'
'nightmar'
'nho'
'moy'
'morris_'
'mim'
'microwav'
'marc'
'mapp'
'mab'
'loudest_'
'lorenzo_'
'loops_'
'loan'
'lifes'
'lans'
'kum'
'kits_'
'khun_'
'kana'
'jing_'
'jbr_'
'iran'
'intrusion_'
'ingen'
'indore_'
'imes_'
'hotelsthe_'
'hotelo'
'hack'
'guin'
'grain'
'gradua'
'gecko'
'fram'
'forte_'
'foreigner_'
'flowed_'
'fb'
'fana'
'faceless_'
'expect'
'examin'
'entries_'
'enthus'
'endan'
'ej'
'eastbourne_'
'dumplings_'
'drone_'
'dragon'
'disgraceful_'
'disg'
'devils_'
'desktop_'
'deskthe_'
'dde'
'darling'
'console_'
'compete'
'comic'
'color'
'coach'
'clunky_'
'circum'
'choir_'
'chambermaid_'
'cell'
'cass'
'candid'
'caen_'
'cado'
'buddhist_'
'bud_'
'brilliant'
'bercy_'
'benefitted_'
'bends_'
'beaut'
'awasi_'
'availab'
'arno_'
'armand'
'aquatic_'
'andco'
'ami_'
'alon'
'alberto_'
'alarm'
'aboard_'
'122_'
'111'
'0pm_'
'*'
'!)'
' ;-) '
' :) '
' . ...'
'zz_'
'yat'
'wonder'
'weeds_'
'wanda_'
'verandas_'
'varenna_'
'upl'
'treasury_'
'traveler'
'tra_'
'today'
'till'
'tighte'
'thrilling_'
'task'
'tampere_'
't5_'
'swift'
'stampede_'
'splashed_'
'southw'
'sort'
'sigh_'
'shiv'
'servicem'
'seep'
'sears_'
'scene'
'sagging_'
'rosette'
'ric_'
'rhone_'
'revol'
'relish_'
'released_'
'raving_'
'provo_'
'protecti'
'prayers_'
'ponder'
'ply'
'plow'
'plitvice_'
'placeth'
'pest'
'perce'
'pb'
'parfait_'
'paradisus_'
'overlo'
'orf'
'orangutan'
'opryland_'
'og_'
'ntin'
'nish'
'ners_'
'natur'
'murder_'
'mpt'
'mountains'
'morgantown_'
'moore'
'moody_'
'moher_'
'mew'
'medici'
'massa'
'mars_'
'lyth'
'lyand_'
'lrt_'
'lq_'
'lp_'
'lombard_'
'logy_'
'lih'
'licence_'
'laneway_'
'kloof_'
'kka'
'kenilworth_'
'kahala_'
'junction'
'jorda'
'jett'
'itf'
'infl'
'ind'
'ilt'
'iguana_'
'herewe_'
'harper'
'guis'
'guana'
'grilling_'
'gren'
'graze_'
'gorm'
'glove'
'ghte'
'ghetto_'
'gee'
'gb_'
'gage_'
'floo'
'fines'
'fier'
'fau'
'fantasi'
'facil'
'evora_'
'euros'
'endeavo'
'embarrassment_'
'elysee_'
'edm'
'dunkeld_'
'distractions_'
'destroy'
'decay'
'dearborn_'
'dayb'
'cultures_'
'ctions_'
'couldn_'
'conferencing_'
'circulate'
'chul'
'chim'
'char_'
'ceviche_'
'captains_'
'canyon'
'butho'
'bub'
'broccoli_'
'brindley_'
'bosc'
'bocc'
'beverley_'
'berger'
'beli'
'behavi'
'bark'
'banbury_'
'bal_'
'baby'
'ator'
'assur'
'archway_'
'arche'
'andof_'
'anding_'
'affiliat'
'aerial_'
'adviser_'
'acrobat'
'accomp'
'abounds_'
'wenceslas_'
'vem'
'vari'
'unrea'
'unimp'
'unforgiv'
'trough_'
'towni_'
'total'
'torches_'
'tered_'
'tche'
'tapp'
'stir'
'stinks_'
'stayi'
'stationed_'
'spie'
'spaci'
'slam'
'shelburne_'
'sey'
'segway_'
'seawa'
'saucer'
'sandos_'
'saga_'
'sacrific'
'rys'
'rsl_'
'roomm'
'roast'
'restraint'
'rence'
'qe'
'pta'
'priorities_'
'podium_'
'platin'
'pipe'
'persuaded_'
'pep'
'pennin'
'penguin_'
'palette_'
'paired_'
'outbuildings_'
'ourne_'
'osa'
'orne_'
'orc'
'onder'
'northwestern_'
'nightst'
'niag'
'natura_'
'nankai_'
'morse'
'miyako_'
'miya'
'mirabell'
'mining_'
'middlebur'
'merli'
'medora_'
'mbo'
'mattered_'
'mars'
'mangroves_'
'maintain'
'maharaja'
'magna_'
'liners_'
'lending_'
'lazi'
'laurel_'
'laugh'
'lasagne_'
'kro'
'knack'
'kick'
'jura'
'jua'
'joi'
'issa'
'isb'
'inspiration_'
'inhabit'
'inex'
'incons'
'hort'
'hol_'
'hero_'
'hep'
'heav'
'handicraft'
'guil'
'giu'
'ghats_'
'geography_'
'funk'
'frontier_'
'ffic'
'feli'
'exemp'
'ett'
'eral'
'elbow_'
'eerie_'
'dying_'
'duct_'
'dram'
'downward'
'distinguished_'
'dips_'
'decorate_'
'dand'
'crawle'
'cradle_'
'coordination_'
'cone'
'conde'
'compli'
'clusters_'
'celtic_'
'cater'
'cama'
'butwhen_'
'butthe'
'butche'
'broadcast'
'blog'
'beast_'
'baton_'
'awayso_'
'assembly_'
'ass_'
'artist'
'arou'
'apa'
'antoine_'
'anthe'
'andina_'
'andin'
'aly_'
'alvear_'
'allth'
'99'
'67_'
'4000_'
'25mins_'
'222_'
'212_'
' .-'
' . :-)_'
' , ) _'
' ) -- _'
' ' . _'
' ! ! ! ) '
'ywa'
'yelled_'
'wisely_'
'wight_'
'weeks'
'weathers'
'walkin_'
'vik'
'unspoiled_'
'unpro'
'unmade_'
'undul'
'underl'
'trace_'
'tombstone_'
'toleran'
'tk'
'terracotta_'
'tanks_'
'stif'
'stick'
'stewed_'
'stav'
'stau'
'southsea_'
'sightseeing'
'sidethe_'
'shirley_'
'screening_'
'riser_'
'rev'
'retrieving_'
'relocati'
'rehoboth_'
'rehears'
'rehab'
'regulations_'
'regents_'
'redmond_'
'recogniz'
'recognis'
'rech'
'receptioni'
'rant'
'raki_'
'quai'
'proportions_'
'pret'
'ppa'
'poznan_'
'polluted_'
'poet'
'palatable_'
'ovely_'
'outth'
'onbut_'
'omlets_'
'omina'
'oldt'
'oing_'
'officers_'
'noisythe_'
'nash'
'moonlight_'
'monet'
'minuets_'
'mia'
'mere'
'mendoza_'
'mate'
'malt_'
'malibu_'
'maggie_'
'loitering_'
'liver'
'launceston_'
'kuna'
'kebabs_'
'joa'
'jean'
'jaguar_'
'item'
'irritat'
'intl_'
'intercom_'
'inst'
'injured_'
'iel'
'idle_'
'ices_'
'hotelwh'
'hotelno'
'hospitali'
'hole'
'hest'
'hama_'
'halt'
'grouse_'
'greenfield_'
'greats'
'gere'
'gani'
'fuse'
'fult'
'fren'
'floorw'
'floorso_'
'figures_'
'fee'
'factor'
'expedite'
'everyti'
'esto'
'eq'
'epernay_'
'embar'
'elliot'
'dumpy_'
'duc'
'doc_'
'distanceand_'
'displaying_'
'dick'
'despa'
'decker_'
'dearer_'
'damp'
'damm_'
'cushioned_'
'cum'
'crock'
'controlling_'
'compl'
'columb'
'clove'
'cleani'
'centreand_'
'carbon'
'carafe_'
'brune'
'brin'
'bridal_'
'bowness_'
'blur'
'blun'
'bian'
'barring'
'barl'
'bark_'
'backi_'
'ashb'
'appr'
'aph'
'andf'
'almaty_'
'albu'
'airporta'
'airco'
'agre'
'againshould_'
'acl'
'88'
'50m'
'45th_'
' ( + '
' ( ! ! '
' " ; _'
' ! :'
'zep'
'yv'
'xy'
'wu_'
'whisper'
'whc'
'wengen_'
'von_'
'void_'
'visitwe_'
'vern'
'vee'
'vati'
'variety'
'vacated_'
'unrel'
'undergo'
'ull_'
'tumble_'
'tidied_'
'thamel_'
'test'
'ters'
'tallin'
'swat'
'suns'
'stink_'
'stad'
'spraying_'
'soufflé_'
'sot'
'sonic_'
'softball_'
'slowed_'
'sevice_'
'seventies_'
'sashimi_'
'sarajevo_'
'sandba'
'rumo'
'roca'
'robbi'
'riff'
'reversing_'
'restauant'
'restarant'
'respective_'
'resp'
'repri'
'receptions'
'questioning_'
'prevents_'
'photocop'
'overloaded_'
'outstanding'
'outi_'
'osh'
'offa'
'nast'
'nara_'
'muni_'
'montr'
'mme'
'minn'
'milestone'
'magellan_'
'lud'
'lens'
'leg'
'largish_'
'kabu'
'kaba'
'judged_'
'jas'
'jaff'
'jab'
'ithe_'
'ingwe_'
'ingdon_'
'infi'
'imbi'
'guinea_'
'grumbl'
'ging'
'genu'
'gauch'
'foodw'
'fistral_'
'filming_'
'fate'
'famil'
'exude_'
'expected'
'etci_'
'esthe'
'enf'
'dit_'
'dispa'
'demolished_'
'demi'
'creen_'
'coombe_'
'compen'
'cic'
'chilis_'
'chambermaids_'
'centred_'
'celsius_'
'cellphone_'
'cayman_'
'businessman_'
'bursting_'
'breed'
'bonnet_'
'bodega_'
'blus'
'blond_'
'being'
'bahrain_'
'babysitt'
'aviemore_'
'autos'
'asti'
'anders'
'alta_'
'alda_'
'akureyri_'
'aku'
'airfield_'
'advert_'
'acquired_'
'36th_'
'207_'
'1940'
' ]_'
' , .'
' ! ! ! ) ._'
'ça_'
'zoo'
'wether_'
'wake'
'wade_'
'vibrate'
'veda'
'ute'
'usi_'
'uri_'
'upr'
'uo_'
'unnerving_'
'undertak'
'trib'
'triangular_'
'treetops_'
'translat'
'thick'
'thanking_'
'tagged_'
'streetth'
'stom'
'stit'
'stayb'
'staffo'
'ssing_'
'sprays_'
'spectacle_'
'specialize'
'sothe_'
'sorry'
'sneez'
'sleepthe_'
'sink'
'shutt'
'shira'
'sex'
'scheduling_'
'salva'
'saffron_'
'riyadh_'
'revving_'
'rene_'
'reina_'
'ramo'
'proportion_'
'praised_'
'peer_'
'peek'
'overnighted_'
'outf'
'oura'
'organise'
'operative_'
'oneself_'
'oceani'
'observing_'
'object'
'northbound_'
'nath'
'monster_'
'modernising_'
'maho'
'lust'
'lti'
'loose'
'locationwe_'
'lles'
'litl'
'lifts'
'lifeless_'
'johan'
'jem'
'je_'
'itthis_'
'ingf'
'highwaybut_'
'helicopters_'
'hark'
'hairdr'
'hailing_'
'gurgl'
'goodb'
'genius_'
'fu_'
'fringe'
'fridge'
'ford'
'expla'
'exclude'
'etcbut_'
'enz'
'entail'
'endured_'
'emphasise'
'dumfries_'
'downton_'
'dosa_'
'diver_'
'discourage_'
'disabilities_'
'differing_'
'cutt'
'curios'
'crem'
'clubb'
'cita'
'cheer'
'checkin'
'chairs'
'carb'
'campus'
'burst_'
'bros_'
'breakfest_'
'breakfastb'
'birthday'
'bilingual_'
'beam_'
'bass'
'basil'
'bain'
[...]
