'<pad>'
'<EOS>'
'<GO>'
'<OOV>'
'<DOC>'
'</DOC>'
'the_'
' ._'
'and_'
' , _'
'a_'
'to_'
'was_'
'is_'
'in_'
'of_'
'hotel_'
'we_'
'for_'
'it_'
'i_'
'very_'
'with_'
'this_'
'on_'
'room_'
'you_'
'at_'
'but_'
'are_'
'were_'
'good_'
'from_'
' - _'
'not_'
'that_'
'there_'
'as_'
'great_'
'staff_'
'had_'
'our_'
'stay_'
's_'
'have_'
'all_'
'nice_'
'location_'
'breakfast_'
' '_'
'be_'
'which_'
'so_'
'would_'
'area_'
' ( _'
'rooms_'
'an_'
'if_'
't_'
'n_'
'one_'
'they_'
'my_'
'service_'
'well_'
''_'
'here_'
'walk_'
'just_'
'out_'
' !_'
'by_'
'friendly_'
'also_'
'food_'
'or_'
'excellent_'
'stayed_'
'night_'
'no_'
'restaurant_'
'place_'
'_'
'only_'
'about_'
'comfortable_'
'did_'
'us_'
'again_'
'restaurants_'
'has_'
'get_'
'pool_'
'can_'
'when_'
'up_'
'really_'
'close_'
' ) _'
'do_'
'time_'
'view_'
'will_'
'helpful_'
'bar_'
'some_'
'clean_'
'airport_'
' . _'
'other_'
'right_'
'small_'
'could_'
'parking_'
'located_'
'back_'
'large_'
'city_'
'free_'
'check_'
'town_'
'front_'
'next_'
'around_'
'like_'
'lovely_'
'easy_'
'more_'
'day_'
'quiet_'
'bed_'
'beach_'
' / _'
'away_'
'best_'
'your_'
'minutes_'
'street_'
'than_'
' " _'
'little_'
'walking_'
'two_'
'go_'
'many_'
'desk_'
'too_'
'after_'
'floor_'
'beautiful_'
'park_'
'bathroom_'
'me_'
'2_'
'main_'
'much_'
'even_'
'5_'
'what_'
' ) ._'
'over_'
'way_'
'station_'
'car_'
'bit_'
'recommend_'
'quite_'
'its_'
'most_'
'off_'
'first_'
' ' _'
'reception_'
'where_'
'old_'
'outside_'
'their_'
'been_'
'hotels_'
'few_'
'distance_'
'definitely_'
'everything_'
'into_'
'near_'
'perfect_'
' & _'
'wonderful_'
'down_'
'road_'
'property_'
'within_'
'lobby_'
'views_'
'nights_'
'visit_'
'10_'
'dinner_'
'spacious_'
'who_'
'business_'
'always_'
'need_'
'see_'
'short_'
'however_'
'find_'
'being_'
'across_'
'made_'
'better_'
'lot_'
'although_'
'convenient_'
'3_'
'morning_'
'because_'
'want_'
'people_'
'trip_'
' : _'
'side_'
'though_'
'any_'
'buffet_'
'big_'
'choice_'
'water_'
'shopping_'
'door_'
'lots_'
'shower_'
'plenty_'
'centre_'
'new_'
'price_'
'noise_'
'found_'
'take_'
'both_'
'shuttle_'
'experience_'
'minute_'
'pleasant_'
'modern_'
'while_'
'every_'
'nearby_'
'overall_'
'then_'
'make_'
'resort_'
'd_'
'inn_'
'drive_'
'enjoyed_'
'coffee_'
'center_'
'building_'
'got_'
'evening_'
'amazing_'
'quality_'
'enough_'
'._'
'fantastic_'
'before_'
'use_'
'long_'
'far_'
'access_'
'return_'
' ; _'
'downtown_'
'hot_'
'staying_'
'beds_'
'bus_'
'busy_'
'top_'
'etc_'
'during_'
'4_'
'value_'
'through_'
'part_'
'1_'
'size_'
'nothing_'
'high_'
'lounge_'
'train_'
'pretty_'
'them_'
'wifi_'
'booked_'
'efficient_'
'went_'
'fine_'
'central_'
'places_'
'still_'
'looking_'
'going_'
'feel_'
'took_'
'available_'
'eat_'
'local_'
'am_'
'river_'
'arrived_'
'guests_'
'huge_'
'ok_'
' ... _'
'full_'
'worth_'
'he_'
'especially_'
'early_'
'times_'
'another_'
'15_'
'shops_'
'several_'
'dining_'
'expensive_'
'e_'
'areas_'
'taxi_'
'standard_'
'itself_'
'extremely_'
'facilities_'
'sure_'
'suite_'
'days_'
'having_'
'come_'
' ) , _'
'special_'
'work_'
'does_'
'end_'
'highly_'
'couple_'
'each_'
'stop_'
're_'
' $ _'
'family_'
'spa_'
'open_'
'quick_'
'say_'
'options_'
'happy_'
'look_'
'sea_'
'balcony_'
'same_'
'20_'
'think_'
'lake_'
'loved_'
'hour_'
'drinks_'
'never_'
'used_'
'-_'
' ’_'
'last_'
'things_'
'welcome_'
'such_'
'tv_'
'should_'
'decent_'
'said_'
'overlooking_'
'mall_'
'without_'
'enjoy_'
'space_'
'given_'
'house_'
'sleep_'
'm_'
'looked_'
'needed_'
've_'
'warm_'
'grounds_'
'along_'
'problem_'
'amenities_'
'star_'
'included_'
'bars_'
'30_'
'ca_'
'club_'
'she_'
'second_'
'how_'
'selection_'
'try_'
'able_'
'late_'
'plus_'
'including_'
'thing_'
'less_'
'asked_'
'ever_'
'three_'
'y_'
'left_'
'holiday_'
'tour_'
'told_'
'rather_'
'fresh_'
'rate_'
'seemed_'
'traffic_'
'since_'
'certainly_'
'meal_'
'air_'
'probably_'
'reasonable_'
'expect_'
'money_'
'noisy_'
' ..._'
'cold_'
'hard_'
'situated_'
'wanted_'
'bad_'
'entrance_'
'set_'
'square_'
'visiting_'
'internet_'
'gym_'
'served_'
'superb_'
'offer_'
'spent_'
'garden_'
'love_'
'help_'
'due_'
'wine_'
'provided_'
'ed_'
'different_'
'concierge_'
'’_'
'getting_'
'once_'
'know_'
'weekend_'
'super_'
'tea_'
'arrival_'
'drink_'
'welcoming_'
'felt_'
'- _'
'extra_'
'course_'
'ing_'
'home_'
'came_'
'6_'
'bath_'
'year_'
'style_'
'hours_'
'bedroom_'
'ride_'
'appointed_'
'offered_'
'delicious_'
'may_'
'public_'
'own_'
'metro_'
'professional_'
'marriott_'
'those_'
'attentive_'
'between_'
' -- _'
'must_'
'safe_'
'hilton_'
'o_'
'week_'
'real_'
'relaxing_'
'average_'
'site_'
'swimming_'
'checked_'
'lunch_'
'st_'
'menu_'
'ocean_'
'table_'
'corner_'
'level_'
'absolutely_'
'years_'
'fast_'
'makes_'
'7_'
'everyone_'
'kids_'
'now_'
', _'
'manager_'
'ask_'
'middle_'
'needs_'
' ,_'
'something_'
'lodge_'
'mins_'
'island_'
'll_'
'gave_'
'thought_'
'choices_'
'window_'
'pay_'
'number_'
'world_'
'almost_'
'block_'
'attractions_'
'these_'
'outstanding_'
'ate_'
'king_'
'wait_'
'fabulous_'
'grand_'
'actually_'
'flight_'
'hear_'
'book_'
'inside_'
'facing_'
'light_'
'/_'
'give_'
'comfy_'
'above_'
'courtyard_'
'else_'
'complimentary_'
'bay_'
'order_'
'point_'
'spot_'
'anything_'
'either_'
'gardens_'
'travel_'
'poor_'
'offers_'
'blocks_'
'reviews_'
'decor_'
'done_'
'making_'
'called_'
'private_'
'sit_'
' -_'
'ideal_'
'chose_'
' ! !_'
'prices_'
'run_'
'highway_'
'whole_'
'windows_'
'pm_'
'recommended_'
'limited_'
'start_'
'others_'
'fun_'
'easily_'
'south_'
'worked_'
'slow_'
'per_'
'his_'
'kept_'
'walked_'
'put_'
' ! _'
'luggage_'
'towels_'
'until_'
'cost_'
'min_'
'guest_'
'8_'
'four_'
'nt_'
'setting_'
'nicely_'
'fairly_'
'line_'
'half_'
'variety_'
' £ _'
'working_'
'priced_'
'outdoor_'
'throughout_'
'kind_'
'market_'
'atmosphere_'
'london_'
'wife_'
' )_'
'separate_'
'interesting_'
'la_'
'double_'
'choose_'
'her_'
'b_'
'fact_'
'meals_'
'deal_'
'stunning_'
'seems_'
'tourist_'
'major_'
'issue_'
'north_'
'five_'
'usual_'
'maintained_'
'charge_'
'member_'
'adequate_'
'sitting_'
'pools_'
'coming_'
'housekeeping_'
'decided_'
'despite_'
' ?_'
'leave_'
'particularly_'
'might_'
'paid_'
'liked_'
'terrace_'
'polite_'
'golf_'
'miles_'
'anywhere_'
'afternoon_'
'basic_'
'tub_'
'option_'
'person_'
'conference_'
'english_'
'recently_'
'directly_'
'booking_'
'difficult_'
'fruit_'
'shop_'
'looks_'
'keep_'
'call_'
'cooked_'
'valet_'
':_'
'cheap_'
'eating_'
'weather_'
'let_'
'group_'
'anyone_'
'relax_'
'reasonably_'
'behind_'
'equipped_'
'least_'
'decorated_'
'heart_'
'bathrooms_'
'under_'
'eggs_'
'ready_'
'kitchen_'
'expected_'
'village_'
'suites_'
'overnight_'
'upon_'
'historic_'
'class_'
'chairs_'
'opposite_'
'dated_'
'yet_'
'upgraded_'
'sun_'
'friends_'
'rest_'
'why_'
'hampton_'
'store_'
'impressed_'
'disappointed_'
'dark_'
'typical_'
'pillows_'
' .. _'
'customer_'
'perfectly_'
'conveniently_'
'spend_'
'tired_'
'awesome_'
'hill_'
'thank_'
'enjoyable_'
'whilst_'
'fitness_'
'west_'
'truly_'
'luxury_'
'cool_'
'( _'
'touch_'
'steps_'
'care_'
'seem_'
'executive_'
'spectacular_'
'driving_'
'charming_'
'past_'
'taking_'
'team_'
'sized_'
'r_'
'mile_'
'yes_'
'takes_'
'pick_'
'courteous_'
'thanks_'
'upgrade_'
'waiting_'
'activities_'
'saw_'
'everywhere_'
'base_'
'tried_'
'otherwise_'
'buildings_'
'glass_'
'adjacent_'
'exceptional_'
'motel_'
' ., _'
'9_'
'simply_'
'ground_'
'gorgeous_'
'loud_'
'management_'
'break_'
'unfortunately_'
'wall_'
'job_'
'breakfasts_'
'seating_'
'checking_'
'elevator_'
'fi_'
'turn_'
'quickly_'
'music_'
'visited_'
'later_'
'wi_'
'es_'
'except_'
'fridge_'
'watch_'
'items_'
'c_'
'points_'
'via_'
'mini_'
' .( _'
'maybe_'
'pub_'
'children_'
'design_'
'tasty_'
'crowded_'
' ...._'
'name_'
'husband_'
'subway_'
'handy_'
'meeting_'
'someone_'
'san_'
'greeted_'
'met_'
'closed_'
'seen_'
'young_'
'beautifully_'
'surrounding_'
'peaceful_'
'change_'
'driver_'
'impressive_'
'cafe_'
'district_'
'range_'
'furniture_'
'key_'
'returned_'
'50_'
'wedding_'
'reason_'
'entertainment_'
'office_'
'bridge_'
'proximity_'
'hall_'
'using_'
'western_'
'standards_'
'provide_'
'national_'
'doors_'
'chain_'
'accommodating_'
'country_'
'round_'
'explore_'
'museum_'
'general_'
'tiny_'
'slightly_'
'00_'
'review_'
'plaza_'
'floors_'
'issues_'
'soon_'
'terminal_'
'accommodation_'
'generally_'
'instead_'
'pleased_'
'living_'
'lady_'
'taken_'
'premier_'
'note_'
'show_'
'centrally_'
'head_'
'surprised_'
'phone_'
'boat_'
'future_'
'toilet_'
'l_'
'indoor_'
' .._'
'complex_'
'receptionist_'
'trying_'
'wish_'
'services_'
'transport_'
'arrive_'
'often_'
'25_'
'tables_'
'east_'
'tower_'
'harbour_'
'onto_'
'convention_'
'usually_'
'non_'
'sights_'
'below_'
'brilliant_'
'24_'
'wide_'
'entire_'
'low_'
'card_'
'construction_'
'wrong_'
'roof_'
'snacks_'
'single_'
'sites_'
'tram_'
'palace_'
'problems_'
'ly_'
'longer_'
'white_'
'forward_'
'fault_'
'u_'
'toiletries_'
'walls_'
'mountains_'
'attention_'
'request_'
'casino_'
'streets_'
'type_'
'patio_'
'received_'
'de_'
'underground_'
'compared_'
'12_'
'bonus_'
'negative_'
'100_'
'castle_'
'luxurious_'
'doing_'
'possible_'
'bags_'
'facility_'
'garage_'
'cruise_'
'comfort_'
'further_'
'members_'
'cab_'
'relatively_'
'literally_'
'lack_'
'11_'
'live_'
'somewhat_'
'self_'
'previous_'
'appreciated_'
'downside_'
'moment_'
'older_'
'helped_'
'port_'
'sound_'
'neighborhood_'
'delightful_'
'attractive_'
' – _'
'lift_'
'positive_'
'stops_'
'heard_'
'ample_'
'boutique_'
'fish_'
'directions_'
'brand_'
'terrific_'
'renovated_'
'stores_'
'machine_'
'convenience_'
'traveling_'
'beer_'
'party_'
'red_'
'apartment_'
'ferry_'
'trips_'
'perhaps_'
'arriving_'
'mention_'
'running_'
'already_'
'beyond_'
'incredible_'
'pricey_'
'reservation_'
'unique_'
'prepared_'
'disappointing_'
'information_'
'route_'
'man_'
'returning_'
'unless_'
'bring_'
'furnished_'
'built_'
'conditioning_'
'hope_'
'immediately_'
'families_'
'charm_'
'40_'
'stars_'
'turned_'
'summer_'
'various_'
'mountain_'
'hyatt_'
'smile_'
'game_'
'finally_'
'daily_'
'spread_'
'fair_'
'consider_'
'ng_'
'apart_'
'express_'
'reach_'
'sunset_'
'rates_'
'somewhere_'
'villa_'
'fire_'
'important_'
'twice_'
'simple_'
'interstate_'
'works_'
'system_'
'hand_'
'. _'
'based_'
'life_'
' .- _'
'international_'
'soft_'
'wo_'
'properties_'
'beat_'
'designed_'
'flat_'
'provides_'
'mind_'
'please_'
'overlooked_'
' ! ! !_'
'considering_'
'stairs_'
'plentiful_'
'&_'
'railway_'
'coast_'
'avoid_'
'trouble_'
'green_'
'art_'
'miss_'
'cheaper_'
'ice_'
'read_'
'favorite_'
'third_'
'lighting_'
'pleasure_'
'sunday_'
'means_'
'history_'
'added_'
'feeling_'
'higher_'
'edge_'
'continental_'
'presented_'
'vacation_'
'plan_'
'towards_'
'clearly_'
'taxis_'
'picked_'
'elevators_'
'totally_'
'exploring_'
'common_'
'position_'
'larger_'
'smaller_'
'opened_'
'security_'
'trees_'
'ago_'
'supermarket_'
'closer_'
'attached_'
'rooftop_'
'gets_'
'accessible_'
'watching_'
'dishes_'
'exit_'
'popular_'
'travelling_'
'freeway_'
'surprise_'
'g_'
'move_'
'valley_'
'ordered_'
'treat_'
'case_'
'expectations_'
'foot_'
'leaving_'
'advantage_'
'tube_'
'screen_'
'strip_'
'er_'
'mentioned_'
'italian_'
'bright_'
' .... _'
'event_'
'offering_'
'complaint_'
'managed_'
'saturday_'
'seeing_'
'package_'
'downstairs_'
'buses_'
'starbucks_'
'indeed_'
'stroll_'
'functional_'
'canal_'
'ten_'
'straight_'
'pressure_'
'fully_'
'stations_'
'clear_'
'true_'
'believe_'
'personal_'
'chair_'
'goes_'
'cafes_'
'chef_'
'french_'
'notch_'
'requested_'
'christmas_'
'queen_'
'direct_'
'regular_'
'list_'
'sink_'
'lights_'
'sign_'
'completely_'
'placed_'
'pass_'
'mostly_'
'season_'
'unit_'
'transportation_'
'laundry_'
'tours_'
'surrounded_'
'particular_'
'arranged_'
'marina_'
'brought_'
'website_'
'le_'
'cleaning_'
'tourists_'
'slept_'
'euros_'
'finding_'
'bottle_'
'runs_'
'tell_'
'spaces_'
'numerous_'
'incredibly_'
'ended_'
'experienced_'
'cars_'
'serve_'
'harbor_'
'deck_'
'catch_'
'paying_'
'moved_'
'addition_'
'walks_'
'magnificent_'
'swim_'
'following_'
'gate_'
'stopped_'
'credit_'
'ones_'
'face_'
'lower_'
'layout_'
'complete_'
'obviously_'
'elegant_'
'knew_'
'45_'
'advice_'
'recent_'
'none_'
'meant_'
'traditional_'
'normal_'
'yourself_'
'character_'
'glad_'
'disney_'
'parked_'
'journey_'
'en_'
'him_'
'prefer_'
'buy_'
'feels_'
'encountered_'
'blue_'
'stocked_'
'sometimes_'
'sightseeing_'
'rental_'
'meet_'
'sort_'
'andthe_'
'relaxed_'
'state_'
'budget_'
'nicer_'
'elsewhere_'
'okay_'
'thoroughly_'
'furnishings_'
'allowed_'
'evenings_'
'mid_'
'smell_'
'sheraton_'
' " ._'
'exactly_'
'surroundings_'
'sofa_'
'waterfront_'
'minor_'
'updated_'
'royal_'
'microwave_'
'complaints_'
'secure_'
'cross_'
'hesitate_'
'transfer_'
'changed_'
'hospitality_'
'extensive_'
'locations_'
'terrible_'
'drop_'
'sat_'
'guide_'
'lucky_'
'2nd_'
'process_'
'rain_'
'aware_'
'sand_'
'board_'
'court_'
'k_'
'superior_'
'started_'
'path_'
'smooth_'
'pre_'
'narrow_'
'reservations_'
'impression_'
'comes_'
'paris_'
'empty_'
'bill_'
'connected_'
'remember_'
'parks_'
'interior_'
'guess_'
'similar_'
'laid_'
'terms_'
'understand_'
'giving_'
'odd_'
'h_'
'deluxe_'
'/ _'
'anyway_'
'together_'
'fee_'
'gem_'
'grocery_'
'nd_'
'gives_'
'bedrooms_'
'drove_'
'covered_'
'ac_'
'faced_'
'beaches_'
'chance_'
'al_'
'tip_'
'dog_'
'fan_'
'stuff_'
'add_'
'dirty_'
'travelers_'
'worst_'
'steep_'
'taste_'
'attending_'
'w_'
'weeks_'
'memorable_'
'leisure_'
'company_'
' “ _'
'amount_'
'temperature_'
'rating_'
'fare_'
'westin_'
'famous_'
' % _'
'spotless_'
'parts_'
'york_'
'jacuzzi_'
'delivered_'
'massage_'
'rear_'
'bread_'
'cheese_'
'carpet_'
'age_'
'juice_'
'indian_'
'detail_'
'worn_'
'guy_'
'roads_'
'serves_'
'quieter_'
'speak_'
'map_'
'prior_'
'stays_'
'rail_'
'sleeping_'
'enter_'
'serving_'
'cons_'
'university_'
'son_'
'cathedral_'
'cocktails_'
'idea_'
' + _'
'advance_'
'outlets_'
'cleaned_'
'venue_'
'chinese_'
'gold_'
'gas_'
'bell_'
'f_'
'pizza_'
'stylish_'
'winter_'
'pros_'
'clerk_'
'checkin_'
'ambience_'
'massive_'
'stand_'
'welcomed_'
' ’ _'
'play_'
'eateries_'
'renovation_'
'black_'
'rock_'
'smoking_'
'overpriced_'
'channels_'
'appeared_'
'friday_'
'step_'
'features_'
'surprisingly_'
'prompt_'
'acceptable_'
'falls_'
'passing_'
'ceiling_'
'keeping_'
'suggest_'
'attitude_'
'bedding_'
'residence_'
'biggest_'
'connection_'
'sports_'
'lit_'
'hit_'
'loads_'
'varied_'
'highlight_'
'daughter_'
'checkout_'
'charged_'
'euro_'
'equipment_'
'3rd_'
'resorts_'
'hills_'
'refurbished_'
'pastries_'
'feature_'
'cleanliness_'
'trains_'
'heat_'
'recommendations_'
'opinion_'
'groups_'
'spoke_'
'waited_'
'friend_'
'exceptionally_'
'inviting_'
'birthday_'
'bother_'
'lifts_'
'bacon_'
'wood_'
'visitors_'
'direction_'
'condition_'
'sauna_'
'noticed_'
'multiple_'
'reading_'
'imagine_'
'asking_'
'nearly_'
'departure_'
'enjoying_'
'con_'
'spots_'
'fancy_'
'favourite_'
'action_'
'trained_'
'rude_'
'nowhere_'
'customers_'
'steak_'
'japanese_'
' . )_'
'owners_'
'hop_'
'closet_'
' ! )_'
'beside_'
'quaint_'
'destination_'
'additional_'
'maintenance_'
'ideally_'
'heated_'
'pubs_'
'twin_'
'dubai_'
'romantic_'
'waiter_'
'upscale_'
'birds_'
'(_'
'pleasantly_'
'comment_'
'mainly_'
'exception_'
'nyc_'
'required_'
'inclusive_'
'useful_'
'land_'
'platinum_'
'willing_'
'european_'
'shame_'
'months_'
'basically_'
'pier_'
'awful_'
'p_'
'missed_'
'section_'
'bangkok_'
'lines_'
'adults_'
'whether_'
'upper_'
'feet_'
'fit_'
'walkable_'
'strange_'
'employees_'
'speed_'
'4th_'
'showed_'
'doubt_'
'myself_'
'sight_'
'disappointment_'
'flying_'
'meetings_'
'sense_'
'matter_'
'bigger_'
'santa_'
'example_'
'opportunity_'
'cozy_'
'american_'
'counter_'
'preferred_'
'ourselves_'
'sent_'
'generous_'
'el_'
'complain_'
'cookies_'
'curtains_'
'grill_'
'boston_'
'oasis_'
'corridors_'
'locals_'
'knowledgeable_'
'normally_'
'questions_'
'fireplace_'
'tree_'
'newer_'
'thin_'
'difference_'
'details_'
'corridor_'
'tuk_'
'filled_'
'lost_'
'uncomfortable_'
'strong_'
'visits_'
'signs_'
'happily_'
'stone_'
'costs_'
'architecture_'
'alone_'
'200_'
'heavy_'
'cosy_'
'nature_'
'snack_'
'mattress_'
'foods_'
'km_'
'starting_'
'annoying_'
'touches_'
' ! ) ._'
'venice_'
'heading_'
'situation_'
'apparently_'
'therefore_'
'sits_'
'immediate_'
'inns_'
'duty_'
'gone_'
'rs_'
'yards_'
'camp_'
'entry_'
'bottom_'
'accommodations_'
'positives_'
'couples_'
'historical_'
'quarter_'
'reviewers_'
'tight_'
'chicago_'
'planning_'
'remote_'
'5th_'
'power_'
'ways_'
'sky_'
'bank_'
'bike_'
'notice_'
'machines_'
'earlier_'
'thai_'
'saying_'
'peace_'
'treated_'
'egg_'
'alternative_'
'linens_'
'freshly_'
'church_'
'classic_'
'forget_'
'calm_'
'oh_'
'carte_'
' ” _'
'appears_'
'drivers_'
'chocolate_'
'stadium_'
'hallway_'
'nicest_'
'sister_'
'tickets_'
'refrigerator_'
'apartments_'
'ski_'
' ....._'
'travellers_'
'cocktail_'
'providing_'
' :_'
'maker_'
'original_'
'discount_'
'privacy_'
'ers_'
'bistro_'
'owner_'
'smiling_'
'previously_'
'fixed_'
'newly_'
'nearest_'
'folks_'
'requests_'
'effort_'
'villas_'
'impeccable_'
'likely_'
'delight_'
'theatre_'
'packed_'
'environment_'
' : - _'
'gift_'
'asian_'
'shows_'
'ritz_'
'van_'
'ran_'
'includes_'
'avenue_'
'showers_'
'residential_'
'lacking_'
'natural_'
'tripadvisor_'
'salad_'
'exercise_'
'definately_'
'canyon_'
'expecting_'
'spending_'
'premium_'
'tokyo_'
'towel_'
' € _'
'informed_'
'allocated_'
'include_'
'opening_'
'missing_'
'midnight_'
'uk_'
'theme_'
'museums_'
'depending_'
'equally_'
'school_'
'levels_'
'broken_'
'touring_'
'impossible_'
'wet_'
'forest_'
'training_'
'nor_'
'wing_'
'balconies_'
'opted_'
'appreciate_'
'interest_'
'guys_'
'trail_'
'mornings_'
'fort_'
'novotel_'
'cereals_'
'ensure_'
'control_'
'1st_'
'toast_'
'photos_'
'temple_'
'unlike_'
'allow_'
'malls_'
'storage_'
'ours_'
'ticket_'
'computer_'
'cramped_'
'junior_'
'playing_'
'traveler_'
'organised_'
'hallways_'
'mean_'
'interested_'
'occasions_'
'spotlessly_'
'ahead_'
'heating_'
'upstairs_'
'events_'
'track_'
'meters_'
'hidden_'
'pedestrian_'
'ambiance_'
'europe_'
'total_'
'among_'
'unusual_'
'paper_'
'cheerful_'
'campus_'
'till_'
'palm_'
'affordable_'
'cream_'
'hike_'
'ie_'
'known_'
'story_'
'occasion_'
',_'
'concerned_'
'solid_'
'hiking_'
'contemporary_'
'hair_'
'tucked_'
'save_'
'eventually_'
'wow_'
'hardly_'
'bag_'
'movie_'
'online_'
'scrambled_'
'95_'
'wildlife_'
'pictures_'
'tidy_'
'victoria_'
'frequent_'
'houses_'
'lively_'
'bikes_'
'hang_'
'18_'
'roomy_'
'wanting_'
'waitress_'
'flights_'
'lagoon_'
'activity_'
'breeze_'
'themselves_'
'dogs_'
'rome_'
'suggestions_'
'v_'
'six_'
'improved_'
'bathtub_'
'email_'
'hesitation_'
'worse_'
'ibis_'
'champagne_'
'trendy_'
'14_'
'closest_'
'cook_'
'animals_'
'orange_'
'radisson_'
'talk_'
'personnel_'
'uber_'
'berlin_'
'properly_'
'cake_'
'bottles_'
'dc_'
'diamond_'
'beauty_'
'metres_'
'snow_'
'bustle_'
'talking_'
'dine_'
'proper_'
'concert_'
'adjoining_'
'smoke_'
'safari_'
'seafood_'
'peak_'
'ton_'
'sadly_'
'explained_'
'scenery_'
'smart_'
'boats_'
'certain_'
'promptly_'
'easier_'
'tennis_'
'vicinity_'
'tips_'
'chicken_'
'word_'
'shown_'
'led_'
'coach_'
'weekends_'
'35_'
'te_'
'marble_'
'charges_'
'showing_'
'sheets_'
'finished_'
'atrium_'
'faces_'
'x_'
'getaway_'
'breathtaking_'
'90_'
'negatives_'
'sweet_'
'planned_'
'shape_'
'mix_'
'rush_'
'purpose_'
'keys_'
'hong_'
'sausage_'
'july_'
'attended_'
'breads_'
'stopover_'
'possibly_'
'onsite_'
'markets_'
'crowds_'
' * _'
'reasons_'
'courses_'
'sorry_'
'wake_'
'dinners_'
'cut_'
'iron_'
'walkway_'
'cabin_'
'cable_'
'offerings_'
'leading_'
'dry_'
' # _'
'motorway_'
'greeting_'
'fruits_'
'box_'
'80_'
'sydney_'
'ts_'
'scenic_'
'advised_'
'hire_'
'date_'
'kong_'
'industrial_'
'dropped_'
'hanging_'
'tons_'
'fly_'
'cup_'
'wines_'
'happened_'
'drawback_'
'grab_'
'loungers_'
'amsterdam_'
'springs_'
'experiences_'
'necessary_'
'countryside_'
'ta_'
'fab_'
'host_'
'steam_'
'reliable_'
'paradise_'
'reserved_'
'noted_'
'cereal_'
'horrible_'
'complained_'
'share_'
'waffles_'
'attend_'
'friendliness_'
'flowers_'
'kitchenette_'
'exterior_'
'gps_'
'barely_'
'60_'
'seat_'
'overlooks_'
'ladies_'
'las_'
'outlet_'
'eye_'
'transit_'
'sounds_'
'contact_'
'absolute_'
'ut_'
'appear_'
'6th_'
'vibe_'
'desert_'
'followed_'
'whenever_'
'spanish_'
'airy_'
'products_'
'answer_'
'pet_'
'lane_'
'enormous_'
'fix_'
'personally_'
'foyer_'
'sofitel_'
' ! ) _'
'quirky_'
'ies_'
'arrange_'
'wise_'
'status_'
'albeit_'
'picture_'
'standing_'
'southern_'
'waiters_'
'hassle_'
'month_'
'assist_'
'workout_'
'held_'
'comments_'
'anniversary_'
'units_'
'deep_'
'isolated_'
'basement_'
'creek_'
'field_'
'dock_'
'entering_'
'plates_'
'become_'
'shared_'
'16_'
'constantly_'
'0_'
'ship_'
'recommendation_'
'hustle_'
'woman_'
'slight_'
'milk_'
'clothes_'
'confusing_'
'immaculate_'
'beginning_'
'sides_'
'honest_'
'agree_'
'aspect_'
'mixed_'
' _'
'calls_'
'vegas_'
'queue_'
'overly_'
'tastefully_'
'approx_'
'establishment_'
'says_'
'trails_'
'firstly_'
'dryer_'
'juices_'
'helping_'
'follow_'
'hi_'
'reserve_'
'hosts_'
'cbd_'
'wireless_'
'continue_'
'ne_'
'cuisine_'
'arena_'
'advisor_'
'wardrobe_'
'traveller_'
' " , _'
'crowd_'
'bought_'
'spring_'
'wonderfully_'
'period_'
'inexpensive_'
'wild_'
'moving_'
'post_'
'form_'
'décor_'
'70_'
'seasons_'
'na_'
'theater_'
'classy_'
'fashioned_'
'cooking_'
'accommodate_'
'northern_'
'chips_'
'girl_'
'finish_'
'soap_'
'mine_'
'embassy_'
'college_'
'ness_'
'football_'
'sufficient_'
'travelled_'
'promenade_'
'refreshing_'
'rated_'
'write_'
'speaking_'
'suited_'
'compact_'
'china_'
'burger_'
'obvious_'
'throw_'
'inner_'
'suit_'
'rent_'
'fairfield_'
'manhattan_'
'corporate_'
'improvement_'
'refurbishment_'
'adult_'
'opera_'
'function_'
'vehicle_'
'cute_'
'vast_'
'barcelona_'
'suggested_'
'hospital_'
'changing_'
'ring_'
'reached_'
'charging_'
'cities_'
'wooden_'
'drinking_'
'replaced_'
'pull_'
'whatever_'
'mirror_'
'linen_'
'sandwiches_'
'outdated_'
'firm_'
'mediocre_'
'approach_'
'positioned_'
'ny_'
'ey_'
'august_'
'agent_'
'glasses_'
'taj_'
'minibar_'
'dublin_'
'satisfied_'
'tricky_'
'region_'
'yogurt_'
'against_'
'crowne_'
'rocks_'
'june_'
'crazy_'
'ce_'
'meat_'
'multi_'
'constant_'
'spg_'
'prime_'
'union_'
'francisco_'
'catering_'
'premises_'
'question_'
'melbourne_'
'del_'
'benefit_'
'supposed_'
'selected_'
'updating_'
'extended_'
'estate_'
'genuinely_'
'games_'
'75_'
'ia_'
'stuck_'
'correct_'
'dead_'
'wear_'
'conditioner_'
' ‘ _'
'delighted_'
'couch_'
'aside_'
'george_'
'os_'
'actual_'
'carpets_'
'genuine_'
'attraction_'
'century_'
'bbq_'
' ) - _'
'300_'
'sunrise_'
'challenge_'
'library_'
'th_'
'regularly_'
'fall_'
'minimal_'
'mr_'
'visitor_'
'colonial_'
'warmly_'
'cape_'
'sunny_'
'selections_'
'mexican_'
' ' ._'
'happen_'
'mark_'
'17_'
' ..... _'
'ion_'
'match_'
'festival_'
'manchester_'
'address_'
'thus_'
'india_'
'handled_'
'bothered_'
'maps_'
'signal_'
'maid_'
'unable_'
'poolside_'
'chill_'
'stated_'
'beware_'
'tropical_'
'florida_'
'zone_'
'efficiently_'
'soup_'
'october_'
'singapore_'
'gracious_'
'march_'
'poorly_'
'secluded_'
'par_'
'golden_'
'result_'
'cottage_'
'send_'
'relaxation_'
'recommending_'
'tasting_'
'informative_'
'careful_'
'13_'
'eager_'
'plane_'
'studio_'
'former_'
'courtesy_'
'shampoo_'
'porch_'
'shade_'
'men_'
'pillow_'
'islands_'
'casual_'
'ry_'
'ra_'
'headed_'
'improve_'
'frequently_'
'complementary_'
'cabins_'
'waves_'
'beers_'
'dealt_'
'discovered_'
'renovations_'
'allows_'
'ages_'
'assistance_'
'rough_'
'present_'
'bottled_'
'luckily_'
'carry_'
'ordinary_'
'ave_'
'fortunately_'
'proved_'
'aircon_'
'nightlife_'
'ted_'
'suitable_'
'types_'
'disappoint_'
'washington_'
'travels_'
'shore_'
'initially_'
'7th_'
'magical_'
'marks_'
'trolley_'
'touristy_'
'bargain_'
'amongst_'
'honestly_'
' ( $ _'
'staffs_'
'became_'
'worry_'
'surely_'
'reef_'
'consistently_'
'wharf_'
'carpark_'
'neither_'
'december_'
'piece_'
'healthy_'
'april_'
'gentleman_'
'receive_'
'sad_'
'attendant_'
'neat_'
'january_'
'bland_'
'strongly_'
'september_'
'mt_'
'lush_'
'com_'
'dined_'
'beaten_'
'shut_'
' , ( _'
'infinity_'
'salmon_'
'besides_'
'sorted_'
'owned_'
'intercontinental_'
'clock_'
'neighbourhood_'
'scene_'
'entered_'
'chosen_'
'cart_'
'presentation_'
'overlook_'
'mistake_'
'hopefully_'
'virtually_'
'badly_'
'seats_'
'ham_'
'trams_'
'co_'
'hence_'
'cakes_'
'seriously_'
'rare_'
'individual_'
'basis_'
'sandwich_'
'z_'
'putting_'
'denver_'
'liverpool_'
'tranquil_'
' '
'plugs_'
'ceilings_'
'portions_'
'towers_'
'cover_'
'leaves_'
'commercial_'
'john_'
'plastic_'
'response_'
'plate_'
'tastes_'
'500_'
'partner_'
'wash_'
'chaotic_'
'amazingly_'
'forgot_'
'portland_'
'shanghai_'
'thru_'
'picturesque_'
'landing_'
'row_'
'thinking_'
'ur_'
'wind_'
'starts_'
'highest_'
'lodging_'
'treatments_'
'final_'
'dollars_'
'employee_'
'serious_'
'kettle_'
'decision_'
'fourth_'
'greet_'
'splendid_'
'treatment_'
'regarding_'
'crossing_'
'impressions_'
'fittings_'
'passed_'
'voucher_'
'keen_'
'everyday_'
'oxford_'
'america_'
'planes_'
'chic_'
'british_'
'factor_'
'hundred_'
'stopping_'
'zoo_'
'staffed_'
'glasgow_'
'paint_'
'converted_'
' , " _'
'ble_'
'dessert_'
'seattle_'
'info_'
'wants_'
'extras_'
'chat_'
'holidays_'
'hold_'
'sold_'
'slippers_'
'ish_'
'knowledge_'
'caught_'
'wished_'
'server_'
'pacific_'
'exciting_'
'pulled_'
'eaten_'
'climb_'
'miami_'
'cliff_'
'* _'
'rise_'
'passes_'
'serviced_'
'television_'
'girls_'
'considered_'
'transfers_'
'locally_'
'hole_'
'retreat_'
'heritage_'
'tasted_'
'30am_'
'decoration_'
'pointed_'
'ihg_'
'jungle_'
'edinburgh_'
'lounges_'
'conversation_'
'november_'
'chains_'
'irish_'
'computers_'
'viewing_'
'doorstep_'
'combination_'
'asset_'
'stretch_'
'shuttles_'
'collection_'
'colleagues_'
'biscuits_'
'weird_'
'sets_'
'tvs_'
'plug_'
'lacked_'
'exceeded_'
'curtain_'
'bartender_'
'concern_'
'arrangements_'
'crown_'
'monday_'
'elite_'
'bakery_'
'rd_'
' ? _'
'advise_'
'warned_'
'health_'
'news_'
'escape_'
'salt_'
' ! ! ! !_'
'tough_'
'sandy_'
'doubletree_'
'bird_'
'aspects_'
'drives_'
'vancouver_'
'sunbeds_'
'wonder_'
'sleeper_'
'die_'
'restored_'
'channel_'
'calling_'
'assigned_'
'electric_'
'removed_'
'suitcases_'
'responsive_'
'" _'
'pickup_'
'beverage_'
'yard_'
'capital_'
'wander_'
'residents_'
'heathrow_'
'circle_'
'peninsula_'
'deliver_'
'manner_'
'fell_'
'advertised_'
'quay_'
'8th_'
'meats_'
'authentic_'
'parties_'
'connecting_'
'mrt_'
'dish_'
'driveway_'
'carlton_'
'vegetarian_'
'deserves_'
'mobile_'
'tend_'
'bts_'
'replenished_'
'pancakes_'
'consistent_'
'tion_'
'opens_'
'ic_'
'typically_'
'sunsets_'
'photo_'
'disneyland_'
'manor_'
'brown_'
'hands_'
'outskirts_'
'managers_'
'fill_'
'fishing_'
'dive_'
'smiles_'
'remembered_'
'familiar_'
'alley_'
'fountain_'
'funky_'
'partial_'
'doorman_'
'watched_'
'towns_'
'lazy_'
'band_'
'bellman_'
'changes_'
'robes_'
'fitted_'
'cases_'
' .* _'
'today_'
'lawn_'
'nevertheless_'
'omelette_'
'weak_'
'department_'
'comparison_'
'22_'
'prague_'
'lacks_'
'sausages_'
'buffets_'
'drag_'
'thick_'
'eastern_'
'kings_'
'eve_'
'clubs_'
'brief_'
'tall_'
'sliding_'
'plain_'
'web_'
'manage_'
'supplied_'
'currently_'
' –_'
'vienna_'
'stained_'
'tracks_'
'navigate_'
'butler_'
'needing_'
'stood_'
'et_'
'rustic_'
'played_'
'adventure_'
'costa_'
'happening_'
'log_'
'banks_'
'warmth_'
'intimate_'
'connect_'
'beef_'
'se_'
'roll_'
'fixtures_'
'require_'
'lived_'
'accessed_'
'30pm_'
'criticism_'
'schedule_'
'described_'
'venture_'
'les_'
'beverages_'
'update_'
'150_'
'organized_'
'child_'
'café_'
'orlando_'
'italy_'
'effective_'
'visible_'
'bahn_'
'jet_'
'rides_'
'cove_'
'nightly_'
'ease_'
'cater_'
'chateau_'
'restful_'
'signage_'
'unpleasant_'
'charleston_'
'awkward_'
'mount_'
'cards_'
'trucks_'
'$ _'
'compare_'
'delivery_'
'appearance_'
'venues_'
'fields_'
'worried_'
'promised_'
'approximately_'
'madrid_'
'supply_'
'originally_'
'ere_'
'mercure_'
'importantly_'
'toward_'
'handle_'
'answered_'
'woke_'
'excursions_'
'servers_'
'bear_'
'saved_'
'parents_'
'riverside_'
'riverwalk_'
'pond_'
'fluffy_'
'junction_'
'retail_'
'umbrellas_'
'shabby_'
'glacier_'
'farm_'
'cheapest_'
'boring_'
'ling_'
'menus_'
'kyoto_'
'switch_'
'remains_'
'truck_'
'france_'
'chinatown_'
'smelled_'
'selling_'
'powerful_'
'montreal_'
'boardwalk_'
'beachfront_'
')_'
'completed_'
'appealing_'
'magic_'
'usd_'
'stands_'
'bang_'
'pit_'
'boarding_'
'lodges_'
'skyline_'
'nobody_'
'butthe_'
'repeat_'
'noises_'
'forth_'
'safety_'
'reported_'
'horse_'
'walmart_'
'display_'
'diner_'
'-- _'
'supplies_'
'ridiculous_'
'rice_'
'21_'
'pricing_'
'category_'
'locate_'
'desired_'
'fried_'
'smallish_'
'leads_'
'largest_'
'cash_'
'boxes_'
'culture_'
'tad_'
'purchase_'
'mcdonalds_'
'cups_'
'degrees_'
'ay_'
'knows_'
'inconvenient_'
'traveled_'
'florence_'
'alarm_'
'policy_'
'print_'
'remodeled_'
'extraordinary_'
'disturbed_'
'cheeses_'
'turns_'
'ons_'
'hip_'
'accor_'
'perfection_'
'panoramic_'
'distant_'
'crew_'
'trade_'
'staircase_'
'february_'
'rich_'
'steakhouse_'
'dream_'
'seven_'
'seated_'
'satisfactory_'
'colleague_'
'pain_'
'fireworks_'
'ma_'
'ty_'
'directed_'
'hoteland_'
'beijing_'
'ns_'
'ar_'
'omelettes_'
'ironing_'
'joy_'
'describe_'
'ous_'
'explain_'
'baby_'
'array_'
'plans_'
'highlights_'
'challenging_'
'everybody_'
'deco_'
'swift_'
'adds_'
'initial_'
'sell_'
'landscaped_'
'california_'
'uphill_'
'luck_'
'rented_'
'potential_'
'cottages_'
'establishments_'
'brussels_'
'yummy_'
'snorkeling_'
'baked_'
'pot_'
'heater_'
'ft_'
'lisbon_'
'excited_'
'caring_'
'renaissance_'
'meaning_'
'dressing_'
'da_'
'croissants_'
'condo_'
'19_'
'motels_'
' (_'
'heavenly_'
'giant_'
'400_'
'figure_'
' --- _'
'thankfully_'
'knowing_'
'businesses_'
'ball_'
'ley_'
'body_'
'washing_'
'faultless_'
'oriented_'
'mexico_'
'program_'
'porter_'
'gripe_'
'offices_'
'majority_'
'lock_'
'words_'
'sunshine_'
'outdoors_'
'inconvenience_'
'delhi_'
'catching_'
'ancient_'
'halls_'
'asia_'
'links_'
'fortunate_'
'lakes_'
'length_'
'haven_'
'respect_'
'benefits_'
'frankly_'
'zurich_'
'learn_'
'locked_'
'highways_'
'catered_'
'jr_'
'waters_'
'michigan_'
'guided_'
'accomodating_'
'guides_'
'allowing_'
'windy_'
'surprising_'
'priority_'
'lay_'
'temples_'
'marked_'
'unwind_'
'nightmare_'
'frustrating_'
'plush_'
'diego_'
'starwood_'
'flew_'
'unbelievable_'
'rewards_'
'blocked_'
'landscaping_'
'grass_'
'availability_'
'apology_'
'rose_'
' … _'
'helps_'
'bustling_'
'serene_'
'personable_'
' ;_'
'cabs_'
'gates_'
'community_'
'crystal_'
'apologetic_'
'unexpected_'
'plants_'
'dinning_'
'usa_'
'summary_'
'tray_'
'concrete_'
'trek_'
'ge_'
'diving_'
'concept_'
'books_'
'desserts_'
'canada_'
'boys_'
'atlanta_'
' --_'
'choosing_'
'competent_'
'homewood_'
'unfriendly_'
'tax_'
'tasteful_'
'monkeys_'
'difficulty_'
'target_'
'supermarkets_'
'expansive_'
'paths_'
'fans_'
'caters_'
'piazza_'
'hungry_'
'seafront_'
'competition_'
'turning_'
'baggage_'
'tap_'
'boy_'
'exquisite_'
'bungalow_'
'ment_'
'don_'
'rarely_'
'agreed_'
'munich_'
'dedicated_'
'broadway_'
'tapas_'
'vanity_'
'stuffy_'
'structure_'
'10th_'
'mtr_'
'german_'
'japan_'
'waste_'
'waffle_'
'playa_'
'loch_'
'bunch_'
'england_'
'specially_'
'shall_'
'glorious_'
'lives_'
'funny_'
'filling_'
'bush_'
'apple_'
'los_'
'gourmet_'
'somehow_'
'starter_'
'alot_'
'movies_'
'alcohol_'
'woods_'
'arrangement_'
'weights_'
'forever_'
'active_'
'weddings_'
'routes_'
'reminded_'
'waikiki_'
'names_'
' ." _'
'seconds_'
'police_'
'gm_'
'africa_'
'suggestion_'
'neighbors_'
'failed_'
': _'
'exchange_'
'numbers_'
'continued_'
'ville_'
'receptionists_'
'occupied_'
'hk_'
'midtown_'
'deals_'
'tent_'
'rolls_'
'bowl_'
'suspect_'
'internal_'
'background_'
'warning_'
'worthwhile_'
'disabled_'
'celebrate_'
'telling_'
' ) ; _'
'ian_'
'stains_'
'101_'
'tiles_'
'ships_'
'muffins_'
'language_'
'marco_'
'9th_'
'instructions_'
'ireland_'
'oatmeal_'
'regret_'
'pity_'
'ability_'
' ) . _'
'support_'
'kinds_'
'formal_'
'buffalo_'
'upmarket_'
'elegance_'
'vehicles_'
'specific_'
'requires_'
'practically_'
'lets_'
'exec_'
'draw_'
'bali_'
'antonio_'
'workers_'
'cancun_'
'000_'
'suppose_'
'connections_'
'bedside_'
' , & _'
'des_'
'kudos_'
'comparable_'
'term_'
'sushi_'
'storey_'
'decide_'
'cinema_'
'wandering_'
'kindly_'
'massages_'
'significant_'
'bristol_'
'raining_'
'seaside_'
'lincoln_'
'terminals_'
'fifth_'
'male_'
'riding_'
'pro_'
'primarily_'
'realize_'
'cause_'
'portion_'
'hoping_'
'naples_'
'whom_'
'produce_'
'honors_'
'listen_'
'ingredients_'
'remarkable_'
'mosque_'
'electrical_'
'assured_'
'zero_'
'women_'
'named_'
'ultra_'
'pasta_'
'gladly_'
'comfortably_'
'travelodge_'
'lined_'
'heaven_'
'greatest_'
'courts_'
'freezing_'
'fellow_'
'downhill_'
'communal_'
'accomodation_'
'greatly_'
'practical_'
'hollywood_'
'australia_'
'specifically_'
'hairdryer_'
'andi_'
'saving_'
'capitol_'
'competitive_'
'gallery_'
'ugly_'
'hey_'
'clients_'
'lax_'
'buggy_'
'opportunities_'
'casa_'
'kid_'
'rocky_'
' ! ) , _'
'dollar_'
'istanbul_'
'closing_'
'lead_'
'speedy_'
'landscape_'
'fascinating_'
'ss_'
'woken_'
'veranda_'
'bringing_'
'orders_'
'cell_'
'unbeatable_'
'reputation_'
'report_'
'regency_'
'volcano_'
'fairmont_'
'current_'
'smoked_'
'mess_'
'mumbai_'
'cared_'
'albert_'
'vegetables_'
'ruins_'
'pack_'
'brings_'
'refused_'
'race_'
'hotelthe_'
'google_'
'est_'
'breath_'
'fe_'
'ding_'
'confirmed_'
'hwy_'
'hub_'
'ramp_'
'glazing_'
'charles_'
'laptop_'
'hundreds_'
'sri_'
'piano_'
'noon_'
'contained_'
'caribbean_'
'birmingham_'
'waterfall_'
'rt_'
'puerto_'
'bungalows_'
'sparkling_'
'mill_'
'baths_'
'written_'
'resturant_'
'23_'
'ms_'
'underneath_'
'ear_'
'vibrant_'
'suitcase_'
'awake_'
'ya_'
'listening_'
'doormen_'
'select_'
'´_'
'brunch_'
'escorted_'
'factory_'
'anytime_'
'chilly_'
'hectic_'
'amenity_'
'sinks_'
'era_'
'themed_'
'chocolates_'
'alternatives_'
'social_'
'paul_'
'bite_'
'stream_'
'skip_'
'2012_'
'thursday_'
'silver_'
'reviewer_'
'pieces_'
'enthusiastic_'
'tubs_'
'riu_'
'ri_'
'realized_'
'split_'
'immaculately_'
'du_'
'honeymoon_'
'dressed_'
'james_'
'sthe_'
'soundproofing_'
'yellow_'
'driven_'
'account_'
'jose_'
'um_'
'penny_'
'blu_'
'shoes_'
'easter_'
'demand_'
'amazed_'
'smoothly_'
'manicured_'
' . , _'
'soho_'
'salads_'
'phoenix_'
'omelet_'
'joke_'
'minimum_'
'lion_'
'energy_'
'un_'
'fashion_'
'female_'
'cookie_'
'mart_'
'bits_'
'universal_'
'settled_'
'research_'
'nespresso_'
'rang_'
'mansion_'
'resident_'
'mary_'
'dust_'
'16th_'
'phones_'
'ls_'
'ill_'
'urban_'
'memorial_'
'discover_'
'twenty_'
'begin_'
'praise_'
'helpfull_'
'dance_'
'enclosed_'
'hospitable_'
'alongside_'
' ...... _'
'resolved_'
' …_'
'max_'
' . ) _'
'mother_'
'intrusive_'
'ting_'
'hello_'
'queues_'
'basin_'
'spoilt_'
'smallest_'
'rainy_'
'mobility_'
'lunches_'
'vouchers_'
'whatsoever_'
'writing_'
'washer_'
'snorkelling_'
'rip_'
'definite_'
'degree_'
'relative_'
'heartbeat_'
'ation_'
'sorts_'
'hen_'
'occasional_'
'upgrades_'
'circular_'
'unacceptable_'
'separated_'
'flawless_'
'springhill_'
'ka_'
'exclusive_'
'bet_'
'q_'
'confused_'
'courtyards_'
'attendants_'
'admit_'
'lamb_'
'commented_'
'arranging_'
'ridge_'
'hate_'
'99_'
'prepare_'
'conferences_'
'combined_'
'accept_'
'annex_'
'loyalty_'
'code_'
'keeps_'
'hat_'
'scotland_'
'potatoes_'
'destinations_'
'mattresses_'
'involved_'
'join_'
'hillside_'
'semi_'
'outlook_'
'jw_'
'disturb_'
'chaos_'
'hie_'
'geneva_'
'carts_'
'atlantic_'
'stones_'
'phenomenal_'
'rural_'
'homemade_'
'dull_'
'minus_'
'repair_'
'omelets_'
'ha_'
'pounds_'
'tremendous_'
'complaining_'
'forgotten_'
'medical_'
'2013_'
' .: _'
'nashville_'
'frills_'
'liking_'
'ends_'
'county_'
'cleared_'
'hgi_'
'ent_'
'toronto_'
'shangri_'
'pop_'
'maria_'
'andwe_'
'tranquility_'
'picking_'
'load_'
'hrs_'
'cultural_'
'tuesday_'
'lakeside_'
'ally_'
'fees_'
'blinds_'
'warmer_'
'happens_'
'sh_'
'purchased_'
'wineries_'
'registration_'
'ps_'
'drury_'
'sounded_'
'bund_'
'medium_'
'rack_'
'according_'
'motor_'
'piccadilly_'
'appropriate_'
'ana_'
'phuket_'
'ood_'
'ter_'
'spain_'
'decorations_'
'starters_'
'spoiled_'
'afford_'
'bookings_'
'ess_'
'brick_'
'pride_'
'musty_'
'zion_'
'tunnel_'
'assume_'
'discounted_'
'sands_'
'endless_'
'que_'
'sa_'
'gulf_'
'dame_'
'created_'
'wherever_'
'requirements_'
'exhibition_'
'barman_'
'abundance_'
'terribly_'
'search_'
'tops_'
'hyde_'
'worthy_'
'lobster_'
'earth_'
'ys_'
'thoughtful_'
'mail_'
'duvet_'
'ant_'
'accommodated_'
'texas_'
'overwhelmed_'
'memories_'
'essential_'
'coral_'
'conditioned_'
'toilets_'
'slide_'
'hoped_'
'flow_'
'tourism_'
'loop_'
'airline_'
'roomthe_'
'coastal_'
'impersonal_'
'stock_'
'eyes_'
'readily_'
'latter_'
'cleaner_'
'caused_'
'intersection_'
'cancelled_'
'guard_'
'development_'
'yellowstone_'
'upgrading_'
'sumptuous_'
'entertaining_'
'stayand_'
'sales_'
'nestled_'
'pushed_'
'jump_'
'ignored_'
'dozen_'
'ordering_'
'hostess_'
'thailand_'
'jam_'
'elephants_'
'collect_'
'basics_'
'maze_'
'understaffed_'
'professionalism_'
'closes_'
'casinos_'
'bagels_'
'aquarium_'
'continues_'
'concerns_'
'carried_'
'storm_'
'26_'
'brasserie_'
'ad_'
'appeal_'
'vista_'
'finest_'
'dangerous_'
'border_'
'29_'
'seperate_'
'grace_'
'clientele_'
'stockholm_'
'savannah_'
'dozens_'
'28_'
'sauce_'
'item_'
'entirely_'
'duomo_'
'pork_'
'brewery_'
' ' , _'
'sofas_'
'heads_'
'unload_'
' . ._'
'milan_'
'mass_'
'dirt_'
'undergoing_'
'listed_'
'fuss_'
'deserve_'
'annual_'
'whose_'
'chatting_'
'brands_'
'balance_'
'states_'
'skiing_'
'series_'
' /_'
'austin_'
'realised_'
'winding_'
'dancing_'
'waking_'
'surf_'
'learned_'
'grove_'
'contrast_'
'accurate_'
'charlotte_'
'bw_'
'ai_'
'nonetheless_'
'tended_'
'posted_'
'deli_'
'2014_'
'setup_'
'2015_'
'lamp_'
'sockets_'
'contacted_'
'houston_'
'flower_'
'pleasing_'
'dallas_'
'treadmills_'
'ity_'
'grateful_'
'spite_'
'superbly_'
'stories_'
'proofing_'
'jazz_'
'existent_'
'unhelpful_'
'joined_'
'build_'
'master_'
'attempt_'
' .-_'
'regardless_'
'il_'
'mar_'
'blvd_'
'dim_'
'saint_'
'umbrella_'
'spotty_'
'chefs_'
'improvements_'
'personality_'
'insulation_'
'essentially_'
'devices_'
'rubbish_'
'colors_'
'struggle_'
'regis_'
'paddington_'
'arrivals_'
'obliging_'
'majestic_'
'athens_'
'greek_'
'efficiency_'
'wings_'
'ds_'
'baseball_'
'financial_'
'dunes_'
'gesture_'
'tech_'
'sharing_'
'ping_'
'lions_'
'goodthe_'
'emailed_'
'darling_'
'adelaide_'
'stress_'
'abundant_'
'david_'
'bells_'
'– _'
'noticeable_'
'dealing_'
'66_'
'expectation_'
'carefully_'
'tone_'
'dip_'
'treats_'
'substantial_'
'engaging_'
'crisp_'
'conservatory_'
'mood_'
'12th_'
'chilled_'
'shout_'
'preference_'
'eur_'
'deer_'
'jackson_'
'scale_'
'link_'
'supper_'
'hhonors_'
'reviewed_'
'picnic_'
'handed_'
'ford_'
'communication_'
'unlimited_'
'dreadful_'
'conditions_'
'modest_'
'colorado_'
'ch_'
'switched_'
'appetizers_'
'scones_'
'excuse_'
'featured_'
'drawers_'
'terraces_'
'mcdonald_'
'delay_'
'create_'
'app_'
'purposes_'
'external_'
'seamless_'
'marvellous_'
'domestic_'
'midst_'
'villages_'
'printed_'
'osaka_'
'michelin_'
'11th_'
'stepped_'
'pa_'
'dropping_'
'hired_'
'ferries_'
'seoul_'
'siam_'
'newspaper_'
'assisted_'
'talked_'
'marvelous_'
'solo_'
'pure_'
'cat_'
'warsaw_'
'nce_'
'ine_'
'shallow_'
'parliament_'
'height_'
'pace_'
'burgers_'
'basketball_'
'patient_'
'vs_'
'duck_'
'rushed_'
'oriental_'
'addressed_'
'cliffs_'
'monument_'
'timeshare_'
'tide_'
'approached_'
'victorian_'
'cooler_'
'bend_'
'assortment_'
'!_'
'tesco_'
'struggled_'
'smokers_'
'sample_'
'ni_'
'confirmation_'
'poached_'
'emails_'
'printer_'
'coupon_'
'acropolis_'
'count_'
'stage_'
'lounging_'
'falling_'
'copenhagen_'
'shaped_'
'galleria_'
'fits_'
'med_'
'grande_'
'fifteen_'
'pluses_'
'conrad_'
'2016_'
'secret_'
'focus_'
'atm_'
'taipei_'
'realise_'
'government_'
'cracker_'
'patong_'
'operated_'
'drops_'
'refurb_'
'orleans_'
'yoghurt_'
'railroad_'
'elephant_'
'delayed_'
'walkways_'
'kensington_'
'hearing_'
'color_'
'scheduled_'
'empire_'
'tile_'
'omni_'
'chalet_'
'friendliest_'
'.. _'
'liquor_'
'frankfurt_'
'curry_'
'celebration_'
' :)_'
'understanding_'
'layover_'
'eight_'
'teas_'
'barrel_'
'250_'
'useless_'
'knowledgable_'
'hr_'
'gluten_'
'poster_'
'nearer_'
'indifferent_'
'monorail_'
'desire_'
'oslo_'
'j_'
'ier_'
'denny_'
'leisurely_'
'largely_'
'description_'
'antique_'
'ridiculously_'
'groceries_'
' ? ) _'
'depressing_'
'arts_'
'skytrain_'
'painted_'
'neighbours_'
'cleaners_'
'stick_'
'skills_'
'operate_'
'shelf_'
'professionally_'
'disaster_'
'african_'
'screaming_'
'encounter_'
'cooling_'
'pricy_'
'lamps_'
'juan_'
'ful_'
'edges_'
'scottish_'
'bathrobes_'
'queens_'
'va_'
'sheet_'
'gated_'
'blown_'
'ba_'
'afterwards_'
'yoga_'
'ale_'
'expense_'
'bridges_'
'lly_'
'ins_'
'ck_'
'aged_'
'princess_'
'bartenders_'
'wallpaper_'
'smells_'
'vineyards_'
'related_'
'proud_'
'pastry_'
'puts_'
'forced_'
'departing_'
'walled_'
'gel_'
'divine_'
'cuba_'
'meter_'
'resturants_'
'conversations_'
'trust_'
'similarly_'
'belfast_'
'penn_'
'parador_'
'neighbouring_'
'docks_'
'plantation_'
'eg_'
'client_'
'55_'
'opt_'
'ings_'
'soak_'
'si_'
'goods_'
'reality_'
'associated_'
'pristine_'
'overhead_'
'orchard_'
'companies_'
'player_'
'earplugs_'
'crater_'
'network_'
'singing_'
'smack_'
'gin_'
'buzz_'
'verandah_'
'iceland_'
'drain_'
'cardiff_'
'soaking_'
'boiled_'
'weight_'
'mere_'
'banquet_'
'marine_'
'delivers_'
'occasionally_'
'sf_'
'priceline_'
'confirm_'
'; _'
'lie_'
'landmark_'
'greenery_'
'aircraft_'
'neighboring_'
'maids_'
'operation_'
'cutlery_'
'bruges_'
'15th_'
'yosemite_'
'tear_'
'grey_'
'damp_'
'di_'
'remain_'
'lawns_'
'holes_'
'aloft_'
'reduced_'
'ee_'
'$_'
'lo_'
'tournament_'
'pudding_'
'plumbing_'
'broad_'
'ups_'
'drawer_'
'boulevard_'
'began_'
'seemingly_'
'runway_'
'& _'
'comprehensive_'
'27_'
'additionally_'
'diners_'
'cigarette_'
'entrances_'
'xmas_'
'posh_'
'hikes_'
'surrounds_'
'whirlpool_'
'trash_'
'topped_'
'tasteless_'
'michael_'
'consisted_'
'focused_'
'sleek_'
'ro_'
'feedback_'
'suits_'
'eco_'
'timely_'
'radius_'
'newspapers_'
'cap_'
'14th_'
'stale_'
'claim_'
'senior_'
'ot_'
'exemplary_'
'congested_'
'dvd_'
'andit_'
'elderly_'
'shot_'
'chris_'
'swiss_'
'2011_'
'platz_'
'chester_'
'thames_'
'deserted_'
'colour_'
'meets_'
'louis_'
'becomes_'
'peter_'
'farther_'
'65_'
'coffees_'
'ben_'
'18th_'
'dingy_'
'ambassador_'
'granted_'
'elements_'
'centers_'
'phoned_'
'passengers_'
'georgetown_'
'seville_'
'wee_'
'miserable_'
'annoyed_'
'responded_'
'fed_'
'turndown_'
'cycle_'
'steaks_'
'ks_'
'speaks_'
'telephone_'
'restuarant_'
'daytime_'
'crab_'
'comforts_'
'separately_'
'refreshed_'
'overwhelming_'
'columbus_'
'product_'
'palms_'
'ou_'
'adding_'
'newport_'
'ded_'
'radio_'
'likes_'
'affair_'
'accompanied_'
'lanka_'
'fountains_'
'sidewalk_'
'sedona_'
'hare_'
'olympic_'
'olive_'
'taxes_'
'opposed_'
'designer_'
'corners_'
'act_'
'plunge_'
'net_'
'controlled_'
'sum_'
'notre_'
'narita_'
'insisted_'
'sanctuary_'
'wellington_'
'triple_'
'rue_'
'rolling_'
'raised_'
'newcastle_'
'avoided_'
'presence_'
'lanes_'
'cope_'
'interiors_'
'dusty_'
'downsides_'
'philadelphia_'
'hut_'
'fires_'
'excursion_'
'younger_'
'hotelbut_'
'controls_'
' .'
'jetty_'
'complicated_'
'ensured_'
'budapest_'
'bare_'
'gondola_'
'thermostat_'
'suburban_'
'refresh_'
'evident_'
'cordial_'
'memory_'
'climbing_'
'carrying_'
'np_'
'melia_'
'espresso_'
'00am_'
'wave_'
'reakfast_'
'industry_'
'anymore_'
'perspective_'
'cardio_'
'turkey_'
'reply_'
'monaco_'
'figured_'
'00pm_'
'colours_'
'surface_'
') _'
'unfortunate_'
'studios_'
'shocked_'
'ned_'
'kandy_'
'bicycles_'
'napa_'
'replace_'
'pink_'
'disco_'
'afraid_'
'wheel_'
'title_'
'explaining_'
'covers_'
'atmospheric_'
'gran_'
'cupboard_'
' ......_'
'relations_'
'painless_'
'frozen_'
'lap_'
'idyllic_'
'beans_'
'parkway_'
' ( £ _'
'pie_'
'guaranteed_'
'pampered_'
'effect_'
'sprawling_'
'porters_'
' [ _'
'recognition_'
'perched_'
'pavilion_'
'explanation_'
'. , _'
'basket_'
'uses_'
'richmond_'
'independent_'
'secondly_'
'rainforest_'
'19th_'
'winner_'
'taff_'
'slides_'
'interaction_'
'tlc_'
'stall_'
'li_'
'beefeater_'
'alamo_'
'sub_'
'homes_'
'filthy_'
' ? ?_'
'spare_'
'war_'
'remained_'
'pittsburgh_'
'squeezed_'
'foreign_'
'insulated_'
'bored_'
'restricted_'
'faster_'
'abbey_'
'banging_'
'waitresses_'
'expressway_'
'leg_'
'shinjuku_'
'membership_'
'riad_'
'hvac_'
'heavily_'
'ventilation_'
'shortly_'
'norm_'
'marriot_'
'dam_'
'shares_'
'loudly_'
'fisherman_'
'maintain_'
'wa_'
'picky_'
'message_'
'madison_'
'gateway_'
'valets_'
'marathon_'
'latest_'
'housekeeper_'
'10mins_'
'signature_'
'rep_'
'outback_'
'bucks_'
'bowling_'
'au_'
'10min_'
'sirens_'
'payment_'
'homeless_'
'wheelchair_'
'replacement_'
'medieval_'
'usb_'
'vary_'
'sorrento_'
'loose_'
'disturbing_'
'sq_'
'regards_'
'galleries_'
'ell_'
'consideration_'
'rank_'
'needless_'
'solution_'
'temp_'
'outer_'
'leeds_'
'abu_'
'inadequate_'
'partly_'
'ions_'
'dress_'
'ranch_'
'peeling_'
'iconic_'
'faulted_'
'concierges_'
'waterpark_'
'porridge_'
'mediterranean_'
'ensuite_'
'cambridge_'
'vending_'
'gear_'
'garbage_'
'vip_'
'inconsistent_'
'makeover_'
'animal_'
'satisfaction_'
'scary_'
'consists_'
'surly_'
'remove_'
'enjoyment_'
'deposit_'
'ramblas_'
'quinta_'
'apparent_'
'jobs_'
'god_'
'spray_'
'significantly_'
'proof_'
'ginza_'
'tel_'
'landed_'
'blowing_'
'push_'
'soul_'
'jams_'
' — _'
'sizes_'
'electronic_'
'architectural_'
'+ _'
'metal_'
'capacity_'
'arch_'
'unforgettable_'
'sketchy_'
'outrageous_'
'mandarin_'
'barrier_'
'volume_'
'lunchtime_'
'butter_'
'arms_'
'specials_'
'relief_'
'pets_'
'extension_'
'clothing_'
'button_'
'ated_'
' :-)_'
'buzzing_'
'lemon_'
'unusually_'
'sugar_'
'roundabout_'
'indoors_'
'hin_'
'artwork_'
'accepted_'
'tries_'
'roughly_'
'nav_'
'oak_'
'christchurch_'
'oceanfront_'
'denali_'
'kms_'
'carvery_'
'acres_'
'nz_'
'moderate_'
'mold_'
'expedia_'
'coupons_'
'understated_'
'kimpton_'
'imposing_'
'geared_'
'floating_'
'unsafe_'
'roman_'
'gotten_'
'press_'
'detailed_'
'imperial_'
'id_'
'disgusting_'
'vintage_'
'ipod_'
'regard_'
'playground_'
'sing_'
'seeking_'
'pint_'
'oregon_'
'bs_'
'manila_'
'columbia_'
'biking_'
'minimalist_'
'coconut_'
'lies_'
'ide_'
'grade_'
'bucket_'
'slopes_'
'roast_'
'perk_'
'tag_'
'silent_'
'newest_'
'uninspiring_'
'17th_'
'... _'
'patrons_'
'mekong_'
'excessive_'
'eiffel_'
'efforts_'
'developed_'
'shades_'
'guarantee_'
'chapel_'
'supposedly_'
'loft_'
'lighthouse_'
'ina_'
'causeway_'
'ans_'
'wrote_'
'mission_'
'sometime_'
'jewel_'
'nibbles_'
'kinda_'
'burg_'
'`_'
'20th_'
'snorkel_'
'moon_'
'shouting_'
'performance_'
'gravy_'
'meridien_'
'connects_'
'pearl_'
'pancake_'
'2017_'
'tents_'
'operator_'
'occupancy_'
'hua_'
'altogether_'
'oil_'
'classes_'
'greater_'
'homely_'
'gentle_'
'stepping_'
'ky_'
'core_'
'shortage_'
'functions_'
'elevated_'
'refund_'
'moments_'
'matters_'
'linked_'
'hurry_'
'tly_'
'banff_'
'halfway_'
'ensuring_'
'cuts_'
'upset_'
'thrilled_'
'considerable_'
'spoil_'
'shaded_'
'kl_'
'arcade_'
'supervisor_'
'buying_'
'32_'
'printing_'
'platform_'
'persons_'
'invited_'
'blackout_'
' " ( _'
'porto_'
'medina_'
'signed_'
'secured_'
'fayre_'
'assistant_'
'anybody_'
'strength_'
'privilege_'
'excellence_'
'conveniences_'
'parade_'
'mirrors_'
'helpfulness_'
'breaks_'
'gathering_'
'81_'
'tho_'
'monica_'
'bourbon_'
'stored_'
'ors_'
'goa_'
'ff_'
'sport_'
'nasty_'
'jumping_'
'glazed_'
'barbara_'
'auckland_'
'dhabi_'
'sophisticated_'
'ending_'
'cubicle_'
'120_'
'veg_'
'letting_'
'ruby_'
'hearty_'
'backs_'
'won_'
'ke_'
'irritating_'
'facade_'
'craft_'
'countries_'
'dual_'
'sells_'
'negotiate_'
'dome_'
'wednesday_'
'test_'
'sweeping_'
'exhausted_'
'theatres_'
'sed_'
'quarters_'
'mod_'
'lastly_'
'grilled_'
'cafeteria_'
'spotted_'
'gap_'
'clearing_'
'necessarily_'
'kowloon_'
'easiest_'
'law_'
'humid_'
'explored_'
'angeles_'
'stratford_'
'restuarants_'
'pulling_'
'luke_'
'interacted_'
'cave_'
'sensational_'
'robe_'
'boards_'
' . - _'
'collected_'
'perks_'
'mara_'
'cleveland_'
'sukhumvit_'
'frank_'
'emergency_'
'rio_'
'handling_'
'depends_'
' . ) ._'
'ul_'
'sparse_'
'gatwick_'
'alcoholic_'
'a1_'
';_'
'fight_'
'den_'
'adequately_'
'zealand_'
'colombo_'
'slope_'
'drab_'
'cycling_'
'wilderness_'
'students_'
'shady_'
'limo_'
'lose_'
'ipad_'
'feed_'
'wan_'
'popcorn_'
'moab_'
'mai_'
'daylight_'
'appalling_'
'fries_'
'declined_'
'alright_'
'ubud_'
'instant_'
'apologized_'
'scottsdale_'
'havana_'
'cinnamon_'
'version_'
'respond_'
'10'
'searching_'
'overcrowded_'
'indigo_'
'bench_'
'temperatures_'
'reflect_'
'sale_'
'macau_'
'cheery_'
'royalty_'
'loyal_'
'ance_'
' ] _'
'confusion_'
'brisbane_'
'bellmen_'
'waterfalls_'
'smelt_'
'safely_'
'oddly_'
'lexington_'
'germany_'
'opulent_'
'knock_'
'hanoi_'
'excellently_'
'dried_'
'tacky_'
'ruined_'
'doubles_'
'quantity_'
'celebrating_'
'cares_'
'blankets_'
'screens_'
'riverfront_'
'lcd_'
'jersey_'
'indicated_'
'commute_'
'jack_'
'ga_'
'0'
'perth_'
'4'
'surprises_'
'panel_'
'seek_'
'oven_'
'botanical_'
'baht_'
'varieties_'
'ratings_'
'oberoi_'
'isle_'
'600_'
'slamming_'
'reaching_'
'queenstown_'
'mont_'
'joe_'
'ely_'
'williamsburg_'
'ive_'
'como_'
'emirates_'
'donuts_'
'ard_'
'airports_'
'panama_'
'becoming_'
'hourly_'
'circus_'
'carmel_'
'sheer_'
'monastery_'
'ho_'
'turnpike_'
'midway_'
'ue_'
'suburb_'
'grown_'
'tivoli_'
'quietly_'
'somebody_'
'petrol_'
'exact_'
' ? )_'
' ....... _'
'stalls_'
'pharmacy_'
'kick_'
'hung_'
'virginia_'
'unbelievably_'
'risk_'
'ncp_'
'thorough_'
'salzburg_'
'marriotts_'
'maldives_'
'waldorf_'
'respite_'
'pullman_'
'lying_'
'gare_'
'mouth_'
'loaded_'
'strolling_'
'ottawa_'
'favorites_'
'sailing_'
'relatives_'
'turkish_'
'ti_'
'rim_'
'requesting_'
'recognized_'
'holding_'
'cork_'
'bass_'
'partially_'
'ist_'
'dishwasher_'
'climate_'
'chi_'
'busses_'
'swing_'
'nine_'
'hawaii_'
'quebec_'
'lowest_'
'sidewalks_'
'score_'
'tavern_'
'desperate_'
'benedict_'
'asleep_'
'rules_'
'fortune_'
'ducks_'
'asheville_'
'shift_'
'produced_'
'page_'
'horn_'
'grandeur_'
'def_'
'teenagers_'
'galway_'
'feeding_'
'horrendous_'
'flies_'
'drunk_'
'ki_'
'blanket_'
'21st_'
'mi_'
'memphis_'
'liberty_'
'canadian_'
'ignore_'
'housing_'
'winds_'
'letter_'
'ideas_'
'stellar_'
'slowly_'
'sixth_'
'serengeti_'
'hotelso_'
'extreme_'
'compound_'
'bugs_'
'tampa_'
'official_'
'clerks_'
'caution_'
'carpeting_'
'wishing_'
'turtles_'
'monterey_'
'understood_'
'success_'
'm1_'
'jfk_'
'tayed_'
'likewise_'
'legs_'
'himself_'
'dates_'
'chip_'
'vendors_'
'suburbs_'
'kindness_'
'furthest_'
' @ _'
'spoken_'
'intend_'
'sharp_'
'reward_'
'jogging_'
'50'
'scattered_'
'pine_'
'oldest_'
'confortable_'
'anda_'
'acknowledged_'
'respects_'
'designated_'
'centres_'
'bart_'
'ongoing_'
'jan_'
'scheme_'
'om_'
'error_'
'tin_'
'souvenir_'
'horses_'
'here'
'dolphins_'
'za_'
'accomodations_'
'thumbs_'
'prince_'
'branded_'
'wn_'
'roaring_'
'martin_'
'ary_'
'straightforward_'
'surround_'
'singles_'
'nile_'
'arm_'
'alaska_'
'watering_'
'informal_'
'refreshments_'
'plant_'
'astoria_'
'whereas_'
'sick_'
'reap_'
'busier_'
' ” ._'
'paintings_'
'dale_'
'venetian_'
'inspiring_'
'functioning_'
'dawn_'
'chatty_'
'adjust_'
'banana_'
'spirits_'
'sincere_'
'ning_'
'exotic_'
'revisit_'
'lukewarm_'
'considerably_'
'waterloo_'
'washed_'
'vietnam_'
'siem_'
'mom_'
'exposed_'
'canals_'
'lovers_'
'againthe_'
'nicethe_'
'gain_'
'film_'
'moscow_'
'million_'
'leather_'
'daughters_'
'redone_'
'investment_'
'folk_'
'blast_'
'aaa_'
'eclectic_'
'!. _'
'nh_'
'reykjavik_'
'quicker_'
'faded_'
'specialty_'
'ingly_'
'furnishing_'
'flush_'
'niagara_'
'mentioning_'
'guards_'
'friendlier_'
'+_'
'wales_'
'alike_'
'rica_'
'hockey_'
'85_'
'practice_'
'apples_'
'wyndham_'
'sol_'
'esp_'
'drapes_'
'correctly_'
'arizona_'
'tim_'
'lancaster_'
'fame_'
'entertained_'
'claustrophobic_'
'btw_'
'advantages_'
'winery_'
'toaster_'
'representative_'
'organise_'
'mounted_'
'pp_'
'alhambra_'
' " - _'
'loading_'
'resulted_'
'grassy_'
'brighton_'
'mo_'
'boot_'
'splurge_'
'rooftops_'
'hangers_'
'cairo_'
'30'
'cats_'
'breakfast'
'36_'
'satisfying_'
'pudong_'
'hd_'
'fjord_'
'teams_'
'fro_'
'eats_'
'louise_'
'creative_'
'silly_'
'recall_'
'promise_'
'fussy_'
'extend_'
'physical_'
'granola_'
'broke_'
'ballroom_'
'vatican_'
'soulless_'
'rum_'
'whale_'
'user_'
'replacing_'
'ranging_'
'pod_'
'tom_'
'tiled_'
'there'
'cabanas_'
'thomson_'
'esplanade_'
'australian_'
'ying_'
'ure_'
'reflects_'
'nightclub_'
' , $ _'
'treasure_'
'picks_'
'lavish_'
'enhanced_'
'beverly_'
'chalets_'
'blocking_'
'thanksgiving_'
'rely_'
'delays_'
'1000_'
'switzerland_'
'potato_'
'pan_'
'mixture_'
'cracked_'
'camping_'
'blend_'
'800_'
'valued_'
'sacramento_'
'duration_'
'boasts_'
'blow_'
'resolve_'
'instance_'
'sweets_'
'primary_'
'pitch_'
'finger_'
'antiques_'
'seedy_'
'enthusiasm_'
'desks_'
'unhappy_'
'sterile_'
'reminds_'
'ray_'
'notes_'
'soda_'
'rugby_'
'malta_'
'hamptons_'
'cloud_'
'attract_'
'cvs_'
'colourful_'
'15'
'wooded_'
'temporary_'
'soccer_'
'preferences_'
'grumpy_'
'ele'
'answering_'
'itthe_'
'frontage_'
'compliments_'
'brisk_'
'biltmore_'
'ver_'
'us'
'treadmill_'
'jo_'
'gorge_'
'glimpse_'
'tender_'
'dire_'
'camps_'
'wearing_'
'connectivity_'
'sofia_'
'transferred_'
'equiped_'
'blackpool_'
'sbut_'
'project_'
'maine_'
'lime_'
'dolphin_'
'wondering_'
'serenity_'
'pi_'
'discounts_'
'depart_'
'boulder_'
'appointments_'
'airport'
'introduction_'
'impeccably_'
'housed_'
'haul_'
'happier_'
'great'
'dodgy_'
'distances_'
'tends_'
'personalized_'
'comparing_'
'disadvantage_'
'automatic_'
'za'
'presumably_'
'maximum_'
'ervice_'
'colorful_'
'atlantis_'
'hint_'
'dulles_'
' ! ! ! ! !_'
'motorcycle_'
'hamburg_'
'termini_'
'pots_'
'ise_'
'bathing_'
'unloading_'
'thomas_'
'sensitive_'
'diverse_'
'delights_'
'utterly_'
'ngs_'
'handicapped_'
'estuary_'
'equal_'
'angel_'
'windsor_'
'purely_'
'exiting_'
'video_'
'nottingham_'
'loo_'
'laguna_'
'inch_'
'hiltons_'
'feather_'
'cy_'
'chipped_'
'ner_'
'euston_'
'discreet_'
'backed_'
'admire_'
'place'
'overcooked_'
'itinerary_'
'costly_'
'shutters_'
'lotion_'
'lima_'
'gloomy_'
'element_'
'essentials_'
'covent_'
'uniformly_'
'spirit_'
'reflected_'
'sections_'
'disinterested_'
'condos_'
'anchorage_'
'walkers_'
'sso_'
'settle_'
'goodies_'
'borrow_'
'2010_'
'15min_'
'splash_'
'seaview_'
'palma_'
'kit_'
'baltimore_'
'ripped_'
'back'
'anticipated_'
'staythe_'
'slippery_'
'satisfy_'
'gloucester_'
'housekeepers_'
'fail_'
'bliss_'
'aman_'
'weary_'
'rave_'
'pretentious_'
'military_'
'displayed_'
'cutting_'
'roma_'
'horizon_'
'cherry_'
'bora_'
'yogurts_'
'bicycle_'
'prepaid_'
'minded_'
'solved_'
'sfo_'
'rambla_'
'quiet'
'organic_'
'nuts_'
'instantly_'
'remarkably_'
' .$ _'
'tic_'
'struck_'
'room'
'renting_'
'departed_'
'aqua_'
'sublime_'
'soothing_'
'saves_'
'battery_'
'navy_'
'yorkshire_'
'suffer_'
'squeeze_'
'smelly_'
'honor_'
'growing_'
'granada_'
'eurostar_'
'busiest_'
'bury_'
'25'
'mad_'
'hotels'
'ery_'
'x'
'settings_'
'pointing_'
'ould_'
'3'
'cruises_'
'beats_'
'win_'
'kayaks_'
'alex_'
'rapid_'
'ramada_'
'numbered_'
'm6_'
'inform_'
'eatery_'
'departures_'
'cabana_'
'touristic_'
'q'
'oversized_'
'krakow_'
'flavour_'
'difficulties_'
'lifetime_'
'andaz_'
'saigon_'
'lengthy_'
'fox_'
'bizarre_'
'accordingly_'
'flexible_'
' ? ) ._'
'intended_'
'horns_'
'enjoys_'
'dramatic_'
'buffett_'
'utensils_'
'uneven_'
'malaga_'
'angkor_'
')._'
'tucson_'
'sonoma_'
'soi_'
'ria_'
'operating_'
'hilly_'
'apologies_'
' !, _'
'sandals_'
'outs_'
'kill_'
'drawbacks_'
'auto_'
'15mins_'
'nervous_'
'costco_'
'afternoons_'
'whisked_'
'upside_'
'toll_'
'thrown_'
'remodel_'
'pouring_'
'nelson_'
'ju'
'hoteli_'
'airplane_'
'acknowledge_'
'op_'
'customs_'
'couches_'
'award_'
'wrap_'
'william_'
'impact_'
'crashing_'
'automatically_'
'updates_'
'shining_'
'luang_'
'warren_'
'vineyard_'
'townbut_'
'statue_'
'mercedes_'
'conclusion_'
'sam_'
'pad_'
'stanley_'
'paved_'
'lumpy_'
'vegetation_'
'technology_'
'systems_'
'pc_'
'bazaar_'
'wired_'
'ticks_'
'operates_'
'incident_'
'chap_'
'ah_'
'russian_'
'odor_'
'ku'
'inches_'
'39_'
'worries_'
'unnecessary_'
'small'
'rained_'
'popped_'
'knocked_'
'effectively_'
'constructed_'
'city'
'barking_'
'passport_'
'niggles_'
'leopard_'
'fitting_'
'fence_'
'cappuccino_'
'backdrop_'
'ants_'
'airlines_'
'admittedly_'
'31_'
' , , _'
'strangely_'
'rentals_'
'5'
'striking_'
'rectified_'
'golfers_'
'glory_'
'echo_'
'catalunya_'
'amusement_'
' !( _'
'lanai_'
'favor_'
'device_'
'repeated_'
'hamilton_'
'energetic_'
'congress_'
'beneath_'
'hopping_'
'custom_'
'afforded_'
'theaters_'
'soaps_'
'res_'
'represents_'
'mains_'
'delta_'
'covering_'
'salamanca_'
'newark_'
'ments_'
'hubby_'
'canteen_'
'sporting_'
'hotwire_'
'spartan_'
'reunion_'
'proceeded_'
'creating_'
'sunbathing_'
'remind_'
'dubrovnik_'
' , '
' ( # _'
'torn_'
'chiang_'
'andthis_'
'"_'
'waits_'
'lousy_'
'kitchens_'
'guesthouse_'
'carolina_'
'ann_'
'mainland_'
'heck_'
'handful_'
'bbc_'
'apologised_'
'affect_'
'was'
'ranger_'
'platter_'
'force_'
'cal_'
'politely_'
'philly_'
'death_'
'canapés_'
'boutiques_'
'tiring_'
'native_'
'ir_'
'freeways_'
'6'
'squares_'
'discovery_'
'deserved_'
'camera_'
'beachside_'
'beach'
'student_'
'see'
'paddle_'
'frame_'
'coat_'
'circumstances_'
'shores_'
'riviera_'
'retro_'
'mature_'
'matched_'
'jets_'
'combo_'
'wasted_'
'suggesting_'
'roomand_'
'detract_'
'defiantly_'
'decently_'
'packages_'
'hitting_'
'ceremony_'
'wal_'
'variable_'
'reports_'
'grabbed_'
'flowing_'
'flatscreen_'
'flag_'
'amtrak_'
'2018_'
'salon_'
'jasper_'
'impress_'
'cricket_'
'ala_'
'5min_'
'25th_'
'santiago_'
'laps_'
'trafalgar_'
'slick_'
'patios_'
'noting_'
'fairness_'
'cobbled_'
'z'
'teh_'
'jamaica_'
'dom_'
'breaking_'
'animation_'
'underwhelming_'
'sons_'
'painting_'
'neighbor_'
'nanjing_'
'exceedingly_'
'encourage_'
'bologna_'
'quest_'
'justice_'
'installed_'
'dlr_'
'divided_'
'capri_'
'1'
'staff'
'rushing_'
'prosecco_'
'portsmouth_'
'ney_'
'jewish_'
'contains_'
'compliment_'
'ty'
'surfers_'
'mon_'
'funicular_'
'finishing_'
'ette_'
'aman'
'accross_'
'unobtrusive_'
'soundproof_'
'slip_'
'misleading_'
'culinary_'
'utah_'
'neighborhoods_'
'calgary_'
'bre'
'48_'
'mould_'
'minneapolis_'
'hh_'
'goodand_'
'fireplaces_'
' .’_'
'zed_'
'shorter_'
'relation_'
'helsinki_'
'canapes_'
'42_'
'--_'
'styles_'
'lighted_'
'honey_'
'warehouse_'
'dutch_'
'desirable_'
'burj_'
' • _'
' : -_'
'were'
'suggests_'
'sticky_'
'prevent_'
'frig_'
'amidst_'
'switches_'
'recomend_'
'procedure_'
'granite_'
'carmen_'
' :) _'
'ticked_'
'ponds_'
'patrick_'
'neck_'
'flavor_'
'spas_'
'rooms'
'drawn_'
'bryce_'
'timing_'
'satnav_'
'hurricane_'
'goodbut_'
'extensively_'
'containing_'
'classical_'
'brewers_'
'agency_'
'60'
'33_'
'shell_'
'roaming_'
'pair_'
'hershey_'
'dfw_'
'cabo_'
'assumed_'
'are'
'rer_'
'random_'
' ( '
'landmarks_'
'hell_'
'etc'
'damage_'
'burning_'
'110_'
'undoubtedly_'
'moderately_'
'crash_'
'characters_'
'tive_'
'polished_'
'honesty_'
'gs_'
'180_'
'yen_'
'trays_'
'signposted_'
'j'
'henry_'
'featuring_'
'exits_'
'arrives_'
'materials_'
'clarion_'
'barbecue_'
'bands_'
'and'
' ) !_'
'tells_'
'monkey_'
'manageable_'
'ex_'
'depot_'
'coastline_'
'americans_'
'swe_'
'limit_'
'churches_'
'wandered_'
'penthouse_'
'passage_'
'harrogate_'
'mosquito_'
'consistency_'
'source_'
'possibility_'
'corrected_'
'anne_'
'versus_'
'strawberries_'
'louvre_'
'ya'
'recognize_'
'ome_'
'model_'
'ing'
'cava_'
'appointment_'
'albuquerque_'
'ze_'
'unsure_'
'photographs_'
'hacienda_'
'sour_'
'presidential_'
'lauderdale_'
'hide_'
'feast_'
'accessing_'
'turtle_'
'sleepers_'
'greatand_'
'ghost_'
'equivalent_'
'branson_'
'ther_'
'singer_'
'od_'
'ied_'
'springfield_'
'souvenirs_'
'punta_'
'ports_'
'ial_'
'16'
'rialto_'
'nu'
'loves_'
'ja_'
'40'
'teenage_'
'record_'
'limousine_'
'inedible_'
'fronts_'
'chase_'
'breakfastthe_'
'aging_'
'rick_'
'qui'
'pancras_'
'gather_'
'convent_'
'korean_'
'frequented_'
'expo_'
'bug_'
'waterhole_'
'smiley_'
'panorama_'
'attempts_'
'staffing_'
'norfolk_'
'cellar_'
'bob_'
'ales_'
'£ _'
'service'
'inclined_'
'hugely_'
'hippos_'
'wondered_'
'til_'
'tier_'
'mike_'
'caves_'
'captive_'
'360_'
'2'
' = _'
'vietnamese_'
'taps_'
'kayaking_'
'ini_'
'eleven_'
'elegantly_'
'browns_'
'ythe_'
'struggling_'
'shirt_'
'ong_'
'hobart_'
'harder_'
'ging_'
'disturbance_'
'westfield_'
'styled_'
'shock_'
'pressed_'
'pathetic_'
'ged_'
'exist_'
'by'
'approachable_'
'street'
'refill_'
'io_'
'harry_'
'ed'
'dreams_'
'cancel_'
'stuffed_'
'reminiscent_'
'regent_'
'drug_'
'cincinnati_'
'bin_'
'subject_'
'protected_'
'oaks_'
'ihop_'
'humour_'
'accident_'
'wolf_'
'whoever_'
'location'
'halifax_'
'electricity_'
'captain_'
'acted_'
'slot_'
'sipping_'
'pits_'
'micro_'
'hosted_'
'favour_'
'boots_'
'shower'
'sheep_'
'replied_'
'perimeter_'
'makers_'
'kansas_'
'jumeirah_'
'electronics_'
'yacht_'
'pigeon_'
'overseas_'
'otel_'
'observation_'
'muscat_'
'grubby_'
'elizabeth_'
'cabinet_'
'brother_'
'backside_'
'undercover_'
'ries_'
'ler_'
'considerate_'
'congestion_'
'suffered_'
'myanmar_'
'mushrooms_'
'facelift_'
'coke_'
'carriage_'
'sorting_'
'prabang_'
'monte_'
'logan_'
'handicap_'
'ventured_'
'ses_'
'day'
'cemetery_'
'cdg_'
's'
'regional_'
'naturally_'
'ikea_'
'fat_'
'brilliantly_'
'airconditioning_'
'patchy_'
'nite_'
'task_'
'sited_'
'mat_'
'ear'
'dj_'
'bins_'
'avoiding_'
'danube_'
'stable_'
'kfc_'
'finishes_'
'beforehand_'
'vaporetto_'
'tatty_'
'speciality_'
'gravel_'
'currency_'
'alexandria_'
'aberdeen_'
'stressful_'
'polo_'
'out'
'hotelwe_'
'generic_'
'forbidden_'
'suddenly_'
'rule_'
'jakarta_'
'champs_'
'bumpy_'
'vegetable_'
'showering_'
'shocking_'
'safaris_'
'moreover_'
'gentlemen_'
'remodeling_'
'pizzas_'
'lee_'
'gbp_'
'feb_'
'daniel_'
'compensation_'
'blind_'
'wat_'
'pike_'
'organisation_'
'excel_'
'evidence_'
'economical_'
'delivering_'
'cation_'
'smoky_'
'lle_'
'engaged_'
'session_'
'ked_'
'greets_'
'dresser_'
'canopy_'
'affected_'
'uptown_'
'ou'
'manned_'
'amalfi_'
'abound_'
'stove_'
'shoe_'
'road'
'permit_'
'marrakech_'
'verall_'
'solve_'
'rs'
'repeatedly_'
'mega_'
'jordan_'
'flash_'
'bowls_'
'unlikely_'
'united_'
'tor_'
'portugal_'
'infrastructure_'
'greatthe_'
'director_'
'clean'
'stark_'
'louisville_'
'dusk_'
'crescent_'
'laugh_'
'fake_'
'earl_'
'cuisines_'
'morning'
'awhile_'
'23'
'southwest_'
'smiled_'
'science_'
'privileges_'
'agents_'
'absence_'
'yesterday_'
'spice_'
'requiring_'
'refilled_'
'town'
'receipt_'
'raffles_'
'quoted_'
'machu_'
'tuscany_'
'oo'
'leicester_'
'itand_'
'clouds_'
'charlie_'
'capable_'
'again'
'adventures_'
'12'
'yoghurts_'
'transported_'
'foam_'
'buck_'
'xi'
'trap_'
'programme_'
'buenos_'
'blew_'
'unprofessional_'
'understandable_'
'turquoise_'
'trick_'
'publix_'
'content_'
'claimed_'
'bubbly_'
'20mins_'
'takeaway_'
'new'
'locker_'
'georgian_'
'dun'
'duke_'
'alive_'
'vegetarians_'
'rays_'
'mineral_'
'greens_'
'generously_'
'coverage_'
'ating_'
'remaining_'
'precinct_'
'ped_'
'iphone_'
'80'
'rocking_'
'roadside_'
'periods_'
'mills_'
'heaps_'
'closeby_'
'bee'
' ) & _'
'onsen_'
'ohio_'
'dy_'
'carlos_'
'areathe_'
'appliances_'
'unfailingly_'
'rhine_'
'planet_'
'duval_'
'der_'
'croissant_'
'serviceable_'
'resulting_'
'quietness_'
'preparing_'
'partake_'
'cornwall_'
'angle_'
'star'
'picchu_'
'partying_'
'nuisance_'
'lar'
'goodness_'
'everytime_'
'area'
'ara_'
' .– _'
'volleyball_'
'notable_'
'nice'
'introduced_'
'helicopter_'
'hats_'
'gigantic_'
'dispenser_'
'bananas_'
'annoyance_'
'wellness_'
'silom_'
'pound_'
'critical_'
'cedar_'
'bucharest_'
'tomato_'
'tahoe_'
'maui_'
'elliptical_'
'vacations_'
'scuba_'
'palermo_'
'overflow_'
'hoi_'
'stupid_'
'sourced_'
'smelling_'
'justify_'
'ington_'
'hairs_'
'dreary_'
'dotted_'
'38_'
' ? ? ?_'
'tro'
'rushmore_'
'rowdy_'
'lands_'
'tur'
'shine_'
'nj_'
'kempinski_'
'mosquitoes_'
'hostel_'
'extent_'
'continually_'
'compensate_'
'cologne_'
'bills_'
'23rd_'
'queries_'
'pe_'
'married_'
'incl_'
'douglas_'
'coupled_'
'register_'
'raise_'
'peacocks_'
'kruger_'
'hermitage_'
'durham_'
'cuban_'
'caravan_'
'burn_'
'aires_'
'zermatt_'
'westminster_'
'maya_'
'chandeliers_'
'calming_'
'' _'
'yo'
'veggie_'
'chelsea_'
'approaching_'
'8'
'zen_'
'riga_'
'recognised_'
'nooks_'
'minutes'
'joints_'
'door'
'clever_'
'attracts_'
'rode_'
'papers_'
'league_'
'had'
'bly_'
'bergen_'
'avail_'
'accessibility_'
'tan_'
'sensible_'
'reflection_'
'passion_'
'ible_'
'backwards_'
'assuming_'
'annexe_'
'weekday_'
'password_'
'mango_'
'makeup_'
'ily_'
'greasy_'
'dump_'
'700_'
'trailer_'
'tradition_'
'shed_'
'rosa_'
'mur'
'millennium_'
'fuel_'
'cushions_'
'contrary_'
'bay'
' , ._'
'worlds_'
'wendy_'
'townso_'
'tariff_'
'stay'
'plethora_'
'madness_'
'inspired_'
'ations_'
'assisting_'
'5mins_'
'ultimately_'
'truth_'
'phnom_'
'paragon_'
'mesa_'
'man'
'edible_'
'disappeared_'
'afield_'
'preserved_'
'mel'
'gifts_'
'father_'
'ea'
'black'
'shrimp_'
'secrets_'
'operations_'
'myrtle_'
'hunting_'
'humidity_'
'established_'
'v'
'tions_'
'swiftly_'
'nest_'
'autumn_'
'shaving_'
'pavement_'
'mu'
'moroccan_'
'congratulations_'
'11'
'th'
'slice_'
'experiencing_'
'creates_'
'candles_'
'yangon_'
'trader_'
'townand_'
'servicing_'
'problematic_'
'os'
'nes_'
'iced_'
'fter_'
'doha_'
'copy_'
'chili_'
'blame_'
'41'
'34_'
'weekdays_'
'ultimate_'
'thereand_'
'successful_'
'manages_'
'holder_'
'highlands_'
'furthermore_'
'costing_'
'bearing_'
'7'
'13th_'
'you'
'verona_'
'killarney_'
'countless_'
'bakeries_'
'thousands_'
'sundays_'
'renovating_'
'petra_'
'northwest_'
'minuses_'
'keurig_'
'gatlinburg_'
'earls_'
'danish_'
'dad_'
'clue_'
'30th_'
'skipped_'
'oakland_'
'mud_'
'incorrect_'
'freedom_'
'compensated_'
'closeness_'
'130_'
'wider_'
'use'
'trump_'
'too'
'palazzo_'
'foliage_'
'areaso_'
'arches_'
'trainee_'
'tallinn_'
'stamford_'
'ownership_'
'fold_'
'wc_'
'tiki_'
'insist_'
'hu'
'freezer_'
'distinct_'
'closely_'
' ' '
'racing_'
'occupies_'
'hy'
'fog_'
'bournemouth_'
' ) '
'vey_'
'unobstructed_'
'ties_'
'scruffy_'
'pantry_'
'mer_'
'consequently_'
'borough_'
'bath'
'anna_'
'ves_'
'tooth_'
'thirty_'
'surfing_'
'on'
'lin_'
'latin_'
'ki'
'han_'
'fills_'
'cotswolds_'
'benches_'
'awe_'
'steel_'
'sar'
'mer'
'hawaiian_'
'glance_'
'cloth_'
'warn_'
'patience_'
'orchid_'
'elaborate_'
'2009_'
'tomorrow_'
'stating_'
'powder_'
'modernised_'
'eagle_'
'diet_'
'9'
'70'
' ... '
' " . _'
'way'
'ry'
'restaurant'
'reat_'
'kiosk_'
'ii_'
'ges_'
'cotton_'
' " '
'rid_'
'reccomend_'
'excitement_'
'buti_'
'bears_'
'ammenities_'
'unreliable_'
'stiff_'
'merely_'
'lesson_'
'kin'
'bond_'
'thoroughfare_'
'polish_'
'painfully_'
'ore_'
'mai'
'luxembourg_'
'jog_'
'homey_'
'formerly_'
'expects_'
'definetly_'
'damaged_'
'bellagio_'
'22'
' ), _'
'sleep'
'san'
'cheesecake_'
'unattractive_'
'soundproofed_'
'sir_'
'repaired_'
'pleasurable_'
'joint_'
'immigration_'
'human_'
'hosting_'
'flags_'
'bull_'
'thermal_'
'sunbed_'
'queuing_'
'purple_'
'proactive_'
'ol_'
'night'
'marie_'
'isolation_'
'iberostar_'
'flu'
'commend_'
'é_'
'tuks_'
'obtain_'
'nts_'
'lessons_'
'exorbitant_'
'chobe_'
'audience_'
'attracted_'
'valencia_'
'of'
'niggle_'
'lounger_'
'hood_'
'for'
'ce'
'brook_'
'bathrobe_'
'ws_'
'vent_'
'tiger_'
'ringing_'
'radiator_'
'ol'
'ko'
'flooded_'
'comp_'
'clo'
'cafés_'
'begins_'
'shelves_'
'rom_'
'rib_'
'organising_'
'joining_'
'helpful'
'flooring_'
'closets_'
'bunk_'
'beams_'
'lyon_'
'luxe_'
'image_'
'clarke_'
'bal'
'alps_'
'advertise_'
'vely_'
'tony_'
'spokane_'
'pipes_'
'nar'
'knocking_'
'icing_'
'house'
'gala_'
'fan'
'coin_'
'beds'
'areaand_'
'whisky_'
'ryokan_'
'pathway_'
'ola_'
'frustrated_'
'doctor_'
'dear_'
'concerts_'
'17'
'ow_'
'over'
'grills_'
'forum_'
'ee'
'causing_'
'andrew_'
'aggressive_'
'stain_'
'safeway_'
'rundown_'
'r'
'progress_'
'independence_'
'socket_'
'raw_'
'phi_'
'ji'
'hash_'
'unremarkable_'
'strike_'
'sole_'
'noise'
'ng'
'ke'
'grim_'
'decades_'
'comfortable'
'acts_'
' ? !_'
'nord_'
'inexperienced_'
'iness_'
'holds_'
'desperately_'
'dec_'
'clinic_'
'bathroom'
'thro'
'receiving_'
'nightcap_'
'circuit_'
'ua_'
'sebastian_'
'pousada_'
'pics_'
'ord_'
'nap_'
'je'
'dan_'
'buggies_'
'sau'
'hammocks_'
'girlfriend_'
'ben'
'abandoned_'
'sheltered_'
'red'
'rabbit_'
'ok'
'markt_'
'hunt_'
'gay_'
'from'
'experience'
'cruz_'
'whi'
'warwick_'
'sufficiently_'
'overhaul_'
'ontario_'
'ght_'
'galle_'
'follows_'
'deserts_'
'barn_'
'ao_'
'abrupt_'
'tea'
'strasse_'
'steve_'
'sher'
'reduce_'
'ory_'
'maintaining_'
'jeep_'
'guidance_'
'globe_'
'engineer_'
'basel_'
'audible_'
' ! ! _'
'walgreens_'
'voice_'
'tow_'
'silence_'
'represented_'
'plymouth_'
'inverness_'
'ille_'
'identical_'
'free'
' .; _'
'vallarta_'
'sightings_'
'shire_'
'richard_'
'penh_'
'pedro_'
'mid'
'locks_'
'bo_'
'winchester_'
'leela_'
'lea'
'immensely_'
'ence_'
'cairns_'
'70s_'
'.(_'
'users_'
'taxi'
'respectful_'
'reno_'
'plays_'
'park'
'mint_'
'har'
'eden_'
'comforter_'
'candy_'
'macy_'
'leafy_'
'gambling_'
'fair'
'crammed_'
'artificial_'
'aff_'
'20'
'yo_'
'russell_'
'piping_'
'nor'
'necessities_'
'lankan_'
'bangalore_'
'77_'
'rains_'
'mum_'
'hits_'
'festive_'
'con'
'cigar_'
'35'
'top'
'rad'
'norway_'
'north'
'marketplace_'
'lla_'
'chargeable_'
'bled_'
'140_'
'yelling_'
'wai'
'verde_'
'scent_'
'miraflores_'
'insufficient_'
'inle_'
'backyard_'
'unwelcoming_'
'under'
'trekking_'
'results_'
'individually_'
'head'
'dra'
'chaise_'
'alpine_'
'ross_'
'dthe_'
'decking_'
'collins_'
'castles_'
'busy'
'airplanes_'
'2008_'
'sti'
'serena_'
'peri'
'galore_'
'cambria_'
'applebee_'
'prison_'
'ight_'
'duvets_'
'digital_'
'brochure_'
'ban'
'attempted_'
'adventurous_'
'whales_'
'tt_'
'ts'
'someplace_'
'replenish_'
'nathan_'
'forms_'
'deciding_'
'communicate_'
'comfortablethe_'
' ~_'
'sending_'
'ree'
'rai_'
'prawns_'
'pierre_'
'paperwork_'
'noisey_'
'jumped_'
'hof_'
'docking_'
'doable_'
'that'
'resting_'
'freely_'
'encouraged_'
'ches_'
'bla'
'arc_'
'alo'
'aimed_'
'adorable_'
'waitstaff_'
'upkeep_'
'swan_'
'shortcomings_'
'sculptures_'
'recreation_'
'pushy_'
'multitude_'
'mit'
'messy_'
'grand'
'ala'
'viewed_'
'sky'
'repairs_'
'pushing_'
'oozes_'
'omaha_'
'noodles_'
'navigating_'
'montana_'
'hudson_'
'freshen_'
'fantastically_'
'facial_'
'excellant_'
'ethe_'
'coco_'
'alas_'
'wrapped_'
'stressed_'
'refined_'
'metro'
'highland_'
'bella_'
'aim_'
'worker_'
'ser'
'ole_'
'mykonos_'
'mushroom_'
'mp'
'kayak_'
'jean_'
'escalator_'
'coloured_'
'che'
'celebrations_'
'accomodate_'
'350_'
'raleigh_'
'orientation_'
'individuals_'
'bc_'
'24th_'
' … ._'
'woodland_'
'toured_'
'staybridge_'
'rm_'
'reluctant_'
'les'
'inland_'
'gal_'
'fs_'
'conducive_'
'80s_'
'ss'
'retains_'
'reachable_'
'proofed_'
'peru_'
'managing_'
'lso_'
'flair_'
'canary_'
'bkk_'
'arrogant_'
'anxious_'
' ; - _'
'west'
'walkand_'
'pineapple_'
'media_'
'laying_'
'fluent_'
'floor'
'burlington_'
'battle_'
'attractively_'
'unbearable_'
'rolled_'
'roadand_'
'intermittent_'
'hill'
'dunkin_'
'cot_'
'bites_'
'anti'
'. '
'world'
'wel'
'waterside_'
'sy_'
'scandic_'
'kennedy_'
'inquired_'
'inefficient_'
'imaginative_'
'fraction_'
'food'
'del'
'confidence_'
' ......._'
'virgin_'
'sto'
'shannon_'
'rivers_'
'interact_'
'flavours_'
'fighting_'
'dr_'
'blanc_'
'banyan_'
'ali_'
'tes_'
'roam_'
'rising_'
'pianist_'
'motorcycles_'
'discussion_'
'corn_'
'canberra_'
'64_'
'ware_'
'the'
'quibble_'
'mayfair_'
'ie'
'economy_'
'cody_'
'cluster_'
'balls_'
'aa'
'wishes_'
'tou'
'taco_'
'stately_'
'matterhorn_'
'fish'
'effortless_'
'down'
'cle'
'antigua_'
'ana'
'valuable_'
'seaweed_'
'recommend'
'quietest_'
'onward_'
'o2_'
'measure_'
'graduation_'
'drank_'
'ct'
'amazing'
'20min_'
'welcomes_'
'wealth_'
'vistas_'
'swa'
'southbank_'
'recommendable_'
'tempted_'
'sheffield_'
'seasonal_'
'roadworks_'
'republic_'
'nc_'
'ious_'
'increase_'
'hideaway_'
'fl_'
'bull'
'trip'
'tail_'
'races_'
'promotion_'
'claims_'
'cia_'
'cent_'
'atop_'
'zip_'
'profile_'
'ottoman_'
'monuments_'
'good'
'extortionate_'
'eli'
'appetizer_'
'zi'
'yr_'
'walker_'
'swam_'
'inc_'
'conventions_'
'brandenburg_'
'televisions_'
'standout_'
'shoreline_'
'sha'
'sapporo_'
'residences_'
'rain'
'mb_'
'mas'
'mahal_'
'at'
'arabian_'
'also'
'30mins_'
'steal_'
'stair_'
'much'
'mosquitos_'
'georgia_'
'feelings_'
'farmers_'
'caliber_'
'bones_'
' : '
'slots_'
'referred_'
'milwaukee_'
'lan_'
'freindly_'
'enabled_'
'areas'
'ably_'
'wall'
'staircases_'
'slower_'
'refurbishing_'
'recharge_'
'pre'
'positively_'
'play'
'pattaya_'
'mist_'
'm'
'learning_'
'ji_'
'hauptbahnhof_'
'burnt_'
'ber'
'ara'
'ae'
'utilized_'
'lakefront_'
'ice'
'graciously_'
'traffic'
'thoughts_'
'responsible_'
'powell_'
'plains_'
'parallel_'
'mezzanine_'
'holland_'
'continuing_'
'configuration_'
'associate_'
'tomatoes_'
'teens_'
'st'
'now'
'minibus_'
'ly'
'grille_'
'goers_'
'eo'
'disorganised_'
'blanca_'
'bed'
'37_'
'1970_'
'war'
'vans_'
'spicy_'
'pin_'
'fusion_'
'displays_'
'curb_'
'armchairs_'
'areabut_'
'42'
'24'
'yas_'
'sun'
'shack_'
'languages_'
'kingdom_'
'huts_'
'cloudy_'
'bad'
'arlington_'
'31'
'spouse_'
'pla'
'okay'
'kingston_'
'ero'
'engine_'
'dissapointed_'
'curious_'
'te'
'tate_'
'staffthe_'
'shooting_'
'requirement_'
'noisier_'
'no'
'mont'
'heights_'
'fyi_'
'detour_'
'chilling_'
'yed_'
'wal'
'stop'
'ratio_'
'musicians_'
'like'
'craziness_'
'bays_'
'away'
'alternatively_'
'als_'
'é'
'worldwide_'
'tte_'
'stag_'
'preparation_'
'ob'
'nightthe_'
'marta_'
'mari'
'hand'
'fridays_'
'franklin_'
'brew_'
'advising_'
'sticks_'
'seine_'
'midday_'
'ino_'
'flip_'
'faults_'
'cs_'
'combine_'
'andyou_'
'age'
'41_'
'than'
'rounds_'
'restaraunt_'
'rest'
'pleasent_'
'players_'
'ko_'
'id'
'glen_'
'favourites_'
'detroit_'
'catherine_'
'andthere_'
'adi'
'wetherspoons_'
'val'
'supplement_'
'routine_'
'oyster_'
'operators_'
'metropolitan_'
'imaginable_'
'h'
'es'
'egypt_'
'billing_'
'againwe_'
'stunningly_'
'restoration_'
'remembering_'
'relais_'
'onwards_'
'ona_'
'noodle_'
'labor_'
'grandson_'
'gothic_'
'counters_'
'tgi_'
'potentially_'
'myriad_'
'mayor_'
'locality_'
'lesser_'
'inthe_'
'hiring_'
'flo'
'creaky_'
'cnn_'
'care'
'ub'
'triangle_'
'shirts_'
'sha_'
'mystery_'
'midweek_'
'lin'
'limits_'
'lag_'
'kilometers_'
'io'
'hurt_'
'exploration_'
'ets_'
'compete_'
'ces_'
'rv_'
'musical_'
'gh'
'drying_'
'crockery_'
'cro'
'coaches_'
'avon_'
'advertising_'
'varying_'
'study_'
'quito_'
'home'
'funchal_'
'fails_'
'em_'
'ct_'
'convinced_'
'chu'
'asi'
' ' - _'
'plaka_'
'pit'
'pays_'
'ner'
'mrs_'
'mississippi_'
'lab'
'hours'
'hilltop_'
'flagstaff_'
'else'
'een_'
'eand_'
'dislike_'
'clueless_'
'anau_'
'ada'
'yand_'
'shar'
'seal_'
'mac_'
'golfing_'
'ers'
'elk_'
'districts_'
'dan'
'automated_'
'attentiveness_'
' ! ! )_'
'washroom_'
'ure'
'um'
'tonic_'
'thi'
'refuge_'
'locale_'
'greetings_'
'entitled_'
'dis'
'council_'
'cordoba_'
'clearwater_'
'ari'
'44_'
'upto_'
'scandinavian_'
'rmb_'
'repetitive_'
'pocket_'
'peaks_'
'olde_'
'mun'
'interactions_'
'dar'
'capped_'
'w'
'view'
'ur'
'toothbrush_'
'rollaway_'
'pool'
'movement_'
'ir'
'ile_'
'hook_'
'guangzhou_'
'dismal_'
'business'
'belongings_'
'airportand_'
'401_'
' - '
'winning_'
'surcharge_'
'prove_'
'possibilities_'
'mia_'
'glamorous_'
'blo'
'behaved_'
'bean_'
'ni'
'my'
'flora_'
'faucet_'
'crack_'
'continuous_'
'conscious_'
'cod_'
'booth_'
'blessing_'
'bellhop_'
'.'
' .-- _'
'whiskey_'
'namba_'
'masses_'
'invest_'
'd'
'cutter_'
'connaught_'
'coffee'
'camp'
'soaked_'
'sip_'
'princes_'
'observed_'
'ite_'
'fares_'
'draft_'
'cally_'
'awards_'
'49_'
' !- _'
'usable_'
'shi'
'scratch_'
'oom_'
'hotelit_'
'hammock_'
'gibraltar_'
'evening'
'downfall_'
'decks_'
'buckingham_'
'90'
'2007_'
'station'
'snowy_'
'nairobi_'
'lobby'
'erratic_'
'clubhouse_'
'bidet_'
' ) ..._'
'venturing_'
'rydges_'
'processed_'
'muesli_'
'mana'
'lol_'
'heaters_'
'hated_'
'forge_'
'caesar_'
'alto_'
'sizeable_'
'sh'
'sequoia_'
'screened_'
'ru'
'roombut_'
'overrun_'
'insects_'
'bell'
'bahia_'
'84_'
'unavailable_'
'sel'
'retrieve_'
'ori'
'neighbour_'
'marginal_'
'interchange_'
'hors_'
'fu'
'exudes_'
'colony_'
'bi'
'apply_'
'amounts_'
'witnessed_'
'sunlight_'
'slc_'
'retired_'
'pedestrianised_'
'mistakes_'
'marred_'
'margaret_'
'honored_'
'fewer_'
'downright_'
'bluff_'
' . . ._'
'unlucky_'
'sy'
'ranks_'
'questionable_'
'needle_'
'fenced_'
'era'
'en'
'dial_'
'crossed_'
'butwe_'
'sur_'
'song_'
'safer_'
'robert_'
'makati_'
'locating_'
'jaipur_'
'flaws_'
'extraordinarily_'
'departments_'
'bordering_'
'upbeat_'
'pi'
'lean_'
'ld_'
'judging_'
' ! - _'
'wa'
'roofs_'
'rhino_'
'rc'
'pm'
'money'
'high'
'harbour'
'ger'
'fear_'
'ever'
'entrees_'
'directing_'
'den'
'carriageway_'
'bound_'
'answers_'
'zi_'
'ruth_'
'pen'
'painful_'
'haymarket_'
'gar'
'fortress_'
'false_'
'enchanting_'
'confident_'
'with'
'unpack_'
'roomi_'
'rings_'
'leaf_'
'fond_'
'corniche_'
'butlers_'
'bellevue_'
'ade'
'28th_'
'tar_'
'strand_'
'ssi'
'pur'
'parc_'
'lucerne_'
'fry_'
'enroute_'
'dragging_'
'conversion_'
'carlo_'
'adjusted_'
'89_'
'22nd_'
'wallet_'
'tracker_'
'touched_'
'times'
'refunded_'
'receptions_'
'pile_'
'nights'
'leaking_'
'ire_'
'frosted_'
'demanding_'
'batteries_'
'bagel_'
'avenida_'
'ands'
'albany_'
' ... ) ._'
'toys_'
'tor'
'sharks_'
'pin'
'laughing_'
'lat'
'green'
'grandchildren_'
'footpath_'
'durango_'
'continuously_'
'cleanest_'
'blessed_'
'ba'
'armchair_'
'travel'
'rockies_'
'placeand_'
'morocco_'
'judge_'
'gan_'
'ds'
'drunken_'
'discuss_'
'bushes_'
'branch_'
'berg_'
'wells_'
'ten'
'pagoda_'
'luggages_'
'improving_'
'frustration_'
'excellent'
'escort_'
'drawing_'
'decorating_'
'brighter_'
'bedded_'
'beale_'
'arlanda_'
'ak_'
'160_'
'zu'
'tank_'
'spa'
'sept_'
'london'
'johannesburg_'
'iest_'
'herself_'
'entertain_'
'earned_'
'de'
'cana_'
'square'
'ruin_'
'pleasant'
'performing_'
'langham_'
'depth_'
'cre'
'centro_'
'bamboo_'
'aria_'
'zan'
'ven_'
'talented_'
'spaced_'
'shake_'
'nick_'
'hereand_'
'des'
'bhutan_'
'beachand_'
'51'
' . '
'text_'
'speakers_'
'sherry_'
'return'
'lounge'
'l'
'germain_'
'faint_'
' ) .'
'wayne_'
'trinity_'
'seminyak_'
'satellite_'
'ns'
'niceand_'
'ming_'
'els_'
'checks_'
'billed_'
'attendees_'
'associates_'
' ........_'
'visually_'
'stic_'
'smoothies_'
'scenes_'
'sag'
'rochester_'
'ised_'
'inn'
'hor'
'geo'
'downs_'
'cold'
'vacant_'
'syracuse_'
'streetso_'
'pepper_'
'passable_'
'matches_'
'journeys_'
'interlaken_'
'ically_'
'horseshoe_'
'gor'
'examples_'
'everywhere'
'etosha_'
'dietary_'
'charger_'
'26th_'
'tented_'
'sure'
'scallops_'
'salty_'
'ornate_'
'nang_'
'hon'
'faulty_'
'ei_'
'cho'
'ch'
'celebrated_'
'ash'
'accessories_'
'work'
'toddler_'
'tenerife_'
'sophia_'
'sche'
'off'
'know'
'cloths_'
'brush_'
'botanic_'
'balinese_'
'available'
'405_'
'yp'
'usage_'
'unusable_'
'thu'
'stairway_'
'sion_'
'scar'
'ring'
'part'
'ong'
'm4_'
'luis_'
'ken'
'ime_'
'headquarters_'
'frogs_'
'fla'
'cast_'
'buffet'
'ani'
'allergies_'
'year'
'tonight_'
'sand'
'peppers_'
'packing_'
'nt'
'ms'
'ker'
'innovative_'
'inlet_'
'formed_'
'fleet_'
'exceptions_'
'ens'
'eni'
'youth_'
'tie_'
'therethe_'
'portuguese_'
'per'
'nana_'
'mode_'
'jammed_'
'guessing_'
'eu_'
'chatted_'
'ati'
'05_'
'threw_'
'statues_'
'ock_'
'milford_'
'lookout_'
'fun'
'argue_'
'ago'
'uninterrupted_'
'tay_'
'stranded_'
'sleepy_'
'shoppers_'
'rubber_'
'restocked_'
'reagan_'
'py_'
'leak_'
'killer_'
'campground_'
'army_'
'200'
' .+ _'
' .& _'
'uni'
'right'
'nicebut_'
'nia_'
'muddy_'
'mos'
'mayan_'
'la'
'easy'
'dryers_'
'cowboy_'
'connell_'
'borders_'
'2000_'
'wen'
'una'
'strategically_'
'son'
'rit'
'maitre_'
'bru'
'brochures_'
'alternate_'
'aka_'
'100'
'sor'
'ska'
'seasoned_'
'prettiest_'
'marienplatz_'
'lord_'
'lc'
'kona_'
'fiji_'
'executed_'
'everything'
'competitors_'
'behaviour_'
' .£ _'
'zing_'
'wifi'
'visa_'
'va'
'rn'
'pricier_'
'mandalay_'
'int_'
'bothersome_'
'bilbao_'
'basilica_'
'apprehensive_'
'ane'
'33'
' , ' _'
'sliced_'
'reception'
'passenger_'
'ously_'
'mis'
'leaked_'
'kil'
'indulge_'
'glen'
'dai'
'chattanooga_'
'belt_'
'awayand_'
'ain_'
'06_'
'shu'
'salem_'
'river'
'port'
'petit_'
'personalised_'
'kerry_'
'ea_'
'criteria_'
'cra'
'cool'
'ards_'
'architecturally_'
'amarillo_'
'sin'
'redeeming_'
'mildew_'
'lighter_'
'gross_'
'goal_'
'devon_'
'days'
'cooled_'
'abu'
'zo'
'well'
'tt'
'servicethe_'
'par'
'lovely'
'listened_'
'ia'
'gra'
'fo'
'ered_'
'epcot_'
'architect_'
'vin_'
've'
'unexpectedly_'
'udaipur_'
'que'
'qu'
'privately_'
'legendary_'
'karon_'
'ical_'
'hen'
'gli'
'egyptian_'
'crispy_'
'challenges_'
'blood_'
'ballpark_'
'weekly_'
'unassuming_'
'ranges_'
'rainfall_'
'kar'
'foggy_'
'dancers_'
'brooklyn_'
'bar'
'scrumptious_'
'nowadays_'
'michelle_'
'martini_'
'kha'
'horseback_'
'flight'
'camden_'
'cambodia_'
'32'
'199'
' ~ _'
'thankful_'
'shuttle'
'seaplane_'
'pig_'
'oct_'
'kauai_'
'hall'
'greece_'
'ginger_'
'gazebo_'
'franz_'
'flaw_'
'fen'
'eric_'
'ck'
'centara_'
'breezes_'
'arthur_'
'anda'
'yn_'
'tin'
'southwark_'
'sampled_'
'revamp_'
'quays_'
'provision_'
'macdonald_'
'increased_'
'berry_'
'bb'
'ang_'
'show'
'ranked_'
'nda_'
'immense_'
'giraffe_'
'garages_'
'delightfully_'
'big'
'aspen_'
'24hr_'
'sma'
'seventh_'
'president_'
'physically_'
'nly_'
'material_'
'lone_'
'limerick_'
'laundromat_'
'entrance'
'characterful_'
'bordeaux_'
'arenal_'
'tuna_'
'tallest_'
'spire_'
'nec_'
'groupon_'
'faithful_'
'engage_'
'dave_'
'canterbury_'
'water'
'risotto_'
'revellers_'
'one'
'loving_'
'lining_'
'hin'
'friendly'
'commended_'
'babies_'
'awaiting_'
'americas_'
' , £ _'
' " ) _'
'willingness_'
'seals_'
'recommended'
'perfect'
'parisian_'
'noisy'
'nan'
'gru'
'choice'
'whistles_'
'versailles_'
'uninviting_'
'scores_'
'sb'
'sainsbury_'
'presents_'
'posts_'
'm25_'
'flats_'
'fairy_'
'bloody_'
'amusing_'
'roadso_'
'magazines_'
'imagination_'
'il'
'dia'
'brazilian_'
'bosphorus_'
'ando'
'williams_'
'utmost_'
'runners_'
'pines_'
'lover_'
'lasted_'
'ks'
'hum_'
'gil'
'ge'
'expert_'
'desk'
'committed_'
'br_'
'white'
'subways_'
'spotting_'
'overview_'
'notified_'
'land'
'israel_'
'hamburger_'
'g'
'eu'
'ect_'
'cancellation_'
'1970s_'
'warmed_'
'valuables_'
'thoughtfully_'
'roomsthe_'
'manger_'
'life'
'itself'
'holiday'
'bul'
'50th_'
' @_'
'week'
'vegan_'
'vas'
'stables_'
'spe'
'romance_'
'pollution_'
'pesos_'
'mayo_'
'ls'
'locationand_'
'ita'
'flexibility_'
'crackers_'
'cooks_'
'cheltenham_'
'best'
'aw'
'apologise_'
'sm_'
'owever_'
'newish_'
'download_'
'dly_'
'crafts_'
'bum'
'bellboy_'
'aid_'
'( '
'wil'
'voices_'
'time'
'terminus_'
'streetand_'
'stra'
'soooo_'
'shampoos_'
'searched_'
'rapids_'
'plo'
'neglected_'
'latte_'
'fa'
'ens_'
'disorganized_'
'coffe_'
'canoe_'
'briefly_'
'arabic_'
'ys'
'them'
'stairwell_'
'saunas_'
'marketing_'
'hydro_'
'grout_'
'goodi_'
'everglades_'
'ep'
'dresden_'
'darkness_'
'circles_'
'bozeman_'
'blue'
'andwhen_'
'andand_'
' &_'
'vo'
'veggies_'
'twist_'
'summit_'
'stretched_'
'statement_'
'speeds_'
'skin_'
'settee_'
'selecting_'
'savings_'
'ron_'
'norwich_'
'nightand_'
'n'
'lucca_'
'lobbies_'
'hil'
'herd_'
'fast'
'dia_'
'cop'
'cheap'
'bol'
'59_'
' - $ _'
'tun'
'tempting_'
'sleeps_'
'orientated_'
'laura_'
'illuminated_'
'ics_'
'ht'
'hard'
'gamble_'
'flinders_'
'f'
'dunedin_'
'centre'
'balloon_'
'assorted_'
'accompanying_'
'supportive_'
'springdale_'
'rockefeller_'
'provisions_'
'professionals_'
'po'
'pen_'
'pedestrians_'
'participate_'
'owns_'
'observe_'
'modernized_'
'lia_'
'headboard_'
'dispensers_'
'bulbs_'
'alexanderplatz_'
'ad'
'14'
'125_'
'wright_'
'tipping_'
'speedboat_'
'slam_'
'rows_'
'rarity_'
'plasma_'
'fest_'
'def'
'counts_'
'authority_'
'apologize_'
'24hrs_'
'tribute_'
'rock'
'reference_'
'parking'
'ort_'
'nighttime_'
'nal_'
'memorabilia_'
'mauritius_'
'ina'
'hotelthis_'
'estes_'
'consisting_'
'cheerfully_'
'calle_'
'bayside_'
'applies_'
'wary_'
'timber_'
'tablet_'
'storing_'
'spiral_'
'sou'
'sore_'
'lic'
'knoxville_'
'indication_'
'iffy_'
'greatbut_'
'cha'
'trolleys_'
'pampering_'
'divers_'
'buttons_'
'butit_'
'ast_'
'alert_'
'aa_'
'waterway_'
'subtle_'
'someday_'
'sal'
'masai_'
'cocoa_'
'archery_'
'appropriately_'
'43'
'values_'
'sus'
'stretching_'
'simon_'
'sail_'
'roomwe_'
'rewarded_'
'quad_'
'lis'
'li'
'jan'
'ities_'
'island'
'imagined_'
'hesitant_'
'fulfilled_'
'fillet_'
'dam'
'containers_'
'col'
'bwi_'
'beige_'
'awakened_'
'aber'
'tom'
'shrubs_'
'promises_'
'poured_'
'lang'
'jacket_'
'ella_'
'designs_'
'cooperative_'
'chai_'
'anyways_'
'technically_'
'shiny_'
'santorini_'
'samui_'
'rou'
'rises_'
'pun'
'pot'
'lyn'
'jug_'
'gardeners_'
'edthe_'
'cumberland_'
'che_'
'brightly_'
'berries_'
'ale'
'urs_'
'tides_'
'terre_'
'portofino_'
'permitting_'
'p'
'neu'
'ndi'
'jer'
'indianapolis_'
'hing_'
'depend_'
'chief_'
'bur'
'anthony_'
' !'
'stumbled_'
'some'
'rey_'
'muffin_'
'kon'
'hefty_'
'have'
'did'
'dependable_'
'container_'
'boom_'
'achieve_'
'-$_'
'ww'
'valletta_'
'scott_'
'restrictions_'
'ooms_'
'namibia_'
'ig'
'elected_'
'abi'
'52'
'utilize_'
'uninterested_'
'this'
'tanzania_'
'sympathetic_'
'swissotel_'
'suv_'
'skis_'
'secondary_'
'racecourse_'
'pad'
'jim_'
'guggenheim_'
'forthcoming_'
'foot'
'flushing_'
'enquired_'
'drive'
'carved_'
'views'
'traverse_'
'trans'
'strawberry_'
'shinagawa_'
'round'
'overs'
'ntly_'
'k'
'ide'
'hopes_'
'glitch_'
'erie_'
'cor'
'coffeemaker_'
'cas'
'buta'
'aurora_'
'anyhow_'
'againi_'
'zebra_'
'working'
'websites_'
'mira'
'losing_'
'haneda_'
'fixing_'
'fabric_'
'detached_'
'creepy_'
'central'
'carries_'
'aro'
'aca'
'touch'
'smith_'
'sealed_'
'scratched_'
'ranking_'
'khalifa_'
'i95_'
'fo_'
'factors_'
'emptied_'
'crepes_'
'cp_'
'brothers_'
'ber_'
'belle_'
'wheels_'
'shoulders_'
'roanoke_'
'roadhouse_'
'remainder_'
'questioned_'
'palais_'
'long'
'kilometres_'
'jo'
'ert'
'dover_'
'bypass_'
'building'
'book'
'accustomed_'
' )'
'wha'
'vermont_'
'u'
'savoy_'
'nondescript_'
'mystic_'
'ized_'
'helpfulthe_'
'he'
'grazing_'
'compromise_'
'bel'
'ung'
'surpassed_'
'sur'
'loss_'
'ku_'
'josef_'
'hs'
'goodwe_'
'alcove_'
'27th_'
'ved_'
'unimpressive_'
'unappealing_'
'tri'
'though'
'tai'
'por'
'organization_'
'imo_'
'family'
'decorative_'
'ano'
'ak'
'?_'
' ' ( _'
'wine'
'thing'
'taormina_'
'sue_'
'stal'
'shelter_'
'roses_'
'portable_'
'nsi'
'notably_'
'liquid_'
'gua'
'crews_'
'citadines_'
'casita_'
'blends_'
'bit'
'abo'
'whistle_'
'van'
'unpretentious_'
'ui'
'transformed_'
'timem_'
'stan_'
'smokey_'
'salisbury_'
'reserving_'
'ny'
'kenya_'
'funeral_'
'front'
'dur'
'dare_'
'dand_'
'curt_'
'bos'
'any'
'79_'
'08_'
'threadbare_'
'tel'
'styling_'
'singers_'
'separating_'
'rig'
'registered_'
'promising_'
'prints_'
'offset_'
'mind'
'lt'
'lengths_'
'lafayette_'
'kuta_'
'kor'
'kirk'
'inver'
'finds_'
'esta'
'chateaux_'
'br'
'boo'
'ai'
'wonderful'
'ugh_'
'trout_'
'tee_'
'stephen_'
'skye_'
'shy_'
'populated_'
'placa_'
'people'
'panera_'
'ound_'
'nose_'
'mono'
'kie'
'itc_'
'hardware_'
'global_'
'fe'
'fashionable_'
'edmonton_'
'coi'
'ven'
'toledo_'
'tick_'
'sisters_'
'sarah_'
'prix_'
'premise_'
'outgoing_'
'mins'
'miniature_'
'lockers_'
'kingsize_'
'interconnecting_'
'indicate_'
'ima'
'handles_'
'grant_'
'fit'
'escapes_'
'coles_'
'cans_'
'brian_'
'as'
'angry_'
'anaheim_'
'adjustable_'
'xi_'
'viking_'
'steady_'
'slow'
'rate'
'powered_'
'palaces_'
'mash_'
'mandatory_'
'm5_'
'kal'
'it'
'inquire_'
'enhance_'
'dal'
'comforting_'
'ark_'
'unfamiliar_'
'tv'
'tipped_'
'therapist_'
'tacos_'
'staywe_'
'species_'
'size'
'rt'
'pour_'
'obtained_'
'lisa_'
'involves_'
'grew_'
'ger_'
'essence_'
'coped_'
'comfy'
'caveat_'
'calais_'
'bus'
'twins_'
'travelzoo_'
'theirs_'
'sub'
'soups_'
'sf'
'rodeo_'
'resort'
'ramps_'
'rag'
'preferable_'
'overall'
'mall'
'interrupted_'
'gowns_'
'excess_'
'dart_'
'bei'
'arn'
'72_'
'+ '
'wis'
'tissues_'
'ske'
'scaffolding_'
'qualities_'
'princeton_'
'pong_'
'pol'
'outrageously_'
'ota'
'nov_'
'nets_'
'lug_'
'ling'
'lemonade_'
'honolulu_'
'gi'
'fringe_'
'flat'
'eaton_'
'deskand_'
'dairy_'
'bow'
'boat'
'61'
'26'
'ö'
'undercooked_'
'un'
'sincerely_'
'shorts_'
'penang_'
'hotter_'
'hes_'
'gran'
'fresco_'
'elo'
'ect'
'dig'
'challenged_'
'camel_'
'bon'
'bedthe_'
'bagan_'
'backing_'
'attitudes_'
'ar'
'aba'
'40th_'
'westerns_'
'weather'
'uk'
'tissue_'
'ster'
'southampton_'
'refuse_'
'predictable_'
'postcard_'
'pathways_'
'horribly_'
'hay_'
'haddock_'
'gazing_'
'dong_'
'circa_'
'breaker_'
'bel_'
'trevi_'
'thunder_'
'soggy_'
'sla'
'shinkansen_'
'property'
'prom_'
'pel'
'organize_'
'nse'
'nagoya_'
'meticulously_'
'jimmy_'
'gent_'
'formula_'
'eb'
'disconcerting_'
'cour'
'belly_'
'bai'
'years'
'vit'
'ust'
'subsequent_'
'slices_'
'sak'
'rudely_'
'rese'
'quer'
'ngly_'
'launch_'
'commons_'
'ching_'
'baker_'
'av_'
'ace_'
'watersports_'
'value'
'spring'
'pu'
'old'
'nit_'
'metropole_'
'lucia_'
'late'
'hertz_'
'hail_'
'exceed_'
'data_'
'cc_'
'advisable_'
'[ _'
'94_'
'1980_'
' : ( _'
'yum_'
'tottenham_'
'tha'
'roo'
'roadbut_'
'recognise_'
'outing_'
'occupants_'
'midi_'
'lloyd_'
'goings_'
'ew_'
'enable_'
'drunks_'
'buts'
'boyfriend_'
'bis'
'affords_'
'y'
'whistler_'
'unfair_'
'ton'
't'
'state'
'spar'
'sooo_'
'shoulder_'
'shibuya_'
'programs_'
'performed_'
'onion_'
'northeast_'
'lick_'
'kiev_'
'key'
'gray_'
'gettysburg_'
'fooled_'
'concerning_'
'conceirge_'
'boarded_'
'ash_'
'wonderfull_'
'wei'
'weekend'
'teen_'
'scooter_'
'sake_'
'priceless_'
'pies_'
'patch_'
'our'
'nusa_'
'manners_'
'mac'
'lotus_'
'koh_'
'dusit_'
'dar_'
'com'
'colored_'
'citadel_'
'christian_'
'cheaply_'
'amo'
'sse'
'restaurants'
'reaction_'
'metered_'
'lac'
'husbands_'
'heartily_'
'gripes_'
'commitment_'
'cen'
'airportbut_'
' ... )_'
'withing_'
'undergone_'
'township_'
'torch_'
'shenzhen_'
'seldom_'
'recover_'
'prevented_'
'population_'
'occurred_'
'len'
'jun'
'jason_'
'fro'
'escalators_'
'ering_'
'compares_'
'chesterfield_'
'cannery_'
'advertises_'
'wonders_'
'staring_'
'skies_'
'shines_'
'sec'
'rapidly_'
'permanent_'
'ore'
'oe'
'moan_'
'lthough_'
'lava_'
'karen_'
'ise'
'interests_'
'generator_'
'fre'
'expanded_'
'engines_'
'emphasis_'
'eagles_'
'didn_'
'cost'
'cosmopolitan_'
'ched_'
'chandelier_'
'born_'
'andbut_'
'adina_'
'accom'
'2006_'
' ) -_'
'worth'
'tune_'
'thankyou_'
'strategic_'
'ri'
'pump_'
'overbearing_'
'lite_'
'lewis_'
'karaoke_'
'freight_'
'curved_'
'boy'
'blaring_'
'beachbut_'
'applebees_'
'window'
'technical_'
'swipe_'
'subsequently_'
'sculpture_'
'rb'
'price'
'pra'
'pat_'
'kevin_'
'expressed_'
'ere'
'duplex_'
'dea'
'civil_'
'bon_'
'alexander_'
'13'
'00'
' .. '
'ver'
'stri'
'stayi_'
'salsa_'
'ref'
'outside'
'optional_'
'maintains_'
'lai'
'interestingly_'
'intention_'
'inde'
'groomed_'
'glowing_'
'gle'
'gat'
'dua_'
'dominated_'
'castle'
'artists_'
'amp'
'alle'
'access'
'spur_'
'rectify_'
'preserve_'
'neutral_'
'integrated_'
'indi'
'hu_'
'hastings_'
'famed_'
'deb'
'all'
'69_'
' ) : _'
'• _'
'yi_'
'vel'
'ura'
'underwhelmed_'
'townhouse_'
'thatched_'
'speaker_'
'songs_'
'rus'
'ren'
'refer_'
'pizzeria_'
'mor'
'kt'
'keswick_'
'kerala_'
'kat'
'job'
'harvester_'
'flood_'
'find'
'fallen_'
'di'
'dating_'
'az_'
'aud_'
'30min_'
'ym'
'vet'
'varies_'
'tones_'
'sodas_'
'slipped_'
'replenishing_'
'owing_'
'nit'
'nf'
'full'
'engineering_'
'conne'
'blenheim_'
'barcelo_'
'aviv_'
'ant'
'09_'
'we'
'urgent_'
'tart_'
'sooner_'
'sicily_'
'sao_'
'rink_'
'prat'
'overworked_'
'monsoon_'
'louder_'
'kent_'
'incidentally_'
'hooks_'
'gy'
'fizz_'
'eno'
'das_'
'comings_'
'boating_'
'bat'
'aero'
'uneventful_'
'tub'
'tele'
'tedious_'
'taste'
'suffice_'
'start'
'sommelier_'
'sco'
'researched_'
'distinctive_'
'decked_'
'cou'
'cheetah_'
'atrocious_'
'45'
' . '_'
'varadero_'
'thousand_'
'rod_'
'mans_'
'lent_'
'firepit_'
'clark_'
'airportso_'
'tis'
'temp'
'stro'
'soon'
'rotorua_'
'qua'
'oh'
'obnoxious_'
'moni'
'incheon_'
'course'
'buckhead_'
'brugge_'
'behold_'
'augustine_'
'visit'
'toothpaste_'
'sta_'
'slap_'
'sil'
'refreshment_'
'ras_'
'rac'
'pro'
'og'
'more'
'mare_'
'lem'
'ish'
'insight_'
'ine'
'highlighted_'
'ghent_'
'franchise_'
'ey'
'ding'
'cara'
'bu'
'brave_'
'boise_'
'through'
'tai_'
'shadow_'
'sevilla_'
'seatac_'
'rundle_'
'rg_'
'pet'
'ona'
'oa'
'not'
'necessity_'
'eti'
'dimly_'
'cy'
'cracking_'
'contributed_'
'collecting_'
'close'
'carpeted_'
'bitter_'
'bea'
'27'
' ” , _'
'welsh_'
'vail_'
'truely_'
'tar'
'socks_'
'severe_'
'sac_'
'restroom_'
'refills_'
'point'
'permits_'
'mc_'
'laptops_'
'heart'
'amex_'
'a1'
' : " _'
'yn'
'watery_'
'smartly_'
'sloppy_'
'rangers_'
'quit_'
'pasadena_'
'nearby'
'miss'
'me'
'maneuver_'
'gui'
'enough'
'el'
'cleanthe_'
'balanced_'
'aloof_'
'alleys_'
'alba'
'visual_'
'vines_'
'ult'
'trident_'
'thereafter_'
'shopping'
'seward_'
'rouge_'
'rose'
'reps_'
'pt'
'prominent_'
'parkland_'
'metre_'
'hassles_'
'gyms_'
'ei'
'deal'
'checkpoint_'
'burned_'
'bearings_'
'battlefield_'
'bats_'
'arusha_'
'ado'
'accompany_'
'academy_'
'zagreb_'
'wee'
'vilnius_'
'uni_'
'tale_'
'supported_'
'strictly_'
'sthis_'
'somerset_'
'ral'
'pisa_'
'paro_'
'paddy_'
'nk'
'michel_'
'lonely_'
'kan'
'inter_'
'inflated_'
'gu'
'esi'
'decline_'
'arrival'
'anticipate_'
' ’ ._'
'side'
'rif'
'photography_'
'paso_'
'forgetting_'
'expensive'
'doorway_'
'cattle_'
'applied_'
'andour_'
'about'
'07_'
' ; '
'soa'
'rested_'
'recycling_'
'preferring_'
'pay'
'maha'
'mah'
'loud'
'gw'
'grange_'
'gently_'
'ensures_'
'distance'
'dean_'
'dark'
'comped_'
'brand'
'arab_'
'93_'
' - £ _'
'yl'
'woodstock_'
'ward_'
'tepid_'
'ron'
'reviewing_'
'retained_'
'pods_'
'opulence_'
'offs_'
'obstructed_'
'obscured_'
'lovingly_'
'law'
'hindsight_'
'gur'
'gr'
'familia_'
'embarrassed_'
'da'
'crannies_'
'cks_'
'candle_'
'blackfriars_'
'beautiful'
'argentina_'
' ... ) _'
'wood'
'vodka_'
'val_'
'usand_'
'stretches_'
'seg'
'perkins_'
'non'
'legoland_'
'humming_'
'granddaughter_'
'ft'
'franschhoek_'
'erg_'
'emp'
'definetely_'
'contain_'
'cin'
'camino_'
' ( ? ) _'
'whe'
'tra'
'territory_'
'summer'
'strict_'
'spar_'
'souk_'
'reduction_'
'rainbow_'
'oo_'
'mini'
'lenox_'
'koi_'
'kicked_'
'issued_'
'harsh_'
'dot_'
'disgrace_'
'determined_'
'cameras_'
'bro'
'bab'
'am'
' ! ! ) ._'
'ymca_'
'villa'
'vieux_'
'then'
'suffers_'
'slo'
'prayer_'
'para'
'montego_'
'lodgings_'
'located'
'lifeguards_'
'humble_'
'fira_'
'extractor_'
'cs'
'cd_'
'biz_'
'belgium_'
'areai_'
'ans'
'additions_'
'yours_'
'wind'
'toby_'
'pa'
'oysters_'
'nye_'
'nova_'
'luxuries_'
'linger_'
'ian'
'hers_'
'gen'
'fran_'
'foremost_'
'eater_'
'discovering_'
'broadband_'
'att'
'assure_'
'190'
'zer'
'yachts_'
'vote_'
'touching_'
'sho'
'rot'
'relevant_'
'ow'
'minh_'
'joshua_'
'joseph_'
'gig_'
'fire'
'fastest_'
'cross'
'cider_'
'better'
'bee_'
'baden_'
'app'
'andall_'
'ambient_'
'usly_'
'senses_'
'seminar_'
'robin_'
'ree_'
'palo_'
'packet_'
'oranges_'
'nig'
'navigation_'
'jacksonville_'
'ility_'
'ig_'
'hopeless_'
'float_'
'early'
'delicacies_'
'arrived'
'ais'
'220_'
'01_'
'yokohama_'
'welcome'
'wasthe_'
'warming_'
'walk'
'vic_'
'ups'
'unpacked_'
'uncrowded_'
'tire_'
'temps_'
'swans_'
'rye_'
'rf'
'person'
'mau'
'martin'
'maison_'
'lightning_'
'incline_'
'hordes_'
'flown_'
'fiesta_'
'federal_'
'dro'
'denied_'
'db'
'chest_'
'bha'
'ami'
'ah'
'109_'
'yrs_'
'uma'
'surfaces_'
'streetcar_'
'special'
'sna'
'sandton_'
'rothenburg_'
'pic'
'lb'
'kilda_'
'kc_'
'kanazawa_'
'humor_'
'grub_'
'fork_'
'expanse_'
'every'
'event'
'dripping_'
'drew_'
'cusco_'
'bogota_'
'altitude_'
'a4'
'visitand_'
'rom'
'reminder_'
'rafting_'
'pipe_'
'pavillion_'
'pantheon_'
'other'
'oeuvres_'
'miguel_'
'hm'
'fishermans_'
'draught_'
'decidedly_'
'brits_'
'boiling_'
'width_'
'upcoming_'
'roadway_'
'recoleta_'
'quality'
'payed_'
'nen'
'ml'
'hs_'
'hearted_'
'hardwood_'
'fle'
'fine'
'farthest_'
'eri'
'dri'
'dm'
'cow'
'colleges_'
'chi'
'cents_'
'calibre_'
'ca'
'bow_'
'wild'
'victor_'
'variation_'
'tn_'
'shop'
'permitted_'
'pala'
'occitane_'
'messed_'
'let'
'hype_'
'hiked_'
'experienceand_'
'exists_'
'ela_'
'documents_'
'developing_'
'chlorine_'
'admiring_'
'198'
'02_'
'wardrobes_'
'unloaded_'
'tan'
'structures_'
'stomach_'
'softer_'
'rp'
'roosevelt_'
'restaraunts_'
'potsdamer_'
'packaged_'
'modern'
'longest_'
'lagged_'
'gem'
'gaming_'
'entree_'
'cm_'
'aqua'
'switching_'
'saratoga_'
'sagrada_'
'ribs_'
'placement_'
'petersburg_'
'novel_'
'nge'
'mas_'
'manning_'
'mani'
'kippers_'
'infront_'
'infact_'
'gary_'
'embarrassing_'
'carlsbad_'
'bldg_'
'auberge_'
'unreasonable_'
'trapped_'
'sunbathe_'
'sli'
'scarce_'
'prado_'
'overt'
'multi'
'moose_'
'matching_'
'mala'
'lity_'
'lan'
'inconsiderate_'
'floral_'
'band'
'ani_'
'tuktuk_'
'tian'
'thinks_'
'teeth_'
'sloping_'
'shin'
'responsibility_'
'panels_'
'negotiated_'
'linda_'
'kentucky_'
'fridges_'
'eaters_'
'drink'
'dh'
'chengdu_'
'105_'
'- '
'''
' )- _'
'è'
'yarra_'
'starbuck_'
'roy_'
'permanently_'
'nc'
'mugs_'
'mill'
'mantra_'
'laos_'
'justified_'
'comprised_'
'around'
'admission_'
'yet'
'www_'
'watered_'
'vol'
'tag'
'rusty_'
'rie'
'rails_'
'pho'
'oll'
'nikko_'
'isthe_'
'intimidating_'
'dn'
'definitively_'
'birding_'
'thanked_'
'team'
'streaming_'
'splashing_'
'sign'
'si'
'shin_'
'past'
'oscar_'
'oe_'
'ngo'
'mario_'
'itbut_'
'gate'
'garlic_'
'favorable_'
'em'
'command_'
'bumped_'
'boss_'
'bir'
'appetite_'
'agra_'
'whitby_'
'unknown_'
'swimmers_'
'sle'
'showerhead_'
'sever'
'ret'
'prawn_'
'pp'
'parlor_'
'ont_'
'oban_'
'nook_'
'nce'
'mon'
'misses_'
'lunch'
'lido_'
'interstates_'
'gh_'
'exhaust_'
'ex'
'et'
'eau_'
'docklands_'
'cla'
'chat'
'beaver_'
'ball'
'bag'
'b'
'andy_'
') ._'
'vice_'
'tranquillity_'
'timei_'
'swanky_'
'squeaky_'
'rico_'
'rand'
'power'
'passionate_'
'nationalities_'
'lind'
'jefferson_'
'ith_'
'help'
'gan'
'dir'
'deca'
'carrefour_'
'ava'
'amazon_'
'worrying_'
'wins_'
'understatement_'
'sampling_'
'nightbut_'
'insane_'
'in'
'hi'
'grass'
'gadgets_'
'facilities'
'ethnic_'
'defense_'
'char'
'c'
'bud'
'browse_'
'believed_'
'avignon_'
'ashley_'
':- _'
'wet'
'venison_'
'une'
'unaware_'
'transiting_'
'ston_'
'ster_'
'sno'
'scared_'
'sad'
'rod'
'quirks_'
'prom'
'posters_'
'plazas_'
'places'
'nas_'
'myers_'
'milano_'
'menu'
'may'
'lim'
'inferior_'
'ights_'
'grabbing_'
'gorilla_'
'fri_'
'extends_'
'ew'
'embassies_'
'dvds_'
'companion_'
'cliff'
'change'
'bulb_'
'awa'
'achieved_'
'thin'
'sunrises_'
'snug_'
'sessions_'
'pri'
'pop'
'parque_'
'oma'
'mats_'
'line'
'ini'
'ingthe_'
'homestead_'
'footsteps_'
'ena'
'discrete_'
'die'
'decade_'
'cord_'
'commanding_'
'colder_'
'29th_'
'170_'
' ( " _'
'underway_'
'pul'
'pokey_'
'overheard_'
'nightstand_'
'mi'
'lifestyle_'
'lay'
'is'
'im_'
'ield_'
'hue_'
'gordon_'
'flooding_'
'dorm_'
'bout_'
'awoken_'
'astonishing_'
'ws'
'warm'
'vik_'
'twelve_'
'tho'
'sunken_'
'rabbits_'
'providence_'
'pris'
'powdered_'
'overdue_'
'overcome_'
'nut_'
'nde'
'mn'
'milling_'
'marais_'
'malmaison_'
'kno'
'institute_'
'hau'
'gab'
'fore'
'exce'
'du'
'distinctly_'
'deter_'
'corner'
'before'
'asap_'
'arguably_'
'anywhere'
'yds_'
'wi'
'wembley_'
'terminal'
'starred_'
'renowned_'
'plugged_'
'melon_'
'll'
'inter'
'han'
'fi'
'east'
'differently_'
'chowder_'
'case'
'blues_'
'blows_'
'ao'
' . ) , _'
' ! ! ! _'
'wilmington_'
'wever_'
'up'
'tikal_'
'things'
'put'
'plus'
'overbooked_'
'keystone_'
'keeper_'
'fairbanks_'
'dee'
'carnival_'
'bose_'
'ast'
'andrea_'
'andd'
'xe'
'whit'
'table'
'smoker_'
'ride'
'printers_'
'ost'
'oli'
'madeira_'
'iso'
'hq_'
'gon'
'gion_'
'eat'
'cos_'
'cai'
'awoke_'
' , - _'
'ving_'
'vents_'
'ures_'
'stylishly_'
'say'
'sant'
'rust_'
'reset_'
'regal_'
'okthe_'
'millenium_'
'look'
'kau'
'kas'
'ka'
'ic'
'exited_'
'drum_'
'bride_'
'boca_'
'be'
'ayed_'
'appreciation_'
'43_'
' ! !'
'york'
'vesuvius_'
'uss'
'terraced_'
'sse_'
'represent_'
'precious_'
'pennsylvania_'
'ole'
'nga'
'near'
'mt'
'mc'
'linden_'
'kings'
'ila'
'hippo_'
'ff'
'extra'
'dog'
'dakota_'
'cus'
'coo'
'coast'
'cand'
'bi_'
'aut'
'acknowledgement_'
'therebut_'
'stuttgart_'
'ste'
'sees_'
'remotely_'
'quick'
'problem'
'olives_'
'level'
'ker_'
'irritated_'
'importance_'
'ians_'
'herethe_'
'gems_'
'fal'
'cochin_'
'cli'
'churchill_'
'binoculars_'
'~_'
'wag'
'trend_'
'trading_'
'skating_'
'sing'
'silverware_'
'settling_'
'sen'
'removing_'
'relocated_'
'refrigerators_'
'packs_'
'notwithstanding_'
'mn_'
'logical_'
'goats_'
'dupont_'
'drown_'
'disa'
'context_'
'centraal_'
'cat'
'casitas_'
'bingo_'
'bec'
'ata'
'“ _'
'ue'
'tuscan_'
'tain'
'storms_'
'specialties_'
'revolving_'
'ost_'
'motivated_'
'midlands_'
'loo'
'loire_'
'indonesian_'
'hummingbirds_'
'hot'
'fronting_'
'filter_'
'fet'
'corn'
'copacabana_'
'comb'
'cobblestone_'
'clifton_'
'bent_'
'attractions'
'areawe_'
'apo'
'anantara_'
'192'
', '
'yuan_'
'wound_'
'vacuumed_'
'uncomfortably_'
'tia'
'terri'
'ta'
'signing_'
'sea'
'role_'
'rd'
'rab'
'outweigh_'
'nted_'
'messe_'
'men'
'lend_'
'lavender_'
'kids'
'jaded_'
'hn'
'frayed_'
'ffe'
'fabulously_'
'epi'
'elle_'
'doorand_'
'dha'
'club'
'chit_'
'chia'
'block'
'bat_'
'artist_'
'apt_'
'alli'
'absent_'
'2005_'
'warner_'
'usa'
'tremendously_'
'tre'
'technician_'
'tb'
'tape_'
'robson_'
'rl'
'rival_'
'rea'
'options'
'ond'
'mails_'
'inspection_'
'indiana_'
'guests'
'greenbelt_'
'fault'
'downer_'
'dor'
'cheesy_'
'catamaran_'
'buc'
'ach_'
'900_'
'71_'
'wanna_'
'vis'
'tastings_'
'solitude_'
'punch_'
'ono'
'noteworthy_'
'nation_'
'maritime_'
'manu'
'lee'
'jolly_'
'fingers_'
'faux_'
'farmer_'
'crying_'
'copious_'
'confirming_'
'class'
'bone_'
'1980s_'
'" '
' ? ) , _'
'vale_'
'suffering_'
'specialities_'
'she'
'seniors_'
'seaport_'
'scarborough_'
'patiently_'
'negril_'
'nd'
'macdonalds_'
'loch'
'lli'
'kes_'
'ize_'
'iet'
'hy_'
'horrid_'
'helpfully_'
'hei'
'grow_'
'gri'
'glo'
'gene'
'gaze_'
'failure_'
'ez_'
'ese_'
'e'
'cing_'
'bubble_'
'bl'
'bars'
'average'
'abroad_'
'yi'
'tta_'
'tr'
'superb'
'sting_'
'skywalk_'
'sac'
'rn_'
'reflecting_'
'redecorated_'
'reassuring_'
'photograph_'
'palatial_'
'nw_'
'hote_'
'hel'
'grosvenor_'
'ez'
'excelsior_'
'devoid_'
'dependent_'
'crowded'
'cos'
'chee'
'bog'
'board'
'add'
'zo_'
'yu'
'wisconsin_'
'wait'
'underpass_'
'ual_'
'tulum_'
'swi'
'steeped_'
'solely_'
'silk_'
'sideways_'
'severely_'
'scot'
'sachets_'
'pillars_'
'oval_'
'op'
'nti'
'net'
'mate_'
'litter_'
'highway'
'harris_'
'courthouse_'
'competing_'
'52_'
'!._'
'wo'
'volcanic_'
'uniform_'
'trafford_'
'sup'
'staycation_'
'shard_'
'seaworld_'
'roller_'
'rec'
'reason'
'orient_'
'oak'
'moo'
'market'
'lucas_'
'insult_'
'holy_'
'hiccup_'
'giraffes_'
'exceeds_'
'dy'
'distracted_'
'dime_'
'derby_'
'dep'
'cook'
'burn'
'bling_'
'belongs_'
'aroma_'
'allergy_'
'ado_'
'accidentally_'
'universally_'
'tei'
'passports_'
'oke'
'neon_'
'mild_'
'light'
'informing_'
'festivities_'
'eg'
'dragon_'
'demanded_'
'concourse_'
'concession_'
'cleverly_'
'cityand_'
'caldera_'
'au'
'asse'
'ac'
' ) ... _'
' ) ,_'
'varanasi_'
'tubes_'
'sts_'
'runner_'
'regulars_'
'pers_'
'pas'
'officer_'
'mouse_'
'meri'
'kata_'
'hull_'
'goodbye_'
'frankie_'
'foreigners_'
'environs_'
'comp'
'bic'
'bearable_'
' .• _'
'which'
'walking'
'vis_'
'var'
'uo'
'tion'
'tied_'
'therapy_'
'squash_'
'sic'
'servi'
'researching_'
'rece'
'provence_'
'ought_'
'nonsense_'
'noice_'
'need'
'nds_'
'nab'
'mechanical_'
'mar'
'kolkata_'
'ih'
'gaylord_'
'evidently_'
'ess'
'er'
'disappoints_'
'descent_'
'cade'
'ali'
'yourselves_'
'ybut_'
'vic'
'unattended_'
'ua'
'tau'
'takayama_'
'sought_'
'sep'
'relationship_'
'pt_'
'petite_'
'petals_'
'offsite_'
'ngorongoro_'
'nail_'
'mitte_'
'king'
'ives_'
'ique_'
'ib'
'hygiene_'
'handsome_'
'forks_'
'fli'
'edward_'
'complexes_'
'booze_'
'bes'
'ard'
'andbe'
'aja'
'accounts_'
'46_'
'uniforms_'
'tot'
'tinned_'
'thani_'
'shipping_'
'sat'
'rie_'
'ric'
'rho'
'rein'
'prop'
'pic_'
'pe'
'optimal_'
'nutshell_'
'mr'
'messages_'
'mbk_'
'magnolia_'
'magazine_'
'luton_'
'korea_'
'interstate'
'indicating_'
'hints_'
'gro'
'fact'
'ext'
'excelent_'
'discussed_'
'cup'
'cote_'
'corinthia_'
'chennai_'
'brewed_'
'bintang_'
'austria_'
'vie'
'syrup_'
'sultanahmet_'
'sud'
'stool_'
'stolen_'
'scored_'
'sca'
'reverse_'
'ready'
'rand_'
'pueblo_'
'provider_'
'pebble_'
'invoice_'
'ins'
'hazard_'
'golfer_'
'garden'
'films_'
'extending_'
'epic_'
'earn_'
'crisps_'
'crap_'
'cotai_'
'cata'
'attic_'
':) _'
' ( € _'
'ze'
'unparalleled_'
'spaciousness_'
'sheikh_'
'sd'
'royale_'
'rc_'
'pan'
'murals_'
'lugging_'
'keycard_'
'jurys_'
'jorge_'
'jacuzzis_'
'ito'
'ik'
'iers_'
'howler_'
'hos'
'hl'
'facilites_'
'este'
'elevation_'
'earthquake_'
'diss'
'complimented_'
'cole'
'chf_'
'cant'
'bishop_'
'belong_'
'base'
'alcazar_'
'aerobics_'
'windows'
'wasa'
'usthe_'
'urg_'
'squirrels_'
'sg'
'patties_'
'ors'
'oro_'
'mal'
'learnt_'
'hilton'
'elevator'
'chit'
'bri'
'bear'
'basins_'
'backthe_'
'antelope_'
'aka'
'againthis_'
' ) .( _'
'yr'
'windermere_'
'stock'
'seagulls_'
'sd_'
'scented_'
'sarasota_'
'renovate_'
'raven'
'py'
'piped_'
'oman_'
'ning'
'nassau_'
'iti_'
'ip'
'hell'
'existing_'
'crime_'
'congregate_'
'beau'
'ato'
'arte'
'arguing_'
'adjoins_'
'abysmal_'
'60s_'
'210_'
'191'
'zin'
'yan'
'tolerable_'
'sr'
'rumble_'
'pr'
'phe'
'nightclubs_'
'lifeguard_'
'lam'
'intense_'
'indy_'
'ij'
'gon_'
'favourable_'
'creme_'
'boracay_'
'bleak_'
'ate'
'aand_'
'28'
' ) .- _'
'vin'
'uli'
'stationso_'
'siesta_'
'rotana_'
'ps'
'oj_'
'natchez_'
'napier_'
'member'
'knife_'
'jack'
'itu'
'ion'
'ino'
'inevitable_'
'first'
'exeter_'
'cow_'
'chen'
'cala_'
'byron_'
'bothering_'
'ays_'
'ation'
'andso_'
'aco'
'vacuum_'
'unesco_'
'uar'
'tori'
'stray_'
'sharm_'
'shambles_'
'sas'
'ryan_'
'rupees_'
'responses_'
'rei'
'punctual_'
'presume_'
'pole_'
'peoples_'
'pai'
'outs'
'nickel_'
'mouth'
'moines_'
'mir'
'mag'
'kol'
'jasmine_'
'jardin_'
'haphazard_'
'guinness_'
'glitches_'
'glamour_'
'europeans_'
'ement_'
'draws_'
'disney'
'dial'
'dash_'
'clogged_'
'chances_'
'butter'
'bravo_'
'ble'
'admitted_'
'xcellent_'
'woodwork_'
'widely_'
'wick_'
'tthe_'
'symphony_'
'strasbourg_'
'roar_'
'path'
'nst'
'nin'
'ne'
'namely_'
'mes'
'mee'
'maple_'
'llo'
'kitchen'
'inl'
'identify_'
'hed_'
'gs'
'eur'
'erg'
'differences_'
'cul_'
'cia'
'changi_'
'blah_'
'bio'
'beacon_'
'audio_'
'ano_'
'201_'
'zayed_'
'veri'
'ventura_'
'teri'
'swedish_'
'surreal_'
'sided_'
'ran'
'pal'
'napkins_'
'meadows_'
'margarita_'
'map'
'mannered_'
'low'
'isa'
'innsbruck_'
'get'
'freeway'
'fir_'
'fer'
'eureka_'
'etic_'
'disappear_'
'decor'
'cur'
'carlson_'
'britannia_'
'andbreakfast_'
'advanced_'
'— _'
'wat'
'stingy_'
'spencer_'
'sizable_'
'seclusion_'
'sandwiched_'
'roger_'
'rebuilt_'
'rally_'
'mega'
'lyft_'
'llandudno_'
'itwe_'
'ipa'
'if'
'ido'
'hoo'
'greenville_'
'francis_'
'forests_'
'drier_'
'discerning_'
'daunting_'
'charity_'
'cham'
'bothers_'
'beating_'
'topper_'
'tip'
'timethe_'
'soft'
'shave_'
'sc_'
'phil'
'partners_'
'obliged_'
'novelty_'
'nis_'
'lodge'
'kinsale_'
'influence_'
'inattentive_'
'grafton_'
'failing_'
'ega'
'doll'
'clear'
'breezy_'
'air'
'# _'
'uniquely_'
'turn'
'try'
'throwing_'
'tennessee_'
'porta_'
'nap'
'municipal_'
'migration_'
'lla'
'leopards_'
'icy_'
'framed_'
'fare'
'expertly_'
'ema'
'deliveries_'
'deira_'
'crest_'
'copper_'
'concord_'
'complement_'
'bradford_'
'az'
'andthey_'
'amused_'
'woodlands_'
'wonderland_'
'will'
'vest'
'uh'
'tsa'
'tam'
'sundowner_'
'stare_'
'squa'
'sie'
'shad'
'sex_'
'reli'
'prestige_'
'paulo_'
'manic_'
'ledge_'
'gne'
'dives_'
'decaf_'
'croatia_'
'cows_'
'cigarettes_'
'brunswick_'
'bike'
'addressing_'
' +_'
'à_'
'wl'
'valid_'
'urg'
'tu'
'trans_'
'train'
'tir'
'ski'
'saver_'
'safe'
'ress_'
'racks_'
'moldy_'
'log'
'ire'
'iah_'
'fying_'
'fool_'
'ela'
'ek_'
'duties_'
'do'
'deserving_'
'daw'
'cruising_'
'cru'
'commuting_'
'cay'
'bun'
'behalf_'
'aya_'
'appetising_'
'akin_'
'xa'
'ung_'
'tour'
'taksim_'
'sch'
'rian_'
'quid_'
'picadilly_'
'nat_'
'moor_'
'mond'
'luxuriously_'
'lizards_'
'lik'
'lal'
'itza_'
'ithaca_'
'isi'
'insect_'
'harrods_'
'glow_'
'enclosure_'
'elysees_'
'disappointments_'
'commuter_'
'coats_'
'clinical_'
'campo_'
'bang'
'austrian_'
'andrews_'
'altstadt_'
'alice_'
' ! ! ! ! ! !_'
'volcanoes_'
'ury_'
'trouser_'
'therapists_'
'spoon_'
'reb'
'prec'
'pattern_'
'ox'
'moana_'
'ma'
'lid'
'ili'
'gracia_'
'gha'
'folded_'
'floorboards_'
'emma_'
'copthorne_'
'bil'
'barbeque_'
'baboons_'
'arm'
'amish_'
'31st_'
'* '
'zanzibar_'
'wholeheartedly_'
'valentine_'
'to'
'super'
'shuts_'
'shops'
'runways_'
'reviews'
'ranged_'
'ral_'
'rainier_'
'nie'
'malaysia_'
'lily_'
'lagoons_'
'ists_'
'headland_'
'gratuity_'
'gras_'
'glaciers_'
'ece'
'dit'
'dd'
'dated'
'bump_'
'bara'
'artistic_'
'apollo_'
'alt'
'airstrip_'
'),_'
'ye'
'wor'
'wanaka_'
'traditionally_'
'sv'
'sticking_'
'scuffed_'
'roasted_'
'rect'
'reccommend_'
'potter_'
'popping_'
'minimalistic_'
'mickey_'
'ljubljana_'
'lasting_'
'kia'
'junk_'
'jet'
'its'
'hops_'
'hay'
'harp'
'hagia_'
'gal'
'far'
'etcthe_'
'dramatically_'
'died_'
'der'
'competitively_'
'booths_'
'bloomsbury_'
'blank_'
'bid_'
'behavior_'
'asks_'
'andin_'
'aga'
'accent_'
'abit_'
'270_'
'150'
' + '
'zy_'
'wire_'
'where'
'usd'
'ured_'
'tely_'
'sundowners_'
'subpar_'
'southeast_'
'sin_'
'pon'
'pioneer_'
'oc'
'lu'
'hur'
'honking_'
'hangout_'
'gurgaon_'
'go'
'evans_'
'doo'
'debris_'
'buta_'
'bellboys_'
'anti_'
'angles_'
'andvery_'
'aiport_'
'wre'
'winds'
'tree'
'smallthe_'
'shee'
'set'
'seas_'
'ph'
'pere'
'parkingand_'
'ot'
'motor'
'miller_'
'lf'
'knee_'
'jury_'
'internally_'
'iguanas_'
'hour'
'frei'
'fa_'
'darwin_'
'clayton_'
'civic_'
'chile_'
'barbados_'
'balcony'
'alleyway_'
'ain'
'76_'
'45am_'
'34'
'197'
' "_'
'transition_'
'toy_'
'thb_'
'tec'
'swansea_'
'sten'
'schedules_'
'sara'
'quote_'
'pest_'
'pentagon_'
'ndo'
'nb'
'mongkok_'
'mist'
'mansions_'
'lar_'
'haggis_'
'fishermen_'
'explains_'
'drilling_'
'dartmouth_'
'cement_'
'card'
'bygone_'
'bullet_'
'brun'
'boulders_'
'bedford_'
'badge_'
'acc'
'able'
' ” '
'triomphe_'
'tourist'
'substandard_'
'spreads_'
'spoons_'
'shark_'
'santo_'
'roomso_'
'rm'
'pou'
'placing_'
'onthe_'
'noosa_'
'mailed_'
'lands'
'internet'
'ined_'
'guiding_'
'form'
'footbridge_'
'fauna_'
'farms_'
'ene'
'convince_'
'childrens_'
'bun_'
'billy_'
'beautifull_'
'artifacts_'
'appreciative_'
'andif_'
'airways_'
'ail'
'wool'
'wich_'
'uts_'
'thyme_'
'store'
'sly_'
'shell'
'scotch_'
'ros'
'reluctantly_'
'recreational_'
'rau'
'procedures_'
'paphos_'
'omlettes_'
'nevada_'
'mo'
'min'
'mil'
'laws_'
'kim_'
'kala'
'itt'
'ita_'
'incompetent_'
'fantastic'
'europa_'
'errors_'
'dio'
'cran'
'coaching_'
'bratislava_'
'boast_'
'barefoot_'
'ave'
'atms_'
'alg'
'ald'
'wan'
'validated_'
'utilitarian_'
'unit'
'tos'
'superlative_'
'sol'
'sj'
'short'
'resto_'
'redi'
'quayside_'
'pros'
'pools'
'parkingbut_'
'ness'
'nam'
'mammoth_'
'leas'
'lao_'
'kuwait_'
'kitted_'
'hou'
'ga'
'fresh'
'comedy_'
'belief_'
'belgian_'
'argument_'
'alarms_'
'68_'
'yam'
'xt'
'ura_'
'unpacking_'
'traders_'
'swept_'
'supp'
'stationand_'
'rightly_'
'putt_'
'oz_'
'lakeview_'
'jerusalem_'
'hiccups_'
'hampshire_'
'ham'
'gun'
'gou'
'gathered_'
'euro'
'dot'
'diff'
'daythe_'
'butterfly_'
'bukit_'
'brass_'
'bd'
'aud'
'arises_'
'anonymous_'
'ande'
'119_'
') '
'zz'
'walnut_'
'vine_'
'vi'
'tri_'
'row'
'rounded_'
'rio'
'rat_'
'raj'
'quin'
'pil'
'opp'
'okbut_'
'mussels_'
'less'
'lanc'
'hr'
'hoi'
'heels_'
'hav'
'grassed_'
'gallup_'
'frank'
'edand_'
'definition_'
'conduct_'
'colosseum_'
'chess_'
'canoes_'
'atta'
'allowance_'
'adeje_'
'240_'
'wyoming_'
'wn'
'warmest_'
'tracking_'
'tm'
'stirling_'
'stationary_'
'shir'
'shan_'
'rede'
'purchasing_'
'pav'
'overdone_'
'oss'
'order'
'omlette_'
'od'
'oceanview_'
'obi'
'noticeably_'
'mum'
'marquis_'
'marbella_'
'lake'
'jewelry_'
'jane_'
'iz'
'ies'
'hit'
'grad'
'ful'
'english'
'elm'
'designers_'
'cumbersome_'
'chore_'
'biscuit_'
'anne'
'--- _'
' ( & _'
'walkbut_'
'ushered_'
'tunnels_'
'tired'
'sul'
'spot'
'sour'
'shots_'
'sen_'
'schiphol_'
'reg'
'porta'
'operational_'
'opener_'
'met'
'mend'
'mans'
'main'
'maa'
'luggage'
'lock'
'lebanese_'
'lager_'
'kir'
'jolla_'
'hes'
'grounds'
'end'
'dca_'
'cyprus_'
'ction_'
'criticisms_'
'cotswold_'
'conservation_'
'center'
'categories_'
'browsing_'
'ban_'
'attempting_'
'amy_'
'amid_'
'18'
' ? '
' % ._'
'yso_'
'wit'
'tut'
'separates_'
'seas'
'sainsburys_'
'router_'
'route'
'ros_'
'rk'
'oi'
'muse_'
'monte'
'mb'
'mann'
'lisboa_'
'krabi_'
'kit'
'invariably_'
'impala_'
'impa'
'ii'
'ico_'
'hat'
'graffiti_'
'f1_'
'exclusively_'
'ebut_'
'decadent_'
'crib_'
'coronado_'
'chichen_'
'cebu_'
'bin'
'beau_'
'alan_'
'29'
'202_'
'/'
' .:) _'
'€ _'
'uring_'
'toulouse_'
'tab_'
'spelling_'
'qual'
'poll'
'nga_'
'lackluster_'
'kee'
'hk'
'governor_'
'exhausting_'
'cubs_'
'country'
'cabinets_'
'bavarian_'
'avi'
'appearing_'
'apa'
'aci'
'1800_'
'ü'
'yy'
'vientiane_'
'tle'
'ti'
'tah'
'surgery_'
'suitably_'
'streetbut_'
'stl'
'sprayed_'
'ser_'
'sebel_'
'relieved_'
'rde'
'pli'
'pete_'
'owl_'
'ola'
'ode'
'ocean'
'ober'
'mccormick_'
'marseille_'
'lace_'
'ital'
'intent_'
'independently_'
'hun'
'geese_'
'entryway_'
'curries_'
'cted_'
'cri'
'cp'
'closure_'
'charms_'
'bryant_'
'bard'
'aldi_'
'ada_'
'90s_'
'62_'
'53'
'45pm_'
' ! '
'vat'
'ug'
'themes_'
'sweat_'
'spices_'
'safes_'
'run'
'puddings_'
'ponte_'
'pitt_'
'peacock_'
'org'
'observations_'
'murray_'
'morningand_'
'moonstone_'
'med'
'matt_'
'limitations_'
'led'
'kara'
'indonesia_'
'im'
'hardworking_'
'fruit'
'dl'
'counted_'
'const'
'consecutive_'
'caroline_'
'blueberry_'
'aver'
'ator'
'ante'
'anc'
'airco_'
'5star_'
' " !_'
'zones_'
'yog'
'wowed_'
'waitrose_'
'upfront_'
'tara_'
'sop'
'skyway_'
'qi'
'niz'
'mut'
'locationbut_'
'lia'
'laze_'
'ken_'
'kel'
'jelly_'
'jeff_'
'jar'
'ising_'
'ipanema_'
'involve_'
'ingles_'
'harrisburg_'
'fronted_'
'ffi'
'fell'
'ears_'
'drains_'
'downtown'
'dept_'
'convien'
'conducted_'
'complex'
'bountiful_'
'bettered_'
'bern_'
'bathroomthe_'
'bac'
'aveda_'
'attributes_'
' .... '
'ye_'
'waters'
'walki'
'wadi_'
'verything_'
'vastly_'
'trimmings_'
'tram'
'sweet'
'supremely_'
'strolled_'
'spinach_'
'skill_'
'rug_'
'quietthe_'
'overcharged_'
'oni'
'mob'
'medi'
'locationthe_'
'lie'
'lausanne_'
'lately_'
'koo'
'knob_'
'kill'
'intercon_'
'hotelthere_'
'handily_'
'gelato_'
'forty_'
'exe'
'emerald_'
'dum'
'disruption_'
'diplomatic_'
'din'
'dbb_'
'daniel'
'chickens_'
'cannes_'
'anything'
'an'
'aesthetic_'
'1960_'
'£_'
'ywe_'
'wea'
'watch'
'urge_'
'uninspired_'
'trio_'
'timetable_'
'su_'
'stadiums_'
'ria'
'retain_'
'remembers_'
'pullout_'
'positano_'
'pha'
'pat'
'oz'
'outfitted_'
'odo'
'nei'
'lessly_'
'knees_'
'injury_'
'hua'
'hart_'
'hal'
'glitzy_'
'gett'
'formalities_'
'foodie_'
'flavors_'
'fernando_'
'ently_'
'dos_'
'darn_'
'cracks_'
'courtyard'
'cit'
'chop_'
'cascades_'
'bor'
'aux_'
'aj'
'airportthe_'
'ade_'
'91_'
'57_'
' , ... _'
' ( ! ) _'
'ves'
'uth'
'unt'
'terra_'
'straw_'
'society_'
'showered_'
'sas_'
'rugs_'
'ril'
'ribe'
'purchases_'
'protection_'
'placethe_'
'pepper'
'pea'
'overs_'
'ove'
'objective_'
'nea'
'motion_'
'mersey_'
'maria'
'lu_'
'listing_'
'laguardia_'
'kw'
'initiative_'
'inclement_'
'idi'
'ho'
'hitch_'
'grotto_'
'gos_'
'future'
'foul_'
'file_'
'fancied_'
'cul'
'commendable_'
'bistros_'
'artic'
'andc'
'adams_'
'102_'
' % '
'wholesome_'
'trou'
'tob'
'surf'
'spruce_'
'space'
'sp_'
'smo'
'resembles_'
'rar'
'quet_'
'proportioned_'
'nett'
'marmalade_'
'mark'
'mal_'
'logistics_'
'lightly_'
'letdown_'
'lamb'
'inside'
'inand_'
'ibi'
'heat'
'hartford_'
'ech'
'devi'
'combines_'
'click_'
'christina_'
'celebrity_'
'bread'
'brazil_'
'bangor_'
'anchor_'
'47_'
'witness_'
'welli'
'und_'
'ting'
'substantially_'
'staples_'
'specious_'
'soundly_'
'sian_'
'sanur_'
'rox'
'resi'
'pounding_'
'ops_'
'nta'
'noi'
'muted_'
'motorways_'
'mojito_'
'lawrence_'
'ignoring_'
'hospitals_'
'hammersmith_'
'goose_'
'fraser_'
'ethernet_'
'enti'
'eable_'
'dune_'
'cinque_'
'brea'
'ay'
'adapter_'
'450_'
'workshop_'
'ub_'
'token_'
'tering_'
'sophistication_'
'skyscrapers_'
'saturdays_'
'remark_'
'poly'
'overflowing_'
'oon_'
'johnson_'
'jam'
'forewarned_'
'floorthe_'
'excuses_'
'ean_'
'dusseldorf_'
'descript_'
'deci'
'cousin_'
'chaweng_'
'chamber_'
'buzzy_'
'awaits_'
'archaeological_'
'wilson_'
'tting_'
'toes_'
'tant'
'tal'
'snooty_'
'shoot_'
'shearings_'
'seater_'
'roberto_'
'ple'
'planted_'
'outthe_'
'object_'
'nyhavn_'
'nola_'
'modernisation_'
'lift'
'kangaroos_'
'kam'
'iti'
'invite_'
'instructed_'
'guarded_'
'gig'
'fortuna_'
'fancier_'
'equi'
'ede'
'dragged_'
'dom'
'detect'
'cort'
'certificate_'
'cavernous_'
'car'
'campbell_'
'brainer_'
'aswell_'
'301_'
'½_'
'wir'
'vaulted_'
'urn_'
'uae_'
'tad'
'sparsely_'
'rambling_'
'ques_'
'po_'
'pis'
'perfunctory_'
'peer'
'omg_'
'oc_'
'obtrusive_'
'netflix_'
'narrow'
'mis_'
'lux_'
'liver_'
'laughed_'
'kuala_'
'kom'
'kin_'
'ike_'
'harrah_'
'gau'
'encounters_'
'eas'
'dissapointing_'
'cupboards_'
'contract_'
'cci'
'caverns_'
'catalina_'
'beirut_'
'beat'
'bau'
'ater_'
'ank'
'againa'
'yes'
'vacationing_'
'unin'
'tran'
'squeak'
'retaining_'
'realy_'
'prestigious_'
'please'
'philippines_'
'pants_'
'outweighed_'
'nouveau_'
'neatly_'
'nb_'
'mol'
'mg_'
'mei'
'liner_'
'leadership_'
'large'
'gge'
'filtered_'
'eighth_'
'ef'
'duly_'
'din_'
'dela'
'crappy_'
'contacting_'
'cil'
'chilli_'
'chal'
'bourke_'
'bill'
'bellhops_'
'barri'
'bah'
'atmosphere'
'ative_'
'athe_'
'ately_'
'anticipating_'
'anse_'
'annapolis_'
'adam_'
'acadia_'
'aar'
' ' ' _'
'waterslide_'
'vision_'
'unimpressed_'
'tuesdays_'
'toasted_'
'titanic_'
'spilled_'
'spi'
'scooters_'
'sci'
'readers_'
'precise_'
'piers_'
'ora'
'mgm_'
'lid_'
'jessica_'
'horton_'
'hip'
'guessed_'
'foodthe_'
'flagship_'
'enta'
'duluth_'
'dow'
'delegates_'
'curve_'
'communications_'
'clay_'
'busch_'
'ame'
'abc_'
'115_'
' > _'
' -'
'ums_'
'uff'
'tol'
'tand_'
'stru'
'slightest_'
'ro'
'restrooms_'
'pf_'
'pans_'
'panelling_'
'oran'
'motorbike_'
'montparnasse_'
'meanwhile_'
'kur'
'khao_'
'hermes_'
'gul'
'goo'
'gamla_'
'formations_'
'floors'
'expresso_'
'environmentally_'
'eal'
'custer_'
'crossroads_'
'citi'
'cinemas_'
'cheeky_'
'butlins_'
'buck'
'aways_'
'----_'
'*. _'
'wu'
'workspace_'
'wangfujing_'
'upwards_'
'tigers_'
'supervision_'
'staffer_'
'ssa'
'rescue_'
'repeating_'
'poli'
'or'
'monks_'
'minute'
'md_'
'leftovers_'
'ld'
'kers_'
'iu'
'irritation_'
'horror_'
'habit_'
'gree'
'ght'
'generation_'
'fenway_'
'dou'
'creams_'
'cozumel_'
'comparatively_'
'co'
'cer'
'borghese_'
'armed_'
'> _'
' ) ., _'
'wah'
'uma_'
'treating_'
'toddlers_'
'survey_'
'spell_'
'sim'
'ship'
'scan'
'queried_'
'peeve_'
'ome'
'oklahoma_'
'ocation_'
'np'
'nk_'
'myeongdong_'
'murphy_'
'msp_'
'moto'
'mes_'
'measures_'
'manuel_'
'lp'
'llan'
'lalit_'
'lage'
'kaya_'
'illi'
'horse'
'hearts_'
'fly'
'disconnected_'
'dav'
'charge'
'bye_'
'bounce'
'bot'
'barriers_'
'bari'
'backand_'
'aur'
','
'ute_'
'uns'
'undisturbed_'
'ture_'
'troubles_'
'tit'
'tim'
'swap_'
'stocking_'
'stan'
'nl'
'meridian_'
'merchant_'
'maryland_'
'marm'
'lists_'
'kochi_'
'hem'
'golf'
'gi_'
'galley_'
'ent'
'ellipticals_'
'dru'
'diversity_'
'creaking_'
'canyons_'
'campsite_'
'butthis_'
'buds_'
'brook'
'bedroom'
'alp'
'acre_'
'54_'
'51_'
'04_'
'youngsters_'
'uninteresting_'
'together'
'timed_'
'tiananmen_'
'tab'
'stee'
'staybut_'
'ross'
'rk_'
'responding_'
'prospect_'
'pricey'
'pablo_'
'ote'
'ons'
'morro_'
'mata'
'mask_'
'make'
'lus'
'kidding_'
'hould_'
'horrific_'
'hast'
'foo'
'fifty_'
'eng'
'dense_'
'demands_'
'dales_'
'curr'
'croquet_'
'consequence_'
'conc'
'call'
'burbank_'
'bloom_'
'anna'
'andalthough_'
'abb'
'yd'
'vanilla_'
'uil'
'toiletry_'
'tegel_'
'sporadic_'
'seri'
'regretted_'
'ratt'
'phone'
'perform_'
'osa_'
'nte_'
'navajo_'
'must'
'lag'
'joes_'
'jade_'
'ium_'
'hakata_'
'greati_'
'gardens'
'finethe_'
'fab'
'excels_'
'departs_'
'creatures_'
'convinient_'
'coff'
'bolton_'
'bene'
'backs'
'agreeable_'
'1500_'
'zebras_'
'yu_'
'unb'
'ull'
'turnover_'
'tudor_'
'terrain_'
'smoothie_'
'rosen_'
'qualify_'
'odour_'
'mailbox_'
'lama'
'kremlin_'
'intervals_'
'flores_'
'eve'
'dul'
'disagree_'
'cher'
'bona'
'warriors_'
'vul'
'unl'
'understandably_'
'trade'
'toppings_'
'timers_'
'thread_'
'tas_'
'standard'
'spit'
'sa'
'rut'
'packets_'
'overwater_'
'ort'
'opo'
'mentions_'
'leaning_'
'illy_'
'illinois_'
'idaho_'
'hbo_'
'hap'
'gib'
'functioned_'
'frog_'
'flows_'
'exhibit_'
'erl'
'design'
'dat'
'crumbs_'
'clockwork_'
'chin'
'casablanca_'
'bing_'
'attendance_'
'ars_'
'airs'
'75'
'72'
'! _'
'sums_'
'rhodes_'
'peek_'
'nominal_'
'negotiating_'
'morgan_'
'methe_'
'ment'
'mak'
'lugano_'
'longish_'
'kr'
'ipads_'
'investigate_'
'ineffective_'
'impr'
'hooters_'
'gue'
'grits_'
'fel'
'enci'
'emo'
'emi'
'dumped_'
'dre'
'drama_'
'dingle_'
'cu'
'conventional_'
'check'
'celebrities_'
'caro'
'belmond_'
'bamb'
'antwerp_'
'amuse_'
'120'
'-'
'yale_'
'una_'
'ul'
'traps_'
'taupo_'
'sw_'
'suprised_'
'strip'
'slu'
'shame'
'saloon_'
'sala'
'rsi'
'rri'
'rip'
'query_'
'prescott_'
'pages_'
'offs'
'muse'
'mul'
'lago_'
'knightsbridge_'
'iri'
'hotel'
'honest'
'hiding_'
'gym'
'guitar_'
'greenwich_'
'gai'
'edly_'
'distracting_'
'dc'
'consuming_'
'cardi'
'cac'
'blamed_'
'arrive'
'ag'
'after'
'af'
'42nd_'
' ` _'
' ....'
' . !_'
'yas'
'vo_'
'tsim_'
'trail'
'thon_'
'taylor_'
'shimla_'
'shells_'
'shan'
'shakespeare_'
'sandp'
'repellent_'
'recovery_'
'puerta_'
'pes'
'penguins_'
'newbury_'
'mp_'
'loc'
'lad'
'iva'
'iv_'
'gm'
'flimsy_'
'flam_'
'efficient'
'doubled_'
'conno'
'completing_'
'closed'
'citizen_'
'breakfastand_'
'bmw_'
'benidorm_'
'bayview_'
'aid'
'88_'
'71'
'warthogs_'
'veg'
'vantage_'
'uti'
'streets'
'stat'
'south'
'shrine_'
'privileged_'
'popularity_'
'plantations_'
'only'
'normandy_'
'mason_'
'marginally_'
'lou'
'lifted_'
'lidl_'
'lei'
'jonathan_'
'insi'
'hyp'
'heli'
'hardest_'
'gle_'
'gad'
'fuji_'
'fresno_'
'freeview_'
'enclave_'
'emer'
'efficent_'
'desolate_'
'convienent_'
'citizens_'
'chill'
'characterless_'
'britain_'
'brewing_'
'andl'
'andi'
'amanda_'
'agencies_'
'1930_'
'yala_'
'wise'
'umb'
'ues_'
'talks_'
'skeptical_'
'sewage_'
'sala_'
'push'
'pointless_'
'pointe_'
'parks'
'outstandingly_'
'outl'
'oba'
'minds_'
'micro'
'lumpur_'
'legal_'
'kenne'
'images_'
'huge'
'hose_'
'hig'
'heath'
'fin'
'est'
'detracted_'
'ci_'
'chap'
'centrale_'
'beech_'
'81'
'74_'
'í'
'wit_'
'washers_'
'unspoilt_'
'tripping_'
'timings_'
'suite'
'sei'
'recon'
'pub'
'postcode_'
'oner'
'mainline_'
'lucked_'
'lied_'
'laundr'
'kra'
'itch'
'invaluable_'
'install_'
'howard_'
'hottest_'
'hak'
'god'
'gaudi_'
'fund'
'freshness_'
'fam'
'eld'
'discussing_'
'cheshire_'
'cabot_'
'brekkie_'
'breakers_'
'arbor_'
'ae_'
']. _'
'98_'
'55'
'300'
'205_'
'workmen_'
'uc'
'trea'
'trailers_'
'townthe_'
'spic'
'seamlessly_'
'rai'
'pnc_'
'patricia_'
'pasti'
'passeig_'
'odds_'
'mores_'
'mermaid_'
'maggiore_'
'ladder_'
'kun'
'johnny_'
'jaw_'
'hbf_'
'grandkids_'
'found'
'ett'
'dream'
'dol'
'disp'
'detergent_'
'daytona_'
'cons'
'ci'
'bummer_'
'breakfastwe_'
'bayeux_'
'avocado_'
'aruba_'
'amber_'
'affiliated_'
' ./ _'
'village'
'utter_'
'ubiquitous_'
'turf_'
'trem'
'timer_'
'teton_'
'teenager_'
'seat'
'refundable_'
'redwoods_'
'raf'
'parasols_'
'ouse_'
'olin'
'nostalgic_'
'name'
'mali'
'login_'
'leader_'
'layer_'
'kelowna_'
'kelly_'
'institution_'
'hee'
'grapefruit_'
'goodw'
'garda_'
'fac'
'ern'
'drift_'
'dana_'
'damn_'
'cctv_'
'canned_'
'butt'
'bush'
'bet'
'belgrade_'
'aug_'
'astounding_'
'warrant_'
'und'
'ular_'
'tp'
'tet'
'temporarily_'
'sth'
'sola'
'shone_'
'sburg_'
'rte_'
'rooma'
'regina_'
'pockets_'
'petty_'
'pavements_'
'pamper_'
'outings_'
'ough_'
'opa'
'nm'
'nachos_'
'mouldy_'
'marsh_'
'lough_'
'lot'
'lew'
'lau'
'kli'
'julian_'
'ink'
'icon_'
'ewe_'
'ert_'
'epitome_'
'diana_'
'dash'
'cycled_'
'counter'
'cardboard_'
'canceled_'
'beni'
'baskets_'
'andb'
'62'
'36'
' .[ _'
'wildebeest_'
'veni'
'validate_'
'trim_'
'towns'
'supporting_'
'subdued_'
'slim_'
'robotic_'
'renewed_'
'proceed_'
'partition_'
'own'
'overnighter_'
'osi'
'nv'
'nthe_'
'nne'
'niece_'
'medicine_'
'matt'
'mano'
'lorries_'
'lo'
'leave'
'killed_'
'jung'
'jennifer_'
'jag'
'isla_'
'ings'
'infamous_'
'iga'
'helen_'
'haunted_'
'flamingo_'
'fication_'
'existed_'
'drinkers_'
'dominican_'
'descriptions_'
'coex_'
'cl'
'choc'
'billings_'
'ath'
'yearly_'
'ward'
'vanderbilt_'
'urb'
'uan'
'towneplace_'
'stowe_'
'speedway_'
'snow'
'skilled_'
'resist_'
'remo'
'raw'
'oversight_'
'octopus_'
'occur_'
'obligatory_'
'nis'
'naval_'
'moe'
'lm'
'littered_'
'lad_'
'inevitably_'
'increasingly_'
'hunt'
'herm'
'hawkers_'
'ganges_'
'fired_'
'facebook_'
'environmental_'
'ende'
'devo'
'communicated_'
'coins_'
'champ'
'cartagena_'
'bubbles_'
'blissful_'
'bfast_'
'bak'
'andp'
'andno_'
'andalso_'
'allergic_'
'aesthetically_'
' , # _'
'zen'
'zambezi_'
'span_'
'slammed_'
'robertson_'
'rich'
'protest'
'protect_'
'photographer_'
'overrated_'
'oa_'
'nam_'
'moves_'
'motif_'
'microwaves_'
'merri'
'major'
'lei_'
'legacy_'
'lap'
'kai'
'ign'
'icelandic_'
'hopped_'
'grotty_'
'frames_'
'faci'
'ek'
'douro_'
'distraction_'
'defintely_'
'calories_'
'brusque_'
'blissfully_'
'belvedere_'
'banged_'
'aforementioned_'
'2b'
'… _'
'wig'
'vila_'
'vent'
'trainer_'
'til'
'staya'
'stairs'
'sightsee_'
'saba'
'rubbery_'
'rua'
'rto'
'rhinos_'
'rancho_'
'oro'
'nordic_'
'nh'
'nee'
'nch'
'mighty_'
'mara'
'largo_'
'katherine_'
'jn'
'jal'
'hooked_'
'hind'
'headache_'
'gang'
'friends'
'emporium_'
'elle'
'eco'
'dundee_'
'dismissive_'
'delux_'
'danger_'
'cuc'
'confined_'
'classed_'
'buns_'
'buchanan_'
'bs'
'break'
'birdlife_'
'adjustment_'
' - - _'
'~ _'
'zon'
'tu_'
'tothe_'
'sunb'
'shopped_'
'remedy_'
'rat'
'pretend_'
'pressing_'
'picton_'
'pestana_'
'parrots_'
'munch'
'mou'
'molton_'
'minster_'
'midland_'
'menin_'
'malaysian_'
'luck'
'loaf_'
'labyrinth_'
'keepers_'
'kand'
'jamie_'
'ica'
'hotelis_'
'hog'
'hie'
'halloween_'
'gre'
'fora'
'feathers_'
'duo_'
'doubts_'
'disliked_'
'diagonally_'
'counting_'
'chain'
'centered_'
'carand_'
'bev'
'awaited_'
'aston_'
'appro'
'allthe_'
' $ '
'xian_'
'valentines_'
'two'
'trippers_'
'tl'
'ter'
'tenth_'
'take'
'sucks_'
'stone'
'stac'
'snake_'
'sail'
'rma'
'ris_'
'prices'
'plusses_'
'playacar_'
'pent'
'pale_'
'oy_'
'owe'
'oth_'
'obe'
'nou'
'nites_'
'monitor_'
'misc'
'meantime_'
'margaritas_'
'mallory_'
'lun'
'lovel'
'ky'
'iza'
'ith'
'iona'
'flops_'
'fail'
'facts_'
'ets'
'dw'
'district'
'det'
'cum_'
'chop'
'boxing_'
'assi'
'arc'
'andmy_'
'amar'
' ...'
' ---_'
'terry_'
'stre'
'sona'
'sean_'
'sacred_'
'refit_'
'professional'
'pana'
'oni_'
'olds_'
'ngs'
'moon'
'mingle_'
'marvel_'
'loan_'
'lingual_'
'lettuce_'
'jerome_'
'hich_'
'gun_'
'goat_'
'gand'
'equip'
'enabling_'
'eing_'
'dubious_'
'dear'
'dab_'
'crawling_'
'convenient'
'condiments_'
'chang_'
'amend'
'alk'
'accents_'
'15am_'
'yh'
'vall'
'swim'
'stran'
'smallbut_'
'slat'
'rte'
'roomit_'
'post'
'percent_'
'onal_'
'oliver_'
'na'
'muslim_'
'meandering_'
'meals'
'lls_'
'llo_'
'little'
'introduce_'
'inns'
'hcmc_'
'guatemala_'
'graded_'
'gno'
'garten_'
'frontdesk_'
'friendlythe_'
'focussed_'
'ferrari_'
'enquiries_'
'direct'
'describes_'
'defen'
'coul'
'complemented_'
'coeur_'
'centric_'
'businessmen_'
'alis'
'akumal_'
'1200_'
'twickenham_'
'taster_'
'sty_'
'stronger_'
'staffs'
'slum'
'shrugged_'
'shaft_'
'riverview_'
'rail'
'presentations_'
'premiere_'
'parcs_'
'pang'
'pads_'
'olympia_'
'occupant_'
'mm_'
'machinery_'
'lynn_'
'lude'
'ler'
'h10_'
'gob'
'gaps_'
'filet_'
'enticing_'
'disappointingly_'
'cascade_'
'cane'
'calmer_'
'bles_'
'arose_'
'areaa'
'andstaff_'
'agreement_'
'afternoon'
'abe'
'ó'
'wiped_'
'what'
'vig'
'understands_'
'twi'
'tequila_'
'sugar'
'stripe'
'strikes_'
'snap_'
'slowest_'
'sim_'
'shim'
'scrub_'
'sanibel_'
'rutland_'
'returns_'
'raph'
'practic'
'pep'
'orm'
'norman_'
'ninth_'
'nightwe_'
'mirage_'
'metropol_'
'manageress_'
'luna_'
'lle'
'invested_'
'incidentals_'
'heidelberg_'
'fetch_'
'fes_'
'curl'
'cali'
'butte_'
'bulk_'
'breakfastbut_'
'bo'
'bic_'
'backpackers_'
'austere_'
'atl_'
'?'
'3000_'
'2004_'
'1960s_'
'175_'
' " ) ._'
'zes_'
'ved'
'ush'
'unused_'
'uer'
'strenuous_'
'sounding_'
'snowing_'
'shoe'
'rideau_'
'razor_'
'quai'
'prob'
'pear_'
'parki'
'oia_'
'officially_'
'novotels_'
'nep'
'muck'
'mila'
'mcd_'
'loi'
'left'
'iss'
'hera'
'hammering_'
'fishes_'
'esp'
'err'
'embankment_'
'dock'
'comforters_'
'combining_'
'cn'
'clu'
'cd'
'causes_'
'barre'
'bangkok'
'aul'
'asy_'
'absurd_'
'4x4_'
'veneto_'
'summers_'
'stack_'
'sta'
'sp'
'soo_'
'sne'
'sioux_'
'pension_'
'pee'
'oktoberfest_'
'odd'
'ngton_'
'nev'
'lame_'
'ira_'
'inconveniences_'
'hotela'
'greg_'
'freshener_'
'flyer_'
'flash'
'finer_'
'ferry'
'ett_'
'ein_'
'corr'
'compliment'
'cir'
'chel'
'breakfasti_'
'bracket_'
'badlands_'
'arro'
'58_'
'wipe_'
'vila'
'vere_'
'ust_'
'uniqueness_'
'unh'
'sunt'
'sunloungers_'
'sitges_'
'sierra_'
'sia_'
'same'
'reco'
'ration_'
'pirate_'
'phoning_'
'pd'
'palate_'
'others'
'orchids_'
'occupying_'
'monta'
'lon_'
'kebab_'
'jin'
'int'
'ille'
'guilin_'
'grumble_'
'frau'
'fixture_'
'ferra'
'fabrics_'
'extremly_'
'eveningand_'
'entr'
'enquire_'
'climbed_'
'chip'
'chargers_'
'butts_'
'bele'
'bally'
'balloons_'
'art'
'arcades_'
'aran'
'antic'
'ake_'
'111_'
'.- _'
'zocalo_'
'worcester_'
'sympathetically_'
'sted_'
'soi'
'slan'
'sauces_'
'pud'
'pr_'
'ping'
'ous'
'onand_'
'olympics_'
'occupy_'
'oahu_'
'noble_'
'ming'
'mindful_'
'mildly_'
'mena'
'matthew_'
'lotte_'
'loma'
'jerk_'
'ingand_'
'identified_'
'hop'
'expenses_'
'exc'
'definatly_'
'cycles_'
'cruise'
'contents_'
'comprises_'
'columns_'
'cle_'
'ches'
'centrum_'
'carr'
'beaufort_'
'basic'
'bandwidth_'
'atlas_'
'asda_'
'arctic_'
' .# _'
'yst'
'yak'
'washbasin_'
'tui_'
'sty'
'soviet_'
'sights'
'safest_'
'pref'
'pont'
'plant'
'perfume_'
'ows_'
'organizing_'
'opinions_'
'oceanside_'
'notices_'
'naked_'
'marriott'
'marian'
'magi'
'lol'
'lga_'
'lest'
'jin_'
'jay_'
'indicates_'
'inc'
'iga_'
'ich'
'hikers_'
'forgettable_'
'endure_'
'emily_'
'els'
'drinks'
'demo'
'creature_'
'corte_'
'build'
'buddy_'
'boro_'
'audi'
'alm'
'2019_'
'win'
'wellthe_'
'wedding'
'waverley_'
'waived_'
'uss_'
'unwelcome_'
'unk'
'ud'
'trunk_'
'therewe_'
'test'
'su'
'sites'
'scu'
'schools_'
'runny_'
'remoteness_'
'racket_'
'quilt_'
'policies_'
'peep_'
'parrot_'
'oti'
'nod_'
'news'
'motorbikes_'
'meta'
'lizard_'
'jubilee_'
'invisible_'
'intimacy_'
'ht_'
'honeymooners_'
'het'
'hearst_'
'grapes_'
'gard'
'flowering_'
'externally_'
'dodge_'
'crawl_'
'craig_'
'chasing_'
'cale'
'bra'
'both'
'boon_'
'battered_'
'0s_'
'05'
' ! ! ) _'
'willingly_'
'wh'
'upi'
'tx_'
'towering_'
'tj'
'tf'
'teddy_'
'swings_'
'stunned_'
'simpler_'
'servings_'
'rob_'
'restaurantthe_'
'refurbish_'
'porti'
'overpowering_'
'nr'
'kilometer_'
'julie_'
'jos'
'jones_'
'isit_'
'irons_'
'hague_'
'goods'
'garage'
'fred_'
'electric'
'effi'
'drowned_'
'definitly_'
'davis_'
'convey'
'consumed_'
'cc'
'bank'
'arenas_'
'antiquated_'
'ama'
'airb'
'aed_'
'ace'
'acce'
'ab'
'...... _'
'zie'
'woo'
'teach_'
'stilts_'
'stephanie_'
'stacked_'
'ssa_'
'sofabed_'
'slipping_'
'sham'
'sear'
'repl'
'rap'
'plan'
'peculiar_'
'paddies_'
'montgomery_'
'missoula_'
'mik'
'merc'
'manyara_'
'm2_'
'lua'
'knysna_'
'kapa'
'itso_'
'ier'
'hyderabad_'
'hob'
'giants_'
'fw'
'fresher_'
'fells_'
'farmhouse_'
'farewell_'
'etta_'
'etna_'
'dedication_'
'conditioners_'
'complains_'
'carol_'
'can'
'cameron_'
'breweries_'
'bie'
'barthe_'
'bargains_'
'ayu'
'avenues_'
'aerobus_'
'38'
' ! ! '
'ypres_'
'whirl'
'uz'
'tsui_'
'timeand_'
'successfully_'
'spr'
'spie'
'spectacularly_'
'sole'
'sm'
'sleepless_'
'railay_'
'quickest_'
'pyramids_'
'profit_'
'predominantly_'
'pirates_'
'papa'
'option'
'nightso_'
'mort'
'mariott_'
'leon_'
'ight'
'functionality_'
'figuring_'
'excessively_'
'drinkable_'
'disability_'
'dif'
'dbut_'
'creamy_'
'crabs_'
'concentrate_'
'cluttered_'
'chant'
'bron'
'attach'
'asoke_'
'arge_'
'arb'
'anu'
'andthen_'
'anderson_'
'a3'
'.._'
'wes'
'wed_'
'uri'
'unreal_'
'tramway_'
'tof'
'toe_'
'tle_'
'tiergarten_'
'stools_'
'spared_'
'rew'
'rep'
'quit'
'quil'
'quiche_'
'qa'
'politeness_'
'poland_'
'pine'
'pec'
'pate_'
'pass'
'ots_'
'ose_'
'orta'
'offi'
'nj'
'merge'
'matress_'
'massively_'
'loom'
'jon'
'jaunt_'
'jackets_'
'ile'
'ideal'
'honours_'
'hix_'
'hangzhou_'
'guernsey_'
'gooda'
'georges_'
'frenetic_'
'excelled_'
'emu'
'downgrade_'
'default_'
'communicating_'
'ced_'
'cayo_'
'borrowed_'
'beg'
'aura_'
'arr'
'amenties_'
'adapt'
'acting_'
'wid'
'whichever_'
'westlake_'
'thisi'
'substance_'
'strips_'
'stewart_'
'sneak'
'scalding_'
'resteraunt_'
'rena'
'remedied_'
'pall'
'ox_'
'ostrich_'
'oned_'
'nn'
'mural_'
'mathe'
'lapping_'
'lanzarote_'
'kis'
'isse'
'isa_'
'hkd_'
'hideous_'
'hams_'
'glimpses_'
'ghe'
'fore_'
'final'
'fin_'
'file'
'esque_'
'enter'
'egg'
'disposal_'
'conse'
'carri'
'carparking_'
'carol'
'buss'
'bug'
'bold_'
'bella'
'belize_'
'assets_'
'accomplished_'
'15pm_'
' " .'
' ! ._'
'wore_'
'whisk_'
'warrior_'
'trips'
'treat'
'topping_'
'thought'
'thereso_'
'tere'
'ted'
'sweden_'
'ste_'
'som'
'smithsonian_'
'sem'
'rve'
'rumbling_'
'rti'
'roppongi_'
'realistic_'
'rachel_'
'poss'
'poor'
'ope'
'observatory_'
'note'
'nicei_'
'museum'
'mus'
'mati'
'marlborough_'
'lled_'
'lit'
'jetwing_'
'intriguing_'
'instruction_'
'hunter_'
'hortons_'
'gg'
'frosty_'
'flawlessly_'
'flavored_'
'euros'
'envelope_'
'disposable_'
'disadvantages_'
'diagonal_'
'destroyed_'
'dayton_'
'clyde_'
'cease'
'butterflies_'
'burg'
'bry'
'booked'
'bog_'
'beeping_'
'backwaters_'
'artisan_'
'acu'
'104_'
'” _'
'via'
'untrained_'
'uno'
'uncommon_'
'tow'
'tamar'
'stairways_'
'spec'
'spaghetti_'
'smoke'
'semi'
'sara_'
'rv'
'reefs_'
'prefect_'
'pl'
'phu'
'ook_'
'moritz_'
'melt_'
'meadow_'
'masters_'
'logo_'
'lends_'
'kobe_'
'jar_'
'isles_'
'i75_'
'hamb'
'gymnasium_'
'gir'
'genoa_'
'format_'
'eric'
'disco'
'derelict_'
'delaware_'
'blasting_'
'awesome'
'aust'
'asa'
'ari_'
'yne'
'wr'
'tth'
'torres_'
'tog'
'tahiti_'
'tack'
'swinging_'
'simplicity_'
'silicon_'
'sheratons_'
'savoury_'
'saf'
'ras'
'quibbles_'
'qualified_'
'pune_'
'protein_'
'petronas_'
'oul'
'malpensa_'
'lowe'
'lk'
'lis_'
'kh'
'kari'
'ime'
'handing_'
'hai_'
'ha'
'graph'
'finebut_'
'fax_'
'fargo_'
'exmouth_'
'dorm'
'disin'
'crocodile_'
'coventry_'
'coolest_'
'cite_'
'cis'
'capture_'
'boma_'
'barc'
'archeological_'
'aki'
'againand_'
'accord'
'91'
'32nd_'
'129_'
' ?'
'zar'
'yb'
'vr'
'vad'
'thier_'
'tenders_'
'steer_'
'stanford_'
'splendour_'
'spec_'
'spacious'
'shri'
'shrewsbury_'
'screwed_'
'scratches_'
'revamped_'
'relied_'
'relax'
'randomly_'
'raising_'
'posting_'
'pho_'
'peck'
'palmer_'
'paces_'
'nos_'
'nik'
'nick'
'nicewe_'
'nes'
'mts_'
'mestre_'
'ludlow_'
'literature_'
'lill'
'lers_'
'jetted_'
'isaac_'
'indulgence_'
'ik_'
'hue'
'honfleur_'
'hoe'
'goodo'
'furbished_'
'freshening_'
'esk'
'condescending_'
'centuries_'
'carrot_'
'camper_'
'brick'
'belt'
'beh'
'beatles_'
'anyplace_'
'aly'
'@_'
'1hr_'
'wynn_'
'walter_'
'uph'
'tiffany_'
'text'
'tap'
'shoddy_'
'sector_'
'scam_'
'retiro_'
'resources_'
'religious_'
'rams'
'ra'
'principe_'
'pompeii_'
'patisserie_'
'opry_'
'oor_'
'nad'
'morningthe_'
'mf'
'mess'
'manda'
'mada'
'lst'
'lor'
'ivi'
'ias_'
'i8'
'hang'
'greated_'
'forgive_'
'forecast_'
'flea_'
'flamenco_'
'fir'
'disruptive_'
'defo_'
'convienient_'
'cm'
'chauffeur_'
'budgets_'
'breast_'
'andth'
'abs'
'56_'
'21'
'135_'
'wheeled_'
'unheated_'
'tuck_'
'ters_'
'stank_'
'sos'
'soaring_'
'ru_'
'rocket_'
'reservation'
'refilling_'
'reds_'
'paseo_'
'papa_'
'pak'
'omar_'
'nav'
'mosaic_'
'lys'
'kell'
'katie_'
'kata'
'kasbah_'
'inhouse_'
'happiness_'
'gods_'
'flashlight_'
'erf'
'eit_'
'economic_'
'done'
'disc'
'deeply_'
'dayand_'
'crus'
'confuse_'
'coliseum_'
'catholic_'
'bumps_'
'bour'
'backwe_'
'angela_'
'ambulance_'
'aff'
'adlon_'
'37'
'103_'
' .* '
'yeah_'
'weigh'
'wayand_'
'wanchai_'
'vie_'
'uch_'
'tha_'
'strolls_'
'sive_'
'scramble_'
'sav'
'rook_'
'rickshaw_'
'revenue_'
'resta'
'reichstag_'
'reader_'
'ram_'
'pyramid_'
'punt'
'posti'
'passageway_'
'ora_'
'mori'
'mitchell_'
'mbps_'
'kiddie_'
'kangaroo_'
'kalahari_'
'jungfrau_'
'juliet_'
'jul'
'jerry_'
'ioni'
'hro'
'hilarious_'
'haus_'
'flashy_'
'exchanged_'
'eter'
'erst'
'ents_'
'eman'
'edwardian_'
'doubtful_'
'deeper_'
'cott'
'come'
'coca_'
'clinton_'
'awkwardly_'
'awe'
'ates_'
'asparagus_'
'asp'
'asin'
'angelo_'
'andt'
'ambi'
'agenda_'
'24h_'
' " ... _'
'yt'
'wick'
'whim_'
'very'
'unmatched_'
'terrasse_'
'tempe_'
'telly_'
'sync'
'sundries_'
'skype_'
'self'
'revol'
'revealed_'
'rel'
'redwood_'
'recieved_'
'reci'
'positioning_'
'pilot_'
'performances_'
'pauli'
'parlour_'
'parker_'
'paintwork_'
'nonexistent_'
'neil_'
'murano_'
'mm'
'meat'
'mama_'
'magnifying_'
'lomond_'
'liz_'
'lazing_'
'label_'
'jum'
'iw'
'ition_'
'ite'
'ism_'
'inability_'
'illa'
'harley_'
'harbor'
'firmly_'
'ena_'
'docked_'
'dishe'
'dinner'
'clari'
'caps_'
'cal'
'bv'
'but'
'bust'
'bakersfield_'
'avid_'
'archi'
'adorned_'
'110'
'wyn'
'wrist_'
'viva'
'versa_'
'unre'
'unnecessarily_'
'umber'
'trolly_'
'thumping_'
'tann'
'sweaty_'
'stir_'
'sprucing_'
'site'
'sis_'
'rowing_'
'ppe'
'poole_'
'plat'
'pedicure_'
'parti'
'noc'
'ngthe_'
'nations_'
'nai'
'middle'
'marsh'
'lythe_'
'license_'
'lel'
'lane'
'kim'
'interco'
'hoot_'
'hir'
'hawk_'
'haveli_'
'hans'
'grey'
'gloria_'
'feeders_'
'due'
'distillery_'
'describing_'
'creekside_'
'conway_'
'concorde_'
'compete'
'combinations_'
'cf'
'carson_'
'calla'
'brat'
'blazing_'
'batt'
'annoyingly_'
'amman_'
'95'
'35th_'
'wraps_'
'wilde'
'utrecht_'
'tractor_'
'touts_'
'streetthe_'
'speed'
'separation_'
'scope_'
'rosewood_'
'robinson_'
'rema'
'rable_'
'quet'
'principal_'
'pose'
'palapas_'
'padded_'
'noo'
'nna_'
'mour'
'loews_'
'jas'
'irst_'
'gue_'
'gio_'
'gia'
'gd'
'gang_'
'fil'
'faith_'
'extravagant_'
'crocodiles_'
'chew'
'cheers_'
'buxton_'
'butnot_'
'buffer_'
'boxed_'
'bathtubs_'
'athletic_'
'arma'
'63'
')'
'xp'
'visa'
'uat'
'tors_'
'torrential_'
'survive_'
'sura'
'suk'
'strongest_'
'stor'
'stew_'
'stead_'
'spen'
'sorely_'
'sed'
'sati'
'rudeness_'
'repro'
'race'
'piled_'
'pane_'
'palladium_'
'olo'
'okc_'
'occ'
'mixing_'
'mille'
'mendocino_'
'meads_'
'lille_'
'kre'
'kath'
'johns_'
'implies_'
'heal'
'fou'
'forcing_'
'fant'
'excluding_'
'eca'
'dina'
'dead'
'db_'
'colo'
'claire_'
'borderline_'
'bird'
'ayr'
'aus_'
'appetizing_'
'ap_'
'agains'
'ades_'
'\\_'
'63_'
' : )_'
' ! )'
'wy_'
'vendor_'
'ud_'
'tiresome_'
'tier'
'tation_'
'sville_'
'stupendous_'
'steamed_'
'stamp_'
'spect'
'season'
'rum'
'rossio_'
'restaura'
'rdu_'
'rant'
'production_'
'potomac_'
'poc'
'pim'
'pie'
'open'
'oki'
'move'
'meticulous_'
'master'
'marg'
'loa'
'lakeshore_'
'joy'
'joh'
'ironically_'
'instructor_'
'ining_'
'honour_'
'homework_'
'hile_'
'hight'
'gown_'
'galveston_'
'franc'
'folding_'
'exh'
'ewa'
'eil'
'crossings_'
'coal_'
'chr'
'chatsworth_'
'cafe'
'bute'
'blonde_'
'battle'
'awaybut_'
'aven'
'arth'
'allocation_'
'alaskan_'
'600'
'1950_'
'warr'
'valleys_'
'tramp'
'topkapi_'
'toa'
'tid'
'therea'
'thee_'
'tenderloin_'
'tak'
'sundance_'
'sham_'
'saun'
'rivals_'
'reminding_'
'rele'
'refurbed_'
'ramen_'
'protea_'
'plot_'
'peruvian_'
'pent_'
'paine_'
'meal'
'mayhem_'
'maximi'
'lump'
'los'
'laz'
'lads_'
'kicking_'
'impressively_'
'hawker_'
'fern'
'eso_'
'ennis_'
'dwe_'
'dilapidated_'
'creamer_'
'coop_'
'consider'
'codes_'
'charm'
'cana'
'cala'
'breckenridge_'
'bility_'
'bedtime_'
'agon'
'53_'
'"'
'ée_'
'yun'
'winston_'
'undo'
'thy_'
'thompson_'
'thistle_'
'thereo'
'telford_'
'stur'
'stub'
'string_'
'stays'
'souks_'
'situations_'
'sighting_'
'sage_'
'regulate_'
'prides_'
'pota'
'pisco_'
'paris'
'pam_'
'orth'
'nw'
'moored_'
'manta_'
'm62_'
'lod'
'ller'
'live'
'lev'
'labelled_'
'ket'
'kansai_'
'jenny_'
'hut'
'hoover_'
'holders_'
'hack'
'grouting_'
'grossly_'
'greatwe_'
'gam'
'draw'
'deceiving_'
'cyclists_'
'cub'
'clad_'
'choices'
'cb'
'castel'
'brig'
'boul'
'belonging_'
'beatiful_'
'bash'
'bas'
'barb'
'avis_'
'ata_'
'amin'
'alla'
'44'
' ? ? '
'ä'
'wealthy_'
'waterp'
'vn'
'vert'
'utilised_'
'unpredictable_'
'underfloor_'
'uc_'
'trainees_'
'tacoma_'
'swe'
'sn'
'shutting_'
'sali'
'sabi_'
'rendezvous_'
'precisely_'
'polite'
'platforms_'
'pier'
'pickle'
'pcs_'
'parkso_'
'parent_'
'oversee'
'omm'
'offensive_'
'nautical_'
'nan_'
'masse'
'marina'
'lig'
'lh'
'kb'
'inappropriate_'
'heaving_'
'hamburgers_'
'gers_'
'fy_'
'furnitures_'
'eastbourne_'
'dv'
'donald_'
'doc'
'deh'
'creep'
'contrast'
'contin'
'conf'
'commence'
'chand'
'carlisle_'
'caf'
'buda_'
'bordered_'
'boeing_'
'atr'
'aren'
'algarve_'
'affording_'
'actions_'
'78_'
' : + _'
'youth'
'wimbledon_'
'vene'
'tg'
'teatro_'
'teak_'
'suit'
'stationbut_'
'snowed_'
'services'
'roosters_'
'rogue_'
'riders_'
'reso'
'ren_'
'prim'
'preserves_'
'pom'
'payable_'
'party'
'panda_'
'offer'
'offen'
'mora'
'mojitos_'
'm5'
'logged_'
'inward_'
'interi'
'infrequent_'
'influenced_'
'incoming_'
'idge_'
'i2'
'hotelc'
'hh'
'haw'
'hassled_'
'gins_'
'gaze'
'game'
'frantic_'
'esse'
'enterprise_'
'downtownbut_'
'doubt'
'dle_'
'discussions_'
'diligent_'
'colca_'
'cock'
'cies_'
'chewy_'
'carl'
'bukhara_'
'bou'
'beg_'
'bahnhof_'
'authenticity_'
'aussie_'
'attribute_'
'ageing_'
'actively_'
'65'
'47'
' ! ?_'
'vacationers_'
'ule'
'thie'
'tard'
'stuff'
'stench_'
'stellenbosch_'
'sqm_'
'soleil_'
'sexy_'
'sept'
'scrum_'
'samo'
'rope_'
'republique_'
'rega'
'rant_'
'raining'
'poipu_'
'pher'
'pert'
'pate'
'oun'
'oka'
'nighti_'
'ngu'
'moorish_'
'meh_'
'mars'
'maca'
'lom_'
'lent'
'lain'
'kamp'
'just'
'jc'
'indulgent_'
'ici'
'hol'
'hilo_'
'hauling_'
'fredericksburg_'
'fied_'
'face'
'evi'
'eto'
'encouraging_'
'edd'
'direction'
'delphi_'
'court'
'concierge'
'centrebut_'
'bw'
'bricktown_'
'artsy_'
'arat'
'announce'
'anima'
'andre'
'aldgate_'
'ail_'
'5a'
'107_'
' , “ _'
'wer'
'wedged_'
'unwilling_'
'unlocked_'
'unf'
'uct'
'uch'
'tyne_'
'tested_'
'taller_'
'sudden_'
'strangers_'
'snag_'
'shut'
'sey'
'sap'
'saggy_'
'roadthe_'
'rim'
'rash'
'pictured_'
'panc'
'pale'
'overland_'
'ound'
'nn_'
'mohammed_'
'misty_'
'microwaved_'
'maximize_'
'logging_'
'kho'
'keg_'
'kate_'
'imho_'
'hills'
'grasmere_'
'fier'
'express'
'drainage_'
'deri'
'dec'
'darker_'
'cta_'
'consi'
'classi'
'claiming_'
'cha_'
'cautious_'
'butp'
'body'
'bodrum_'
'bathrooms'
'avo'
'ashamed_'
'apps_'
'alb'
'ait'
'ack'
'280_'
'189'
' :'
'‘ _'
'woburn_'
'westerners_'
'waterways_'
'wart'
'tulip_'
'trainers_'
'tic'
'tib'
'thisthe_'
'superlatives_'
'stuart_'
'staffa'
'song'
'showerthe_'
'seren'
'sang_'
'sang'
'roads'
'retrieved_'
'project'
'poo'
'pauls_'
'participants_'
'parkand_'
'opaque_'
'ont'
'norwegian_'
'mews_'
'melted_'
'macquarie_'
'leith_'
'kei'
'karl_'
'kalispell_'
'hurried_'
'hermanus_'
'grate'
'enth'
'eme'
'embarcadero_'
'edw'
'edgy_'
'divider_'
'deli'
'credited_'
'conci'
'cob'
'butno_'
'boathouse_'
'beltway_'
'bb_'
'batter_'
'awarded_'
'angle'
'allocate_'
'alexandra_'
'agoda_'
'adrian_'
'abut_'
'abr'
'49'
'108_'
'wynyard_'
'vi_'
'ut'
'upt'
'upgrade'
'unda'
'uck'
'tripand_'
'tory_'
'ther'
'taverna_'
'taught_'
'system'
'ssion'
'sis'
'roa'
'ris'
'reme'
'question'
'promote_'
'preco'
'poolthe_'
'phra'
'obscure_'
'nob'
'nim'
'nha'
'ndr'
'nag'
'millions_'
'marion_'
'lema'
'jay'
'impos'
'i40_'
'hum'
'him'
'herebut_'
'gis'
'feat_'
'fatty_'
'fara'
'enthusiastically_'
'enc'
'edi_'
'dumpster_'
'ders_'
'dera'
'conta'
'carnegie_'
'buildings'
'bt_'
'beggars_'
'bana'
'balcon'
'atocha_'
'arise_'
'apr'
'andeven_'
'amat'
'aloha_'
'aine_'
'aback_'
'500'
'101'
' ,'
' $ $ _'
'yto'
'yar'
'westport_'
'western'
'vivanta_'
'videos_'
'vai'
'tuk'
'timber'
'tidal_'
'takeaways_'
'staythis_'
'soller_'
'soli'
'snoring_'
'roomo'
'recipe_'
'rath'
'published_'
'propertyand_'
'pron'
'prevail'
'points'
'pavilions_'
'patagonia_'
'orsay_'
'noisiest_'
'navona_'
'mistaken_'
'miramar_'
'kes'
'kai_'
'justin_'
'iron'
'ior'
'husband'
'hump'
'how'
'granville_'
'glitz_'
'garde'
'flushed_'
'fawlty_'
'excellentthe_'
'enjoy'
'elevators'
'dispe'
'delicate_'
'dang'
'courteously_'
'coup'
'comb_'
'colle'
'chor'
'championship_'
'cambodian_'
'calle'
'builders_'
'bugg'
'buddha_'
'boiler_'
'boil_'
'boh'
'blueberries_'
'benny_'
'artefacts_'
'amb'
'admi'
'ack_'
'accurately_'
'winter'
'undrinkable_'
'transp'
'transformation_'
'ths_'
'threatened_'
'theo'
'temperamental_'
'tarr'
'sses_'
'spark'
'scrape'
'school'
'reporting_'
'rajasthan_'
'raj_'
'ract'
'quintessential_'
'prov'
'prize_'
'polynesian_'
'phan'
'performers_'
'pelican_'
'peabody_'
'pdx_'
'ott'
'opting_'
'office'
'myr'
'motions_'
'missi'
'mirrored_'
'meth'
'mecca_'
'kro'
'kohl'
'kickback_'
'hyatts_'
'hom'
'happen'
'hancock_'
'guildford_'
'gly_'
'gastronomic_'
'friedrichstrasse_'
'foothills_'
'facet'
'dubai'
'dt_'
'downgraded_'
'donegal_'
'dip'
'cuppa_'
'confronted_'
'commission_'
'bowe'
'banter_'
'baltic_'
'annoyances_'
'androoms_'
'! ) '
'wichita_'
'waft'
'umi'
'tod'
'tat'
'tallahassee_'
'stephens_'
'spo'
'sled'
'santander_'
'rw'
'risers_'
'reno'
'rah'
'prefered_'
'panic_'
'oth'
'omi'
'omb'
'oda'
'misfortune_'
'lut'
'lowered_'
'lip_'
'lip'
'kilometre_'
'innkeeper_'
'impractical_'
'hugh_'
'hotelm'
'holborn_'
'historically_'
'hia'
'gag'
'exquisitely_'
'experi'
'everthing_'
'eggs'
'dukes_'
'deliberately_'
'cris'
'corridor'
'clustered_'
'citybut_'
'citizenm_'
'chedi_'
'charter_'
'cane_'
'buena_'
'brus'
'booklet_'
'bong'
'bahrain_'
'arche'
'apex_'
'allo'
'alc'
'accomodated_'
'03_'
' - " _'
'wt'
'windhoek_'
'uro_'
'unsu'
'uf'
'tz_'
'tto_'
'tem'
'sway'
'sterling_'
'sintra_'
'sharon_'
'riot_'
'rewarding_'
'remarked_'
'quantities_'
'promoted_'
'plaster_'
'pints_'
'phi'
'parnell_'
'parma_'
'nz'
'musk'
'miracle_'
'miniscule_'
'mich'
'manager'
'luce'
'landings_'
'jesus_'
'involving_'
'infe'
'honoured_'
'hammam_'
'frankenmuth_'
'foundation_'
'fei'
'exp'
'eta'
'essex_'
'erio'
'enables_'
'dealings_'
'cucumber_'
'crabtree_'
'consist_'
'cine'
'chamonix_'
'butc'
'bright'
'bew'
'baron'
'bangla_'
'argued_'
'androom_'
'ances_'
'adirondack_'
'accepting_'
'1900_'
'! '
' < _'
'zona_'
'wend'
'watermelon_'
'unimaginative_'
'ula_'
'tum'
'thimphu_'
'tep'
'tanger_'
'sustain'
'subm'
'style'
'signals_'
'shep'
'seeming_'
'rotten_'
'rna'
'rent'
'refrig_'
'real'
'rds_'
'raved_'
'prot'
'proposition_'
'prest'
'piazzale_'
'peacefulness_'
'oy'
'onb'
'occassions_'
'nr_'
'nicole_'
'maur'
'mange'
'luxor_'
'lom'
'jim'
'intending_'
'ines_'
'impressi'
'imo'
'ich_'
'hero_'
'hdtv_'
'gus'
'gunwharf_'
'fremont_'
'flag'
'fis'
'fic'
'eye'
'esh_'
'ead_'
'dee_'
'czech_'
'coincided_'
'coco'
'clock'
'charl'
'cart'
'buff'
'breathe_'
'bottom'
'beaune_'
'bahamas_'
'appea'
'ams_'
'achi'
' & '
'whereby_'
'vou'
'urt'
'untouched_'
'uncovered_'
'trattoria_'
'throughly_'
'tern'
'tali'
'swo'
'strewn_'
'stoke_'
'skiers_'
'ses'
'roc'
'resembled_'
'porto'
'passe'
'parkbut_'
'pand'
'omet'
'oliv'
'newton_'
'nda'
'nah'
'lor_'
'joann'
'iran'
'insanely_'
'inga'
'ilo'
'hw'
'hurst_'
'hotspot_'
'harvard_'
'grind'
'fedex_'
'faucets_'
'expresses_'
'existence_'
'evenings'
'erna'
'earth'
'doorso_'
'dive'
'dining'
'curt'
'civilization_'
'brid'
'brandy_'
'bok'
'blossom_'
'bli'
'barossa_'
'angled_'
'ange'
'ading_'
'accu'
'ab_'
'34th_'
'1920_'
',,_'
' ........ _'
' ( ~_'
'word'
'versa'
'triumph_'
'thorn'
'tera'
'takeout_'
'supreme_'
'sunw'
'stud'
'stad'
'ssan'
'spin'
'sooooo_'
'silver'
'sens'
'roe'
'restau'
'proc'
'predict'
'pars'
'oods_'
'oin'
'minuscule_'
'masterpiece_'
'mant'
'love'
'lian'
'larry_'
'kilkenny_'
'kay'
'jewel'
'ished_'
'interactive_'
'insti'
'huntsville_'
'his'
'hands'
'fragrance_'
'fra'
'fiori_'
'execution_'
'ero_'
'entertainers_'
'enormously_'
'dreamy_'
'drained_'
'consult'
'constitution_'
'chirping_'
'brown'
'bridge'
'breakfasta'
'botswana_'
'bhutanese_'
'avoids_'
'areathis_'
'adored_'
'87_'
'0am_'
' .” _'
' ' !_'
'uw'
'urine_'
'trousers_'
'tif'
'theres'
'supervised_'
'suff'
'sucked_'
'strengths_'
'stifling_'
'stationi'
'spin_'
'specify_'
'smashing_'
'shelving_'
'securing_'
'sba'
'sants_'
'rui'
'rre'
'rotate'
'reali'
'raz'
'pup'
'prem'
'pg'
'peanut_'
'panelled_'
'northampton_'
'nair'
'movenpick_'
'moat_'
'mainstream_'
'mack'
'killing_'
'jackie_'
'istan'
'inclusion_'
'i5_'
'herbs_'
'haz'
'hatch'
'hair'
'haa'
'ground'
'glu'
'gdansk_'
'furnish'
'frequency_'
'freak'
'esca'
'entre'
'dong'
'ditto_'
'disapointed_'
'df'
'criticise_'
'cradle_'
'costa'
'companions_'
'colin_'
'closet'
'cityso_'
'cinc'
'canton_'
'box'
'bolt_'
'bohemian_'
'beauti'
'beachthe_'
'ath_'
'amiable_'
'amenities'
'adriatic_'
'ache'
'abq_'
'2x_'
'youthe_'
'worlde_'
'waved_'
'wald'
'wak'
'uel'
'twin'
'thirsty_'
'teeming_'
'target'
'subt'
'spu'
'specified_'
'specialist_'
'somewhere'
'sof'
'socialis'
'skimpy_'
'siren_'
'screw_'
'restraunt_'
'regrettably_'
'reaches_'
'proprietor_'
'pian'
'pau'
'outset_'
'oat_'
'musee_'
'mart'
'march'
'macc'
'lov'
'lise'
'lari'
'kul'
'ity'
'ind'
'increasing_'
'iat'
'ial'
'hotelf'
'hipster_'
'healdsburg_'
'goodit_'
'goa'
'girl'
'gay'
'fl'
'ened_'
'eds'
'econo'
'dle'
'dings_'
'demonstrated_'
'demeanor_'
'citrus_'
'chis'
'cano'
'cannon_'
'bunk'
'bumping_'
'booking'
'bodega_'
'berkeley_'
'beep_'
'aviation_'
'anta'
'airporti_'
'38th_'
' ;'
'unclear_'
'tusayan_'
'troublesome_'
'troubled_'
'throwback_'
'theory_'
'tesla_'
'surr'
'substitute_'
'staffwe_'
'rthe_'
'rightand_'
'retreat'
'regarded_'
'receives_'
'ralph_'
'rake'
'racetrack_'
'quincy_'
'punakha_'
'promotional_'
'profusely_'
'prof'
'prebooked_'
'nto'
'mate'
'manag'
'lull'
'liber'
'lep'
'kitt'
'kew_'
'jit'
'jai'
'hoppa_'
'hoop'
'hero'
'hc'
'harbourside_'
'hansar_'
'gy_'
'grave'
'glassed_'
'evora_'
'espana_'
'eccentric_'
'ec_'
'ebe'
'dampen'
'cong'
'comprising_'
'cio_'
'cascais_'
'bitten_'
'author'
'asso'
'aspir'
'anni'
'alabama_'
' * '
'woolworths_'
'vincent_'
'vera'
'unstable_'
'unst'
'unplug_'
'tok'
'tina_'
'tech'
'tas'
'surprise'
'stumble_'
'sting'
'stayit_'
'som_'
'snu'
'sirloin_'
'shortbread_'
'seam'
'pv_'
'phil_'
'pear'
'paradis'
'noticing_'
'nces_'
'nant'
'mot'
'mei_'
'masala_'
'manatees_'
'logs_'
'litt'
'linking_'
'jog'
'ivy_'
'iowa_'
'incorporated_'
'iko'
'hottub_'
'hongqiao_'
'highwayso_'
'gos'
'gondolas_'
'filmed_'
'façade_'
'eight'
'downtownand_'
'don'
'descend_'
'della_'
'deff'
'cramp'
'civilised_'
'chrome_'
'cheer_'
'chased_'
'charle'
'bui'
'broad'
'barren_'
'ats'
'atmos'
'argentinian_'
'arge'
'appal'
'anyone'
'aig'
'accolades_'
'wires_'
'whitefish_'
'wack'
'useable_'
'unsatisfactory_'
'twists_'
'tst_'
'torquay_'
'steep'
'sociable_'
'smartphone_'
'sank_'
'sandos_'
'sama'
'riverbank_'
'riverand_'
'redmond_'
'pulls_'
'pains_'
'notify_'
'nity_'
'nak'
'missouri_'
'mezquita_'
'mask'
'maintained'
'llen_'
'leh'
'keith_'
'incentive_'
'impacted_'
'ike'
'hara'
'gust'
'gol'
'gf_'
'genting_'
'gas'
'fumes_'
'flashing_'
'farm'
'facilties_'
'erat'
'ept'
'elounda_'
'eds_'
'earliest_'
'dys'
'dt'
'diesel_'
'dic'
'dere'
'countertop_'
'conflict'
'bind'
'benni'
'attack_'
'aru'
'arti'
'alameda_'
',(_'
' :-'
' : ) _'
'xton_'
'visibility_'
'vendome_'
'valet'
'uncl'
'twee'
'transferring_'
'toyota_'
'tch_'
'russia_'
'rome'
'roll'
'rob'
'rin'
'rh'
'relying_'
'rasa_'
'proper'
'processes_'
'positions_'
'posada_'
'ower_'
'opi'
'ool_'
'oint_'
'nci'
'nand_'
'mim'
'mgr_'
'melrose_'
'meh'
'lv_'
'lv'
'kni'
'khan_'
'ison_'
'interacting_'
'insisting_'
'inclu'
'igh_'
'iate'
'huntington_'
'however'
'hawks'
'hart'
'gorge'
'filipino_'
'fer_'
'experiencethe_'
'edi'
'dennys_'
'cortez_'
'colli'
'closures_'
'clin'
'christine_'
'chan'
'butw'
'burner_'
'bikers_'
'amelia_'
'allotted_'
'adapted_'
'!'
'zil'
'yc'
'wotif_'
'wil_'
'warnings_'
'verizon_'
'uneasy_'
'superf'
'standards'
'southwestern_'
'sod'
'smi'
'shuttled_'
'rer'
'reas'
'radiators_'
'pied'
'outward_'
'okaybut_'
'navi'
'mcc'
'mbu'
'marie'
'luci'
'libera'
'leo_'
'layers_'
'julia_'
'itr'
'irvine_'
'inge'
'hubbub_'
'hte'
'hamp'
'footprint_'
'footage_'
'ffer'
'explora_'
'estates_'
'esc'
'ellis_'
'effects_'
'domin'
'diy_'
'dg'
'deadwood_'
'crane_'
'cosmos_'
'copley_'
'confi'
'competitor_'
'colon_'
'cod'
'cn_'
'charing_'
'casually_'
'blended_'
'attire_'
'ase_'
'arg'
'andwi'
'amboise_'
'almond_'
'alcatraz_'
'='
'.... _'
'!!_'
'xos_'
'urgently_'
'unfinished_'
'unfa'
'understa'
'tus'
'tulsa_'
'treks_'
'stresa_'
'stars'
'solicitous_'
'skybar_'
'rr_'
'rita_'
'retirement_'
'restrict'
'rene'
'reims_'
'politic'
'pitched_'
'parkingi'
'nothing'
'naga'
'mit_'
'mary'
'marvel'
'lina'
'lime'
'langkawi_'
'kidd'
'kep'
'kathmandu_'
'kali'
'kah'
'jor'
'itw'
'indians_'
'hus_'
'gut'
'gov'
'explorer_'
'eon'
'ein'
'eche'
'e1'
'dise'
'dill'
'dayso_'
'cher_'
'charlottesville_'
'carrier_'
'carp'
'calistoga_'
'cabaret_'
'byward_'
'bust_'
'bumper_'
'breath'
'bore'
'bob'
'association_'
'aries_'
'apple'
'ance'
'amiss_'
'addict'
'>'
'83_'
'48'
'('
'wheat_'
'wasting_'
'wagon_'
'ux_'
'urs'
'tuni'
'tres'
'tik'
'therei_'
'temper'
'tasmania_'
'tablets_'
't2_'
'stun'
'strat'
'steam'
'smooth'
'sey_'
'sellers_'
'seed'
'schu'
'sawgrass_'
'rin_'
'revel'
'resemble_'
'remarks_'
'pur_'
'prep'
'pow'
'pinot_'
'pigeons_'
'pea_'
'participating_'
'nue'
'nicholas_'
'murky_'
'moa_'
'method_'
'management'
'malecon_'
'liberdade_'
'labeled_'
'kan_'
'jodhpur_'
'ites_'
'ife'
'herds_'
'health'
'hari'
'halong_'
'gen_'
'erw'
'edbut_'
'dhaka_'
'cornell_'
'convoluted_'
'conducting_'
'ces'
'cad'
'butin_'
'bt'
'battlefields_'
'anga'
'alton_'
'\u_'
'320_'
'195'
' ’ '
'yv'
'xt_'
'woefully_'
'wife'
'want'
'verify_'
'vei'
'unsurpassed_'
'uluru_'
'uga_'
'uda'
'trinidad_'
'tne'
'tightly_'
'tian_'
'tay'
'suck'
'staffi_'
'soc'
'sensor_'
'sensibly_'
'seawall_'
'scratchy_'
'saw'
'rell'
'regrets_'
'reeked_'
'rectangular_'
'rainshower_'
'porches_'
'ple_'
'pinch_'
'pare'
'paneling_'
'overpass_'
'outand_'
'opposite'
'omo'
'northumberland_'
'ngi'
'newness_'
'minnesota_'
'midwest_'
'mallorca_'
'lde'
'lapa'
'ja'
'intelligent_'
'illa_'
'ignorant_'
'harmony_'
'gum'
'gothenburg_'
'gogh_'
'foss'
'fig_'
'entertainments_'
'employ'
'elvis_'
'downt'
'desp'
'delu'
'davenport_'
'cr'
'corfu_'
'convient_'
'cola'
'cea'
'canaveral_'
'c2'
'bomb'
'blackb'
'bermuda_'
'bem'
'baking_'
'aplenty_'
'andes_'
'ambassadors_'
'amari_'
'againbut_'
'46'
' .--_'
'wtc_'
'westins_'
'ville'
'vault_'
'upsta'
'uno_'
'unexciting_'
'uganda_'
'trains'
'tobacco_'
'therwise_'
'thal'
'tending_'
'tee'
'syn'
'stormy_'
'stin'
'shortcut_'
'scala_'
'rost'
'rg'
'restraunts_'
'quirkiness_'
'quietand_'
'ques'
'propos'
'pres'
'pois'
'pira'
'persistent_'
'passi'
'pann'
'othe_'
'nish'
'nca'
'mover_'
'mode'
'minutesand_'
'mel_'
'mad'
'lg_'
'las'
'jia'
'jama'
'itit_'
'infused_'
'fol'
'eva'
'elena_'
'elb'
'easton_'
'dud'
'dorset_'
'donut_'
'dj'
'deteriorated_'
'demi'
'crt_'
'cobwebs_'
'clara_'
'chelly_'
'casa'
'campers_'
'buckets_'
'betty_'
'beachso_'
'ays'
'alr'
'allegedly_'
'ake'
'106_'
'windmill_'
'wie'
'whin'
'wdw_'
'waterford_'
'visitthe_'
'vir'
'viable_'
'uru'
'udi'
'trin'
'tone'
'tiling_'
'taka'
'streams_'
'stil'
'steps'
'stansted_'
'staffw'
'solar_'
'sheet'
'shangrila_'
'roof'
'rios_'
'res'
'really'
'raa'
'paper'
'pap'
'overwhelmingly_'
'orn'
'okura_'
'nut'
'newb'
'nell'
'md'
'lum'
'lotions_'
'layouts_'
'laden_'
'knives_'
'kad'
'inters'
'insul'
'institutional_'
'inis'
'ify'
'her'
'gels_'
'gee'
'gaslamp_'
'fum'
'favor'
'erd'
'enthusiasts_'
'eh'
'ees_'
'dut'
'distress'
'directory_'
'curv'
'chs'
'celi'
'canyonlands_'
'calm'
'azure_'
'arty_'
'185'
'wim'
'whits'
'watford_'
'vernon_'
'upholstery_'
'unheard_'
'turin_'
'troll'
'timeless_'
'socializing_'
'skyscraper_'
'sive'
'sata'
'regions_'
'reads_'
'preferably_'
'pontoon_'
'pont_'
'peterborough_'
'pc'
'oryx_'
'orn_'
'ori_'
'nostalgia_'
'nerv'
'nancy_'
'mustard_'
'mons'
'mono_'
'minimize_'
'mellow_'
'mates_'
'ln'
'klcc_'
'intrude'
'imper'
'ih_'
'ica_'
'herb_'
'has'
'hai'
'garr'
'gained_'
'footpaths_'
'fai'
'expansion_'
'exhibits_'
'epo'
'elsewhere'
'eh_'
'distr'
'dari'
'dama'
'cube_'
'cosmetics_'
'christian'
'christ'
'butg'
'barnes_'
'awfully_'
'await_'
'aunt_'
'appartment_'
'andan'
'! !_'
'zh'
'wors'
'weed_'
'unclean_'
'tul'
'trick'
'towne_'
'tears_'
'syntagma_'
'swimmable_'
'snooker_'
'smith'
'smil'
'se'
'roth'
'rotating_'
'rne'
'review'
'reve'
'recep'
'puff'
'press'
'pping_'
'ploenchit_'
'pickups_'
'perr'
'patpong_'
'pam'
'nove'
'nay_'
'morecambe_'
'monitored_'
'modernity_'
'merits_'
'marc_'
'legend_'
'lable_'
'kiosks_'
'kap'
'josh_'
'into'
'infr'
'helena_'
'heather_'
'hd'
'graham_'
'gow'
'gn'
'gaulle_'
'fur'
'fot'
'firework_'
'excell'
'employed_'
'dori'
'dor_'
'dod'
'dge'
'coverings_'
'cerv'
'cate'
'cass'
'carrots_'
'busythe_'
'bookstore_'
'bonfire_'
'benz_'
'beck_'
'73_'
'50s_'
' ;)_'
' :( _'
' ..'
'zer_'
'workable_'
'walla_'
'viewi'
'varenna_'
'uva_'
'uso'
'tubing_'
'tl_'
'tien'
'thre'
'tast'
'swish_'
'staid_'
'stages_'
'sone'
'skylight_'
'sheung_'
'serv'
'saltwater_'
'rive_'
'retiring_'
'reopened_'
'ramadan_'
'rall'
'puzzled_'
'potholes_'
'poker_'
'peas_'
'overgrown_'
'ony'
'oko'
'netherlands_'
'neck'
'multilingual_'
'mug_'
'meeting'
'mach'
'macao_'
'lub'
'kitty_'
'kanab_'
'jeans_'
'jamaican_'
'jake_'
'islam'
'inclusives_'
'ills_'
'idio'
'ida'
'hg'
'hey'
'henderson_'
'hb_'
'glass'
'gardener_'
'gar_'
'fussen_'
'fry'
'expe'
'enforced_'
'ello'
'dreaded_'
'dos'
'demonstration_'
'dali_'
'customary_'
'coordinated_'
'connecticut_'
'coc'
'charmless_'
'charlottetown_'
'cayman_'
'cast'
'carton_'
'cappuccinos_'
'capital'
'capi'
'burgundy_'
'brew'
'bran'
'beth_'
'ballrooms_'
'backa'
'azur_'
'assa'
'anticipation_'
'announced_'
'andon_'
'amaze'
'agnes_'
'afe'
'aesthetics_'
'adaptor_'
'45mins_'
'201'
'1990_'
'yum'
'vs'
'vac'
'trop'
'tiered_'
'tick'
'thurs_'
'therm'
'tac'
'sussex_'
'sultan'
'stand'
'solvang_'
'snakes_'
'sina'
'sid'
'shei'
'rud'
'roomservice_'
'rmo'
'repair'
'reminders_'
'reckon_'
'purpose'
'pupp'
'pru'
'proudly_'
'preci'
'pott'
'political_'
'placebut_'
'piles_'
'pebbles_'
'passages_'
'palacio_'
'mount'
'modernis'
'malt'
'layed_'
'ip_'
'incomparable_'
'hotelw'
'hood'
'gozo_'
'glob'
'general'
'ferr'
'fc_'
'falcon_'
'espa'
'ener'
'dus'
'diane_'
'destination'
'debit_'
'danny_'
'curti'
'cot'
'corp'
'chocolat'
'budd'
'broome_'
'brandon_'
'bj'
'berlin'
'bayswater_'
'backpacker_'
'aza'
'aug'
'atho'
'aper'
'andjust_'
'allit_'
'alleyways_'
'accommodation'
'a12_'
'215_'
'196'
'"-'
'viewa'
'velvet_'
'vau'
'uswe_'
'trusted_'
'tong'
'threatening_'
'telephoned_'
'tasks_'
'tand'
'sum'
'sthere_'
'solutions_'
'so'
'sme'
'sleepi'
'sko'
'singular_'
'shacks_'
'sathorn_'
'sah'
'rude'
'rth'
'ror'
'returnthe_'
'rdi'
'provi'
'prompted_'
'pigs_'
'phon'
'peel_'
'peanuts_'
'outline'
'once'
'nord'
'nices'
'nesting_'
'nell_'
'mostar_'
'morrison_'
'minat'
'merchandise_'
'mental_'
'mayflower_'
'marin'
'magn'
'lingering_'
'launching_'
'knu'
'joking_'
'interl'
'inno'
'inexcusable_'
'induc'
'hwa'
'hra'
'hovering_'
'holl'
'highl'
'fr'
'firm'
'fc'
'explore'
'evacuate'
'estr'
'engagement_'
'ella'
'ej'
'dwar'
'dust'
'dso_'
'dei'
'dealership_'
'cry_'
'cosmetic_'
'congratulated_'
'cola_'
'chipping_'
'child'
'cartes_'
'cari'
'cann'
'cam_'
'butb'
'bureau_'
'brak'
'bowness_'
'beac'
'arnold_'
'andnot_'
'agi'
'aer'
'abd'
')- _'
' :) ._'
'youtube_'
'youngest_'
'won'
'wol'
'wobbly_'
'winn'
'windowless_'
'wilt'
'vue_'
'vilamoura_'
'viewthe_'
'unavoidable_'
'trust'
'treasures_'
'tio'
'tint'
'thri'
'thr_'
'tail'
'sunning_'
'storm'
'staggering_'
'staf_'
'spree_'
'spoils_'
'sound'
'snorkling_'
'sia'
'sentosa_'
'selection'
'scotia_'
'scor'
'sauvignon_'
'sarajevo_'
'sans_'
'rugged_'
'rts_'
'rovi'
'riva_'
'respect'
'rak'
'raft_'
'processing_'
'plantings_'
'pelicans_'
'nton_'
'nter'
'nevis_'
'naturalist_'
'members'
'marriage_'
'letters_'
'leigh_'
'lant'
'knott'
'kama'
'jewellery_'
'ipl'
'info'
'icate'
'huang'
'hic'
'hew'
'heri'
'hdmi_'
'harvey_'
'gt'
'flavoured_'
'fia'
'expand_'
'een'
'edit'
'doorthe_'
'disconnect_'
'dental_'
'conclude_'
'commi'
'citythe_'
'chur'
'champlain_'
'canal'
'bulgaria'
'blanc'
'bergamo_'
'awaythe_'
'availed_'
'auc'
'ask'
'agu'
'adobe_'
'204_'
'190_'
') , _'
' ........._'
'yit_'
'wok'
'whites_'
'welcoming'
'warehouses_'
'vino_'
'viewpoint_'
'unde'
'tw'
'trivial_'
'trickle_'
'trap'
'towels'
'toothbrushes_'
'tombstone_'
'toilet'
'tirelessly_'
'terra'
'sumpt'
'subs'
'sony_'
'sigh'
'setting'
'sequ'
'scal'
'santi'
'sangria_'
'sai'
'rop'
'roomthis_'
'roman'
'roadi'
'receptionand_'
'pharmacies_'
'ph_'
'overd'
'ourne_'
'nun'
'noi_'
'nobu_'
'nama'
'murren_'
'moulin_'
'magnificient_'
'm6'
'lombok_'
'locations'
'liz'
'linn'
'ley'
'lean'
'lakeand_'
'lac_'
'kla'
'jour'
'ively_'
'iful_'
'hive_'
'hips_'
'hick'
'handy'
'hallmark_'
'hale'
'gp'
'enters_'
'dynamic_'
'deficiencies_'
'crown'
'continual_'
'calv'
'cables_'
'bunker_'
'bore_'
'bluffs_'
'bert'
'benefited_'
'astronomical_'
'areait_'
'ap'
'anywhereyou_'
'andas_'
'amble_'
'alone'
'39'
'1990s_'
' ) + _'
'á'
'zig'
'victory_'
'vacuuming_'
'usual'
'usbut_'
'upp'
'unn'
'ugh'
'tula'
'tuc_'
'tine_'
'terracotta_'
'techno'
'tails_'
'step'
'sque'
'spooky_'
'spider_'
'sandra_'
'sam'
'rise'
'rib'
'realizing_'
'quin_'
'poi'
'petro'
'pend'
'patron'
'overf'
'orthe_'
'orr'
'nym'
'nevsky_'
'naz'
'nascar_'
'nails_'
'mph_'
'moro'
'merci'
'locationa'
'lanterns_'
'ive'
'iously_'
'inventive_'
'intuitive_'
'ick'
'hb'
'hamlet_'
'got'
'godsend_'
'gb'
'gallo'
'fron_'
'frie'
'focal_'
'fitz'
'eta_'
'educational_'
'disembark'
'differ'
'desc'
'depict'
'defeat'
'decisions_'
'crunch'
'crowed_'
'crowd'
'copies_'
'continent_'
'confe'
'comfythe_'
'colomb'
'circulation_'
'cathedrals_'
'carib'
'canvas_'
'bullring_'
'branding_'
'bg'
'bab_'
'andwhat_'
'ander_'
'ambleside_'
'ambar_'
'alway_'
'againw'
'adu'
'acces_'
'a2_'
'a2'
' ’ , _'
' ? ? ? '
' ......... _'
'yon'
'wreck_'
'washcloths_'
'vem'
'vat_'
'uto'
'unmanned_'
'unm'
'uncoo'
'unbe'
'ude'
'tryp_'
'tours'
'thom'
'subjective_'
'spon'
'sorbet_'
'smile'
'sloped_'
'sion'
'secc_'
'sebasti'
'scru'
'sails_'
'rover_'
'rogers_'
'rly_'
'rinse_'
'resur'
'restocking_'
'respectable_'
'puri_'
'principle_'
'prettier_'
'postcards_'
'pepsi_'
'pasture'
'palma'
'pali'
'osa'
'orl'
'organi'
'ord'
'onis'
'nuremberg_'
'nol'
'nighti'
'nankai_'
'mutt'
'loveliest_'
'logi'
'lieu_'
'lic_'
'lash'
'lao'
'lak'
'kly_'
'insure_'
'insurance_'
'innkeepers_'
'inda'
'impromptu_'
'imp'
'imagin'
'i4'
'hung'
'howling_'
'hotelb'
'hoste'
'grape_'
'fulfill_'
'freebies_'
'frances'
'forb'
'ferm'
'explanations_'
'exec'
'enic_'
'depressed_'
'consol'
'cashe'
'carso_'
'cad_'
'boisterous_'
'ax'
'ati_'
'areaw'
'acknowledging_'
'82_'
'54'
'495_'
' ? ? ? ?_'
' ! ) '
'waterbu'
'walt_'
'unsupervised_'
'tru'
'tongariro_'
'ticket'
'thunderbird_'
'tat_'
'sundry_'
'sui'
'standpoint_'
'scone_'
'ripe_'
'rez'
'resteraunts_'
'reliably_'
'raff'
'radi'
'quo'
'pronounced_'
'presidents_'
'prea'
'pens'
'ped'
'particu'
'overhang'
'niche_'
'morrisons_'
'mashed_'
'manual_'
'maka'
'linea'
'limo'
'lifting_'
'lawson_'
'lava'
'lauren_'
'kos_'
'kiwi_'
'kind'
'kenny_'
'joc'
'ited_'
'hotell'
'hotelg'
'haute_'
'guest'
'groom_'
'goodso_'
'finn'
'excl'
'esh'
'elusive_'
'dipping_'
'define'
'deceptive_'
'cranky_'
'cranes_'
'corral_'
'continent'
'congenial_'
'clam_'
'cie'
'ceramic_'
'caus'
'carribean_'
'carriages_'
'camb'
'brewer_'
'blu'
'bengal'
'beck'
'avail'
'armas_'
'angeli'
'andonly_'
'alerted_'
'adjusting_'
'@'
'97_'
'60th_'
'275_'
'128_'
' ! ! ! )_'
'wy'
'works'
'while'
'westgate_'
'weave'
'waving_'
'washrooms_'
'vos'
'vague_'
'unen'
'tus_'
'tower'
'tore_'
'telluride_'
'taiwan_'
'swivel_'
'suites'
'stayed'
'splurged_'
'spectrum_'
'socialize_'
'shant'
'scare_'
'sally_'
'saa'
'rattling_'
'poorest_'
'plough'
'permission_'
'peg'
'om'
'olog'
'nm_'
'nico'
'munchies_'
'mousse_'
'miser'
'mick'
'metr'
'mentary_'
'mann_'
'lore'
'lhr_'
'laquinta_'
'landscapes_'
'kong'
'kampala_'
'jose'
'infinite'
'iguazu_'
'hear'
'harassed_'
'hake_'
'greeter_'
'goodi'
'goe'
'gho'
'gc_'
'gatherings_'
'galapagos_'
'franco'
'folder_'
'fold'
'firmness_'
'especial'
'esa'
'elt'
'ec'
'dors'
'domingo_'
'delf'
'custard_'
'cora'
'congratulate_'
'clam'
'borg'
'bop'
'bonuses_'
'blind'
'bethlehem_'
'bedspread_'
'assignment_'
'asok_'
'anger_'
'anf'
'aiming_'
'acoustics_'
'ach'
'92_'
'750_'
' 👍 '
' - ( _'
'wye_'
'workman'
'williams'
'walko'
'teeny_'
'tbilisi_'
'swindon_'
'suspension_'
'suprise_'
'sundeck_'
'stown_'
'steamboat_'
'sr_'
'span'
'sib'
'sew'
'serviceand_'
'restore_'
'restaurantsa'
'reo'
'recovering_'
'rattled_'
'rach'
'qualia_'
'poles_'
'pitlochry_'
'pf'
'oya'
'otters_'
'oshi'
'olivia_'
'occassion_'
'noisebut_'
'moors_'
'martha_'
'manoeuvre_'
'mab'
'lus_'
'lucy_'
'luc'
'limiting_'
'limited'
'lil'
'liff'
'jen_'
'irk'
'inwe_'
'integr'
'incorrectly_'
'incessant_'
'hau_'
'germans_'
'friend'
'forrest_'
'ffl'
'ferris_'
'fairgrounds_'
'explo'
'eveningthe_'
'eva_'
'equidistant_'
'enquiry_'
'elk'
'effortlessly_'
'eati'
'dura'
'dell_'
'delish_'
'dealers_'
'currents_'
'cruisers_'
'crowding_'
'crist'
'crank'
'conve'
'completion_'
'colmar_'
'chrysler_'
'chops_'
'chau'
'cco'
'cars'
'calientes_'
'brie'
'blyth'
'bizarrely_'
'beda'
'attentive'
'appointed'
'ank_'
'ama_'
'altho_'
'adel'
'addresses_'
'accident'
'30a'
'+'
' ° _'
' .“ _'
'”'
'yucatan_'
'waf'
'volumes_'
'vik'
'vicksburg_'
'uve'
'uro'
'upthe_'
'thrill_'
'themthe_'
'tetons_'
'tars_'
'symp'
'steven_'
'staffand_'
'snork'
'skirt'
'significance_'
'shear'
'screams_'
'savi'
'rse'
'rights_'
'restauranti'
'resorts'
'relaxing'
'realising_'
'programmed_'
'pillow'
'peach_'
'peacefully_'
'paw'
'patches_'
'paramount_'
'paradisus_'
'paella_'
'onsi'
'oblige_'
'melissa_'
'marr'
'marking_'
'manicure_'
'madr'
'm40_'
'latz_'
'kok_'
'journal_'
'inquiries_'
'inaccessible_'
'illumination'
'hul'
'gent'
'fri'
'forgiven_'
'firmer_'
'everythingand_'
'etihad_'
'enca'
'doughnuts_'
'dislikes_'
'disjointed_'
'dig_'
'dien'
'dala'
'cornish_'
'copa'
'contr'
'cockroach_'
'circling_'
'chun'
'casino'
'brave'
'beca'
'bake_'
'alth'
'airf'
'activated_'
'96_'
'188'
' ' ...'
'zzle'
'youi'
'wicked_'
'westb'
'ution'
'utility_'
'tst'
'tropicana_'
'transform'
'torrey_'
'thruway_'
'threa'
'tama'
'swimsuit'
'susan_'
'sundown_'
'summertime_'
'scen'
'riche'
'revi'
'resolution_'
'queens'
'pony_'
'pint'
'pillows'
'pia'
'pch_'
'patter'
'overcharge_'
'ov'
'orb'
'ond_'
'oard_'
'nip_'
'natalie_'
'mirador_'
'mendoza_'
'meadow'
'mckinley_'
'lym'
'luxury'
'lovelythe_'
'lop'
'kenmare_'
'ink_'
'incur'
'inca_'
'hotelt'
'hle'
'histori'
'grants_'
'generations_'
'flake'
'eso'
'ements_'
'elbow_'
'dump'
'determine_'
'curtain'
'crush_'
'crou'
'creation_'
'corso_'
'corals_'
'cooke'
'configured_'
'commonwealth_'
'clap'
'cheek_'
'brittany_'
'bouche_'
'borobudur_'
'bod'
'ashford_'
'agree'
'230_'
'! ! !'
' : • _'
' .. ) '
' ,, _'
'whisper_'
'watt'
'walton_'
'wakeup_'
'wailea_'
'unders'
'tze'
'transport'
'townth'
'toit_'
'tiniest_'
'theatre'
'swamp_'
'snowstorm_'
'slop'
'sliver_'
'sip'
'singapore'
'shaw_'
'sesame_'
'scout'
'rough'
'rittenhouse_'
'renovation'
'redecoration_'
'reconstruction_'
'periodically_'
'pensacola_'
'patron_'
'ott_'
'octagon_'
'nder_'
'mong_'
'mec'
'marquette_'
'macon_'
'lio'
'leaks_'
'lakeland_'
'kloof_'
'kins_'
'kana'
'jani'
'insta'
'independ'
'hongkong_'
'gum_'
'grin'
'grid_'
'greymouth_'
'greedy_'
'goof'
'gin'
'frig'
'freeze_'
'font_'
'ening_'
'edison_'
'easi'
'dim'
'dho'
'desires_'
'deep'
'cut'
'crepe_'
'convivial_'
'coloni'
'coe'
'cobb_'
'clement'
'ciu'
'church'
'characteristic_'
'cesar_'
'cel'
'cash'
'bund'
'broc'
'booming_'
'bing'
'baker'
'ark'
'andha'
'alon'
'alk_'
'ahmed_'
'ahi'
'agin_'
'61_'
'5s'
'58'
'1930s_'
' ! ! !'
'wd'
'wang'
'usi'
'upw'
'upholstered_'
'torre_'
'toky'
'sullen_'
'stella_'
'solving_'
'sligh'
'seashore_'
'roadways_'
'rider_'
'rh_'
'replenishment_'
'relay'
'refur'
'ration'
'pumpkin_'
'produces_'
'priced'
'planting_'
'phillips_'
'paz_'
'oiled_'
'occurrence_'
'northw'
'mok'
'meriton_'
'matr'
'manatee_'
'lui'
'lombard_'
'locking_'
'locat'
'lark'
'karo'
'ind_'
'improves_'
'hana_'
'grease_'
'goodm'
'gna'
'gian'
'ghan'
'feared_'
'expen'
'evey'
'evelyn_'
'esco'
'eddie_'
'dry'
'donkey'
'devoted_'
'compara'
'coaster_'
'circulat'
'burgh_'
'bodies_'
'barn'
'banda'
'atleast_'
'athroom_'
'ares'
'anyway'
'andwell_'
'andaman_'
'agh'
'action'
'a6'
'? '
' ! , _'
'yuk'
'yal'
'xb'
'welland_'
'uta'
'ush_'
'uncle_'
'translation_'
'tn'
'thunderstorm_'
'taw'
'sukhothai_'
'stern_'
'stafford_'
'sl'
'sit'
'shockingly_'
'server'
'scho'
'sbury_'
'sash_'
'rville_'
'ruct'
'reuni'
'restaurantbut_'
'representation_'
'rebook_'
'progr'
'produc'
'plain'
'pillar_'
'partner'
'overnight'
'osu_'
'orth_'
'oms_'
'nth_'
'moment'
'mino'
'mina'
'merit_'
'marc'
'manually_'
'logy_'
'limassol_'
'leb'
'jon_'
'inse'
'inna'
'fuzzy_'
'fts_'
'freshest_'
'forested_'
'flap'
'fallsview_'
'expanding_'
'ethi'
'efi'
'dumbbells_'
'disguise'
'delicious'
'cuz'
'creaked_'
'crea'
'consierge_'
'condition'
'chuck'
'christopher_'
'centennial_'
'calamari_'
'brutal_'
'branches_'
'bett'
'berg'
'beachw'
'bathe_'
'aya'
'ational_'
'appealed_'
'andoverall_'
'ambulances_'
'alit'
'againit_'
'academi'
'*_'
' ) .._'
' $ $ $ '
'ving'
'tre_'
'tools_'
'toffee_'
'tc'
'taxis'
'tati'
'tarmac_'
'tang'
'tac_'
'swimmingpool_'
'sweating_'
'steves_'
'sita'
'sc'
'rth_'
'roundtrip_'
'roomss'
'rama'
'railways_'
'proficient_'
'pottery_'
'pax_'
'palapa_'
'padu'
'orangery_'
'noisily_'
'niko'
'nephew_'
'negombo_'
'nding_'
'mountainside_'
'mornings'
'monopoly_'
'matsumoto_'
'mane'
'lur'
'llas_'
'lith'
'lili'
'leton_'
'leaflets_'
'klo'
'keep'
'itin'
'ird_'
'ira'
'inb'
'ibiza_'
'i'
'hobby_'
'hag'
'grandparents_'
'glue'
'fus'
'fulfil'
'four'
'existant_'
'emptying_'
'employer_'
'edg'
'driver'
'dour_'
'creak_'
'cray'
'costumes_'
'compos'
'compensates_'
'comf'
'cheddar_'
'chatter_'
'character'
'champions_'
'chabl'
'brownie_'
'breathtakingly_'
'breakfa'
'blunt'
'autograph_'
'astr'
'ase'
'aguas_'
'adj'
'act'
'acom'
'203_'
'10minutes_'
' .......... _'
'zoom'
'zal'
'yan_'
'wii'
'whole'
'warp_'
'vid'
'vian'
'underwater_'
'uit'
'tric'
'tral'
'tracked_'
'tgv_'
'tari'
'tambo_'
'swor'
'soo'
'slot'
'sine'
'sera'
'sbe'
'rush'
'ronda_'
'revelers_'
'repaint'
'reed'
'redding_'
'rance_'
'rah_'
'plaza'
'parag'
'otto'
'nal'
'moy'
'martinis_'
'marrakesh_'
'loos'
'local'
'lob'
'lli_'
'leonardo_'
'lattes_'
'kk'
'jes'
'jen'
'islington_'
'ingr'
'imac_'
'identity_'
'ick_'
'hubs_'
'hea'
'goode'
'gale'
'foll'
'facilitate_'
'evo'
'eventhough_'
'estimate_'
'downtownso_'
'disrepair_'
'dispense'
'dicey_'
'cres'
'coy'
'count'
'conjunction_'
'conference'
'claw_'
'chow'
'cheyenne_'
'cchi'
'cath'
'castell'
'cage_'
'cab'
'buton'
'busyso_'
'bellini_'
'begging_'
'armoire_'
'appearances_'
'appeals_'
'alta_'
'affluent_'
'accommodates_'
' ' ) _'
'ür'
'yield'
'yama'
'wyth'
'weston_'
'weakness_'
'voi'
'vital_'
'vertical_'
'valetta_'
'vacancy_'
'unwa'
'universit'
'twe'
'trepidation_'
'trasse_'
'towe'
'tilt'
'thriving_'
'thei'
'tart'
'tal_'
'suspicious_'
'survived_'
'subway'
'stroller_'
'stow_'
'stem'
'stayw'
'stainless_'
'sni'
'shapes_'
'shabb'
'salvador_'
'rik'
'respectively_'
'replies_'
'queued_'
'pyr'
'projects_'
'print'
'poo_'
'poisoning_'
'peninsular_'
'paci'
'orderly_'
'ordeal_'
'ones'
'ners_'
'neighborhood'
'malm'
'loca'
'lego_'
'laughable_'
'kne'
'kf'
'joel_'
'jail_'
'issue'
'isl'
'irt'
'input_'
'inp'
'inm'
'implement'
'ient_'
'hv'
'hugo_'
'hotele'
'hosp'
'habit'
'guide'
'grenada_'
'fluctuate'
'faro_'
'extreme'
'even'
'entra'
'ence'
'document_'
'div'
'discreetly_'
'dennis_'
'denise_'
'cranberry_'
'compo'
'centrei'
'butd'
'brit'
'birthdays_'
'bf_'
'bbqs_'
'baron_'
'bark'
'bait_'
'auto'
'aus'
'arequipa_'
'antr'
'anton_'
'andhe'
'ameri'
'afterthought_'
'absolut'
'601'
'1b'
'114_'
' ; ( _'
' .( '
' . ' _'
'unappetising_'
'ude_'
'ual'
'turnaround_'
'transports_'
'trag'
'tra_'
'tp_'
'tis_'
'terr'
'talent_'
'sunglasses_'
'succ'
'statu'
'spla'
'specta'
'slipp'
'sari_'
'sab'
'rupe'
'rovinj_'
'roomsa'
'restura'
'rear'
'quartier_'
'prepay'
'pped_'
'poop_'
'patriot'
'palette_'
'oper'
'noth'
'nicea'
'nia'
'nadi_'
'nac'
'mme'
'miri'
'midnight'
'medellin_'
'mae_'
'lung'
'lights'
'laser_'
'knack'
'italia_'
'ist'
'interruption'
'instrument'
'inspite_'
'ingbut_'
'ified_'
'ient'
'hofn_'
'helpfuls'
'healthier_'
'happy'
'gold'
'gear'
'freshened_'
'fort'
'flamingos_'
'fjords_'
'eys_'
'eth'
'ete'
'esthe_'
'env'
'ege_'
'ean'
'dent'
'delectable_'
'defi'
'daybut_'
'commerce_'
'comfort'
'cleane'
'cho_'
'celebrat'
'butbe'
'bu_'
'brisas_'
'boi'
'bernard'
'backpack'
'arian'
'amor'
'adore_'
'accademia_'
'747_'
'5m'
'50p'
'306_'
'295_'
'139_'
' ..........'
'…'
'woud'
'whiskies_'
'wed'
'vre'
'volunteer'
'venice'
'upsetting_'
'universities_'
'ueno_'
'tuc'
'trucke'
'thew'
'tave'
'supplying_'
'squashed_'
'scanne'
'sande'
'salam'
's1'
'rosa'
'robbery_'
'quesadilla'
'prompt'
'prima'
'pops_'
'pitt'
'personalities_'
'patterns_'
'pac'
'outrigger_'
'outage_'
'ouch'
'nza_'
'nel_'
'nando'
'nakuru_'
'nadler_'
'mulle'
'monk'
'modestly_'
'madagascar_'
'locates_'
'lif'
'lagos_'
'kwa'
'ilit'
'ifi_'
'hoards_'
'highwayand_'
'herald_'
'guacamole_'
'greata'
'ghats_'
'garh_'
'gardiner_'
'furn'
'fundamental'
'floori'
'fere'
'fences_'
'everyone'
'esti'
'enes'
'drugstore_'
'dona'
'dominic'
'divi_'
'diva'
'dis_'
'cula_'
'cti'
'corte'
'coordinat'
'contend_'
'concluded_'
'collect'
'coch'
'children'
'chez_'
'carna'
'canmore_'
'brekky_'
'breakfaste'
'breaka'
'bland'
'bia'
'arre'
'aperitif_'
'anie'
'allen_'
'alamo'
'aha'
'ador'
'abso'
';'
'64'
'303_'
'225_'
' ️'
'wash'
'wander'
'vy_'
'vil'
'vibrati'
'velas_'
'vec'
'vase'
'unt_'
'unc'
'ull_'
'treacherous_'
'traveller'
'tipp'
'teo'
'teabags_'
'suvarnabhumi_'
'strive_'
'stopper_'
'sre'
'spill_'
'southbound_'
'snack'
'smoothe'
'skybus_'
'skin'
'schipol_'
'scam'
'saga_'
'rr'
'rme'
'rickety_'
'retire_'
'rethink_'
'rendered_'
'ray'
'ravi'
'raucous_'
'ramble'
'puno_'
'pleas'
'pina_'
'phl_'
'perform'
'pera'
'particular'
'parkw'
'overnighting_'
'outa'
'onn'
'og_'
'oas'
'nute'
'nna'
'moc'
'mesmerizing_'
'mber'
'livingstone_'
'limestone_'
'kudu_'
'kant'
'ipe'
'inwards_'
'indifference_'
'ince_'
'imbi'
'iano_'
'hers'
'haifa_'
'gritty_'
'gior'
'fors'
'flustered_'
'fluff'
'farmland_'
'exclusivity_'
'ev'
'ese'
'eration_'
'ephesus_'
'elli'
'eiger_'
'eda'
'drip_'
'disastrous_'
'datai_'
'crit'
'concur_'
'chev'
'cathe'
'capsules_'
'cancelling_'
'caleta_'
'butand_'
'busyi'
'buddhist_'
'bombay_'
'blackberry_'
'barand_'
'aye'
'aving_'
'augusta_'
'archa'
'apolog'
'amie'
'aircon'
'ag_'
'ael_'
'59'
'208_'
'1h'
'zl'
'yang'
'wool_'
'whipped_'
'wentworth_'
'vers_'
'usth'
'unding'
'transfer'
'teppanyaki_'
'tasman_'
'stando'
'staging_'
'stag'
'ssta'
'squid_'
'smalli'
'sity_'
'shot'
'seperate'
'sanit'
'russ'
'rup'
'riverb'
'retrospect_'
'rejected_'
'refurbishments_'
'refer'
'rec_'
'raspberry_'
'rafael_'
'ppo'
'pk'
'patty_'
'pane'
'overcast_'
'obtaining_'
'newquay_'
'nestl'
'nable_'
'mush'
'mow'
'mines_'
'mex_'
'mercado_'
'maxi'
'manta'
'mang'
'mam'
'lug'
'longer'
'lon'
'lasts_'
'kn'
'kakadu_'
'jac'
'intercity_'
'inau'
'ige'
'iba'
'hover'
'hoe_'
'hob_'
'heel_'
'harried_'
'hanger_'
'gues'
'groves_'
'glenwood_'
'geni'
'garibaldi_'
'fukuoka_'
'fronta'
'firenze_'
'fat'
'eurotunnel_'
'eria'
'erge'
'dumb_'
'downpour_'
'download'
'dge_'
'devil_'
'contributors_'
'consu'
'cloud'
'cide'
'chipotle_'
'chil'
'checkout'
'cert'
'bode'
'blow'
'blizzard_'
'berni'
'beet'
'azi'
'arras_'
'arkansas_'
'andw'
'andra'
'amazingthe_'
'alfresco_'
'aking_'
'againh'
'admired_'
'achiev'
'183'
' " ....'
'zag'
'waite'
'wading_'
'vt_'
'venue'
'vc'
'utt'
'unsightly_'
'umer'
'troy_'
'timewe_'
'taos_'
'tailor_'
'syr'
'surp'
'suprisingly_'
'stairwells_'
'sri'
'sossusvlei_'
'solid'
'shield'
'scoop'
'schl'
'rhe'
'reconsider_'
'rearrange'
'rci_'
'ramparts_'
'raddison_'
'proprietors_'
'presentable_'
'ppl_'
'pose_'
'parr'
'pack'
'overseeing_'
'outw'
'outra'
'ork'
'odi'
'och'
'ocat'
'obs'
'nordstrom_'
'nic'
'netting_'
'nder'
'nberg_'
'natur'
'motel'
'moorea_'
'mona_'
'metropolis_'
'longt'
'locationi'
'llin'
'legian_'
'lack'
'koa'
'kitchenettes_'
'kaikoura_'
'jesmond_'
'jacks_'
'jab'
'ito_'
'interconnected_'
'inroom_'
'inbut_'
'impatient_'
'illo'
'idat'
'iber'
'housekeeping'
'henri'
'hamper'
'hame'
'halal_'
'gratis_'
'grace'
'ghastly_'
'fowey_'
'fours_'
'floorand_'
'floods_'
'float'
'fiddle'
'eze_'
'extravagan'
'episode_'
'eig'
'dk'
'delica'
'daz'
'cv'
'cushion_'
'cone'
'commo'
'chemical_'
'chao'
'centralized_'
'captured_'
'buisness_'
'bolted_'
'basil_'
'barbe'
'aval'
'andre_'
'alou'
'alder'
'a14_'
'501_'
'302_'
'1920s_'
'-)_'
'*._'
'!!. _'
' … ..'
' " ?'
'yth'
'wests'
'waybut_'
'varia'
'vaci'
'unbearably_'
'twilight_'
'truro_'
'townwe_'
'str'
'sters_'
'spit_'
'sahara_'
'saddle'
'rubb'
'rijksmuseum_'
'reflective_'
'receptive_'
'qatar_'
'pu_'
'psy'
'philip_'
'patr'
'paste'
'passers_'
'paced_'
'owed_'
'number'
'nste'
'noti'
'northb'
'mushy_'
'mue'
'model'
'mixer_'
'mild'
'mechanism_'
'lyand_'
'lish_'
'leiden_'
'laughter_'
'later'
'kart'
'ju_'
'jean'
'jalan_'
'isn'
'iq'
'intermittently_'
'industri'
'holly_'
'hiex'
'hab'
'gut_'
'guestrooms_'
'goi'
'girona_'
'gio'
'gest'
'gbp'
'galeri'
'fortnight_'
'flock_'
'flagged_'
'ffa'
'feel'
'facility'
'fabulous'
'expertise_'
'esl'
'equal'
'enviable_'
'doorw'
'donna_'
'discl'
'destin_'
'damm_'
'dad'
'cuc_'
'conwy_'
'complain'
'comer'
'column_'
'clich'
'cistern_'
'choiceand_'
'chir'
'cheetahs_'
'centreso_'
'came'
'cactus_'
'burns_'
'beachi'
'ax_'
'attracting_'
'aroundand_'
'aret'
'annually_'
'amphitheater_'
'amd_'
'alleg'
'againo'
':-'
'82'
'550_'
'210'
'* * _'
' , ....'
' , ) _'
'yous'
'wwii_'
'wins'
'verdant_'
'vell'
'vap'
'unter_'
'ump'
'tuned_'
'terror'
'terrace'
'teme'
'sweltering_'
'sve'
'surrey_'
'sunbath'
'stations'
'staffers_'
'spends_'
'speedily_'
'sover'
'smell'
'segovia_'
'scarlet_'
'scale'
'salina'
'ripoff_'
'repet'
'recruit'
'reac'
'railing_'
'quieten'
'quat'
'producing_'
'practices_'
'portico_'
'plump'
'plat_'
'pins_'
'pia_'
'photographi'
'pheasant_'
'perc'
'patrolled_'
'ois_'
'offshore_'
'nur'
'nhof_'
'nati'
'nao'
'monticello_'
'milton_'
'meu'
'messing_'
'maximise_'
'mamo'
'malt_'
'malla'
'magically_'
'mackinac_'
'lyn_'
'kazi'
'javier_'
'ista'
'interfere_'
'indo'
'humb'
'highs'
'hereth'
'helier_'
'hed'
'hala'
'gymn'
'gents_'
'funi'
'freeport_'
'fall'
'eyre_'
'exellent_'
'europe'
'erh'
'embark'
'effecient_'
'dwell'
'draper'
'distancebut_'
'different'
'devine_'
'detector_'
'detail'
'debbie_'
'cromer_'
'converti'
'communist_'
'coinciden'
'clocks_'
'cking_'
'chl'
'chett'
'chen_'
'buy'
'butthere_'
'butbut_'
'burb'
'bris'
'brews_'
'breakast_'
'bloomington_'
'bia_'
'berjaya_'
'bees_'
'bedsthe_'
'bc'
'barra_'
'barista_'
'bal_'
'bags'
'andba'
'airportwe_'
'afo'
'admirably_'
'acquaint'
'accessable_'
'1950s_'
'130'
'112_'
' : * _'
'zoe_'
'yf'
'xin'
'weakest_'
'waythe_'
'waterton_'
'voted_'
'vor'
'vital'
'visits'
'uka'
'ubahn_'
'twent'
'ttle'
'trastevere_'
'transaction_'
'tolerate_'
'timeshares_'
'till'
'thes'
'thereby_'
'tgif_'
'texture_'
'tables'
'swat'
'supervis'
'spat'
'rst'
'reveal_'
'repeat'
'recomended_'
'presenting_'
'plen'
'phen'
'parl'
'outla'
'oco'
'ntar'
'notorious_'
'northwestern_'
'nod'
'nne_'
'nect'
'multistor'
'mtrs_'
'moncton_'
'mecure_'
'mba'
'mangrove_'
'lty_'
'lte'
'lens'
'lana'
'kea'
'justi'
'izing_'
'iny'
'inhabit'
'iel'
'hyenas_'
'homew'
'herd'
'herbal_'
'hatt'
'greg'
'gram'
'fret'
'frans'
'forces_'
'fist_'
'everywherewe_'
'esto'
'erve'
'erb'
'eran'
'equipments_'
'empress_'
'elemis_'
'dungeon_'
'duct_'
'doncaster_'
'dil'
'dijon_'
'dick_'
'definitley_'
'dartmoor_'
'crewe_'
'credits_'
'constructive_'
'chats_'
'chance'
'carpa'
'carbs_'
'butto'
'belli'
'bela'
'barte'
'barstow_'
'barbican_'
'andma'
'anad'
'alight_'
'aki_'
'aire'
'abode_'
'://_'
'160'
'zat'
'ycl'
'yangshuo_'
'ways'
'walkw'
'vl'
'upload_'
'uncom'
'uld_'
'truffle_'
'tribeca_'
'thou'
'thems'
'sword'
'surviv'
'succeeded_'
'stroll'
'staffi'
'ssy_'
'something'
'shopper_'
'sends_'
'scan_'
'rub_'
'rowe'
'ropes_'
'rity_'
'restaruant'
'respected_'
'quests_'
'ply_'
'pleasure'
'placid_'
'pester'
'paula_'
'oust'
'okaythe_'
'o'
'novena_'
'networks_'
'nded_'
'motorized_'
'moraine_'
'ml_'
'michael'
'mew'
'mering'
'mater'
'mani_'
'maddening_'
'lyi'
'lier'
'leis'
'kuredu_'
'jol'
'jets'
'jb'
'japan'
'inw'
'influx_'
'incorporate'
'imported_'
'ifi'
'holli'
'herr'
'halle'
'greensboro_'
'grant'
'fib'
'felix_'
'facil'
'escaping_'
'ente'
'ective'
'diversion_'
'derry_'
'dene'
'craz'
'cooker_'
'contribute_'
'complete'
'commun'
'commotion_'
'coati'
'cler'
'chy_'
'carn'
'canoeing_'
'californian_'
'cairn'
'buried_'
'blake'
'bello_'
'bavaro_'
'banquets_'
'balboa_'
'bagh_'
'auditorium_'
'apologizing_'
'annoy_'
'andmo'
'ame_'
'alin'
'alila_'
'advance'
'accr'
'account'
'2a'
'193'
'1600_'
'/-'
' ... !_'
' ! ! ! '
'yang_'
'wou'
'weird'
'vd'
'vation'
'vanc'
'twisty_'
'trib'
'transa'
'testament_'
'telescope_'
'teething_'
't1_'
'swamped_'
'surge'
'starving_'
'southw'
'sincerity_'
'simp'
'shrug_'
'shout'
'shed'
'servicei_'
'sant_'
'salts_'
'romania_'
'riz'
'ricardo_'
'ravioli_'
'ramon_'
'ption_'
'prai'
'phy'
'phx_'
'perception_'
'oto'
'nni'
'nerve_'
'nari'
'murder_'
'munnar_'
'mothers_'
'mine'
'michel'
'medan'
'mead_'
'maris'
'marcus_'
'lygon_'
'lust'
'lever'
'lave'
'laurel_'
'laminate_'
'lacklustre_'
'keyboard_'
'kea_'
'kag'
'kab'
'judi'
'jok'
'jing_'
'insist'
'inch'
'immi'
'ibl'
'iar'
'hussle_'
'hotelsi'
'goodthis_'
'glas'
'fll_'
'fears_'
'eugene_'
'ethos_'
'eous_'
'eliminate_'
'ecuador_'
'dub'
'domain_'
'dockyard_'
'distinction_'
'desir'
'deni'
'danielle_'
'dal_'
'crawley_'
'compromised_'
'classically_'
'chino'
'cheeri'
'chas'
'chari'
'cet'
'burma_'
'bugis_'
'brim'
'breafast_'
'birdwatching_'
'bedroomed_'
'bathro'
'barl'
'baku_'
'azo'
'aso_'
'aromatherapy_'
'appo'
'amr'
'a'
'5000_'
'260_'
' - -_'
'withe'
'winters_'
'westm'
'velo'
'veal_'
'undis'
'uen'
'toileteries_'
'thet'
'thatthe_'
'tarts_'
'swimmer_'
'sunscreen_'
'suma'
'stream'
'sophie_'
'slov'
'sloane_'
'skimp'
'shula_'
'scro'
'rota'
'roped_'
'robust_'
'rivers'
'ridges_'
'reston_'
'repa'
'regret'
'recumbent_'
'quake'
'prohibit'
'plum'
'pill'
'pica'
'overc'
'orat'
'oppressive_'
'nic_'
'ndl'
'nat'
'nade'
'mulli'
'month'
'moma_'
'mistakenly_'
'mercer_'
'meg'
'mathi'
'marke'
'maldron_'
'mage'
'listi'
'launceston_'
'latch_'
'lak_'
'kilimanjaro_'
'jura'
'juggl'
'ivan_'
'isla'
'isan'
'indore_'
'impecable_'
'imi'
'hydra'
'hurr'
'hide'
'guilty_'
'grip_'
'grain_'
'gino'
'ghetto_'
'generosity_'
'gel'
'frag'
'foodies_'
'feature'
'fantasy_'
'esso'
'educated_'
'edso_'
'dominates_'
'distinguish_'
'differ_'
'ded'
'dearborn_'
'corne'
'cordi'
'contract'
'conti'
'complaint'
'clun'
'clarify_'
'cera'
'cep'
'catalonia_'
'cary_'
'campfire_'
'cabbie'
'buth'
'burford_'
'broadbeach_'
'brenda_'
'boundary_'
'boun'
'blea'
'betw'
'bedbu'
'bean'
'anytime'
'announcements_'
'anglais_'
'ang'
'ams'
'amou'
'albu'
'adver'
'= _'
'86_'
'56'
'2min_'
'2h'
'~'
'wv_'
'wad'
'vy'
'viol'
'undertaken_'
'unap'
'tug'
'toast'
'timeth'
'texan_'
'synthetic_'
'superc'
'stride'
'strad'
'stops'
'steak'
'sneak_'
'showcas'
'shaw'
'seychelles_'
'rosebank_'
'roots_'
'roomsi_'
'robe'
'rha'
'restos_'
'resolving_'
'refreshingly_'
'redo_'
're'
'quali'
'proposed_'
'pricei'
'pric'
'pram'
'portree_'
'polluted_'
'polar_'
'pilgrimage_'
'pilates_'
'personel_'
'perfecti'
'particulary_'
'participated_'
'pant'
'pani'
'pamp'
'padstow_'
'ovi'
'ova_'
'oso'
'ortigia_'
'oor'
'ooked_'
'oblivious_'
'northbound_'
'noone_'
'nif'
'mountain'
'moss_'
'mondays_'
'moan'
'minu'
'mg'
'merida_'
'medici'
'mea'
'maya'
'masseuse_'
'massachusetts_'
'machine'
'lya'
'lt_'
'lots'
'lorry_'
'longhorn_'
'lian_'
'lastminute_'
'kich'
'kalam'
'jeddah_'
'jav'
'ix_'
'investigat'
'instances_'
'indulged_'
'icien'
'hurghada_'
'hotp'
'hotelroom'
'horne'
'hays'
'hark'
'grocer'
'fox'
'fleming'
'flask'
'fid'
'exceeding_'
'eka_'
'durban_'
'dumpsters_'
'dram'
'dob'
'disturbances_'
'disappointed'
'crafted_'
'correcti'
'converse_'
'commode_'
'colchester_'
'cleans'
'clare_'
'candlewood_'
'butt_'
'butho'
'buffe'
'bragg_'
'bradley_'
'bellingham_'
'beckon'
'barra'
'backt'
'arran_'
'ares_'
'areai'
'andcheck_'
'anas'
'amenable_'
'alls'
'730'
'305_'
'wigwam_'
'wellb'
'weeds_'
'urn'
'unplugged_'
'unhurried_'
'uncertain_'
'tommy_'
'tirana_'
'tex_'
'tanj'
'talkative_'
'tailored_'
'tact'
'steigenberger_'
'splendor_'
'sist'
'silk'
'shre'
'sewer_'
'serra'
'sensatori_'
'sashimi_'
'sandw'
'sanda'
'salt'
'runa'
'revolution_'
'resu'
'restaurantand_'
'referring_'
'reet_'
'rech'
'rama_'
'quel'
'public'
'prett'
'plated_'
'pinnacle_'
'pendleton_'
'pei_'
'pag'
'outsidei'
'noisethe_'
'niceo'
'needs'
'nee_'
'musta'
'mud'
'moist_'
'mining_'
'miner'
'mile'
'marquee_'
'lorenzo_'
'lk_'
'lighte'
'laundere'
'ket_'
'ironbridge_'
'infi'
'iad_'
'hio'
'hens_'
'hapuna_'
'hanover_'
'hange'
'handheld_'
'greene'
'grati'
'gn_'
'giz'
'galilee_'
'fur_'
'fr_'
'forest'
'exac'
'eth_'
'entail'
'enri'
'emen'
'ege'
'discon'
'delic'
'dami'
'cute'
'crosses_'
'corv'
'commands_'
'cip'
'christmas'
'chim'
'chic'
'chardonnay_'
'cable'
'buti'
'butf'
'breathing_'
'blacks'
'beverley_'
'benchmark_'
'behave_'
'barrio_'
'baros_'
'bane'
'ator_'
'asto'
'andg'
'andf'
'alum'
'acrobat'
'abt_'
'85'
'410_'
'400'
'149_'
'145_'
' . :-)_'
' ) ...._'
'yli'
'would'
'variations_'
'trial_'
'throngs_'
'thisand_'
'thanking_'
'tear'
'swivel'
'straighten'
'stom'
'stockyards_'
'stereo_'
'sprit'
'spoo'
'spoiling_'
'slim'
'sanc'
'roadtrip_'
'rennovat'
'release_'
'recomend'
'raymond_'
'ramp'
'pv'
'prepares_'
'philosophy_'
'pal_'
'overst'
'orio'
'opera'
'oon'
'onne_'
'onc'
'omlet'
'okan'
'oft'
'nighter_'
'most'
'moi'
'mean'
'marts_'
'marcel'
'loses_'
'lega'
'kitsch_'
'judy_'
'joburg_'
'irre'
'invitation_'
'ince'
'idea'
'humorous_'
'hiroshima_'
'heron_'
'goodn'
'given'
'furniture'
'franchise'
'flipp'
'faceless_'
'exposure_'
'expo'
'edo'
'ebo'
'each'
'driftwood_'
'dissapointment_'
'dies_'
'dew'
'defined_'
'deafening_'
'davidson_'
'ctor'
'crete_'
'cosi'
'cht'
'cancel'
'calafate_'
'brigade_'
'brag_'
'bomb_'
'blur'
'belmont_'
'beli'
'bach_'
'awful'
'arra'
'arine_'
'angels_'
'american'
'ament'
'amen'
'agg'
'ads_'
'accent'
'abl'
'330_'
'165_'
'116_'
'..._'
' 😊'
' •_'
'wu_'
'weymouth_'
'vist_'
'vibes_'
'uvi'
'unsettling_'
'uncaring_'
'ucke'
'type'
'tract'
'towni_'
'thanh_'
'terrif'
'tekapo_'
't4_'
'soften'
'skipping_'
'skid'
'sir'
'seb'
'schi'
'scha'
'routinely_'
'reveal'
'reccomend'
'rebecca_'
'rea_'
'rathaus_'
'puls'
'puddle'
'programming_'
'profession'
'placei_'
'pick'
'pee_'
'pb'
'pais'
'okw'
'necessitat'
'mv'
'mountains'
'monstro'
'meli'
'maw'
'lyr'
'lori'
'loe'
'lex'
'leon'
'kot'
'kos'
'itthe'
'irma_'
'intrusion_'
'insulting_'
'inat'
'hyena_'
'honor'
'holm'
'grit'
'gris'
'gore'
'glad'
'gamb'
'fru'
'freestanding_'
'firth_'
'fineand_'
'fd'
'expressi'
'exercising_'
'employe'
'emel'
'eer'
'eck_'
'dp'
'doori'
'domino'
'doc_'
'disrupted_'
'disconnect'
'dictate'
'decla'
'ddi'
'cui'
'ctions_'
'croc'
'cozi'
'coon'
'conven'
'comfortablea'
'colla'
'cleanness_'
'cityi'
'chul'
'cheer'
'chao_'
'caribe_'
'cantonese_'
'brill'
'bridget'
'biased_'
'beneficial_'
'bbi'
'bala'
'appar'
'ankle_'
'andthat_'
'amigo_'
'activites_'
'absorb_'
'4star_'
'$ '
' ? ? ) '
' ......'
'zea'
'yellow'
'yat_'
'waste'
'vocal'
'verb'
'travelo'
'transparent_'
'traini'
'trace'
'tort'
'testing_'
'taunton_'
'tapestry_'
'swarm'
'stu'
'spra'
'snorkele'
'snapp'
'smokies_'
'shiv'
'shing_'
'shat'
'servicem'
'sears_'
'salford_'
'ridd'
'rico'
'rescued_'
'raid'
'prob_'
'preston_'
'prepa'
'police'
'platters_'
'personal'
'officers_'
'nyc'
'nom'
'nebraska_'
'nau'
'mooring'
'misunderstanding_'
'misplaced_'
'meas'
'meand_'
'lyc'
'lw'
'lud'
'lightening_'
'lati'
'landi'
'km'
'kite_'
'kiss'
'juneau_'
'inso'
'imme'
'ili_'
'icc_'
'hp'
'holyrood_'
'hedge_'
'hardy_'
'growth_'
'grizzly_'
'graci'
'goul'
'getaways_'
'generate'
'gabriel_'
'frin'
'fray'
'flyover_'
'flaky_'
'experiment'
'expect'
'enchanted_'
'embarrassment_'
'downtowni'
'dosa_'
'danang_'
'creek'
'courte'
'coh'
'coach'
'clearance_'
'cleanl'
'cie_'
'chio'
'certain'
'centur'
'cei'
'ced'
'carbon'
'cani'
'busybut_'
'brill_'
'breakfasts'
'brain'
'bp_'
'boule'
'bhu'
'bht_'
'berwick_'
'befitting_'
'bedr'
'axi'
'avalon_'
'astro'
'amateur_'
'alga'
'alberg'
'aggravati'
'aegean_'
'accomp'
'aboard_'
'ables_'
']._'
'45th_'
'304_'
'209_'
'140'
'118_'
'111'
'08'
' ----'
' ,( _'
'xia'
'willi'
'wildly_'
'wenceslas_'
'voice'
'vist'
'vers'
'urban'
'unlit_'
'unanswered_'
'tti_'
'tris'
'towell'
'tional_'
'tidy'
'tens'
'stony_'
'stinks_'
'steepl'
'standardi'
'stake'
'sox_'
'snobby_'
'slider_'
'slate_'
'sku'
'simi'
'sex'
'servicea'
'sema'
'sel_'
'scandinavia_'
'sausalito_'
'sana_'
'salta'
'rtion'
'roome'
'roadw'
'recp'
'recomm'
'rasse_'
'rame'
'prairie_'
'portr'
'patt'
'parkade_'
'outcome_'
'oceani'
'objection'
'nope_'
'nipp'
'nil'
'nightit_'
'neys_'
'ndant'
'nct'
'mysti'
'mous'
'moody_'
'montec'
'mishap'
'mints_'
'medal'
'marmara_'
'maintain'
'lowry_'
'loops_'
'locationi_'
'liat'
'lg'
'leys_'
'kennebunkport_'
'kahala_'
'joi'
'jardin'
'jamb'
'iro_'
'imm'
'ifc_'
'hound'
'hostesses_'
'hend'
'havel'
'harrison_'
'hairdresser_'
'hairdr'
'grou'
'grandma_'
'gloves_'
'gart'
'garish_'
'gale_'
'fon'
'flavorful_'
'finei'
'fect'
'fav_'
'faint'
'equ'
'employ_'
'emb'
'ecl'
'eci'
'dung'
'drone_'
'drill_'
'distinguish'
'dism'
'developments_'
'dent_'
'cultur'
'contractors_'
'constructions_'
'cobblestones_'
'cloister_'
'ckle'
'choppy_'
'chopped_'
'chf'
'charmed_'
'chall'
'catch'
'bruno_'
'boni'
'blooming_'
'blar'
'billi'
'berna'
'bere'
'bentley_'
'ballet_'
'balanc'
'aviemore_'
'atur'
'asu'
'assign'
'appartments_'
'andsh'
'andlo'
'andco'
'ales'
'adv'
'4s'
'1700_'
'..'
'*'
' . )'
' ) ) '
'ées_'
'ywa'
'yea'
'wisely_'
'whimsical_'
'wheeling_'
'wheelchairs_'
'wallabies_'
'visibly_'
'vehic'
'uous'
'unpaved_'
'tse'
'trace_'
'summ'
'storeys_'
'still'
'stephan'
'sponge_'
'spacey_'
'spaces'
'soe'
'shifted_'
'shakes_'
'servicei'
'servicebut_'
'securely_'
'seali'
'scrap'
'savour_'
'rina_'
'restoring_'
'resent'
'redeemed_'
'recommenda'
'radis'
'prostitutes_'
'predictably_'
'ppa'
'pooli'
'ply'
'phillip_'
'pensione'
'pecial'
'outsideand_'
'oud'
'onions_'
'omni'
'nui_'
'nitpick'
'nighta'
'nest'
'ned'
'nash'
'musician_'
'motiv'
'montev'
'monasteries_'
'monast'
'mold'
'melon'
'meander_'
'matin'
'manly_'
'm1'
'luca_'
'lling_'
'laugh'
'lapse'
'kyr'
'kura'
'kota_'
'ketch'
'jak'
'intercom_'
'intensi'
'inspect'
'inconvenienced_'
'inco'
'imes_'
'hol_'
'hine_'
'heinz_'
'hatte'
'guard'
'grime_'
'greatit_'
'grandiose_'
'giles_'
'geta'
'genius_'
'gae'
'fuerteventura_'
'fran'
'fores'
'floorb'
'fisher'
'figu'
'field'
'expedition_'
'entries_'
'eliminat'
'eers_'
'edwe_'
'eduardo_'
'ecc'
'dwelling'
'dumplings_'
'draining_'
'downi'
'dove_'
'distract_'
'darkening_'
'crows_'
'creamer'
'cout'
'cotta_'
'cordo'
'contribut'
'contradict'
'comprehen'
'commentary_'
'clunky_'
'claren'
'chimney_'
'chatt'
'charmingly_'
'cellphone_'
'cap'
'butm'
'bushm'
'boss'
'bn'
'beer'
'bedspreads_'
'bargain'
'autos'
'attention'
'attend'
'attack'
'athe'
'arranges_'
'alter'
'airportit_'
'33rd_'
'2n'
'212_'
'07'
'04'
' ? ! ?'
'xintiandi_'
'winnipeg_'
'whats'
'web'
'wass'
'vaporett'
'uy'
'total'
'titi'
'tidied_'
'thy'
'therap'
'teguise_'
'tape'
'stranger_'
'stea'
'spacy_'
'sok'
'sions_'
'shouted_'
'shou'
'shimbashi_'
'scat'
'samsung_'
'sal_'
'roi'
'resonable_'
'reserv'
'remodelled_'
'rej'
'redevelopment_'
'recommed'
'receptionthe_'
'qe'
'pug'
'publici'
'provo_'
'problems'
'pred'
'pomp'
'plex_'
'pizza'
'pest'
'pelli'
'outb'
'oily_'
'nother_'
'nigh_'
'nas'
'muss'
'muang_'
'moor'
'montr'
'montmartre_'
'miz'
'maspalomas_'
'mardi_'
'maharaja'
'lyth'
'lumpini_'
'lib'
'ldo'
'kle_'
'jeremy_'
'jebel_'
'jacob_'
'iguana_'
'idiot_'
'hope'
'hn_'
'henley_'
'heatwave_'
'har_'
'hangar'
'gwa'
'gula'
'greats'
'gouging_'
'futuristic_'
'funand_'
'frontier_'
'fragrant_'
'flower'
'fitt'
'favourably_'
'fate'
'fairways_'
'facilitated_'
'exi'
'ento'
'endorse_'
'elect'
'effect'
'edgar_'
'dying_'
'duck'
'drome_'
'drifte'
'downward'
'dorchester_'
'dente'
'dell'
'delight'
'curiously_'
'crow_'
'coro'
'console_'
'cogn'
'claudia_'
'clarks'
'civi'
'cien'
'chick_'
'cess'
'cerr'
'cabin'
'brin'
'briefing_'
'bouncy_'
'bh'
'benefitted_'
'beast_'
'barg'
'bachelor'
'baby'
'awaken_'
'ataturk_'
'ario'
'apprecia'
'api'
'againg'
'administration_'
'37th_'
'36th_'
'20m'
'von_'
'uru_'
'unnerving_'
'uniformed_'
'unea'
'uali'
'tunes_'
'tine'
'thomsons_'
'temperat'
'swiming_'
'suc'
'stilt'
'stage'
'splashed_'
'souther'
'smart'
'sliders_'
'screw'
'screening_'
'sacrific'
'ryde'
'rra_'
'rochelle_'
'riendly_'
'reti'
'resorti'
'reopen'
'render'
'remnants_'
'recorded_'
'pta'
'proves_'
'proportions_'
'plea'
'picki'
'paste_'
'parthenon_'
'owe_'
'overla'
'outsidebut_'
'ofi'
'oca'
'niti'
'ngh'
'neg'
'ncie'
'nadi'
'moneythe_'
'molly_'
'mish_'
'meatballs_'
'marketed_'
'marker_'
'lansing_'
'knight_'
'khun_'
'jut'
'julio_'
'jk'
'jane'
'isw'
'interven'
'intact_'
'inh'
'inex'
'indicative_'
'improve'
'illegal_'
'igu'
'iff'
'hungarian_'
'hore_'
'hone'
'holi'
'herea'
'handrail'
'haarlem_'
'guana'
'grouse_'
'gradually_'
'glaring_'
'geography_'
'gast'
'fob'
'flicker'
'eyed_'
'etcs'
'erc'
'downst'
'downsi'
'dignit'
'cycl'
'cw'
'cutt'
'coughing_'
'confess_'
'coa'
'cliffe_'
'cated_'
'cappucino_'
'canadians_'
'bung'
'bue'
'brindley_'
'brighten'
'breakfastb'
'archway_'
'arcadia_'
'andu'
'andreas_'
'amentities_'
'amba'
'alco'
'alberto_'
'airl'
'againshould_'
'67_'
'3x_'
'206_'
'1a'
' ( ! )_'
'yeo'
'wla'
'withi'
'whitt'
'watche'
'vienn'
'uppe'
'undul'
'underl'
'uin'
'ucl'
'travell'
'trad'
'tendency_'
'task'
'tanz'
'suffolk_'
'somethings_'
'smog_'
'sidew'
'sickness_'
'shortest_'
'shook_'
'sett'
'sensor'
'salva'
'rosemont_'
'retrieving_'
'rebooked_'
'pue'
'pti'
'porc'
'ordinat'
'ocho_'
'objects_'
'nicer'
'nha_'
'monster_'
'monotonous_'
'monk_'
'mh'
'mental'
'marin_'
'loudest_'
'locationw'
'licence_'
'leve'
'leo'
'kinks_'
'jess'
'jaguar_'
'inne'
'ingth'
'hous'
'hollow_'
'hoa'
'gleaming_'
'ghte'
'gea'
'gastro_'
'gangnam_'
'gage_'
'fren'
'foc_'
'fiddl'
'fiasco_'
'fest'
'fati'
'exhibitions_'
'ester_'
'endlessly_'
'eda_'
'dove'
'dissappointed_'
'dict'
'destroy'
'decorate_'
'cornerand_'
'convey_'
'conferencing_'
'comme'
'combe_'
'colon'
'cobble_'
'cheated_'
'chairs'
'centred_'
'centreand_'
'carre'
'canyon'
'candlelight_'
'caen_'
'cabe'
'byw'
'butthe'
'breed'
'bray'
'brandenb'
'brac'
'bottle'
'borne_'
'boogie_'
'bleach_'
'badminton_'
'atitlan_'
'assessment_'
'ashtray_'
'arta'
'arca'
'annie_'
'anj'
'affordab'
'advisor'
'acquired_'
'8a'
'211_'
' ? ? ? ? ?'
' ( ! ! '
' ! :'
'‘_'
'ythis_'
'xxx'
'xo'
'wih'
'wight_'
'wf'
'watson'
'walgreen_'
'veiw'
'var_'
'unforgiv'
'ulo'
'ucs'
'tuck'
'traveler'
'trainstation_'
'toe'
'tig'
'tell'
'sz'
'suns'
'sports'
'sothe_'
'sort'
'smarter_'
'siting_'
'singh_'
'sightseeing'
'sidethe_'
'shortcoming_'
'shek'
'scream_'
'scene'
'samp'
'samb'
'riser_'
'rge_'
'resse'
'resona'
'repub'
'recogniz'
'receptionw'
'ramb'
'quetzal_'
'qualms_'
'qt_'
'pulc'
'productive_'
'previ'
'prep_'
'pikes_'
'pennin'
'penguin_'
'parkthe_'
'overhea'
'ooze'
'onder'
'omel'
'oked_'
'oes_'
'notic'
'nos'
'nightc'
'nera'
'mention'
'mbi'
'mats'
'maritim_'
'margherita_'
'magna_'
'macaroni_'
'lp_'
'lovey_'
'locationwe_'
'limb'
'leth'
'lemon'
'lech'
'laneway_'
'kebabs_'
'jamestown_'
'itb'
'isb'
'invent'
'information'
'individuali'
'idle_'
'http_'
'heim_'
'headl'
'hallway'
'glaz'
'gaudy_'
'gans_'
'fudge_'
'fm'
'flowed_'
'floored_'
'fee'
'eville_'
'eted_'
'engl'
'encourages_'
'elia'
'ego'
'education_'
'dragon'
'diver_'
'dinnerw'
'detracts_'
'deaf_'
'critique_'
'correspond'
'conde'
'compelled_'
'comi'
'clubb'
'clove'
'clearer_'
'chw'
'captains_'
'calmness_'
'bure'
'bub'
'broom_'
'breakfasto'
'breakdown_'
'brae'
'boost_'
'bk'
'babysitt'
'athen'
'ashi'
'architects_'
'apologising_'
'amic'
'americ'
'alpha'
'alittle_'
'aligned_'
'affi'
'ache_'
'39th_'
'186'
'$'
' ? " '
' ............'
' --'
' + + '
'zzi'
'yard'
'xl'
'wifithe_'
'wb'
'wasi'
'vina'
'viaduct_'
'vale'
'upe'
'unspoiled_'
'unplanned_'
'univ_'
'trimm'
'trappings_'
'townit_'
'today'
'toand_'
'thereit_'
'tham'
'teen'
'td_'
'tango_'
'streetth'
'stick'
'stefan'
'stampede_'
'sso'
'smores_'
'skill'
'secret'
'seawa'
'rsa'
'roomb'
'ridge'
'revis'
'protecti'
'popp'
'pondicherry_'
'plas'
'picasso_'
'phoenicia_'
'ousi'
'ose'
'orvieto_'
'opryland_'
'omelet'
'none'
'noisei'
'montreu'
'measured_'
'mcd'
'mandela_'
'mand_'
'mamma'
'lade_'
'kenmore_'
'kabu'
'jett'
'jee'
'intern'
'inspiration_'
'ingre'
'infant_'
'icia'
'herei_'
'hemi'
'guy'
'gull'
'goodb'
'glove'
'giggl'
'frazzled_'
'forming_'
'fog'
'filming_'
'fern_'
'famil'
'factor'
'etto_'
'escaped_'
'escalat'
'erba'
'ep_'
'envi'
'elliot'
'elder'
'dore'
'dorado_'
'dollywood_'
'documenta'
'discern'
'deer'
'deducted_'
'cud'
'crieff_'
'crate'
'cover'
'christ_'
'chine'
'chilis_'
'ceviche_'
'cell'
'castro_'
'carafe_'
'captur'
'candid'
'cam'
'butr'
'burmese_'
'bigg'
'bend'
'bass'
'bark_'
'bare'
'balk'
'attentative_'
'atten'
'assur'
'angu'
'amal'
'alf'
'ains'
'aerobic_'
'admiral_'
'[_'
'5minute'
'57th_'
'4wd_'
'1100_'
',,,_'
' € '
' ! ..._'
'wold_'
'withthe_'
'wengen_'
'wave'
'vito'
'vee'
'vecchio_'
'vari'
'uvr'
'untidy_'
'unlock_'
'ulu'
'turks_'
'trough_'
'titu'
'thong_'
'teat'
'tass'
'tack_'
't3_'
'sut'
'surve'
'suri'
'summarise_'
'struggles_'
'strait_'
'stayo'
'stayb'
'spil'
'sonic_'
'software_'
'sie_'
'shepherd_'
'seabu'
'satisf'
'roomsi'
'rok'
'responsiveness_'
'resistance_'
'relocati'
'regime'
'raci'
'quot'
'quarr'
'proactively_'
'prize'
'pring'
'pret_'
'premier'
'portray'
'poorer_'
'plow'
'pari'
'outi_'
'oped'
'onse'
'obst'
'num'
'nsa'
'nightst'
'nearbyso_'
'ncia'
'nant_'
'motorway'
'morne_'
'moderniz'
'miyako_'
'mia'
'mediter'
'materialise'
'massa'
'mars_'
'mapp'
'krystal_'
'joan_'
'jj'
'intrigued_'
'instructors_'
'inspir'
'init_'
'ima_'
'ika_'
'i90_'
'holidaying_'
'hold'
'hemm'
'hash'
'handi'
'hailing_'
'greenfield_'
'gerr'
'germ'
'generated_'
'gend'
'gables_'
'funk'
'frontenac_'
'frenchman_'
'foreigner_'
'fn'
'fijian_'
'fari'
'essa'
'enha'
'ego_'
'doubl'
'discret'
'discourage_'
'disabilities_'
'dips_'
'dimi'
'diam'
'dayb'
'darken'
'dae'
'curio_'
'cum'
'contemp'
'coni'
'compass_'
'comfortablei'
'cockroaches_'
'cloisters_'
'circulate'
'char_'
'ceme'
'cau'
'caramel_'
'capuc'
'cao'
'busi'
'bruce_'
'breakfest_'
'bocc'
'boasted_'
'baga'
'backup_'
'atti'
'ashb'
'arteri'
'arab'
'antoni'
'ami_'
'agrigento_'
'acin'
': '
'830'
'50m'
'310_'
'10m'
' —_'
' ]_'
' . " _'
' , , , _'
'zuri'
'ythe'
'yer_'
'yer'
'xy'
'worr'
'wonder'
'woeful_'
'weekends'
'wana_'
'vessel'
'vanessa_'
'ula'
'tuba'
'truffles_'
'tribu'
'townhouses_'
'towing_'
'toss_'
'toc'
'tk'
'thir'
'theft_'
'tags_'
'sunn'
'stacks_'
'spotter'
'soy_'
'sources_'
'somet'
'slam'
'simultaneously_'
'settlement_'
'settees_'
'sensitiv'
'sedate_'
'schil'
'rul'
'roomc'
'roadth'
'revisiting_'
'restaur'
'rejuvenate'
'raton_'
'rack'
'rabat_'
'puffin'
'prone_'
'ports'
'platin'
'persiste'
'palace'
'orchestra'
'oldt'
'occurring_'
'nast'
'nary_'
'namib'
'moneyand_'
'mig'
'mande'
'mahindra_'
'ludi'
'lice'
'lex_'
'levi'
'lav'
'lade'
'kuna'
'kingman_'
'khajuraho_'
'kamloops_'
'julians_'
'jbr_'
'itthis_'
'italians_'
'issa'
'isc'
'irs'
'ines'
'hough'
'hotelwh'
'hotelho'
'hib'
'happenings_'
'haf'
'goodf'
'gift'
'gere'
'gabriel'
'frenzy_'
'folly_'
'floorso_'
'fleet'
'fines'
'fas'
'evian_'
'enhanc'
'elin'
'egre'
'drafty_'
'downe'
'dipped_'
'dances_'
'cult'
'crop'
'coordinator_'
'comfortableroom'
'cke'
'cityscape_'
'cious_'
'choo_'
'cashier_'
'carbut_'
'capsule_'
'butn'
'bundle'
'boug'
'bolshoi_'
'bases_'
'avia'
'armo'
'annecy_'
'anding'
'andalusia'
'allu'
'agat'
'adapters_'
'abra'
']_'
'0pm_'
'01'
' :) '
' : $ _'
'zeus_'
'zb'
'wrongly_'
'wrinkle'
'wow'
'worthing'
'wint'
'wing'
'vara'
'valle'
'utilise_'
'usk'
'unresponsive_'
'unimp'
'unfu'
'uan_'
'tighte'
'terraz'
'teh'
'teacher_'
'stevenage_'
'sprawl_'
'specialize'
'skip'
'singl'
'servicew'
'seep'
'sagging_'
'rotunda_'
'roomin'
'ront_'
'roch'
'robbi'
'rivage_'
'rican_'
'rgi'
'revelstoke_'
'rev'
'returni'
'reserves_'
'recommends_'
'rdin'
'propertyi'
'proceed'
'pretens'
'planner_'
'pitiful_'
'peachtree_'
'overprice'
'overbo'
'overb'
'nting_'
'nob_'
'nie_'
'nho'
'ngand_'
'nationals_'
'natal'
'muscles_'
'mull_'
'milli'
'mens_'
'macaroons_'
'luxe'
'kya'
'knocks_'
'kits_'
'kc'
'jellyfish_'
'jah'
'jacob'
'immersed_'
'imax_'
'iere'
'hotspots_'
'hotelsthe_'
'helpfuli'
'guil'
'gecko'
'garmin_'
'fram'
'fp'
'foodand_'
'fix'
'fingertips_'
'excepti'
'ethiopia_'
'emphasize_'
'emba'
'elf_'
'edin'
'eater'
'drake_'
'doors'
'diminished_'
'deu'
'derwent'
'denmark_'
'deg_'
'decay'
'daybed_'
'dais'
'curbside_'
'crai'
'cottonwood_'
'contes'
'comfora'
'coma'
'clip'
'cially_'
'choir_'
'cheat'
'celeb'
'casi'
'carvings_'
'cadd'
'budget'
'bud_'
'broccoli_'
'breakfastit_'
'bracelet'
'blen'
'berth'
'bercy_'
'bead'
'backpack_'
'aviar'
'ashland_'
'arno_'
'arle'
'amn'
'abba_'
'51st_'
'395_'
'25mins_'
' $ $ $ _'
'yama_'
'vittori'
'viny'
'unoccupied_'
'unmade_'
'undertak'
'umm'
'uls'
'uga'
'tumble_'
'tsi'
'triangular_'
'townsend_'
'toucans_'
'title'
'thirdly_'
'term'
'teresa_'
'tao'
'tanks_'
'tally_'
'swift'
'swh'
'sunro'
'stav'
'spitting_'
'sphere_'
'soya_'
'solent_'
'soiled_'
'sigh_'
'shwedagon_'
'showcase_'
'shirley_'
'shelt'
'scrubb'
'sache'
'ryn'
'ricks'
'rick'
'restless_'
'reservoir_'
'recol'
'raving_'
'quiz_'
'queensway_'
'prag'
'powerscourt_'
'porte_'
'pod'
'photographers_'
'patric'
'parade'
'papaya_'
'paddle'
'ordina'
'orangutan'
'operative_'
'oozing_'
'oooo'
'omina'
'olh'
'ody'
'nyt'
'nts'
'nearbybut_'
'mk'
'mezz'
'mercy_'
'merchants_'
'melaka_'
'magnificant_'
'loan'
'lady'
'kyle_'
'kum'
'knobs_'
'kle'
'kila'
'kerr'
'jerez_'
'jara'
'jacuz'
'iver'
'ingi_'
'incidents_'
'ilt'
'hurti'
'hotelo'
'himalayas_'
'highwaybut_'
'heres'
'hercul'
'halekulani_'
'gv'
'gb_'
'gain'
'functional'
'formi'
'fini'
'finca_'
'farr'
'exclude'
'eveningi'
'espan'
'ernest'
'ences_'
'ember'
'electra_'
'echoes_'
'dublin'
'disappearing_'
'deme'
'dei_'
'deg'
'curios'
'couldn_'
'corb'
'cookery_'
'conco'
'compr'
'compote_'
'communities_'
'christie_'
'cherish'
'celsius_'
'cavern_'
'cava'
'carving_'
'carrab'
'camel'
'cage'
'butwh'
'bure_'
'breeze'
'bras'
'boar_'
'bitt'
'bijou_'
'bends_'
'bef'
'basil'
'barth'
'ballston_'
'awasi_'
'av'
'astonished_'
'arou'
'appi'
'anthe'
'andof_'
'alst'
'aire_'
'affinia_'
'afar_'
'adviser_'
'40mins_'
'222_'
'2003_'
'15minutes_'
'.......'
' ;-)_'
' ..............'
' ..., _'
'zoologi'
'zara_'
'yong'
'whizz'
'wayi'
'wateri'
'voy'
'void_'
'vern'
'vend'
'vand'
'vacated_'
'unsavo'
'u2_'
'trun'
'tovar_'
'tournaments_'
'titan'
'terminate'
'tapa'
'tana'
'tagged_'
'swin'
'sweep_'
'suva_'
'stomping_'
'steri'
'sq'
'spinn'
'sorry'
'snowb'
'skinny_'
'skie'
'silverstone_'
'shore'
'sevice_'
'sandba'
'royce_'
'roma'
'resorted_'
'rend'
'receptionist'
'receptioni'
'reataurant'
'rata'
'rapp'
'rae'
'prussia_'
'priorities_'
'prese'
'preparations_'
'prayers_'
'ponder'
'photo'
'passageways_'
'paired_'
'osu'
'orti'
'optim'
'obstructi'
'nov'
'noel_'
'nido_'
'nent_'
'nara_'
'mping_'
'mog'
'minuets_'
'merlot_'
'marl'
'magnificently_'
'luas_'
'louis'
'loug'
'loose'
'lok'
'livelier_'
'judged_'
'journey'
'iven'
'item'
'ister'
'ioned_'
'intentional'
'inni'
'ien_'
'iece_'
'iac_'
'hannah_'
'hakone_'
'habitat_'
'grumbl'
'frit'
'flamb'
'fav'
'farn'
'ewr_'
'evoke'
'erthe_'
'embarking_'
'elio'
'donn'
'dixie_'
'distanceand_'
'disgraceful_'
'dauphin'
'dane'
'cure_'
'critici'
'cristianos_'
'cram'
'coz_'
'corona'
'convert_'
'controlling_'
'contacts_'
'construction'
'composed_'
'clicking_'
'circled_'
'cigars_'
'chong_'
'charlesto'
'centr'
'cabbage_'
'busload'
'brasov_'
'blog'
'bengal_'
'bavaria_'
'baroque_'
'ballar'
'backwater_'
'awayso_'
'awar'
'aty'
'astic'
'asho'
'artworks_'
'amphitheatre_'
'amang'
'almer'
'aho'
'adventure'
'adn'
'adjustments_'
'5the_'
',,,,'
' ( ? ) '
' $ $ '
'zza_'
'yw'
'woody_'
'walkab'
'vu'
'vere'
'unhe'
'ully_'
'uated_'
'tua'
'translat'
'tie'
'thrilling_'
'thor'
'these'
'tani'
'tale'
'tablecloths_'
'swan'
'susp'
'stit'
'stif'
'stationed_'
'stafff'
'squi'
'spectacle_'
'softball_'
'shab'
'scheduling_'
'rubi'
'riyadh_'
'rite_'
'riff'
'rid'
'rhy'
'restaurantsi'
'request'
'rence'
'remi'
'reimburse'
'regist'
'rad_'
'quant'
'pw'
'process'
'portfolio_'
'porter'
'pond'
'pig'
'pati'
'paned_'
'overw'
'outf'
'orp'
'onth'
'olim'
'nath'
'muri'
'muni_'
'monthly_'
'molin'
'merry_'
'mat'
'mariner'
'magnet'
'lottery_'
'lifeless_'
'krak'
'kl'
'jima_'
'jem'
'iot'
'ingh'
'inclusions_'
'idli'
'holidaymakers_'
'hillso_'
'heck'
'gton_'
'grot'
'groov'
'graceful_'
'gorillas_'
'gimmick'
'forn'
'fonda'
'floats_'
'ffy_'
'fave_'
'fading_'
'esthe'
[...]
