'<pad>'
'<EOS>'
'<GO>'
'<OOV>'
'<DOC>'
'</DOC>'
'the_'
' ._'
'and_'
'a_'
' , _'
'to_'
'is_'
'of_'
'in_'
'was_'
'hotel_'
'we_'
'it_'
'for_'
'i_'
'this_'
'you_'
'on_'
'with_'
'from_'
'at_'
'very_'
'but_'
'great_'
'are_'
'there_'
' - _'
'as_'
'location_'
'good_'
'that_'
'stay_'
's_'
'not_'
'room_'
'were_'
' '_'
'area_'
'our_'
'had_'
'have_'
'which_'
'would_'
'be_'
'all_'
'if_'
'so_'
' ( _'
'walk_'
'an_'
'breakfast_'
'here_'
'one_'
'nice_'
't_'
'n_'
'just_'
'by_'
'place_'
'restaurants_'
' !_'
''_'
'also_'
'my_'
'stayed_'
'well_'
'or_'
'out_'
'close_'
'night_'
'again_'
'can_'
'about_'
'only_'
'_'
'airport_'
'has_'
'they_'
'pool_'
'right_'
'located_'
'excellent_'
'get_'
'will_'
'view_'
'restaurant_'
'parking_'
'town_'
'city_'
'food_'
'easy_'
'rooms_'
'staff_'
'up_'
'beach_'
'back_'
'time_'
' ) _'
'us_'
'do_'
'around_'
'street_'
'when_'
'away_'
'no_'
'walking_'
'next_'
'did_'
'other_'
'some_'
'really_'
' . _'
'minutes_'
'quiet_'
'park_'
'free_'
'station_'
'car_'
'day_'
'best_'
'lovely_'
'service_'
'bar_'
'main_'
'beautiful_'
'recommend_'
'go_'
'your_'
'many_'
'could_'
'like_'
' / _'
'distance_'
'more_'
'its_'
'way_'
'road_'
'5_'
'little_'
'near_'
'small_'
'outside_'
'within_'
'off_'
'definitely_'
'perfect_'
'two_'
'than_'
'few_'
'over_'
'where_'
' ) ._'
'much_'
'views_'
'2_'
'visit_'
'after_'
' " _'
'into_'
'short_'
'too_'
'large_'
'convenient_'
'across_'
'wonderful_'
'floor_'
'10_'
'most_'
'property_'
'old_'
'front_'
'bit_'
'shopping_'
'centre_'
'first_'
' ' _'
'nights_'
'hotels_'
'even_'
'what_'
'down_'
'see_'
'minute_'
'trip_'
'drive_'
'nearby_'
'shuttle_'
'lot_'
'business_'
'find_'
'quite_'
'want_'
'everything_'
'side_'
'center_'
'lots_'
' & _'
'noise_'
'downtown_'
'dinner_'
'take_'
'friendly_'
'resort_'
'plenty_'
'enjoyed_'
'bus_'
'check_'
'because_'
'building_'
'inn_'
'their_'
'being_'
'far_'
'lobby_'
'access_'
'return_'
'3_'
'door_'
'need_'
'me_'
'choice_'
'morning_'
'train_'
'been_'
'comfortable_'
'while_'
'central_'
'staying_'
'amazing_'
' : _'
'new_'
'made_'
'd_'
'river_'
'places_'
'fantastic_'
'although_'
'better_'
'experience_'
'clean_'
'both_'
'people_'
'any_'
'however_'
'every_'
'part_'
'long_'
'local_'
'busy_'
'shops_'
'evening_'
'price_'
'then_'
'through_'
'use_'
'though_'
'who_'
'always_'
'before_'
'make_'
'water_'
'found_'
'eat_'
'taxi_'
'big_'
'15_'
'._'
'going_'
'overall_'
'looking_'
'during_'
'1_'
' ; _'
'etc_'
'top_'
'stop_'
'several_'
'highly_'
'value_'
'4_'
'worth_'
'sea_'
'lake_'
'enough_'
'reception_'
'got_'
'early_'
'booked_'
'took_'
'mall_'
'buffet_'
'areas_'
'coffee_'
'dining_'
'end_'
'loved_'
'couple_'
'overlooking_'
'available_'
'20_'
'options_'
're_'
'high_'
'hot_'
'times_'
'feel_'
'pretty_'
'family_'
'bars_'
'enjoy_'
'come_'
'full_'
'along_'
'am_'
'sure_'
'e_'
'went_'
'days_'
'still_'
'bed_'
'-_'
'balcony_'
'grounds_'
'situated_'
' ’_'
'another_'
' ... _'
'traffic_'
'desk_'
'house_'
'square_'
' ) , _'
'helpful_'
'arrived_'
'especially_'
'tour_'
'nothing_'
'having_'
'visiting_'
'itself_'
'each_'
'wifi_'
'guests_'
'pleasant_'
'look_'
'does_'
'hour_'
'spa_'
'open_'
'entrance_'
'huge_'
'quality_'
'metro_'
'ride_'
'them_'
'm_'
'garden_'
'last_'
'special_'
'able_'
'ca_'
'used_'
'lounge_'
'love_'
' $ _'
'30_'
'try_'
'spent_'
've_'
'less_'
'things_'
'quick_'
'such_'
'holiday_'
'st_'
'ocean_'
'certainly_'
'think_'
'three_'
'expensive_'
'plus_'
'island_'
'including_'
'weekend_'
'noisy_'
'say_'
'fine_'
'modern_'
'set_'
'y_'
'attractions_'
'facilities_'
'without_'
'thing_'
'same_'
'probably_'
'since_'
'relaxing_'
'late_'
'second_'
'wanted_'
'middle_'
'home_'
'bathroom_'
'site_'
'lodge_'
'mins_'
'suite_'
'course_'
'work_'
'public_'
'block_'
'year_'
'problem_'
'blocks_'
'due_'
'bay_'
'he_'
'never_'
'highway_'
'between_'
'included_'
'swimming_'
'own_'
'corner_'
'getting_'
'superb_'
'needed_'
'gardens_'
'south_'
'may_'
'spot_'
'ideal_'
'different_'
'those_'
'week_'
'ever_'
'space_'
'looked_'
'shower_'
'drinks_'
'll_'
'facing_'
'courtyard_'
'o_'
'delicious_'
'meal_'
'makes_'
'safe_'
'offer_'
'ing_'
'chose_'
'wine_'
'private_'
'money_'
'6_'
'hours_'
'grand_'
'once_'
'kids_'
'real_'
'happy_'
'sleep_'
'7_'
'left_'
'min_'
'given_'
'world_'
'absolutely_'
'recommended_'
'should_'
'fabulous_'
'how_'
'ed_'
'must_'
'market_'
'easily_'
'tourist_'
'north_'
' ..._'
'’_'
'club_'
'- _'
'lunch_'
'fun_'
' -- _'
'selection_'
'travel_'
'rather_'
'setting_'
'hear_'
'offers_'
'reasonable_'
'flight_'
'miles_'
'fresh_'
'book_'
'golf_'
'stunning_'
'years_'
'interesting_'
'know_'
'number_'
'walked_'
'choices_'
'hard_'
'sit_'
'star_'
'provided_'
'drink_'
'decent_'
'inside_'
'outdoor_'
'welcome_'
'/_'
'served_'
'rate_'
'marriott_'
'choose_'
'bad_'
'terrace_'
'felt_'
'la_'
'reviews_'
'now_'
'ate_'
'heart_'
'major_'
'style_'
', _'
'ok_'
'pools_'
'directly_'
'village_'
'gym_'
'almost_'
'point_'
'b_'
'spacious_'
'hill_'
'anywhere_'
'run_'
'something_'
'window_'
' ,_'
'line_'
'opposite_'
'air_'
'weather_'
'start_'
'conveniently_'
'relax_'
'london_'
'internet_'
'others_'
'historic_'
'either_'
'actually_'
'coming_'
'expect_'
'wife_'
'eating_'
'8_'
'else_'
'decided_'
'five_'
' ! _'
'atmosphere_'
'driving_'
'west_'
'above_'
'said_'
' ! !_'
'steps_'
'size_'
'extremely_'
'liked_'
'seemed_'
'amenities_'
'extra_'
'standard_'
'shop_'
'arrival_'
'came_'
'store_'
'level_'
'half_'
'thought_'
' -_'
'ask_'
'menu_'
'anyone_'
'super_'
'light_'
'sun_'
'tv_'
'option_'
'beds_'
'four_'
'outstanding_'
'variety_'
'difficult_'
'these_'
'mile_'
'whole_'
'windows_'
'sitting_'
'base_'
'overnight_'
'cold_'
'hilton_'
'warm_'
'cost_'
'friends_'
'offered_'
'might_'
'buildings_'
'behind_'
'gave_'
'activities_'
'complimentary_'
'meals_'
'anything_'
'fast_'
'priced_'
'spectacular_'
'making_'
'luggage_'
' )_'
'everyone_'
'takes_'
'bedroom_'
'adjacent_'
'leave_'
'prices_'
'tea_'
'give_'
'afternoon_'
'spend_'
'pay_'
'hampton_'
'table_'
'san_'
'fact_'
'pick_'
'limited_'
'subway_'
'suites_'
'per_'
'thank_'
'bridge_'
'district_'
'nt_'
'help_'
'wait_'
'fairly_'
'seems_'
'pm_'
'proximity_'
'recently_'
'done_'
'surrounding_'
'handy_'
'peaceful_'
'charming_'
'enjoyable_'
'national_'
'group_'
'motel_'
'thanks_'
'explore_'
'until_'
'looks_'
'truly_'
'via_'
'terminal_'
'past_'
'watch_'
'chairs_'
'break_'
'his_'
'museum_'
'pub_'
'taking_'
'visited_'
'keep_'
'fitness_'
'she_'
'gorgeous_'
'everywhere_'
'deal_'
'conference_'
'worked_'
'( _'
'under_'
'awesome_'
'music_'
'issue_'
' £ _'
'country_'
'saw_'
'centrally_'
'yet_'
'sights_'
'perfectly_'
'order_'
'r_'
'kept_'
'tram_'
'complex_'
'called_'
'asked_'
'reasonably_'
'whilst_'
'fruit_'
'transport_'
':_'
'sites_'
'streets_'
'east_'
'despite_'
'castle_'
'cafe_'
'ground_'
'boat_'
'plaza_'
'needs_'
'mountains_'
'particularly_'
'seating_'
'rest_'
'valet_'
'cool_'
'put_'
'driver_'
'cheap_'
'checked_'
'yes_'
'future_'
'harbour_'
'neighborhood_'
'separate_'
'booking_'
'palace_'
'underground_'
'round_'
'convention_'
'stops_'
'maintained_'
'crowded_'
'hall_'
'cooked_'
'entertainment_'
'casino_'
'least_'
'husband_'
'wedding_'
'eggs_'
'loud_'
'cab_'
'western_'
'stores_'
'children_'
' .. _'
'port_'
'luxury_'
'told_'
'tub_'
'garage_'
'de_'
'construction_'
'9_'
'class_'
'tower_'
'cruise_'
'king_'
'throughout_'
'simply_'
'patio_'
'ferry_'
'elevator_'
'guest_'
'onto_'
'route_'
'forward_'
'nicely_'
'otherwise_'
'turn_'
'usual_'
'kitchen_'
'office_'
'literally_'
'breakfasts_'
'interstate_'
'25_'
'indoor_'
'let_'
'further_'
'convenience_'
'coast_'
'trips_'
'sunset_'
'using_'
' .( _'
'bonus_'
'boutique_'
'charge_'
'50_'
'wish_'
'reason_'
'mountain_'
'downside_'
'range_'
'u_'
' ?_'
'soon_'
'live_'
'railway_'
'closed_'
'c_'
'paid_'
'her_'
'accommodation_'
'why_'
'concierge_'
'beautifully_'
'returned_'
'maybe_'
'traveling_'
'kind_'
'chain_'
'es_'
'typical_'
'roof_'
'valley_'
'freeway_'
'reach_'
'24_'
'dark_'
'bath_'
'game_'
'points_'
'longer_'
'trees_'
'edge_'
'exploring_'
'unique_'
'arrive_'
'review_'
'unfortunately_'
'fi_'
'decor_'
'working_'
'glass_'
'families_'
'efficient_'
'favorite_'
'upon_'
'wi_'
'incredible_'
'supermarket_'
'meeting_'
'show_'
'stroll_'
'call_'
' ...._'
'impressive_'
'disappointed_'
'fish_'
'appointed_'
'summer_'
'100_'
'note_'
'life_'
'closer_'
'built_'
'l_'
'exit_'
'returning_'
'red_'
'position_'
'directions_'
'beat_'
'taxis_'
'delightful_'
'popular_'
'usually_'
'overlooked_'
'buses_'
'villa_'
'cafes_'
'various_'
'history_'
'green_'
'12_'
'negative_'
'wide_'
'attractive_'
'often_'
'except_'
'marina_'
'40_'
'double_'
'heard_'
'charm_'
'key_'
'accessible_'
'white_'
'arriving_'
'below_'
'terrific_'
'tube_'
'premier_'
'watching_'
'strip_'
'provides_'
'doors_'
'seen_'
'welcoming_'
'consider_'
'00_'
'hope_'
' ., _'
'express_'
'ample_'
'pleasure_'
'international_'
'11_'
'head_'
'towards_'
'slightly_'
'relatively_'
'canal_'
'picked_'
'name_'
'seem_'
'instead_'
'plan_'
'brilliant_'
'stations_'
'foot_'
'walks_'
'expected_'
'based_'
'advantage_'
'art_'
'exceptional_'
'vacation_'
'provide_'
'upgraded_'
'english_'
'wall_'
'sound_'
'seeing_'
'team_'
'surrounded_'
'possible_'
'&_'
'harbor_'
'floors_'
'moment_'
'transportation_'
'stairs_'
'living_'
'apartment_'
'mini_'
'design_'
' – _'
'fire_'
'somewhere_'
'decorated_'
'travelling_'
'ten_'
'comfort_'
'average_'
' .._'
'runs_'
'cheaper_'
'tried_'
'miss_'
'taken_'
'direct_'
'attached_'
'beer_'
'met_'
'mind_'
'tours_'
'running_'
'touch_'
'unless_'
'cars_'
'rooftop_'
'tourists_'
'compared_'
'self_'
'snacks_'
'doing_'
'lift_'
'cross_'
'path_'
'fault_'
'appreciated_'
'facility_'
'person_'
'rental_'
'ng_'
'items_'
'er_'
'magnificent_'
'beyond_'
'means_'
'starbucks_'
'catch_'
'deck_'
'prepared_'
'pass_'
'later_'
'ly_'
'party_'
'important_'
'care_'
'avoid_'
'entire_'
'sightseeing_'
'waterfront_'
'manager_'
'gate_'
'italian_'
'parked_'
'swim_'
'information_'
'type_'
'properties_'
'added_'
'season_'
'straight_'
'waiting_'
'blue_'
'numerous_'
'helped_'
'event_'
'christmas_'
'sunday_'
'quickly_'
'low_'
'. _'
'hesitate_'
'finding_'
'bags_'
'grocery_'
'hyatt_'
'beaches_'
'third_'
'sand_'
'read_'
'older_'
'wo_'
'bring_'
'gets_'
'change_'
'wrong_'
'parks_'
'journey_'
'ready_'
'rates_'
'saturday_'
'cathedral_'
'gem_'
'locations_'
'already_'
'royal_'
'arranged_'
'towels_'
'previous_'
'perhaps_'
'somewhat_'
'stars_'
'secure_'
'works_'
'g_'
'french_'
'guide_'
'spaces_'
'tables_'
'treat_'
'roads_'
' ! ! !_'
'drove_'
'drop_'
'general_'
'le_'
'surroundings_'
'fair_'
'slow_'
'steep_'
'trying_'
'non_'
'goes_'
'greeted_'
'placed_'
'brand_'
'transfer_'
'true_'
'thoroughly_'
'pleased_'
'young_'
'spread_'
'prefer_'
'twice_'
'university_'
'comfy_'
'member_'
'daily_'
'euros_'
'glad_'
'problems_'
'evenings_'
'famous_'
'impressed_'
'stopped_'
'paris_'
'surprised_'
'considering_'
'pricey_'
'connected_'
'court_'
'rear_'
'higher_'
'ago_'
'mention_'
'job_'
'narrow_'
'positive_'
'issues_'
'eateries_'
'yourself_'
'leaving_'
'relaxed_'
'list_'
'someone_'
'state_'
'ice_'
'fridge_'
'services_'
'apart_'
'gas_'
'en_'
'buy_'
'faced_'
'feeling_'
'immediately_'
'quieter_'
'attending_'
'adequate_'
'continental_'
'hills_'
'turned_'
'rail_'
'lucky_'
'checking_'
'character_'
'package_'
'recent_'
'addition_'
'opened_'
'45_'
'map_'
'tasty_'
'system_'
'traditional_'
'mid_'
'mostly_'
'security_'
'regular_'
'common_'
'equipped_'
'rock_'
'trains_'
'dog_'
'passing_'
'walls_'
'sized_'
'gives_'
'case_'
' .... _'
'rain_'
'birds_'
'al_'
'ideally_'
'pubs_'
'advice_'
'chance_'
'falls_'
'trouble_'
'believe_'
'memorable_'
'hop_'
'complaint_'
'walkable_'
'managed_'
'venue_'
'parts_'
'sign_'
'ended_'
'aware_'
'lights_'
'winter_'
'face_'
'expectations_'
'travelers_'
'lower_'
'play_'
'direction_'
'santa_'
'covered_'
'hand_'
'clear_'
'fully_'
' .- _'
'disney_'
'destination_'
'request_'
'downstairs_'
'extensive_'
'quaint_'
'poor_'
'laundry_'
'residence_'
'machine_'
'action_'
'knew_'
'single_'
'larger_'
'lack_'
'sat_'
'favourite_'
'totally_'
'mentioned_'
'tired_'
'reservation_'
'el_'
'loads_'
'meet_'
'upgrade_'
'visitors_'
'york_'
'budget_'
'enjoying_'
'leisure_'
'generally_'
'dubai_'
'following_'
'enter_'
'website_'
'pier_'
'designed_'
'offering_'
'spots_'
'feels_'
'2nd_'
'k_'
'dishes_'
'simple_'
'beside_'
'romantic_'
'km_'
'weeks_'
'resorts_'
'man_'
'exactly_'
'yards_'
'allowed_'
'land_'
'plentiful_'
'son_'
'ones_'
'h_'
'massage_'
'pros_'
'sheraton_'
'executive_'
'meant_'
'fare_'
'tuk_'
'/ _'
'smaller_'
'highlight_'
'nd_'
'oasis_'
'locals_'
'sight_'
'indian_'
'flying_'
'surprise_'
'particular_'
'elevators_'
'please_'
'pizza_'
'attention_'
'unit_'
'chef_'
'phone_'
'chinese_'
'sits_'
'sports_'
'renovated_'
'comes_'
'f_'
'card_'
'company_'
'layout_'
'attentive_'
'basic_'
'step_'
'w_'
'quarter_'
'suggest_'
'stadium_'
'serves_'
'opportunity_'
'minor_'
'standards_'
'canyon_'
'remember_'
'bike_'
'nature_'
'tip_'
'camp_'
'reservations_'
'historical_'
'immediate_'
' ’ _'
'friday_'
'church_'
'management_'
'presented_'
'peace_'
'tree_'
'prior_'
'section_'
'euro_'
'complete_'
'stone_'
'heading_'
'ski_'
'nowhere_'
'architecture_'
'pre_'
'received_'
'personal_'
'happily_'
'recommendations_'
'sometimes_'
'indeed_'
'daughter_'
'stays_'
'move_'
'theatre_'
'elsewhere_'
'anyway_'
'upper_'
'completely_'
'residential_'
'outlets_'
'jacuzzi_'
'nicer_'
'nearest_'
' . )_'
'add_'
' + _'
'mainly_'
'groups_'
' “ _'
'pedestrian_'
'ambience_'
'3rd_'
'cheese_'
'boston_'
'terms_'
'upscale_'
'feature_'
'features_'
'lines_'
'friend_'
'started_'
'slept_'
'malls_'
'elegant_'
'experienced_'
'trail_'
'professional_'
'tell_'
'planning_'
'forest_'
'cons_'
'touring_'
'multiple_'
'sort_'
'imagine_'
'owners_'
'together_'
'avenue_'
'fee_'
'calm_'
'chicago_'
'odd_'
'andthe_'
'ways_'
'useful_'
'reading_'
'couples_'
'finally_'
'idea_'
'flat_'
'campus_'
'similar_'
'wildlife_'
'lit_'
'none_'
'birthday_'
'cocktails_'
'museums_'
'luxurious_'
'interior_'
'advance_'
'clearly_'
'pastries_'
'4th_'
'grill_'
'meetings_'
'missed_'
'bank_'
'preferred_'
'ourselves_'
'laid_'
'customer_'
'palm_'
'sister_'
'hospitality_'
'hike_'
'guess_'
'members_'
'visits_'
'serve_'
'villas_'
'giving_'
' " ._'
'doubt_'
'tiny_'
'feet_'
'p_'
'westin_'
'fireplace_'
'definately_'
'venice_'
'requested_'
'houses_'
'notch_'
'sky_'
'bangkok_'
'apartments_'
' ! )_'
'animals_'
'conditioning_'
'brought_'
'hiking_'
'fancy_'
'safari_'
'meters_'
'departure_'
'tucked_'
'hit_'
'(_'
'adults_'
'ers_'
'track_'
'van_'
'fort_'
'drivers_'
'complaints_'
'tickets_'
'lagoon_'
'bustle_'
'stocked_'
'paying_'
'entry_'
'closest_'
'bother_'
'temple_'
'bathrooms_'
' % _'
'stuff_'
'obviously_'
'metres_'
'tokyo_'
'board_'
'lively_'
'scenery_'
'lighting_'
'remote_'
'lady_'
'depending_'
'amount_'
'nicest_'
'bikes_'
'alternative_'
'black_'
'heated_'
'delight_'
'ticket_'
'200_'
'hidden_'
'heavy_'
'taste_'
'vicinity_'
'costs_'
'travellers_'
'5th_'
'inclusive_'
'sleeping_'
'comment_'
'rome_'
'rs_'
'stand_'
'normal_'
'boats_'
'opinion_'
'snow_'
'victoria_'
'nyc_'
'interest_'
'scenic_'
'uber_'
'spending_'
'months_'
'steak_'
'activity_'
'hesitation_'
'superior_'
'owner_'
'queen_'
'walkway_'
'beauty_'
'surprisingly_'
'sense_'
'countryside_'
'newer_'
'reviewers_'
'bottle_'
'connection_'
'bread_'
'japanese_'
'nearly_'
'welcomed_'
'signs_'
'dc_'
'foods_'
'likely_'
'markets_'
'natural_'
'inviting_'
'movie_'
'breathtaking_'
'bottom_'
'gps_'
'tripadvisor_'
'moved_'
'fan_'
'massive_'
'rating_'
'playing_'
'filled_'
'positives_'
'forget_'
'environment_'
'concert_'
'getaway_'
'understand_'
'dogs_'
'whether_'
'normally_'
'easier_'
'microwave_'
'detail_'
'american_'
'ton_'
'basically_'
'alone_'
'fly_'
'therefore_'
'bistro_'
'biggest_'
'paradise_'
'tennis_'
'sauna_'
'includes_'
'wood_'
'inns_'
'lifts_'
'events_'
'overlooks_'
'him_'
'juice_'
'thai_'
'bright_'
'school_'
'heat_'
'crowds_'
'southern_'
'balconies_'
'transit_'
'theme_'
'furniture_'
'dine_'
'del_'
'impression_'
' ! ) ._'
'wild_'
'hustle_'
'chair_'
'industrial_'
'drawback_'
'toilet_'
'privacy_'
'housekeeping_'
'creek_'
'seafood_'
' € _'
'exercise_'
'stopover_'
'accommodations_'
'hire_'
'screen_'
'opted_'
'starting_'
'springs_'
'lost_'
'flights_'
'snack_'
'wanting_'
'frequent_'
'trails_'
'smile_'
'appears_'
'myself_'
'story_'
'among_'
'lane_'
'amsterdam_'
'shame_'
'soft_'
'required_'
'isolated_'
'motorway_'
'incredibly_'
'save_'
'tight_'
'ie_'
'discount_'
' ” _'
'carte_'
'ac_'
'previously_'
'arena_'
'northern_'
'fit_'
'weekends_'
'cbd_'
'sydney_'
'photos_'
'bedrooms_'
'affordable_'
'gold_'
'berlin_'
'cookies_'
'tons_'
'matter_'
'desert_'
'age_'
'ahead_'
'packed_'
'shows_'
' : - _'
'speed_'
'additional_'
'changed_'
'known_'
' # _'
'promenade_'
'field_'
'six_'
'ambiance_'
'july_'
'classic_'
'breeze_'
'pleasantly_'
'freshly_'
'outlet_'
'furnished_'
'bacon_'
'original_'
'dock_'
'temperature_'
'peak_'
'leading_'
'theater_'
'coach_'
'flowers_'
'loungers_'
'hosts_'
'equipment_'
' :_'
'pillows_'
'ordered_'
'onsite_'
'reserve_'
'35_'
'mornings_'
'grab_'
'gift_'
'traveler_'
'dated_'
'faces_'
'planned_'
'notice_'
',_'
'las_'
'approx_'
'union_'
'sounds_'
'1st_'
'allow_'
'midnight_'
'95_'
'manhattan_'
'example_'
'earlier_'
'varied_'
'fairfield_'
'cereals_'
'organised_'
'inner_'
'vehicle_'
'rent_'
'estate_'
'college_'
'noticed_'
'deluxe_'
'smoking_'
'unlike_'
'uk_'
'delivered_'
'empty_'
'francisco_'
'upstairs_'
'region_'
'rocks_'
'islands_'
'manchester_'
'novotel_'
'dinners_'
'corridor_'
'asian_'
'rush_'
'tricky_'
'courses_'
'attend_'
'appreciate_'
'attraction_'
'hang_'
' ....._'
'hospital_'
'opening_'
'breads_'
'chocolate_'
'wow_'
'arrange_'
'18_'
'portland_'
'throw_'
'host_'
'seattle_'
'folks_'
'sunrise_'
'cocktail_'
'okay_'
'serving_'
'pressure_'
'ceiling_'
'90_'
'football_'
'recommendation_'
'trendy_'
'vibe_'
'ta_'
'ibis_'
'atrium_'
'positioned_'
'zone_'
'festival_'
'strong_'
'egg_'
'gone_'
'shore_'
'impossible_'
'14_'
'melbourne_'
'cream_'
'wharf_'
'dropped_'
'wise_'
'strange_'
'secluded_'
'cozy_'
'bell_'
'unusual_'
'include_'
'waffles_'
'concerned_'
'reasons_'
'spring_'
'oh_'
'cosy_'
'visitor_'
'suggestions_'
'confusing_'
'apparently_'
'pictures_'
'ritz_'
'european_'
'v_'
'library_'
'disappointing_'
'touches_'
'reef_'
'vegas_'
'purpose_'
'shanghai_'
'cable_'
'receptionist_'
'sink_'
'dublin_'
'travelled_'
'barcelona_'
'spanish_'
'cities_'
'80_'
'waves_'
'exterior_'
'adjoining_'
'tips_'
'advisor_'
'wines_'
'edinburgh_'
'washington_'
'x_'
'china_'
'channels_'
'situation_'
'wing_'
'prime_'
'golden_'
'europe_'
'providing_'
'levels_'
'anniversary_'
'george_'
'tropical_'
'inexpensive_'
'selected_'
'multi_'
'opera_'
'difference_'
'solid_'
'hassle_'
'absolute_'
'corridors_'
'sunny_'
'knowledgeable_'
'continue_'
'appeared_'
'reached_'
'occasion_'
'cute_'
'bbq_'
'machines_'
'hallway_'
'mix_'
'touristy_'
'60_'
'negatives_'
'cake_'
'bill_'
'ship_'
'sides_'
'nightlife_'
'whenever_'
'infinity_'
'cuisine_'
'neighbourhood_'
'cleanliness_'
'radisson_'
'june_'
'ours_'
'crowd_'
'6th_'
'maps_'
'mexican_'
'ies_'
'tranquil_'
'bigger_'
'magical_'
'picturesque_'
'cook_'
'orange_'
'florida_'
'porch_'
'experiences_'
'post_'
'premium_'
'trams_'
'beginning_'
'colonial_'
'august_'
'sausage_'
'premises_'
'keeping_'
'fab_'
'till_'
'liverpool_'
'cottage_'
'cape_'
'month_'
'details_'
'ts_'
'trolley_'
'cliff_'
'carpark_'
'total_'
'quirky_'
'pacific_'
'share_'
'effort_'
'vast_'
'stylish_'
'chill_'
'ave_'
'cabin_'
'shared_'
'lush_'
'followed_'
'october_'
'mean_'
'follow_'
'power_'
'century_'
'equally_'
'ensure_'
'planes_'
'os_'
' ! ) _'
'16_'
'wake_'
'certain_'
'vancouver_'
'basement_'
'75_'
'na_'
'suited_'
'commercial_'
'fruits_'
'70_'
'mt_'
'slight_'
'pet_'
'online_'
'adult_'
'games_'
'te_'
'questions_'
'crossing_'
'aspect_'
'allows_'
'occasions_'
'champagne_'
'beaten_'
'complain_'
'recommending_'
'sofa_'
'treated_'
'scene_'
'refurbished_'
'shade_'
'drinking_'
'seasons_'
'become_'
'exception_'
'terrible_'
'credit_'
'relaxation_'
'toiletries_'
'renovation_'
'owned_'
'newly_'
'possibly_'
'speak_'
' _'
'process_'
'annoying_'
'ness_'
'held_'
'denver_'
'ran_'
'guys_'
'cereal_'
'challenge_'
'former_'
'doorstep_'
'wet_'
'updated_'
'jungle_'
'madrid_'
'sandy_'
'ring_'
'oxford_'
'america_'
'hong_'
'picture_'
'word_'
'con_'
'units_'
'ra_'
'india_'
'embassy_'
'attended_'
'shuttles_'
'hundred_'
'dead_'
'plane_'
'computer_'
'overlook_'
'noted_'
'th_'
'bought_'
'row_'
'hardly_'
'drives_'
'worry_'
'toast_'
'crazy_'
'stopping_'
'led_'
'miami_'
'accommodating_'
'tasting_'
'expecting_'
'disappointment_'
'circle_'
'march_'
'lodging_'
'kong_'
'fall_'
'crowne_'
'0_'
'waited_'
'rough_'
'17_'
'september_'
'yogurt_'
'travels_'
'extended_'
'reliable_'
'ny_'
'eye_'
'hi_'
'zoo_'
'strongly_'
'salad_'
'ion_'
'landing_'
'outskirts_'
'ne_'
'juices_'
'smell_'
'towns_'
'headed_'
'climb_'
'ut_'
'showed_'
'retreat_'
'viewing_'
'disappoint_'
'proper_'
'ey_'
'talk_'
'junior_'
'john_'
'bird_'
'amongst_'
'sunsets_'
'wander_'
'traveller_'
'interested_'
'careful_'
'heritage_'
'establishment_'
'personally_'
'cut_'
'guy_'
'reserved_'
'towers_'
'bakery_'
'splendid_'
'wind_'
'delighted_'
'allocated_'
'fishing_'
'lawn_'
'cooking_'
'burger_'
'willing_'
'april_'
'locally_'
'driveway_'
'stretch_'
'approach_'
'period_'
'hanging_'
'december_'
'workout_'
'curtains_'
'overpriced_'
'florence_'
'chosen_'
'ce_'
'casual_'
'form_'
'foyer_'
'rise_'
'cabins_'
'beware_'
'checkout_'
'riverside_'
'wonderfully_'
'farm_'
'scrambled_'
'cove_'
'thus_'
'suit_'
'disneyland_'
'saying_'
'rated_'
'caught_'
'january_'
'mrt_'
'agree_'
'ia_'
'necessary_'
'suggested_'
'clubs_'
'benefit_'
'offerings_'
'chinatown_'
'asking_'
'thru_'
'pickup_'
'kings_'
'drag_'
'lisbon_'
'cart_'
'salt_'
'z_'
'transfers_'
'dive_'
' '
'frequently_'
'banks_'
'capital_'
'converted_'
'exciting_'
'bahn_'
'escape_'
'moving_'
'yard_'
'talking_'
'says_'
'manor_'
'rd_'
'proved_'
'alley_'
'13_'
'restored_'
'tracks_'
'sadly_'
'generous_'
'firstly_'
'constant_'
'chicken_'
'collection_'
'walmart_'
'passes_'
'twin_'
'co_'
'entering_'
'fountain_'
' * _'
'holidays_'
'furnishings_'
' ) - _'
'checkin_'
'adventure_'
' " , _'
'steam_'
'horse_'
'comments_'
'rides_'
'regularly_'
'accessed_'
'types_'
'smooth_'
'encountered_'
'shown_'
'glasgow_'
'costa_'
'charged_'
'retail_'
'deep_'
'istanbul_'
' ‘ _'
'quay_'
'address_'
'navigate_'
'virtually_'
'condition_'
'control_'
'albeit_'
'pull_'
'bts_'
'november_'
'wooden_'
'sunbeds_'
'authentic_'
'300_'
'finished_'
'improved_'
'decision_'
'beachfront_'
'venture_'
'uphill_'
'mcdonalds_'
'prague_'
'refrigerator_'
'trucks_'
'platinum_'
'nor_'
'seat_'
'glacier_'
'pond_'
'customers_'
'junction_'
'exceptionally_'
'smoke_'
'fourth_'
'orlando_'
'bag_'
'7th_'
'actual_'
'approximately_'
'taj_'
'refreshing_'
'500_'
'finish_'
'italy_'
'besides_'
'truck_'
'enormous_'
'bargain_'
'beers_'
'snorkeling_'
'venues_'
'hopefully_'
'hole_'
'whatever_'
'pit_'
'sent_'
'crown_'
'dined_'
'starts_'
'fields_'
'excursions_'
'aside_'
'men_'
'riverwalk_'
'closet_'
'chateau_'
'box_'
'wished_'
'vienna_'
'sweet_'
'intimate_'
'ted_'
'awful_'
'residents_'
'courteous_'
'maker_'
'corporate_'
'wireless_'
'familiar_'
'diamond_'
'advised_'
'friendliness_'
'irish_'
' ( $ _'
'die_'
'lakes_'
'spotless_'
'played_'
'cup_'
'bang_'
'toward_'
'salmon_'
'obvious_'
'businesses_'
'british_'
'café_'
'meat_'
'mixed_'
'against_'
'leaves_'
' , ( _'
'signage_'
'landscaped_'
'panoramic_'
'carry_'
'surely_'
'healthy_'
'polite_'
'shape_'
'peninsula_'
'broadway_'
'leads_'
'chains_'
'smart_'
'hallways_'
'munich_'
'trade_'
' ..... _'
'delhi_'
'piazza_'
'links_'
'skyline_'
'rented_'
'signal_'
'mount_'
'courtesy_'
'fortunately_'
'brief_'
'warmly_'
'france_'
'diving_'
'ease_'
'opens_'
'counter_'
'wants_'
'suitable_'
'highways_'
'les_'
'watched_'
'rare_'
'knowledge_'
'ry_'
'combination_'
'poolside_'
'zurich_'
'thinking_'
'initially_'
'ham_'
'california_'
'lounges_'
'steakhouse_'
'offices_'
'singapore_'
'kitchenette_'
'cottages_'
'write_'
'boardwalk_'
'traveled_'
'stuck_'
'monkeys_'
'sandwiches_'
'partial_'
'heathrow_'
'exceeded_'
'fireworks_'
'worried_'
'eastern_'
'match_'
'band_'
'supermarkets_'
'hoteland_'
'bush_'
'tastes_'
'mark_'
'honest_'
'lodges_'
'happening_'
'paths_'
'hence_'
'contemporary_'
'worst_'
'windy_'
'volcano_'
'discovered_'
'lived_'
'catering_'
'se_'
'info_'
'community_'
'currently_'
'function_'
'basis_'
'sleeper_'
'diego_'
'functional_'
'factor_'
'appear_'
'themselves_'
'schedule_'
'dry_'
'beijing_'
'ville_'
'warned_'
'studio_'
'grass_'
'challenging_'
'woods_'
'umbrellas_'
'target_'
'partner_'
'selections_'
'bustling_'
'sunshine_'
'culture_'
'charleston_'
'considered_'
'monday_'
'distant_'
'showers_'
'forth_'
'outdoors_'
'unwind_'
'playa_'
'email_'
'marble_'
'flew_'
'keys_'
'establishments_'
'guides_'
'computers_'
'plants_'
'seats_'
'cakes_'
'restful_'
'luckily_'
'diner_'
'charges_'
'routes_'
'highlights_'
'ish_'
'crystal_'
'gates_'
'atlanta_'
'motels_'
'storey_'
'locate_'
'constantly_'
'haven_'
'asset_'
'eaten_'
'guided_'
'ble_'
'serene_'
'naples_'
'catching_'
'classy_'
'landscaping_'
'africa_'
'advise_'
'standing_'
'piece_'
'highest_'
'result_'
'selling_'
'mosque_'
'8th_'
'ur_'
'fixed_'
'showing_'
'ons_'
'waikiki_'
'los_'
'lazy_'
'dream_'
'missing_'
'waters_'
'seaside_'
'final_'
' ' ._'
'pulled_'
'clerk_'
'tough_'
'channel_'
'mine_'
'101_'
'staircase_'
'homewood_'
'february_'
'seafront_'
'kyoto_'
'puerto_'
'dollars_'
'cinema_'
'ladies_'
'riding_'
'doubletree_'
'complementary_'
'sets_'
'mercure_'
'adds_'
'tend_'
'glorious_'
'jet_'
'honestly_'
'cleaning_'
'trek_'
'montreal_'
'cabs_'
'buffalo_'
' ! ! ! !_'
'charles_'
'lincoln_'
'fortunate_'
'happened_'
'individual_'
'mexico_'
'bottles_'
'saved_'
'meats_'
'cancun_'
'bund_'
'ages_'
'seven_'
'rocky_'
'joy_'
'chat_'
'originally_'
'passed_'
'da_'
'brussels_'
'sofitel_'
'ships_'
'22_'
'array_'
'ruins_'
'plans_'
'parties_'
'photo_'
'sad_'
'landscape_'
'treatments_'
'mr_'
'tastefully_'
'employees_'
'waiter_'
'michigan_'
'display_'
'mtr_'
'renaissance_'
'bear_'
'question_'
'everyday_'
'canada_'
'loch_'
'largest_'
')_'
'phoenix_'
'don_'
'pancakes_'
'hip_'
'needing_'
'boarding_'
'rustic_'
'intercontinental_'
'improvement_'
'et_'
'arrangements_'
'snorkelling_'
'30am_'
'nightly_'
'changing_'
'vehicles_'
'jr_'
'bothered_'
'cheeses_'
'fascinating_'
'visible_'
'storage_'
'worthwhile_'
'hub_'
'heating_'
'eve_'
'condo_'
'150_'
'stands_'
'lacking_'
'books_'
'tall_'
'opportunities_'
'hillside_'
'date_'
'ns_'
'england_'
'ireland_'
'deserves_'
'charging_'
'hwy_'
'bungalow_'
'temples_'
'bali_'
'perfection_'
'com_'
'accommodate_'
'des_'
'turns_'
'present_'
'impeccable_'
' –_'
'wandering_'
'shall_'
'magic_'
'chips_'
'ic_'
'disturbed_'
'choosing_'
'clock_'
'background_'
'sorrento_'
'connect_'
'ere_'
'universal_'
'du_'
'zion_'
'web_'
'sold_'
'milk_'
'lax_'
'ramp_'
'minimal_'
'criticism_'
'department_'
'google_'
'coral_'
'buggy_'
'acceptable_'
'stated_'
'noises_'
'antonio_'
'ar_'
'giant_'
'gallery_'
'chaotic_'
'cater_'
'airy_'
'chic_'
'james_'
'bristol_'
'casa_'
'boxes_'
'sorry_'
'typically_'
'tapas_'
'news_'
'midtown_'
'mill_'
'albert_'
'renovations_'
'mobile_'
'purchase_'
'lives_'
'expansive_'
'capitol_'
'log_'
'connecting_'
'regret_'
'helps_'
'primarily_'
'parents_'
'carlton_'
'ridge_'
'downhill_'
'piccadilly_'
'presentation_'
'fell_'
'suitcases_'
'terminals_'
'dessert_'
'calls_'
'rich_'
'rice_'
'raining_'
'race_'
'require_'
'fill_'
'compare_'
'helping_'
'soup_'
'towel_'
'dryer_'
'* _'
'concern_'
'ancient_'
'ft_'
'birmingham_'
'inconvenient_'
'assist_'
'ling_'
'speaking_'
'products_'
'maintenance_'
'21_'
'décor_'
'happen_'
'active_'
'worse_'
'celebrate_'
'eventually_'
'deer_'
'courts_'
'unbeatable_'
'factory_'
'yummy_'
'vibrant_'
'vegetarian_'
'-- _'
'comparison_'
'training_'
'gladly_'
'girls_'
'clothes_'
'marks_'
'lion_'
'gourmet_'
'police_'
'ay_'
'parador_'
'nevertheless_'
'explained_'
'pain_'
'heaven_'
'tent_'
'rural_'
'immaculate_'
'health_'
'research_'
'elephants_'
'tranquility_'
'wonder_'
'aspects_'
'connections_'
'regarding_'
'remains_'
'usa_'
'stones_'
'rose_'
'improve_'
'extraordinary_'
'impressions_'
'waterfall_'
'tunnel_'
'structure_'
'excited_'
'destinations_'
'ment_'
'bungalows_'
'waffle_'
'hands_'
'weddings_'
'mart_'
'mansion_'
'unable_'
'memorial_'
'lined_'
'caribbean_'
'agent_'
'repeat_'
'biscuits_'
'$ _'
'changes_'
'shut_'
'completed_'
'county_'
'putting_'
'brings_'
'portions_'
'plugs_'
'heartbeat_'
'tion_'
'promptly_'
'sliding_'
'medical_'
'awkward_'
'informative_'
'hyde_'
'genuine_'
'caters_'
'wineries_'
'manicured_'
'circular_'
'veranda_'
'springhill_'
'correct_'
'cheapest_'
'appealing_'
'alongside_'
'thin_'
'marco_'
'exquisite_'
'charlotte_'
'ley_'
'fe_'
'difficulty_'
'upmarket_'
'soho_'
'competition_'
'knowing_'
'cultural_'
'dunes_'
'juan_'
'par_'
'nashville_'
'intersection_'
'bunch_'
'practically_'
'nestled_'
'driven_'
'omelette_'
'sandwich_'
'cover_'
'alot_'
'colleagues_'
'entered_'
'directed_'
'monument_'
'siam_'
'urban_'
' , " _'
'summary_'
'muffins_'
'scotland_'
'baked_'
'concrete_'
'jose_'
'development_'
'austin_'
'beef_'
'atlantic_'
'mobility_'
'became_'
'19_'
'kinds_'
'suggestion_'
'hectic_'
'describe_'
'draw_'
' ) . _'
'today_'
'blocked_'
'sedona_'
'fashioned_'
'stream_'
'breath_'
'requires_'
'mumbai_'
'cleaned_'
'dinning_'
'monorail_'
'marked_'
'anytime_'
' --- _'
'wear_'
'winding_'
'supplies_'
'skiing_'
'massages_'
'loop_'
'horrible_'
'electric_'
'coastal_'
'sufficient_'
'australia_'
'toronto_'
'spoke_'
'produce_'
'max_'
'fifth_'
'courtyards_'
'allowing_'
'neat_'
'keen_'
'aquarium_'
'nightmare_'
'barely_'
'unbelievable_'
'listening_'
'mistake_'
'amazingly_'
'cases_'
'ball_'
'galleria_'
'deco_'
'rainy_'
'ri_'
'decide_'
'paper_'
'hollywood_'
'est_'
'border_'
'400_'
'warmth_'
'villages_'
'darling_'
'colorado_'
'ceilings_'
'menus_'
'usd_'
'pro_'
'print_'
'riu_'
'organized_'
'length_'
'dame_'
'seconds_'
'lay_'
'surf_'
'pricing_'
'lakeside_'
'cliffs_'
'lions_'
'hundreds_'
'financial_'
'duty_'
'buffets_'
'greatest_'
'stayand_'
'uncomfortable_'
'tasted_'
'" _'
'resident_'
'occasional_'
'motor_'
'funky_'
'beverages_'
'yellowstone_'
'bite_'
'voucher_'
'sands_'
'baseball_'
'exhibition_'
'potential_'
'paddington_'
'honeymoon_'
'majority_'
'baby_'
'treatment_'
'vista_'
'30pm_'
'importantly_'
' --_'
'greet_'
'tourism_'
'elegance_'
'luck_'
'unload_'
'ferries_'
'smiling_'
'dance_'
'boring_'
' .* _'
'sushi_'
' … _'
'warning_'
'2012_'
'stockholm_'
'duomo_'
'spotlessly_'
'lacks_'
'seriously_'
'informed_'
'availability_'
'parliament_'
'blvd_'
' (_'
'geneva_'
'gulf_'
'appearance_'
'homemade_'
' ? _'
'texas_'
'annual_'
'mcdonald_'
'hungry_'
'unexpected_'
'casinos_'
'omelettes_'
'adelaide_'
'greeting_'
'spain_'
'dancing_'
'term_'
'outlook_'
'bet_'
'ma_'
'baggage_'
'alternatives_'
'deals_'
'child_'
'´_'
'tide_'
'send_'
'safety_'
'brewery_'
'woke_'
'remarkable_'
'twenty_'
'pointed_'
'milan_'
'deli_'
'split_'
'weird_'
'lead_'
'chilly_'
'abundance_'
'saint_'
'memories_'
': _'
'requests_'
'manage_'
'croissants_'
'figure_'
'copenhagen_'
'movies_'
'knows_'
'iron_'
'terraces_'
'concept_'
'jump_'
'ya_'
'paul_'
'phuket_'
'themed_'
'dozens_'
'yellow_'
'storm_'
'skip_'
'piano_'
'fellow_'
'ting_'
'social_'
'supposed_'
'conditioner_'
'000_'
'underneath_'
'ous_'
'gripe_'
'drury_'
'assistance_'
'ge_'
'advertised_'
'neighbors_'
'mary_'
'ian_'
'described_'
'couch_'
'german_'
'thick_'
'oatmeal_'
'jackson_'
'hie_'
'16th_'
' . , _'
'semi_'
'assigned_'
'10th_'
'rt_'
'neither_'
'named_'
'realize_'
'houston_'
'thursday_'
'9th_'
'definite_'
'bottled_'
'picking_'
'easter_'
'instructions_'
'status_'
'glazing_'
'serious_'
'tesco_'
'answer_'
' , & _'
'mother_'
'exclusive_'
'delivery_'
'degrees_'
' ) ; _'
'sell_'
'fans_'
'denny_'
'asia_'
'sorts_'
'maze_'
'picnic_'
'stories_'
'bend_'
'turning_'
'relative_'
'meaning_'
'dallas_'
'washing_'
'mirror_'
'maria_'
'carts_'
'exchange_'
'newport_'
'dish_'
'basketball_'
'tremendous_'
'hold_'
'shoes_'
'pop_'
'hgi_'
'extras_'
'consistently_'
'sol_'
'series_'
'midst_'
'hired_'
'arrangement_'
'2013_'
'ability_'
'bedding_'
'roll_'
'cramped_'
'boys_'
'weights_'
'ty_'
'enclosed_'
'cards_'
'broken_'
'remembered_'
'conversation_'
'bridges_'
'reputation_'
'railroad_'
'accomodation_'
'prompt_'
'lunches_'
'travelodge_'
'finest_'
'oslo_'
'domestic_'
'skytrain_'
'significant_'
'ingredients_'
'discover_'
'cracker_'
'arrivals_'
'endless_'
'catered_'
'specific_'
'internal_'
'groceries_'
'desserts_'
'sri_'
'smack_'
'select_'
'calling_'
'lobster_'
'elephant_'
'bells_'
'wherever_'
'listen_'
'leisurely_'
'learn_'
'spg_'
'gated_'
'contact_'
'mar_'
'halls_'
'centers_'
'cash_'
'bathtub_'
'smoked_'
'communal_'
'dirty_'
'patong_'
'hey_'
'barrel_'
'majestic_'
'satisfied_'
'rarely_'
'deliver_'
'words_'
'vineyards_'
'ordinary_'
'degree_'
'annex_'
'atm_'
' ;_'
'jazz_'
'ihg_'
'fashion_'
'ter_'
'everybody_'
'appeal_'
'rolls_'
'overly_'
'hoping_'
'thankfully_'
'columbia_'
'program_'
'napa_'
'era_'
'drops_'
'dollar_'
'orleans_'
'olympic_'
'dozen_'
'walkways_'
'marine_'
'radius_'
'outback_'
'refurbishment_'
'pittsburgh_'
'link_'
'dedicated_'
'attitude_'
'tax_'
'woman_'
'african_'
' . ) _'
'tubs_'
'television_'
'tad_'
'fix_'
'decoration_'
'ation_'
'removed_'
'brunch_'
'fifteen_'
'formal_'
'flower_'
'yosemite_'
'created_'
'belfast_'
'tops_'
'suspect_'
'resturants_'
'ha_'
'lets_'
'beverage_'
'queue_'
'greatly_'
'docks_'
'tuesday_'
'silver_'
'join_'
'supply_'
'pity_'
'nearer_'
'hair_'
'va_'
'plantation_'
'ka_'
'forgot_'
'grove_'
'blu_'
'locked_'
'arts_'
'shallow_'
'search_'
'cause_'
'jetty_'
'reviewer_'
'bw_'
'begin_'
'23_'
'ss_'
'riad_'
'lamb_'
'dip_'
'q_'
'genuinely_'
'farther_'
' ! ) , _'
'current_'
'hikes_'
'load_'
'66_'
'regency_'
'readily_'
'lawns_'
'cambridge_'
'benefits_'
'abundant_'
'compact_'
'salads_'
'regis_'
'greenery_'
'david_'
'pace_'
'afford_'
'frankfurt_'
'ps_'
'japan_'
'georgetown_'
'ends_'
'apple_'
'waking_'
'parkway_'
'greek_'
'walled_'
'tvs_'
'homeless_'
'receive_'
'fisherman_'
'boulevard_'
'penn_'
'2015_'
'portion_'
'earth_'
'madison_'
'omelet_'
'combined_'
'bourbon_'
'stock_'
'ings_'
'penny_'
'landmark_'
'princess_'
'kandy_'
'meter_'
'alcohol_'
'pack_'
'2014_'
'notre_'
'tidy_'
'pa_'
'andi_'
'phenomenal_'
'ni_'
'ear_'
'savannah_'
'quinta_'
'disabled_'
'bagels_'
'sanctuary_'
'kudos_'
'kl_'
'sidewalk_'
'government_'
'entrances_'
'surprising_'
'hrs_'
'ford_'
'ys_'
'buzz_'
'suburban_'
'slide_'
'numbers_'
'jw_'
'efficiently_'
'gracious_'
'comparable_'
'lounging_'
'wash_'
'sample_'
'perched_'
'energy_'
'awake_'
'woken_'
'palms_'
'np_'
'cat_'
'aircon_'
'entertaining_'
'10min_'
'que_'
'purchased_'
'marvelous_'
'28_'
'hare_'
'dam_'
'keeps_'
'excursion_'
'reminded_'
'pasta_'
'surrounds_'
'ba_'
' …_'
'rue_'
'ch_'
'osaka_'
'taipei_'
'remodeled_'
'celebration_'
'porto_'
'soundproofing_'
'guard_'
'fairmont_'
'cleveland_'
'worn_'
'names_'
'fountains_'
'bruges_'
'plate_'
'marvellous_'
'involved_'
'settled_'
'rewards_'
'chaos_'
'tended_'
'deserted_'
'cycle_'
'carpet_'
'acropolis_'
'properly_'
'singing_'
'pavilion_'
'chalet_'
'mere_'
'idyllic_'
'hat_'
'mass_'
'liquor_'
'expressway_'
'discounted_'
'platz_'
'dangerous_'
'ugly_'
'layover_'
'hk_'
'specifically_'
'brick_'
'athens_'
'tournament_'
'plates_'
'clients_'
'filling_'
'99_'
'supplied_'
'respect_'
'occupied_'
'monaco_'
'j_'
'victorian_'
'minus_'
'latter_'
'companies_'
'zero_'
'pride_'
'departing_'
'conferences_'
'warmer_'
'neighbouring_'
'lanes_'
'kid_'
'kensington_'
'conservatory_'
'stress_'
'sf_'
'richmond_'
'columbus_'
'essential_'
'verandah_'
'newcastle_'
'michelin_'
'mattress_'
'fits_'
'andwe_'
'competitive_'
'sausages_'
'purposes_'
'closing_'
'secret_'
'hr_'
' ...... _'
'runway_'
'specially_'
'biking_'
'thames_'
'resturant_'
'peter_'
'duck_'
'ood_'
'ana_'
'aircraft_'
'prepare_'
'il_'
'hut_'
'butler_'
'sorted_'
'congested_'
'2016_'
'marathon_'
'yoga_'
'medieval_'
'arch_'
'iceland_'
'galleries_'
'reviewed_'
'ms_'
'wings_'
'grande_'
'suppose_'
'minibar_'
'homes_'
'desired_'
'pot_'
'nav_'
'sa_'
'jam_'
'soak_'
'sketchy_'
'philadelphia_'
'oak_'
'neighboring_'
'girl_'
'ai_'
'separated_'
'initial_'
'olive_'
'williamsburg_'
'trained_'
'ranch_'
'network_'
'acres_'
'learned_'
'gentleman_'
'firm_'
'boy_'
'happens_'
' . ._'
'build_'
'scheduled_'
'joined_'
'atmospheric_'
'unlimited_'
'seoul_'
'code_'
'admit_'
' :)_'
'treadmills_'
'smokers_'
'empire_'
'carefully_'
'bicycles_'
'shangri_'
'pure_'
'collect_'
'abbey_'
'hotelthe_'
'wardrobe_'
'snorkel_'
'gateway_'
'serviced_'
'lighthouse_'
'oregon_'
'climbing_'
'butthe_'
'pluses_'
'louis_'
'26_'
'playground_'
'ant_'
'– _'
'women_'
'closes_'
'scottish_'
'hotelbut_'
'29_'
'omelets_'
'gran_'
'written_'
'spoilt_'
'medina_'
'eight_'
'ad_'
'realized_'
'eyes_'
'puts_'
'bringing_'
'brands_'
'superbly_'
'ess_'
'cave_'
'11th_'
'waiters_'
'warsaw_'
'roomy_'
'opt_'
'attendant_'
'starter_'
'ds_'
'continues_'
'category_'
'brown_'
'amazed_'
'roundabout_'
'decorations_'
'states_'
'slopes_'
'shares_'
'balance_'
'washer_'
'salzburg_'
'ale_'
'hearing_'
'praise_'
'clientele_'
'beefeater_'
'stood_'
'plunge_'
'med_'
'handled_'
'somehow_'
'kms_'
'fried_'
'cheerful_'
'cardiff_'
'12th_'
'workers_'
'dome_'
'consistent_'
'brisbane_'
'iconic_'
'vegetables_'
'escorted_'
'wheel_'
'10mins_'
'sprawling_'
'elite_'
'winner_'
'plain_'
'gare_'
'weak_'
'midway_'
'jersey_'
'thailand_'
'pearl_'
'desire_'
'animal_'
'swiss_'
'monterey_'
'burg_'
'umbrella_'
'abu_'
' .: _'
'sh_'
'inconvenience_'
'studios_'
'chapel_'
'posted_'
'male_'
'glasses_'
'perth_'
'listed_'
'dropping_'
'switch_'
'frankly_'
'di_'
'ally_'
' ' , _'
'saving_'
'operated_'
'galway_'
'app_'
'antique_'
'eur_'
'colleague_'
'vs_'
'daytime_'
'ben_'
'wee_'
'ful_'
'rolling_'
'sfo_'
'gatwick_'
'stage_'
'moon_'
'lock_'
'goods_'
'fires_'
'external_'
'orchard_'
'brasserie_'
'bartender_'
'fees_'
'barbara_'
'alamo_'
'shot_'
'printer_'
'hoped_'
'commented_'
'blown_'
'um_'
'ls_'
'independent_'
'hen_'
'dirt_'
'associated_'
'pudong_'
'sounded_'
'roman_'
'commute_'
'solo_'
'sirens_'
'shady_'
'rank_'
'li_'
'broad_'
'carmel_'
'banff_'
'unforgettable_'
'supper_'
'rainforest_'
'linens_'
'un_'
'ubud_'
'kindly_'
'forever_'
'practical_'
'ping_'
' /_'
'sofas_'
'angeles_'
'aloft_'
'ard_'
'war_'
'passengers_'
'chilled_'
'unsafe_'
'theatres_'
'ent_'
'effective_'
'core_'
'yoghurt_'
'denali_'
'waste_'
'suburb_'
'developed_'
'ine_'
'mediterranean_'
'hin_'
'scale_'
'personnel_'
'consists_'
'comfortably_'
'trust_'
'jewel_'
'durham_'
'waitress_'
'prince_'
'81_'
'conditioned_'
'leeds_'
'ill_'
'budapest_'
'turtles_'
'sthe_'
'doorman_'
'create_'
'worthy_'
'seated_'
'plug_'
'mission_'
'ginza_'
'faultless_'
'demand_'
'connects_'
'ity_'
'fitted_'
'outer_'
'earplugs_'
'restuarants_'
'crew_'
'parade_'
'oriented_'
'noon_'
'alhambra_'
'heads_'
'gorge_'
'goa_'
'elevated_'
'monica_'
'eiffel_'
'alarm_'
'55_'
'smiles_'
'architectural_'
'tivoli_'
'bowling_'
'sing_'
'pets_'
'michael_'
'height_'
'18th_'
'stratford_'
'seville_'
'largely_'
'scary_'
'preference_'
'heavenly_'
'cared_'
'xmas_'
'ncp_'
'whose_'
'hourly_'
'& _'
'cycling_'
'botanical_'
'2011_'
'conditions_'
'27_'
'slope_'
'shinjuku_'
'shaped_'
'shaded_'
'employee_'
'crater_'
'chester_'
'arranging_'
'.. _'
'contained_'
'baths_'
'undergoing_'
'plastic_'
'easiest_'
'sidewalks_'
'jfk_'
'ck_'
'arms_'
'melia_'
'crab_'
'contrast_'
'boulder_'
'pristine_'
'mekong_'
'landed_'
'explored_'
'andit_'
'rim_'
'linked_'
'lanka_'
'isle_'
'bart_'
' ." _'
'treats_'
'newest_'
'assortment_'
'wa_'
'curry_'
'chris_'
'spite_'
'timeshare_'
'regardless_'
'essentially_'
'cooler_'
'nonetheless_'
'sharing_'
'den_'
'sparkling_'
'flow_'
'enjoyment_'
'sumptuous_'
'shout_'
'maldives_'
'body_'
'hua_'
'bowl_'
'answered_'
'scottsdale_'
'indoors_'
'centres_'
'roughly_'
'related_'
'petrol_'
'occasionally_'
'memory_'
'liberty_'
'65_'
'pieces_'
'cell_'
'gondola_'
'gm_'
'waterpark_'
'monastery_'
'jams_'
'priority_'
'causeway_'
'arcade_'
'noticeable_'
'dhabi_'
'tel_'
'ducks_'
'divine_'
'stepped_'
'pork_'
'narita_'
'gear_'
'esplanade_'
'baltimore_'
'afterwards_'
'poorly_'
'whatsoever_'
'smoothly_'
'relatives_'
'posh_'
'strolling_'
'pastry_'
'martin_'
'ki_'
'asheville_'
'waterfalls_'
'starwood_'
'sailing_'
'ga_'
'explain_'
'neighbours_'
'writing_'
'meets_'
'ee_'
'craft_'
'buzzing_'
'suburbs_'
'managers_'
'indigo_'
'coconut_'
'becomes_'
'wilderness_'
'fame_'
'disco_'
'virginia_'
'rip_'
'proofing_'
'halfway_'
'granada_'
'according_'
'accor_'
'slides_'
'seeking_'
'ramblas_'
'jumping_'
'colors_'
'busses_'
'riverfront_'
'requirements_'
'insulation_'
'whom_'
'horses_'
'entirely_'
'confused_'
'smallish_'
'restricted_'
'mood_'
'lap_'
'kowloon_'
'cancelled_'
'waterloo_'
'realise_'
'porter_'
'liking_'
'delivers_'
'eco_'
'spoiled_'
'burgers_'
'wave_'
'tents_'
'perspective_'
'ou_'
'intrusive_'
'auckland_'
'laptop_'
'feeding_'
'pampered_'
'ot_'
'mara_'
'gentle_'
'pounds_'
'potatoes_'
'jogging_'
'ending_'
' — _'
'omni_'
'oceanfront_'
'suits_'
'opposed_'
'ho_'
'suitcase_'
'starters_'
'platform_'
'featured_'
'facade_'
'ely_'
'2017_'
'airports_'
'struggle_'
'nanjing_'
'ive_'
'improvements_'
'horn_'
'pharmacy_'
'designer_'
'circus_'
'report_'
'ks_'
'imposing_'
'support_'
'reykjavik_'
'grassy_'
'funny_'
'coupon_'
'dressing_'
'lies_'
'ro_'
'serengeti_'
'policy_'
'ell_'
'dolphins_'
'ions_'
'euston_'
'downsides_'
'compound_'
'tech_'
'sells_'
'kettle_'
'christchurch_'
'sofia_'
'oriental_'
'minimum_'
'assume_'
'tap_'
'sq_'
'respite_'
'overhead_'
'io_'
'hotelso_'
'disturb_'
'airline_'
'turtle_'
'feed_'
'sweeping_'
'stick_'
'pillow_'
'bland_'
'lacked_'
'count_'
'continued_'
'substantial_'
'likes_'
'gathering_'
'souvenir_'
'hate_'
'handle_'
'title_'
'stalls_'
'gin_'
'frills_'
'floating_'
'bits_'
'tayed_'
'stanley_'
'setup_'
'ruby_'
'pine_'
'partly_'
'moments_'
'net_'
'malaga_'
'donuts_'
'rica_'
'furthest_'
'electrical_'
'anchorage_'
'nh_'
'staffed_'
'printed_'
'nce_'
'favorites_'
'250_'
'winery_'
'elements_'
'eager_'
'barrier_'
'19th_'
'vendors_'
'carried_'
'whirlpool_'
'wales_'
'vatican_'
'tasteful_'
'leopard_'
'whale_'
'wellington_'
'negotiate_'
'carrying_'
'bookings_'
'14th_'
'younger_'
'windsor_'
'radio_'
'accommodated_'
'turkey_'
'medium_'
'intend_'
'amenity_'
'wooded_'
'housing_'
'hamilton_'
'cuba_'
' [ _'
'statue_'
'palma_'
'description_'
'; _'
'vanity_'
'manner_'
'focus_'
'diners_'
'pink_'
'lemon_'
'seedy_'
'master_'
'lie_'
'accept_'
'turkish_'
'havana_'
'grown_'
'mediocre_'
'lexington_'
'bazaar_'
'$_'
'separately_'
'scones_'
'grace_'
'chefs_'
'tampa_'
'caution_'
'00am_'
'louise_'
'chocolates_'
'safely_'
'reality_'
'delayed_'
' :-)_'
'steaks_'
'nine_'
'm1_'
'elderly_'
'eg_'
'bass_'
'rio_'
'ors_'
'lima_'
'covent_'
'winds_'
'updating_'
'forgotten_'
'classes_'
'server_'
'overwhelming_'
'nz_'
'departures_'
'alaska_'
'won_'
'spotted_'
'greater_'
'wan_'
'thrilled_'
'dulles_'
'artwork_'
'50'
'registration_'
'pricy_'
'fayre_'
' ( £ _'
'gloucester_'
'ding_'
'appropriate_'
'accompanied_'
'soul_'
'frustrating_'
'encounter_'
'amalfi_'
'bucks_'
'realised_'
'accurate_'
'townbut_'
'relief_'
'bellman_'
'slippers_'
'def_'
'calgary_'
'blowing_'
'seamless_'
'krakow_'
'distances_'
'disadvantage_'
'cvs_'
'picks_'
') _'
'rooftops_'
'pleasing_'
'flawless_'
'busier_'
'badly_'
'15th_'
'expense_'
'camps_'
'searching_'
'proud_'
'paved_'
'account_'
'telling_'
'si_'
'sensational_'
'carmen_'
'garbage_'
'sport_'
'scattered_'
'complained_'
'17th_'
'newspapers_'
'modest_'
'unpleasant_'
'frontage_'
'adding_'
'ups_'
'sometime_'
'pudding_'
'nobody_'
'imperial_'
'immaculately_'
'depends_'
'presence_'
'ina_'
'canals_'
'breaks_'
'tavern_'
'soap_'
'ranger_'
'joe_'
'hilly_'
'bologna_'
'turnpike_'
'secured_'
'queenstown_'
'exotic_'
'walkers_'
'surfers_'
'sales_'
'robes_'
'lancaster_'
'hawaii_'
'client_'
'additionally_'
'sacramento_'
'moscow_'
'laguna_'
'emailed_'
'za_'
'motorcycle_'
'lovers_'
'lo_'
'began_'
'replenished_'
'reap_'
'phones_'
'oldest_'
'law_'
'backs_'
'promised_'
'macau_'
'a1_'
'mi_'
'dvd_'
'consideration_'
'operation_'
'leg_'
'dawn_'
'stepping_'
'punta_'
'insulated_'
'heavily_'
'como_'
'zealand_'
'siem_'
'sauce_'
'dull_'
'chi_'
'operate_'
'language_'
'delights_'
'bicycle_'
'atlantis_'
'panama_'
'hearty_'
'gluten_'
'geared_'
'shores_'
'roaring_'
'ottawa_'
'cats_'
'`_'
'vintage_'
'jack_'
'germany_'
'detailed_'
'color_'
'boiled_'
'assisted_'
'pullman_'
'ned_'
'ke_'
'claim_'
'fence_'
'dolphin_'
'portsmouth_'
'moab_'
'kayaks_'
'dual_'
'chalets_'
'15min_'
'player_'
'pancake_'
'lly_'
'cinnamon_'
'treasure_'
'students_'
'replaced_'
'newark_'
'mo_'
'ti_'
'theaters_'
'surround_'
'personality_'
'uses_'
'unloading_'
'unfortunate_'
'holes_'
'chatting_'
'caves_'
'avoided_'
'agreed_'
' .-_'
'pie_'
'nightclub_'
'loading_'
'designated_'
'appetizers_'
'wednesday_'
'switzerland_'
'seemingly_'
'reaching_'
'pike_'
'cooling_'
'anybody_'
'figured_'
'duval_'
'brisk_'
'teas_'
'revisit_'
'renting_'
'queens_'
'fox_'
'estuary_'
'antiques_'
' . ) ._'
'watering_'
'grateful_'
'complicated_'
'vineyard_'
'glimpse_'
'fed_'
'cork_'
'mai_'
'freezing_'
'conversations_'
'buying_'
'monkey_'
'marriot_'
' ? ) _'
'vegetation_'
'ultra_'
'bs_'
'advantages_'
'squeezed_'
'serenity_'
'hood_'
'caused_'
'canadian_'
'ary_'
'wheelchair_'
'restuarant_'
'cabanas_'
'daylight_'
'rubbish_'
'numbered_'
'hacienda_'
'excellently_'
'weight_'
'quebec_'
'page_'
'manila_'
'devices_'
'assured_'
'ins_'
'golfers_'
'frank_'
'cruises_'
'comforts_'
'cobbled_'
'soaking_'
'fro_'
'female_'
' .'
'utah_'
'primary_'
'lunchtime_'
'costco_'
'anda_'
'pulling_'
'mail_'
'limo_'
'gravy_'
'collected_'
'alike_'
'wishing_'
'sum_'
'riviera_'
'reduced_'
'ky_'
'vouchers_'
'satnav_'
'dressed_'
'mom_'
'condos_'
'touristic_'
'honors_'
'funicular_'
'struggled_'
'splurge_'
'hostess_'
'!_'
'necessarily_'
'soccer_'
'colombo_'
'. , _'
'specials_'
'ridiculous_'
'rentals_'
'plant_'
'performance_'
'hobart_'
'triple_'
'neighborhoods_'
'mess_'
'kimpton_'
'glazed_'
'controlled_'
'understated_'
'horns_'
'entertained_'
'blinds_'
'arizona_'
'poster_'
'dubrovnik_'
'backdrop_'
'afraid_'
'curtain_'
'20th_'
' ......_'
'discovery_'
'+ _'
'princes_'
'concerns_'
'eats_'
'sonoma_'
'knowledgable_'
'colourful_'
'eclectic_'
'eatery_'
'congress_'
'aqua_'
'santiago_'
'invited_'
'heater_'
'colorful_'
'memphis_'
'kansas_'
'sunbathing_'
'queues_'
'niagara_'
'maine_'
'celebrating_'
'remain_'
'perk_'
'enjoys_'
'freeways_'
'deserve_'
'altogether_'
'springfield_'
'coastline_'
'churches_'
'swift_'
'spoil_'
'dealt_'
'15mins_'
'faster_'
'colours_'
'paddle_'
'crashing_'
'baht_'
'00pm_'
'cap_'
'aged_'
'screaming_'
'ihop_'
'hopping_'
'basics_'
'southbank_'
'quarters_'
'painted_'
'film_'
'cherry_'
'bored_'
'fortune_'
'extension_'
'vending_'
'saigon_'
'project_'
'louvre_'
'seek_'
'carolina_'
' ] _'
'mont_'
'emirates_'
'edges_'
'echo_'
'depart_'
'beats_'
'angel_'
'amidst_'
'warren_'
'trafalgar_'
'salamanca_'
'regards_'
'hockey_'
'boutiques_'
'boasts_'
'beverly_'
'jamaica_'
'ipod_'
'fjord_'
'dramatic_'
'cuts_'
'capri_'
'william_'
'topped_'
'sixth_'
'approached_'
'similarly_'
'paintings_'
'helsinki_'
'hanoi_'
'5min_'
'tim_'
'thoughtful_'
'silent_'
'camping_'
'wal_'
'strength_'
'moderate_'
'million_'
'admire_'
'update_'
'termini_'
'ratings_'
'organic_'
'jakarta_'
'amtrak_'
'rambla_'
'bergen_'
'thumbs_'
'jewish_'
'considerable_'
'sheer_'
'ery_'
'customs_'
'afternoons_'
'signposted_'
'precinct_'
'jasper_'
'exiting_'
'85_'
'sukhumvit_'
'sporting_'
'seperate_'
'sed_'
'loaded_'
'ideas_'
'dlr_'
'coffees_'
'brighton_'
'specialty_'
'philly_'
'fluffy_'
'effect_'
'countries_'
'beach'
'... _'
'oil_'
'disturbing_'
'granted_'
'funchal_'
'foreign_'
'ray_'
'ann_'
'teenagers_'
'poached_'
'landmarks_'
'ist_'
'cabo_'
'blast_'
'toll_'
'pitch_'
'pancras_'
'meridien_'
'latest_'
'ier_'
'ensured_'
'5'
'safeway_'
'rosa_'
'introduction_'
'guaranteed_'
'folk_'
'saves_'
'rugby_'
'kinda_'
'itinerary_'
'eurostar_'
'cookie_'
'burj_'
'sublime_'
'basin_'
'alexandria_'
'thanksgiving_'
'temperatures_'
'sam_'
'dale_'
'aberdeen_'
'120_'
'room'
'4'
'0'
'sheep_'
'grey_'
'sited_'
'rer_'
'pigeon_'
'patrons_'
'guesthouse_'
'expectation_'
'ure_'
'squares_'
'hamburg_'
'bathing_'
'straightforward_'
'porridge_'
'needle_'
'kayaking_'
'great'
'discounts_'
'caring_'
'banana_'
'varieties_'
'surface_'
'shortage_'
'forced_'
' @ _'
'sheets_'
'risk_'
'priceline_'
'granola_'
'cabana_'
' " ( _'
'sections_'
'sandals_'
'depot_'
'ver_'
'safaris_'
'roma_'
'mainland_'
'housed_'
'ticks_'
'quietly_'
'picky_'
'guards_'
'vary_'
'tucson_'
'quicker_'
'printing_'
'operates_'
'maya_'
'hello_'
'cloud_'
'cemetery_'
'buckingham_'
'version_'
'mercedes_'
'homely_'
'excellence_'
'teams_'
'navy_'
'drug_'
'au_'
'trash_'
'kick_'
'blend_'
'item_'
'inverness_'
'id_'
'fuss_'
'champs_'
'beachside_'
';_'
'uptown_'
'organise_'
'ordering_'
'helicopter_'
'undercover_'
'onsen_'
'lime_'
'god_'
'expo_'
'swing_'
'm6_'
'jan_'
'industry_'
'patios_'
'happier_'
'thomas_'
'striking_'
'signature_'
'otel_'
'loft_'
'bob_'
'souvenirs_'
'astoria_'
'airplane_'
'accross_'
'publix_'
'linen_'
'informal_'
'enthusiastic_'
'amusement_'
'sso_'
'significantly_'
'pp_'
'perimeter_'
'eleven_'
'warehouse_'
'protected_'
'exact_'
'city'
'busiest_'
'affair_'
'worries_'
'ue_'
'purely_'
'nervous_'
'logan_'
'colour_'
'test_'
'passage_'
'miraflores_'
'ans_'
'privilege_'
'malta_'
'luang_'
'eden_'
'corners_'
'legs_'
'exits_'
'cricket_'
'ponds_'
'loyalty_'
'dutch_'
'32_'
'2010_'
'walgreens_'
'monte_'
'functions_'
'elizabeth_'
'clothing_'
'kill_'
'evident_'
'bumpy_'
'splash_'
'efficiency_'
'tin_'
'newspaper_'
'hershey_'
'congestion_'
'cedar_'
'borrow_'
'yorkshire_'
'tho_'
'terribly_'
'success_'
'kfc_'
'conveniences_'
'cardio_'
'sugar_'
'paragon_'
'op_'
'maid_'
'btw_'
'horizon_'
'culinary_'
'usb_'
'ramada_'
'inspiring_'
'tom_'
'smells_'
'servers_'
'sbut_'
'reminds_'
'hippos_'
'diverse_'
'cdg_'
'capacity_'
'plush_'
'cincinnati_'
'bliss_'
'againthe_'
'soothing_'
'sipping_'
'marrakech_'
'gravel_'
'riga_'
'grilled_'
'beneath_'
'reunion_'
'native_'
'lauderdale_'
'accessing_'
'wolf_'
'stored_'
'royalty_'
'regent_'
'recomend_'
'ranging_'
'emails_'
'alto_'
'vip_'
'townso_'
'tone_'
'interiors_'
'espresso_'
'treadmill_'
'taxes_'
'soi_'
'ria_'
'jo_'
'dfw_'
'constructed_'
'airport'
'sophisticated_'
'rode_'
'mouth_'
'brewers_'
'win_'
'louisville_'
'cornwall_'
'spice_'
'rays_'
'paint_'
'mixture_'
'grandeur_'
'36_'
'tuscany_'
'oberoi_'
'hvac_'
'comprehensive_'
'rum_'
'myrtle_'
'boards_'
'student_'
'pint_'
'dodgy_'
'delta_'
'auto_'
'southwest_'
'rack_'
'mature_'
'friendliest_'
'lose_'
'kruger_'
'daughters_'
'becoming_'
'albuquerque_'
'pi_'
'mon_'
'gain_'
'fight_'
'drawbacks_'
'defiantly_'
'clinic_'
' . - _'
'townand_'
'shabby_'
'regard_'
'phnom_'
'closeby_'
'ala_'
'30'
'spotty_'
'rapid_'
'portugal_'
'ohio_'
'luxembourg_'
'ir_'
'frozen_'
'carriage_'
'powerful_'
'blocking_'
'whereas_'
'shades_'
'sale_'
'rely_'
'push_'
'military_'
'failed_'
'consisted_'
'afield_'
'accomodations_'
'vietnam_'
'mesa_'
'growing_'
'ghost_'
'collins_'
'characters_'
'adventures_'
'aaa_'
'yogurts_'
'sightings_'
'patrick_'
'ning_'
'minneapolis_'
'death_'
'10'
'shampoo_'
'roaming_'
'lee_'
'dusk_'
'covers_'
'clouds_'
'staffs_'
'roast_'
'northwest_'
'duration_'
'dotted_'
'dom_'
'oakland_'
'nespresso_'
'metal_'
'handful_'
'charlie_'
'talked_'
'regional_'
'nord_'
'600_'
'stellar_'
'spas_'
'rhine_'
'ould_'
'hudson_'
'buenos_'
'benedict_'
'machu_'
'dates_'
'verde_'
'norfolk_'
'emergency_'
'shorter_'
'hermitage_'
'gap_'
'catalunya_'
'wendy_'
'waterhole_'
'glory_'
'crescent_'
'cologne_'
'biltmore_'
'25'
'professionalism_'
'ner_'
'lyon_'
'greatand_'
'goodies_'
'bench_'
' , '
'wyndham_'
'ventured_'
'unusually_'
'sensitive_'
'popped_'
'photographs_'
'laps_'
'flies_'
'canary_'
'turquoise_'
'tends_'
'pits_'
'picchu_'
'ongoing_'
'feast_'
'enhanced_'
'coupons_'
'ceremony_'
'venetian_'
'seaview_'
'rained_'
'norm_'
'mayfair_'
'justice_'
'boot_'
'backside_'
'angkor_'
'shortly_'
'pousada_'
'gs_'
'departed_'
'confirm_'
'cellar_'
'5mins_'
'tiring_'
'hamptons_'
'fronts_'
'delay_'
'afforded_'
'video_'
'ves_'
'tic_'
'tallinn_'
'hurricane_'
'gotten_'
'convent_'
'cafés_'
'barbecue_'
'wandered_'
'jordan_'
'basket_'
'back'
'ated_'
'partially_'
'madness_'
'gather_'
'crash_'
'cotswolds_'
'ah_'
'rick_'
'raised_'
'permit_'
'bryce_'
'barking_'
'aires_'
'quito_'
'mandarin_'
'battery_'
'wrap_'
'whisked_'
'ul_'
'spirit_'
'rep_'
'pavement_'
'nec_'
'leicester_'
'dreams_'
'clarion_'
'caravan_'
'ambassador_'
'+_'
' ....... _'
'senior_'
'desirable_'
'cares_'
'ance_'
'31_'
'us'
'thoroughfare_'
'danube_'
'volleyball_'
'speedy_'
'scuba_'
'repair_'
'overcrowded_'
'horrendous_'
'element_'
'closeness_'
'attracts_'
'popcorn_'
'nj_'
'maui_'
'lying_'
'lastly_'
'joints_'
'divided_'
'branson_'
'800_'
'science_'
'respects_'
'ngs_'
'mayor_'
'chiang_'
'abound_'
'westfield_'
'ticked_'
'spare_'
'harry_'
'20mins_'
'!. _'
'undoubtedly_'
'tacky_'
'maximum_'
'camera_'
'bakeries_'
'weary_'
'tray_'
'heaps_'
'dusty_'
'wondering_'
'shutters_'
'mills_'
'ignore_'
'gatlinburg_'
'duke_'
'australian_'
'2018_'
'upgrades_'
'sur_'
'occupies_'
'nibbles_'
'ensuring_'
'borough_'
'walkand_'
'stuffy_'
'signed_'
'petra_'
'nooks_'
'haul_'
'exhausted_'
'attract_'
'sleepers_'
'freedom_'
'dress_'
'chobe_'
'trailer_'
'thomson_'
'palazzo_'
'hitting_'
'faulted_'
'difficulties_'
'considerably_'
'physical_'
'jog_'
'humid_'
'halifax_'
'contains_'
'asleep_'
'areaso_'
'act_'
'ord_'
'jumeirah_'
'foliage_'
'waldorf_'
'swe_'
'shouting_'
'39_'
'unobstructed_'
'oaks_'
'loves_'
'frequented_'
'wat_'
'transported_'
'official_'
'manageable_'
'russian_'
'represents_'
'rave_'
'ments_'
'inclined_'
'eagle_'
'cambria_'
'bosphorus_'
'boots_'
'ballroom_'
'21st_'
'refreshed_'
'fuel_'
'efforts_'
'award_'
'jaipur_'
'ironing_'
'cleared_'
'mike_'
'kindness_'
'hint_'
'highlands_'
'georgian_'
'extreme_'
'bora_'
'basel_'
'8'
'whales_'
'styles_'
'rocking_'
'penh_'
'jeep_'
'hotelwe_'
'galle_'
'esp_'
'canopy_'
'cal_'
'areaand_'
'12'
'limousine_'
'johannesburg_'
'independence_'
'impact_'
'hunting_'
'honesty_'
'bre'
'autumn_'
'rialto_'
'concerts_'
'chili_'
'westminster_'
'suffer_'
'shell_'
'secondly_'
'ging_'
'cruz_'
')._'
'zip_'
'prabang_'
'om_'
'nelson_'
'fittings_'
'extensively_'
'carvery_'
'albany_'
'possibility_'
'palermo_'
'lanai_'
'fireplaces_'
'detroit_'
'banquet_'
'warwick_'
'sourced_'
'pathway_'
'hubby_'
'haneda_'
'by'
'bucharest_'
'anne_'
' ( # _'
'lifetime_'
'hurry_'
'excitement_'
'detract_'
'360_'
'vaporetto_'
'tiger_'
'salon_'
'quest_'
'painless_'
'drawn_'
'carpets_'
'burlington_'
'alpine_'
'7'
'sinks_'
'score_'
'flavor_'
'exposed_'
'anymore_'
'1000_'
'suggests_'
'lands_'
'honey_'
'bury_'
'mud_'
'falling_'
'encourage_'
'electronic_'
'creative_'
'creating_'
'versus_'
'sons_'
'pointing_'
'plethora_'
'ontario_'
'nottingham_'
'married_'
'dim_'
'communication_'
'climate_'
'affect_'
'united_'
'speaks_'
'existent_'
'bedside_'
' ? )_'
'vallarta_'
'slowly_'
'settings_'
'latin_'
'ide_'
'expedia_'
'chelsea_'
'accessibility_'
'verona_'
'satisfactory_'
'roadside_'
'pouring_'
'plymouth_'
'goodand_'
'brook_'
'alps_'
'perks_'
'hauptbahnhof_'
'greens_'
'cups_'
'cuisines_'
'confirmed_'
'attempt_'
'winchester_'
'upgrading_'
'sundays_'
'reflects_'
'flag_'
'backed_'
'andthis_'
'airplanes_'
'ze_'
'woodland_'
'toilets_'
'hammocks_'
'breaking_'
' ! ! ! ! !_'
'mentioning_'
'korean_'
'rushed_'
'racing_'
'powell_'
'montana_'
'macy_'
'disturbance_'
'depressing_'
'ridiculously_'
'hoteli_'
'flowing_'
'der_'
'ao_'
'48_'
'zermatt_'
'trader_'
'spirits_'
'arches_'
'recall_'
'noting_'
'maintain_'
'alive_'
'3'
'remarkably_'
'nile_'
'force_'
'fog_'
'branded_'
'bond_'
'beans_'
'ying_'
'tracker_'
'surprises_'
'silom_'
'shining_'
'reflect_'
'pan_'
'mango_'
'mad_'
'henry_'
'definetly_'
'classical_'
'buggies_'
'blackpool_'
'struck_'
'flags_'
'equal_'
'energetic_'
'cairns_'
'bordeaux_'
'wells_'
'sizes_'
'sheltered_'
'admittedly_'
'satisfy_'
'place'
'markt_'
'kayak_'
'ingly_'
'conrad_'
'tte_'
'there'
'airlines_'
'secrets_'
'chip_'
'annexe_'
' .$ _'
'teenage_'
'sha_'
'preserved_'
'pedestrianised_'
'outs_'
'grabbed_'
'ces_'
'33_'
' ) !_'
'lle_'
'ise_'
'ct_'
'connectivity_'
'adventurous_'
'yen_'
'worlds_'
'volume_'
'rhino_'
'reccomend_'
'moroccan_'
'milwaukee_'
'inland_'
'deserved_'
'countless_'
'couches_'
'conclusion_'
' !( _'
'surfing_'
'speciality_'
'reports_'
'peaks_'
'hairdryer_'
'decking_'
'awe_'
'spokane_'
'quietness_'
'farmers_'
'economical_'
'douglas_'
'sebastian_'
'omaha_'
'leafy_'
'iberostar_'
'hof_'
'arabian_'
'1'
' " - _'
'ler_'
'feb_'
'bellevue_'
'singer_'
'panorama_'
'intended_'
'helpfulness_'
'essentials_'
'drunk_'
'cluster_'
'castles_'
'carlos_'
'brother_'
'apples_'
'ales_'
'yacht_'
'wellness_'
'taco_'
'ses_'
'nest_'
'featuring_'
'bellagio_'
'americans_'
'25th_'
'trinity_'
'immigration_'
'excessive_'
'compliments_'
'complaining_'
'ara'
'antigua_'
'77_'
'vistas_'
'trap_'
'temporary_'
'smoky_'
'skye_'
'ryokan_'
'rude_'
'press_'
'peacocks_'
'overflow_'
'notes_'
'sequoia_'
'response_'
'ped_'
'ng'
'mykonos_'
'instant_'
'forge_'
'doormen_'
'dj_'
'brilliantly_'
'toured_'
'doha_'
'agency_'
'6'
'110_'
'parallel_'
'overseas_'
'oddly_'
'calming_'
'arlanda_'
'taormina_'
'roadand_'
'road'
'reward_'
'pedro_'
'partying_'
'arlington_'
'20min_'
' :) _'
'teh_'
'slc_'
'shinagawa_'
'sharp_'
'personable_'
'ole_'
'ipad_'
'hilltop_'
'doable_'
'bucket_'
'nc_'
'killarney_'
'earls_'
'detour_'
'avoiding_'
'veg_'
'time'
'tiles_'
'sharks_'
'rushmore_'
'penthouse_'
'partake_'
'escalator_'
'benches_'
' , $ _'
'temp_'
'proof_'
'ong_'
'nes_'
'lowest_'
'hosted_'
'enthusiasm_'
'blanca_'
'graduation_'
'bears_'
'arc_'
'apparent_'
'accordingly_'
'sweets_'
'golfing_'
'bands_'
'flavour_'
'burning_'
'aman_'
'reported_'
'needless_'
'multitude_'
'forum_'
'formerly_'
'ele'
'uneven_'
'seaweed_'
'ports_'
'nu'
'mayan_'
'jets_'
'grills_'
'circuit_'
'butter_'
'attendants_'
'spray_'
'salisbury_'
'product_'
'millennium_'
'galore_'
'buck_'
'blow_'
'areathe_'
'--_'
'yoghurts_'
'upside_'
'reakfast_'
'r'
'mp'
'excuse_'
'comparing_'
'alex_'
'switched_'
'planet_'
'ff_'
'dr_'
'street'
'sophia_'
'rivers_'
'muscat_'
'margaret_'
'canberra_'
' • _'
'staff'
'refreshments_'
'presidential_'
'out'
'horseback_'
'clearwater_'
'airportand_'
'vietnamese_'
'tag_'
'screens_'
'lighted_'
'dunkin_'
'confusion_'
'approaching_'
'zen_'
'tor_'
'motorcycles_'
'lengthy_'
'transferred_'
'thereand_'
'roam_'
'residences_'
'indicated_'
'handicapped_'
'gibraltar_'
'contacted_'
' ) '
'trekking_'
'sculptures_'
'locality_'
'instantly_'
'appointment_'
'roadworks_'
'occupancy_'
'loudly_'
'letting_'
'experiencing_'
'dy_'
'was'
'too'
'reagan_'
'rains_'
'plays_'
'locale_'
'league_'
'f'
'dreadful_'
'alternatively_'
'weekdays_'
'ultimate_'
'tile_'
'operator_'
'harrogate_'
'ence_'
'dan'
'coco_'
'bull_'
'backyard_'
'64_'
'41_'
'wealth_'
'reachable_'
'professionally_'
'o2_'
'navigating_'
'minibus_'
'marriotts_'
'marketplace_'
'kennedy_'
'impersonal_'
'grade_'
'gambling_'
'elk_'
'atop_'
'appointments_'
'aman'
'23'
'the'
'shoreline_'
'shelf_'
'monuments_'
'delays_'
'button_'
'pushed_'
'patient_'
'overwhelmed_'
'nite_'
'mega_'
'globe_'
'explaining_'
'creates_'
'applebee_'
'walker_'
'val'
'sockets_'
'smelled_'
'shack_'
'sel'
'produced_'
'polo_'
'cody_'
'cha'
'andaz_'
'tly_'
'til_'
'neighbor_'
'morocco_'
'mia_'
'elliptical_'
'custom_'
'bluff_'
'barn_'
'tuks_'
'springdale_'
'slamming_'
'rowdy_'
'rabbit_'
'pc_'
'ow_'
'ola_'
'od_'
'lucerne_'
'joint_'
'glen_'
'districts_'
'col'
'camden_'
'barman_'
'waterside_'
'retro_'
'recreation_'
'm'
'hhonors_'
'craziness_'
'bays_'
'relais_'
'races_'
'giraffe_'
' , , _'
'tate_'
'rushing_'
'marienplatz_'
'limit_'
'ko_'
'guggenheim_'
'gay_'
'cana_'
'brooklyn_'
'bartenders_'
'15'
'norway_'
'lamp_'
'kingston_'
'fills_'
'father_'
'extend_'
'council_'
'60'
' : -_'
'washed_'
'vacations_'
'tides_'
'swam_'
'staybridge_'
'operating_'
'observation_'
'nuts_'
'hoi_'
'haymarket_'
'bbc_'
'avenida_'
'arrives_'
'areabut_'
'v'
'strand_'
'source_'
'someplace_'
'phoned_'
'packages_'
'lining_'
'inspired_'
'goodthe_'
'focused_'
'2008_'
'180_'
'whisky_'
'vans_'
'unsure_'
'ty'
'streetso_'
'resolved_'
'mer_'
'kilometers_'
'interchange_'
'fussy_'
'begins_'
'bagan_'
'anticipated_'
'2'
'x'
'wondered_'
'timing_'
'stay'
'solution_'
'shooting_'
'membership_'
'attracted_'
'alcoholic_'
'accident_'
'9'
' ), _'
'representative_'
'nice'
'huts_'
'dunedin_'
'breakfast'
'yas_'
'takeaway_'
'requesting_'
'mist_'
'displayed_'
'cheetah_'
'capped_'
'candles_'
' !, _'
'tahoe_'
'syracuse_'
'settle_'
'republic_'
'hu'
'decks_'
'weekday_'
'tow_'
'thousands_'
'thirty_'
'stressful_'
'shrimp_'
'leather_'
'ii_'
'here'
'flinders_'
'fenced_'
'exploration_'
'exec_'
'devon_'
'bushes_'
'42_'
'2009_'
'sheffield_'
'return'
'raleigh_'
'practice_'
'holding_'
'georgia_'
'feedback_'
'cairo_'
'beachand_'
' ” ._'
'you'
'thermal_'
'steve_'
'shed_'
'reflected_'
'nathan_'
'moderately_'
'media_'
'fair'
'darwin_'
'bugs_'
'tradition_'
'footpath_'
'earl_'
'bournemouth_'
'beforehand_'
'bc_'
'valencia_'
'session_'
'pound_'
'pines_'
'pantry_'
'itand_'
'sub_'
'shannon_'
'm5_'
'ers'
'"_'
'wrote_'
'strawberries_'
'rising_'
'new'
'musicians_'
'hospitable_'
'established_'
'brew_'
'soda_'
'russell_'
'richard_'
'neck_'
'myriad_'
'mississippi_'
'matters_'
'location'
'handed_'
'hammock_'
'fl_'
'centro_'
'captain_'
'stable_'
'recommendable_'
'para'
'pagoda_'
'mare_'
'againwe_'
'84_'
'30th_'
'zed_'
'z'
'timely_'
'ja_'
'highland_'
'chilling_'
'ya'
'wn_'
'sun'
'song_'
'sleek_'
'prevent_'
'oven_'
'eli'
'80'
'virgin_'
'satisfying_'
'pleasurable_'
'plains_'
'opulent_'
'nairobi_'
'mid'
'hawaiian_'
'forbidden_'
'flora_'
'ex_'
'che'
'black'
'utterly_'
'rey_'
'plaka_'
'lamps_'
'hideaway_'
'fridays_'
'excel_'
'crisp_'
'ce'
'blackout_'
' ) & _'
'wider_'
'uninspiring_'
's'
'relation_'
'jean_'
'icing_'
'gesture_'
'beams_'
'avon_'
'13th_'
'xi_'
'town'
'ney_'
'flu'
'costly_'
'cordoba_'
'arenal_'
'viewed_'
'species_'
'no'
'vegetable_'
'unbelievably_'
'summit_'
'favourites_'
'banyan_'
'stuffed_'
'slot_'
'seine_'
'roofs_'
'franz_'
'fiji_'
'engaging_'
'bal'
'red'
'pe_'
'pair_'
'it'
'hits_'
'franklin_'
'fairy_'
'40'
'triangle_'
'swan_'
'stunningly_'
'sh'
'night'
'mosquitoes_'
'knock_'
'ji_'
'isolation_'
'hell_'
'guangzhou_'
'grille_'
'gifts_'
'enchanting_'
'cappuccino_'
' ~_'
'shi'
'rainbow_'
'kitchens_'
'ing'
'prosecco_'
'pizzas_'
'model_'
'mattresses_'
'marie_'
'enroute_'
'dust_'
'deciding_'
'camino_'
'are'
'andyou_'
'405_'
' .’_'
'toledo_'
'streetand_'
'ross_'
'potato_'
'pentagon_'
'lounger_'
'hung_'
'clubhouse_'
'cheesecake_'
'telephone_'
'strategically_'
'scandic_'
'rockies_'
'reminiscent_'
'presumably_'
'lookout_'
'horseshoe_'
'heights_'
'guarantee_'
'closely_'
'banging_'
'34_'
'sub'
'rv_'
'rang_'
'pod_'
'placeand_'
'khalifa_'
'costing_'
'cafeteria_'
'bed'
'angle_'
'wetherspoons_'
'scheme_'
'safer_'
'quiet'
'nusa_'
'joining_'
'inlet_'
'himself_'
'away'
'38_'
'tes_'
'noisier_'
'chase_'
'celebrations_'
'bilbao_'
'ants_'
'accepted_'
'tented_'
'ri'
'privileges_'
'outdated_'
'hereand_'
'gothic_'
'cigarette_'
'calle_'
'and'
' " '
'vesuvius_'
'tries_'
'rules_'
'refuge_'
'persons_'
'fyi_'
'ette_'
'dad_'
'carriageway_'
'andrew_'
'venturing_'
'star'
'sip_'
'shrubs_'
'sensible_'
'recharge_'
'problematic_'
'oyster_'
'frogs_'
'food'
'day'
'chai_'
'carlo_'
'700_'
'valets_'
'staircases_'
'silence_'
'pierre_'
'orders_'
'ki'
'hotwire_'
'holland_'
'ght_'
'berg_'
'ano_'
'tlc_'
'soulless_'
'prettiest_'
'fraction_'
'fen'
'docking_'
'bins_'
'zebra_'
'strasse_'
'silly_'
'reno_'
'noise'
'grand'
'goers_'
'gen'
'flash_'
'fixtures_'
'dua_'
'displays_'
'bananas_'
'affected_'
'70'
' = _'
'unassuming_'
'sunbed_'
'penang_'
'discreet_'
'dec_'
'captive_'
'ations_'
'adorable_'
'addressed_'
'terre_'
'rochester_'
'quantity_'
'pianist_'
'orchid_'
'lakefront_'
'hor'
'favor_'
'dun'
'basilica_'
'southampton_'
'plumbing_'
'oozes_'
'loyal_'
'door'
'controls_'
'berry_'
'top'
'subject_'
'spotting_'
'slip_'
'skills_'
'shoppers_'
'fs_'
'finger_'
'currency_'
'curb_'
'chattanooga_'
'ada'
'ser'
'ries_'
'remained_'
'musical_'
'covering_'
'branch_'
'assuming_'
'unlikely_'
'suggesting_'
'roadso_'
'platter_'
'minuses_'
'festive_'
'coin_'
'cleaner_'
'cannery_'
'automatic_'
'30mins_'
'smallest_'
'seminyak_'
'resting_'
'rapids_'
'quietest_'
'portofino_'
'kilometres_'
'kempinski_'
'fortress_'
'awayand_'
'17'
'taksim_'
'stra'
'q'
'pretentious_'
'pedestrians_'
'k'
'journeys_'
'cusco_'
'bay'
' ( '
'tenerife_'
'tallest_'
'pur'
'mit'
'lan_'
'kiosk_'
'finishing_'
'fares_'
'dealing_'
'daniel_'
'burn_'
'aurora_'
'alexanderplatz_'
'sultanahmet_'
'seals_'
'rib_'
'racecourse_'
'mari'
'dishwasher_'
'bare_'
'artificial_'
'subways_'
'requiring_'
'enabled_'
'ded_'
'candy_'
'animation_'
' , ._'
'verall_'
'uninterrupted_'
'rm_'
'nightcap_'
'lla_'
'j'
'instance_'
'harder_'
'ballpark_'
'areas'
'abandoned_'
'understood_'
'tear_'
'rotorua_'
'ock_'
'niggles_'
'namibia_'
'hue_'
'garages_'
'fish'
'exeter_'
'cope_'
'congratulations_'
'bella_'
'ara_'
'una'
'traverse_'
'tempted_'
'stately_'
'stamford_'
'notable_'
'nana_'
'impress_'
'headquarters_'
'germain_'
'flavours_'
'coaches_'
'thermostat_'
'tells_'
'rmb_'
'quays_'
'panera_'
'micro_'
'immensely_'
'handicap_'
'everglades_'
'coverage_'
'cloudy_'
'bound_'
'anna_'
'wayne_'
'under'
'stall_'
'rooms'
'over'
'operations_'
'misleading_'
'ial_'
'concierges_'
'awhile_'
' ! ! _'
'winning_'
'skis_'
'serena_'
'onward_'
'one'
'mosquito_'
'mirrors_'
'l'
'jo'
'fail_'
'yo_'
'slice_'
'retains_'
'niggle_'
'laundromat_'
'jacksonville_'
'gazebo_'
'fro'
'fringe_'
'effectively_'
'chandeliers_'
'aimed_'
' ... '
'successful_'
'roomthe_'
'resulted_'
'parc_'
'painting_'
'naturally_'
'matched_'
'm4_'
'lin_'
'front'
'exemplary_'
'drive'
'botanic_'
'bangalore_'
' ! '
'smith_'
'side'
'pots_'
'peru_'
'madeira_'
'irritating_'
'hats_'
'grazing_'
'goodbut_'
'foggy_'
'mum_'
'i95_'
'hunt_'
'containing_'
'connell_'
'borders_'
'bean_'
'trevi_'
'tail_'
'stan_'
'perfect'
'mel'
'lucia_'
'dave_'
'crafts_'
'clean'
'blessed_'
'blanc_'
'tgi_'
'right'
'possibilities_'
'nts_'
'hosting_'
'herd_'
'harvester_'
'doubles_'
'coupled_'
'colosseum_'
'arm_'
'trump_'
'statues_'
'slots_'
'on'
'ol_'
'masai_'
'makers_'
'likewise_'
'encouraged_'
'cuban_'
'catherine_'
'blessing_'
'americas_'
'useless_'
'tra'
'rockefeller_'
'personalized_'
'pathways_'
'passion_'
'ore'
'of'
'nia_'
'labor_'
'investment_'
'breezes_'
'area'
'ali_'
'23rd_'
'timem_'
'speedboat_'
'sha'
'programme_'
'orientation_'
'locating_'
'hotels'
'g'
'combine_'
'bwi_'
'xi'
'ther_'
'register_'
'lessons_'
'house'
'eu_'
'dancers_'
'bly_'
'32'
'trick_'
'stables_'
'sleepy_'
'seasonal_'
'pad_'
'materials_'
'manages_'
'luis_'
'kil'
'jumped_'
'incl_'
'cutting_'
'corniche_'
'16'
'whiskey_'
'myanmar_'
'memorabilia_'
'kingdom_'
'homey_'
'girlfriend_'
'etc'
'unattractive_'
'supposedly_'
'styled_'
'stumbled_'
'sainsbury_'
'qui'
'matterhorn_'
'inle_'
'ington_'
'hd_'
'egypt_'
'drapes_'
'dar'
'' _'
' ? ) ._'
'zi'
'suv_'
'shin'
'quayside_'
'olde_'
'hotelit_'
'flats_'
'compliment_'
'utilized_'
'sterile_'
'spouse_'
'sept_'
'reflection_'
'promise_'
'perkins_'
'passport_'
'metropolitan_'
'lt'
'humour_'
'gan_'
'fries_'
'erie_'
'continuing_'
'canoe_'
'bath'
'steel_'
'stag_'
'revellers_'
'receptionists_'
'ranks_'
'pollution_'
'muddy_'
'lavish_'
'glen'
'exist_'
'aviv_'
'audible_'
'zi_'
'world'
'san'
'prawns_'
'ou'
'ini_'
'favour_'
'downs_'
'clifton_'
'augustine_'
'archery_'
'acts_'
'terminus_'
'strike_'
'strangely_'
'squeeze_'
'south'
'sick_'
'passenger_'
'mahal_'
'land'
'ji'
'hiring_'
'fter_'
'croissant_'
'.(_'
'west'
'robert_'
'recognized_'
'operators_'
'observe_'
'lafayette_'
'iphone_'
'infrastructure_'
'honolulu_'
'gan'
'critical_'
'citadel_'
'veggie_'
'tiled_'
'streetcar_'
'random_'
'privately_'
'periods_'
'messe_'
'mbk_'
'ikea_'
'holds_'
'hill'
'free'
'follows_'
'cy_'
'é_'
'oro_'
'metro'
'knoxville_'
'kata_'
'il'
'ensuite_'
'architecturally_'
'ad'
'401_'
'seaworld_'
'scenes_'
'rodeo_'
'quad_'
'progress_'
'permitting_'
'palais_'
'owns_'
'nuisance_'
'locationand_'
'kuta_'
'jim_'
'faint_'
'browns_'
'ash'
'44_'
'2007_'
'14'
'wa'
'thunder_'
'snowy_'
'shire_'
'ru'
'metered_'
'itthe_'
'gamble_'
'flagstaff_'
'divers_'
'competent_'
'avignon_'
'ak_'
'withing_'
'ties_'
'restoration_'
'nap_'
'monte'
'limits_'
'ine'
'ee'
'dragging_'
'content_'
'cocoa_'
'circumstances_'
'apprehensive_'
'35'
'yr_'
'that'
'rydges_'
'pe'
'norwich_'
'mains_'
'ken'
'indulge_'
'freely_'
'dan_'
'consistency_'
'bizarre_'
'battle_'
'aspen_'
'yesterday_'
'ware_'
'trout_'
'te'
'tan_'
'rundown_'
'robson_'
'preferences_'
'pics_'
'palo_'
'mu'
'macdonald_'
'mac'
'ls'
'int_'
'grandson_'
'grandchildren_'
'fest_'
'ei_'
'celebrated_'
'alo'
'ale'
'u'
'tea'
'sau'
'santorini_'
'romance_'
'robe_'
'roadhouse_'
'han_'
'ger_'
'ged_'
'boise_'
'bo_'
'airportbut_'
'them'
'sy_'
'stairway_'
'scar'
'ruth_'
'recognition_'
'rangers_'
'pricier_'
'ory_'
'ore_'
'minimalist_'
'ir'
'gala_'
'entertain_'
'dresden_'
'deposit_'
'crossed_'
'.'
'tiki_'
'teens_'
'rundle_'
'ranges_'
'parkland_'
'ome_'
'mur'
'keswick_'
'ili'
'electronics_'
'disaster_'
'danish_'
'conventions_'
'bus'
'brugge_'
'blew_'
'slippery_'
'sisters_'
'porters_'
'mis'
'hastings_'
'derby_'
'commons_'
'skies_'
'scallops_'
'salem_'
'rounds_'
'prado_'
'population_'
'nig'
'my'
'limerick_'
'josef_'
'hide_'
'fusion_'
'correctly_'
'confirmation_'
'tt_'
'township_'
'tony_'
'tive_'
'sail_'
'restaurant'
'priceless_'
'pebble_'
'ke'
'introduced_'
'fond_'
'dusseldorf_'
'downfall_'
'den'
'beachbut_'
'stair_'
'someday_'
'somebody_'
'mas'
'indi'
'inch_'
'impeccably_'
'gigantic_'
'dar_'
'break'
'bkk_'
'airportso_'
'understanding_'
'understandable_'
'tooth_'
'sus'
'rule_'
'mosquitos_'
'masses_'
'eri'
'equivalent_'
'coles_'
'cigar_'
'campground_'
'barbados_'
'watersports_'
'nighttime_'
'lag_'
'joke_'
'greets_'
'gar'
'ea_'
'conducive_'
'cod_'
'bozeman_'
'bearings_'
'whistler_'
'spencer_'
'shibuya_'
'ramps_'
'puerta_'
'ni'
'moreover_'
'lewis_'
'ko'
'ip'
'hagia_'
'forms_'
'fleet_'
'federal_'
'cy'
'cinque_'
'bathrobes_'
'ala'
'aim_'
'11'
'station'
'shocked_'
'players_'
'performing_'
'much'
'id'
'goal_'
'compete_'
'als_'
'advisable_'
'31'
'udaipur_'
'scrumptious_'
'restaurants'
'rafting_'
'noisey_'
'mongkok_'
'mod_'
'ku'
'killer_'
'checkpoint_'
'cava_'
'camp'
'bogota_'
'bahia_'
'also'
' ! ! )_'
'vin_'
'souk_'
'satisfaction_'
'ruined_'
'pesos_'
'ownership_'
'moines_'
'midweek_'
'kauai_'
'fighting_'
'characterful_'
'broke_'
'bro'
'academy_'
'50th_'
'waverley_'
'systems_'
'southwark_'
'res_'
'panel_'
'marta_'
'je'
'hugely_'
'hay_'
'ear'
'dump_'
'chesterfield_'
'balloon_'
'balinese_'
'tions_'
'technology_'
'sunlight_'
'runners_'
'ron_'
'roadbut_'
'powder_'
'northeast_'
'negril_'
'lava_'
'hostel_'
'effortless_'
'cro'
'brochures_'
'bla'
'andthere_'
'wall'
'toys_'
'see'
'sculpture_'
'portuguese_'
'ly'
'ily_'
'everytime_'
'decades_'
'curious_'
'centre'
'canapés_'
'37_'
'ws_'
'wai'
'seatac_'
'refurb_'
'preparing_'
'lesson_'
'grim_'
'glamorous_'
'footbridge_'
'es'
'durango_'
'circles_'
'boating_'
'bit'
'bab'
'antelope_'
'adjust_'
'adina_'
' … ._'
'tay_'
'launch_'
'ite_'
'ight_'
'guidance_'
'gazing_'
'faded_'
'center'
'bypass_'
'za'
'vermont_'
'valued_'
'rouge_'
'lover_'
'ino_'
'gh_'
'edmonton_'
'corn_'
'con'
'chateaux_'
'cent_'
'boat'
'wearing_'
'thatched_'
'stephen_'
'postcard_'
'pizzeria_'
'oban_'
'nova_'
'loose_'
'kona_'
'kerry_'
'indianapolis_'
'exudes_'
'director_'
'del'
'conversion_'
'way'
'sole_'
'refresh_'
'positano_'
'populated_'
'noodles_'
'karon_'
'glance_'
'at'
'100'
'stranded_'
'soundproof_'
'skipped_'
'sampled_'
'rock'
'retired_'
'rain'
'que'
'purple_'
'pressed_'
'petit_'
'involves_'
'humidity_'
'heartily_'
'colony_'
'cen'
'bag'
'age'
'94_'
'task_'
'man'
'lone_'
'israel_'
'coo'
'confidence_'
'brochure_'
'anti'
'williams_'
'ventilation_'
'tri'
'responsive_'
'prom_'
'pig_'
'payment_'
'parking'
'ously_'
'mayo_'
'laying_'
'kiev_'
'kenya_'
'flair_'
'clo'
'89_'
' ; - _'
' .– _'
'year'
'wright_'
'varadero_'
'thoughts_'
'sunrises_'
'suffered_'
'stretches_'
'spaced_'
'remodel_'
'ok'
'obtain_'
'maintaining_'
'legendary_'
'leaf_'
'imaginable_'
'honor_'
'engine_'
'dover_'
'deserts_'
'brothers_'
'waterway_'
'views'
'vegetarians_'
'truth_'
'tariff_'
'tan'
'solved_'
'pol'
'pin_'
'palaces_'
'leopards_'
'learning_'
'langham_'
'kir'
'hin'
'ges_'
'battlefield_'
'bagel_'
'anaheim_'
'£ _'
'yum_'
'varying_'
'tulum_'
'ton'
'stove_'
'shu'
'relations_'
'port'
'mer'
'doctor_'
'conscious_'
'connaught_'
'camel_'
'applebees_'
' . '
'users_'
'shadow_'
'scott_'
'savoy_'
'onwards_'
'oct_'
'nick_'
'lido_'
'continuous_'
'consequently_'
'cia_'
'buffett_'
'artists_'
'arthur_'
'199'
'wired_'
'weather'
'sti'
'spe'
'scruffy_'
'screened_'
'rises_'
'participate_'
'montego_'
'marais_'
'like'
'jer'
'ia'
'hertz_'
'greatthe_'
'greatbut_'
'caldera_'
'90'
'24th_'
'whistle_'
'viking_'
'vail_'
'user_'
'tank_'
'sabi_'
'reat_'
'quibble_'
'meadows_'
'lso_'
'laugh_'
'freight_'
'cow'
'bourke_'
'bothersome_'
'blo'
'birding_'
'24hr_'
'toaster_'
'short'
'seas_'
'rink_'
'ret'
'overview_'
'noodle_'
'ithaca_'
'individually_'
'eand_'
'bukit_'
'bryant_'
'architect_'
'affords_'
'41'
'13'
'yangon_'
'valuable_'
'tribute_'
'tanzania_'
'referred_'
'lin'
'illuminated_'
'hen'
'from'
'fresco_'
'die'
'cheltenham_'
' ? ?_'
'tender_'
'strategic_'
'nights'
'napier_'
'nang_'
'm25_'
'locks_'
'interlaken_'
'granite_'
'flexible_'
'caveat_'
'brandenburg_'
'ber_'
'audience_'
'whistles_'
'paso_'
'mushroom_'
'is'
'ical_'
'hummingbirds_'
'fine'
'dor'
'bad'
'awards_'
'ani'
'ang_'
'20'
' ......._'
'ti'
'staythe_'
'ron'
'provisions_'
'interaction_'
'incline_'
'gat'
'fishermans_'
'cambodia_'
'blends_'
'sand'
'rows_'
'pattaya_'
'mos'
'interests_'
'had'
'frig_'
'clever_'
'calais_'
'alexander_'
'130_'
'weekly_'
'stretching_'
'seaplane_'
'sac_'
'ort_'
'loire_'
'heck_'
'gettysburg_'
'functioning_'
'ethnic_'
'choice'
'ber'
'ali'
'again'
'aba'
'tro'
'tier_'
'outrageous_'
'mounted_'
'mauritius_'
'lol_'
'frame_'
'fewer_'
'escalators_'
'cnn_'
'ade'
'accomodating_'
'absence_'
'ved_'
'ub'
'tomorrow_'
'thi'
'stuttgart_'
'shock_'
'seward_'
'rye_'
'roosevelt_'
'remove_'
'ranked_'
'placa_'
'nagoya_'
'metre_'
'goodness_'
'goings_'
'dusit_'
'coloured_'
'booth_'
'belle_'
'bearing_'
'ably_'
'sy'
'rt'
'restaraunts_'
'recognize_'
'permits_'
'kent_'
'immense_'
'hours'
'cumberland_'
'crannies_'
'ch'
'born_'
'bel'
' - '
'woodstock_'
'scooter_'
'organising_'
'murano_'
'mi'
'luton_'
'lord_'
'insects_'
'cowboy_'
'corn'
'bintang_'
'arusha_'
'05_'
'unnecessary_'
'steal_'
'standout_'
'stairwell_'
'slap_'
'scent_'
'sapporo_'
'ripped_'
'remaining_'
'peppers_'
'overrun_'
'mini'
'mantra_'
'gal'
'for'
'fo'
'fat_'
'cobblestone_'
'brave_'
' ~ _'
'welsh_'
'townhouse_'
'st'
'snow'
'sal'
'remodeling_'
'preferring_'
'papers_'
'mandalay_'
'joshua_'
'imaginative_'
'expert_'
'drawing_'
'desks_'
'criteria_'
'crepes_'
'squirrels_'
'savings_'
'preserve_'
'potentially_'
'pavillion_'
'patience_'
'ms'
'mineral_'
'inc_'
'hed_'
'harbour'
'hand'
'gbp_'
'ey'
'dart_'
'combo_'
'big'
'beatles_'
'welcomes_'
'tai'
'study_'
'rs'
'remind_'
'pre'
'people'
'now'
'myers_'
'morning'
'mc_'
'installed_'
'inn'
'ig'
'hilo_'
'float_'
'feelings_'
'era'
'eagles_'
'ds'
'depth_'
'cutlery_'
'boca_'
'blenheim_'
'bi'
'ano'
'anda'
'well'
'thrown_'
'stained_'
'rest'
'refused_'
'lankan_'
'grew_'
'fla'
'firepit_'
'fa'
'else'
'competitors_'
'castle'
'boarded_'
'bamboo_'
'aka_'
'ain'
'againi_'
'admiring_'
'140_'
'. '
'wishes_'
'van'
'unfamiliar_'
'struggling_'
'prayer_'
'parisian_'
'milano_'
'hail_'
'fur'
'famed_'
'chi'
'canapes_'
'bul'
'boom_'
'automatically_'
'ards_'
'access'
'walk'
'singers_'
'raffles_'
'president_'
'pisa_'
'peri'
'oversized_'
'mall'
'koh_'
'hotelthis_'
'darkness_'
'cattle_'
'bug_'
'argentina_'
'ultimately_'
'swa'
'scores_'
'researched_'
'pioneer_'
'parque_'
'ori'
'mint_'
'farmer_'
'experience'
'electricity_'
'carlsbad_'
'blind_'
'bayside_'
'balls_'
'authority_'
'assorted_'
'aria_'
'22'
'yn_'
'torch_'
'tempting_'
'redone_'
'mrs_'
'minded_'
'koi_'
'fitting_'
'ering_'
'ela_'
'drunken_'
'dri'
'colleges_'
'clearing_'
'cally_'
'buti_'
'bled_'
'aw'
'alas_'
'aa_'
'whi'
'victor_'
'tuscan_'
'tranquillity_'
'technically_'
'storms_'
'singles_'
'pp'
'park'
'necessities_'
'navigation_'
'luxe_'
'loo_'
'kc_'
'giraffes_'
'fear_'
'cutter_'
'bur'
'2000_'
'up'
'trolleys_'
'trafford_'
'toulouse_'
'territory_'
'shenzhen_'
'refined_'
'recoleta_'
'pune_'
'nit'
'nassau_'
'drank_'
'device_'
'arab_'
'alleys_'
'22nd_'
'takayama_'
'surpassed_'
'ree'
'pen'
'lovingly_'
'lloyd_'
'jimmy_'
'ger'
'ge'
'down'
'docklands_'
'carrefour_'
'bats_'
'am'
'30min_'
'use'
'underpass_'
'tuktuk_'
'toddler_'
'swans_'
'sleep'
'searched_'
'p'
'ny'
'midday_'
'michel_'
'maison_'
'judging_'
'inver'
'interstates_'
'institute_'
'ingles_'
'howler_'
'hippo_'
'fantastically_'
'fake_'
'estes_'
'drunks_'
'dia_'
'd'
'confident_'
'carved_'
'bow'
'alternate_'
'28th_'
'visitand_'
'trip'
'toby_'
'spa'
'restaraunt_'
'll'
'ker'
'ie'
'ft'
'cupboard_'
'commend_'
'citadines_'
'babies_'
'ark_'
' " . _'
'yds_'
'vol'
'vegan_'
'spoken_'
'spar_'
'sor'
'smoothies_'
'sian_'
'show'
'shoe_'
'shinkansen_'
'sanur_'
'maritime_'
'lia_'
'les'
'isla_'
'imagined_'
'high'
'gig_'
'fran_'
'fira_'
'fi'
'des'
'cs_'
'challenges_'
'ben'
'51'
'wary_'
'volcanic_'
'updates_'
'sheet_'
'rothenburg_'
'moo'
'ken_'
'hartford_'
'h'
'greece_'
'glow_'
'fairbanks_'
'enable_'
'drawer_'
'areai_'
'49_'
'war'
'transformed_'
'tai_'
'some'
'sandton_'
'rewarded_'
'places'
'open'
'noisy'
'morro_'
'mitte_'
'holy_'
'har'
'esta'
'el'
'bei'
'79_'
'24'
' . . ._'
'were'
'structures_'
'spiral_'
'seventh_'
'rom_'
'roadway_'
'presents_'
'preparation_'
'pong_'
'nti'
'kit_'
'kerala_'
'greenville_'
'good'
'flip_'
'farthest_'
'excelsior_'
'dupont_'
'dislike_'
'bat'
'assumed_'
'zayed_'
'zan'
'uni_'
'sundowner_'
'sto'
'reception'
'posts_'
'op'
'muesli_'
'hum_'
'freezer_'
'dried_'
'bru'
'bin_'
'all'
' : '
'visa_'
'vas'
'tt'
'talented_'
'sse'
'simon_'
'satellite_'
'roses_'
'pt_'
'montparnasse_'
'lon_'
'lan'
'key'
'hiked_'
'floor'
'defense_'
'decently_'
'ban'
'annoyance_'
' .-- _'
'ura'
'unpretentious_'
'uma'
'tar_'
'sunbathe_'
'sts_'
'somerset_'
'plo'
'pantheon_'
'paddy_'
'minh_'
'increase_'
'home'
'family'
'facial_'
'ently_'
'elected_'
'dong_'
'distinct_'
'delicacies_'
'dean_'
'catamaran_'
'boulders_'
'anthony_'
'ando'
'adequately_'
'work'
'wisconsin_'
'thankyou_'
'stop'
'stadiums_'
'shine_'
'sharm_'
'selecting_'
'providence_'
'pel'
'oe'
'nondescript_'
'kon'
'iced_'
'dune_'
'christian_'
'central'
'beaver_'
'assistant_'
'ash_'
' )'
'visually_'
'thu'
'sar'
'rb'
'pineapple_'
'nikko_'
'neu'
'ner'
'mun'
'kentucky_'
'insisted_'
'explanation_'
'eric_'
'engines_'
'economy_'
'cre'
'cara'
'butwe_'
'business'
'busch_'
'browse_'
'beaune_'
'bb'
'attractions'
'200'
'08_'
' .; _'
'wal'
'tun'
'shrewsbury_'
'ran'
'photography_'
'obscured_'
'mushrooms_'
'long'
'ile_'
'furthermore_'
'ets_'
'detached_'
'dear_'
'dating_'
'dairy_'
'contrary_'
'commanding_'
'clark_'
'civil_'
'bud'
'belt_'
'baker_'
'avail_'
'acadia_'
'42'
' ! - _'
' !'
'va'
'utilize_'
'shortcomings_'
'sao_'
'ros'
'rolled_'
'met'
'martini_'
'hydro_'
'funeral_'
'fly'
'excellant_'
'drab_'
'discovering_'
'deb'
'cows_'
'comings_'
'chatsworth_'
'charlottesville_'
'army_'
'apollo_'
'aga'
'zu'
'villa'
'veggies_'
't'
'rico_'
'provence_'
'organize_'
'obstructed_'
'nasty_'
'moose_'
'money'
'merely_'
'hesitant_'
'glowing_'
'fronting_'
'em_'
'elaborate_'
'cosmopolitan_'
'blues_'
'baboons_'
'é'
'yed_'
'yand_'
'var'
'sim'
'si'
'shops'
'sen_'
'preferable_'
'plazas_'
'ljubljana_'
'law'
'kanazawa_'
'grange_'
'fry_'
'flexibility_'
'fied_'
'courthouse_'
'chaise_'
'centraal_'
'campo_'
'anau_'
'aa'
'52'
'06_'
'zing_'
'windermere_'
'tastings_'
'suddenly_'
'soundproofed_'
'sheikh_'
'rk_'
'recommended'
'pelican_'
'oo_'
'nevada_'
'neighbour_'
'natchez_'
'ked_'
'insight_'
'dayton_'
'damage_'
'cur'
'bat_'
'backwards_'
'backing_'
'ai'
'2006_'
'values_'
'terra_'
'stro'
'smokey_'
'sincere_'
'seal_'
'rose'
'premise_'
'password_'
'overs'
'gra'
'fe'
'evidence_'
'escort_'
'elysees_'
'cameras_'
'bhutan_'
'around'
' @_'
'wood'
'will'
'view'
'utensils_'
'this'
'secondary_'
'pampering_'
'os'
'nov_'
'niceand_'
'kolkata_'
'individuals_'
'human_'
'fauna_'
'expanse_'
'downtown'
'doorand_'
'casita_'
'blackfriars_'
'?_'
'160_'
'xa'
'uncrowded_'
'tomato_'
'tire_'
'shelter_'
'restrictions_'
'ram'
'rabbits_'
'proofed_'
'pin'
'moni'
'matches_'
'legoland_'
'ite'
'elegantly_'
'dryers_'
'course'
'cote_'
'c'
'bubbly_'
'binoculars_'
'bangor_'
'austria_'
'alleyway_'
'wonderfull_'
'wasted_'
'warn_'
'vacant_'
'solitude_'
'skating_'
'risotto_'
'pnc_'
'lonely_'
'io'
'iguanas_'
'guessing_'
'gua'
'festivities_'
'extent_'
'ered_'
'dul'
'did'
'developing_'
'clarke_'
'churchill_'
'bldg_'
'blankets_'
'barcelo_'
'ama'
'adeje_'
'40th_'
'26th_'
' !- _'
'ythe_'
'ys'
'youth_'
'yachts_'
'volcanoes_'
'reduce_'
'promotion_'
'prominent_'
'outside'
'ns'
'lind'
'incheon_'
'franschhoek_'
'every'
'erg_'
'compensated_'
'chengdu_'
'buckhead_'
'alcazar_'
'agents_'
'wilmington_'
'vey_'
'ul'
'ss'
'shakespeare_'
'robin_'
'olo'
'nightand_'
'municipal_'
'miserable_'
'miguel_'
'mezzanine_'
'lisa_'
'lea'
'innovative_'
'fan'
'eu'
'eo'
'deadwood_'
'cruising_'
'coliseum_'
'coast'
'cityand_'
'busy'
'bowls_'
'awakened_'
'wonderful'
'vines_'
'venison_'
'sticks_'
'sicily_'
'sec'
'ry'
'property'
'prison_'
'pennsylvania_'
'pdx_'
'mystery_'
'may'
'loving_'
'lengths_'
'honfleur_'
'harrods_'
'gaze_'
'farms_'
'delightfully_'
'convinced_'
'commuter_'
'canterbury_'
'briefly_'
'bee'
'az_'
'areawe_'
'arabic_'
'59_'
'whitby_'
'ven_'
'steeped_'
'saunas_'
'represented_'
'pun'
'pea'
'modernised_'
'mani'
'ku_'
'ious_'
'iffy_'
'hy'
'experienceand_'
'deter_'
'centara_'
'cala_'
'beautiful'
'350_'
'wonders_'
'unexpectedly_'
'tian'
'son'
'ski'
'potsdamer_'
'nw_'
'nt'
'nds_'
'ming_'
'mala'
'insist_'
'hes_'
'gloomy_'
'formula_'
'ez_'
'extends_'
'evans_'
'enhance_'
'east'
'earned_'
'dreary_'
'cul_'
'croatia_'
'cleaners_'
'bratislava_'
'bones_'
'aya_'
'zo'
'zagreb_'
'wis'
'ur'
'pool'
'ornate_'
'magazines_'
'linger_'
'laos_'
'ju'
'hot'
'golfer_'
'ena'
'elo'
'ed'
'distance'
'diet_'
'deira_'
'changi_'
'bow_'
'amish_'
'yo'
'westerns_'
'voices_'
'sintra_'
'sign'
'ow'
'nan'
'movement_'
'moana_'
'milford_'
'message_'
'mansions_'
'lat'
'kilda_'
'kasbah_'
'karen_'
'hil'
'harvard_'
'flown_'
'evening'
'dir'
'whoever_'
'waits_'
'transiting_'
'tour'
'tacos_'
'results_'
'record_'
'per'
'mode_'
'migration_'
'marsh_'
'lesser_'
'kings'
'kal'
'jefferson_'
'ics_'
'gu'
'gri'
'footsteps_'
'canyons_'
'altstadt_'
'advertise_'
'93_'
' .+ _'
'wrapped_'
'tick_'
'tee_'
'sir_'
'shop'
'sherry_'
'reserving_'
'physically_'
'petronas_'
'ora'
'oh'
'ne'
'marbella_'
'macdonalds_'
'lavender_'
'inter'
'indiana_'
'inches_'
'hordes_'
'harris_'
'ghent_'
'fashionable_'
'commuting_'
'ches_'
'bites_'
'altitude_'
'alright_'
' ' - _'
'wheels_'
'wallet_'
'ui'
'tou'
'sky'
'service'
'sche'
'scaffolding_'
'rein'
'receptions_'
'printers_'
'por'
'paphos_'
'ol'
'nation_'
'moonstone_'
'minutes'
'ja'
'hash_'
'generously_'
'finds_'
'etna_'
'dur'
'corte_'
'claims_'
'ci_'
'carnival_'
'car'
'boyfriend_'
'ashford_'
'ammenities_'
'airstrip_'
'190'
'stat'
'samui_'
'sampling_'
'raise_'
'jun'
'imo_'
'green'
'gems_'
'fiesta_'
'een_'
'ace_'
'yarra_'
'walking'
'tub'
'stationso_'
'spicy_'
'slower_'
'rn'
'pueblo_'
'prove_'
'pot'
'pet'
'outing_'
'manyara_'
'mac_'
'lunch'
'ives_'
'hol'
'hh_'
'head'
'distinctive_'
'daunting_'
'cs'
'cer'
'ava'
'aid_'
'24hrs_'
'yp'
'tre'
'sue_'
'slo'
'picadilly_'
'pi'
'pala'
'lasted_'
'infront_'
'hei'
'han'
'fillet_'
'entrees_'
'dingy_'
'bout_'
'attractively_'
'appetizer_'
' ' '
'vieux_'
'turn'
'sol'
'roomand_'
'ranking_'
'proceeded_'
'photograph_'
'moor_'
'men'
'lagoons_'
'kuala_'
'gh'
'frankie_'
'fold_'
'factors_'
'dl'
'der'
'declined_'
'brazilian_'
'ate'
'aero'
'33'
'timei_'
'thro'
'terraced_'
'sthis_'
'sea'
'schiphol_'
'scarborough_'
'renowned_'
'quoted_'
'princeton_'
'od'
'lifestyle_'
'kuwait_'
'indonesia_'
'impala_'
'hated_'
'haddock_'
'gre'
'granddaughter_'
'everything'
'essence_'
'di'
'continually_'
'brian_'
'b'
'auberge_'
'ast_'
'-$_'
'yelling_'
'tacoma_'
'sc_'
'ruin_'
'rg_'
'rested_'
'rea'
'parkingbut_'
'lodgings_'
'light'
'len'
'kremlin_'
'kinsale_'
'karaoke_'
'fraser_'
'els_'
'do'
'definetely_'
'bor'
'belly_'
'anywhere'
'amarillo_'
' .& _'
'woodlands_'
'staywe_'
'stark_'
'sou'
'separating_'
'seaport_'
'pays_'
'om'
'miniature_'
'mana'
'ka'
'ible_'
'gray_'
'ginger_'
'gate'
'formed_'
'fairness_'
'crammed_'
'cos_'
'chelly_'
'cheery_'
'causing_'
'window'
'therapy_'
'stal'
'spi'
'speakers_'
'putt_'
'prix_'
'play'
'nea'
'maids_'
'magazine_'
'li'
'lar'
'iness_'
'honking_'
'hindsight_'
'drum_'
'dra'
'coat_'
'claustrophobic_'
'boma_'
'batteries_'
'adi'
'72_'
' ........_'
'ymca_'
'wonderland_'
'walkbut_'
'visual_'
'sufficiently_'
'sting_'
'seasoned_'
'ral'
'pra'
'ola'
'nightclubs_'
'midlands_'
'jobs_'
'francis_'
'fire'
'ea'
'don'
'directing_'
'dependable_'
'depend_'
'benidorm_'
'artifacts_'
'amazing'
'adjoins_'
'- '
'wyoming_'
'usand_'
'unobtrusive_'
'tie_'
'thousand_'
'than'
'surreal_'
'strawberry_'
'specialties_'
'sparse_'
'shirt_'
'rumble_'
'ronda_'
'responded_'
'nor'
'itza_'
'integrated_'
'ib'
'hq_'
'holiday'
'gordon_'
'fails_'
'environs_'
'digital_'
'che_'
'behaved_'
'base'
'annapolis_'
'ua_'
'trans_'
'sta'
'seniors_'
'questionable_'
'polished_'
'pointe_'
'lite_'
'lab'
'justify_'
'jan'
'indy_'
'expanded_'
'dro'
'drawers_'
'dakota_'
'casitas_'
'amazon_'
'againthis_'
' " ) _'
'whit'
'twelve_'
'stone'
'songs_'
'shift_'
'powered_'
'lighter_'
'iah_'
'have'
'glaciers_'
'fishermen_'
'eau_'
'dy'
'dissapointed_'
'concession_'
'av_'
'arbor_'
'anyways_'
' ... ) ._'
' ) ..._'
'ye_'
'vine_'
'ung'
'trading_'
'timber_'
'taka'
'sour_'
'shower'
'qu'
'par'
'ona'
'ocean'
'nyhavn_'
'nearby'
'marginal_'
'lucas_'
'london'
'lobbies_'
'glo'
'foot'
'ew'
'dca_'
'cornell_'
'continuously_'
'chatted_'
'cents_'
'biz_'
'andy_'
'amusing_'
'[ _'
'websites_'
'thoughtfully_'
'teen_'
'subtle_'
'seagulls_'
'ringing_'
'programs_'
'pitt_'
'pit'
'nal_'
'mt'
'more'
'measure_'
'manu'
'lisboa_'
'lie'
'iowa_'
'inadequate_'
'hassles_'
'generic_'
'freshen_'
'familia_'
'easy'
'cool'
'buc'
'zambezi_'
'visit'
'tta_'
'truely_'
'traffic'
'thankful_'
'supplement_'
'staycation_'
'sommelier_'
'shar'
'sarasota_'
'sagrada_'
'royale_'
'ring'
'resulting_'
'petersburg_'
'llandudno_'
'dog'
'dives_'
'crocodile_'
'copy_'
'configuration_'
'civic_'
'chargeable_'
'beale_'
'ans'
'amounts_'
' ) .'
'varanasi_'
'switches_'
'shake_'
'routine_'
'repetitive_'
'pillars_'
'neon_'
'mind'
'maggiore_'
'lug_'
'lausanne_'
'ks'
'kids'
'judge_'
'jammed_'
'inter_'
'humming_'
'hiltons_'
'helpfull_'
'hard'
'grassed_'
'forests_'
'finishes_'
'ene'
'eas'
'complexes_'
'cleanest_'
'chichen_'
'beacon_'
'bara'
'ba'
'zebras_'
'worldwide_'
'vale_'
'ua'
'ts'
'tri_'
'slow'
'skywalk_'
'sing'
'reccommend_'
'organisation_'
'or'
'off'
'obtained_'
'noosa_'
'lanzarote_'
'jason_'
'grant_'
'gently_'
'fer'
'ever'
'edward_'
'dia'
'cubs_'
'crews_'
'case'
'br_'
'beau_'
'au'
'aqua'
'( '
' &_'
'yi_'
'unremarkable_'
'twist_'
'tur'
'tikal_'
'ter'
'tam'
'swimmers_'
'sundowners_'
'strolled_'
'stationand_'
'santo_'
'reviewing_'
'researching_'
'rese'
'pocket_'
'ph'
'part'
'nola_'
'nai'
'mins'
'ld_'
'lac'
'intimidating_'
'image_'
'ham'
'groupon_'
'global_'
'duluth_'
'ct'
'cite_'
'carries_'
'behold_'
'ö'
'yi'
'vely_'
'shad'
'saratoga_'
'sanibel_'
'river'
'qualities_'
'pushing_'
'ponte_'
'nter'
'nook_'
'murray_'
'manuel_'
'lyft_'
'lb'
'kin'
'ically_'
'i'
'hy_'
'gorilla_'
'gle'
'exists_'
'europa_'
'chal'
'bavarian_'
' ) -_'
'years'
'wholeheartedly_'
'unc'
'summer'
'strictly_'
'soups_'
'showering_'
'replace_'
'rarity_'
'porta_'
'newish_'
'mendocino_'
'mans_'
'lugging_'
'hs'
'fu'
'ferrari_'
'drying_'
'daytona_'
'copper_'
'compromise_'
'catalina_'
'brits_'
'atms_'
'arguably_'
'ana'
'27th_'
'yuan_'
'topkapi_'
'th'
'tennessee_'
'streetbut_'
'seclusion_'
'sandwiched_'
'sab'
'rich'
'rhinos_'
'pic'
'observed_'
'lumpur_'
'lla'
'kippers_'
'joseph_'
'incident_'
'greenwich_'
'faults_'
'ere'
'eno'
'en'
'embassies_'
'doorway_'
'decked_'
'cra'
'candle_'
'butit_'
'blue'
'bloody_'
'berries_'
'71_'
' : ( _'
'ü'
'whitefish_'
'vet'
'unlucky_'
'turndown_'
'tic'
'roar_'
'positively_'
'pasadena_'
'own'
'nye_'
'msp_'
'mat_'
'mar'
'lee'
'lag'
'ky'
'keurig_'
'hook_'
'fast'
'excellent'
'eaton_'
'eat'
'bradford_'
'artist_'
'4x4_'
' ” , _'
'travel'
'tin'
'steady_'
'square'
'sla'
'reference_'
'potter_'
'pis'
'passionate_'
'ona_'
'med'
'mallory_'
'hospitals_'
'grafton_'
'gel_'
'eureka_'
'dragon_'
'bon'
'bistros_'
'andrews_'
'01_'
') ._'
'windhoek_'
'vit'
'unloaded_'
'tunnels_'
'tomatoes_'
'store'
'sna'
'resort'
'reluctant_'
'ras_'
'pm'
'ple'
'piers_'
'paro_'
'midi_'
'lizards_'
'itself'
'grow_'
'gamla_'
'dn'
'cyprus_'
'cushions_'
'counts_'
'consisting_'
'cheap'
'butterfly_'
'ating_'
'09_'
' , ' _'
'vilnius_'
'unesco_'
'terrain_'
'shopping'
'sho'
'shard_'
'rit'
'recover_'
'optional_'
'millenium_'
'maneuver_'
'hammersmith_'
'garden'
'ensures_'
'dundee_'
'bars'
'ar'
'aldi_'
'air'
' - $ _'
'wy'
've'
'trident_'
'travelzoo_'
'tar'
'sad'
'rec'
'postcode_'
'polish_'
'piping_'
'pad'
'ous'
'ont_'
'offs_'
'ngly_'
'nar'
'mammoth_'
'louder_'
'kra'
'harrisburg_'
'goose_'
'gelato_'
'gaming_'
'friendly'
'flaws_'
'cc_'
'belgium_'
'bel_'
'awaiting_'
'answering_'
'ak'
'val_'
'tracking_'
'to'
'ten'
'taxi'
'sr'
'sak'
'reims_'
'profile_'
'po'
'michelle_'
'mccormick_'
'longest_'
'knocked_'
'kha'
'ignored_'
'ice'
'hl'
'ganges_'
'fooled_'
'escapes_'
'ect_'
'disconcerting_'
'centrale_'
'cay'
'atocha_'
'advertising_'
'accomodate_'
'91_'
'45'
'yours_'
'warner_'
'wanna_'
'tu'
'sooner_'
'sm_'
'sloping_'
'sher'
'oysters_'
'owl_'
'novel_'
'montgomery_'
'makati_'
'linda_'
'life'
'lands'
'hall'
'find'
'ethe_'
'cul'
'cheaply_'
'amman_'
'125_'
'watch'
'usly_'
'train'
'tb'
'small'
'siesta_'
'shirts_'
'offsite_'
'monsoon_'
'mala_'
'log'
'located'
'lang'
'kun'
'incidentally_'
'hr'
'hopes_'
'hbf_'
'gran'
'fab'
'definitively_'
'cri'
'barbeque_'
'aud'
'amid_'
'2005_'
' ' ( _'
'wembley_'
'warthogs_'
'starbuck_'
'renovating_'
'reg'
'point'
'pavements_'
'ling'
'jolla_'
'gal_'
'formations_'
'etosha_'
'crowded'
'compares_'
'chu'
'burbank_'
'ww'
'weekend'
'vic_'
'torres_'
'steam'
'slick_'
'sin'
'runner_'
'rancho_'
'plat'
'permitted_'
'nly_'
'nets_'
'mason_'
'lotus_'
'ies'
'handily_'
'elevation_'
'cost'
'butlers_'
'attendees_'
'armchairs_'
'alice_'
'adams_'
'a4'
'wait'
'tigers_'
'shines_'
'sevilla_'
'se'
'salsa_'
'round'
'recreational_'
'py_'
'prepaid_'
'ottoman_'
'ons'
'noice_'
'nes'
'mont'
'mes'
'lcd_'
'kew_'
'idaho_'
'ho'
'grub_'
'gha'
'gentlemen_'
'ff'
'emphasis_'
'dvds_'
'dot_'
'creepy_'
'cn_'
'chin'
'chess_'
'bou'
'aro'
'aging_'
'ado_'
'www_'
'wins_'
'wilson_'
'wifi'
'tree'
'tet'
'ssi'
'shoulder_'
'runways_'
'roo'
'reli'
'prevented_'
'patties_'
'parlor_'
'options'
'north'
'murals_'
'mill'
'lobby'
'letter_'
'ique_'
'gras_'
'gil'
'generator_'
'download_'
'departs_'
'corinthia_'
'chile_'
'chap'
'bull'
'bol'
'ao'
' .£ _'
' ( € _'
'winds'
'vis'
'upcoming_'
'unreliable_'
'tuna_'
'torn_'
'symphony_'
'spur_'
'rds_'
'planted_'
'permanent_'
'ped'
'lou'
'ities_'
'goo'
'golf'
'full'
'ffe'
'epcot_'
'egyptian_'
'eater_'
'damp_'
'competing_'
'buzzy_'
'br'
'beds'
'bedford_'
' ? !_'
'zanzibar_'
'yl'
'with'
'vientiane_'
'vantage_'
'unparalleled_'
'tonic_'
'thorough_'
'table'
'surgery_'
'ston_'
'sd_'
'rp'
'reverse_'
'pat_'
'nat_'
'moan_'
'marred_'
'linden_'
'lay'
'knightsbridge_'
'jorge_'
'handling_'
'grotto_'
'go'
'form'
'drew_'
'dm'
'canoes_'
'cancel_'
'bills_'
'bellmen_'
'aggressive_'
'ado'
'yu'
'roy_'
'rai_'
'packing_'
'nut_'
'makeover_'
'luggages_'
'ij'
'goats_'
'error_'
'engaged_'
'cp_'
'corner'
'clay_'
'chf_'
'bon_'
'admission_'
'wel'
'urs_'
'ula'
'therebut_'
'sure'
'starred_'
'sei'
'scooters_'
'rn_'
'pompeii_'
'marg'
'lovely'
'lodge'
'locker_'
'kor'
'kilkenny_'
'kan'
'its'
'intense_'
'garda_'
'fri_'
'fantastic'
'entrance'
'donegal_'
'concord_'
'brightly_'
'breaker_'
'bothers_'
'ashland_'
'ari'
'annoyed_'
'aerobics_'
'ae'
'advertises_'
' . ) , _'
'ze'
'triomphe_'
'televisions_'
'ster'
'soller_'
'shark_'
'senses_'
'row'
'nted_'
'ml'
'manned_'
'leela_'
'hurt_'
'hs_'
'hel'
'hearst_'
'fun'
'fri'
'executed_'
'evi'
'court'
'congregate_'
'cla'
'cascade_'
'book'
'blaring_'
'applies_'
'andrea_'
'ambient_'
'worth'
'waitresses_'
'uluru_'
'rotana_'
'rook_'
'ree_'
'quirks_'
'nicebut_'
'mc'
'locationbut_'
'kin_'
'ita_'
'iga_'
'ide'
'hm'
'graciously_'
'geese_'
'fle'
'dre'
'ding'
'close'
'bloomsbury_'
'astonishing_'
'apt_'
'ands'
'advising_'
'acre_'
'accompanying_'
'ws'
'wild'
'whe'
'wer'
'ven'
'super'
'southeast_'
'sham'
'sees_'
'rhodes_'
'rdu_'
'prim'
'nis'
'nce'
'lucca_'
'joes_'
'identical_'
'hunter_'
'f1_'
'eb'
'draft_'
'dominated_'
'collecting_'
'bleak_'
'ald'
' )- _'
'• _'
'w'
'vote_'
'vel'
'stri'
'strasbourg_'
'roanoke_'
'rat_'
'rally_'
'pla'
'oceanside_'
'oa'
'mn_'
'mas_'
'loud'
'lc'
'kai'
'improving_'
'hyderabad_'
'hors_'
'hangout_'
'gardeners_'
'gallup_'
'faithful_'
'esp'
'eaters_'
'convienent_'
'context_'
'chennai_'
'cation_'
'cascades_'
'campbell_'
'bern_'
'aruba_'
'anxious_'
'aiport_'
'abc_'
'a1'
'43'
'07_'
'unspoilt_'
'though'
'tele'
'staring_'
'souks_'
'solely_'
'rou'
'retrieve_'
'plus'
'pies_'
'past'
'oval_'
'oscar_'
'nightthe_'
'mir'
'late'
'lake'
'itc_'
'gion_'
'galapagos_'
'everywhere'
'dietary_'
'dand_'
'cracking_'
'clue_'
'chee'
'cascais_'
'belongs_'
'apply_'
' , £ _'
'~_'
'yokohama_'
'wanaka_'
'ual_'
'sw_'
'stirling_'
'run'
'rosen_'
'requirement_'
'raw_'
'queuing_'
'owing_'
'listened_'
'jardin_'
'ire_'
'inclement_'
'goodwe_'
'def'
'cor'
'contributed_'
'comforting_'
'cinemas_'
'chit_'
'bi_'
'ago'
'61'
'yourselves_'
'walnut_'
'vi'
'urg_'
'uk'
'trou'
'tha'
'soon'
'oranges_'
'nick'
'miller_'
'mb_'
'mai'
'laze_'
'latte_'
'interact_'
'intention_'
'gun'
'glamour_'
'equiped_'
'drain_'
'coke_'
'coaching_'
'canteen_'
'beau'
'balanced_'
'abroad_'
'42nd_'
'/'
'ward_'
'unbearable_'
'splashing_'
'sorting_'
'sle'
'shin_'
'shan_'
'rossio_'
'repairs_'
'rebuilt_'
'outweigh_'
'oktoberfest_'
'nightbut_'
'nab'
'mate_'
'mario_'
'malecon_'
'lawrence_'
'kni'
'indonesian_'
'ility_'
'hut'
'furnishing_'
'days'
'cross'
'conservation_'
'birdlife_'
'bingo_'
'anchor_'
'alcove_'
'airconditioning_'
' ’ ._'
' ! ! ) ._'
'wine'
'wadi_'
'upto_'
'uil'
'transition_'
'stray_'
'stayi_'
'silicon_'
'sil'
'sainsburys_'
'rid_'
'rainier_'
'quick'
'pleasant'
'parkingand_'
'opulence_'
'oon_'
'meticulously_'
'maple_'
'involve_'
'inc'
'hoe'
'gracia_'
'complex'
'bum'
'bloom_'
'bee_'
'ari_'
'any'
'anne'
'ani_'
'york'
'wet'
'ush'
'ung_'
'terminal'
'stilts_'
'sore_'
'sm'
'skyscrapers_'
'shipping_'
'procedure_'
'orientated_'
'oni'
'oka'
'mil'
'low'
'lau'
'lar_'
'know'
'kala'
'hype_'
'he'
'hampshire_'
'dam'
'crispy_'
'clerks_'
'cing_'
'chief_'
'butter'
'blows_'
'ble'
'barbican_'
'ard'
'70s_'
'í'
'sic'
'seminar_'
'ros_'
'regina_'
'regal_'
'recommend'
'pepper_'
'pay'
'oman_'
'offset_'
'nowadays_'
'maintains_'
'lounge'
'laura_'
'khao_'
'itt'
'highway'
'gyms_'
'gurgaon_'
'gods_'
'fo_'
'flooded_'
'flaw_'
'flatscreen_'
'exceeds_'
'enclave_'
'designs_'
'dependent_'
'data_'
'dai'
'courtyard'
'cebu_'
'borghese_'
'best'
'ada_'
'52_'
'ust_'
'tn_'
'sodas_'
'recycling_'
'ratio_'
'other'
'muffin_'
'mena'
'kakadu_'
'ized_'
'ize_'
'ised_'
'increased_'
'ian'
'grabbing_'
'fit'
'ez'
'ex'
'diagonally_'
'desolate_'
'creatures_'
'charms_'
'casablanca_'
'buck'
'arenas_'
'airportthe_'
'109_'
' ( " _'
'yala_'
'vice_'
'usa'
'tor'
'through'
'ssa'
'soaked_'
'sia_'
'ross'
'pole_'
'patch_'
'pa'
'orient_'
'omi'
'meri'
'lh'
'jet'
'independently_'
'hints_'
'hearted_'
'gripes_'
'gardens'
'fishes_'
'exe'
'ella_'
'dab_'
'associates_'
'ane'
'69_'
'worrying_'
'uneventful_'
'uma_'
'trailers_'
'trail'
'thon_'
'tasteless_'
'streets'
'ste'
'sit'
'replacement_'
'ren'
'rad'
'qua'
'pete_'
'patchy_'
'osa_'
'opry_'
'ob'
'nie'
'muse_'
'lthough_'
'lily_'
'lemonade_'
'kam'
'iti'
'hull_'
'heaters_'
'haus_'
'groomed_'
'graffiti_'
'fenway_'
'exorbitant_'
'eur'
'diss'
'cus'
'curved_'
'comfortable'
'combines_'
'cochin_'
'bride_'
'accompany_'
'aand_'
'yrs_'
'wynyard_'
'validated_'
'ult'
'swansea_'
'supported_'
'sat'
'rie_'
'retained_'
'prescott_'
'posters_'
'nadi_'
'mann'
'kie'
'jack'
'iu'
'into'
'intermittent_'
'horton_'
'guarded_'
'future'
'fortuna_'
'foo'
'favorable_'
'fa_'
'exited_'
'exhausting_'
'event'
'deliveries_'
'crime_'
'cheerfully_'
'chat'
'cant'
'bri'
'breweries_'
'an'
'ambleside_'
'aar'
' ) : _'
'½_'
'yan'
'wea'
'ure'
'tit'
'then'
'tart_'
'suffice_'
'rl'
'petals_'
'parrots_'
'nou'
'motorways_'
'motorbike_'
'mersey_'
'mei'
'makeup_'
'lity_'
'hotelthere_'
'gary_'
'emerald_'
'desperate_'
'delivering_'
'comprised_'
'cane_'
'cabot_'
'atl_'
'as'
'archaeological_'
'201_'
'105_'
'witnessed_'
'specialities_'
'sma'
'sie'
'schedules_'
'scared_'
'rival_'
'penguins_'
'pal'
'nutshell_'
'normandy_'
'morrison_'
'mist'
'mega'
'managing_'
'ler'
'kat'
'jerusalem_'
'grace'
'distillery_'
'davis_'
'cotswold_'
'ci'
'chowder_'
'brainer_'
'beautifull_'
'arrived'
'arises_'
'aci'
'46_'
'wanchai_'
'valuables_'
'therethe_'
'sleeps_'
'sex_'
'scandinavian_'
'route'
'ribs_'
'promising_'
'principe_'
'pf_'
'paine_'
'optimal_'
'newbury_'
'necessity_'
'mau'
'material_'
'klcc_'
'kirk'
'heli'
'gor'
'girona_'
'flamingo_'
'ens_'
'ei'
'drown_'
'dos_'
'crest_'
'creaky_'
'craig_'
'concourse_'
'cher'
'chap_'
'centered_'
'breezy_'
'blanket_'
'blame_'
'bettered_'
'belize_'
'barefoot_'
'additions_'
'achieve_'
'ach'
'29th_'
'zones_'
'urn_'
'towneplace_'
'tot'
'swiftly_'
'spaciousness_'
'sara'
'sacred_'
'popping_'
'pile_'
'phi_'
'painful_'
'ober'
'oahu_'
'nit_'
'nationalities_'
'na'
'merchant_'
'jacuzzis_'
'friendlier_'
'foreigners_'
'foodie_'
'fizz_'
'fells_'
'ek_'
'custer_'
'cooks_'
'com'
'charity_'
'ath'
'asa'
'appetite_'
'andif_'
'ade_'
'wag'
'vin'
'tune_'
'shopped_'
'sector_'
'rte_'
'rideau_'
'precious_'
'nose_'
'morgan_'
'meadow_'
'malaysia_'
'lucked_'
'katherine_'
'ita'
'iri'
'framed_'
'foremost_'
'flores_'
'floral_'
'flight'
'ens'
'ean_'
'crackers_'
'billy_'
'beech_'
'bar'
'available'
', '
'vic'
'value'
'ures_'
'trippers_'
'staples_'
'sco'
'sake_'
'rud'
'refer_'
'reefs_'
'pump_'
'pirate_'
'pher'
'palmer_'
'mainline_'
'lynn_'
'lousy_'
'laws_'
'languages_'
'ig_'
'hua'
'fronted_'
'fred_'
'flood_'
'facelift_'
'eme'
'disappeared_'
'dense_'
'dd'
'ction_'
'cow_'
'concorde_'
'coffee'
'bush'
'bir'
'bathroom'
'ack_'
'abo'
' ; '
' ... )_'
'we'
'warriors_'
'vacationing_'
'tubes_'
'state'
'space'
'soooo_'
'sarah_'
'remembering_'
'rd'
'rand_'
'rambling_'
'pr'
'ove'
'nd'
'mah'
'laughing_'
'ini'
'homestead_'
'grasmere_'
'fastest_'
'crocodiles_'
'cos'
'cole'
'coex_'
'cider_'
'chances_'
'calmer_'
'bygone_'
'billings_'
'beirut_'
'baden_'
'agra_'
'192'
'ybut_'
'usage_'
'underwhelming_'
'tang'
'tag'
'strip'
'skyway_'
'sion_'
'ser_'
'playacar_'
'performed_'
'nin'
'mak'
'losing_'
'lao_'
'knysna_'
'jones_'
'jane_'
'ith'
'inquired_'
'gul'
'guilin_'
'flowering_'
'films_'
'europeans_'
'crossroads_'
'checks_'
'cannes_'
'booths_'
'bin'
'ars_'
'anyhow_'
'anantara_'
'270_'
'1800_'
'02_'
'wound_'
'westlake_'
'upset_'
'townthe_'
'tonight_'
'timetable_'
'teton_'
'sitges_'
'shimla_'
'seldom_'
'sch'
'rob'
'og'
'obliging_'
'lough_'
'kt'
'heart'
'granville_'
'gaslamp_'
'garten_'
'exceedingly_'
'eni'
'downer_'
'discuss_'
'desk'
'das_'
'dales_'
'colored_'
'chickens_'
'cand'
'ca'
'building'
'brun'
'better'
'backand_'
'awoke_'
'alba'
':) _'
'village'
'variable_'
'valletta_'
'ship'
'sburg_'
'rogers_'
'roger_'
'retaining_'
'rap'
'ps'
'prop'
'pirates_'
'personalised_'
'path'
'patagonia_'
'paseo_'
'ostrich_'
'kno'
'jubilee_'
'jac'
'invaluable_'
'im'
'highlighted_'
'harrah_'
'hap'
'hai_'
'gli'
'della_'
'cousin_'
'convinient_'
'childrens_'
'bordering_'
'andw'
'ain_'
'ae_'
':- _'
' ... ) _'
'wildebeest_'
'wen'
'valentine_'
'tera'
'tempe_'
'tale_'
'sticky_'
'steep'
'sightsee_'
'rho'
'repeated_'
'photographer_'
'pestana_'
'pension_'
'odor_'
'milling_'
'meridian_'
'logistics_'
'jin'
'ira'
'inthe_'
'indicate_'
'hurst_'
'hamburger_'
'gy_'
'gis'
'ful'
'ent'
'dw'
'du'
'district'
'decorating_'
'cab'
'buchanan_'
'bec'
'bear'
'ban_'
'armed_'
'accustomed_'
'ving_'
'tx_'
'reflecting_'
'proc'
'poll'
'piped_'
'missoula_'
'mee'
'mcd_'
'martin'
'lux_'
'llan'
'lent_'
'kevin_'
'kangaroos_'
'jaw_'
'jade_'
'inevitable_'
'ila'
'fore'
'discerning_'
'cour'
'blueberry_'
'band'
'artistic_'
'adriatic_'
'62_'
'tom'
'tion'
'tay'
'stationary_'
'stan'
'song'
'som'
'smo'
'sly_'
'shrine_'
'shells_'
'scu'
'remainder_'
'popularity_'
'oia_'
'nei'
'negotiated_'
'mira'
'marketing_'
'mark'
'manic_'
'ith_'
'ina'
'icy_'
'husbands_'
'hun'
'flo'
'err'
'disappoints_'
'cine'
'cia'
'chang_'
'cala'
'but'
'bis'
'backthe_'
'assisting_'
'week'
'veneto_'
'valleys_'
'uniquely_'
'ters_'
'temps_'
'tedious_'
'steamboat_'
'squash_'
'skeptical_'
'shame'
'sens'
'saturdays_'
'sal_'
'rom'
'reviews'
'owever_'
'oak'
'naval_'
'maryland_'
'longish_'
'logical_'
'loch'
'jacket_'
'influence_'
'grandkids_'
'fresno_'
'freeway'
'flooding_'
'fernando_'
'duplex_'
'douro_'
'coop_'
'confortable_'
'claire_'
'centrum_'
'caesar_'
'bog'
'bles_'
'belgrade_'
'beating_'
'backwaters_'
'agencies_'
'willingness_'
'widely_'
'waitrose_'
'ue'
'traps_'
'timers_'
'stanford_'
'sta_'
'sis'
'rin'
'ote'
'oom_'
'oba'
'nz'
'musty_'
'lightning_'
'krabi_'
'kand'
'jar'
'itbut_'
'interestingly_'
'inform_'
'imagination_'
'hould_'
'hobby_'
'hing_'
'helpful'
'guatemala_'
'grounds'
'exceed_'
'eco'
'competitively_'
'celebrity_'
'caverns_'
'ande'
'!._'
' . '_'
' ( ? ) _'
'yy'
'wtc_'
'warming_'
'ust'
'thani_'
'swings_'
'swanky_'
'sizeable_'
'sioux_'
'silk_'
'shy_'
'set'
'sala'
'rosebank_'
'rendezvous_'
'rapidly_'
'nap'
'mash_'
'market'
'lend_'
'led'
'kaikoura_'
'iron'
'ht'
'hotelis_'
'honeymooners_'
'holborn_'
'hefty_'
'gly_'
'forgetting_'
'flat'
'excess_'
'esca'
'enti'
'dire_'
'diagonal_'
'croquet_'
'convenient'
'circa_'
'bullet_'
'bour'
'atlas_'
'andand_'
'waterslide_'
'thre'
'surcharge_'
'strolls_'
'strenuous_'
'speedway_'
'sighting_'
'rightly_'
'provision_'
'panda_'
'ntly_'
'nta'
'mor'
'mecca_'
'lidl_'
'less'
'legacy_'
'leas'
'kilometer_'
'jai'
'itwe_'
'handsome_'
'guitar_'
'gla'
'exclusively_'
'employ'
'dthe_'
'cu'
'conc'
'brewing_'
'bolton_'
'alli'
'26'
'yale_'
'workshop_'
'voice_'
'una_'
'tuesdays_'
'try'
'tr'
'suffers_'
'stupid_'
'solve_'
'rosewood_'
'rie'
'reps_'
'pris'
'old'
'oi'
'nte_'
'near'
'marlborough_'
'locationthe_'
'lizard_'
'jin_'
'jewelry_'
'humor_'
'howard_'
'housekeeper_'
'hills'
'guernsey_'
'gg'
'favourable_'
'ew_'
'early'
'diplomatic_'
'didn_'
'definitly_'
'copthorne_'
'cook'
'comp_'
'cell'
'caroline_'
'carnegie_'
'browsing_'
'brewed_'
'ays_'
'aways_'
'aston_'
'associate_'
'affiliated_'
'202_'
'189'
'# _'
'— _'
'uss'
'twickenham_'
'thing'
'tegel_'
'sville_'
'sse_'
'saver_'
'rag'
'prom'
'palapas_'
'packaged_'
'opo'
'oli'
'oc_'
'ndi'
'mitchell_'
'mans'
'kalahari_'
'hvar_'
'ht_'
'hoover_'
'hangzhou_'
'euro'
'epic_'
'embarcadero_'
'earthquake_'
'devi'
'convienient_'
'comprises_'
'catholic_'
'carand_'
'billed_'
'asda_'
'andall_'
'198'
'1970_'
' - £ _'
' ) ,_'
' ! ! ! _'
'woolworths_'
'win'
'usable_'
'ured_'
'ugh_'
'titanic_'
'sten'
'snake_'
'severe_'
'schools_'
'pushy_'
'prospect_'
'peterborough_'
'oklahoma_'
'negotiating_'
'lyn'
'isthe_'
'indication_'
'ier'
'hos'
'hawk_'
'gna'
'dominican_'
'dark'
'dare_'
'cta_'
'counters_'
'cotton_'
'cle'
'cheesy_'
'centuries_'
'cavern_'
'cat'
'butterflies_'
'bravo_'
'bod'
'barriers_'
'assa'
'900_'
'51_'
'205_'
'und_'
'ud_'
'tas_'
'spring'
'sessions_'
'roosters_'
'republique_'
'regulars_'
'rah_'
'professionals_'
'patisserie_'
'parks'
'mussels_'
'modernized_'
'misty_'
'marina'
'mano'
'mandatory_'
'magnolia_'
'leon_'
'lebanese_'
'labyrinth_'
'kho'
'ket_'
'kangaroo_'
'jolly_'
'i75_'
'hawker_'
'goodi_'
'glitch_'
'gent_'
'gathered_'
'fal'
'embankment_'
'eg'
'defintely_'
'cue'
'comedy_'
'cannon_'
'bd'
'avis_'
'avi'
'avenues_'
'austrian_'
'appreciation_'
'76_'
'xian_'
'victory_'
'vanderbilt_'
'spot'
'society_'
'separates_'
'ris'
'remotely_'
'recognised_'
'rati'
'ption_'
'picton_'
'oz'
'ot'
'novelty_'
'ngu'
'map'
'litter_'
'lifeguards_'
'kim_'
'jungfrau_'
'johnny_'
'intriguing_'
'intervals_'
'inde'
'illinois_'
'haveli_'
'frog_'
'forks_'
'fallen_'
'duvet_'
'cop'
'cold'
'cock'
'calories_'
'buddy_'
'bone_'
'beni'
'acc'
'about'
'à_'
'zer'
'uva_'
'ute_'
'undisturbed_'
'un'
'tottenham_'
'things'
'tab'
'sura'
'ster_'
'spinach_'
'shots_'
'retiro_'
'resist_'
'ral_'
'raft_'
'quit_'
'predictable_'
'pounding_'
'placement_'
'ouse_'
'motorbikes_'
'mora'
'meandering_'
'me'
'marseille_'
'maha'
'liz_'
'liver_'
'lai'
'jasmine_'
'ition_'
'hote_'
'heels_'
'hardware_'
'genoa_'
'franchise_'
'flavors_'
'eti'
'ela'
'dit'
'clu'
'cheyenne_'
'chen'
'buena_'
'areaa'
'alert_'
' ! !'
'witness_'
'ug'
'tulsa_'
'tramway_'
'timed_'
'thal'
'sending_'
'resto_'
'remoteness_'
'protea_'
'pros'
'peacock_'
'parasols_'
'paddies_'
'not'
'mud'
'mts_'
'mal'
'lm'
'leg'
'learnt_'
'isit_'
'help'
'ght'
'gam'
'ga'
'fol'
'draws_'
'deal'
'conce'
'cleverly_'
'cet'
'cal'
'bayswater_'
'bally'
'angles_'
' , - _'
'yet'
'wn'
'veri'
'vall'
'uti'
'upkeep_'
'uo'
'unknown_'
'swissotel_'
'streaming_'
'ske'
'scored_'
'rutland_'
'rat'
'mond'
'matt_'
'lago_'
'kei'
'inflated_'
'hotel'
'hopped_'
'hearts_'
'hangers_'
'gaudi_'
'fool_'
'entree_'
'decorative_'
'creme_'
'coffe_'
'cloth_'
'clayton_'
'cheetahs_'
'champ'
'celebrities_'
'busan_'
'boul'
'be'
'bayview_'
'ah'
'301_'
'00'
' ) .( _'
'xt'
'wy_'
'warm'
'unf'
'trinidad_'
'stellenbosch_'
'speeds_'
'site'
'rup'
'rickshaw_'
'ren_'
'pt'
'poole_'
'overcooked_'
'outings_'
'mes_'
'matthew_'
'mata'
'm5'
'kur'
'kara'
'kai_'
'isi'
'invest_'
'iest_'
'humble_'
'honored_'
'hawkers_'
'guests'
'garage'
'galilee_'
'gad'
'ferry'
'exmouth_'
'eve'
'dash_'
'cts_'
'crack_'
'cooled_'
'container_'
'concerning_'
'cin'
'cart'
'carlisle_'
'bargains_'
'aux_'
'attempts_'
'athletic_'
'ata'
'ast'
'appliances_'
'andin_'
'andd'
'" '
'wich_'
'wei'
'web'
'team'
'stowe_'
'sting'
'sebel_'
'sb'
'sai'
'rupees_'
'roller_'
'roasted_'
'rings_'
'rei'
'paces_'
'outweighed_'
'octopus_'
'ocation_'
'nouveau_'
'nf'
'museum'
'mingle_'
'left'
'kol'
'kansai_'
'kanab_'
'i5_'
'hooters_'
'hai'
'feeders_'
'ero'
'dong'
'dodge_'
'dismal_'
'determined_'
'colmar_'
'capable_'
'cano'
'beggars_'
'amber_'
'alabama_'
'akumal_'
'adam_'
'aber'
'43_'
'wre'
'ventura_'
'underway_'
'trio_'
'scarce_'
'saloon_'
'sala_'
'safe'
'rod_'
'riverand_'
'repeatedly_'
'receiving_'
'reb'
'privileged_'
'plantations_'
'peoples_'
'nh'
'ngorongoro_'
'nb_'
'moritz_'
'mol'
'maria'
'lot'
'lorries_'
'lazing_'
'kebab_'
'kar'
'innsbruck_'
'ights_'
'hau'
'grave'
'gr'
'gem'
'fancied_'
'expects_'
'em'
'cycled_'
'cut'
'criticisms_'
'chor'
'bs'
'bishop_'
'bella'
'ati'
'alis'
' ! ! ! ! ! !_'
'wi'
'white'
'wayand_'
'turf_'
'trolly_'
'tripand_'
'therapist_'
'taylor_'
'sundance_'
'stiff_'
'snakes_'
'shuttle'
'settling_'
'sara_'
'salty_'
'sa'
'rounded_'
'relevant_'
'pri'
'pipes_'
'pensacola_'
'peek_'
'overnighter_'
'our'
'offer'
'nominal_'
'manta_'
'lle'
'line'
'lap'
'kas'
'ity'
'ion'
'inside'
'glitzy_'
'gel'
'extraordinarily_'
'expertly_'
'exp'
'din'
'differences_'
'cup'
'copious_'
'committed_'
'ck'
'cho'
'care'
'cabinet_'
'buta'
'awa'
'angelo_'
'andbut_'
'28'
'variation_'
'sooo_'
'sites'
'say'
'purchases_'
'passeig_'
'parkand_'
'ool_'
'nau'
'mild_'
'mighty_'
'messy_'
'mali'
'kochi_'
'ker_'
'ied_'
'hte'
'guiding_'
'fulfilled_'
'earn_'
'e'
'downtownbut_'
'dona'
'dge'
'det'
'crossings_'
'cd_'
'buffet'
'bra'
'bamb'
'archi'
'arb'
'ake_'
'57_'
'191'
'“ _'
'yn'
'towne_'
'tain'
'su_'
'smelly_'
'rev'
'prints_'
'petite_'
'performances_'
'parki'
'ota'
'notably_'
'nic'
'nda_'
'lean_'
'kenne'
'johns_'
'hh'
'ghe'
'farmhouse_'
'coronado_'
'cons'
'cayo_'
'belongings_'
'believed_'
'attributes_'
'arma'
'ang'
'andwhen_'
'ach_'
'04_'
'''
'yam'
'wu'
'where'
'taupo_'
'sur'
'superb'
'sossusvlei_'
'shan'
'returns_'
'radi'
'puddings_'
'philippines_'
'nn_'
'nev'
'nata'
'monks_'
'minute'
'mb'
'maitre_'
'luna_'
'loss_'
'loo'
'lei'
'knee_'
'jury_'
'jay_'
'jaunt_'
'isa'
'helier_'
'gon_'
'foothills_'
'esi'
'drift_'
'diversity_'
'dispenser_'
'disc'
'dio'
'crabs_'
'cot'
'clinton_'
'cks_'
'calistoga_'
'bubble_'
'britain_'
'block'
'bank'
'aviation_'
'ant'
'ail'
'adirondack_'
'18'
'wan'
'wallpaper_'
'vo_'
'viewpoint_'
'varies_'
'vai'
'uss_'
'uring_'
'tori'
'times'
'tablet_'
'sunloungers_'
'stru'
'soundly_'
'sandos_'
'rm'
'queries_'
'quer'
'pyramids_'
'overall'
'ook_'
'onion_'
'offs'
'nsi'
'lapping_'
'keeper_'
'jurys_'
'ively_'
'ital'
'island'
'ines_'
'hom'
'headland_'
'gun_'
'guildford_'
'gir'
'fir'
'fiori_'
'fancier_'
'fabulously_'
'extending_'
'examples_'
'entryway_'
'dru'
'club'
'centrebut_'
'campsite_'
'bunk_'
'atmosphere'
'antwerp_'
'ante'
'aki'
'87_'
'102_'
'xia'
'worker_'
'vat'
'uniqueness_'
'torquay_'
'theirs_'
'thb_'
'superlative_'
'stor'
'special'
'shorts_'
'sci'
'robinson_'
'pang'
'overland_'
'overcome_'
'ort'
'omlettes_'
'olin'
'observatory_'
'movenpick_'
'miss'
'lowry_'
'lockers_'
'lga_'
'lace_'
'kli'
'isaac_'
'ira_'
'ins'
'garlic_'
'foundation_'
'forty_'
'fir_'
'doll'
'dingle_'
'cotai_'
'chlorine_'
'charger_'
'cancellation_'
'bu'
'booze_'
'bau'
'ative_'
'aerobus_'
'98_'
'),_'
'zo_'
'yso_'
'wind'
'ver'
'veg'
'toy_'
'teatro_'
'syrup_'
'stationbut_'
'shuts_'
'shiny_'
'seas'
'rios_'
'rep'
'pools'
'pac'
'pablo_'
'ord'
'oran'
'oned_'
'mores_'
'marylebone_'
'laguardia_'
'kathmandu_'
'internally_'
'importance_'
'ime_'
'hu_'
'herm'
'herds_'
'helen_'
'haggis_'
'giants_'
'gen_'
'forewarned_'
'footpaths_'
'fli'
'fare'
'exhibit_'
'ett_'
'ero_'
'ena_'
'disa'
'died_'
'dh'
'demanding_'
'cruise'
'chop_'
'byward_'
'buta_'
'bes'
'ball'
'atta'
'arrival'
' ( & _'
'wil'
'urge_'
'tsim_'
'tow'
'themes_'
'swedish_'
'sul'
'ste_'
'safest_'
'rugged_'
'redwood_'
'rece'
'po_'
'oryx_'
'ora_'
'lugano_'
'ii'
'ic'
'hubbub_'
'hi'
'hem'
'hart_'
'enc'
'enabling_'
'dea'
'chen_'
'butte_'
'belvedere_'
'basi'
'backwe_'
'aust'
'airways_'
'47'
'yearly_'
'uc_'
'tied_'
'stare_'
'seren'
'roman'
'rip'
'religious_'
'refreshment_'
'rectified_'
'propertyand_'
'poo'
'oo'
'ong'
'oe_'
'noble_'
'nk_'
'mira_'
'lit'
'jelly_'
'insect_'
'halloween_'
'gab'
'flooring_'
'etta_'
'erm'
'enta'
'differently_'
'cn'
'boc'
'bmw_'
'attic_'
'arctic_'
'amo'
'aed_'
'47_'
' .• _'
'wengen_'
'walki'
'ville'
'vene'
'unpack_'
'ture_'
'trapped_'
'towering_'
'ting'
'thompson_'
'tho'
'temp'
'tambo_'
'sud'
'subsequent_'
'sp_'
'slam_'
'skin_'
'rc'
'pikes_'
'pho'
'ost'
'nil'
'naga'
'miramar_'
'midland_'
'mat'
'lu_'
'kilometre_'
'kes_'
'interacted_'
'ille_'
'identify_'
'fuji_'
'fort'
'enterprise_'
'darn_'
'ced_'
'carpeting_'
'cardi'
'berkeley_'
'alm'
'220_'
'1hr_'
' + '
'yu_'
'warrior_'
'traders_'
'tol'
'styling_'
'qual'
'punctual_'
'punch_'
'plusses_'
'placethe_'
'pic_'
'pauls_'
'oliver_'
'objective_'
'np'
'nk'
'ngton_'
'nga'
'misses_'
'mirage_'
'minster_'
'lls_'
'lahaina_'
'kh'
'ideal'
'gru'
'greenbelt_'
'gne'
'flows_'
'fil'
'fes_'
'ert'
'ec_'
'drink'
'downtownand_'
'dock'
'dell_'
'dal'
'clear'
'cit'
'cast_'
'breakfastthe_'
'boy'
'bountiful_'
'blissful_'
'anyplace_'
'anc'
'amari_'
'alaskan_'
'aka'
'add'
'width_'
'vila_'
'unappealing_'
'touch'
'taste'
'sympathetically_'
'swept_'
'summers_'
'sth'
'soaps_'
'sideways_'
'shoot_'
'rogue_'
'reminder_'
'rega'
'prat'
'outs'
'oni_'
'newb'
'lists_'
'legal_'
'infamous_'
'ians_'
'gum'
'found'
'ep'
'enables_'
'dream'
'distraction_'
'dinner'
'descent_'
'conway_'
'commitment_'
'commended_'
'capture_'
'calm'
'brazil_'
'boeing_'
'awaits_'
'ane_'
'allergies_'
'algarve_'
'achieved_'
' "_'
'wie'
'wat'
'utmost_'
'uni'
'undergone_'
'uar'
'tte'
'tsui_'
'toi'
'tidal_'
'swi'
'stating_'
'snorkling_'
'shelves_'
'roberto_'
'rma'
'regretted_'
'registered_'
'prob'
'prestigious_'
'pee'
'organization_'
'noteworthy_'
'mul'
'mo'
'mati'
'lotion_'
'lis_'
'lifeguard_'
'let'
'leigh_'
'la'
'kim'
'jos'
'insane_'
'hum'
'hortons_'
'hoo'
'hitch_'
'fra'
'flagship_'
'far'
'engage_'
'eda'
'dol'
'dic'
'curve_'
'claimed_'
'buildings'
'blissfully_'
'bha'
'beltway_'
'bang'
'andp'
'aca'
'80s_'
'60s_'
'197'
' ) .- _'
'€ _'
'yun'
'youngsters_'
'xo'
'whisk_'
'ura_'
'uno'
'tubing_'
'trips'
'tran'
'tah'
'tack'
'skybus_'
'shee'
'same'
'roombut_'
'rim'
'rail'
'preserves_'
'posada_'
'pine'
'paperwork_'
'overwater_'
'overt'
'ors'
'opp'
'nl'
'namely_'
'min'
'mara'
'jung'
'ise'
'harley_'
'harbourside_'
'grumpy_'
'glimpses_'
'gaulle_'
'emma_'
'ellipticals_'
'elevator'
'definatly_'
'conduct_'
'companion_'
'citybut_'
'cha_'
'canaveral_'
'caleta_'
'bea'
'bai'
'assure_'
'artefacts_'
'art'
'88_'
'74_'
'53'
'2019_'
'è'
'ywe_'
'wl'
'vis_'
'urt'
'toppings_'
'stressed_'
'stl'
'spreads_'
'sophistication_'
'ras'
'porti'
'patricia_'
'parlour_'
'news'
'mic'
'institution_'
'ik_'
'iet'
'gw'
'get'
'geo'
'friedrichstrasse_'
'frenetic_'
'fremont_'
'emporium_'
'dial_'
'deca'
'columns_'
'carparking_'
'budgets_'
'boo'
'avid_'
'aver'
'ave'
'aud_'
'anu'
'andso_'
' ? ? ?_'
'vodka_'
'vision_'
'staffing_'
'spire_'
'spices_'
'snowing_'
'sided_'
'revolving_'
'respond_'
'prefect_'
'pers_'
'peacefulness_'
'partners_'
'ngo'
'nett'
'nag'
'mystic_'
'mit_'
'mba'
'jim'
'impa'
'hub'
'hikers_'
'gs'
'grits_'
'goodbye_'
'first'
'facilities'
'distracting_'
'deserving_'
'dennys_'
'combining_'
'clare_'
'carl'
'cad'
'amp'
'150'
'yb'
'trade'
'thereafter_'
'tara_'
'swe'
'stairs'
'splendour_'
'sj'
'segovia_'
'ryan_'
'relationship_'
'redeeming_'
'reason'
'pas'
'parkso_'
'parkbut_'
'pana'
'navona_'
'navajo_'
'mono'
'merida_'
'mama_'
'look'
'limitations_'
'lel'
'laptops_'
'kah'
'isa_'
'haw'
'harbor'
'guinness_'
'grey'
'gi'
'generation_'
'fund'
'fork_'
'expensive'
'et'
'ern'
'eng'
'eighth_'
'din_'
'cuc'
'comb'
'colder_'
'championship_'
'bye_'
'appropriately_'
'ac'
' ?'
' , # _'
' ) ... _'
' ' ' _'
'zona_'
'wo'
'vik_'
'vi_'
'vendome_'
'tl'
'tec'
'sunken_'
'storing_'
'snug_'
'ska'
'sigh'
'roomwe_'
'pyramid_'
'pu'
'protest'
'prestige_'
'niece_'
'need'
'mgm_'
'mailbox_'
'mag'
'lenox_'
'lalit_'
'kok_'
'highwayso_'
'hers_'
'hermanus_'
'greati_'
'goat_'
'galley_'
'friends'
'falmouth_'
'exce'
'equi'
'dukes_'
'cycles_'
'considerate_'
'coi'
'climbed_'
'chatty_'
'cctv_'
'buton'
'boast_'
'bing_'
'barb'
'aug_'
'ately_'
'anse_'
'yr'
'wedding'
'valid_'
'unt'
'uae_'
'tremendously_'
'trattoria_'
'toyota_'
'tones_'
'sf'
'scotch_'
'sas_'
'rr'
'repellent_'
'reassuring_'
'rab'
'pv_'
'peer'
'peep_'
'ox'
'ome'
'nostalgic_'
'non'
'nan_'
'muslim_'
'luxuries_'
'lim'
'lasting_'
'karl_'
'jalan_'
'ino'
'hou'
'hal'
'gi_'
'galveston_'
'ese_'
'eh'
'disadvantages_'
'dep'
'deli'
'completing_'
'coe'
'britannia_'
'balcony'
'ayed_'
'automated_'
'anna'
'á'
'worcester_'
'wick_'
'wholesome_'
'uninteresting_'
'uin'
'thyme_'
'syntagma_'
'stock'
'sought_'
'sierra_'
'shone_'
'shearings_'
'seamlessly_'
'scratch_'
'ro'
'ram_'
'prawn_'
'phe'
'palatial_'
'oll'
'office'
'nr'
'notwithstanding_'
'marquis_'
'maca'
'ld'
'kalispell_'
'jol'
'johnson_'
'jerome_'
'iss'
'ior'
'ik'
'icelandic_'
'heidelberg_'
'hams_'
'hab'
'gunwharf_'
'frosted_'
'dent'
'dana_'
'corrected_'
'cement_'
'cale'
'belgian_'
'aut'
'ambulance_'
'alameda_'
'abit_'
'81'
'240_'
'119_'
' . !_'
' +_'
'yountville_'
'wc_'
'warmed_'
'vaulted_'
'utrecht_'
'um'
'tut'
'trunk_'
'tesla_'
'swim'
'strikes_'
'stocking_'
'sque'
'snap_'
'servicing_'
'riverbank_'
'ridge'
'replacing_'
'relocated_'
'quiche_'
'price'
'pon'
'plot_'
'pak'
'org'
'obs'
'oard_'
'n'
'mr'
'lakeview_'
'keystone_'
'jeff_'
'infact_'
'hg'
'hell'
'hcmc_'
'genting_'
'filmed_'
'ferm'
'els'
'dho'
'denarau_'
'curries_'
'closets_'
'cher_'
'charing_'
'chandelier_'
'cd'
'brunswick_'
'bird'
'bic_'
'belt'
'beep_'
'beachso_'
'bangkok'
'aswell_'
'ashley_'
'ark'
'archeological_'
'ank'
'andour_'
'ami'
'a2'
'('
'veni'
'var_'
'uro_'
'tulip_'
'tudor_'
'treks_'
'text_'
'tekapo_'
'tanger_'
'ta'
'superlatives_'
'stale_'
'stairways_'
'shoulders_'
'sg'
'scrap'
'responsible_'
'rand'
'rainfall_'
'put'
'payed_'
'pasti'
'packs_'
'overpass_'
'nse'
'norman_'
'micro'
'luxor_'
'leith_'
'inconsiderate_'
'idi'
'i40_'
'hat'
'friend'
'eld_'
'educational_'
'dim'
'derelict_'
'consecutive_'
'conducted_'
'chill'
'cham'
'bust'
'buss'
'bun'
'bump_'
'buddha_'
'botswana_'
'boracay_'
'board'
'belong_'
'beatiful_'
'beat'
'ay'
'arcades_'
'andalthough_'
'aja'
'acknowledged_'
'xp'
'xb'
'waters'
'uts_'
'unusable_'
'tw'
'tramp'
'tis'
'stand'
'spar'
'rst'
'roadthe_'
'riders_'
'redwoods_'
'pharmacies_'
'pha'
'paris'
'parcs_'
'orsay_'
'olives_'
'obnoxious_'
'nites_'
'netflix_'
'morningand_'
'marvel_'
'margaritas_'
'lur'
'liffey_'
'lem'
'indicating_'
'if'
'iers_'
'ido'
'haunted_'
'gas'
'flyer_'
'fc_'
'extortionate_'
'enticing_'
'end'
'enclosure_'
'dorset_'
'descript_'
'cott'
'coffeemaker_'
'clustered_'
'citizens_'
'citizen_'
'charter_'
'cb'
'canton_'
'breakers_'
'boon_'
'blu'
'bid_'
'bew'
'beg'
'bandon_'
'baltic_'
'attentiveness_'
'aba_'
'y'
'vig'
'ubiquitous_'
'trans'
'timer_'
'thereso_'
'tango_'
'stin'
'simplicity_'
'scotia_'
'pismo_'
'phu'
'person'
'palacio_'
'nur'
'nos_'
'nda'
'moe'
'moa_'
'luggage'
'lt_'
'love'
'lotte_'
'live'
'liner_'
'lia'
'kamloops_'
'invite_'
'interstate'
'ingthe_'
'hbo_'
'gy'
'gur'
'gos'
'foam_'
'flea_'
'fin_'
'elle_'
'dis'
'dartmouth_'
'cubicle_'
'counted_'
'charle'
'carol_'
'caliber_'
'buns_'
'ath_'
'areathis_'
'airporti_'
'--- _'
'windows'
'vent_'
'ues_'
'tru'
'touts_'
'telford_'
'tau'
'streetthe_'
'stewart_'
'socket_'
'sage_'
'rajasthan_'
'pont'
'pom'
'pleasent_'
'plantings_'
'pest_'
'pear_'
'paulo_'
'pattern_'
'papa_'
'pan'
'ops_'
'nga_'
'namba_'
'marc_'
'lemurs_'
'lagged_'
'kel'
'katoomba_'
'jal'
'iv_'
'inl'
'ima'
'herethe_'
'greetings_'
'fon'
'fifty_'
'due'
'crawley_'
'country'
'const'
'compensate_'
'brea'
'bodrum_'
'bahnhof_'
'awaybut_'
'aran'
'anywhereyou_'
'andalso_'
'amused_'
'45am_'
'31st_'
'170_'
'zin'
'whim_'
'what'
'want'
'vernon_'
'upbeat_'
'torrential_'
'tipping_'
'timeand_'
'tand_'
'subs'
'stomach_'
'stead_'
'skiers_'
'sean_'
'sant'
'rob_'
'roads'
'rif'
'repaired_'
'recon'
'rails_'
'poi'
'platforms_'
'patiently_'
'pamper_'
'ox_'
'oa_'
'mop'
'mews_'
'malpensa_'
'lut'
'loe'
'lock'
'laquinta_'
'julian_'
'interrupted_'
'ica'
'hes'
'hair'
'habit'
'frustration_'
'fre'
'franc'
'false_'
'eveningand_'
'discrete_'
'deeper_'
'db'
'cyclists_'
'cortez_'
'compa'
'cityso_'
'champlain_'
'cea'
'cans_'
'cac'
'butthis_'
'battlefields_'
'75'
'----_'
' ` _'
'vau'
'tractor_'
'toes_'
'tob'
'takeaways_'
'stupendous_'
'sliced_'
'siren_'
'ses'
'rna'
'riva_'
'rac'
'qa'
'pub'
'politely_'
'pho_'
'overc'
'ound_'
'neglected_'
'moves_'
'mode'
'mine'
'mentions_'
'melrose_'
'mellow_'
'meal'
'ley'
'level'
'korea_'
'juliet_'
'iro_'
'gon'
'fia'
'enough'
'dorado_'
'docked_'
'demo'
'creams_'
'colle'
'coal_'
'civilization_'
'cho_'
'chart'
'chain'
'carcassonne_'
'businessmen_'
'breakfasti'
'bos'
'bedded_'
'badlands_'
'bab_'
'ank_'
'andthen_'
'acce'
'78_'
'1960_'
'-'
' > _'
' .. '
'validate_'
'urb'
'trays_'
'tallahassee_'
'stretched_'
'stre'
'stationi'
'serviceable_'
'sear'
'rf'
'relieved_'
'refuse_'
'quit'
'qi'
'performers_'
'oti'
'occupying_'
'nn'
'nightso_'
'mut'
'mus'
'mort'
'macon_'
'lightly_'
'liberdade_'
'ito'
'ike_'
'huntsville_'
'forecast_'
'ees_'
'easton_'
'draught_'
'cumbersome_'
'conne'
'christ'
'chan'
'challenged_'
'burn'
'bumper_'
'bot'
'belmont_'
'audio_'
'agu'
'95'
'27'
'210_'
') '
'wynn_'
'wes'
'uniformly_'
'toddlers_'
'teri'
'sar_'
'rk'
'push'
'purchasing_'
'promises_'
'potholes_'
'post'
'positioning_'
'phil_'
'pavilions_'
'parma_'
'oz_'
'olympics_'
'mn'
'mindful_'
'lk'
'lick_'
'ket'
'itso_'
'inquire_'
'inand_'
'implies_'
'im_'
'hk'
'him'
'hague_'
'gurney_'
'flamingos_'
'flamenco_'
'explains_'
'ewe_'
'eum_'
'erg'
'dubai'
'doorso_'
'corals_'
'coolest_'
'comp'
'coca_'
'andes_'
'amuse_'
'alta_'
'alleyways_'
'aesthetic_'
'abut_'
'ved'
'uz'
'unimpressive_'
'tiananmen_'
'talks_'
'tac_'
'strict_'
'speaker_'
'soaring_'
'shuttled_'
'sever'
'sealed_'
'salvador_'
'rig'
'rescue_'
'rc_'
'punt'
'proceed_'
'problem'
'phil'
'ph_'
'pelicans_'
'ott'
'noi_'
'mouth'
'mg_'
'matching_'
'margarita_'
'mallorca_'
'ludlow_'
'lis'
'lage'
'kla'
'kitty_'
'ingand_'
'hir'
'her'
'hav'
'hamlet_'
'frenchman_'
'feather_'
'fargo_'
'externally_'
'edand_'
'ece'
'dly_'
'diana_'
'communicate_'
'class'
'bukhara_'
'blossom_'
'bil'
'berg'
'benny_'
'barnes_'
'auto'
'ato'
'astounding_'
'appalling_'
'71'
'29'
'21'
' , ... _'
'wha'
'warr'
'visibility_'
'unfriendly_'
'une'
'tula'
'tim'
'throughly_'
'theo'
'tely_'
'swimmable_'
'spell_'
'slum'
'rr_'
'rightand_'
'resembles_'
'rath'
'raining'
'pump'
'proprietor_'
'passageway_'
'nge'
'morecambe_'
'mono_'
'miracle_'
'md_'
'mangrove_'
'lp'
'loan_'
'listing_'
'kelly_'
'interconnecting_'
'images_'
'herself_'
'georges_'
'gables_'
'ect'
'dramatically_'
'disposal_'
'dhaka_'
'dee_'
'coeur_'
'closure_'
'chirping_'
'bw'
'brig'
'bia'
'beeping_'
'avocado_'
'att'
'ame'
'allo'
'wowed_'
'wire_'
'wife'
'twi'
'touching_'
'ther'
'tenth_'
'sweet'
'silver'
'sco_'
'robertson_'
'rent'
'reci'
'readers_'
'prof'
'pier'
'peruvian_'
'ost_'
'oceanview_'
'nik'
'monticello_'
'mom'
'mille'
'mats_'
'masters_'
'luke_'
'llo'
'lille_'
'jonathan_'
'ista'
'indulgence_'
'imm'
'icon_'
'ibiza_'
'hour'
'hooked_'
'helpfully_'
'hc'
'gdansk_'
'gastronomic_'
'game'
'gai'
'fact'
'differ'
'devo'
'dera'
'dee'
'confined_'
'choc'
'change'
'chand'
'camper_'
'boxing_'
'bl'
'awoken_'
'aura_'
'ater_'
'arn'
'advanced_'
'accom'
'> _'
'120'
'yes'
'whichever_'
'usd'
'unit'
'target'
'suffering_'
'spectacularly_'
'sound'
'sn'
'santi'
'saltwater_'
'rover_'
'rh'
'relax'
'reds_'
'raph'
'quickest_'
'pul'
'pert'
'ov'
'oul'
'ought_'
'nne'
'nam'
'minnesota_'
'ment'
'mayhem_'
'malaysian_'
'main'
'macquarie_'
'lukewarm_'
'lends_'
'lean'
'largo_'
'lagos_'
'isles_'
'hic'
'heinz_'
'haz'
'eld'
'duo_'
'dresser_'
'dg'
'decade_'
'damaged_'
'convient_'
'colin_'
'bran'
'bavaro_'
'bard'
'bangla_'
'artisan_'
'arrive'
'amen'
'alle'
'accidentally_'
'abu'
'yog'
'wealthy_'
'wash'
'walla_'
'wad'
'vanilla_'
'throwing_'
'taps_'
'smoker_'
'rre'
'recognise_'
'porto'
'perform_'
'pch_'
'oeuvres_'
'odi'
'occupy_'
'neil_'
'musee_'
'metr'
'mercado_'
'lindos_'
'lessly_'
'kul'
'kap'
'ivy_'
'iti_'
'herbs_'
'gym'
'flashlight_'
'excelent_'
'ess'
'delaware_'
'decadent_'
'dama'
'cum_'
'cranes_'
'cr'
'cou'
'constitution_'
'confuse_'
'confe'
'comparatively_'
'coins_'
'chong'
'cheers_'
'byron_'
'brain'
'bonfire_'
'bahrain_'
'armas_'
'arc'
'amble_'
'zes_'
'tp'
'tl_'
'timethe_'
'tequila_'
'tenderloin_'
'suspension_'
'smelt_'
'shimbashi_'
'shaving_'
'sali'
'ride'
'rian_'
'reply_'
'refilled_'
'quin'
'prov'
'pipe_'
'pilot_'
'photo'
'peck'
'papa'
'olympia_'
'nm_'
'nat'
'murren_'
'moored_'
'missouri_'
'mcc'
'marion_'
'kiddie_'
'kicked_'
'kamp'
'iw'
'hig'
'harmony_'
'floorboards_'
'figuring_'
'existing_'
'documents_'
'dge_'
'dealership_'
'cosmos_'
'conventional_'
'colon_'
'closures_'
'closed'
'cli'
'cil'
'charm'
'ces'
'brand'
'bookstore_'
'bellingham_'
'behalf_'
'bb_'
'avoids_'
'areait_'
'anonymous_'
'adjusted_'
'@_'
'2004_'
'111_'
'yas'
'warmest_'
'vacationers_'
'upt'
'ud'
'tting_'
'towns'
'su'
'squa'
'skill_'
'simpler_'
'sim_'
'shortcut_'
'roomi_'
'racetrack_'
'protection_'
'protect_'
'principal_'
'porches_'
'pebbles_'
'panels_'
'omar_'
'oc'
'obscure_'
'nen'
'naturalist_'
'nadler_'
'meth'
'ller'
'leiden_'
'leaning_'
'kk_'
'kali'
'infrequent_'
'hyenas_'
'historically_'
'hind'
'harsh_'
'gins_'
'fee'
'faro_'
'excels_'
'enter'
'eil'
'dub'
'descend_'
'defo_'
'deci'
'convoluted_'
'cheshire_'
'casa'
'bron'
'bose_'
'bloomington_'
'benz_'
'belonging_'
'beachthe_'
'aroma_'
'adobe_'
'abq_'
'54_'
'103_'
' .[ _'
'wri'
'vie_'
'videos_'
'upi'
'thorn'
'thinks_'
'terry_'
'tap'
'taff_'
'tac'
'surf'
'somewhere'
'seab'
'scope_'
'scen'
'savi'
'rumbling_'
'rewarding_'
'reichstag_'
'refill_'
'rede'
'rams'
'quietand_'
'pose'
'planting_'
'padstow_'
'olds_'
'oj_'
'nordic_'
'nicethe_'
'manger_'
'madagascar_'
'lava'
'jerry_'
'jama'
'intimacy_'
'inso'
'hyena_'
'hotter_'
'holder_'
'gui'
'gogh_'
'enjoy'
'drain'
'doubts_'
'dj'
'distr'
'dali_'
'chauffeur_'
'centric_'
'cathedrals_'
'bui'
'brew'
'borobudur_'
'bearable_'
'badge_'
'backpackers_'
'attach'
'appo'
'amelia_'
'3000_'
' - - _'
'yan_'
'winston_'
'walton_'
'ves'
'vent'
'uf'
'tto_'
'troll'
'trend_'
'tos'
'tle_'
't2_'
'sve'
'sundries_'
'stumble_'
'sof'
'smoothie_'
'slim_'
'sincerely_'
'seater_'
'puri_'
'potomac_'
'petro'
'pere'
'pb'
'orchids_'
'omlette_'
'occurred_'
'must'
'mous'
'mong_'
'melon_'
'machinery_'
'loaf_'
'langkawi_'
'lal'
'ico_'
'hwa'
'hamb'
'flash'
'fis'
'facts_'
'entitled_'
'dubious_'
'drama_'
'direct'
'dicey_'
'complimented_'
'cel'
'cc'
'buds_'
'brasov_'
'brad'
'bergamo_'
'augusta_'
'arnold_'
'ador'
'1970s_'
' : )_'
'yd'
'wool'
'wit_'
'westport_'
'wast'
'wasa'
'valentines_'
'unreal_'
'understatement_'
'unacceptable_'
'ub_'
'tothe_'
'tj'
'tik'
'therapists_'
'string_'
'sr_'
'sba'
'sag'
'rough'
'rome'
'represent_'
'quirkiness_'
'quintessential_'
'queensway_'
'presume_'
'pl'
'pitlochry_'
'parrot_'
'opposite'
'oner'
'omb'
'mosaic_'
'mirador_'
'mayflower_'
'lled_'
'lift'
'kos'
'kari'
'kama'
'issued_'
'insufficient_'
'inevitably_'
'gro'
'glitz_'
'garh_'
'freak'
'etihad_'
'drinkers_'
'disney'
'devil_'
'dec'
'de'
'creamy_'
'contain_'
'cob'
'coa'
'circum'
'cheeky_'
'canal'
'brick'
'bounce'
'borrowed_'
'bo'
'bell'
'beaufort_'
'baskets_'
'balboa_'
'apologies_'
'anything'
'anderson_'
'agreement_'
'againand_'
'ab_'
' " !_'
'ä'
'zzi'
'wise'
'wir'
'wheeled_'
'vilamoura_'
'uit'
'tuck_'
'tf'
'suck'
'stripe'
'stic_'
'sen'
'seashore_'
'rey'
'relied_'
'ranged_'
'railways_'
'parnell_'
'nun'
'nordstrom_'
'multi'
'mila'
'mask_'
'marrakesh_'
'macar'
'loveliest_'
'lon'
'loews_'
'lei_'
'kudu_'
'innkeeper_'
'hongqiao_'
'heaving_'
'hag'
'habit_'
'grenada_'
'focal_'
'feat_'
'faux_'
'facebook_'
'eugene_'
'epi'
'enthusiasts_'
'encounters_'
'dou'
'dayand_'
'crane_'
'conwy_'
'coincided_'
'coff'
'christina_'
'chip'
'bh'
'agenda_'
'adored_'
' ! )'
'wraps_'
'visi'
'uns'
'unheated_'
'tusayan_'
'trop'
'treasures_'
'til'
'tgv_'
'tahiti_'
'stuff'
'stein_'
'soo'
'retain_'
'realistic_'
'quid_'
'question'
'pro'
'predominantly_'
'ploenchit_'
'pes'
'nell_'
'nc'
'narrow'
'midwest_'
'mariott_'
'lakeand_'
'ladder_'
'jerk_'
'innkeepers_'
'illy_'
'hur'
'hix_'
'hak'
'gozo_'
'garibaldi_'
'frustrated_'
'flush_'
'flan'
'fitz'
'fabric_'
'emi'
'ema'
'ege'
'eer'
'dha'
'deh'
'contr'
'complement_'
'both'
'bahamas_'
'attempted_'
'artsy_'
'arth'
'apa'
'alf'
'alcatraz_'
'acknowledge_'
';'
'ym'
'vere_'
'upwards_'
'uganda_'
'transport'
'traditionally_'
'threw_'
'steps'
'stee'
'spaghetti_'
'solar_'
'sidney_'
'scot'
'sca'
'salford_'
'rowing_'
'ralph_'
'porta'
'perfume_'
'pen_'
'parker_'
'painfully_'
'outrageously_'
'ode'
'ninth_'
'moorish_'
'mojito_'
'mendoza_'
'math'
'marmalade_'
'malvern_'
'loca'
'lawson_'
'kitchen'
'junk_'
'grosvenor_'
'evidently_'
'everythingand_'
'epitome_'
'emp'
'emer'
'eh_'
'ebo'
'dt_'
'drier_'
'descriptions_'
'cru'
'corral_'
'coped_'
'complemented_'
'commerce_'
'clin'
'clara_'
'cash'
'bumped_'
'bummer_'
'buffer_'
'bic'
'aur'
'arge'
'aplenty_'
'andre'
'alton_'
'aco'
'acco'
']. _'
'36'
' ” '
'uto'
'unaware_'
'tle'
'tib'
'thruway_'
'thimphu_'
'terri'
'teeming_'
'tasmania_'
'swipe_'
'swinging_'
'stran'
'sina'
'sig'
'sey'
'rod'
'rant_'
'protein_'
'pres'
'portree_'
'pont_'
'poland_'
'payable_'
'panelling_'
'ont'
'oke'
'mezquita_'
'meta'
'mermaid_'
'medicine_'
'mails_'
'mailed_'
'lull'
'lst'
'locations'
'locationa'
'lime'
'lic_'
'inconsistent_'
'hipster_'
'hiccup_'
'greatwe_'
'governor_'
'gob'
'gand'
'fredericksburg_'
'firenze_'
'existed_'
'ennis_'
'e1'
'disp'
'designers_'
'dartmoor_'
'combinations_'
'casino'
'cai'
'bv'
'butt'
'brass_'
'bikers_'
'bernard'
'athe_'
'ap_'
'andalu'
'almond_'
'alk_'
'adjustable_'
'500'
'104_'
'0s_'
' ( ~_'
'yh'
'xcellent_'
'ut'
'unmatched_'
'universities_'
'uh'
'therewe_'
'tasman_'
'sussex_'
'sunning_'
'substantially_'
'stun'
'stays'
'ssa_'
'spelling_'
'sirmione_'
'sept'
'sav'
'sail'
'saga_'
'rin_'
'pickups_'
'palladium_'
'og_'
'occupants_'
'northumberland_'
'nightwe_'
'mue'
'mountaineer_'
'motif_'
'monterosso_'
'minds_'
'mem'
'longhorn_'
'lombard_'
'landscapes_'
'kelowna_'
'jesus_'
'itu'
'intent_'
'ida'
'ick_'
'hotspot_'
'hiroshima_'
'hammam_'
'gloria_'
'gib'
'frig'
'frei'
'frank'
'fic'
'fairgrounds_'
'facilites_'
'equidistant_'
'donald_'
'diff'
'detracted_'
'desperately_'
'crockery_'
'counting_'
'ched_'
'candlewood_'
'cambodian_'
'bund'
'brook'
'bradley_'
'av'
'aus_'
'astronomical_'
'anticipate_'
'ann'
'andthey_'
'a12_'
'175_'
'115_'
' < _'
' ! ! ) _'
'zy_'
'weston_'
'wenceslas_'
'washers_'
'wangfujing_'
'vendor_'
'utilised_'
'unsu'
'uncon'
'ull'
'tz_'
'temporarily_'
'tch'
'stylishly_'
'stresa_'
'stonehenge_'
'stew'
'staybut_'
'sour'
'snowed_'
'seam'
'scho'
'rg'
'ref'
'raj_'
'pockets_'
'pent_'
'nr_'
'nove'
'northampton_'
'nonsense_'
'nob'
'nb'
'moor'
'mons'
'monitor_'
'monast'
'mestre_'
'matt'
'lv_'
'linking_'
'lao'
'lak_'
'lac_'
'ison_'
'incomparable_'
'ime'
'iguana_'
'huntington_'
'hotela'
'homework_'
'hoe_'
'gymnasium_'
'graham_'
'gondolas_'
'fora'
'ep_'
'entr'
'ella'
'doncaster_'
'cm'
'click_'
'cass'
'carso_'
'carna'
'cari'
'canyonlands_'
'butlins_'
'bling_'
'belfry_'
'beachw'
'barossa_'
'assets_'
'andbreakfast_'
'amanda_'
'91'
' .... '
'£_'
'zl'
'yuk'
'winter'
'warehouses_'
'versa_'
'uri'
'unfair_'
'underwater_'
'unavailable_'
'tric'
'together'
'spin'
'reindeer_'
'regions_'
'rect'
'rate'
'premiere_'
'permanently_'
'overgrown_'
'orn_'
'observations_'
'nian_'
'ngs'
'neighborhood'
'nam_'
'naked_'
'mural_'
'mori'
'mold_'
'mickey_'
'metropole_'
'manda'
'lus'
'livingstone_'
'lise'
'koo'
'kind'
'just'
'ive'
'iso'
'ica_'
'housekeepers_'
'hansar_'
'guil'
'ground'
'fisher'
'dick_'
'describes_'
'corso_'
'cordial_'
'chia'
'carpeted_'
'bt_'
'boss_'
'blood_'
'bellhop_'
'awaited_'
'authenticity_'
'attribute_'
'arkansas_'
'approachable_'
'andt'
'amy_'
'alber'
'airs'
'after'
'72'
'68_'
'...... _'
' % ._'
'wald'
'unw'
'unpacked_'
'udi'
'twists_'
'tu_'
'trasse_'
'tours'
'tory_'
'tog'
'tie'
'thumping_'
'tetons_'
'tama'
'superdome_'
'sli'
'sed'
'scal'
'sas'
'rly_'
'revelstoke_'
'pontoon_'
'participating_'
'onand_'
'occ'
'nee'
'nas'
'mme'
'mm'
'minutesand_'
'merri'
'marian'
'kit'
'julia_'
'islington_'
'intending_'
'iguazu_'
'ific'
'hul'
'gow'
'generations_'
'frequency_'
'flushing_'
'exceptions_'
'edwardian_'
'ecuador_'
'dumpster_'
'drowned_'
'db_'
'danger_'
'currents_'
'combe_'
'clockwork_'
'chilli_'
'char'
'cabaret_'
'build'
'bugis_'
'bridge'
'breckenridge_'
'brat'
'blazing_'
'blackb'
'atri'
'arl'
'andb'
'againit_'
'aer'
'accounts_'
'1920_'
'05'
','
' ? ) , _'
' ? ! '
'wit'
'williams'
'upl'
'tul'
'tsa'
'tha_'
'tarmac_'
'sua'
'socks_'
'snag_'
'shoe'
'scala_'
'rubber_'
'roundtrip_'
'rot'
'pud'
'power'
'pods_'
'pli'
'peach_'
'pc'
'pam_'
'palm'
'oor_'
'nis_'
'netherlands_'
'nesting_'
'muted_'
'mp_'
'mountainside_'
'morne_'
'moan'
'mie'
'middle'
'limestone_'
'lf'
'legian_'
'lanterns_'
'kf'
'kay'
'jag'
'inhouse_'
'imax_'
'heal'
'hack'
'h10_'
'greg_'
'grapes_'
'glu'
'fron_'
'forrest_'
'forested_'
'foreshore_'
'filtered_'
'fell'
'façade_'
'fas'
'expansion_'
'esh'
'ene_'
'enci'
'edi'
'economic_'
'diversion_'
'disagree_'
'destination'
'cub'
'cong'
'co'
'cinc'
'cautious_'
'cali'
'brush_'
'brekkie_'
'bong'
'bohemian_'
'boar_'
'billing_'
'bakersfield_'
'aya'
'arm'
'alls'
'alla'
'ake'
'againa'
'afternoon'
'1930_'
'very'
'uninviting_'
'uda_'
'two'
'sway'
'subway'
'subsequently_'
'standard'
'shep'
'shacks_'
'roomi'
'ress_'
'production_'
'pers'
'patpong_'
'oy_'
'outl'
'orta'
'opryland_'
'only'
'omg_'
'okc_'
'odds_'
'nos'
'medellin_'
'marl'
'marc'
'mach'
'lux'
'lua'
'leys_'
'laurel_'
'kota_'
'khan_'
'kea'
'kath'
'jul'
'jor'
'ige'
'ich'
'hottest_'
'hoot_'
'hid'
'healdsburg_'
'hama'
'hakata_'
'gton_'
'frankenmuth_'
'falconry_'
'ete'
'estates_'
'est'
'eon'
'enviable_'
'drugstore_'
'dockyard_'
'disco'
'dc'
'consequence_'
'circling_'
'church'
'chore_'
'chest_'
'carson_'
'caro'
'cactus_'
'burford_'
'alexandra_'
'alc'
'accademia_'
'108_'
'yucatan_'
'workmen_'
'wichita_'
'which'
'vist'
'unhappy_'
'tst_'
'timings_'
'taverna_'
'tatty_'
'syn'
'sweden_'
'supp'
'subdued_'
'start'
'stansted_'
'spru'
'spartan_'
'spared_'
'sos'
'som_'
'shaw_'
'revel'
'rehoboth_'
'pur_'
'pping_'
'pir'
'pigeons_'
'pheasant_'
'pai'
'others'
'offi'
'obligatory_'
'nsa'
'norwegian_'
'nel_'
'moti'
'milton_'
'mare'
'magi'
'loma'
'locates_'
'lo'
'llo_'
'lev'
'kad'
'jug_'
'jit'
'ists_'
'insu'
'hich_'
'hera'
'hatt'
'gothenburg_'
'gett'
'fore_'
'fer_'
'fam'
'falcon_'
'exhibits_'
'enquired_'
'ebut_'
'eastbourne_'
'donut_'
'dies_'
'dept_'
'deg'
'coventry_'
'burgundy_'
'bubbles_'
'bent_'
'ation'
'arose_'
'58_'
'495_'
'49'
'38th_'
' .:) _'
'ée_'
'~ _'
'wou'
'wee'
'vincent_'
'vicksburg_'
'urg'
'uck'
'troubled_'
'token_'
'tail'
'stormy_'
'sounding_'
'shocking_'
'sey_'
'sang_'
'retirement_'
'resteraunt_'
'reaches_'
'railay_'
'prettier_'
'pour_'
'plein_'
'palate_'
'outrigger_'
'otters_'
'opting_'
'officially_'
'noisebut_'
'marquette_'
'magnificient_'
'lers_'
'lately_'
'lama'
'king'
'jodhpur_'
'jamie_'
'hauling_'
'hart'
'hara'
'halong_'
'grim'
'grape_'
'fuerteventura_'
'fluent_'
'fid'
'edthe_'
'dijon_'
'devoid_'
'decor'
'cort'
'cm_'
'canoeing_'
'butm'
'bt'
'broadbeach_'
'brandon_'
'boathouse_'
'blueberries_'
'arno_'
'anie'
'alan_'
'ail_'
'abi'
'? '
'waybut_'
'wagon_'
'vino_'
'vani'
'understandably_'
'uli'
'transports_'
'stud'
'staythis_'
'statement_'
'sera'
'rope_'
'roa'
'ratt'
'rar'
'qualia_'
'quail_'
'prot'
'pred'
'poured_'
'peninsular_'
'overs_'
'octagon_'
'nicholas_'
'neo'
'nations_'
'nascar_'
'morrisons_'
'm62_'
'logo_'
'lakeshore_'
'joburg_'
'jamaican_'
'involving_'
'instructor_'
'indians_'
'ika'
'ih'
'grid_'
'gadgets_'
'firth_'
'farmland_'
'farewell_'
'express'
'evenings'
'ethernet_'
'essa'
'erratic_'
'downtownso_'
'dive'
'dimly_'
'departments_'
'demonstration_'
'deceiving_'
'cartagena_'
'bumps_'
'bruce_'
'beauti'
'bas'
'argentinian_'
'areaw'
'alb'
'affluent_'
'83_'
'57th_'
'300'
'1200_'
'+ '
'wyn'
'visitthe_'
'vert'
'verdant_'
'vecchio_'
'ueno_'
'tok'
'thriving_'
'tbilisi_'
'tant'
'stac'
'soo_'
'settee_'
'sellers_'
'school'
'refurbishing_'
'reckon_'
'pil'
'piazzale_'
'pena'
'oy'
'ony'
'onthe_'
'offshore_'
'ning'
'motion_'
'meads_'
'mack'
'maa'
'literature_'
'legends_'
'jour'
'jab'
'illa'
'hotelo'
'happiness_'
'goodw'
'gno'
'gastown_'
'flag'
'fingers_'
'eyre_'
'explore'
'exhaust_'
'everywherewe_'
'enz'
'elvis_'
'disappointments_'
'disappear_'
'dil'
'deni'
'cromer_'
'cot_'
'cht'
'can'
'cam'
'breathtakingly_'
'booming_'
'bitter_'
'berlin'
'anti_'
'affording_'
'act'
'accolades_'
'135_'
'110'
' ( ! ) _'
' % '
'yon'
'windmill_'
'wh'
'unavoidable_'
'tv'
'torremolinos_'
'tis_'
'tering_'
'taster_'
'supporting_'
'sugar'
'statu'
'stafford_'
'snack'
'sloane_'
'sizable_'
'shut'
'shoreditch_'
'season'
'rra_'
'receipt_'
'political_'
'planters_'
'pigs_'
'pia'
'pest'
'peg'
'nuremberg_'
'nomi'
'nob_'
'nna_'
'nevis_'
'murky_'
'melaka_'
'medford_'
'master'
'margherita_'
'lty_'
'leipzig_'
'keepers_'
'isc'
'iano_'
'hump'
'herebut_'
'groves_'
'gatherings_'
'entra'
'enth'
'emptied_'
'ek'
'eck_'
'ech'
'discussion_'
'diesel_'
'destroyed_'
'cruisers_'
'creaking_'
'cornish_'
'copacabana_'
'colli'
'clyde_'
'citythe_'
'chippe'
'chinle_'
'certificate_'
'carrier_'
'bur_'
'bli'
'balloons_'
'appearing_'
'600'
'450_'
' ) ., _'
'yw'
'yangshuo_'
'waterways_'
'walko'
'visa'
'vera'
'uw'
'unpaved_'
'umber'
'twisty_'
'tthe_'
'transformation_'
'touched_'
'torrey_'
'tiffany_'
'thunderstorm_'
'terrasse_'
'takeout_'
'streams_'
'sters_'
'stephens_'
'slices_'
'setting'
'seat'
'schipol_'
'sama'
'salt'
'role_'
'rita_'
'rew'
'reet'
'recomm'
'raj'
'ques'
'pottery_'
'pcs_'
'party'
'participated_'
'ots_'
'oca'
'nip_'
'nightstand_'
'neutral_'
'nautical_'
'nakuru_'
'modern'
'misc'
'mayakoba_'
'mainz_'
'magn'
'lomond_'
'justified_'
'juhu_'
'incorrect_'
'in'
'hottub_'
'gc_'
'frost'
'freshness_'
'flops_'
'fjords_'
'firework_'
'explorer_'
'driver'
'driftwood_'
'dor_'
'domingo_'
'df'
'davenport_'
'cozumel_'
'clip'
'centennial_'
'causes_'
'carribean_'
'cap'
'cana'
'buto'
'bentley_'
'barren_'
'aussie_'
'answers_'
'anglais_'
'amphitheater_'
'alon'
'agi'
'2min_'
'woodwork_'
'wak'
'vari'
'unpredictable_'
'tribeca_'
'tram'
'therea'
'strengths_'
'stockyards_'
'stink'
'sso'
'spla'
'smelling_'
'skybar_'
'scented_'
'rsi'
'roadways_'
'restraunts_'
'restos_'
'quincy_'
'py'
'projects_'
'precise_'
'pr_'
'posting_'
'polynesian_'
'pinch_'
'passages_'
'osi'
'obe'
'nya'
'name'
'mining_'
'mercer_'
'mary'
'm1'
'license_'
'keg_'
'impromptu_'
'ibi'
'hb'
'gang_'
'fot'
'fini'
'finer_'
'filet_'
'expl'
'eter'
'establish'
'eiger_'
'edgy_'
'dav'
'conv'
'colca_'
'chandigarh_'
'buts'
'bu_'
'broadband_'
'bread'
'bore'
'bermuda_'
'barn'
'apps_'
'andth'
'ag'
'adapt'
'96_'
'62'
' : + _'
' " ) ._'
'… _'
'xin'
'wreck_'
'worlde_'
'wor'
'whin'
'westgate_'
'viewi'
'uce'
'tui_'
'townwe_'
'toucans_'
'tere'
'teenager_'
'tc'
'snooker_'
'siena_'
'shir'
'seychelles_'
'sesame_'
'sc'
'sbury_'
'resteraunts_'
'resolve_'
'quil'
'pou'
'pim'
'percent_'
'pd'
'pau'
'niz'
'mechanical_'
'mates_'
'leftovers_'
'launching_'
'journal_'
'jewellery_'
'inns'
'illa_'
'ile'
'ially_'
'hya'
'hof'
'highwayand_'
'halles_'
'goe'
'godsend_'
'fox'
'fl'
'fig_'
'exquisitely_'
'expanding_'
'etcthe_'
'eit_'
'dollywood_'
'diver_'
'disability_'
'dip'
'cracked_'
'containers_'
'coco'
'chr'
'chaweng_'
'cayman_'
'bash'
'barbe'
'backpacker_'
'ataturk_'
'ap'
'angels_'
'andjust_'
'amar'
'alter'
'acu'
'acted_'
'5star_'
'24h_'
'1500_'
' ./ _'
' .# _'
'zoo'
'wu_'
'woburn_'
'weigh'
'warnings_'
'wailea_'
'wah'
'vu'
'velas_'
'vega'
'unu'
'twins_'
'tuc_'
'triumph_'
'thrill_'
'tei'
'take'
'swap_'
'sums_'
'stops'
'spec'
'southwestern_'
'socialize_'
'sko'
'silverware_'
'shout'
'seri'
'rude'
'rox'
'rivals_'
'ria'
'restroom_'
'rathaus_'
'ports'
'picasso_'
'peacefully_'
'parent_'
'pale'
'oat_'
'muse'
'mtrs_'
'mountain'
'mckinley_'
'mbi'
'lorenzo_'
'lid'
'leh'
'kos_'
'knees_'
'kite_'
'kingman_'
'jackets_'
'ipanema_'
'ipa'
'ink'
'influenced_'
'hugo_'
'hilton'
'helena_'
'glenwood_'
'gau'
'fu_'
'fanc'
'erat'
'edg'
'dragged_'
'downs'
'distancebut_'
'disruption_'
'dead'
'dayso_'
'connecticut_'
'chil'
'chich'
'check'
'centreso_'
'call'
'brighter_'
'boone_'
'awe'
'ator'
'arra'
'andvery_'
'alder'
'aesthetically_'
'abs'
'34'
'295_'
'107_'
'03_'
'wv_'
'wig'
'waverly_'
'walgreen_'
'vl'
'underwhelmed_'
'unc_'
'unb'
'tryp_'
'trastevere_'
'translate'
'transferring_'
'tiergarten_'
'thri'
'swamp_'
'stephanie_'
'spo'
'soc'
'sir'
'shak'
'scarlet_'
'santander_'
'sails_'
'saba'
'rum'
'ribe'
'retr'
'ress'
'relying_'
'relaxing'
'rel'
'refund_'
'reduction_'
'realy_'
'ray'
'ravello_'
'processed_'
'pony_'
'patri'
'pare'
'palapa_'
'object_'
'nic_'
'motor'
'menin_'
'masterpiece_'
'mal_'
'los'
'lorry_'
'ln'
'lifted_'
'lep'
'lansing_'
'jur'
'intercity_'
'ingbut_'
'ias_'
'hib'
'herb_'
'hee'
'heat'
'gut'
'guana'
'gimignano_'
'flavored_'
'fences_'
'fau'
'fall'
'essex_'
'ell'
'doubt'
'doubled_'
'dig'
'derry_'
'delphi_'
'cui'
'cori'
'competitor_'
'clad_'
'chunk'
'chez_'
'candlelight_'
'calla'
'buttons_'
'buda_'
'breakfasts'
'bold_'
'boisterous_'
'blanc'
'bhopal_'
'awesome'
'archway_'
'apology_'
'apex_'
'ams_'
'amphitheatre_'
'amal'
'alila_'
'aire_'
'aforementioned_'
'adel'
'46'
' ---_'
'xan'
'westerners_'
'wander'
'walter_'
'waitstaff_'
'vt_'
'usthe_'
'trimmings_'
'treat'
'tif'
'tes'
'sync'
'suva_'
'suitably_'
'suffolk_'
'strongest_'
'skipton_'
'sin_'
'signing_'
'significance_'
'savoury_'
'respectful_'
'raven'
'raved_'
'quibbles_'
'punakha_'
'prima'
'prepa'
'pilgrimage_'
'outsidei'
'ose_'
'oro'
'opener_'
'neck'
'neatly_'
'mugg'
'monta'
'mona_'
'merc'
'malmaison_'
'lombok_'
'interl'
'inha'
'inaccessible_'
'hugh_'
'hubs_'
'hac'
'habitat_'
'greasy_'
'gooda'
'format_'
'flawlessly_'
'flam_'
'file'
'esque_'
'emu'
'elusive_'
'ef'
'dust'
'definition_'
'crawl_'
'companions_'
'cobblestones_'
'categories_'
'cas'
'cameron_'
'burg'
'bragg_'
'bourg_'
'boll'
'beck_'
'batt'
'barrio_'
'argue_'
'anni'
'andc'
'ambulances_'
'aj'
'agnes_'
'adrian_'
'accessable_'
'\\_'
'65'
'4wd_'
'zar'
'vue_'
'versailles_'
'uta'
'uno_'
'univ_'
'ular_'
'troubles_'
'tig'
'terracotta_'
'sundown_'
'stown_'
'stea'
'staging_'
'ssion_'
'soft'
'smiley_'
'showerhead_'
'riverview_'
'reve'
'raw'
'provider_'
'prefered_'
'porc'
'poly'
'pens'
'oversee'
'option'
'onis'
'nobu_'
'moma_'
'millions_'
'mesmerizing_'
'lude'
'kis'
'kaanapali_'
'jose'
'jee'
'hurghada_'
'hipp'
'hakone_'
'grun'
'glitches_'
'gangnam_'
'frau'
'fired_'
'ferris_'
'fault'
'eurotunnel_'
'ec'
'dv'
'doubtful_'
'default_'
'daythe_'
'crying_'
'commi'
'cloths_'
'christian'
'cars'
'buddhist_'
'bordered_'
'balcon'
'axi'
'autograph_'
'ata_'
'asi'
'andwell_'
'amu'
'aegean_'
'addis_'
'accessories_'
'.- _'
' ;'
'xe'
'working'
'wim'
'weird'
'unic'
'understaffed_'
'uncle_'
'twee'
'tua'
'tsi'
'tolerable_'
'toit_'
'talk'
'tad'
'surrey_'
'summ'
'specialist_'
'smartphone_'
'slightest_'
'skyscraper_'
'sis_'
'sga'
'sett'
'rus'
'rive_'
'restocked_'
'ramparts_'
'racket_'
'quietthe_'
'poipu_'
'placebut_'
'paste'
'pape'
'ork'
'northbound_'
'mover_'
'moto'
'moors_'
'menu'
'mead_'
'maximize_'
'massachusetts_'
'marts_'
'macaws_'
'ma'
'loa'
'laden_'
'kom'
'jon_'
'jon'
'jetwing_'
'irst_'
'iki'
'heron_'
'hero'
'harp'
'greg'
'grate'
'glassed_'
'freshest_'
'frantic_'
'ents_'
'entertainers_'
'ein_'
'edw'
'edd'
'dorchester_'
'dari'
'dal_'
'cyn'
'cobble_'
'ciu'
'chipotle_'
'campfire_'
'biscuit_'
'bier'
'bbqs_'
'batu_'
'baku_'
'bak'
'az'
'ati_'
'asparagus_'
'arg'
'anf'
'alg'
'aking_'
'airportwe_'
'af'
'accomplished_'
'acces_'
'56_'
'53_'
'10minutes_'
'07'
' -'
' $ $ _'
'vn'
'via'
'ushered_'
'unspoiled_'
'uer'
'uan'
'trick'
'thunderbird_'
'thee_'
'taiwan_'
'suk'
'successfully_'
'strait_'
'sthere_'
'steer_'
'she'
'seg'
'saun'
'sant_'
'sah'
'risers_'
'returnthe_'
'repa'
'recomended_'
'prides_'
'preferably_'
'plaza'
'phx_'
'paz_'
'parti'
'panelled_'
'onn'
'novena_'
'nancy_'
'nama'
'mk_'
'minimize_'
'landings_'
'lakeland_'
'kilimanjaro_'
'kart'
'iner'
'how'
'henderson_'
'grumble_'
'fruit'
'fitzroy_'
'filthy_'
'fier'
'exc'
'esh_'
'ervice_'
'erst'
'ement_'
'ead_'
'durban_'
'divi_'
'detect'
'dece'
'debris_'
'daniel'
'crush_'
'crowd'
'coc'
'clan'
'citrus_'
'cien'
'chim'
'canceled_'
'calientes_'
'bricktown_'
'boundary_'
'blended_'
'bern'
'bah'
'asks_'
'arti'
'aroundand_'
'angela_'
'55'
'48'
'1960s_'
'1900_'
'.-'
',,_'
'! !_'
'zz'
'youtube_'
'yar'
'yama'
'vir'
'vest'
'verizon_'
'utes_'
'unda'
'umi'
'u2_'
'tug'
'tripping_'
'thin'
'tgif_'
'teen'
'sweat_'
'suvarnabhumi_'
'supreme_'
'succeed'
'stolen_'
'stas'
'shock'
'restaurantbut_'
'reno'
'record'
'raff'
'poznan_'
'poss'
'poc'
'paul'
'pass'
'ming'
'marriage_'
'marmara_'
'maris'
'lq_'
'larry_'
'lari'
'kum'
'keycard_'
'jua'
'jake_'
'inspect'
'indifferent_'
'howling_'
'hon'
'hb_'
'hamburgers_'
'garr'
'gabriel_'
'fin'
'fijian_'
'fet'
'espana_'
'enthusiastically_'
'eccentric_'
'draw'
'developments_'
'dedication_'
'cp'
'clare'
'civilised_'
'busi'
'boogie_'
'badminton_'
'aw_'
'avalon_'
'anytime'
'annually_'
'akin_'
'againw'
'able'
'60th_'
'45mins_'
')'
'youngest_'
'yang_'
'willingly_'
'who'
'viejo_'
'terra'
't1_'
'switching_'
'stub'
'strat'
'spree_'
'spic'
'spell'
'slipped_'
'sl'
'shel'
'sentral_'
'section'
'seawall_'
'sarlat_'
'sahara_'
'sable_'
'roe'
'ris_'
'reserves_'
'repeating_'
'renew'
'rele'
'quet_'
'pru'
'prec'
'posti'
'pat'
'pane_'
'outward_'
'oth'
'oracle_'
'operational_'
'ooo'
'ono'
'obliged_'
'nthe_'
'nord'
'nell'
'nail_'
'mozart_'
'mojitos_'
'male'
'lore'
'lom_'
'locat'
'launceston_'
'laneway_'
'job'
'instructed_'
'ign'
'i8'
'hotelw'
'horrific_'
'holyrood_'
'his'
'hie'
'heath'
'hapuna_'
'handles_'
'guessed_'
'gritty_'
'ghats_'
'gardener_'
'finca_'
'exo'
'exh'
'eto'
'erd'
'elounda_'
'easi'
'dura'
'dorm'
'depo'
'dei_'
'dbb_'
'creation_'
'contrast'
'cic'
'catal'
'cary_'
'campers_'
'bun_'
'bottom'
'beac'
'asu_'
'ass_'
'arranges_'
'arboretum_'
'als'
'alfama_'
'zen'
'winnipeg_'
'wasi'
'wang'
'uch'
'tz'
'twilight_'
'tirana_'
'tipped_'
'tep'
'telescope_'
'tee'
'taxis'
'tape'
'summertime_'
'sum'
'strangers_'
'stagger'
'spray'
'spinn'
'soleil_'
'smithsonian_'
'smashing_'
'slee'
'sid'
'send'
'schloss_'
'samo'
'rkt_'
'rio'
'retreat'
'restaurantthe_'
'regarded_'
'rapallo_'
'racks_'
'present'
'phi'
'perr'
'paw'
'oga'
'och_'
'och'
'norma'
'negr'
'nao'
'muang_'
'mondays_'
'modernis'
'mines_'
'mart'
'malt'
'lui'
'luc'
'lob'
'lic'
'lex_'
'killing_'
'kc'
'kaya_'
'jam'
'ites_'
'interfere_'
'ifi_'
'horror_'
'hog'
'hilarious_'
'hassled_'
'hardwood_'
'girl'
'fairways_'
'eta'
'erna'
'egg'
'earth'
'doors'
'disliked_'
'dime_'
'controll'
'confi'
'command_'
'comer'
'cliff'
'castro_'
'castillo_'
'cani'
'burgh_'
'bryggen_'
'brittany_'
'bowness_'
'bedtime_'
'association_'
'ameri'
'aguas_'
'195'
'101'
'yt'
'welcome'
'washroom_'
'walt_'
'walkw'
'uneasy_'
'ubahn_'
'treetops_'
'tras'
'tower'
'tn'
'threatened_'
'tamar'
'sworth_'
'swindon_'
'stronger_'
'storeys_'
'stack_'
'spruce_'
'southw'
'southe'
'scrub_'
'sauces_'
'roomso_'
'rocket_'
'rever'
'resorts'
'remote'
'prize_'
'positions_'
'pend'
'paradors_'
'osp'
'onal_'
'nta_'
'nst'
'newness_'
'mok'
'manta'
'malibu_'
'linea'
'limit'
'large'
'lager_'
'lad'
'kicking_'
'julie_'
'ium_'
'incorporated_'
'hv'
'hew'
'hens_'
'haram_'
'hale'
'glove'
'glass'
'ghat_'
'gaz'
'garmin_'
'fridges_'
'fog'
'fll_'
'dtw_'
'dow'
'discussed_'
'ded'
'dbut_'
'cv'
'count'
'cle_'
'celi'
'carlson_'
'card'
'capital'
'canyon'
'cadiz_'
'byw'
'bp_'
'bosc'
'bert_'
'asap_'
'ars'
'armchair_'
'angled_'
'amboise_'
'amand'
'adorned_'
'a14_'
'747_'
'63'
'$ '
'ø'
'wwii_'
'wilde'
'wil_'
'ula_'
'uka'
'uch_'
'tuc'
'truro_'
'timeless_'
'throngs_'
'thrilling_'
'thie'
'tel'
'technical_'
'talkeetna_'
'suite'
'stools_'
'staffa'
'spu'
'sne'
'sls_'
'shortbread_'
'sentosa_'
'sem'
'russ'
'rung'
'regrets_'
'reali'
'ramen_'
'pronounced_'
'porth'
'overnighting_'
'outh'
'opi'
'oon'
'nut'
'mental_'
'march'
'mainstream_'
'luci'
'login_'
'littered_'
'lill'
'lest'
'leo'
'legend_'
'leader_'
'kee'
'kb'
'kate_'
'juic'
'ional_'
'interconnected_'
'intercon_'
'indicates_'
'iche'
'hussle_'
'hn'
'hdmi_'
'has'
'gouge'
'ghetto_'
'gardiner_'
'garde'
'fou'
'fication_'
'expedition_'
'eo_'
'eir'
'downright_'
'devonshire_'
'delectable_'
'decidedly_'
'davidson_'
'croc'
'crack'
'convince_'
'commence'
'cie'
'choices'
'butin_'
'bulk_'
'breathe_'
'bind'
'bert'
'bathrobe_'
'barra_'
'bale'
'app'
'alarms_'
'accent_'
'63_'
'44'
'37'
'280_'
' : " _'
'wand'
'unlit_'
'treating_'
'trainers_'
'trai'
'tand'
'tame_'
'swanston_'
'sundeck_'
'sted_'
'springbok_'
'spin_'
'soviet_'
'southbound_'
'snowstorm_'
'sneak'
'shri'
'sawgrass_'
'roots_'
'proprietors_'
'polanco_'
'plum'
'pie'
'pea_'
'nostalgia_'
'neg'
'mis_'
'mars'
'lumpini_'
'lori'
'kill'
'kenny_'
'jaffa_'
'ish'
'irvine_'
'ironbridge_'
'ipswich_'
'invested_'
'increasingly_'
'ih_'
'iat'
'humm'
'hoo_'
'hofn_'
'hast'
'hammer'
'gue_'
'gos_'
'gm'
'gast'
'gale_'
'gale'
'fj'
'fai'
'eth'
'emba'
'ebe'
'dump'
'doughnuts_'
'describing_'
'dela'
'creature_'
'crank'
'cobb_'
'chartres_'
'canvas_'
'bust_'
'bullring_'
'bluffs_'
'bill'
'benalmadena_'
'beckon'
'await_'
'availed_'
'attempting_'
'appl'
'aperitif_'
'anyone'
'alst'
'againbut_'
'a6'
'45pm_'
'zocalo_'
'yum'
'xs'
'welli'
'weed_'
'vs'
'viewa'
'venue'
'valparaiso_'
'ury_'
'twin'
'tted_'
'trap'
'tiresome_'
'tip'
'tint'
'swo'
'suprised_'
'suns'
'stunned_'
'str'
'steves_'
'stations'
'stages_'
'stage'
'span_'
'sley_'
'shopper_'
'scramble_'
'scare_'
'router_'
'roomsthe_'
'rog'
'roadtrip_'
'restar'
'remark_'
'redi'
'redevelopment_'
'raton_'
'pyr'
'pumpkin_'
'prevail'
'predict'
'patrolled_'
'passers_'
'pages_'
'overnight'
'overhang'
'osh'
'officer_'
'nw'
'nte'
'nm'
'nido_'
'net'
'marcos_'
'manatees_'
'lrt_'
'ledge_'
'leb'
'leave'
'leaflets_'
'kenmare_'
'jebel_'
'int'
'imho_'
'i90_'
'i2'
'hore_'
'hight'
'hallstatt_'
'graf'
'gho'
'foodies_'
'ello_'
'dynamic_'
'dining'
'dian_'
'deri'
'darjeeling_'
'crepe_'
'coup'
'conci'
'ching_'
'chilis_'
'chew'
'chel'
'centreand_'
'camb'
'buxton_'
'butnot_'
'burned_'
'blackberry_'
'before'
'ational_'
'ascot_'
'andaman_'
'ales'
'agains'
'1h'
'! _'
' ! ._'
'‘ _'
'ypres_'
'watford_'
'waft'
'vik'
'vei'
'uf_'
'tweed_'
'tus'
'towni_'
'timewe_'
'telluride_'
'strips_'
'soa'
'skie'
'sexy_'
'revelers_'
'recommends_'
'pula'
'pref'
'portable_'
'poles_'
'poet'
'pod'
'plant'
'pira'
'ping'
'patter'
'pann'
'overflowing_'
'ouch'
'onne_'
'once'
'okay'
'odor'
'oden'
'nons'
'nephew_'
'navi'
'nai_'
'meander_'
'mbu'
'mber'
'marin_'
'mangroves_'
'maddening_'
'liz'
'lib'
'kloof_'
'kan_'
'jellyfish_'
'jas_'
'ioni'
'inge'
'inconveniences_'
'i6'
'hw'
'hotelm'
'henley_'
'gwa'
'gle_'
'flock_'
'field'
'fest'
'faucet_'
'euros'
'eries_'
'endure_'
'elena_'
'een'
'dwe_'
'dle_'
'disruptive_'
'dipping_'
'dells_'
'decline_'
'danieli_'
'curl'
'creep'
'cove'
'cous'
'compliment'
'communities_'
'chasing_'
'centralized_'
'carpa'
'caribe_'
'caen_'
'brewer_'
'bodega_'
'blizzard_'
'bethlehem_'
'barstow_'
'bahn'
'bagh_'
'asse'
'andonly_'
'ambar_'
'alt'
'allit_'
'akureyri_'
'airportit_'
'agin_'
'aboard_'
'196'
'"-'
'zimbabwe_'
'zer_'
'yuma_'
'wicked_'
'wading_'
'unreasonable_'
'unm'
'treacherous_'
'tina_'
'teresa_'
'teppanyaki_'
'sty_'
'sterling_'
'spear'
'sop'
'russia_'
'roof'
'roast'
'riv'
'rijksmuseum_'
'rights_'
'receives_'
'presentations_'
'prebooked_'
'poop_'
'polar_'
'please'
'ple_'
'participants_'
'paddle'
'overa'
'moro'
'monitored_'
'mick'
'meals'
'local'
'levant'
'kot'
'kep'
'jbr_'
'hus'
'humb'
'hancock_'
'hallmark_'
'fus'
'footage_'
'flashy_'
'federation_'
'famil'
'eton_'
'ento'
'dumped_'
'drape'
'dispe'
'design'
'demands_'
'cycl'
'custard_'
'curr'
'consuming_'
'conjunction_'
'comple'
'commission_'
'commands_'
'citizenm_'
'choiceand_'
'busyso_'
'brews_'
'breast_'
'bray'
'birdwatching_'
'betw'
'backwater_'
'aso_'
'anga'
'andro'
'andh'
'albans_'
'agon'
'againshould_'
'africa'
'50s_'
' ’ , _'
' ;)_'
' : ) _'
' .............'
' ...'
'—'
'zal'
'wk'
'wight_'
'wedged_'
'wack'
'voi'
'verd'
'uswe_'
'unin'
'tuni'
'trin'
'tourist'
'tof'
'taller_'
'talent_'
'stew_'
'staggering_'
'sq'
'spooky_'
'sona'
'skimp'
'shopp'
'shek'
'shant'
'servi'
'schil'
'saw'
'sausalito_'
'saa'
'roth'
'rosen'
'rge_'
'recumbent_'
'rectangular_'
'rai'
'puppet_'
'proposition_'
'priory_'
'porte_'
'peru'
'pei_'
'pedicure_'
'pale_'
'overhaul_'
'overbooked_'
'outsidebut_'
'orn'
'organizing_'
'oint_'
'odd'
'nder_'
'nav'
'meh'
'madero_'
'macao_'
'leura_'
'knocking_'
'kn'
'itit_'
'italia_'
'introduce_'
'indulgent_'
'hop'
'hoi'
'hero_'
'healthier_'
'harvey_'
'hardy_'
'groom_'
'gree'
'gn'
'gest'
'germans_'
'gera'
'gear'
'gautrain_'
'gans_'
'galle'
'flyover_'
'ethiopia_'
'entertainments_'
'emily_'
'ego'
'edly_'
'doc_'
'define'
'das'
'coves_'
'convivial_'
'contacting_'
'comprising_'
'colchester_'
'clock'
'clarks'
'chrysler_'
'carriages_'
'carre'
'cade'
'butw'
'brus'
'bord'
'booklet_'
'bombay_'
'bet'
'bellini_'
'baking_'
'azur_'
'awaythe_'
'avia'
'aunt_'
'auditorium_'
'arndale_'
'applied_'
'anticipating_'
'alk'
'afe'
'admired_'
'abel_'
'92_'
'201'
'1980_'
'129_'
'wolf'
'wimbledon_'
'wick'
'whiskies_'
'water'
'walkab'
'vist_'
'vick'
'viable_'
'vacancy_'
'urban'
'ups'
'tze'
'tuk'
'tors_'
'toma'
'toilet'
'tia'
'thurs_'
'sundry_'
'staye'
'stad'
'spectrum_'
'salubrious_'
'sagar_'
'rubb'
'rosa'
'reconstruction_'
'recipe_'
'rasse_'
'quote_'
'pv'
'pera'
'passports_'
'overcast_'
'othe_'
'orbit'
'nighti'
'negative'
'ndr'
'national'
'moorea_'
'moon'
'merits_'
'manatee_'
'mab'
'm6'
'lope'
'locationi_'
'little'
'liners_'
'leonardo_'
'leo_'
'lads_'
'kuredu_'
'kroger_'
'kapa'
'jia'
'iz'
'italians_'
'ilo'
'i80_'
'husband'
'hotelc'
'glenelg_'
'fortnight_'
'fili'
'farr'
'facil'
'exclusivity_'
'drilling_'
'doolin_'
'dispensers_'
'definitley_'
'cray'
'cran'
'commonwealth_'
'comb_'
'coh'
'cloister_'
'chocolat'
'chipping_'
'cheese'
'cera'
'carrot_'
'carri'
'carra'
'calafate_'
'azure_'
'atr'
'ase_'
'arty_'
'apo'
'annecy_'
'andno_'
'andmy_'
'amin'
'allw'
'ads_'
'achi'
'5a'
'128_'
'!!_'
'vul'
'vr'
'vo'
'vibes_'
'verything_'
'vaporett'
'urn'
'unpacking_'
'umb'
'ule'
'tris'
'torre_'
'tian_'
'tarr'
'tard'
'sutera_'
'survive_'
'stuart_'
'sses_'
'specta'
'sni'
'smartly_'
'slu'
'ska_'
'seawa'
'sapa_'
'sally_'
'saddle'
'rv'
'rouen_'
'rooma'
'rochelle_'
'retrospect_'
'resources_'
'reaction_'
'puri'
'promote_'
'prices'
'posta'
'polluted_'
'pant'
'padd'
'oswego_'
'osu_'
'orch'
'opinions_'
'oil'
'odaiba_'
'oci'
'nebraska_'
'nci'
'nature'
'muni_'
'moncton_'
'melt_'
'meli'
'mel_'
'maka'
'mado'
'm2_'
'lots'
'loc'
'laundr'
'iya'
'ings'
'inau'
'hedge_'
'graph'
'floors'
'ewa'
'ese'
'entit'
'ente'
'embark'
'ega'
'dt'
'dle'
'dissapoint'
'disgusting_'
'dig_'
'dick'
'destin_'
'dere'
'czech_'
'cuppa_'
'cun'
'compu'
'coaster_'
'christopher_'
'catalonia_'
'cappuccinos_'
'cam_'
'butts_'
'butf'
'buried_'
'bonuses_'
'birthdays_'
'bike'
'betty_'
'behaviour_'
'bari'
'atitlan_'
'atacama_'
'asy_'
'asoke_'
'artic'
'arte'
'amherst_'
'alight_'
'alfresco_'
'185'
'15am_'
'youi'
'wt'
'western'
'voted_'
'vc'
'understands_'
'tum'
'tse'
'troy_'
'tre_'
'tra_'
'thw'
'ths_'
'thet'
'ted'
'taw'
'tails_'
'sty'
'stir_'
'standpoint_'
'splendor_'
'spit_'
'spat'
'skilled_'
'sita'
'sharon_'
'rush'
'rop'
'rider_'
'restrooms_'
'renovate_'
'rde'
'provo_'
'prem'
'prayers_'
'pleasure'
'plate'
'parr'
'panta'
'olh'
'nol'
'nicaragua_'
'nevsky_'
'nca_'
'musician_'
'moulin_'
'mot'
'moss_'
'morris_'
'morgantown_'
'mon'
'mess'
'measures_'
'major'
'lyn_'
'lu'
'lasts_'
'lah'
'knowle'
'kennebunkport_'
'intrude'
'imbi'
'himalayas_'
'hibiscus_'
'hake_'
'guin'
'gea'
'fr'
'ev'
'erry_'
'erio'
'environmental_'
'elm'
'edible_'
'dennis_'
'delegates_'
'damm_'
'crosses_'
'cottonwood_'
'corri'
'contract_'
'conducting_'
'colleg'
'cityscape_'
'chamber_'
'cerv'
'cavernous_'
'cartes_'
'capp'
'builders_'
'bright'
'breakfastwe_'
'bracket_'
'bicester_'
'bashi_'
'backpack'
'atv_'
'atmos'
'ary'
'aren'
'arche'
'announce'
'andi'
'adventure'
'abb'
'34th_'
'1950_'
'193'
' & '
' $ '
'ways'
'waik'
'vastly_'
'uan_'
'turin_'
'truffle_'
'townit_'
'townhouses_'
'thisi'
'thier_'
'tart'
'swin'
'susan_'
'sup'
'sunb'
'strewn_'
'staya'
'spie'
'sku'
'singular_'
'rve'
'rost'
'revamp_'
'retiring_'
'restraunt_'
'reopened_'
'redecorated_'
'rama'
'rah'
'puxi_'
'pse'
'pretend_'
'pram'
'powerscourt_'
'playhouse_'
'perce'
'pans_'
'pain'
'pag'
'overb'
'orth_'
'ogunquit_'
'oceana_'
'nighti_'
'ngi'
'nachos_'
'montmartre_'
'moher_'
'mohammed_'
'mina'
'mex_'
'metropolis_'
'mbl'
'matte'
'mani_'
'louis'
'litt'
'kle'
'jut'
'jing_'
'ipads_'
'investigate_'
'interactions_'
'inj'
'imported_'
'immersed_'
'ich_'
'hurtigruten_'
'hotspots_'
'highwaybut_'
'hiccups_'
'gue'
'graze_'
'grass'
'grapevine_'
'gowns_'
'goa'
'glad'
'fumes_'
'formalities_'
'everthing_'
'escaping_'
'erias_'
'enchanted_'
'elevators'
'ede'
'dram'
'dorm_'
'dominic'
'dings_'
'dampen'
'cris'
'cover'
'constructions_'
'conge'
'commen'
'cola_'
'codes_'
'chop'
'children'
'chick_'
'castello_'
'campus'
'burnt_'
'bure_'
'brandy_'
'bercy_'
'bees_'
'bas_'
'baros_'
'bake'
'appeals_'
'amor'
'abba_'
'32nd_'
'"'
'wye_'
'wing'
'whisper_'
'visits'
'verna'
'valet'
'uru'
'tth'
'trepidation_'
'towing_'
'tm'
'tio'
'thy_'
'thanh_'
'tarts_'
'tana_'
'swimmingpool_'
'sweaty_'
'sut'
'splurged_'
'sorbet_'
'sive_'
'separation_'
'sears_'
'roomw'
'riz'
'reina_'
'raucous_'
'ramble'
'rach'
'race'
'quet'
'prostitutes_'
'postcards_'
'pond'
'plitvice_'
'pilates_'
'pictured_'
'penc'
'ook'
'notorious_'
'northwestern_'
'ndo'
'nac'
'mpl'
'mow'
'mousse_'
'mountains'
'mixing_'
'merci'
'mardi_'
'mapp'
'mackinac_'
'lg'
'kk'
'keith_'
'kea_'
'jenny_'
'jax_'
'jar_'
'imp'
'imi'
'horribly_'
'honest'
'hana_'
'growth_'
'grandparents_'
'fy_'
'fetch_'
'expand_'
'este'
'equip'
'elysee_'
'eka_'
'dest'
'deo'
'delicious'
'cyber'
'cw'
'cted_'
'crat'
'cotta_'
'cornerand_'
'copies_'
'contributors_'
'continent_'
'choppy_'
'child'
'captured_'
'bry'
'brompton_'
'boule'
'blasting_'
'bg'
'bethesda_'
'berwick_'
'bayeux_'
'basins_'
'ays'
'ax_'
'asti'
'assi'
'aquatic_'
'antoni'
'amex_'
'amer'
'alth'
'alp'
'\u_'
'320_'
'215_'
' :) ._'
'xintiandi_'
'wrist_'
'wheeling_'
'wexford_'
'westc'
'welland_'
'waterton_'
'wallabies_'
'universit'
'troublesome_'
'trainstation_'
'toe_'
'toast'
'therei_'
'tenn'
'taught_'
'tat_'
'taos_'
'tann'
'swakopmund_'
'suv'
'sports'
'spectacle_'
'souq_'
'socializing_'
'sme'
'signa'
'shepherd_'
'shenandoah_'
'rovinj_'
'restaurantand_'
'repai'
'reco'
'raz'
'rau'
'ramadan_'
'rall'
'rade'
'ppe'
'poke'
'pk'
'peters_'
'penzance_'
'penguin_'
'pate_'
'pars'
'parkthe_'
'paella_'
'outi'
'ooty_'
'ole'
'nod_'
'ngh'
'ners_'
'nearbyso_'
'nded_'
'nct'
'nali'
'mulli'
'mour'
'mend'
'martha_'
'marino_'
'malt_'
'mae_'
'loi'
'livelier_'
'kes'
'joy'
'invariably_'
'intrepid_'
'interactive_'
'ince_'
'identified_'
'iber'
'hone'
'hoards_'
'hear'
'grum'
'gond'
'gio'
'gia_'
'gf_'
'garni'
'four'
'faith_'
'fabrics_'
'estr'
'ees'
'ears_'
'dread'
'doo'
'done'
'dine'
'dilapidated_'
'dei'
'deansgate_'
'cry_'
'corona'
'chamber'
'carvings_'
'carparks_'
'calmness_'
'butp'
'bhutanese_'
'benni'
'bengal'
'bends_'
'baroque_'
'arran_'
'appealed_'
'anto'
'ament'
'alma_'
'adu'
'activities'
'a5'
'1930s_'
'!!!'
'yang'
'wana_'
'valley'
'uv'
'usk'
'ude'
'transp'
'trainer_'
'titicaca_'
'tao'
'sunw'
'stars'
'stains_'
'spark'
'spac'
'solvang_'
'sip'
'sights'
'shortest_'
'rub'
'rotate'
'ricks'
'rhe'
'reston_'
'renewed_'
'reader_'
'quo'
'ques_'
'qe'
'pricey'
'preco'
'preci'
'pico_'
'phl_'
'pf'
'pepper'
'owe_'
'outgoing_'
'ortigia_'
'opa'
'ones'
'niche_'
'ngt'
'ness'
'nec'
'nche'
'mph_'
'mouse_'
'mount'
'metropol_'
'member'
'marcel'
'lling_'
'leadership_'
'kitsch_'
'josh_'
'joke'
'jess'
'jamestown_'
'itw'
'iona'
'iny'
'intention'
'insurance_'
'ils_'
'icate'
'holm'
'harrison_'
'haarlem_'
'gore'
'gei'
'gar_'
'galli'
'extractor_'
'esti'
'espan'
'enquir'
'enh'
'dumfries_'
'dromoland_'
'desires_'
'decorat'
'curt'
'crete_'
'creak'
'consist_'
'comic'
'clari'
'cease'
'carr'
'carol'
'bug'
'boni'
'bef'
'bc'
'barg'
'attack_'
'appar'
'anticipation_'
'andre_'
'andf'
'albu'
'absolut'
'97_'
'82_'
'*. _'
' ? ? '
' ' !_'
'zac'
'westb'
'wed'
'wasthe_'
'vivanta_'
'verandas_'
'venice'
'urne'
'undr'
'uncovered_'
'uff'
'trainand_'
'tired'
'tene'
'stadt_'
'squeak'
'sonic_'
'riyadh_'
'rik'
'rian'
'retrieved_'
'respectively_'
'regents_'
'reccom'
'ratcha'
'radiat'
'pulls_'
'propos'
'precisely_'
'powdered_'
'pose_'
'peanut_'
'parag'
'padded_'
'owls_'
'olivia_'
'nbu'
'mum'
'moul'
'motorway'
'mg'
'media'
'maya'
'marquee_'
'lud'
'luck'
'limiting_'
'le'
'larnaca_'
'klo'
'jennifer_'
'jail_'
'jacks_'
'ip_'
'indo'
'hus_'
'holi'
'heim_'
'happenings_'
'hannover_'
'grin'
'got'
'gers_'
'floats_'
'expect'
'evo'
'epernay_'
'emerge'
'elgin_'
'edbut_'
'eastw'
'dumpsters_'
'dum'
'dreamy_'
'devils_'
'dealers_'
'crafted_'
'coy'
'cora'
'contend_'
'consider'
'concentrate_'
'compass_'
'citi'
'cir'
'choir_'
'cellars_'
'busyi'
'breakfastand_'
'bout'
'blooming_'
'bidet_'
'bem'
'belief_'
'ballet_'
'ballar'
'awayso_'
'aviemore_'
'aroundbut_'
'alga'
'agreeable_'
'admiral_'
'39'
' 👍 '
'yer'
'ye'
'xt_'
'wide'
'wd'
'uy'
'unti'
'uncommon_'
'uc'
'ube'
'transform'
'timber'
'terr'
'swivel_'
'surly_'
'skylight_'
'sb_'
'sans_'
'rua_'
'rite_'
'rh_'
'revamped_'
'redmond_'
'rec_'
'rachel_'
'quality'
'pron'
'process'
'prep'
'pota'
'plain'
'pati'
'pate'
'parkade_'
'palau_'
'overcharge'
'orm'
'oes_'
'obtrusive_'
'nearbybut_'
'muss'
'mund'
'mosques_'
'metrop'
'messed_'
'meg'
'maspalomas_'
'maglev_'
'logs_'
'logging_'
'lod'
'kro'
'knight_'
'kana'
'kal_'
'jonker_'
'jett'
'jenn'
'ivi'
'issue'
'interpret'
'instrument'
'incoming_'
'i70_'
'hue'
'hle'
'hay'
'hardest_'
'grubby_'
'getaways_'
'geography_'
'gastro_'
'forb'
'footprint_'
'eval'
'ellie'
'dove'
'distanceand_'
'corralejo_'
'cordo'
'cke'
'celeb'
'cei'
'bute'
'breed'
'bellboy_'
'bele'
'bble'
'banter_'
'arine_'
'antic'
'andwhat_'
'ambassadors_'
'airlink_'
'airb'
'activites_'
'://_'
'73_'
'zia_'
'yl_'
'yeah_'
'whereby_'
'wari_'
'vy_'
'vertical_'
'velo'
'urs'
'unused_'
'unsa'
'undeveloped_'
'trucke'
'transfer'
'trag'
'tract'
'tne'
'tick'
'tex_'
't4_'
'swat'
'strath'
'stow_'
'stayit_'
'squid_'
'spitting_'
'smoke'
'smog_'
'skopje_'
'siting_'
'shore'
'shear'
'shea'
'sati'
'safes_'
'rovi'
'rotterdam_'
'rosemont_'
'ripp'
'rican_'
'ric'
'rett'
'remembers_'
'plague'
'placid_'
'perfecti'
'pedestrianized_'
'passi'
'outlying_'
'outand_'
'notices_'
'newton_'
'ndl'
'nde'
'michel'
'method_'
'mao_'
'made'
'loan'
'laser_'
'kya'
'kab'
'jn'
'jas'
'jaguar_'
'inward_'
'indulged_'
'incorporate'
'inclusives_'
'hine'
'hile_'
'gou'
'god'
'gma'
'fil_'
'ffa'
'fantasy_'
'expressed_'
'exposure_'
'espa'
'eso_'
'environmentally_'
'enought'
'enforced_'
'dripping_'
'drake_'
'downton_'
'creekside_'
'coro'
'cord_'
'coordinated_'
'condado_'
'classed_'
'chur'
'charmed_'
'bumping_'
'bosporus_'
'barl'
'bake_'
'attendance_'
'ats'
'angeli'
'alw'
'aloha_'
'adore_'
'abd'
'a3'
'302_'
'203_'
'* '
' … '
'willi'
'whirl'
'wdw_'
'vine'
'vault_'
'upw'
'upfront_'
'unsurpassed_'
'unde'
'unattended_'
'ume'
'twinkling_'
'towel'
'tobacco_'
'throwback_'
'term'
'teguise_'
'teddy_'
'teach_'
'td_'
'tailored_'
'sympathetic_'
'symp'
'survived_'
'sui'
'spott'
'specify_'
'spaces'
'softball_'
'settlement_'
'seo'
'sales'
'saf'
'rockers_'
'replied_'
'remarked_'
'refrigerators_'
'reed'
'rash'
'raising_'
'raf'
'prey_'
'presidents_'
'pow'
'poo_'
'plough'
'patr'
'pamp'
'paihia_'
'oss_'
'orp'
'oand_'
'nott'
'nightli'
'nep'
'nati'
'munchies_'
'moment'
'moat_'
'midnight'
'mich'
'matsumoto_'
'manoir_'
'malmo_'
'lust'
'longwood_'
'lli_'
'lip_'
'lhr_'
'latin'
'kre'
'kly_'
'jeddah_'
'jean'
'inventive_'
'inno'
'impressively_'
'impressi'
'illu'
'ien'
'ield_'
'host'
'hip'
'hend'
'hed'
'haunt_'
'guide'
'gouna_'
'goth'
'gained_'
'forest'
'forcing_'
'fei'
'ewr_'
'davi'
'dances_'
'da'
'cypress_'
'crowding_'
'crocs_'
'critters_'
'criticise_'
'craz'
'coul'
'conserv'
'commotion_'
'cobble'
'cloisters_'
'cava'
'carbut_'
'calle'
'cage_'
'cad_'
'brekky_'
'bras'
'boro_'
'bhu'
'berkshires_'
'benefited_'
'baton_'
'asso'
'arundel_'
'arequipa_'
'andl'
'ag_'
'accents_'
'absorb_'
'abe'
'1b'
' ! ! '
'yit_'
'wilt'
'watered_'
'ux_'
'uth'
'usc_'
'turku_'
'tribu'
'torches_'
'threatening_'
'thessaloniki_'
'theres'
'teeth_'
'tanks_'
'talbot_'
'tailor_'
'surabaya_'
'supervisor_'
'suit'
'stayw'
'shaft_'
'servings_'
'sep'
'schi'
'rex_'
'restaura'
'reliant_'
'recogniz'
'rann'
'quartier_'
'qualify_'
'quai'
'qing'
'pulc'
'pombal_'
'phra'
'perform'
'parthenon_'
'paradis'
'pants_'
'panc'
'onb'
'nha'
'nationals_'
'nash'
'mull_'
'miyako_'
'mimi'
'massa'
'manoeuvre_'
'lor'
'lok'
'liquid_'
'lg_'
'lattes_'
'lash'
'jacob_'
'jackie_'
'instruction_'
'insist'
'infused_'
'incentive_'
'impacted_'
'ilt'
'hoteln'
'hit'
'hiding_'
'heb'
'harvest_'
'hang'
'gust'
'guest'
'grind'
'goi'
'gc'
'fuller'
'frid'
'facilitate_'
'estimate_'
'eric'
'er'
'entebbe_'
'ellis_'
'elb'
'eland_'
'edge'
'eddie_'
'dui'
'dorf_'
'dordogne_'
'dominates_'
'delft_'
'darker_'
'crit'
'costa'
'cosi'
'conti'
'coni'
'completion_'
'communications_'
'ckle'
'canno'
'came'
'bris'
'breakfastth'
'bouche_'
'bn'
'backbut_'
'ass'
'ares'
'appartment_'
'andeven_'
'allowance_'
'aig'
'accord'
'61_'
'501_'
'2mins_'
'15pm_'
'.._'
' ? .'
' :-'
'yto'
'yeo'
'yakima_'
'wien_'
'whites_'
'weeds_'
'wed_'
'weathers'
'vinc'
'unl'
'unhurried_'
'ucs'
'thought'
'thanked_'
'tal'
'stu'
'storm'
'staffthe_'
'stacked_'
'spen'
'sox_'
'southsea_'
'soufflé_'
'siti'
'singh_'
'sightseeing'
'rto'
'robot'
'rme'
'returnwe_'
'resta'
'resi'
'report'
'recovering_'
'randomly_'
'rabat_'
'qt_'
'purpose'
'public'
'province_'
'prea'
'possess'
'poker_'
'plateau_'
'pillar_'
'pilgrims_'
'pearson_'
'packet_'
'owa'
'outthe_'
'outsideand_'
'onl'
'ond'
'oming_'
'oma'
'novella_'
'nara'
'mold'
'minis'
'merchants_'
'meantime_'
'marr'
'marking_'
'magna_'
'lump'
'luca_'
'lour'
'lid_'
'lew'
'km'
'kenilworth_'
'kahala_'
'kaba'
'jupiter_'
'journey'
'joan_'
'janet_'
'irritation_'
'hotell'
'hotelb'
'hawks_'
'haute_'
'harle'
'haf'
'glitter'
'geni'
'frenzy_'
'fragrance_'
'fowl_'
'ffl'
'expats_'
'exhibitions_'
'even'
'enters_'
'ennis'
'ellen_'
'elin'
'eca'
'dk'
'diva'
'distinctly_'
'dell'
'daf'
'crown'
'cromwell_'
'cranberry_'
'conse'
'coats_'
'cloud'
'clich'
'chuck'
'charlottetown_'
'characterless_'
'chamonix_'
'cbd'
'cata'
'capt'
'calo'
'calibre_'
'busythe_'
'brit'
'bj'
'beet'
'bandwidth_'
'awasi_'
'asu'
'ascen'
'artworks_'
'artery_'
'anj'
'allen_'
'alco'
'ace'
'accurately_'
'='
'zara_'
'yne'
'worm_'
'workspace_'
'winters_'
'wetlands_'
'walkso_'
'veal_'
'vara'
'vaca'
'utter_'
'utan'
'underg'
'ump'
'turks_'
'tti_'
'tional_'
'tightly_'
'thoroughfares_'
'terrace'
'sund'
'strad'
'sources_'
'sonn'
'soi'
'slovenia_'
'sliver_'
'shake'
'sandra_'
'rugs_'
'rotating_'
'roped_'
'rivoli_'
'revolution_'
'reversing_'
'retire_'
'restaurantsso_'
'remo'
'rem'
'reat'
'rea_'
'rda'
'raymond_'
'raspberry_'
'proudly_'
'pped_'
'pisco_'
'pia_'
'parklands_'
'pah'
'overnighted_'
'ough_'
'orou'
'num'
'notic'
'note'
'noisethe_'
'nices'
'networks_'
'nberg_'
'nal'
'nak'
'nair'
'moy'
'molin'
'mada'
'lub'
'loops_'
'lega'
'kw'
'kiosks_'
'katr'
'jessica_'
'jen_'
'invo'
'intl_'
'inca_'
'gull'
'gren'
'greensboro_'
'gene'
'funand_'
'fulton_'
'fulham_'
'fragrant_'
'floods_'
'fines'
'feared_'
'fav_'
'farm'
'eys_'
'expresso_'
'erh'
'enda'
'eed'
'edi_'
'dz'
'dung'
'downe'
'deer'
'crow_'
'crisps_'
'creek'
'construction'
'conno'
'confirming_'
'clam_'
'cl'
'chestnut_'
'cheddar_'
'chats_'
'centr'
'bybut_'
'buzz'
'brim'
'body'
'blueb'
'belle'
'aye'
'awarded_'
'aug'
'ami_'
'airporta'
'aid'
'abt_'
'abode_'
'45th_'
'285_'
',,,'
'zoe_'
'yarmouth_'
'vy'
'vital_'
'vend'
'uw_'
'utilise_'
'unwinding_'
'unfor'
'uld_'
'trust'
'trim_'
'therwise_'
'tech'
'superma'
'sunscreen_'
'stacks_'
'sprawl_'
'slip'
'sk_'
'sirloin_'
'sill'
'sensibly_'
'segway_'
'ruin'
'roti'
'revol'
'revealed_'
'restrict'
'restaurantsi'
'requ'
'refug'
'recycle'
'produces_'
'plex_'
'perry_'
'ose'
'nza_'
'noticeably_'
'noisiest_'
'nie_'
'nicol'
'mush'
'motel'
'moonlight_'
'monasteries_'
'modernity_'
'mint'
'mia'
'meteora_'
'mascot_'
'marshall_'
'maldivian_'
'mald'
'macaroni_'
'lov'
'lave'
'lana'
'knott'
'kiddies_'
'joel_'
'ism_'
'invent'
'inth'
'insert'
'ingu'
'inb'
'ight'
'idle_'
'hotelt'
'hops_'
'hooks_'
'hood'
'hillso_'
'haunts_'
'harm'
'guacamole_'
'grapefruit_'
'git_'
'fresh'
'float'
'firepits_'
'fave_'
'expresses_'
'ette'
'eller'
'eduardo_'
'earliest_'
'dwar'
'downt'
'divider_'
'disin'
'direction'
'detracts_'
'dear'
'daytrip'
'crum'
'crabtree_'
'corridor'
'correspond'
'corre'
'corne'
'convey'
'coach'
'cino_'
'chatter_'
'charmingly_'
'characteristic_'
'capuc'
'breakf'
'breaka'
'blocks'
'beca'
'ates_'
'aries_'
'api'
'ankara_'
'andina_'
'anat'
'aly_'
'alu'
'altho_'
'alfred_'
'aix_'
'airtrain_'
'againo'
'affect'
'accepts_'
'25mins_'
'188'
'183'
'106_'
' ° _'
' ) + _'
' ' ) _'
'woo'
'whizz'
'while'
'wegmans_'
'waved_'
'watermelon_'
'warrant_'
'waco_'
'visitwe_'
'vilas_'
'versa'
'vap'
'untouched_'
'uncl'
'ult_'
'tyne_'
'tst'
'tore'
'tone'
'tollway_'
'thor'
'therap'
'theory_'
'thati'
'task'
'tana'
't3_'
'suz'
'surge'
'stein'
'stayed'
'stampede_'
'stamp_'
'sri'
'smokies_'
'smi'
'silverstone_'
'showcas'
'shaw'
'shampoos_'
'sell'
'sault_'
'rya'
'rowe'
'rothe'
'ril'
'reus'
'recomment_'
'rant'
'quarter'
'portico_'
'pooli'
'placing_'
'photographers_'
'parkingw'
'overload'
'oust'
'ouray_'
'oud'
'ott_'
'oto'
'nto'
'nha_'
'neuschwanstein_'
'nana'
'mugs_'
'monster_'
'misle'
'melon'
'marques_'
'maritim_'
'mant'
'mandela_'
'make'
'lw'
'lung'
'locationwe_'
'llamas_'
'lig'
'leton_'
'lanc'
'kow'
'je_'
'iza'
'ivo'
'irr'
'inwe_'
'ining_'
'hyatts_'
'hoof'
'hilland_'
'health'
'headboard_'
'hazard_'
'haa'
'gee'
'forces_'
'font_'
'filter_'
'eze_'
'expos'
'embarking_'
'elli'
'dso_'
'drinks'
'domain_'
'disembark'
'diane_'
'diab'
'delu'
'defen'
'decre'
'ction'
'copan_'
'conceirge_'
'cking_'
'chatt'
'chargers_'
'chao_'
'cent'
'cath'
'carbs_'
'bureau_'
'brown'
'bros_'
'brai'
'borneo_'
'boarder'
'blea'
'blacks'
'birdsong_'
'bfast_'
'baron'
'backa'
'awayth'
'andbe'
'andan'
'ais'
'againg'
'abounds_'
'7min'
'51st_'
'2s'
'20m'
'204_'
' .. !'
' ! ) '
' ! ! ! ! '
'” _'
'–'
'zhong'
'zadar_'
'wii'
'vacuum'
'upst'
'tournaments_'
'tiv'
'tiered_'
'thr_'
'syr'
'swimmer_'
'swallow'
'surviv'
'subt'
'straw_'
'sto_'
'spr'
'speed'
'sony_'
'softer_'
'skype_'
'signals_'
'shingle_'
'shave_'
'shab'
'sensatori_'
'sbe'
'sank_'
'sandi'
'rut'
'rsl_'
'rri'
'ror'
'rok'
'remov'
'rema'
'relaxe'
'rebook_'
'rak'
'promoted_'
'plug'
'placei_'
'pinot_'
'pina_'
'pick'
'pica'
'pendleton_'
'pads_'
'outpost_'
'oth_'
'orld_'
'onse'
'ogden_'
'oad'
'noi'
'nia'
'nee_'
'nect'
'napoli_'
'murphy_'
'mui'
'montrose_'
'mino'
'mik'
'merry_'
'meanwhile_'
'maasai_'
'lug'
'loom'
'limon'
'liffe_'
'lian'
'lecture'
'kka'
'killed_'
'kell'
'julio_'
'jetted_'
'jc'
'jak'
'isse'
'ising_'
'iq'
'intrigued_'
'intersect'
'intercom_'
'indore_'
'ind_'
'ille'
'iful_'
'hose_'
'holl'
'hips_'
'highs'
'heather_'
'gorillas_'
'goodso_'
'gaylord_'
'fut'
'funi'
'freindly_'
'freeport_'
'frances'
'fallsview_'
'fah'
'excluding_'
'evel'
'escala'
'eras_'
'env'
'enormously_'
'ende'
'empress_'
'elliot'
'elli_'
'eindhoven_'
'effi'
'edso_'
'dth'
'drums_'
'donna_'
'dolm'
'delicate_'
'deceptive_'
'davie_'
'ctions_'
'cookery_'
'compensates_'
'cod'
'clim'
'christine_'
'casti'
'burner_'
'bunk'
'buisness_'
'booked'
'bish'
'birder'
'ballston_'
'awkwardly_'
'antly_'
'annoyances_'
'aerial_'
'admi'
'action'
'accident'
'@'
'303_'
' ’ '
' :'
'zipp'
'xton_'
'wonder'
'weatherspoons_'
'weak'
'waving_'
'vard'
'uxmal_'
'urr'
'unplanned_'
'unpl'
'ude_'
'uco'
'uci'
'troyes_'
'tooth'
'tolls_'
'toc'
'thistle_'
'terror'
'tattoo_'
'swan'
'stockton_'
'stilt'
'sticking_'
'squirrel_'
'span'
'smallbut_'
'sloth_'
'shield'
'shi_'
'romania_'
'rockl'
'rivers'
'rivage_'
'ripley_'
'rine'
'revving_'
'regrettably_'
'ration_'
'prol'
'ponder'
'plow'
'pleasures_'
'pinnacle_'
'patterns_'
'partition_'
'parkingi'
'pari'
'papagayo_'
'ova_'
'outset_'
'outfitted_'
'oblig'
'nuevo_'
'norw'
'nom'
'moneyand_'
'molly_'
'meditation_'
'maxx_'
'masala_'
'm40_'
'm3_'
'lex'
'lasagn'
'lali'
'kiwi_'
'jump'
'jem'
'isan'
'interi'
'ingh'
'ick'
'http_'
'headl'
'hari'
'halekulani_'
'gulls_'
'greatit_'
'glow'
'gin'
'fur_'
'fru'
'flatiron_'
'ffi'
'fedex_'
'fairway_'
'exercising_'
'evey'
'esb'
'epe'
'enca'
'elys'
'dona_'
'disconnect_'
'diocletian_'
'devoted_'
'ders_'
'deeply_'
'daybut_'
'daw'
'cultur'
'contemp'
'colo'
'chul'
'centred_'
'bunker_'
'brutal_'
'brak'
'bomb_'
'bio'
'bett'
'belmond_'
'behav'
'beaches'
'bass'
'bao'
'banbury_'
'balt'
'backw'
'august'
'andof_'
'aku'
'addresses_'
'adapted_'
'actively_'
'85'
'275_'
'1600_'
'15minutes_'
',(_'
' ..'
' .--_'
'zur'
'zambia_'
'yf'
'woodb'
'winn'
'wheat_'
'whaler_'
'waltham_'
'von'
'vito'
'utt'
'usp_'
'uru_'
'uber'
'tromso_'
'text'
'tern'
'sz'
'succulent_'
'squi'
'squeaky_'
'sojourn_'
'sk'
'shwe_'
'showered_'
'shapes_'
'sewage_'
'severely_'
'scro'
'savour_'
'sakura_'
'rov'
'roma'
'rodi'
'res'
'redeveloped_'
'recliner'
'rebooked_'
'rafael_'
'qatar_'
'provincial_'
'plasma_'
'pep'
'paula_'
'pata'
'parfait_'
'panjim_'
'palace'
'pains_'
'ovi'
'ours'
'oudtshoorn_'
'oir'
'nting_'
'nicole_'
'neighbo'
'motorized_'
'mile'
'microwaves_'
'michael'
'merit_'
'melissa_'
'mediter'
'mecure_'
'maximi'
'masse'
'magellan_'
'lyi'
'luxuriously_'
'lovel'
'loos'
'locationw'
'lith'
'limited'
'kant'
'ix_'
'isn'
'internet'
'install_'
'init'
'inis'
'inexp'
'inedible_'
'increasing_'
'incessant_'
'imo'
'ika_'
'huron_'
'hotelf'
'hick'
'hereth'
'havel'
'handy'
'halt'
'hairy_'
'geographic_'
'gay'
'fying_'
'franco'
'folly_'
'fb'
'fay'
'entries_'
'eight'
'eclipse_'
'duque_'
'downi'
'disapointed_'
'digby_'
'dew'
'delish_'
'deliberately_'
'dele'
'dde'
'danang_'
'cowboys_'
'cosmetic'
'convien'
'contin'
'clam'
'chops_'
'chlo'
'chic'
'ced'
'cah'
'cafet'
'butg'
'brack'
'boxed_'
'boot'
'beaut'
'beam_'
'bastille_'
'barri_'
'barnsley_'
'bach_'
'average'
'atoll_'
'ase'
'armand'
'archa'
'andon_'
'almaty_'
'aine_'
'admira'
'acess_'
'40mins_'
'400'
'33rd_'
'306_'
'2h'
'2a'
'190_'
'112_'
'111'
' ........ _'
' ! ! ! )_'
'zig'
'wins'
'wheel'
'wares_'
'vio'
'unt_'
'unsightly_'
'unders'
'unat'
'uga'
'troop'
'trier_'
'toro'
'topping_'
'toothpaste_'
'toasted_'
'timeth'
'superstore_'
'suites'
'stony_'
'smores_'
'skirt'
'sine'
'sedate_'
'scrape'
'sauvignon_'
'ryn'
'rtion'
'rti'
'roadwe_'
'restore_'
'resp'
'resortand_'
'rej'
'regg'
'redo'
'reak'
'quen'
'pti'
'project'
'pret_'
'ppa'
'pichola_'
'pennin'
'peer_'
'peachtree_'
'peaceful'
'pas_'
'outso'
'outbuildings_'
'ope'
'oin'
'oceani'
'noel_'
'musta'
'montpelier_'
'monk_'
'mone'
'minuteswalk_'
'meriton_'
'meeru_'
'maza'
'mateo_'
'mariposa_'
'macro'
'loy'
'loitering_'
'limb'
'lemur_'
'laughter_'
'joggers_'
'javier_'
'itthis_'
'irma_'
'invi'
'intensi'
'idge_'
'icc_'
'huge'
'holb'
'hol_'
'het'
'helicopters_'
'hampi_'
'hamam'
'hairdresser_'
'greymouth_'
'gram'
'goodit_'
'gn_'
'gao'
'gainesville_'
'fours_'
'extravagan'
'explora_'
'excelled_'
'ety_'
'enquire_'
'ening_'
'english'
'ellen'
'eig'
'eers_'
'eel_'
'econ'
'ead'
'director'
'depressed_'
'debbie_'
'davos_'
'danny_'
'cuz'
'crowed_'
'crieff_'
'cr_'
'corr'
'contribute_'
'consult'
'constance_'
'confor'
'commendable_'
'coba_'
'clearer_'
'cistern_'
'circled_'
'chimney_'
'childhood_'
'champions_'
'canadians_'
'camels_'
'butb'
'brindley_'
'breakfastw'
'branches_'
'bonefish_'
'bode'
'bility_'
'bauer_'
'avant'
'ator_'
'aroma'
'amigo_'
'amat'
'allergic_'
'aha'
'aeon_'
'a2_'
'54'
'35th_'
'160'
'114_'
'10m'
'---'
'!'
' ....'
' .( '
'xc'
'woody_'
'wharf'
'wayso_'
'urgent_'
'ulati'
'uffizi_'
'tunes_'
'tropic_'
'tro_'
'trains'
'traini'
'trackers_'
'tierra_'
'thei'
'tash'
'tala'
'swimsuit'
'supermarket'
'sultan_'
'sucks_'
'ston'
'stephan'
'stayi'
'sporadic_'
'spoils_'
'spect'
'sorr'
'solid'
'so'
'sidebut_'
'senti'
'schoen'
'sap'
'sacre_'
'rua'
'revisiting_'
'restauranti'
'resorti'
'rell'
'ract'
'prairie_'
'pomp'
'pints_'
'piles_'
'perch_'
'pembroke'
'pedi'
'peculiar_'
'parkingso_'
'pall'
'palenque_'
'paced_'
'outa'
'orangery_'
'okin'
'obispo_'
'nthi'
'noc'
'nighter_'
'necessitat'
'nearbyand_'
'nch'
'mule_'
'mujeres_'
'mothers_'
'monroe_'
'minat'
'martinis_'
'marie'
'mahe_'
'lygon_'
'lema'
'lego_'
'lauren_'
'las'
'lakes'
'kne'
'kitted_'
'kickback_'
'joa'
'jets'
'jes'
'inh'
'inferior_'
'inal'
'hunters_'
'hive_'
'herea'
'heel_'
'hd'
'hammering_'
'grilling_'
'grants_'
'gomera_'
'glories_'
'gira'
'gino'
'gie'
'gamb'
'gage_'
'fors'
'fondue_'
'flybus'
'flower'
'flore'
'fixing_'
'filming_'
'fern_'
'fencing_'
'felix_'
'feeder_'
'failing_'
'eri_'
'engagement_'
'electra_'
'elder'
'elain'
'effects_'
'dumbbells_'
'dreaded_'
'dragon'
'downpour_'
'denmark_'
'dene'
'demi'
'defin'
'daz'
'culloden_'
'cooperstown_'
'compara'
'comi'
'clearance_'
'choo'
'ches'
'cecil_'
'capi'
'butr'
'broome_'
'bonita_'
'blen'
'bedroom'
'barbar'
'bahama_'
'ats_'
'arrow_'
'argyle_'
'arby_'
'appro'
'appetising_'
'anger'
'againh'
'acrobat'
'acquaint'
'accomodated_'
'a9_'
'< '
'5000_'
'206_'
'1700_'
' : • _'
'zel'
'whiteha'
'wave'
'watchers_'
'wasteland_'
'von_'
'usbut_'
'unheard_'
'uncha'
'trea'
'travers'
'tk'
'tir'
'telegraph_'
'tavernas_'
'tape_'
'tangier_'
'tablets_'
'strain'
'stool_'
'still'
'squareand_'
'southcenter_'
'sophie_'
'solv'
'smith'
'smiled_'
'slan'
'skin'
'shot'
'sharp'
'sham_'
'seaand_'
'sangria_'
'saffron_'
'ronda'
'rhubarb_'
'revere_'
'railing_'
'quin_'
'quantities_'
'purdue_'
'published_'
'prai'
'pita'
'periodically_'
'paramount_'
'paral'
'overp'
'otter_'
'orr'
'ols'
'occu'
'nute'
'nso'
'nonexistent_'
'nke'
'nishi'
'nba'
'nagar_'
'nad'
'model'
'mistaken_'
'mig'
'microwave'
'mcm'
'mbps_'
'madaba_'
'longer'
'lights'
'labelled_'
'kwa'
'kle_'
'jen'
'jaded_'
'isb'
'ironically_'
'interacting_'
'inp'
'indicat'
'inclusion_'
'iko'
'icelandair_'
'hotele'
'hok'
'hemm'
'hackescher_'
'gt'
'greata'
'gradi'
'goodo'
'goodb'
'ghte'
'gard'
'fw'
'fts_'
'forecourt_'
'firmly_'
'fears_'
'extravagant_'
'expertise_'
'exi'
'excl'
'exchanged_'
'ester_'
'ened_'
'encourages_'
'edin'
'dunkeld_'
'dug_'
'dra_'
'dom'
'dob'
'div'
'distractions_'
'distract_'
'disconnected_'
'dirhams_'
'dik_'
'deservedly_'
'definatley_'
'dau'
'dah'
'cu_'
'contribut'
'congrat'
'cide'
'chs'
'christmas'
'cheer'
'chateau'
'charge'
'chant'
'ceviche_'
'cati'
'canned_'
'breakfastbut_'
'brav'
'berjaya_'
'begging_'
'astro'
'astr'
'armes_'
'arcadia_'
'appearances_'
'anima'
'anal'
'ama_'
'alpen'
'alamos_'
'aesthetics_'
'activ'
'accommodation'
'750_'
'39th_'
'395_'
'2x_'
'1980s_'
'118_'
'-----'
' ) .._'
'ç'
'yur'
'yen'
'wolfgang_'
'wheelchairs_'
'went'
'wayi'
'wara_'
'varia'
'valetta_'
'upp'
'unter_'
'unprepossessing_'
'ums_'
'tropicana_'
'tongariro_'
'tipp'
'thumb_'
'thou'
'thereo'
'textile'
'tapa'
'swivel'
'sunl'
'sudden_'
'succ'
'sp'
'size'
'sist'
'servicethe_'
'services'
'sde'
'scor'
'riveri'
'rion_'
'ridd'
'rhone_'
'rez'
'replica_'
'replenish_'
'rait'
'quiz_'
'proxim'
'prohibit'
'prob_'
'presently_'
'polis_'
'pitched_'
'philip_'
'patron'
'particu'
'panic_'
'paired_'
'overrated_'
'oui'
'orl'
'oda'
'objects_'
'nok_'
'niceth'
'nada'
'myvatn_'
'mysti'
'muffled_'
'motorised_'
'meeting'
'maw'
'maur'
'massimo_'
'marv'
'marker_'
'manning_'
'mand'
'mahon_'
'luas_'
'locationit_'
'locales_'
'letters_'
'lak'
'klia_'
'kitchenettes_'
'kia'
'kendall_'
'kale'
'ju_'
'jb'
'ipoh_'
'inka'
'infl'
'incl'
'igl'
'idea'
'hydra'
'guan'
'graded_'
'geta'
'gag'
'frontier_'
'foll'
'folded_'
'fod'
'fill'
'fel'
'fabulous'
'evergreen_'
'eventhough_'
'escort'
'erba'
'enr'
'encouraging_'
'embrace_'
'ditch_'
'detergent_'
'delis_'
'deep'
'cruiser_'
'compe'
'comfort'
'coma'
'cion'
'cid_'
'chemist_'
'chas'
'cele'
'cargo_'
'bunga'
'buildingso_'
'breeze'
'breakfasti_'
'box'
'bosphorous_'
'blake'
'bitten_'
'bison_'
'bets'
'beneficial_'
'bean'
'bavaria_'
'bate'
'balmy_'
'backi_'
'ayr_'
'assur'
'arras_'
'arduous_'
'aran_'
'antoine_'
'amr'
'alum'
'alpha'
'ait'
'agr'
'64'
'208_'
'187'
'186'
' ..........'
' .. ) '
' . :-)_'
' - ( _'
'zulu_'
'young'
'yc'
'withi'
'warthog_'
'walks'
'wade_'
'volumes_'
'urin'
'uph'
'unwi'
'ucke'
'tonga'
'toand_'
'thew'
'testament_'
'tati'
'swiming_'
'sunset'
'stocks_'
'ssan'
'spit'
'spilled_'
'soli'
'snapp'
'sira'
'singita_'
'sia'
'shutting_'
'shula_'
'servicei'
'sek'
'sack'
'roc'
'reveal_'
'reservoir_'
'removing_'
'relish_'
'realizing_'
'rci_'
'rattle'
'quiz'
'qualms_'
'puno_'
'propertyi'
'portman_'
'poolthe_'
'plettenberg_'
'pleas'
'pion'
'peeve_'
'patio'
'passageways_'
'parramatta_'
'palat'
'pacifica_'
'overheard_'
'overdone_'
'oun'
'ooms_'
'occassions_'
'nni'
'nickel_'
'nera'
'nder'
'mundi'
'moza'
'mou'
'mdina_'
'maximise_'
'massively_'
'manicure_'
'mand_'
'lys'
'luzern_'
'lion'
'lier_'
'letter'
'katie_'
'jug'
'jk_'
'jiang'
'jeeps_'
'isola'
'iou'
'inwards_'
'instan'
'inse'
'ingi_'
'inga'
'indigenous_'
'iii_'
'holly_'
'hers'
'henri'
'hdtv_'
'hawa'
'havasu_'
'halal_'
'gunn'
'guard'
'grant'
'ganga_'
'fussen_'
'fudge_'
'freshene'
'fos'
'floorand_'
'ferr'
'fant'
'fana'
'ermi'
'enthusiast_'
'entertainment'
'eing_'
'dying_'
'document'
'diy_'
'dispos'
'dina'
'dictate'
'depend'
'daybed_'
'dation'
'dartford_'
'conviently_'
'consum'
'commentary_'
'chorus_'
'charl'
'cau'
'butthere_'
'butst'
'boulangerie_'
'bore_'
'books'
'bolt'
'boh'
'bodies_'
'blah_'
'bht_'
'berc'
'beachth'
'barge_'
'backst'
'auc'
'arro'
'areal'
'andright_'
'andlo'
'ambi'
'aly'
'alou'
'allergy_'
'airf'
'aiming_'
'agrigento_'
'afar_'
'ael_'
'admiralty_'
'a5_'
'70th_'
'54th_'
'44th_'
'410_'
'30a'
'2n'
' ( ? '
' " ... _'
'á_'
'wilm'
'wawel_'
'vor'
'vida'
'vell'
'utilitarian_'
'unhelpful_'
'undis'
'uha'
'tut_'
'transa'
'toot'
'tibetan_'
'thamel_'
'suzhou_'
'suprisingly_'
'stunning'
'stil'
'steigenberger_'
'stationthe_'
'southernmost_'
'sonesta_'
'social'
'simon'
'shelburne_'
'serv'
'seabu'
'rumo'
'rui'
'rth'
'rte'
'roofed_'
'righti'
'rhy'
'reso'
'reservation'
'remnants_'
'recommenda'
'radiator_'
'qv'
'quir'
'prussia_'
'profit'
'probab'
'prio'
'pressure'
'press'
'police'
'phillips_'
'pap'
'outla'
'ote_'
'osa'
'onso_'
'onal'
'odat'
'ntage'
'nim'
'ncia'
'nas_'
'muscles_'
'most'
'morningso_'
'minuets_'
'minivan_'
'mezz'
'meyer_'
'melted_'
'mec'
'meat'
'mbo'
'maxi'
'lve'
'lk_'
'linn'
'liness'
'leak_'
'lauterbrunnen_'
'landi'
'label_'
'komaneka_'
'kent'
'kau'
'joann'
'jing'
'jill'
'japan'
'jane'
'iles_'
'however'
'hotela_'
'hometown_'
'gv'
'grouse_'
'greyhound_'
'grac'
'gim'
'generosity_'
'gd'
'fuel'
'frontenac_'
'floodlit_'
'fing'
'excell'
'equator'
'enquiries_'
'engineering_'
'enforce'
'embarrass'
'dunst'
'duct'
'duck'
'downsi'
'doori'
'doc'
'dislikes_'
'dish'
'discourage_'
'desir'
'corona_'
'cord'
'corb'
'complains_'
'compar'
'clusters_'
'clov'
'clau'
'cis'
'christ_'
'chari'
'changs_'
'cast'
'capsule'
'cafe'
'cado'
'byso_'
'burst'
'bridgeport_'
'branding_'
'bie'
'bayfront_'
'baron_'
'ballrooms_'
'ayala_'
'aty'
'attracting_'
'attenti'
'asakusa_'
'arto'
'andfo'
'altho'
'aim'
'accommodates_'
'absurd'
'abl'
'abbot'
'8a'
'59'
'50p'
'430'
'116_'
'.... _'
')- _'
') , _'
' :) '
' ......... _'
'ça_'
'weber_'
'weakness_'
'watert'
'wanda_'
'vou'
'verb'
'vents_'
'vd'
'unnerving_'
'tres_'
'trent_'
'treehouse_'
'traveller'
'tracks'
'tirelessly_'
'tche'
'tast'
'tarp'
'tab_'
'system'
'suspended_'
'superc'
'sooooo_'
'sociable_'
'snorkel'
'sleepi'
'servicea'
'sequ'
'sebasti'
'rwanda_'
'rse'
'royalton_'
'rooster_'
'romana_'
'rockville_'
'robust_'
'robbi'
'rhod'
'resemble_'
'reas'
'react'
'prevents_'
'prepares_'
'plane'
'phan'
'pax_'
'pause_'
'passable_'
'parisi'
'outcrop'
'olo_'
'ocho_'
'occur_'
'occasion'
'observing_'
'nueva_'
'nothing'
'nipp'
'neighbourhoods_'
'navigated_'
'nand_'
'nade'
'morningthe_'
'modi'
'mmm'
'mercy_'
'mende'
'mea_'
'marriott'
'manhatten_'
'mag_'
'lya'
'lous_'
'lieu_'
'lice'
'laz'
'laramie_'
'lam'
'lakew'
'labeled_'
'kland'
'kemp'
'kampala_'
'justin_'
'jamb'
'insanely_'
'ingf'
'imagin'
'hurt'
'huddersfield_'
'hotelr'
'hospital'
'hort'
'homew'
'holmes_'
'holders_'
'hesitation'
'hermes_'
'hazel'
'hawks'
'hassa'
'hash'
'hanks'
'hani'
'guinea_'
'goof'
'georg'
'genius_'
'fuss'
'fr_'
'folk'
'final'
'fig'
'fari'
'fac'
'expressi'
'expenses_'
'esl'
'education_'
'ected_'
'ealing_'
'drone_'
'driveand_'
'domin'
'discret'
'dill'
'determine_'
'definit'
'crou'
'counter'
'corfu_'
'converti'
'conclude_'
'compete'
'compelling_'
'communist_'
'coch'
'coati'
'clunk'
'clubb'
'cigarettes_'
'cave'
'carousel_'
'butcher_'
'burren_'
'brisas_'
'boulevards_'
'boli'
'boa'
'bathe_'
'barges_'
'bald_'
'arise_'
'arean'
'announcements_'
'andmo'
'andma'
'alme'
'alicante_'
'agua_'
'adviser_'
'a38_'
'?'
'25min_'
'10a'
'! '
' ........._'
'zhongshan_'
'youthe_'
'xos_'
'wipe'
'weeks'
'wallace_'
'walkthe_'
'vos'
'vinales_'
'venti'
'ual'
'twisting_'
'trian'
'torg'
'tomb_'
'toe'
'timeshares_'
'thes'
'teak_'
'tation_'
'stride'
'streeti_'
'stomping_'
'steven_'
'stai'
'spoons_'
'spends_'
'soph'
'smu'
'sliders_'
'skipping_'
'simi'
'shell'
'sergio_'
'seng'
'seneca_'
'securing_'
'scru'
'scanne'
'rona'
'resonable_'
'radar_'
'quieten'
'qualified_'
'promotional_'
'plockton_'
'plent'
'placewe_'
'pizza'
'picki'
'peel_'
'pec'
'paving_'
'patt'
'paned_'
'organise'
'oit'
'oi_'
'often'
'nth_'
'nightit_'
'nicolas_'
'nicewe_'
'nfl_'
'nach'
'morris'
'marcus_'
'maggie_'
'madding_'
'lyme_'
'ludi'
'lies'
'lera'
'leavenworth_'
'layers_'
'lass'
'kunming_'
'kru'
'kolo'
'kobe_'
'kilo'
'kato'
'iy'
'ivan_'
'isla'
'irt'
'irres'
'insti'
'input_'
'india'
'incorporating_'
'inac'
'iff'
'ici'
'hummingbird_'
'hover'
'holidaymakers_'
'hobie_'
'hereso_'
'hereford_'
'har_'
'hamra_'
'hamp'
'gruel'
'grotty_'
'grave_'
'glide'
'giovanni_'
'gani'
'french'
'frangipani_'
'fran'
'fords'
'fn'
'flanked_'
'fate'
'eva_'
'erl'
'encou'
'eliminat'
'dus'
'dumplings_'
'displ'
'discreetly_'
'dev'
'delight'
'dayb'
'curio_'
'cult'
'connect'
'condor'
'concur_'
'comme'
'column_'
'columb'
'char_'
'chandler_'
'celtic_'
'cco'
'bue'
'broadwa'
'brin'
'bothering_'
'blar'
'billi'
'bengal_'
'bann'
'bala'
'aving_'
'austere_'
'aul'
'atch'
'artist'
'aret'
'angus_'
'andha'
'anan'
'ampl'
'againstayed_'
'achiev'
']._'
'= _'
'404_'
'10minute_'
'04'
' € '
'zzo_'
'zoetry_'
'yst'
'yg'
'wow'
'woodsy_'
'wildflower'
'wid'
'westm'
'warden'
'vila'
'vian'
'verse'
'vacation'
'us1'
'unfinished_'
'tyre'
'trusted_'
'trees'
'transit'
'tot_'
'torre'
'tine_'
'tics_'
'thereit_'
'tch_'
'tasso_'
'tal_'
'stroller_'
'stn_'
'staid_'
'sre'
'spider_'
'spades_'
'soe'
'sleazy_'
'showcase_'
'sends_'
'senat'
'securely_'
'scam_'
'salo'
'rode'
'riverb'
'rina_'
'review'
'restura'
'restaur'
'restauarants_'
'restauant'
'replete_'
'relocati'
'reh'
'recom'
'quel'
'quare_'
'preg'
'pop'
'poolw'
'ponc'
'pointless_'
'pitts'
'pitt'
'pasc'
'parlours_'
'outstandingly_'
'onv'
'ogi'
'oft'
'ods_'
'obi'
'nyc'
'nightmar'
'nho'
'ngthe_'
'ncing_'
'morningi'
'mirrored_'
'mey'
'mei_'
'mason'
'marke'
'mama'
'madame_'
'lyc'
'lun'
'logic'
'lica'
'lenn'
'len_'
'lati'
'kidding_'
'invites_'
'inspection_'
'inni'
'inen'
'industri'
'illo_'
'iha'
'hotelif_'
'hopeless'
'hlu'
'hemingway_'
'hare'
'gilbert_'
'gig'
'fulfill'
'forgettable_'
'folkestone_'
'flus'
'fail'
'execution_'
'especial'
'eso'
'erc'
'effortlessly_'
'ecti'
'download'
'doo_'
'dixie_'
'distracted_'
'distinguish_'
'discou'
'differentiate'
'dif'
'deafening_'
'date'
'dash'
'dang'
'dane'
'damn_'
'crus'
'crop'
'crick'
'costumes_'
'concluded_'
'clogged_'
'cityi_'
'circuitous_'
'cina'
'chb'
'cdgval_'
'cassi'
'carving_'
'carlo'
'carl_'
'byi'
'busybut_'
'bruno_'
'briefing_'
'brid'
'bona'
'birthplace_'
'bigg'
'bedroomed_'
'bedouin_'
'batter_'
'barra'
'backup_'
'baan_'
'azul_'
'awning_'
'aub'
'atleast_'
'atas'
'aru'
'arounds'
'areao'
'andnot_'
'andin'
'airlie_'
'aho'
'adjoined_'
'accl'
'[_'
'5e'
'305_'
'304_'
'100y'
'--'
' … ..'
' , ....'
'zürich_'
'yle'
'whole'
'weekends'
'vers_'
'variations_'
'uve'
'unmarked_'
'unhe'
'unfa'
'underp'
'twit'
'turnoff_'
'trousers_'
'travell'
'transition'
'townh'
'tombstone_'
'thur_'
'thirsty_'
'taxie'
'tat'
'taal_'
'sword'
'sple'
'spec_'
'sneak_'
'singapore'
'sickness_'
'shuffle_'
'shat'
'shangrila_'
'sent'
'scratche'
'scan'
'scam'
'sagr'
'rust'
'runa'
'roomo'
'riser_'
'reliably_'
'refu'
'refreshingly_'
'redding_'
'recovery_'
'recol'
'reclaim'
'recept'
'ravioli_'
'raja'
'quetzal_'
'quake'
'pton'
'prospect'
'priv'
'popp'
'pooland_'
'poli'
'ples'
'peeling_'
'palmer'
'pack'
'oya'
'ovo_'
'overseeing_'
'outline'
'obli'
'nste'
'nibbl'
'nant_'
'mountainous_'
'moore'
'miri'
'mh'
'metros_'
'manners_'
'luz'
'lens'
'lde'
'lade_'
'kyl'
'kingsc'
'judy_'
'itz'
'isu'
'institutions_'
'inspir'
'insadong_'
'ind'
'inad'
'ills_'
'ife'
'ien_'
'i9'
'hype'
'hopi_'
'hn_'
'hkd_'
'herr'
'hassle'
'hark'
'george'
'frederick_'
'forgiven_'
'forgive_'
'foodw'
'finebut_'
'festivals_'
'facet'
'exu'
'eren'
'entail'
'endo'
'ely'
'elis'
'elf'
'eerie_'
'dunn_'
'dreaming_'
'dove_'
'doorstep'
'discussions_'
'devine_'
'daywe_'
'crawling_'
'conflict'
'cone'
'cobbles_'
'cie_'
'chance'
'carrots_'
'carav'
'capella_'
'bursting_'
'bulbs_'
'buildingand_'
'broom'
'bland'
'beech'
'barry_'
'barrow_'
'backpack_'
'ares_'
'appartments_'
'allis'
'aldgate_'
'airco_'
'accomp'
'accesible_'
'abuts_'
'abou'
'ab'
'a7'
'5s'
'48th_'
' :* _'
' :( _'
' .......... _'
' . . . '
' ! , _'
'xing_'
'wur'
'wold_'
'willow_'
'waterfront'
'viole'
'viaduct_'
'varenna_'
'ural_'
'unwelcoming_'
'tup'
'tsu'
'tribe_'
'treet_'
'trampoline_'
'todd'
'termin'
'tent'
'sunderland_'
'summon'
'streetcars_'
'stoney_'
'spon'
'spoiling_'
'speeding_'
'snowdonia_'
'sity_'
'shadows_'
'seac'
'sd'
'sang'
'samb'
'rotunda_'
'risky_'
'rend'
'regulate_'
'rast'
'rang'
'ra'
'pullout_'
'puff'
'publici'
'profit_'
'proactive_'
'preston_'
'praca_'
'powdery_'
'pointers_'
'petrified_'
'paraiso_'
'pane'
'padma_'
'paddleboard'
'outsidew'
'oper'
'oos'
'onga_'
'omet'
'ollantaytambo_'
'okbut_'
'occitane_'
'nwe'
'nne_'
'nina_'
'mv'
'miz'
'luk'
'lucy_'
'lish_'
'liff_'
'kyrenia_'
'knob_'
'kiv'
'kirche_'
'kinabalu_'
'kels'
'jima_'
'itan'
'isw'
'insi'
'informing_'
'imper'
'imate'
'icecream_'
'ibut'
'iad_'
'hydro'
'hung'
'hoot'
'hongkong_'
'hey'
'hest'
'herewe_'
'herei_'
'hemi'
'heath_'
'grows_'
'greated_'
'frit'
'francesco_'
'foul_'
'flagged_'
'fies'
'eye'
'exit'
'existence_'
'excessively_'
'eva'
'esto'
'essi'
'enterance_'
'ency_'
'efi'
'donn'
'ditto_'
'disturbances_'
'derbyshire_'
'dens'
'darling'
'cule_'
'cube_'
'ctr_'
'creat'
'cozi'
'cout'
'corporation'
'cooper_'
'continent'
'conta'
'constructive_'
'conference'
'conditioners_'
'complete'
'comped_'
'cleans'
'circulati'
'character'
'champaign_'
'canopie'
'bussle_'
'bunnies_'
'buff_'
'brenda_'
'breme'
'boston'
'bik'
'bia_'
'aza'
'avail'
'autoroute_'
'attitudes_'
'ators_'
'asco'
'artisan'
'apr'
'anton_'
'andg'
'alamosa_'
'alam'
'ahmedabad_'
'advance'
'accepting_'
'5m'
'38'
'37th_'
' ... !_'
'zin_'
'zha'
'windsurfing_'
'whitechapel_'
'vivid_'
'velvet_'
'vacatione'
'uppe'
'upe'
'tus_'
'tuck'
'trevor_'
'tral'
'traditions_'
'trace'
'tions'
'tine'
'tien'
'thorpe_'
'tempt_'
'supervised_'
'stern_'
'stavanger_'
'specialise'
'snowm'
'smithfield_'
'sloped_'
'sheridan_'
'schu'
'sander'
'sacr'
'ryman_'
'rosemary_'
'ropes_'
'roomit_'
'rents_'
'rena'
'refinery_'
'reek'
'recess'
'really'
'quietso_'
'proves_'
'proof'
'prah'
'portfolio_'
'phon'
'persistent_'
'pav'
'parkroyal_'
'papeete_'
'pand'
'outr'
'onc'
'ois_'
'noti'
'ngham_'
'netting_'
'muck'
'motori'
'month'
'modernisation_'
'mirabel'
'metrolink_'
'mcg_'
'mcg'
'manitou_'
'mangalore_'
'majesty_'
'lor_'
'lil'
'licence_'
'lett'
'lare'
'koya'
'kop'
'klia2_'
'kigali_'
'kg'
'karst'
'itin'
'intersections_'
'inten'
'inspiration_'
'incomp'
'howe'
'hough'
'honk'
'headache_'
'hane'
'halla'
'gross'
'grassmarket_'
'grandiose_'
'going'
'giz'
'gibb'
'funk'
'fresher_'
'freeview_'
'franca'
'flavoured_'
'flashing_'
'fixe'
'fiddle'
'feathers_'
'favourably_'
'faci'
'everyone'
'escaped_'
'epo'
'enha'
'enclos'
'elo_'
'echoes_'
'ebr'
'each'
'duvets_'
'dublin'
'driveway'
'disre'
'dime'
'cutt'
'cuc_'
'creak_'
'colombia_'
'claw_'
'chis'
'chine'
'chik'
'chianti_'
'cheer_'
'chambers_'
'carbon'
'cambr'
'caltrain_'
'butno_'
'busyness_'
'brent'
'botan'
'bend'
'bela'
'barth'
'atho'
'ask'
'arou'
'arking_'
'arched_'
'anthe'
'andfr'
'anas'
'americ'
'amb'
'allthe_'
'alligator_'
'airportthis_'
':'
'86_'
'730'
'6a'
'3min_'
'210'
'2003_'
'1920s_'
'0am_'
'..._'
' - " _'
'…'
'zio'
'yv'
'yol'
'wreck'
'would'
'visting_'
'vable_'
'unsupervised_'
'unrivalled_'
'unreservedly_'
'unfounded_'
'tti'
'trial_'
'tracked_'
'toa'
'tically_'
'thys'
'tem'
'tear'
'teacher_'
'sumpt'
'subjective_'
'story'
'stephansplatz_'
'stella_'
'staffwe_'
'squeez'
'sogo_'
'shiv'
'shirley_'
'shiodome_'
'shing_'
'shielded_'
'shang'
'settle'
'scha'
'sandman_'
'sams'
'roll'
'ristorante_'
'reyes_'
'restoring_'
'respect'
'residenz'
'remy_'
'reme'
'rembrandt_'
'reimburse'
'regulat'
'reca'
'raving_'
'ptu'
'pret'
'pos'
'popular'
'poore'
'points'
'phar'
'patrol_'
'packers_'
'orke'
'ogen'
'ofi'
'nj'
'nigh_'
'niag'
'nearbyi'
'naka'
'mus_'
'monumental_'
'modestly_'
'mistakes_'
'messages_'
'mera'
'melbourne'
'meaning'
'mauna_'
'maroma_'
'marine'
'magnificently_'
'magnetic_'
'mage'
'lyand_'
'loses_'
'lir'
'lightening_'
'lichfield_'
'leonard'
'layed_'
'kou'
'komandoo_'
'kohl'
'kiss'
'kerb'
'juneau_'
'julians_'
'jog'
'jame'
'integral_'
'inquir'
'initiative_'
'ingen'
'inclusi'
'igh'
'idr'
'hôtel_'
'humo'
'howl'
'hounslow_'
'heri'
'helm'
'gwl_'
'gulf'
'graz'
'goods'
'glam_'
'gard_'
'gaps_'
'foreigner_'
'foodi'
'floorso_'
'favoured_'
'exude'
'evr'
'eveningi'
'eti_'
'eta_'
'epicent'
'ephesus_'
'engineer_'
'elt'
'edo_'
'ean'
'dwell'
'dux'
'duc'
'downgrade'
'doorthe_'
'donalds_'
'disorient'
'discussing_'
'differen'
'cultures_'
'crows_'
'coors_'
'condominium_'
'coinciden'
'clang'
'chicago'
'centerbut_'
'cci'
'cater'
'carter_'
'carlyle_'
'captiva_'
'byand_'
'broads'
'brentwood_'
'boi'
'bodied_'
'blond'
'berk'
'bent'
'beh'
'beaum'
'barte'
'barcel'
'bana'
'awayi'
'attack'
'asta'
'aqueduct_'
'angi'
'andreas_'
'amd_'
'albury_'
'albay'
'alam_'
'aff_'
'acton'
'4s'
'49th_'
' , ) _'
' * '
' ' ) '
'ô'
'ón_'
'zie'
'yous'
'yard'
'wore_'
'whimsical_'
'walt'
'visiti'
'vii'
'viewthe_'
'vicinity'
'vee'
'vea'
'unst'
'uniform_'
'ulate'
'uen'
'turnaround_'
'towpath_'
'tica_'
'swish_'
'sweete'
'susp'
'sukh'
'stree'
'snu'
'sno'
'smack'
'sketch'
'simpson_'
'shakes_'
'sfor'
'seperate'
'sena'
'sboro'
'ruth'
'royce_'
'rinc'
'riads_'
'resol'
'reputed'
'renfe_'
'refer'
'realising_'
'qw'
'prone_'
'procedures_'
'principle_'
'pric'
'preserving_'
'prag'
'poison'
'peabody_'
'patty_'
'patronize'
'outsidethe_'
'oso_'
'ori_'
'orf'
'oldt'
'offa'
'nth'
'novotels_'
'norton_'
'nige'
'myr'
'murder_'
'multil'
'muk'
'mosaics_'
'momo_'
'minn'
'ministr'
'minate'
'milky_'
'mez'
'marsh'
'marginally_'
'mang'
'mamo'
'malo'
'malay_'
'magnificant_'
'lure_'
'lum'
'locationso_'
'later'
'latch'
'larcomar_'
'lant'
'langd'
'lambeau_'
'knu'
'kett'
'kerr'
'kang'
'juniper_'
'jorda'
'jm'
'iva'
'islands'
'irons_'
'ire'
'impr'
'ima_'
'ify'
'icia'
'hp'
'hotelyou_'
'honour_'
'holidaying_'
'hobb'
'hern'
'herd'
'grizzly_'
'grain_'
'glaz'
'ges'
'geolog'
'generate'
'gb_'
'fuego'
'freewayso_'
'frag'
'ford'
'flaming'
'flame_'
'fingertips_'
'filipino_'
'extra'
'evan'
'etcth'
'esa'
'ener'
'elko_'
'eliminate_'
'edo'
'edgar_'
'dud'
'dora'
'dismay'
'discern'
'detract'
'deterre'
'defe'
'dearer_'
'cz'
'curves_'
'curate'
'crib_'
'crap_'
'courte'
'corners'
'copley_'
'coolangatta_'
'coniston_'
'compensation_'
'compelled_'
'cious_'
'chester'
'cchi'
'carb'
'caramel_'
'bung'
'brownie_'
'briar'
'bf_'
'bendigo_'
'beast_'
'ballsbridge_'
'bacar'
'azi'
'ayo'
'augustin'
'asan'
'ario'
'announced_'
'ania_'
'andea'
'amsterdam'
'amenities'
'amaze'
'aloo'
'alca'
'ais_'
'airfield_'
'aguada_'
'advice'
'accr'
'82'
'211_'
' ? '
' .” _'
'‘_'
'zor'
'xx'
'xel'
'word'
'wheeler'
'wever_'
'waterslides_'
'ward'
'vice'
'vase'
'vac'
'usual'
'usth'
'usso_'
'urf'
'unsettling_'
'unr'
'unimp'
'uniforms_'
'undertaken_'
'uncom'
'ubers_'
'tura'
'trundl'
'trud'
'truck'
'track'
'toy'
'townsend_'
'towed_'
'toss_'
'toor'
'tissue_'
'timebut_'
'thanks'
'sylvia_'
'swimming'
'sweat'
'swarm'
'sv'
'surr'
'supervision_'
'sudbury_'
'steered_'
'spiritual_'
'siri'
'silk'
'showroom_'
'sensor_'
'scien'
'sainte_'
'ré'
'roa_'
'rmo'
'rmb'
'rico'
'rhein_'
'returning'
'respectable_'
'repeat'
'remi'
'quiter_'
'queensland_'
'prompted_'
'portrait_'
'pope_'
'pondicherry_'
'pitch'
'philosophy_'
'phillip_'
'perpendicular_'
'perc'
'peacefull_'
'parke'
'paint'
'pagodas_'
'overst'
'outsideso_'
'outbound_'
'ourne_'
'otago_'
'orthe_'
'ody'
'nude_'
'nowhere'
'notif'
'noticing_'
'nicei_'
'ned'
'nast'
'mé'
'myeongdong_'
'moret'
'mooring'
'moneyth'
'meatballs_'
'mccar'
'manufactur'
'mahindra_'
'macys_'
'lyd'
'liver'
'lina_'
'layovers_'
'lantern_'
'lair'
'lain'
'kyo'
'krystal_'
'krone'
'klu'
'kinks_'
'kimberley_'
'kema'
'jw'
'isti'
'invasi'
'infirm_'
'inda'
'inca'
'improves_'
'ict'
'iceberg'
'iar'
'horr'
'horn'
'honky_'
'hollow_'
'hokitika_'
'himalaya'
'hike'
'hia_'
'grouped_'
'gratis_'
'gower_'
'goug'
'globus_'
'gill'
'gasp'
'fum'
'fs'
'freem'
'forthcoming_'
'forming_'
'fna_'
'faw'
'farn'
'families'
'failure_'
'factories_'
'extract'
'exto'
'exhibit'
'excu'
'exa'
'evanston_'
'erosion_'
'eq'
'emo'
'edwe_'
'düsseldorf_'
'dungeon_'
'doug'
'disappears_'
'depths_'
'delux_'
'decker_'
'dae'
'curbside_'
'croatian_'
'crave_'
'cram'
'cousins_'
'convers'
'contemplating_'
'consumed_'
'compote_'
'commercialis'
'clon'
'clinical_'
'cler'
'chos'
'chatswood_'
'cg'
'centrei'
'centrali'
'cca'
'caveats_'
'cascading_'
'calif'
'calamari_'
'burton_'
'burl'
'brownies_'
'brighten'
'brewpub_'
'branc'
'bonus'
'blind'
'blending_'
'blas_'
'bev'
'berth'
'berber_'
'bentonville_'
'belli'
'beer'
'barre_'
'barm'
'bargain'
'banus_'
'baja'
'automobile_'
'austell_'
'attire_'
'atic'
'assembly_'
'asok_'
'ashtray'
'arden_'
'architects_'
'aparthotel_'
'annie_'
'andhow'
'anders'
'amenties_'
'ambitious_'
'airportthe'
'agat'
'adt_'
'adorn'
'acquired_'
']_'
'40min_'
'407_'
'222_'
'194'
'131_'
'*_'
' ;-)_'
' ) -- _'
'zamb'
'yul'
'yorktown_'
'yk'
'yankee'
'xed_'
'wih'
'whipped_'
'wether_'
'vien'
'unex'
'umbria'
'tyr'
'trem'
'translation_'
'toothbrush_'
'tools_'
'titan'
'tested_'
'tavern'
'supremely_'
'style'
'stockman'
'stingrays_'
'steamed_'
'stairwells_'
'specified_'
'sod'
'sobe_'
'snowbird_'
'sloths_'
'siren'
'shutt'
'shilo'
'semi'
'self'
'scrub'
'sauchiehall_'
'sana_'
'roppongi_'
'risk'
'rift_'
'restrau'
'restaurantsthe_'
'respected_'
'rescued_'
'raine'
'producing_'
'pring'
'prie'
'ppl_'
'placesbut_'
'picker'
'phase_'
'petty_'
'permeate'
'peek'
'pedest'
'pavillon_'
'pastoral_'
'overw'
'oss'
'orkney_'
'oranger'
'onti'
'nqu'
'noiseand_'
'namdaemun_'
'nah'
'mwe'
'mustard_'
'monstro'
'monarch_'
'mona'
'moc'
'mob'
'medi'
'meadow'
'marle'
'maj'
'maiden'
'lovey_'
'lond'
'lifes'
'lever'
'lemon'
'lea_'
'lav'
'kwai_'
'kins_'
'khmer_'
'kebabs_'
'kate'
'johan_'
'javi'
'jabiru_'
'isab'
'intr'
'interval_'
'info'
'individuali'
'i10_'
'hides_'
'hert'
'herald_'
'hatch'
'goody'
'gold'
'global'
'glas'
'gingerbread_'
'ghira'
'gata'
'gain'
'forth'
'footi'
'flint_'
'fiumicino_'
'fernand'
'fanta'
'factor'
'facility'
'etic'
'ester'
'erw'
'employer_'
'emerging_'
'elsewhere'
'elem'
'division_'
'dinosaur_'
'delic'
'debated_'
'deau'
'dap'
'dak'
'cud'
'crowing_'
'crappy_'
'conservancy_'
'conf'
'condition'
'comforter_'
'cogn'
'civilisation_'
'cityw'
'chit'
'ccess'
'carw'
'carne'
'caravans_'
'burritos_'
'brie'
'bovey_'
'bouch'
'bonnet_'
'below'
'backthis_'
'backd'
'auschwitz_'
'aus'
'atlantic'
'arles_'
'arde'
'arat'
'aptly_'
'appea'
'ape'
'anta'
'anacortes_'
'alpaca_'
'aircondition'
'ahmed_'
'agou'
'afr'
'adapter_'
'89'
'2b'
'290_'
'209_'
'207_'
' . )'
' , “ _'
' ) ;'
' ' . _'
'zep'
'yvr_'
'yuc'
'ythis_'
'ycl'
'wrought_'
'works'
'woodfield_'
'wisely_'
'watery_'
'waterf'
'wasting_'
'vre'
'vesuvi'
'versi'
'veiw'
'vati'
'ution'
'usi'
'unrea'
'tyler_'
'trondheim_'
'thomsons_'
'thick'
'tew'
'tens'
'tales_'
'surfaces_'
'summarise_'
'stras'
'strange'
'stefan'
'stationed_'
'startl'
'staion_'
'stadt'
'soldiers_'
'slov'
'sleepless_'
'sides'
'schlep_'
'sarajevo_'
'sap_'
'sanda'
'rvice_'
'rta'
'roach'
'retailers_'
'rer'
'refrig_'
'reforma_'
'refills_'
'refers_'
'ravi'
'raid'
'rae'
'raddison_'
'qantas_'
'pst'
'prudential_'
'progr'
'praises_'
'potsdam'
'ponta_'
'polaris_'
'plac'
'pis_'
'picnics_'
'petaluma_'
'peta'
'personalities_'
'parlors_'
'panhandlers_'
'overbearing_'
'outram_'
'orat'
'oneself_'
'onei'
'omin'
'oldi'
'oiled_'
'oakhurst_'
'nsw_'
'nel'
'negombo_'
'mutt'
'musa'
'murc'
'munnar_'
'msu_'
'moscone_'
'monmouth_'
'moda'
'mento'
'menta'
'md'
'mca'
'maxwell_'
'maru'
'mania'
'maneuvering_'
'mane'
'maintained'
'madr'
'mace'
'luxuria'
'lp_'
'louisiana_'
'locationthis_'
'lks'
'lik'
'lewe'
'letdown_'
'lenno'
'layer_'
'laughed_'
'kua'
'kr'
'kop_'
'knights_'
'kitschy_'
'kila'
'kidd'
'karl'
'java_'
'jah'
'intact_'
'ift'
'iere_'
'hurried_'
'horrid_'
'hoop'
'holli'
'highrise_'
'hec'
'guitarist_'
'guilty_'
'guidebooks_'
'grander_'
'goodn'
'furna'
'foy'
'flee'
'flavorful_'
'fineand_'
'fax_'
'fantasi'
'eyesore_'
'explanations_'
'ether'
'endeavo'
'duly_'
'dori_'
'diverted_'
'differentia'
'derwent_'
'defeat'
'ddin'
'dand'
'dade'
'cucumber_'
'cry'
'crumbl'
'coyote_'
'contractors_'
'continual_'
'congratulated_'
'comparisons_'
'coimbra_'
'clum'
'clos_'
'chef'
'chatelet_'
'chape'
'centeri'
'capabilit'
'candid'
'butso'
'buth'
'butd'
'budget'
'brulee_'
'brooklands_'
'brill_'
'brief'
'blast'
'bk'
'biscayne_'
'behavior_'
'befitting_'
'beachy_'
'beachwe_'
'arr'
'areab'
'anth'
'andas_'
'alie'
'algo'
'alberto_'
'agoda_'
'afi'
'acr'
'acle'
'absorb'
'550_'
' .-'
' ,'
' ) ) '
' $ $ $ '
'zui'
'yorker'
'yell'
'waythe_'
'walke'
'viva_'
'vil'
'vana'
'unn'
'turkeys_'
'tter_'
'trento'
'trainee_'
'towna'
'torto'
'topic'
'thia_'
'thereby_'
'theat'
'texture_'
'telmo_'
'tagged_'
'surp'
'sue'
'studying_'
'striv'
'straits_'
'stores'
'stoned_'
'stereo_'
'sphere_'
'sparsely_'
'soth'
'solo'
'smallso_'
'sligh'
'skyr'
'shou'
'shift'
'sheri'
'shen'
'shaft'
'seven'
'seminars_'
'sel_'
'sec_'
'scotts'
'scone_'
'savory_'
'ryth'
'rupt'
'roswell_'
'rocks'
'roadi'
'rmi'
'rit_'
'reta'
'responsibility_'
'regenerat'
'reconsider_'
'rear'
'quieti'
'quesadilla'
'quat'
'pulitzer_'
'pug'
'proportioned_'
'profession'
'priceybut_'
'previ'
'ppo'
'potter'
'patron_'
'ows_'
'overhea'
'overground_'
'outdoors'
'orang_'
'ooked_'
'obstructi'
'objection'
'nui_'
'notch'
'nikki_'
'ngw'
'ncy_'
'mso'
'motivated_'
'montage_'
'miser'
'minister_'
'minim'
'mids'
'merchandise_'
'maz'
'lythe_'
'lli'
'litl'
'listi'
'list'
'link'
'lighte'
'libr'
'kovalam_'
'klein'
'kibbutz_'
'kers_'
'kast'
'judge'
'jona'
'jod'
'jock'
'jand'
'itch'
'issa'
'isabel_'
'ingr'
'igua'
'ial'
'hotelwh'
'horne'
'hope'
'honey'
'hogs_'
'hideous_'
'handrail'
'hairpin_'
'hah'
'gush'
'guidebook_'
'gth'
'gg_'
'gent'
'gee_'
'fond'
'flamb'
'findand_'
'feb'
'fcc_'
'fati'
'falls'
'facials_'
'eyed_'
'experiment'
'expecta'
'evora_'
'everett_'
'eveningthe_'
'ethos_'
'este_'
'enne_'
'enhanc'
'engl'
'ember'
'ema_'
'elm_'
'duties_'
'dot'
'descending_'
'desc'
'defined_'
'defi'
'deerfield_'
'ddy_'
'crist'
'crest'
'coqu'
'confess_'
'civilized_'
'citywe_'
'cirq'
'cip'
'chut'
'chrome_'
'choi'
'chilean_'
'castel'
'casco_'
'cang'
'cair'
'byt'
'butwh'
'butc'
'bushm'
'buri_'
'bule'
'buil'
'breathing_'
'bondi'
'blow'
'biased_'
'beloved_'
'basil_'
'bacc'
'atti'
'asia'
'asa_'
'argument'
'apartment'
'anyway'
'annoy_'
'amit'
'aker_'
'adaptor'
'79'
'67_'
'3x_'
'139_'
' : * _'
' ----'
' " ! '
'ó'
'zon_'
'youg'
'wrigley_'
'wotif_'
'wla'
'wf'
'wenatchee_'
'wb'
'waterparks_'
'walka'
'wadd'
'vocal'
'vie'
'verm'
'uta_'
'urst_'
'unh'
'undo'
'turi'
'transatlantic_'
'tilt'
'thump_'
'test'
'taur'
'tani'
'tamarind_'
'symbol'
'sustain'
'surrou'
'stau'
'ssey_'
'sprout'
'spinning_'
'solent_'
'snowshoe'
'snorkeled_'
'slie'
'sibl'
'shwedagon_'
'shoping_'
'shopa'
'settees_'
'secur'
'screening_'
'scand'
'sants_'
'rth_'
'rota'
'ritual_'
'rier'
'rga'
'restaurantsth'
'remarks_'
'refundable_'
'real'
'quadr'
'prosper'
'priced'
'prest'
'preservation_'
'porte'
'porsche_'
'planner_'
'phone'
'perla'
'pasture_'
'paneling_'
'panam'
'panache_'
'overd'
'otto'
'oozing_'
'officers_'
'obtaining_'
'obil'
'nitpick'
'nitely_'
'nif'
'ngd'
'multipl'
'movi'
'morton_'
'monthly_'
'mohegan_'
'mixer'
'misfortune_'
'mints_'
'mexic'
'methe_'
'medora_'
'marqu'
'manage'
'mam'
'mallo'
'luxury'
'lube'
'lottery_'
'loco'
'lochs_'
'latz_'
'lark'
'lamb'
'koda'
'kip'
'kg_'
'keflavik_'
'kazi'
'kaohsiung_'
'izing_'
'itthe'
'ishe'
'iser'
'inne'
'induc'
'inan'
'improv'
'igh_'
'ient'
'hoff'
'hermosa_'
'hass'
'hango'
'handic'
'hailing_'
'hailed_'
'haag'
'gret'
'grandma_'
'gradua'
'graceland_'
'gloss'
'gable_'
'further'
'frisco_'
'frames_'
'foss'
'fortifi'
'fins_'
'fascinated_'
'facilitated_'
'ets'
'ethis_'
'erries_'
'encore_'
'emperor_'
'elle'
'eliminated_'
'educate'
'ecc'
'eage'
'dron'
'dp'
'downstair'
'domes'
'dien'
'cyclone_'
'cupcakes_'
'cullen_'
'ctu'
'cradle_'
'countertop'
'cough'
'cooper'
'convinien'
'concentration_'
'composed_'
'compli'
'colomb'
'collections_'
'clifden_'
'clemente_'
'cio_'
'chun'
'chir'
'chag'
'casually_'
'casey_'
'cas_'
'carpe'
'busyand_'
'brixham_'
'brasil'
'boost_'
'beige_'
'beechworth_'
'bazar_'
'bastion_'
'attr'
'ashi_'
'aprox_'
'albufeira_'
'afb_'
'actions_'
'acting_'
'a30_'
'56'
'287_'
'0pm_'
'.......'
[...]
