'<pad>'
'<EOS>'
'<GO>'
'<OOV>'
'<DOC>'
'</DOC>'
'the_'
' ._'
'and_'
' , _'
'was_'
'to_'
'a_'
'staff_'
'in_'
'very_'
'were_'
'of_'
'i_'
'is_'
'we_'
'friendly_'
'for_'
'service_'
'with_'
'at_'
'helpful_'
'hotel_'
'not_'
'good_'
'but_'
'it_'
' - _'
'they_'
'room_'
'are_'
'on_'
'that_'
'breakfast_'
'had_'
'all_'
'as_'
'this_'
'you_'
'our_'
'check_'
'nice_'
'have_'
'desk_'
'food_'
'there_'
'be_'
'my_'
'front_'
't_'
'n_'
'from_'
'us_'
'great_'
'so_'
'reception_'
''_'
'out_'
'restaurant_'
'no_'
'excellent_'
'did_'
'bar_'
'when_'
' ( _'
'one_'
'me_'
'by_'
'which_'
'an_'
'would_'
'efficient_'
'well_'
'stay_'
' !_'
'could_'
's_'
'if_'
'up_'
'really_'
'rooms_'
'who_'
'do_'
'pleasant_'
'or_'
'their_'
'also_'
' '_'
'always_'
'time_'
'get_'
'only_'
'some_'
'about_'
'just_'
' " _'
'even_'
'more_'
' ) _'
'after_'
'night_'
'what_'
'pool_'
'day_'
'been_'
'he_'
'here_'
'buffet_'
'professional_'
' . _'
'other_'
'_'
'attentive_'
'like_'
'lobby_'
'she_'
'people_'
'made_'
'them_'
'too_'
'can_'
'welcoming_'
'has_'
'concierge_'
'your_'
'lovely_'
'asked_'
'first_'
'extremely_'
'told_'
'again_'
'manager_'
'welcome_'
'most_'
' / _'
'free_'
'area_'
'lounge_'
'polite_'
'any_'
'than_'
'happy_'
'dinner_'
'morning_'
' ' _'
'coffee_'
'clean_'
'went_'
'make_'
'said_'
'however_'
'stayed_'
'best_'
' & _'
'found_'
'guests_'
'will_'
'back_'
'help_'
'much_'
'two_'
'got_'
'warm_'
'arrived_'
'then_'
'every_'
'down_'
' ) ._'
'though_'
'being_'
'2_'
'floor_'
'go_'
'over_'
'nothing_'
'quite_'
'next_'
'courteous_'
'way_'
'quick_'
'quality_'
'evening_'
'housekeeping_'
'place_'
'checked_'
'although_'
'little_'
'both_'
'before_'
'ok_'
'enough_'
' : _'
'._'
'hot_'
'drinks_'
'slow_'
'5_'
'where_'
'bit_'
'especially_'
'water_'
'took_'
'seemed_'
'comfortable_'
'experience_'
'customer_'
'member_'
'3_'
'never_'
'better_'
'times_'
'another_'
'arrival_'
'am_'
'work_'
'many_'
' ; _'
'need_'
'because_'
'should_'
'everything_'
'during_'
'hotels_'
'everyone_'
'while_'
'around_'
'special_'
'how_'
'available_'
'feel_'
'minutes_'
'served_'
'off_'
'small_'
'wonderful_'
'came_'
'her_'
'accommodating_'
'offered_'
' ... _'
'long_'
'top_'
'say_'
'poor_'
'fast_'
'called_'
'same_'
'find_'
'cold_'
'wait_'
'english_'
'door_'
'left_'
'kind_'
'management_'
'few_'
'fantastic_'
'person_'
'problem_'
'still_'
'receptionist_'
'given_'
'wifi_'
'order_'
'without_'
'large_'
'into_'
'take_'
'gave_'
'early_'
'amazing_'
'busy_'
'd_'
'club_'
'choice_'
'tea_'
'location_'
'use_'
'4_'
'etc_'
'full_'
'ask_'
'lady_'
'drink_'
'parking_'
'guest_'
'bed_'
'meal_'
'call_'
'working_'
'menu_'
'his_'
'table_'
'late_'
'sure_'
'super_'
'booked_'
'know_'
'things_'
'needs_'
'does_'
'see_'
'having_'
'hour_'
'its_'
'facilities_'
'throughout_'
'care_'
'team_'
'standard_'
'checking_'
'hard_'
'ready_'
'each_'
'new_'
'waiting_'
'outstanding_'
'fresh_'
'ever_'
'business_'
'property_'
'fine_'
'10_'
'selection_'
'nights_'
'restaurants_'
'give_'
'want_'
'provided_'
'needed_'
'overall_'
'such_'
'bad_'
'job_'
'think_'
'1_'
'come_'
' ..._'
'greeted_'
'high_'
'star_'
'wine_'
'spa_'
'days_'
'expect_'
'upon_'
'extra_'
'young_'
'impressed_'
'pm_'
'view_'
'smile_'
'price_'
'quickly_'
'dining_'
'’_'
'until_'
'main_'
'looked_'
'level_'
'lot_'
'last_'
'offer_'
' ?_'
'going_'
'valet_'
'internet_'
'put_'
'charge_'
'big_'
'tried_'
'done_'
'pretty_'
' $ _'
'through_'
'rather_'
'someone_'
'tasty_'
'anything_'
'used_'
'average_'
'phone_'
'thing_'
'exceptional_'
'superb_'
'once_'
'members_'
' ) , _'
'something_'
'open_'
'particularly_'
'second_'
'later_'
'airport_'
'let_'
'cooked_'
'30_'
'seem_'
'met_'
'booking_'
'wanted_'
'eat_'
'card_'
'e_'
'several_'
'eggs_'
'luggage_'
'hours_'
'lunch_'
'away_'
'delicious_'
'issue_'
'received_'
'these_'
'pay_'
'try_'
':_'
'- _'
'rude_'
'towels_'
'complimentary_'
'rate_'
'included_'
'shower_'
'getting_'
'attention_'
'right_'
'despite_'
'kept_'
'different_'
'encountered_'
'look_'
'must_'
'name_'
'visit_'
'plenty_'
'car_'
'old_'
'felt_'
'gym_'
', _'
'marriott_'
'able_'
'three_'
'making_'
'prompt_'
've_'
'services_'
'fruit_'
'smooth_'
'resort_'
'enjoyed_'
'ca_'
'why_'
'request_'
'attitude_'
'nt_'
'hilton_'
'side_'
'couple_'
'outside_'
'credit_'
'upgrade_'
'bathroom_'
'executive_'
'since_'
'man_'
'trained_'
'value_'
'due_'
'm_'
'ate_'
'ordered_'
'generally_'
'issues_'
'clerk_'
' ,_'
're_'
'change_'
'process_'
'less_'
'thought_'
'worked_'
'items_'
'staying_'
'trying_'
'expensive_'
'6_'
'finally_'
'lots_'
'now_'
'spoke_'
'cleaning_'
'part_'
'usual_'
'decent_'
'areas_'
'general_'
'reservation_'
'including_'
'class_'
' -- _'
'limited_'
'meals_'
'shuttle_'
'inn_'
'trip_'
'above_'
'number_'
'suite_'
'whole_'
'touch_'
'quiet_'
'tables_'
'else_'
'money_'
'either_'
'actually_'
'least_'
'please_'
'house_'
'seems_'
'guy_'
'plus_'
'waiter_'
' ! !_'
'keep_'
'real_'
'return_'
' -_'
'y_'
'almost_'
'checkin_'
'leave_'
'tv_'
'beautiful_'
'point_'
' ’_'
'end_'
'start_'
'fact_'
'paid_'
'problems_'
'key_'
'afternoon_'
'beds_'
'group_'
'looking_'
'taken_'
'spacious_'
' .. _'
'him_'
'course_'
'speak_'
'mention_'
'20_'
'provide_'
'run_'
'air_'
'those_'
'set_'
'duty_'
'7_'
'doing_'
' £ _'
'bags_'
'bill_'
'wrong_'
'access_'
'others_'
'deal_'
'line_'
' ., _'
'trouble_'
'employees_'
'immediately_'
'expected_'
'lack_'
'noise_'
' ! _'
'recommend_'
'helped_'
'options_'
'family_'
'prices_'
'checkout_'
'sleep_'
'15_'
'-_'
' )_'
'choices_'
'clearly_'
'holiday_'
'serve_'
'ing_'
'bell_'
'ed_'
'brought_'
'week_'
'years_'
'size_'
'amenities_'
'upgraded_'
'own_'
'kids_'
'breakfasts_'
'reasonable_'
'simply_'
'positive_'
'beach_'
'makes_'
'serving_'
'atmosphere_'
'smiling_'
'half_'
'definitely_'
'customers_'
'8_'
'modern_'
'per_'
'far_'
'easy_'
'requests_'
'variety_'
'flight_'
'waited_'
'waitress_'
'may_'
'absolutely_'
'year_'
'notch_'
'local_'
'incredibly_'
'cheerful_'
'personal_'
'willing_'
'asking_'
'yet_'
'wife_'
'home_'
'chef_'
'information_'
'brilliant_'
'under_'
'reviews_'
'maintenance_'
'conference_'
'huge_'
'except_'
' ...._'
'hand_'
'style_'
'personnel_'
'rest_'
'probably_'
'tell_'
'whilst_'
'entire_'
'non_'
'perfect_'
'short_'
'building_'
'fault_'
'security_'
'returned_'
'walk_'
'delivered_'
'9_'
'empty_'
'sent_'
'park_'
'across_'
'awesome_'
'requested_'
'informed_'
'moment_'
'book_'
'priced_'
'00_'
'unfortunately_'
'four_'
'turn_'
'thank_'
'training_'
'presented_'
'standards_'
'plentiful_'
'o_'
'glass_'
'bottle_'
'move_'
'mentioned_'
'snacks_'
'questions_'
'hospitality_'
'meeting_'
'points_'
'office_'
'instead_'
'/_'
'note_'
'elevator_'
'dishes_'
'closed_'
'pleased_'
'beyond_'
'previous_'
'ice_'
'disappointing_'
'experienced_'
'saw_'
'moved_'
'thanks_'
'views_'
'exceptionally_'
'waiters_'
'space_'
' .._'
'behind_'
'disappointed_'
'already_'
'machine_'
'knowledgeable_'
'often_'
'certainly_'
'twice_'
'exception_'
'wi_'
'fi_'
'elevators_'
'bring_'
'basic_'
'impeccable_'
'surprise_'
'seen_'
'showed_'
'clear_'
'enjoy_'
'arrive_'
'appreciated_'
'self_'
'changed_'
'keeping_'
'juice_'
'party_'
'truly_'
'adequate_'
'tour_'
'between_'
'surprised_'
'cost_'
'understand_'
'system_'
'weekend_'
'review_'
'none_'
'complained_'
'sit_'
'particular_'
'offering_'
'might_'
'platinum_'
'charged_'
'worth_'
'world_'
' .( _'
'kitchen_'
'maybe_'
'welcomed_'
'greeting_'
'contact_'
'walked_'
'turned_'
'spent_'
'driver_'
'close_'
'mini_'
'counter_'
'show_'
'charming_'
'terrible_'
'light_'
'decided_'
'taking_'
'll_'
'within_'
'appeared_'
'worst_'
' .- _'
'impression_'
'indeed_'
'near_'
'promptly_'
'giving_'
'prepared_'
'possible_'
'obviously_'
'girl_'
' " ._'
'explained_'
'itself_'
'swimming_'
'single_'
'answer_'
'woman_'
'city_'
'managed_'
'travel_'
'reasonably_'
'enjoyable_'
'places_'
'simple_'
'beer_'
'five_'
'( _'
'running_'
'yes_'
'sometimes_'
'husband_'
'eventually_'
'grounds_'
'coming_'
'staffs_'
'site_'
'downstairs_'
'daily_'
'following_'
'totally_'
'reason_'
'taxi_'
'11_'
'directions_'
'bread_'
'eager_'
'apart_'
'maintained_'
'reservations_'
'email_'
'fabulous_'
'detail_'
'soon_'
'children_'
'shop_'
'perhaps_'
'sign_'
'saying_'
'sort_'
'noisy_'
'queue_'
'impressive_'
'dealt_'
'anyone_'
'response_'
'completely_'
'started_'
'appointed_'
'cleaned_'
'fairly_'
'fix_'
'tired_'
'situation_'
'plates_'
'treated_'
'nicely_'
'fixed_'
'lift_'
'leaving_'
'hear_'
'sunday_'
'bacon_'
'genuinely_'
'responsive_'
'wedding_'
'loud_'
'minute_'
'varied_'
'handled_'
'assist_'
'highly_'
'laundry_'
'loved_'
'entertainment_'
'gold_'
'okay_'
'usually_'
'interested_'
'typical_'
'complaints_'
'knew_'
'crowded_'
'cool_'
'arriving_'
'bath_'
'past_'
'double_'
'inside_'
'using_'
'otherwise_'
'case_'
'sorry_'
'ladies_'
'paying_'
'50_'
'c_'
'guys_'
'type_'
'apologetic_'
' .... _'
'. _'
'awful_'
'maid_'
'stuff_'
' – _'
'details_'
' ! ! !_'
'stars_'
'mostly_'
'helping_'
'server_'
'located_'
'looks_'
'safe_'
'difficult_'
'employee_'
'works_'
'love_'
'delightful_'
'complaint_'
'public_'
'believe_'
'keys_'
'expectations_'
'gentleman_'
'b_'
'decor_'
'pre_'
'complain_'
'sitting_'
'gracious_'
'music_'
'liked_'
' % _'
'cheap_'
'walking_'
'12_'
'attendant_'
'center_'
'cookies_'
'meet_'
'relaxing_'
'along_'
'allowed_'
'advice_'
'status_'
'facility_'
'la_'
'lacking_'
'ly_'
'option_'
'r_'
'feeling_'
'stocked_'
'ground_'
'tip_'
'somewhat_'
'friends_'
'calls_'
'24_'
'apology_'
'pick_'
'friendliness_'
'effort_'
'departure_'
'ran_'
'providing_'
'sweet_'
'noticed_'
'doors_'
'cocktails_'
'cheese_'
'happened_'
'ensure_'
'premier_'
'spread_'
'toast_'
'miss_'
'continental_'
'staffed_'
'genuine_'
'below_'
'everywhere_'
'mins_'
'unfriendly_'
'glasses_'
'fridge_'
'entrance_'
'towel_'
'send_'
'cafe_'
'offers_'
'low_'
'king_'
'head_'
'eating_'
'nor_'
'remember_'
'efficiently_'
'window_'
'smoking_'
'fish_'
'whether_'
'list_'
'face_'
'sat_'
'bellman_'
'talk_'
'servers_'
'fun_'
'salad_'
'accomodating_'
'wish_'
'stop_'
' “ _'
'matter_'
'folks_'
'read_'
'opened_'
'sorted_'
'treat_'
'terrific_'
'talking_'
'pools_'
'advised_'
'hope_'
'station_'
'ones_'
'normal_'
'doorman_'
'bartender_'
'fully_'
'acceptable_'
'managers_'
'overly_'
'assistance_'
'manner_'
'goes_'
'agent_'
'gone_'
'saturday_'
'fair_'
'package_'
'egg_'
'difference_'
'luxury_'
'informative_'
'brand_'
'stand_'
'slightly_'
'bag_'
'unless_'
'computer_'
'speaking_'
'ended_'
'generous_'
'scrambled_'
'taste_'
'fitness_'
'chain_'
'range_'
'apparently_'
'recently_'
'amount_'
'g_'
'competent_'
'andthe_'
'missing_'
'example_'
'additional_'
'fire_'
'choose_'
'smiles_'
'hit_'
'receptionists_'
'add_'
'complete_'
'nearby_'
'lost_'
'wo_'
'heard_'
'correct_'
'es_'
'company_'
'visited_'
'wide_'
'toilet_'
'occasions_'
'italian_'
'cocktail_'
'chairs_'
'event_'
'personable_'
'rating_'
'avoid_'
'steak_'
'important_'
'consistently_'
'dirty_'
'hampton_'
'hyatt_'
'caring_'
'bedroom_'
'properly_'
'required_'
'french_'
'milk_'
'idea_'
'balcony_'
'guess_'
'street_'
'lifts_'
'diamond_'
'45_'
'elsewhere_'
'floors_'
'bus_'
'website_'
'prior_'
'earlier_'
'toiletries_'
'question_'
'seating_'
'shown_'
'ago_'
'longer_'
'board_'
'round_'
'bars_'
'third_'
'snack_'
'gets_'
'reported_'
'cup_'
'regular_'
'forgot_'
'myself_'
'receive_'
'bother_'
'bottles_'
'anywhere_'
'weather_'
'paper_'
'meant_'
'mediocre_'
'minor_'
'accommodate_'
'common_'
'advance_'
'birthday_'
'constantly_'
'negative_'
'improved_'
'disappointment_'
'mr_'
'town_'
'properties_'
'helpfull_'
'dated_'
'separate_'
'oh_'
'anyway_'
'comment_'
'swift_'
'added_'
'fee_'
'terrace_'
'spend_'
'comfy_'
'broken_'
'perfectly_'
'higher_'
'worse_'
'replaced_'
'answered_'
'chair_'
'break_'
'arranged_'
'chicken_'
'champagne_'
'grand_'
'pillows_'
'cleanliness_'
'till_'
'recommendations_'
'plate_'
'l_'
'mind_'
'100_'
'nobody_'
'standing_'
'unhelpful_'
'considering_'
'annoying_'
'levels_'
'exactly_'
'london_'
'greet_'
'25_'
'garden_'
'shame_'
'stopped_'
'major_'
'nearly_'
'serves_'
'themselves_'
'dry_'
'aware_'
'setting_'
'replenished_'
'understaffed_'
'promised_'
'together_'
'conditioning_'
'decorated_'
'pricey_'
'overnight_'
'hall_'
'stood_'
'sandwiches_'
'western_'
'stairs_'
'true_'
'notice_'
'finished_'
'pastries_'
'supposed_'
'smell_'
'road_'
'charges_'
'takes_'
'tub_'
'equally_'
'spg_'
'doormen_'
'suggestions_'
'gift_'
'appear_'
'chips_'
'recommended_'
'chocolate_'
'equipped_'
'conversation_'
'returning_'
'keen_'
' ....._'
'unable_'
'roof_'
'overpriced_'
'inviting_'
'sea_'
'occasion_'
'orders_'
'owners_'
'happen_'
'indian_'
'refused_'
'sense_'
'improve_'
'crew_'
'windows_'
'hospitable_'
'elite_'
'freshly_'
'convenient_'
'straight_'
'comes_'
'attended_'
'soup_'
'beautifully_'
'compared_'
'calling_'
'comfort_'
'porter_'
'inclusive_'
'ng_'
'outdoor_'
'ambience_'
'explain_'
'various_'
'relaxed_'
'obliging_'
'via_'
'nicer_'
'bothered_'
'suites_'
'sun_'
'ignored_'
'somewhere_'
'yourself_'
'horrible_'
'red_'
'middle_'
'40_'
'rates_'
'incredible_'
'corner_'
'design_'
'rooftop_'
'speed_'
'orange_'
'friend_'
'f_'
'wall_'
'organised_'
'chose_'
'addition_'
'connection_'
'butler_'
'/ _'
'terms_'
'appreciate_'
'pub_'
'centre_'
'odd_'
'accommodation_'
'voucher_'
'2nd_'
'friday_'
'midnight_'
'resolved_'
'pizza_'
'remembered_'
'weeks_'
'mixed_'
'pointed_'
'easily_'
'tiny_'
'temperature_'
'cups_'
'bright_'
'cake_'
'warmly_'
'means_'
'buy_'
'er_'
'chinese_'
'handle_'
'extensive_'
'deliver_'
'mistake_'
'white_'
'seated_'
'attendants_'
'satisfied_'
'indifferent_'
'policy_'
'months_'
'speedy_'
'word_'
'dark_'
'mean_'
'strange_'
'packed_'
'sheraton_'
'courtyard_'
'dog_'
'beverage_'
'cream_'
'machines_'
'stays_'
'online_'
'enthusiastic_'
' + _'
'older_'
'u_'
'spot_'
'tips_'
'allocated_'
' ’ _'
'filled_'
'fan_'
'comments_'
'cut_'
'poorly_'
'groups_'
'finding_'
'nd_'
'heat_'
'stated_'
'rang_'
'concerned_'
'treatment_'
'cook_'
'carte_'
'overlooking_'
'missed_'
'men_'
'sized_'
'gm_'
'further_'
'failed_'
'chaotic_'
'store_'
'telling_'
'ritz_'
'pleasure_'
'international_'
'mornings_'
'soft_'
'cordial_'
' ” _'
'smart_'
'eye_'
'opinion_'
'offerings_'
'japanese_'
'live_'
'based_'
'meat_'
'massage_'
'pressure_'
'multiple_'
'biggest_'
' , " _'
'girls_'
'control_'
'became_'
'courtesy_'
'sadly_'
'directly_'
'overwhelmed_'
'renovation_'
'p_'
'ihg_'
'christmas_'
'whatever_'
'expecting_'
'regarding_'
'neither_'
'hair_'
'similar_'
'w_'
'picked_'
'activities_'
'language_'
'barman_'
'agreed_'
'forward_'
'placed_'
'honest_'
'indoor_'
'oriented_'
'age_'
'private_'
'basically_'
'express_'
'discount_'
'reserved_'
'pass_'
'asian_'
' ! )_'
'sausage_'
'cleared_'
'barely_'
'unpleasant_'
'proper_'
'confirmed_'
'hello_'
'consistent_'
'poolside_'
'mile_'
'total_'
'lacked_'
'(_'
'laid_'
'surly_'
'soap_'
'tasted_'
'sandwich_'
'removed_'
'lodge_'
'colleague_'
'cards_'
'forget_'
'renovated_'
'finish_'
'allow_'
'cereal_'
'thai_'
'shows_'
'normally_'
'golf_'
'daughter_'
'engaging_'
'catering_'
'enter_'
'certain_'
'refreshing_'
'&_'
'k_'
'fried_'
'followed_'
'presentation_'
'drivers_'
'al_'
'lower_'
'equipment_'
'personally_'
'male_'
'says_'
'dealing_'
' ! ) ._'
'watch_'
' :_'
'starbucks_'
'interesting_'
'hold_'
'drive_'
'strong_'
'relax_'
'write_'
'owner_'
'starting_'
'grill_'
'dessert_'
'professionalism_'
'understanding_'
'bistro_'
'present_'
'improvement_'
'ahead_'
'ac_'
'reply_'
'putting_'
'spotless_'
'suggested_'
'foods_'
'assured_'
'ages_'
'power_'
'pet_'
'alone_'
'priority_'
'sausages_'
'firstly_'
'chance_'
'entered_'
'memorable_'
'le_'
'fare_'
'numerous_'
'apologized_'
'box_'
'3rd_'
'lights_'
'furniture_'
'continued_'
' ' ._'
'tray_'
'sauna_'
'form_'
'transfer_'
'wake_'
'faultless_'
'dish_'
'whom_'
'supervisor_'
'son_'
'patient_'
'highlight_'
'female_'
'bathrooms_'
'chat_'
'showing_'
'ourselves_'
'responded_'
'superior_'
'contacted_'
'plastic_'
'cleaners_'
'frustrating_'
'life_'
'hardly_'
'complaining_'
'maids_'
'approach_'
'1st_'
'obvious_'
'fruits_'
'cereals_'
'train_'
'par_'
'handed_'
'central_'
'queues_'
'function_'
'evenings_'
'american_'
'waitresses_'
'initial_'
'larger_'
'seat_'
'noted_'
'changing_'
'funny_'
' * _'
'maker_'
'channels_'
'joke_'
'everybody_'
'confirmation_'
'dressed_'
'satisfactory_'
'address_'
'delivery_'
' " , _'
'skills_'
'housekeeper_'
'condition_'
'warmth_'
'seriously_'
'bottled_'
'black_'
'mid_'
'ample_'
'heating_'
'european_'
'appears_'
' : - _'
'portions_'
'unlike_'
'facing_'
'h_'
'alarm_'
'opening_'
' . )_'
'westin_'
'lines_'
'lucky_'
'bland_'
'positives_'
'inconvenience_'
'consider_'
'concern_'
'con_'
'mainly_'
'communication_'
'breeze_'
'bartenders_'
'touches_'
'game_'
'selections_'
'relatively_'
'suggest_'
' ? _'
'colleagues_'
'cakes_'
'inconsistent_'
'construction_'
'ten_'
'recent_'
'passed_'
'uncomfortable_'
'manage_'
'travelling_'
'pros_'
'corridor_'
'surprisingly_'
'st_'
'bonus_'
'visiting_'
'whenever_'
'mark_'
'burger_'
'reliable_'
'previously_'
'interaction_'
'insisted_'
'addressed_'
'follow_'
'country_'
'courses_'
'boy_'
'sound_'
'juices_'
'agree_'
'shampoo_'
'carry_'
'cons_'
'amazingly_'
'reviewers_'
'provides_'
'" _'
'workers_'
'euros_'
'annoyed_'
'relations_'
'moving_'
'vacation_'
'tickets_'
'30am_'
'plan_'
'lighting_'
'attached_'
'hands_'
'entering_'
'complementary_'
'onto_'
'river_'
'professionally_'
'updated_'
'respond_'
'kindly_'
'hostess_'
'visits_'
'min_'
'30pm_'
'sports_'
'experiences_'
'mix_'
'miserable_'
'designed_'
'ordering_'
'led_'
'smoke_'
'iron_'
'disinterested_'
'impressions_'
'date_'
'explanation_'
'omelette_'
'jobs_'
'inns_'
'rs_'
'organized_'
'include_'
'smoothly_'
'literally_'
'towards_'
'swim_'
'intrusive_'
'sink_'
'desired_'
'cash_'
'serious_'
'spanish_'
'registration_'
'names_'
'interacted_'
'impossible_'
'traveling_'
'pleasantly_'
'message_'
'forever_'
' ‘ _'
'porters_'
'tours_'
'imagine_'
'therefore_'
'delay_'
'charging_'
'knows_'
'doubt_'
' ..... _'
'refund_'
'foyer_'
'corporate_'
'travelers_'
'thoughtful_'
'info_'
'acknowledged_'
'ocean_'
'talked_'
'rushed_'
'mess_'
'rush_'
'ordinary_'
'friendliest_'
'support_'
'screen_'
'necessary_'
'flawless_'
'exemplary_'
'charm_'
'accor_'
'confused_'
'clothes_'
'turndown_'
'treatments_'
'timely_'
'future_'
'rewards_'
'wines_'
'feels_'
'clerks_'
'badly_'
'assigned_'
'step_'
'arrangements_'
'sold_'
'unacceptable_'
'held_'
'respect_'
'luke_'
'useful_'
'assistant_'
'chatting_'
'families_'
'feature_'
'everyday_'
'gesture_'
'cookie_'
'knowledge_'
'walls_'
'vouchers_'
'layout_'
'gives_'
'establishment_'
'delight_'
'dropped_'
'hallway_'
'chatty_'
'concerns_'
'result_'
'kudos_'
'host_'
'feedback_'
'possibly_'
'v_'
'twin_'
'pot_'
'share_'
'serviced_'
'report_'
'phoned_'
'minibar_'
'venue_'
'gardens_'
'concierges_'
'arranging_'
'fuss_'
'cooking_'
'asset_'
'salmon_'
'resolve_'
'loyalty_'
'attending_'
'meetings_'
'dedicated_'
'women_'
'valets_'
'tidy_'
'known_'
'individual_'
'efficiency_'
'starter_'
'cab_'
'guide_'
'final_'
'vegetarian_'
'changes_'
'traditional_'
'deserve_'
'focused_'
'forgotten_'
'boys_'
'supply_'
'refurbished_'
'smaller_'
'season_'
'trips_'
'hassle_'
'clearing_'
'ring_'
'among_'
'distance_'
'upstairs_'
'ambiance_'
'beef_'
'wanting_'
'heated_'
'cope_'
'chefs_'
'beverages_'
'wet_'
'switch_'
'exec_'
'costs_'
'aside_'
'taxis_'
'excuse_'
'glad_'
'elegant_'
'satisfaction_'
' ! ) _'
'wonder_'
'interest_'
'fill_'
'environment_'
'bellmen_'
'starwood_'
'luckily_'
'uk_'
'covered_'
'attempt_'
'apologised_'
'account_'
'premium_'
'leisure_'
'words_'
'initially_'
'emails_'
'cutlery_'
'attractive_'
'advise_'
'kettle_'
'fortunately_'
'escorted_'
'corridors_'
'approached_'
'menus_'
'heavy_'
'adults_'
'green_'
'department_'
'albeit_'
'honors_'
'buffets_'
'adjacent_'
'payment_'
'handling_'
'absolute_'
'mobile_'
'microwave_'
'bringing_'
'waffles_'
'state_'
'reading_'
'preferred_'
'sleeping_'
'flat_'
'discovered_'
'biscuits_'
'accommodations_'
'print_'
'match_'
'18_'
'effective_'
'specially_'
'en_'
'knowledgable_'
'dinners_'
'taff_'
'cases_'
'program_'
'eaten_'
'tasteless_'
'wireless_'
'unhappy_'
'shopping_'
'surely_'
'replace_'
'functional_'
'filling_'
'thoroughly_'
'breads_'
'omelettes_'
'recognition_'
'praise_'
'housekeepers_'
'existent_'
'stuck_'
'regularly_'
'motel_'
'euro_'
'luxurious_'
'faces_'
'beers_'
'become_'
'child_'
'wow_'
'unit_'
'sell_'
'seeing_'
'playing_'
'fit_'
'directed_'
'journey_'
'catch_'
'numbers_'
'crowd_'
'learn_'
'shift_'
'ie_'
'desserts_'
'alternative_'
'upset_'
'spotty_'
'ridiculous_'
'benefits_'
'honestly_'
'features_'
'budget_'
'spectacular_'
'cheery_'
'bookings_'
'original_'
'map_'
'signs_'
'mail_'
'impersonal_'
'explaining_'
'deluxe_'
'grumpy_'
'14_'
'character_'
'today_'
'senior_'
'mine_'
'apologies_'
'summer_'
'potatoes_'
'partner_'
'nicest_'
'letter_'
'assisted_'
'computers_'
'clients_'
'school_'
'friendlier_'
'drop_'
'period_'
'gorgeous_'
'bedrooms_'
'uniformly_'
'fab_'
'onsite_'
' .* _'
'sales_'
'item_'
'clock_'
'watching_'
'cosy_'
'cared_'
'tower_'
'minimal_'
'disaster_'
',_'
'surroundings_'
'slept_'
'noon_'
'disney_'
'block_'
'beginning_'
'4th_'
'yogurt_'
'telephone_'
'unprofessional_'
'frequent_'
'sincere_'
'convention_'
'seats_'
'hi_'
'entry_'
'advantage_'
'dined_'
'attend_'
'supplied_'
'monday_'
'deserves_'
'basis_'
'advertised_'
'radisson_'
'poached_'
'error_'
'junior_'
'events_'
'month_'
'bowl_'
'plug_'
'extras_'
'drinking_'
'casual_'
'weak_'
'goodthe_'
'banquet_'
'thin_'
'suit_'
'emailed_'
'answering_'
'coach_'
'nowhere_'
' ) - _'
'shut_'
'bought_'
'resorts_'
'direct_'
'confirm_'
'tripadvisor_'
'speaks_'
'sad_'
'opposite_'
'cruise_'
'arrange_'
'seamless_'
'feet_'
'downside_'
'vegetables_'
'painless_'
'visitors_'
'peak_'
'marks_'
'health_'
'cover_'
'accept_'
'prefer_'
'plain_'
'ers_'
'bottom_'
'worn_'
'ms_'
'majority_'
'lacks_'
'* _'
'written_'
'highest_'
'hhonors_'
'croissants_'
'tone_'
'sheets_'
'renovations_'
'ness_'
'aspects_'
' _'
'wonderfully_'
'tourist_'
'stunning_'
'wants_'
'sufficient_'
'enjoying_'
'disturb_'
'remove_'
'airline_'
'saving_'
'politely_'
'europe_'
'act_'
'locked_'
'aspect_'
'art_'
'appalling_'
'acknowledge_'
'95_'
'ut_'
'ways_'
'pulled_'
'unusual_'
'save_'
'rare_'
'tries_'
'frequently_'
'constant_'
'anniversary_'
'piece_'
'luck_'
'fancy_'
' ." _'
'wash_'
'starters_'
'repeat_'
'pancakes_'
'negatives_'
'furnished_'
'travellers_'
'occupied_'
'com_'
'six_'
'cheaper_'
'against_'
'smiled_'
'outlets_'
'newspaper_'
'lukewarm_'
'hallways_'
'formal_'
'traveler_'
'signal_'
'deposit_'
'refrigerator_'
'includes_'
'unfailingly_'
'garage_'
'flights_'
'catered_'
'sets_'
'market_'
'carried_'
'tourists_'
'taj_'
'story_'
'phones_'
'chap_'
'approachable_'
'somehow_'
'products_'
'opportunity_'
'butthe_'
'spoken_'
'patio_'
'play_'
'hang_'
'completed_'
'steam_'
'massive_'
'instructions_'
'cell_'
'sauce_'
'inexperienced_'
'demand_'
'accommodated_'
'seasons_'
'lock_'
'cancelled_'
'acted_'
'tastes_'
'sofa_'
'safety_'
'immaculate_'
'caused_'
'spaces_'
'interior_'
'hanging_'
'grace_'
'according_'
'personality_'
'declined_'
'meats_'
'useless_'
'solid_'
'baggage_'
'thinking_'
'scones_'
'reach_'
'reasons_'
'rarely_'
'proud_'
'grateful_'
'traffic_'
'grab_'
'chocolates_'
'thorough_'
'refurbishment_'
'leaves_'
'inform_'
'abrupt_'
' ? ?_'
'parties_'
'solution_'
'showers_'
'ham_'
'slight_'
'replied_'
'intercontinental_'
'de_'
'carpet_'
'starts_'
'pasta_'
'island_'
'hopefully_'
'boutique_'
'baked_'
'rain_'
'importantly_'
'smiley_'
'roll_'
'ill_'
'resturant_'
'pillow_'
'dreadful_'
'benefit_'
' ! ! ! !_'
'wing_'
'proactive_'
'minimum_'
'tough_'
'ours_'
'figure_'
'dollars_'
'continue_'
'waste_'
'opted_'
'downtown_'
'200_'
'cuisine_'
'trainee_'
'named_'
'boarding_'
'queen_'
'heater_'
'bigger_'
'tap_'
'code_'
'frankly_'
'woke_'
'upgrades_'
'healthy_'
'plaza_'
'jacuzzi_'
'cater_'
'closing_'
'accurate_'
'planning_'
'baby_'
'kid_'
'involved_'
'described_'
'butter_'
'16_'
'cart_'
'receipt_'
'mattress_'
'loudly_'
'requirements_'
'repeated_'
' , ( _'
'roomthe_'
'recognized_'
'rep_'
'news_'
'compensation_'
'van_'
'novotel_'
'adjoining_'
'understood_'
'rated_'
'raised_'
'german_'
'encounter_'
'beat_'
'ideal_'
'dogs_'
'beans_'
'ambassador_'
'specific_'
'runs_'
'post_'
'casino_'
'section_'
'photos_'
'extended_'
'wrote_'
'transport_'
'helpfulness_'
'transportation_'
'sofitel_'
'shout_'
'secure_'
'ride_'
'pride_'
'delayed_'
'cars_'
' € _'
'shocked_'
'recommendation_'
'likely_'
'arrogant_'
'switched_'
'whose_'
'refill_'
'parts_'
'parked_'
'lake_'
'traveller_'
'co_'
'appetizers_'
'weekends_'
'exchange_'
'corrected_'
'conditioner_'
'procedure_'
'printed_'
'0_'
'thankfully_'
'stylish_'
'struggled_'
'royal_'
'carlton_'
'rolls_'
'60_'
'35_'
' –_'
'wear_'
'th_'
'lets_'
'specifically_'
'industry_'
'considerate_'
'commented_'
'accepted_'
'rectified_'
'actual_'
'stale_'
'replacement_'
'fell_'
'ball_'
'alcohol_'
'omelet_'
'loyal_'
'inefficient_'
'exercise_'
'fries_'
'90_'
'seafood_'
'pack_'
'south_'
'membership_'
'living_'
'bedding_'
'staffing_'
'operator_'
'freezing_'
'remote_'
'planned_'
'x_'
'whatsoever_'
'reminded_'
'headed_'
'happily_'
'efforts_'
'delighted_'
'somebody_'
'connected_'
'appropriate_'
'terribly_'
'ne_'
'ingredients_'
'hence_'
'extraordinary_'
' ...... _'
'confusion_'
'ticket_'
'overcooked_'
'loads_'
'body_'
'workout_'
'update_'
'reached_'
'omelets_'
'faulted_'
'deep_'
'rules_'
'remained_'
'pictures_'
'connect_'
'winter_'
'villa_'
'meaning_'
'potential_'
'knowing_'
'dryer_'
'pork_'
'listen_'
'ceiling_'
'5th_'
'types_'
'tender_'
'assume_'
'waitstaff_'
'shape_'
'ironing_'
'himself_'
'action_'
'spotlessly_'
'curtains_'
'availability_'
'proceeded_'
'na_'
'crazy_'
'apple_'
'valued_'
'india_'
'clueless_'
'assisting_'
'yummy_'
'suitcases_'
'realized_'
'proved_'
'fellow_'
'picture_'
'13_'
'unobtrusive_'
'watched_'
'pull_'
'letting_'
'hungry_'
'attractions_'
'adult_'
' '
'weird_'
'slippers_'
'minded_'
'disorganised_'
'boring_'
'oatmeal_'
'nevertheless_'
'furnishings_'
'forced_'
'drove_'
'confusing_'
'-- _'
'te_'
'matters_'
' … _'
'prepare_'
'passing_'
'parents_'
'couples_'
'storage_'
'incident_'
'driving_'
'boiled_'
'amongst_'
'80_'
'tasting_'
'respectful_'
'happens_'
'eve_'
'engineer_'
'client_'
'supplies_'
'realised_'
'gluten_'
'built_'
'bank_'
'sparkling_'
'shortly_'
'refilled_'
'inedible_'
'favorite_'
'bay_'
'zero_'
'ts_'
'smoked_'
'sight_'
'repair_'
'upper_'
'log_'
'newly_'
'laptop_'
'dress_'
'amazed_'
'allowing_'
' --- _'
'ry_'
'replenish_'
'classy_'
'began_'
'thus_'
'frozen_'
'deck_'
'button_'
'treats_'
'incorrect_'
'calm_'
'waits_'
'un_'
'degrees_'
'collect_'
'ble_'
'warned_'
'portion_'
'spending_'
'repeatedly_'
'ce_'
'17_'
'woken_'
'virtually_'
'tight_'
'solve_'
'schedule_'
'recommending_'
'challenge_'
'careful_'
')_'
'steps_'
'sister_'
'conversations_'
'bunch_'
'basement_'
'bangkok_'
'theme_'
'stuffy_'
'saved_'
'remains_'
'brasserie_'
'typically_'
'comprehensive_'
'bucket_'
'product_'
'focus_'
'favourite_'
'exceedingly_'
'position_'
'pity_'
'ensured_'
'chaos_'
'band_'
'aircon_'
'suggestion_'
'engaged_'
'cramped_'
'vip_'
'residents_'
'require_'
'queries_'
'nightly_'
'ervice_'
'airy_'
'unique_'
'greatly_'
'uninterested_'
'regardless_'
'lazy_'
'flexible_'
'cozy_'
'capable_'
'attempts_'
'needless_'
'alright_'
'wearing_'
'usd_'
'manned_'
'el_'
'personalized_'
'lit_'
'interactions_'
'helpfulthe_'
'exceeded_'
'disabled_'
'dinning_'
'desks_'
'irish_'
'connecting_'
'closet_'
'asia_'
'tend_'
'screaming_'
'hurry_'
'direction_'
'curt_'
'cause_'
'writing_'
'fluent_'
'court_'
'china_'
'boat_'
'volume_'
'salads_'
'privacy_'
'guarantee_'
'freindly_'
'energy_'
'convenience_'
'advisor_'
'unbelievable_'
'solved_'
'gentlemen_'
'flowers_'
'ta_'
'spoiled_'
'sky_'
'settled_'
'purchase_'
'preferences_'
'july_'
'handy_'
'hate_'
'visible_'
'locations_'
'disorganized_'
'coffees_'
'blue_'
'begin_'
'300_'
'knock_'
'compensate_'
'burgers_'
'ensuring_'
'dubai_'
'apparent_'
'pudding_'
'photo_'
'lounges_'
'delivering_'
'terminal_'
'maps_'
'dine_'
'wished_'
'seconds_'
'overlooked_'
'brown_'
' --_'
'web_'
'suitcase_'
'rock_'
'deskand_'
'guard_'
'expectation_'
'category_'
'apologize_'
'secondly_'
'pain_'
'diners_'
'york_'
'veg_'
'ey_'
'claimed_'
'cancel_'
'beware_'
'awkward_'
'anymore_'
' ? ) _'
'unwelcoming_'
'trays_'
'topped_'
'pieces_'
'knocked_'
'beside_'
'amenity_'
'ability_'
'6th_'
'foreign_'
'unexpected_'
'shared_'
'difficulty_'
'chris_'
' ;_'
'vibe_'
'struggle_'
'passes_'
'multi_'
'mirror_'
'upgrading_'
'teas_'
'suspect_'
'operation_'
'00pm_'
'suppose_'
'lamp_'
'coupons_'
'frustrated_'
'appearance_'
' ) ; _'
'sick_'
'cleaner_'
'bits_'
'salt_'
'loungers_'
'knocking_'
'hotelthe_'
'sorting_'
'hoping_'
'embassy_'
'dried_'
'andi_'
'stations_'
'nightmare_'
'coupon_'
'closes_'
'ruined_'
'overworked_'
'ies_'
'doubletree_'
'brunch_'
'22_'
'ish_'
'hong_'
' ( $ _'
'variable_'
'disappeared_'
'sugar_'
'shouting_'
'seemingly_'
'popular_'
'plans_'
'kong_'
'kindness_'
'indicated_'
'decision_'
'communicate_'
'apartment_'
'stepped_'
'stressed_'
'foot_'
'concept_'
'besides_'
'spite_'
'painfully_'
'mistakes_'
'happening_'
'cable_'
'banging_'
' …_'
'rip_'
'pro_'
'premises_'
'mood_'
'factor_'
'atrium_'
'apologise_'
'printing_'
'plugs_'
'pathetic_'
'jam_'
' (_'
'record_'
'muffins_'
'sushi_'
'suitable_'
'rubbish_'
'rice_'
'porridge_'
'passport_'
'faced_'
'edible_'
'discreet_'
'aloof_'
'affair_'
'ship_'
'realize_'
'purpose_'
'locals_'
'ion_'
'cooperative_'
'complex_'
'admit_'
'updating_'
'singapore_'
'shops_'
'representative_'
'irritating_'
'discussion_'
'palace_'
'newspapers_'
'history_'
'vast_'
'swiftly_'
'phenomenal_'
'depending_'
'accompanied_'
'sour_'
'fashioned_'
'evident_'
'basket_'
'stands_'
'se_'
'nyc_'
'excited_'
'disgusting_'
'curry_'
'wise_'
'inadequate_'
'worker_'
'ty_'
'reserve_'
'delays_'
'wood_'
'ted_'
'surprising_'
'prepaid_'
'persons_'
'honor_'
'electric_'
'ton_'
'refunded_'
'paperwork_'
'owned_'
'continues_'
'restuarant_'
'promise_'
'nicethe_'
'joy_'
'british_'
'pleasent_'
'copy_'
'7th_'
'travelled_'
'roast_'
'push_'
'organisation_'
'hen_'
'tree_'
'stored_'
'produced_'
'games_'
'classic_'
'square_'
'processed_'
'hey_'
'gin_'
'fail_'
'ease_'
'desert_'
'70_'
'500_'
'correctly_'
'bored_'
'arrangement_'
'animation_'
'sheet_'
'presence_'
'perfection_'
'michael_'
'mexican_'
'canteen_'
'toaster_'
'slick_'
'sightseeing_'
'requesting_'
'holding_'
'criticism_'
'considered_'
'capacity_'
'agents_'
'travels_'
'locate_'
'lamb_'
'greasy_'
'fall_'
'describe_'
'term_'
'john_'
'basics_'
'attempted_'
'19_'
'tax_'
'signed_'
'rudely_'
'pushed_'
'pleasing_'
'granted_'
'fireplace_'
'eyes_'
'chilled_'
'billing_'
'$ _'
' ” ._'
'turns_'
'surrounding_'
'north_'
'flying_'
'blame_'
'turning_'
'stick_'
'silver_'
'shirt_'
'remind_'
'pushy_'
'notified_'
'join_'
'clientele_'
'75_'
' , & _'
'trash_'
'sthe_'
'social_'
'recognised_'
'piano_'
'cheeses_'
'boxes_'
'responsible_'
'patrons_'
'march_'
'maintain_'
'gate_'
'fairness_'
'carvery_'
'played_'
'greetings_'
'00am_'
'patchy_'
'ment_'
'halls_'
'entirely_'
'buildings_'
'brief_'
'bellhop_'
'voice_'
'questioned_'
'hung_'
'rental_'
'remarkable_'
'practice_'
'ins_'
'ge_'
'football_'
'upscale_'
'stupid_'
'lead_'
'familiar_'
'departments_'
'channel_'
'app_'
'trendy_'
'ous_'
'ignore_'
'enthusiasm_'
'devices_'
': _'
'worthy_'
'tad_'
'residence_'
'queuing_'
'produce_'
'overbearing_'
'lousy_'
'ic_'
'holidays_'
'entertaining_'
'umbrellas_'
'toilets_'
'smelled_'
'servicing_'
'remain_'
'regard_'
'pricing_'
'load_'
'herself_'
'heart_'
'gripe_'
'earth_'
'contrast_'
'carrying_'
'bellboy_'
'supportive_'
'forthcoming_'
'expedia_'
'clue_'
'chosen_'
'newer_'
'exit_'
'ere_'
'december_'
'claim_'
'afterwards_'
'sunbeds_'
'staffthe_'
'spoilt_'
'mall_'
'learned_'
'leading_'
'january_'
'espresso_'
'consisted_'
'blocked_'
' ! ) , _'
'sri_'
'recognize_'
'managing_'
'drunk_'
'david_'
'compare_'
'café_'
'reduced_'
'reakfast_'
'dollar_'
'behaviour_'
'attentiveness_'
'ur_'
'robes_'
'printer_'
'nasty_'
'linen_'
'fairmont_'
'cares_'
'pounds_'
'director_'
' ? ? ?_'
' .: _'
'umbrella_'
'television_'
'stating_'
'situated_'
'shocking_'
'base_'
'answers_'
'alcoholic_'
' .-_'
'sympathetic_'
'supposedly_'
'similarly_'
'quieter_'
'plane_'
'helps_'
'display_'
'comparison_'
'selling_'
'polished_'
'occupancy_'
'norm_'
'cafeteria_'
'ad_'
'waffle_'
'timeshare_'
'receiving_'
'lemon_'
'improvements_'
'ibis_'
'fourth_'
'ent_'
'eastern_'
'z_'
'worry_'
'resulted_'
'rectify_'
'os_'
'originally_'
'miles_'
'instance_'
'dead_'
'compliment_'
'awake_'
'appealing_'
'aggressive_'
'additionally_'
'user_'
'regards_'
'posted_'
'pint_'
'operate_'
'june_'
'extend_'
'diner_'
'thru_'
'reputation_'
'magnificent_'
'heading_'
'fees_'
'struggling_'
'regency_'
'lunches_'
'hire_'
'gotten_'
'god_'
'chip_'
'bills_'
'automatically_'
'quantity_'
'eg_'
'deals_'
'bagels_'
' ......_'
'steaks_'
'reviewer_'
'needing_'
'lastly_'
'ia_'
'crowne_'
'attitudes_'
'thursday_'
'perks_'
'inattentive_'
'chains_'
'balance_'
' ' , _'
'sending_'
'selected_'
'nibbles_'
'immediate_'
'excellence_'
'buffett_'
'23_'
'wardrobe_'
'supper_'
'raise_'
'pastry_'
'likewise_'
'keeps_'
'broke_'
'breakfastthe_'
'bowls_'
'suggesting_'
'stellar_'
'pie_'
'national_'
'accessible_'
'sub_'
'sounded_'
'shortage_'
'ons_'
'lunchtime_'
'linens_'
'lengthy_'
'instant_'
'hrs_'
'hosts_'
'guaranteed_'
'favor_'
'embarrassed_'
'current_'
'avoided_'
'unbelievably_'
'stage_'
'opens_'
'natural_'
'japan_'
'flow_'
'faster_'
'21_'
'.. _'
'tion_'
'nature_'
'elderly_'
'die_'
'bedside_'
'8th_'
'search_'
'realise_'
'jw_'
'décor_'
'april_'
' ? )_'
'warning_'
'sand_'
'reward_'
'mother_'
'maria_'
'expressed_'
'east_'
'transferred_'
'suited_'
'stock_'
'sloppy_'
'potato_'
'invited_'
'inquired_'
'bubbly_'
'acknowledgement_'
'suddenly_'
'rich_'
'related_'
'outgoing_'
'gel_'
'disappoint_'
'!_'
'soda_'
'largely_'
'denied_'
'decide_'
'created_'
'create_'
'compliments_'
'angry_'
'disturbed_'
'circumstances_'
'. , _'
' /_'
' . ) _'
'younger_'
'stress_'
'paint_'
'massages_'
'mains_'
'listed_'
'eco_'
'desire_'
'universally_'
'press_'
'paris_'
'official_'
'laugh_'
'ipad_'
'drain_'
'backwards_'
'alex_'
'west_'
'ting_'
'sites_'
'sir_'
'select_'
'rack_'
'maitre_'
'hoped_'
'harbour_'
'forth_'
'dressing_'
'crowds_'
'centrally_'
'000_'
'washing_'
'medium_'
'humour_'
'exhausted_'
'downright_'
'count_'
'signature_'
'sh_'
'replenishing_'
'liking_'
'lie_'
'greets_'
'august_'
'upbeat_'
'spring_'
'lay_'
'hat_'
'displayed_'
'daniel_'
'active_'
'ups_'
'towers_'
'san_'
'restocked_'
'notes_'
'motivated_'
'incompetent_'
'gal_'
'fed_'
'ar_'
'usa_'
'stone_'
'finger_'
'chase_'
'thermostat_'
'pickup_'
'mushrooms_'
'mandarin_'
'falls_'
'commended_'
'bite_'
'transfers_'
'task_'
'sunset_'
'mentioning_'
'conceirge_'
'associate_'
'99_'
'150_'
'yoghurt_'
'uninspiring_'
'thailand_'
'significant_'
'rose_'
'repaired_'
'refreshments_'
'interact_'
'hairdryer_'
'erratic_'
'electrical_'
'apples_'
'whoever_'
'unavailable_'
'tipped_'
'hh_'
'continually_'
'assumed_'
'anxious_'
' # _'
'specials_'
'spare_'
'ns_'
'manger_'
'joined_'
'est_'
'emergency_'
'detailed_'
'currently_'
'contemporary_'
'conrad_'
'pointing_'
'greatest_'
'ear_'
'commend_'
'cava_'
'caught_'
'carts_'
'carpets_'
'activity_'
'shoes_'
'ringing_'
'mass_'
'entitled_'
'weddings_'
'sunny_'
'ood_'
'manners_'
'affordable_'
'trust_'
'tech_'
'picking_'
'oriental_'
'benedict_'
'´_'
'tall_'
'slamming_'
'settle_'
'marked_'
'hesitate_'
'et_'
'complicated_'
'ally_'
'ra_'
'human_'
' ....... _'
'police_'
'october_'
'neat_'
'mouth_'
'james_'
'gravy_'
'demanding_'
'tomato_'
'tennis_'
'technician_'
'spirits_'
'readily_'
'priceline_'
'decoration_'
'comp_'
'burnt_'
'thomson_'
'temporary_'
'servicethe_'
'overcrowded_'
'nonetheless_'
'messy_'
'adjust_'
' ? ) ._'
'tended_'
'tag_'
'password_'
'ny_'
'lived_'
'fight_'
'caters_'
'separately_'
'roomand_'
'hip_'
'fans_'
'curtain_'
'coke_'
'chicago_'
'cappuccino_'
'argue_'
'preparing_'
'preference_'
'invoice_'
'cuts_'
'consistency_'
'alot_'
'vehicle_'
'utterly_'
'unfortunate_'
'row_'
'riu_'
'functions_'
'dismissive_'
'success_'
'refills_'
'itthe_'
'gem_'
'culture_'
'combination_'
'spray_'
'shrugged_'
'pretentious_'
'enormous_'
'dull_'
'advising_'
'systems_'
'patience_'
'november_'
'listening_'
'instantly_'
'inconvenient_'
'hop_'
'hidden_'
'frustration_'
'fixing_'
'9th_'
' ) . _'
'refreshed_'
'peaceful_'
'outdated_'
'fly_'
'engage_'
'accomodate_'
'september_'
'rear_'
'platter_'
'investment_'
'conditions_'
'carefully_'
'brands_'
'thanked_'
'states_'
'royalty_'
'prosecco_'
'ling_'
'historic_'
'exceptions_'
'device_'
'avail_'
'romantic_'
'ity_'
'ends_'
'don_'
'degree_'
'adding_'
' . ._'
' " - _'
'unnecessary_'
'substantial_'
'shangri_'
'responses_'
'passable_'
'nespresso_'
'description_'
'closer_'
'automated_'
' ? !_'
'vending_'
'undercooked_'
'throw_'
'shade_'
'favour_'
'easier_'
'discover_'
'blankets_'
'unusually_'
'untrained_'
'ultra_'
'sweets_'
'perfunctory_'
'lively_'
'cutting_'
'condescending_'
'canapés_'
'blocks_'
'turkey_'
'thrown_'
'route_'
'purchased_'
'presumably_'
'overheard_'
'iced_'
'firm_'
'engineering_'
'cooler_'
'compensated_'
'checks_'
'witnessed_'
'twenty_'
'tipping_'
'squeezed_'
'spots_'
'nuts_'
'mary_'
'fussy_'
'enquired_'
'electronic_'
'drawer_'
'discuss_'
'conferences_'
'steep_'
'stained_'
'proof_'
'polish_'
'mannered_'
'magic_'
'cuba_'
'blanket_'
'10th_'
'shoulders_'
'sharp_'
'satisfy_'
'pour_'
'movie_'
'minus_'
'manning_'
'irritated_'
'hash_'
'hardworking_'
'embarrassing_'
'dance_'
'collection_'
'cap_'
'automatic_'
'ant_'
' " ( _'
'yelling_'
'vegas_'
'tuesday_'
'sum_'
'gourmet_'
'famous_'
'satisfying_'
'noticeable_'
'library_'
'hesitation_'
'former_'
'cross_'
'chill_'
'brusque_'
'wednesday_'
'silly_'
'rough_'
'reaction_'
'pressed_'
'graciously_'
'figured_'
'tvs_'
'statement_'
'sides_'
'seven_'
'setup_'
'port_'
'heck_'
'grilled_'
'energetic_'
'canapes_'
'warmer_'
'tremendous_'
'summary_'
'sing_'
'manchester_'
'honored_'
'cooling_'
'conveniently_'
'collected_'
'tells_'
'sounds_'
'skip_'
'queried_'
'grade_'
'fashion_'
'esp_'
'dropping_'
'demanded_'
'andwe_'
'– _'
'responsibility_'
'requires_'
'recall_'
'raw_'
'q_'
'likes_'
'individuals_'
'fat_'
'discounted_'
'committed_'
'australia_'
' . - _'
'wherever_'
'remembering_'
'pots_'
'page_'
'impress_'
'flies_'
'duvet_'
'andstaff_'
'threw_'
'stops_'
'snow_'
'resident_'
'replacing_'
'laughing_'
'hundreds_'
'scottish_'
'reviewed_'
'reluctant_'
'outlet_'
'organising_'
'noises_'
'neighbors_'
'george_'
'choosing_'
'bare_'
'absent_'
'tokyo_'
'shelf_'
'scheduled_'
'robotic_'
'reality_'
'occasionally_'
'jet_'
'bathtub_'
'aff_'
'track_'
'sincerely_'
'ridiculously_'
'reset_'
'informing_'
'immaculately_'
'functioning_'
'exact_'
'duties_'
'celebrate_'
'bbq_'
'afraid_'
'utmost_'
'temp_'
'slowly_'
'quoted_'
'passengers_'
'definately_'
'butlers_'
'bizarre_'
'assortment_'
'wooden_'
'steakhouse_'
'smallest_'
'lying_'
'effectively_'
'dust_'
'distracted_'
'dial_'
'competition_'
'communal_'
'blown_'
'yesterday_'
'signage_'
'rule_'
'poured_'
'packages_'
'outs_'
'michelin_'
'heads_'
'guards_'
'easter_'
'destination_'
'cute_'
'concert_'
'comped_'
'test_'
'shabby_'
'remodeled_'
'rail_'
'privilege_'
'practically_'
'overwhelming_'
'metro_'
'hopeless_'
'dates_'
'contrary_'
'bargain_'
'400_'
'worried_'
'therapist_'
'tapas_'
'stains_'
'retrieve_'
'renaissance_'
'lose_'
'lesson_'
'introduced_'
'explore_'
'expense_'
'dietary_'
'creative_'
'cigarette_'
';_'
'sliced_'
'sharing_'
'quietly_'
'personalised_'
'marriotts_'
'loose_'
'locally_'
'hole_'
'grey_'
'effect_'
'draw_'
'ation_'
'adequately_'
'; _'
'!. _'
'willingness_'
'unreliable_'
'underwhelming_'
'superbly_'
'sockets_'
'sed_'
'refurb_'
'performance_'
'languages_'
'kimpton_'
'insist_'
'edge_'
'delivers_'
'captain_'
'wasted_'
'village_'
'surprises_'
'snooty_'
'popcorn_'
'hill_'
'countries_'
'thick_'
'lives_'
'ley_'
'internal_'
'insufficient_'
'informal_'
'hk_'
'haphazard_'
'ful_'
'falling_'
'associates_'
'... _'
'units_'
'technical_'
'strawberries_'
'operated_'
'matched_'
'marble_'
'length_'
'fitted_'
'extreme_'
'electricity_'
'ding_'
'consideration_'
'causing_'
'students_'
'struck_'
'soggy_'
'shambles_'
'repetitive_'
'operating_'
'mad_'
'jug_'
'hiltons_'
'exquisite_'
'excuses_'
'dispenser_'
'coped_'
'behaved_'
'associated_'
'allergies_'
'absence_'
'tomorrow_'
'tho_'
'tepid_'
'staythe_'
'scene_'
'robe_'
'picky_'
'organise_'
'operations_'
'goodbut_'
'exciting_'
'examples_'
'disturbing_'
'arrives_'
'anticipate_'
'uniform_'
'promises_'
'plumbing_'
'piping_'
'homemade_'
'extent_'
'downhill_'
'bellboys_'
'behavior_'
'ana_'
'varieties_'
'um_'
'ultimately_'
'tomatoes_'
'registered_'
'reflect_'
'quirky_'
'que_'
'procedures_'
'messed_'
'flush_'
'errors_'
'efficent_'
'duck_'
'cancellation_'
'brings_'
'alert_'
' . , _'
'sumptuous_'
'score_'
'resulting_'
'regis_'
'puts_'
'kinds_'
'false_'
'exterior_'
'excellant_'
'atrocious_'
'advertise_'
'admitted_'
'trolley_'
'shock_'
'sandals_'
'periods_'
'penny_'
'moreover_'
'lotion_'
'les_'
'inquire_'
'buses_'
'allows_'
'visitor_'
'utensils_'
'undergoing_'
'tonic_'
'teams_'
'strongly_'
'straightforward_'
'rushing_'
'recognise_'
'professionals_'
'papers_'
'observed_'
'guided_'
'failure_'
'extension_'
'cheerfully_'
'bear_'
'attract_'
'approx_'
'accordingly_'
'sparse_'
'shirts_'
'responding_'
'pouring_'
'physical_'
'insult_'
'hr_'
'ff_'
'elegance_'
'diet_'
'camp_'
'belongings_'
'authentic_'
'arrivals_'
'arguing_'
'text_'
'remaining_'
'opposed_'
'narrow_'
'med_'
'ferry_'
'couch_'
'wishes_'
'ot_'
'napkins_'
'kit_'
'feather_'
'browns_'
'barrier_'
'asleep_'
'alternatives_'
'accomodation_'
'wee_'
'thomas_'
'shine_'
'rid_'
'relaxation_'
'random_'
'profile_'
'messages_'
'medical_'
'marriot_'
'lobster_'
'laura_'
'latter_'
'friendlythe_'
'fairfield_'
'exist_'
'currency_'
'array_'
'anybody_'
'quicker_'
'paul_'
'homely_'
'hgi_'
'hearing_'
'furthermore_'
'february_'
'conservatory_'
'chilly_'
'cheapest_'
'+ _'
') _'
' : " _'
'watery_'
'tastefully_'
'southern_'
'shoe_'
'rudeness_'
'pushing_'
'lied_'
'heavily_'
'dozen_'
'doctor_'
'confirming_'
'celebrating_'
'argument_'
'anticipated_'
'ale_'
'tube_'
'stretched_'
'relation_'
'pop_'
'mercure_'
'law_'
'greatthe_'
'combined_'
'balconies_'
'argued_'
'anytime_'
'addressing_'
'28_'
'& _'
'watered_'
'taxes_'
'slip_'
'shall_'
'routine_'
'refresh_'
'redeeming_'
'positively_'
'listened_'
'ess_'
'da_'
'cooks_'
' !, _'
'referred_'
'hats_'
'frontdesk_'
'flavour_'
'fake_'
'dire_'
'ch_'
'celebration_'
'boston_'
'bathrobes_'
'appreciative_'
'xmas_'
'upside_'
'traveled_'
'tons_'
'staffer_'
'register_'
'pan_'
'land_'
'lamps_'
'honeymoon_'
'century_'
'washed_'
'uses_'
'unattended_'
'thumbs_'
'swipe_'
'splendid_'
'sorts_'
'las_'
'ka_'
'departed_'
'crown_'
'crockery_'
'aged_'
'$_'
' [ _'
'toothbrush_'
'suits_'
'spire_'
'smokers_'
'sights_'
'query_'
'painful_'
'oil_'
'mattresses_'
'interrupted_'
'highlights_'
'ha_'
'evidence_'
'airlines_'
'ai_'
' " . _'
'ya_'
'uniforms_'
'themed_'
'storing_'
'respects_'
'receptions_'
'prime_'
'pampered_'
'ownership_'
'ignoring_'
'extraordinarily_'
'excessive_'
'endless_'
'challenging_'
'appetizer_'
'andwhen_'
'tops_'
'stiff_'
'pepper_'
'passports_'
'parks_'
'ongoing_'
'naturally_'
'inthe_'
'ian_'
'gain_'
'forgetting_'
'charger_'
'castle_'
'cabs_'
'blu_'
'billed_'
'adds_'
'sticky_'
'smells_'
'merely_'
'max_'
'ls_'
'lessons_'
'gardeners_'
'essentially_'
'contained_'
'congratulations_'
'bugs_'
'blank_'
'bearing_'
'bananas_'
'awhile_'
'anna_'
' — _'
'wondering_'
'unsure_'
'uneven_'
'tier_'
'sometime_'
'slices_'
'reflected_'
'issued_'
'intimate_'
'expects_'
'ded_'
'26_'
'250_'
'weight_'
'ver_'
'strength_'
'spirit_'
'singing_'
'sachets_'
'roomy_'
'rings_'
'reports_'
'peace_'
'hospital_'
'difficulties_'
'cabin_'
'branded_'
'2012_'
'waldorf_'
'supermarket_'
'split_'
'salty_'
'sale_'
'pancake_'
'overcharged_'
'ideas_'
'hugely_'
'hops_'
'hectic_'
'goodness_'
'faulty_'
'facial_'
'disco_'
'covers_'
'comparable_'
'ck_'
'chic_'
'chatted_'
'bordering_'
'27_'
'weights_'
'walks_'
'vegetarians_'
'suffered_'
'slide_'
'reluctantly_'
'pace_'
'occurred_'
'kick_'
'hangers_'
'filthy_'
'comfortably_'
'college_'
'annoyance_'
'toward_'
'title_'
'timing_'
'shortcomings_'
'proximity_'
'passion_'
'outrageous_'
'inexpensive_'
'ine_'
'guides_'
'geared_'
'funky_'
'escape_'
'enhanced_'
'caliber_'
'bikes_'
'scratch_'
'scale_'
'obtain_'
'neglected_'
'nce_'
'memory_'
'gratuity_'
'excursions_'
'deserved_'
'depressing_'
'cot_'
'breaks_'
'becomes_'
'amex_'
' ! ! ! ! !_'
'significantly_'
'marvellous_'
'hie_'
'finishing_'
'effortless_'
'considerable_'
'clothing_'
'bellhops_'
'ay_'
'award_'
'australian_'
'ants_'
'afford_'
' :)_'
'programme_'
'pricy_'
'obnoxious_'
'establishments_'
'dive_'
'dear_'
'blamed_'
'appointment_'
'wings_'
'wheelchair_'
'tinned_'
'spoon_'
'perk_'
'manageress_'
'grabbed_'
'documents_'
'departing_'
'communicated_'
'commitment_'
'command_'
'architecture_'
'`_'
'29_'
'survey_'
'stopping_'
'sarah_'
'neighbours_'
'moments_'
'meridien_'
'jose_'
'ive_'
'gas_'
'duration_'
'driven_'
'daytime_'
'custom_'
'counters_'
'bali_'
'backed_'
'appropriately_'
' , , _'
'wind_'
'waters_'
'garbage_'
'dealings_'
'controls_'
'containers_'
'buggy_'
'55_'
'2013_'
'"_'
'soul_'
'remedy_'
'niggles_'
'guidance_'
'file_'
'fifth_'
'doubles_'
'decaf_'
'bothering_'
'boss_'
'11th_'
'vs_'
'version_'
'upto_'
'supervision_'
'subsequently_'
'soulless_'
'singer_'
'si_'
'raining_'
'marina_'
'makeover_'
'horrendous_'
'distant_'
'sydney_'
'subsequent_'
'solicitous_'
'sofas_'
'seek_'
'practical_'
'organization_'
'omni_'
'officer_'
'oberoi_'
'metal_'
'initiative_'
'id_'
'everytime_'
'diligent_'
'delhi_'
'crab_'
'chief_'
'applied_'
' @ _'
'trees_'
'touched_'
'spoil_'
'spain_'
'slower_'
'roomi_'
'relief_'
'profusely_'
'overbooked_'
'mike_'
'lly_'
'laughed_'
'invest_'
'fter_'
'dim_'
'zed_'
'tonight_'
'subject_'
'ripped_'
'pluses_'
'player_'
'ping_'
'pc_'
'lanka_'
'ireland_'
'fulfilled_'
'directing_'
'damage_'
'canal_'
'bin_'
'ans_'
'america_'
'1000_'
'welcomes_'
'unlimited_'
'stingy_'
'oddly_'
'master_'
'hint_'
'eur_'
'duly_'
'dangerous_'
'connectivity_'
'adjusted_'
'21st_'
'unwilling_'
'unaware_'
'staircase_'
'ss_'
'spicy_'
'russian_'
'rent_'
'radio_'
'perspective_'
'nuisance_'
'ned_'
'lax_'
'itand_'
'continuously_'
'carlos_'
'ballroom_'
'arm_'
'andrew_'
'accident_'
')._'
'truth_'
'surrounded_'
'successful_'
'role_'
'risk_'
'politeness_'
'improving_'
'impeccably_'
'frosty_'
'elements_'
'deco_'
'caribbean_'
'books_'
'banana_'
'background_'
'ying_'
'vary_'
'sample_'
'sa_'
'results_'
'policies_'
'michelle_'
'hosting_'
'drank_'
'dj_'
'definite_'
'cupboard_'
'crackers_'
'costa_'
'competitive_'
'claims_'
'candy_'
'boot_'
'basin_'
'vietnam_'
'pure_'
'pen_'
'partial_'
'pair_'
'maintaining_'
'italy_'
'honesty_'
'goods_'
'france_'
'focussed_'
'finest_'
'discussed_'
'credited_'
'cloth_'
'bucks_'
'bridge_'
'blonde_'
'abysmal_'
'whereas_'
'trainees_'
'trade_'
'strict_'
'stopover_'
'standout_'
'solo_'
'sizes_'
'reduce_'
'palm_'
'necessarily_'
'movies_'
'loaded_'
'lingual_'
'lap_'
'justify_'
'hors_'
'fittings_'
'dip_'
'desperate_'
'til_'
'teenagers_'
'strangely_'
'session_'
'rave_'
'orientated_'
'liquor_'
'knife_'
'infinity_'
'gala_'
'fails_'
'essential_'
'dy_'
'disgrace_'
'damp_'
'coat_'
'bent_'
'ys_'
'vey_'
'slice_'
'reaching_'
'pays_'
'orlando_'
'notably_'
'lackluster_'
'intermittent_'
'incidentals_'
'hygiene_'
'enquiries_'
'discrete_'
'cities_'
'altogether_'
'agency_'
'2014_'
'weary_'
'wave_'
'villas_'
'restricted_'
'oversight_'
'oven_'
'handing_'
'confidence_'
'cinnamon_'
'challenged_'
'bike_'
'ala_'
' ( £ _'
'wishing_'
'wired_'
'underground_'
'sullen_'
'spoons_'
'signing_'
'rum_'
'requiring_'
'reflection_'
'ps_'
'prove_'
'measure_'
'marketing_'
'jacket_'
'jack_'
'humble_'
'golden_'
'freshen_'
'fluffy_'
'feed_'
'concerning_'
'cloths_'
'americans_'
'vegetable_'
'ugly_'
'theatre_'
'slot_'
'sleeper_'
'remodel_'
'remedied_'
'notable_'
'motions_'
'midday_'
'manages_'
'mails_'
'locker_'
'leadership_'
'intended_'
'ingly_'
'fortunate_'
'flower_'
'enjoyment_'
'ds_'
'colonial_'
'caesar_'
'bend_'
'12th_'
' :-)_'
' .'
'whisked_'
'veggie_'
'uber_'
'tel_'
'storm_'
'soaps_'
'slowest_'
'slipped_'
'peter_'
'limit_'
'kiosk_'
'hurt_'
'glitch_'
'ell_'
'deserts_'
'deli_'
'croissant_'
'controlled_'
'buttons_'
'attempting_'
'asap_'
'2015_'
' , $ _'
'won_'
'win_'
'subway_'
'requirement_'
'mrs_'
'martini_'
'loss_'
'leads_'
'jessica_'
'invariably_'
'forms_'
'folk_'
'envelope_'
'carpark_'
'build_'
'bitter_'
'becoming_'
'animals_'
'wandering_'
'vietnamese_'
'therapists_'
'structure_'
'sterile_'
'soundproofing_'
'sliding_'
'rollaway_'
'refuse_'
'processes_'
'preparation_'
'pitch_'
'performed_'
'onion_'
'misleading_'
'learning_'
'image_'
'hearty_'
'harder_'
'gentle_'
'ending_'
'decorations_'
'buying_'
'warn_'
'understandable_'
'therethe_'
'shot_'
'reporting_'
'pulling_'
'mugs_'
'luggages_'
'force_'
'eight_'
'crisp_'
'content_'
'bathrobe_'
'aid_'
'waking_'
'tiles_'
'temperatures_'
'squeeze_'
'silverware_'
'shrug_'
'limo_'
'lavish_'
'landscaping_'
'insisting_'
'flag_'
'faults_'
'exclusive_'
'emptied_'
'earplugs_'
'discussing_'
'decline_'
'coupled_'
'commendable_'
'birds_'
'ated_'
'apologizing_'
'abundant_'
'touring_'
'tasteful_'
'strike_'
'stressful_'
'skipped_'
'secret_'
'screens_'
'replies_'
'repairs_'
'renovating_'
'regret_'
'reflects_'
'receptive_'
'powdered_'
'pizzas_'
'pets_'
'patiently_'
'ma_'
'latte_'
'lankan_'
'ignorant_'
'highway_'
'draft_'
'daughters_'
'calibre_'
'apply_'
'affected_'
' , ' _'
' !( _'
'warmed_'
'turkish_'
'treadmills_'
'substandard_'
'sam_'
'rely_'
'refilling_'
'pineapple_'
'obtrusive_'
'link_'
'lemonade_'
'indifference_'
'holder_'
'flustered_'
'ex_'
'demeanor_'
'conditioned_'
'cast_'
'borrow_'
'beijing_'
'asks_'
'waived_'
'valuable_'
'shorts_'
'secured_'
'prevent_'
'pad_'
'ors_'
'ome_'
'net_'
'marco_'
'manor_'
'lad_'
'ist_'
'indication_'
'helpfully_'
'haul_'
'flowing_'
'encourage_'
'dream_'
'diverse_'
'ceilings_'
'btw_'
' ] _'
' ) !_'
'venice_'
'transit_'
'smartly_'
'ratings_'
'peninsula_'
'jason_'
'introduction_'
'hosted_'
'height_'
'gladly_'
'frills_'
'critical_'
'blow_'
'beauty_'
'appeal_'
'apartments_'
' .– _'
'updates_'
'underneath_'
'tasks_'
'talented_'
'removing_'
'remembers_'
'plush_'
'pantry_'
'leg_'
'kevin_'
'jump_'
'ir_'
'installed_'
'ings_'
'handicapped_'
'gifts_'
'executed_'
'digital_'
'communicating_'
'attendees_'
'accent_'
'600_'
'video_'
'turnover_'
'trains_'
'strip_'
'socket_'
'series_'
'reps_'
'proficient_'
'mountain_'
'modest_'
'mobility_'
'mixture_'
'kitchenette_'
'individually_'
'hamptons_'
'elaborate_'
'drawers_'
'dishwasher_'
'dc_'
'crap_'
'breath_'
' ........_'
' . ) ._'
'tent_'
'tab_'
'specialty_'
'robert_'
'remarkably_'
'rainy_'
'provider_'
'occasional_'
'mold_'
'hunt_'
'hell_'
'goodand_'
'fork_'
'foam_'
'discounts_'
'condiments_'
'catching_'
'blew_'
'beforehand_'
'beefeater_'
'amsterdam_'
'allergy_'
'acknowledging_'
' ; - _'
'wrapped_'
'washer_'
'solving_'
'showering_'
'sheer_'
'recovery_'
'placing_'
'patrick_'
'packet_'
'mineral_'
'mexico_'
'lifeguards_'
'itc_'
'il_'
'government_'
'entertained_'
'designated_'
'cans_'
'blowing_'
'bang_'
'bakery_'
'ashamed_'
'arms_'
'appetising_'
'andthey_'
'adjustment_'
' .’_'
'tony_'
'studio_'
'sole_'
'sensitive_'
'rachel_'
'overlook_'
'okthe_'
'notify_'
'melia_'
'marred_'
'lowest_'
'latest_'
'ks_'
'keycard_'
'invisible_'
'exceed_'
'era_'
'england_'
'covering_'
'courteously_'
'cardio_'
'buzzing_'
'bumped_'
'bites_'
'apologising_'
'--_'
'ze_'
'terminals_'
'tends_'
'technology_'
'restaraunt_'
'resolving_'
'obliged_'
'nick_'
'model_'
'husbands_'
'humor_'
'formalities_'
'escort_'
'ee_'
'creating_'
'contacting_'
'connections_'
'ben_'
'bands_'
'amusing_'
'65_'
'45pm_'
'15th_'
' : -_'
' .; _'
' ' - _'
'wondered_'
'unlucky_'
'skilled_'
'situations_'
'shuttles_'
'reduction_'
'pressing_'
'marvelous_'
'jazz_'
'j_'
'iphone_'
'hubby_'
'frank_'
'fayre_'
'confident_'
'bw_'
'ance_'
'amiable_'
'africa_'
'50'
' • _'
' :) _'
'wallet_'
'venues_'
'ter_'
'teh_'
'stolen_'
'mgr_'
'meanwhile_'
'makers_'
'liquid_'
'joe_'
'injury_'
'harried_'
'eric_'
'domestic_'
'dirt_'
'depends_'
'crispy_'
'blah_'
'yard_'
'wasthe_'
'unwelcome_'
'undrinkable_'
'theirs_'
'tenders_'
'subpar_'
'staf_'
'roomwe_'
'receptionand_'
'mat_'
'inner_'
'ini_'
'impact_'
'ginger_'
'factory_'
'dublin_'
'di_'
'desperately_'
'coconut_'
'cashier_'
'blinds_'
'ary_'
'ard_'
'worldwide_'
'vodka_'
'teeth_'
'staffi_'
'smelt_'
'shake_'
'pile_'
'partly_'
'impolite_'
'hide_'
'fizz_'
'external_'
'dissapointed_'
'cottage_'
'canned_'
'bulb_'
'brush_'
'behalf_'
'anticipating_'
'andcheck_'
'advertising_'
'ventilation_'
'uninviting_'
'uncaring_'
'tom_'
'tissues_'
'tedious_'
'supplement_'
'source_'
'scheme_'
'recieved_'
'rapidly_'
'ped_'
'lso_'
'lagoon_'
'ky_'
'jan_'
'instructed_'
'impatient_'
'greek_'
'goodbye_'
'flew_'
'exploring_'
'companies_'
'cat_'
'canada_'
'buti_'
'ba_'
'aimed_'
'achieve_'
'32_'
' = _'
'ythe_'
'unremarkable_'
'unanswered_'
'toothpaste_'
'suffer_'
'spotted_'
'smallish_'
'semi_'
'seeking_'
'roomsthe_'
'rolled_'
'radiator_'
'privileges_'
'primarily_'
'partially_'
'orientation_'
'museum_'
'mint_'
'losing_'
'loo_'
'gap_'
'dutch_'
'demonstrated_'
'converted_'
'borderline_'
'14th_'
' … ._'
'victoria_'
'thereafter_'
'switching_'
'springs_'
'remodeling_'
'ranging_'
'oj_'
'officious_'
'odor_'
'nearest_'
'memories_'
'maximum_'
'inspiring_'
'giant_'
'fixtures_'
'environmentally_'
'entrees_'
'encounters_'
'effecient_'
'camera_'
'ushered_'
'unpacked_'
'tubs_'
'transaction_'
'supported_'
'speakers_'
'redone_'
'promotion_'
'prague_'
'ning_'
'nickel_'
'mushroom_'
'mumbai_'
'muffin_'
'marginal_'
'liverpool_'
'lifetime_'
'increase_'
'humid_'
'granola_'
'generic_'
'failing_'
'enquiry_'
'element_'
'distinct_'
'coast_'
'bug_'
'approximately_'
'appreciation_'
'acting_'
'18th_'
'10'
' ......._'
'yellow_'
'tropical_'
'thrilled_'
'thirty_'
'takeaway_'
'surface_'
'stepping_'
'safari_'
'ruin_'
'rubber_'
'rise_'
'replenishment_'
'popped_'
'nicebut_'
'ni_'
'multilingual_'
'lisa_'
'homewood_'
'heathrow_'
'fifteen_'
'disappear_'
'dancing_'
'confronted_'
'classes_'
'aim_'
'adapter_'
'aaa_'
'upmarket_'
'upfront_'
'rvice_'
'rudest_'
'ri_'
'restocking_'
'rd_'
'race_'
'portable_'
'overseas_'
'om_'
'nightthe_'
'niceand_'
'mo_'
'mechanical_'
'marie_'
'kinda_'
'ions_'
'infrastructure_'
'increased_'
'inconsiderate_'
'hotwire_'
'hoteland_'
'honey_'
'hiccups_'
'heaven_'
'hamburger_'
'foodthe_'
'fillet_'
'chambermaids_'
'challenges_'
'20th_'
'usthe_'
'upkeep_'
'understands_'
'tuna_'
'trick_'
'tissue_'
'ther_'
'shanghai_'
'seeming_'
'scotland_'
'rubbery_'
'promising_'
'pleasurable_'
'pink_'
'packets_'
'overcome_'
'ously_'
'offhand_'
'network_'
'neighbor_'
'kidding_'
'investigate_'
'goodstaff_'
'fo_'
'flexibility_'
'encouraged_'
'determined_'
'corners_'
'communications_'
'collecting_'
'canadian_'
'blind_'
'bet_'
'berlin_'
'audience_'
'alas_'
'visa_'
'surcharge_'
'sophisticated_'
'slam_'
'shaving_'
'settings_'
'progress_'
'outstandingly_'
'noodles_'
'mystery_'
'meets_'
'insulting_'
'demands_'
'contract_'
'container_'
'carlson_'
'blocking_'
'bagel_'
'attentative_'
'anda_'
'allocate_'
'2017_'
'2016_'
'15'
'warming_'
'thinks_'
'teach_'
'speciality_'
'smelling_'
'shining_'
'severely_'
'richard_'
'prawn_'
'muesli_'
'lone_'
'landed_'
'inch_'
'hundred_'
'greated_'
'girlfriend_'
'drawback_'
'drag_'
'cuban_'
'convince_'
'conclusion_'
'andservice_'
'amy_'
'allthe_'
'800_'
' ... ) ._'
'£ _'
'yogurts_'
'valley_'
'utter_'
'urgent_'
'unresponsive_'
'tes_'
'runny_'
'reference_'
'rapid_'
'queens_'
'packing_'
'orleans_'
'offensive_'
'melon_'
'melbourne_'
'martin_'
'imaginative_'
'ft_'
'flavor_'
'featured_'
'exorbitant_'
'drury_'
'crystal_'
'crisps_'
'crews_'
'canyon_'
'bins_'
'amounts_'
' , '
'unreasonable_'
'uninspired_'
'trek_'
'tourism_'
'topping_'
'toasted_'
'tiki_'
'serviceand_'
'reserving_'
'reassuring_'
'obsequious_'
'oblige_'
'nonsense_'
'neck_'
'nap_'
'lo_'
'leather_'
'indicate_'
'importance_'
'icing_'
'highlighted_'
'greeter_'
'extortionate_'
'earned_'
'drunken_'
'dismal_'
'coffe_'
'captive_'
'biscuit_'
'attendance_'
'anthony_'
'ves_'
'unmanned_'
'tlc_'
'switches_'
'stuffed_'
'sporadic_'
'slippery_'
'slammed_'
'sensational_'
'seasoned_'
'rowdy_'
'router_'
'ranged_'
'pants_'
'lol_'
'lined_'
'insulation_'
'helpfuland_'
'harassed_'
'groomed_'
'goodi_'
'fry_'
'ery_'
'enquire_'
'curteous_'
'crib_'
'consequently_'
'concrete_'
'burned_'
'bloody_'
'bird_'
'affect_'
'120_'
'understated_'
'swiss_'
'sunbed_'
'slides_'
'refreshment_'
'profit_'
'possibility_'
'overhaul_'
'noting_'
'nervous_'
'miami_'
'mash_'
'lasted_'
'inappropriate_'
'imagination_'
'harbor_'
'gear_'
'gary_'
'fires_'
'fighting_'
'field_'
'extremly_'
'evidently_'
'dthe_'
'didn_'
'convinced_'
'colour_'
'brian_'
'blast_'
'battery_'
'appointments_'
'allocation_'
'alerted_'
'accompany_'
' , ._'
'zoo_'
'yoghurts_'
'vacant_'
'taps_'
'stomach_'
'severe_'
'punch_'
'prawns_'
'posh_'
'overrun_'
'opener_'
'oblivious_'
'navigate_'
'matt_'
'lacklustre_'
'intent_'
'inability_'
'hired_'
'freezer_'
'fingers_'
'debit_'
'california_'
'bun_'
'bulbs_'
'awaiting_'
'abundance_'
'2011_'
'19th_'
' ! ! _'
'unusable_'
'unorganized_'
'thankful_'
'ses_'
'salsa_'
'salon_'
'relevant_'
'quarters_'
'pocket_'
'ould_'
'opt_'
'mailed_'
'lettuce_'
'leaking_'
'jumped_'
'judge_'
'industrial_'
'indicating_'
'hvac_'
'hurried_'
'grandeur_'
'gathering_'
'garlic_'
'equal_'
'edges_'
'disconnected_'
'considerably_'
'brother_'
'authority_'
'angel_'
'alarms_'
'acts_'
'actions_'
'accompanying_'
'warmest_'
'unimpressed_'
'straw_'
'stories_'
'spice_'
'snobby_'
'smoothies_'
'seldom_'
'roomservice_'
'roombut_'
'ratio_'
'proactively_'
'powerful_'
'occur_'
'oasis_'
'neighborhood_'
'makeup_'
'luis_'
'lodging_'
'laying_'
'keeper_'
'karen_'
'imperial_'
'holes_'
'glasgow_'
'eateries_'
'divine_'
'cord_'
'compact_'
'click_'
'christina_'
'chore_'
'batteries_'
'amenable_'
'amanda_'
'admittedly_'
'abruptly_'
'48_'
'30'
' ’ ._'
' ) ..._'
'za_'
'wipe_'
'wandered_'
'varies_'
'unsatisfactory_'
'searching_'
'screwed_'
'reminder_'
'relocated_'
'refer_'
'problematic_'
'pisco_'
'phoning_'
'onwards_'
'oeuvres_'
'nine_'
'mum_'
'mode_'
'leela_'
'lame_'
'inconvenienced_'
'inches_'
'hiring_'
'hiccup_'
'greater_'
'generously_'
'fortune_'
'fax_'
'dump_'
'displeasure_'
'danish_'
'congenial_'
'climb_'
'careless_'
'alternate_'
'african_'
'accustomed_'
'ably_'
'.(_'
' . '_'
'zone_'
'whirlpool_'
'wheel_'
'vegan_'
'tin_'
'tie_'
'tic_'
'steve_'
'soups_'
'remainder_'
'relative_'
'queued_'
'quaint_'
'pin_'
'packs_'
'owever_'
'oom_'
'lodges_'
'jams_'
'jammed_'
'ina_'
'ier_'
'handles_'
'getaway_'
'germany_'
'fawlty_'
'dozens_'
'conscious_'
'barking_'
'assure_'
'ashley_'
'anyhow_'
'accidentally_'
'36_'
'16th_'
'zing_'
'valuables_'
'users_'
'unimpressive_'
'uneventful_'
'unappetising_'
'tly_'
'ti_'
'tayed_'
'stream_'
'springhill_'
'sport_'
'smelly_'
'screw_'
'questionable_'
'quarter_'
'proofing_'
'panel_'
'ow_'
'nose_'
'lime_'
'jumping_'
'ible_'
'ho_'
'goodwe_'
'gbp_'
'forks_'
'flip_'
'employ_'
'emma_'
'document_'
'dingy_'
'delta_'
'comparing_'
'coats_'
'chamber_'
'cellar_'
'brochure_'
'bly_'
'belief_'
'barcelona_'
'andall_'
'airconditioning_'
'accomodations_'
'+_'
' ( ? ) _'
'ving_'
'unload_'
'underwhelmed_'
'travelodge_'
'tions_'
'throwing_'
'stable_'
'seperate_'
'rugby_'
'pp_'
'personel_'
'painted_'
'pa_'
'ou_'
'mom_'
'million_'
'microwaved_'
'loving_'
'ked_'
'ious_'
'identify_'
'hotter_'
'handful_'
'goodies_'
'francisco_'
'fatty_'
'expansive_'
'ely_'
'downsides_'
'deserted_'
'counts_'
'complains_'
'cabana_'
'bs_'
'boiler_'
'awoken_'
'approaching_'
'23rd_'
' - " _'
'yoga_'
'vote_'
'unpack_'
'troubles_'
'ties_'
'thereand_'
'speeds_'
'sought_'
'shouted_'
'safely_'
'revenue_'
'restored_'
'research_'
'refined_'
'outlook_'
'lifeguard_'
'kicked_'
'katie_'
'juan_'
'jolly_'
'hoteli_'
'honour_'
'harsh_'
'handicap_'
'glitches_'
'foremost_'
'father_'
'expert_'
'coverage_'
'comforting_'
'boiling_'
'boards_'
'applies_'
'antonio_'
'veggies_'
'va_'
'ue_'
'thisthe_'
'socks_'
'skin_'
'singles_'
'shoddy_'
'retired_'
'remark_'
'poster_'
'native_'
'morning'
'lager_'
'inquiries_'
'hostesses_'
'fulfill_'
'feelings_'
'fallen_'
'entree_'
'dour_'
'deteriorated_'
'cracked_'
'bench_'
'bbc_'
'aman_'
'allowance_'
'ah_'
'' _'
' . . ._'
' , “ _'
'venture_'
'usage_'
'tremendously_'
'sinks_'
'ryan_'
'ruth_'
'repeating_'
'pullman_'
'operators_'
'nowadays_'
'musty_'
'misses_'
'meticulous_'
'mandatory_'
'magical_'
'jennifer_'
'interiors_'
'infact_'
'houses_'
'gent_'
'fountain_'
'draught_'
'dislike_'
'dime_'
'differently_'
'data_'
'crack_'
'costly_'
'consumed_'
'chewy_'
'bungalow_'
'beg_'
'balls_'
'auto_'
'appearing_'
'animal_'
'6'
'3'
' ) & _'
'worthwhile_'
'verify_'
'tim_'
'talkative_'
'sudden_'
'stranded_'
'stark_'
'staffand_'
'spelling_'
'soaked_'
'rolling_'
'processing_'
'predictable_'
'obtained_'
'nightcap_'
'myanmar_'
'mature_'
'mario_'
'largest_'
'honours_'
'floating_'
'chased_'
'battle_'
'andit_'
'25th_'
' ? ? ? ?_'
' .+ _'
' , - _'
'wyndham_'
'woefully_'
'truck_'
'treating_'
'syrup_'
'swamped_'
'skill_'
'shrimp_'
'scarce_'
'rides_'
'resolution_'
'res_'
'reminders_'
'reception'
'positioned_'
'pods_'
'physically_'
'nz_'
'noodle_'
'meantime_'
'joking_'
'incorrectly_'
'inand_'
'horribly_'
'hike_'
'grown_'
'gloomy_'
'fs_'
'foul_'
'fetch_'
'execution_'
'ette_'
'eater_'
'dvd_'
'diving_'
'dan_'
'containing_'
'claiming_'
'chambermaid_'
'cabins_'
'believed_'
'appetizing_'
' .-- _'
'unfair_'
'treadmill_'
'telephoned_'
'tariff_'
'sunshine_'
'strawberry_'
'sticks_'
'steal_'
'speaker_'
'sells_'
'scrum_'
'ro_'
'puzzled_'
'purposes_'
'purely_'
'punctual_'
'paradise_'
'overdone_'
'nite_'
'lies_'
'legs_'
'iti_'
'independent_'
'hostel_'
'heaters_'
'franchise_'
'feeding_'
'drying_'
'download_'
'designer_'
'creamer_'
'contents_'
'confortable_'
'breaking_'
'awards_'
'attraction_'
'assuming_'
'aqua_'
'andrea_'
'ali_'
'7'
'wander_'
'vacuum_'
'tart_'
'stretch_'
'staffers_'
'speedily_'
'restful_'
'responsiveness_'
'planet_'
'petty_'
'partake_'
'immensely_'
'hostile_'
'hook_'
'henry_'
'florida_'
'flaws_'
'feb_'
'excelled_'
'dripping_'
'directory_'
'deducted_'
'damaged_'
'courtyards_'
'coffee'
'cardboard_'
'busiest_'
'beaches_'
'arrogance_'
'army_'
'againthe_'
'accomadating_'
'33_'
'25'
'07_'
'whisky_'
'ure_'
'top'
'token_'
'time'
'there'
'swap_'
'supervised_'
'sommelier_'
'soccer_'
'sean_'
'sake_'
'rome_'
'ries_'
'relationship_'
'regulars_'
'rained_'
'quote_'
'quibble_'
'plugged_'
'pianist_'
'perform_'
'pat_'
'otel_'
'negotiate_'
'napkin_'
'ments_'
'li_'
'leader_'
'judging_'
'frame_'
'film_'
'employed_'
'dodgy_'
'dly_'
'distinctly_'
'dedication_'
'decidedly_'
'death_'
'clever_'
'chilli_'
'bfast_'
'badge_'
'au_'
'attire_'
'atm_'
'agreeable_'
'17th_'
'15pm_'
'05_'
' ! - _'
' !'
'weekdays_'
'ul_'
'suggests_'
'staffwe_'
'ore_'
'ordeal_'
'okbut_'
'niggle_'
'military_'
'methe_'
'loves_'
'lle_'
'lent_'
'honoured_'
'ged_'
'frazzled_'
'excellently_'
'excel_'
'emphasis_'
'depart_'
'consierge_'
'complimented_'
'companion_'
'chargeable_'
'capital_'
'avoiding_'
'24th_'
'unimaginative_'
'tirelessly_'
'tear_'
'swing_'
'stephanie_'
'soooo_'
'scruffy_'
'scary_'
'retreat_'
'provision_'
'pound_'
'pit_'
'piled_'
'outthe_'
'oranges_'
'omlette_'
'mug_'
'mouse_'
'linked_'
'leak_'
'instruction_'
'inept_'
'hardest_'
'happier_'
'gross_'
'grass_'
'grapefruit_'
'flavours_'
'fireworks_'
'finishes_'
'fastest_'
'excellentthe_'
'excellent'
'excelent_'
'downgrade_'
'color_'
'butwe_'
'burning_'
'arabic_'
'accessed_'
'31_'
'2'
' ! ! )_'
'yelled_'
'weekday_'
'wa_'
'vehicles_'
'unnecessarily_'
'unknown_'
'thier_'
'sy_'
'sy'
'supplying_'
'sunrise_'
'staring_'
'snotty_'
'showered_'
'shambolic_'
'sha_'
'scent_'
'risotto_'
'rented_'
'reminds_'
'rank_'
'pump_'
'plant_'
'pipes_'
'pi_'
'permission_'
'ought_'
'orchid_'
'observation_'
'notices_'
'neighbouring_'
'mon_'
'knives_'
'isolated_'
'instances_'
'hurricane_'
'hing_'
'heritage_'
'here'
'guessing_'
'ford_'
'filter_'
'empowered_'
'ears_'
'disposable_'
'cy_'
'curtious_'
'crying_'
'coin_'
'cider_'
'canceled_'
'baths_'
'awakened_'
'annual_'
'aloft_'
'8'
' " !_'
'yed_'
'waved_'
'unprepared_'
'unexpectedly_'
'unconcerned_'
'trainer_'
'tending_'
'tape_'
'tacky_'
'streets_'
'stores_'
'spilled_'
'some'
'rom_'
'roaring_'
'rib_'
'ray_'
'qualified_'
'powder_'
'pool'
'overhead_'
'overflowing_'
'op_'
'maze_'
'irritation_'
'iness_'
'hockey_'
'extending_'
'edinburgh_'
'eats_'
'discussions_'
'deskthe_'
'delegates_'
'deaf_'
'day'
'courts_'
'corn_'
'contributed_'
'christian_'
'ception_'
'cancun_'
'blood_'
'bed'
'back'
'actively_'
'?_'
'5star_'
'45am_'
'39_'
' " ) _'
'wore_'
'windy_'
'upsell_'
'thanksgiving_'
'sufficiently_'
'searched_'
'rejected_'
'refurbishing_'
'reads_'
'pretend_'
'outset_'
'operational_'
'noone_'
'nachos_'
'mod_'
'mill_'
'materials_'
'mac_'
'limousine_'
'lesser_'
'leaf_'
'laptops_'
'jamie_'
'ily_'
'hated_'
'haddock_'
'guinness_'
'grubby_'
'google_'
'glazing_'
'follows_'
'experiencing_'
'excess_'
'dumped_'
'conscientious_'
'cheesecake_'
'breakfastand_'
'boots_'
'barthe_'
'barand_'
'asst_'
'annex_'
'andno_'
'andbreakfast_'
'accepting_'
'2018_'
' “_'
' !- _'
'é_'
'washington_'
'tile_'
'tablet_'
'shoulder_'
'sensible_'
'rounds_'
'remotely_'
'reminding_'
'pod_'
'overcharge_'
'olives_'
'noticeably_'
'northern_'
'neighbour_'
'motorway_'
'morningand_'
'moderately_'
'kitchens_'
'impecable_'
'helpfuli_'
'grocery_'
'forgetful_'
'floor'
'fewer_'
'faucet_'
'dissatisfaction_'
'dismissed_'
'daythe_'
'creates_'
'concentrate_'
'buzz_'
'barmen_'
'bad'
'av_'
'ations_'
'anyways_'
'20'
' .& _'
'“ _'
'xcellent_'
'wiped_'
'variation_'
'upsetting_'
'unsmiling_'
'trolleys_'
'tied_'
'thoughts_'
'suffice_'
'sprayed_'
'sodas_'
'presidential_'
'permanent_'
'outright_'
'organizing_'
'occupant_'
'nationalities_'
'mojito_'
'margarita_'
'mango_'
'ly'
'intelligent_'
'inflexible_'
'identified_'
'holds_'
'hiking_'
'hiding_'
'glance_'
'freshener_'
'exchanged_'
'engagement_'
'dusty_'
'dispensers_'
'decently_'
'damn_'
'cotton_'
'circle_'
'cigar_'
'chasing_'
'cent_'
'cally_'
'breathtaking_'
'arose_'
'are'
'angela_'
'ande'
'aging_'
'accounts_'
'40'
'you'
'willingly_'
'wever_'
'welcome'
'victor_'
'veranda_'
'vely_'
'unlikely_'
'tthe_'
'simon_'
'separated_'
'sbut_'
'presume_'
'precise_'
'payed_'
'patronising_'
'outdoors_'
'offset_'
'od_'
'munich_'
'measures_'
'manually_'
'jeans_'
'ideally_'
'horizon_'
'hairs_'
'greens_'
'fro_'
'free'
'evening'
'equivalent_'
'environmental_'
'encouraging_'
'empathy_'
'em_'
'efficient'
'driveway_'
'desk'
'des_'
'dawn_'
'curious_'
'cucumber_'
'craft_'
'cherry_'
'certificate_'
'batter_'
'andand_'
'alike_'
'adam_'
'achieved_'
'15am_'
'06_'
') ._'
' .$ _'
' " ... _'
'wrap_'
'wild_'
'waterfront_'
'ware_'
'wa'
'voices_'
'usb_'
'urgency_'
'ur'
'unwind_'
'unlocked_'
'understandably_'
'unbearable_'
'triple_'
'tournament_'
'torn_'
'toddler_'
'tee_'
'sublime_'
'shy_'
'shampoos_'
'react_'
'project_'
'players_'
'opulent_'
'okay'
'occupants_'
'nicole_'
'meter_'
'manhattan_'
'lockers_'
'license_'
'ler_'
'lengths_'
'kings_'
'jo_'
'inexcusable_'
'indoors_'
'incompetence_'
'herethe_'
'heavenly_'
'hearted_'
'glory_'
'fusion_'
'flooded_'
'festival_'
'farce_'
'facelift_'
'extensively_'
'educated_'
'drinkable_'
'drilling_'
'depend_'
'del_'
'dec_'
'daylight_'
'customary_'
'cultural_'
'congratulated_'
'conducted_'
'codes_'
'clinical_'
'blond_'
'apathetic_'
'alo'
'adventure_'
':- _'
' &_'
'yorkshire_'
'whiskey_'
'wait'
'ville_'
'vague_'
'unpretentious_'
'timings_'
'tar'
'suitably_'
'sti'
'staffbut_'
'shifts_'
'servicebut_'
'scallops_'
'rustic_'
'revolving_'
'region_'
'quit_'
'presentations_'
'operates_'
'my'
'masses_'
'lean_'
'laughable_'
'landing_'
'kill_'
'ke_'
'jonathan_'
'global_'
'etc'
'drawing_'
'drab_'
'district_'
'detract_'
'demeanour_'
'dare_'
'chlorine_'
'ceremony_'
'bilingual_'
'banter_'
'baht_'
'anti_'
'announced_'
'adaptor_'
'42_'
' ? ) , _'
' ), _'
' ! ?_'
' ! ! ) ._'
'ws_'
'worries_'
'waterpark_'
'varying_'
'unapologetic_'
'themthe_'
'spices_'
'solutions_'
'ski_'
'sixth_'
'sh'
'serena_'
'sebastian_'
'seaview_'
'seasonal_'
'scam_'
'scalding_'
'refundable_'
'recover_'
'rebecca_'
'professional'
'poisoning_'
'partying_'
'pages_'
'omlettes_'
'oily_'
'night'
'mountains_'
'locks_'
'len'
'ld_'
'kim_'
'jasmine_'
'interacting_'
'inc_'
'ied_'
'iceland_'
'growing_'
'gos_'
'foreigners_'
'fine'
'festive_'
'fd_'
'ethe_'
'ence_'
'en'
'drawn_'
'dissapointing_'
'cushions_'
'couches_'
'closely_'
'climate_'
'casually_'
'briefly_'
'barmaid_'
'13th_'
' .” _'
' ' ( _'
'wrist_'
'unappealing_'
'tiring_'
'timethe_'
'this'
'th'
'surname_'
'suffers_'
'suffering_'
'stare_'
'sourced_'
'slightest_'
'shell_'
'shed_'
'serviceable_'
'rydges_'
'rescue_'
'ramada_'
'questioning_'
'puddings_'
'prompting_'
'pre'
'porch_'
'permitted_'
'noticing_'
'nicei_'
'moroccan_'
'minds_'
'material_'
'manila_'
'managment_'
'jeff_'
'ir'
'interrupting_'
'influx_'
'horrid_'
'grudgingly_'
'groupon_'
'forgive_'
'fitting_'
'fired_'
'faded_'
'explanations_'
'excels_'
'disgraceful_'
'culinary_'
'class'
'charles_'
'booth_'
'bones_'
'berries_'
'awarded_'
'allergic_'
'accused_'
'1'
'08_'
'well'
'wasting_'
'vent_'
'vanity_'
'tte_'
'toys_'
'taught_'
'sympathy_'
'superlative_'
'soak_'
'sla'
'script_'
'resources_'
'renovate_'
'rarity_'
'poorest_'
'pleasant'
'plants_'
'peeling_'
'organize_'
'operative_'
'opera_'
'misunderstanding_'
'mis_'
'milling_'
'marmalade_'
'maldives_'
'logged_'
'lend_'
'lasting_'
'joint_'
'j'
'itinerary_'
'intention_'
'incidents_'
'historical_'
'har'
'guiding_'
'guessed_'
'gordon_'
'ging_'
'folded_'
'fits_'
'fills_'
'fear_'
'essentials_'
'embarrassment_'
'efficientthe_'
'echo_'
'earn_'
'dryers_'
'disruption_'
'dept_'
'crammed_'
'ces_'
'cc_'
'butstaff_'
'buck_'
'bon'
'best'
'belong_'
'ana'
'ales_'
'accomplished_'
'accomodated_'
'38_'
'21'
' @_'
' ) : _'
'washcloths_'
'vienna_'
'usand_'
'unpacking_'
'undoubtedly_'
'tuk_'
'trousers_'
'them'
'teabags_'
'sweat_'
'super'
'strive_'
'stay'
'staff'
'slo'
'silent_'
'settling_'
'selecting_'
'sections_'
'sara_'
'rung_'
'roomstaff_'
'rooms'
'restock_'
'represented_'
'remarks_'
'rasa_'
'railway_'
'q'
'posts_'
'peru_'
'packaged_'
'ont_'
'off'
'nope_'
'morningthe_'
'mohammed_'
'louder_'
'locating_'
'linda_'
'insistent_'
'innovative_'
'incl_'
'hote_'
'hopes_'
'haired_'
'grabbing_'
'formed_'
'fiasco_'
'farewell_'
'existing_'
'enjoys_'
'enhance_'
'emirates_'
'emily_'
'elizabeth_'
'drama_'
'detergent_'
'defensive_'
'cranky_'
'coordination_'
'colours_'
'cloudy_'
'chipped_'
'carrots_'
'caroline_'
'businesslike_'
'burn_'
'broadband_'
'brilliantly_'
'boil_'
'ave_'
'ating_'
'ati'
'85_'
'49_'
'180_'
'0'
' ” , _'
'war_'
'vo'
'view'
'verified_'
'ven_'
'valid_'
'understatement_'
'ultimate_'
'tricky_'
'toronto_'
'tive_'
'thankyou_'
'thanking_'
'te'
'tank_'
'sucks_'
'student_'
'stared_'
'slow'
'skimpy_'
'sherry_'
'rs'
'rocks_'
'roberto_'
'rigid_'
'retrieved_'
'restroom_'
'responds_'
'razor_'
'prompted_'
'preoccupied_'
'pra'
'permanently_'
'peppers_'
'pate_'
'one'
'olive_'
'neighboring_'
'moderate_'
'mildly_'
'meand_'
'loading_'
'like'
'layover_'
'lag_'
'jorge_'
'itbut_'
'install_'
'iest_'
'iendly_'
'hd_'
'gripes_'
'grasp_'
'freely_'
'fold_'
'flushing_'
'expenses_'
'ea_'
'dramatically_'
'disneyland_'
'disjointed_'
'deputy_'
'crumbs_'
'crappy_'
'coping_'
'copies_'
'congratulate_'
'colors_'
'cigarettes_'
'chit_'
'candles_'
'cal_'
'cafes_'
'boyfriend_'
'blanc_'
'bath'
'astoria_'
'administration_'
'30th_'
'30mins_'
' ( " _'
' ( ! ) _'
'” _'
'ya'
'usable_'
'university_'
'union_'
'uncleared_'
'touching_'
'successfully_'
'stockholm_'
'st'
'shades_'
'rewarded_'
'referring_'
'readers_'
'quick'
'programmed_'
'practices_'
'potentially_'
'ok'
'nor'
'movement_'
'mosquito_'
'mirrors_'
'mei_'
'lovely'
'leftovers_'
'lee_'
'lane_'
'joining_'
'jar_'
'interestingly_'
'ineffective_'
'incapable_'
'idiot_'
'identical_'
'hotels'
'hills_'
'helpfulbut_'
'grim_'
'ght_'
'gather_'
'excursion_'
'etcthe_'
'ered_'
'drops_'
'dragged_'
'dock_'
'disrespectful_'
'disgruntled_'
'discretion_'
'disappointments_'
'dis_'
'decisions_'
'clockwork_'
'busy'
'busier_'
'brisk_'
'breakfasti_'
'bra'
'behave_'
'appalled_'
'ann_'
'amateur_'
'all'
'afternoons_'
'aback_'
' ... ) _'
'youth_'
'were'
'wallpaper_'
'under'
'ugh_'
'ticked_'
'swe_'
'ster_'
'someplace_'
'serviceminded_'
'ser'
'savoury_'
'samantha_'
'roaming_'
'refusing_'
'rc_'
'primary_'
'portuguese_'
'plated_'
'pipe_'
'pierre_'
'owing_'
'over'
'optional_'
'noteworthy_'
'nice'
'ngs_'
'mosquitoes_'
'moan_'
'ming_'
'mats_'
'marathon_'
'manicured_'
'lounging_'
'lounger_'
'los_'
'leisurely_'
'learnt_'
'laps_'
'korean_'
'ja_'
'ise_'
'inspite_'
'incoming_'
'immigration_'
'hut_'
'heather_'
'harry_'
'hare_'
'gruff_'
'greatand_'
'grand'
'friendy_'
'fair'
'explains_'
'egypt_'
'cooled_'
'continuing_'
'consuming_'
'complement_'
'clubs_'
'closest_'
'cheeky_'
'characters_'
'banged_'
'ano'
'am'
'ahmed_'
'5'
'12'
' % ._'
'wowed_'
'winner_'
'viewing_'
'versed_'
'tribute_'
'tooth_'
'times'
'thousands_'
'slack_'
'servicei_'
'seattle_'
'sauces_'
'sarcastic_'
'sampled_'
'records_'
'overwhelmingly_'
'overview_'
'namely_'
'mistakenly_'
'meters_'
'matching_'
'mari'
'leaked_'
'jumeirah_'
'josh_'
'joseph_'
'invite_'
'introduce_'
'inspection_'
'iffy_'
'ie'
'hassled_'
'hardware_'
'greedy_'
'fridges_'
'fri'
'firmly_'
'filipino_'
'fedex_'
'fantastically_'
'facts_'
'experience'
'else'
'dumb_'
'drink'
'disgusted_'
'devoid_'
'deficiencies_'
'dad_'
'curb_'
'correspondence_'
'condo_'
'combine_'
'bur'
'booze_'
'blunt_'
'babies_'
'assign_'
'artificial_'
'annoyingly_'
'amiss_'
'alongside_'
'agreement_'
'110_'
'- '
' . '
'woeful_'
'waive_'
'virgin_'
'verall_'
'vanessa_'
'v'
'ty'
'sweeping_'
'sue_'
'stic_'
'sons_'
'show'
'shaped_'
'servings_'
'scenes_'
'roomso_'
'roles_'
'realy_'
'reacted_'
'ranch_'
'qualities_'
'proceed_'
'pristine_'
'prison_'
'pr_'
'pleasantthe_'
'percent_'
'peanuts_'
'passionate_'
'overlooks_'
'oscar_'
'now'
'misplaced_'
'member'
'louise_'
'long'
'lion_'
'ki_'
'intuitive_'
'humorous_'
'hefty_'
'haven_'
'hammering_'
'grub_'
'golfers_'
'floorthe_'
'existence_'
'europeans_'
'established_'
'epitome_'
'eaters_'
'dis'
'dependable_'
'dave_'
'curtly_'
'cumbersome_'
'costing_'
'conventions_'
'continuous_'
'by'
'bristol_'
'breaker_'
'birmingham_'
'behold_'
'beaten_'
'basketball_'
'balanced_'
'arrival'
'andbut_'
'ancient_'
'amused_'
'amends_'
'adamant_'
'42'
'09_'
'yo_'
'wrongly_'
'wellthe_'
'warsaw_'
'warm'
'wakeup_'
'ved_'
'united_'
'tucked_'
'trend_'
'tradition_'
'thirsty_'
'tacos_'
'sucked_'
'substitute_'
'stunned_'
'stern_'
'steady_'
'stain_'
'son'
'sha'
'securing_'
'scattered_'
'ria_'
'reversed_'
'recorded_'
'qualify_'
'path_'
'outcome_'
'notwithstanding_'
'natalie_'
'melted_'
'matches_'
'manual_'
'lifted_'
'lid_'
'letdown_'
'jackie_'
'interconnecting_'
'interactive_'
'intend_'
'inspect_'
'inferior_'
'imposing_'
'hitch_'
'headache_'
'fooled_'
'flair_'
'fantastic'
'english'
'electronics_'
'ee'
'donuts_'
'disappoints_'
'deserving_'
'dairy_'
'corteous_'
'conduct_'
'clumsy_'
'charlotte_'
'butno_'
'blend_'
'begins_'
'backs_'
'and'
'9'
' ... '
' ( '
'zealand_'
'youngsters_'
'yn_'
'vice_'
'unloaded_'
'unclear_'
'tui_'
'tolerable_'
'toiletry_'
'tidying_'
'tick_'
'tested_'
'temporarily_'
'tavern_'
'table'
'swedish_'
'sur'
'sunglasses_'
'sociable_'
'scramble_'
'santa_'
'sandy_'
'represent_'
'reactive_'
'proffesional_'
'pm'
'pedicure_'
'painting_'
'pacific_'
'outrageously_'
'ore'
'onward_'
'okaybut_'
'nut_'
'nights'
'mounted_'
'moon_'
'monitor_'
'micro_'
'metropole_'
'mar_'
'manuel_'
'login_'
'lalit_'
'lagged_'
'lads_'
'kate_'
'jordan_'
'jerk_'
'ire_'
'indigo_'
'ide_'
'hotelbut_'
'grossly_'
'grease_'
'friendly'
'fra'
'finethe_'
'expresso_'
'enquiring_'
'differences_'
'delightfully_'
'commercial_'
'comforts_'
'coloured_'
'chi'
'brighter_'
'brick_'
'breakfastbut_'
'brazilian_'
'belly_'
'basil_'
'authorization_'
'ast'
'ash_'
'aroma_'
'als_'
'aloha_'
'*. _'
' ~ _'
'wan_'
'versus_'
'urban_'
'tor'
'team'
'tatty_'
'strictly_'
'stir_'
'starving_'
'splash_'
'sounding_'
'silence_'
'shave_'
'sevice_'
'scott_'
'saves_'
'rotten_'
'riendly_'
'resturants_'
'reat_'
'reader_'
'raffles_'
'purchasing_'
'overpowering_'
'ory_'
'order'
'opinions_'
'occassions_'
'nightand_'
'nh_'
'ng'
'money'
'miguel_'
'mezzanine_'
'ken'
'jugs_'
'inclined_'
'inaccurate_'
'house'
'holders_'
'helpfulstaff_'
'hawaii_'
'habit_'
'grande_'
'folder_'
'edthe_'
'earl_'
'downgraded_'
'developed_'
'der_'
'depth_'
'counted_'
'cnn_'
'cats_'
'carrot_'
'brussels_'
'bravo_'
'bloke_'
'blackout_'
'bedded_'
'aud_'
'assets_'
'area'
'ane'
'airport'
'again'
'adrian_'
'44_'
'41'
'28th_'
'2010_'
'10mins_'
' ?" _'
' ? " _'
' : '
'yes'
'yards_'
'working'
'with'
'verandah_'
'urgently_'
'unlock_'
'uniformed_'
'twins_'
'tune_'
'tow_'
'swissotel_'
'sundays_'
'subtle_'
'stag_'
'sore_'
'shines_'
'sessions_'
'see'
'scenery_'
'sandra_'
'ruby_'
'ron_'
'revamp_'
'resteraunt_'
'receipts_'
'pubs_'
'pt'
'presenting_'
'pointless_'
'place'
'persistent_'
'pampering_'
'overloaded_'
'occurrence_'
'nye_'
'nicewe_'
'nail_'
'mission_'
'metres_'
'melissa_'
'meal'
'mashed_'
'limp_'
'letters_'
'league_'
'lawn_'
'ko'
'kippers_'
'julia_'
'job'
'jimmy_'
'islands_'
'intercon_'
'inquiring_'
'inconveniences_'
'high'
'hazard_'
'hard'
'gs_'
'grosvenor_'
'gloves_'
'food'
'flash_'
'exiting_'
'existed_'
'ever'
'ethos_'
'escapes_'
'elegantly_'
'drives_'
'dosa_'
'disconcerting_'
'creepy_'
'courtious_'
'copenhagen_'
'clogged_'
'claustrophobic_'
'cheer_'
'care'
'buffet'
'brewed_'
'black'
'belt_'
'begrudgingly_'
'beachfront_'
'baseball_'
'banyan_'
'at'
'arise_'
'anda'
'ale'
'afforded_'
'additions_'
'activated_'
'4'
'34_'
'24hr_'
'2000_'
' - £ _'
'• _'
'work'
'winning_'
'william_'
'voicemail_'
'values_'
'tea'
'supervisors_'
'spell_'
'spa'
'song_'
'slots_'
'sits_'
'shutting_'
'scone_'
'scared_'
'sat'
'rt_'
'routinely_'
'retrieving_'
'represents_'
'redeemed_'
'princess_'
'portland_'
'planes_'
'peeve_'
'ol_'
'nonchalant_'
'ni'
'mere_'
'mer'
'melt_'
'mate_'
'masseuse_'
'lan_'
'kempinski_'
'julie_'
'jfk_'
'jackets_'
'isthe_'
'io_'
'internet'
'hilarious_'
'great'
'good'
'fla'
'exited_'
'existant_'
'endure_'
'eception_'
'doubled_'
'done'
'diego_'
'dest_'
'deeply_'
'danielle_'
'dand_'
'crossed_'
'coughing_'
'competence_'
'club'
'citizens_'
'ch'
'carpeting_'
'broad_'
'blaring_'
'bingo_'
'better'
'attractively_'
'assuring_'
'appetite_'
'angle_'
'andthere_'
'andaz_'
'amateurish_'
'alley_'
'alan_'
'accounting_'
'35'
'11'
' : ( _'
' - $ _'
'us'
'um'
'touch'
'thisand_'
'talks_'
'swearing_'
'stra'
'stephen_'
'soaking_'
'sleepless_'
'shallow_'
'seminar_'
'sees_'
'satellite_'
'resting_'
'rendered_'
'quality'
'pissed_'
'phone'
'performing_'
'penalty_'
'pedro_'
'ori'
'opportunities_'
'of'
'nts_'
'no'
'mur'
'modernised_'
'mistaken_'
'minimalist_'
'midweek_'
'meh_'
'lauren_'
'labelled_'
'ingthe_'
'ia'
'humidity_'
'hs_'
'housecleaning_'
'horrified_'
'horrific_'
'hannah_'
'gra'
'gowns_'
'gen'
'fun'
'fort_'
'finds_'
'financial_'
'f'
'ere'
'ele'
'egyptian_'
'early'
'ear'
'drinkers_'
'dissatisfied_'
'disappointingly_'
'days'
'creek_'
'constructive_'
'clotted_'
'brits_'
'bi'
'any'
'andvery_'
'akin_'
'ada'
'abu_'
'700_'
'00'
' ./ _'
'workmen_'
'workand_'
'wifi'
'whipped_'
'websites_'
'watermelon_'
'watering_'
'utilize_'
'unbeatable_'
'ul'
'tt'
'toes_'
'tidied_'
'that'
'teenage_'
'susan_'
'supporting_'
'stroll_'
'sticking_'
'staffs'
'spartan_'
'sleek_'
'skyline_'
'shu'
'shame'
'sealed_'
'scores_'
'rightly_'
'return'
'restrictions_'
'receptionthe_'
'raising_'
'quest_'
'programs_'
'pro'
'prevented_'
'por'
'polo_'
'po'
'personalities_'
'peoples_'
'peas_'
'pay'
'panic_'
'pains_'
'organic_'
'nu'
'ns'
'new'
'nes_'
'mu'
'motels_'
'miraculously_'
'marginally_'
'mai_'
'madrid_'
'lucy_'
'logging_'
'lima_'
'laborious_'
'kl_'
'jay_'
'ino'
'id'
'horror_'
'head'
'grant_'
'forgettable_'
'faith_'
'factors_'
'facebook_'
'expired_'
'exists_'
'etiquette_'
'ethic_'
'empire_'
'dragging_'
'died_'
'den_'
'credits_'
'cracking_'
'consists_'
'con'
'cloud_'
'claudia_'
'clarify_'
'cheek_'
'car'
'buckets_'
'bro'
'bride_'
'barked_'
'barista_'
'barbecue_'
'away'
'ash'
'anne_'
'andy_'
'alway_'
'ala'
'airways_'
'abandoned_'
'aa'
'31st_'
'24'
'130_'
'world'
'wit_'
'visibly_'
'vicinity_'
'vacated_'
'utilized_'
'usly_'
'unused_'
'unattractive_'
'uk'
'typing_'
'trip'
'tram_'
'trail_'
'tra'
'themand_'
'ten'
'tempted_'
'sums_'
'snobbish_'
'smoker_'
'sin_'
'scotch_'
'sand'
'roughly_'
'rm_'
'restaurantthe_'
'recycling_'
'plumber_'
'pleasantries_'
'plays_'
'pics_'
'overdue_'
'overall'
'outand_'
'ott_'
'orderly_'
'ons'
'nightclub_'
'natured_'
'macau_'
'lumpy_'
'longest_'
'late'
'kha'
'keepers_'
'jim_'
'jenny_'
'jane_'
'ised_'
'irons_'
'inspired_'
'incidentally_'
'identity_'
'i'
'hu'
'goodwill_'
'freeway_'
'flaw_'
'finesse_'
'expensive'
'estate_'
'eggs'
'economy_'
'earliest_'
'dot_'
'door'
'decades_'
'da'
'coordinator_'
'conducive_'
'closure_'
'cla'
'brushed_'
'astonished_'
'andthis_'
'[ _'
'51'
'100'
'--- _'
'-'
'!._'
' ? " ._'
' .• _'
' ) '
' ' ' _'
'yr_'
'x'
'wo'
'wine'
'very'
'unloading_'
'universal_'
'tro'
'ticks_'
'thro'
'threatened_'
'theft_'
'surpassed_'
'sto'
'standoffish_'
'staffvery_'
'sincerity_'
'sept_'
'sea'
'sch'
'say'
'ront_'
'riverside_'
'revisit_'
'reunion_'
'representatives_'
'reheated_'
'red'
'reassured_'
'radiators_'
'purple_'
'profession_'
'privately_'
'price'
'precious_'
'play'
'payments_'
'pattern_'
'patron_'
'partners_'
'ord_'
'openly_'
'nonexistent_'
'monitoring_'
'misfortune_'
'meagre_'
'matthew_'
'lthough_'
'limits_'
'land'
'keyboard_'
'ken_'
'justin_'
'io'
'interstate_'
'inn'
'ing'
'increasingly_'
'hovering_'
'hotelstaff_'
'hot'
'hed_'
'hanoi_'
'halfway_'
'grille_'
'flavored_'
'feast_'
'facade_'
'exceeds_'
'eu'
'entertain_'
'enforced_'
'down'
'dishonest_'
'describing_'
'definition_'
'deciding_'
'customs_'
'converse_'
'cluttered_'
'citizen_'
'cho'
'charity_'
'chalet_'
'cabanas_'
'butter'
'butlins_'
'bustling_'
'boasts_'
'be'
'bass_'
'barbara_'
'banquets_'
'avenue_'
'auckland_'
'atmospheric_'
'assignment_'
'ammenities_'
'advertises_'
'ad'
'absurd_'
'26th_'
'2009_'
'1980_'
'101_'
' ... )_'
' - '
' ) ... _'
' ! ! ! ! ! !_'
'yu'
'yen_'
'winds_'
'ventured_'
'unsupervised_'
'une'
'things'
'taste'
'tan_'
'tags_'
'sure'
'suprised_'
'straightened_'
'stocking_'
'steel_'
'steamed_'
'stall_'
'stack_'
'sso_'
'spouse_'
'sooner_'
'software_'
'skype_'
'seamlessly_'
'roasted_'
'remarked_'
'ramp_'
'phuket_'
'patricia_'
'oxford_'
'owns_'
'outi_'
'omar_'
'nathan_'
'motor_'
'motivation_'
'mixing_'
'minutes'
'midst_'
'mentions_'
'lug_'
'loan_'
'legendary_'
'label_'
'knee_'
'ivan_'
'inhouse_'
'influence_'
'inconsistency_'
'hers_'
'help'
'happiness_'
'gym'
'goers_'
'gatwick_'
'fuzzy_'
'forest_'
'fool_'
'flavoured_'
'ect_'
'drinks'
'dresser_'
'disappearing_'
'diana_'
'denver_'
'ct_'
'counter'
'cool'
'conversion_'
'commission_'
'comforter_'
'comedy_'
'cabinet_'
'budge_'
'blaming_'
'beneath_'
'bee'
'banqueting_'
'banks_'
'awaited_'
'ast_'
'ambassadors_'
'allotted_'
'ain_'
'affable_'
'advanced_'
'1970_'
'16'
'13'
' "_'
' ! ! ! _'
'welcoming'
'weekly_'
'was'
'vacations_'
'uncommon_'
'unappetizing_'
'threatening_'
'the'
'texas_'
'teens_'
'technically_'
'taster_'
'sweet'
'snippy_'
'sit'
'sil'
'servicewas_'
'service'
'routes_'
'rick_'
'retraining_'
'reminiscent_'
'relieved_'
'recognizing_'
'receptionbut_'
'queueing_'
'promoted_'
'presentable_'
'paste_'
'participants_'
'pablo_'
'oz_'
'overflow_'
'outsourced_'
'officially_'
'oe'
'oct_'
'observations_'
'ner_'
'mustard_'
'montreal_'
'mojitos_'
'milan_'
'mi'
'members'
'mb_'
'married_'
'mano'
'lunch'
'louis_'
'lists_'
'lecture_'
'killed_'
'ketchup_'
'kelly_'
'jelly_'
'jean_'
'ized_'
'iso'
'insects_'
'imaginable_'
'ility_'
'han_'
'gin'
'gestures_'
'generator_'
'gathered_'
'fur'
'frig_'
'finer_'
'fi'
'eveningthe_'
'ela'
'dun'
'drew_'
'downer_'
'dispute_'
'disastrous_'
'cos_'
'convey_'
'contain_'
'completing_'
'complacent_'
'cleans_'
'chowder_'
'chandeliers_'
'carries_'
'cameras_'
'brill_'
'brewers_'
'breakfastwe_'
'boxed_'
'ber'
'bags'
'avocado_'
'available'
'atlanta_'
'assorted_'
'architect_'
'also'
'aka_'
'adorable_'
'admin_'
'adjusting_'
'32'
'22nd_'
'160_'
'1500_'
' ~_'
' ?'
' . " _'
' ) .( _'
' ' !_'
' ' '
'£_'
'youthe_'
'yo'
'yeah_'
'wonderfull_'
'wonderful'
'wholesome_'
'weekend'
'vigilant_'
'unwell_'
'trump_'
'trucks_'
'travelzoo_'
'too'
'swiped_'
'striking_'
'steven_'
'staffwere_'
'stacked_'
'specified_'
'soothing_'
'sirloin_'
'scan_'
'safes_'
'rob_'
'roads_'
'ricardo_'
'ribs_'
'quickest_'
'purchases_'
'posting_'
'points'
'plunger_'
'plesant_'
'picnic_'
'parking'
'park'
'outage_'
'okaythe_'
'necessity_'
'nda_'
'mould_'
'moody_'
'minuses_'
'memorial_'
'medication_'
'mcdonalds_'
'may'
'mar'
'management'
'm'
'lounge'
'lately_'
'justice_'
'jovial_'
'ite_'
'is'
'ironically_'
'invitation_'
'instructor_'
'incomplete_'
'ial_'
'ht'
'hooks_'
'hola_'
'hitting_'
'helpfulwe_'
'gum_'
'guests'
'greatbut_'
'graded_'
'gps_'
'glorious_'
'gh_'
'gar'
'exellent_'
'ex'
'episode_'
'enough'
'engine_'
'dreary_'
'displays_'
'dhabi_'
'decorating_'
'dancers_'
'consecutive_'
'compete_'
'christine_'
'check'
'categories_'
'carol_'
'candle_'
'brandy_'
'bit'
'beats_'
'bathing_'
'authorisation_'
'assurance_'
'aircraft_'
'ai'
'accurately_'
'70s_'
'68_'
'17'
'zan'
'wheat_'
'verbal_'
'vat_'
'vastly_'
'truely_'
'thatthe_'
'stella_'
'stayand_'
'starred_'
'songs_'
'smily_'
'smile'
'sly_'
'sluggish_'
'slim_'
'she'
'sec'
'rthe_'
'robots_'
'rio_'
'restraunt_'
'relented_'
'promotional_'
'president_'
'poolthe_'
'plat_'
'pies_'
'peri'
'peanut_'
'pe_'
'pa'
'oversized_'
'oth_'
'ost_'
'onthe_'
'ol'
'odour_'
'object_'
'ny'
'noisey_'
'ngly_'
'nce'
'monotonous_'
'monica_'
'mohamed_'
'miss'
'mercedes_'
'meals'
'massively_'
'managerial_'
'manager'
'mal_'
'lowered_'
'lovelythe_'
'loch_'
'lip_'
'lackadaisical_'
'kind'
'jamaica_'
'isa'
'indicates_'
'hen'
'helen_'
'hamburgers_'
'grip_'
'grapes_'
'gallery_'
'full'
'folio_'
'fast'
'facilites_'
'face'
'excessively_'
'ers'
'endlessly_'
'ed'
'eb'
'dusit_'
'drawbacks_'
'disliked_'
'dic'
'desirable_'
'descriptions_'
'del'
'dbb_'
'crash_'
'circus_'
'bus'
'brochures_'
'bi_'
'bf_'
'bamboo_'
'awareness_'
'asparagus_'
'artwork_'
'arrive'
'approval_'
'ami'
'agoda_'
'activate_'
'abroad_'
'about'
'18'
'),_'
' ` _'
' ; '
' .£ _'
' )'
'zen_'
'xanterra_'
'wound_'
'waves_'
'volumes_'
'victorian_'
'van'
'vacuuming_'
'uncooked_'
'topper_'
'temple_'
'tele'
'summoned_'
'subjected_'
'stadium_'
'squash_'
'spelled_'
'special'
'spas_'
'sp_'
'sooo_'
'slipping_'
'sheratons_'
'shearings_'
'seventh_'
'sauvignon_'
'satisfactorily_'
'sang_'
'rm'
'retain_'
'renting_'
'refurbish_'
'ranking_'
'r'
'profesional_'
'presents_'
'podium_'
'pier_'
'part'
'parent_'
'paper'
'ong_'
'nod_'
'nk'
'motion_'
'miscommunication_'
'mis'
'mindful_'
'mgmt_'
'ment'
'mc'
'manicure_'
'magically_'
'loud'
'logistics_'
'lity_'
'lass_'
'langham_'
'kiosks_'
'khun_'
'key'
'jo'
'ities_'
'istanbul_'
'invested_'
'intervention_'
'inter'
'gu'
'grandchildren_'
'fri_'
'forwarded_'
'flashing_'
'flannels_'
'flannel_'
'filet_'
'fic'
'facilities'
'expression_'
'eur'
'ensures_'
'engineers_'
'employer_'
'ella_'
'een_'
'disturbance_'
'disconnect_'
'disagree_'
'deliveries_'
'deliberately_'
'cro'
'cove_'
'counting_'
'congealed_'
'concierge'
'comfortable'
'colin_'
'coins_'
'climbing_'
'clean'
'cha'
'celebrations_'
'carton_'
'cardiff_'
'cameron_'
'calmly_'
'budapest_'
'bob_'
'bell'
'bandwidth_'
'balinese_'
'andso_'
'andreas_'
'aims_'
'aiming_'
'350_'
'27th_'
'26'
' ? '
' .:) _'
' , ... _'
' ) ., _'
'yell_'
'worrying_'
'wire_'
'west'
'welcomethe_'
'waving_'
'walkway_'
'vinegar_'
'vi'
'vancouver_'
'vacuumed_'
'up'
'uninteresting_'
'underway_'
'undergone_'
'ton'
'toffee_'
'then'
'theater_'
'sus'
'storey_'
'start'
'snapped_'
'sim_'
'sher'
'shelves_'
'sentence_'
'scented_'
'scar'
'sar'
'sant'
'san'
'ry'
'rim_'
'reviewing_'
'restaurant'
'release_'
'refresher_'
'realizing_'
'pretzels_'
'poor'
'photographs_'
'personell_'
'palatable_'
'overseeing_'
'offish_'
'offices_'
'nti'
'nt'
'nit_'
'name'
'ms'
'mount_'
'more'
'megan_'
'mediterranean_'
'majestic_'
'maintains_'
'mac'
'listing_'
'lining_'
'lin'
'knees_'
'jets_'
'je'
'jan'
'jackson_'
'ity'
'ita'
'isi'
'irst_'
'intervened_'
'inquiry_'
'ine'
'im'
'if'
'ical_'
'humoured_'
'haughty_'
'greeters_'
'goods'
'goal_'
'glowing_'
'gg'
'get'
'ges_'
'frankfurt_'
'forcing_'
'for'
'flops_'
'fire'
'fe'
'favorites_'
'expedited_'
'evelyn_'
'equiped_'
'enable_'
'eligible_'
'duvets_'
'disposition_'
'dispatched_'
'determine_'
'detached_'
'deskbut_'
'den'
'debbie_'
'danny_'
'cuisines_'
'cted_'
'cs_'
'corkscrew_'
'cork_'
'consisting_'
'congested_'
'chop_'
'childrens_'
'cambodia_'
'bye_'
'bungalows_'
'broccoli_'
'breast_'
'breakfaststaff_'
'bid_'
'beds'
'bab'
'ayed_'
'awesome'
'attentive'
'ant'
'alaska_'
'admirably_'
'ade'
'aaron_'
'70'
'24hrs_'
'14'
'1200_'
'01_'
'( '
' , £ _'
' " '
'ze'
'yrs_'
'yourselves_'
'wash'
'wan'
'vacate_'
'usbut_'
'uni'
'uncertain_'
'unattentive_'
'trap_'
'transpired_'
'translation_'
'toothbrushes_'
'ti'
'thyme_'
'temps_'
'swapped_'
'suprise_'
'streaming_'
'stew_'
'sterling_'
'steer_'
'sstaff_'
'sorely_'
'sion_'
'simultaneously_'
'sigh_'
'shop'
'shockingly_'
'roy_'
'ro'
'reverse_'
'resto_'
'ress_'
'replying_'
'replacements_'
'reno_'
'rant_'
'promote_'
'posters_'
'pond_'
'plo'
'pitiful_'
'piped_'
'perplexed_'
'patties_'
'passenger_'
'palms_'
'ou'
'om'
'negotiated_'
'needs'
'mussels_'
'mild_'
'meticulously_'
'mega_'
'media_'
'meager_'
'marriott'
'magazines_'
'macdonald_'
'lush_'
'locking_'
'litter_'
'links_'
'lightly_'
'keurig_'
'jaded_'
'iti'
'ipads_'
'inventive_'
'ian'
'hype_'
'hur'
'had'
'gratis_'
'goats_'
'gently_'
'furnishing_'
'fore'
'foot'
'flushed_'
'flagged_'
'first'
'expertly_'
'eva_'
'emailing_'
'drapes_'
'diy_'
'dit'
'did'
'deski_'
'descent_'
'departures_'
'curries_'
'cubes_'
'ction_'
'cricket_'
'crepes_'
'coo'
'conveniences_'
'consequence_'
'complemented_'
'coaches_'
'city'
'chewing_'
'chee'
'ced_'
'cd_'
'causes_'
'bump_'
'bothersome_'
'bone_'
'bill'
'barstaff_'
'awoke_'
'ars_'
'an'
'allegedly_'
'albert_'
'acknowledgment_'
'accommodative_'
'accessing_'
']. _'
'170_'
'15mins_'
'. '
' ( # _'
' " ) ._'
'é'
'zy_'
'yosemite_'
'yi_'
'worthless_'
'way'
'wasi_'
'warrant_'
'w'
'veryone_'
'var'
'upwards_'
'tracked_'
'touristy_'
'tolerate_'
'tina_'
'though'
'tentative_'
'teapot_'
'stronger_'
'sor'
'snowy_'
'sle'
'shower'
'shi'
'sed'
'scream_'
'sca'
'rg'
'retail_'
'regrettably_'
'rd'
'rat_'
'quests_'
'prompt'
'pockets_'
'pints_'
'open'
'oo_'
'oo'
'omg_'
'offended_'
'nis'
'navigating_'
'navajo_'
'much'
'mi_'
'martinis_'
'mali'
'malfunctioning_'
'lla_'
'ling'
'lat'
'lasagne_'
'lapses_'
'ko_'
'ki'
'ju'
'ja'
'itu'
'ito'
'issue'
'intermittently_'
'inde'
'ina'
'il'
'ight_'
'icy_'
'hy'
'hustle_'
'houskeeping_'
'hotelwe_'
'hon'
'him'
'herbal_'
'ger'
'frequented_'
'forty_'
'flood_'
'fir_'
'fa'
'expanded_'
'exotic_'
'executives_'
'emptying_'
'effusive_'
'eff'
'drill_'
'dome_'
'dinner'
'di'
'dash_'
'dar'
'dale_'
'cutter_'
'cursory_'
'couldn_'
'core_'
'continual_'
'contacts_'
'configuration_'
'competitors_'
'commenting_'
'cing_'
'chopped_'
'chatter_'
'champ'
'casa_'
'bull_'
'bulk_'
'breakfasts'
'bre'
'boo'
'board'
'bearable_'
'ba'
'average'
'as'
'arcade_'
'aba'
'60'
'45'
'125_'
'02_'
')'
' ........._'
' . ' _'
' +_'
' ) .'
'zo'
'z'
'yuck_'
'witness_'
'whereby_'
'weakness_'
'water'
'visit'
'vents_'
've'
'use'
'upthe_'
'upcoming_'
'unplugged_'
'uncomfortably_'
'treasure_'
'transported_'
'tp_'
'tools_'
'toast'
'tin'
'timed_'
'thousand_'
'terry_'
'temperamental_'
'televisions_'
'surfing_'
'superficial_'
'superb'
'substance_'
'styled_'
'stopper_'
'staffthey_'
'staffstaff_'
'soya_'
'sou'
'sorry'
'snoring_'
'smoothie_'
'sive_'
'simplest_'
'sb'
'said'
'rupees_'
'rundown_'
'riot_'
'review'
'respectable_'
'reluctance_'
'recommend'
'recipe_'
'ranks_'
'quantities_'
'property'
'pounding_'
'plunge_'
'pla'
'pig_'
'phrase_'
'peculiar_'
'parker_'
'panoramic_'
'overs_'
'oliver_'
'oiled_'
'observe_'
'nov_'
'notification_'
'noise'
'nat'
'museums_'
'mop_'
'monkeys_'
'ml_'
'mixer_'
'mana'
'lotus_'
'liver_'
'lcd_'
'later'
'kids'
'karaoke_'
'justified_'
'junk_'
'jewel_'
'ith_'
'ish'
'insure_'
'insight_'
'inroom_'
'input_'
'ino_'
'indonesian_'
'ide'
'iberostar_'
'holly_'
'hem'
'heels_'
'havana_'
'hassles_'
'hall'
'glaring_'
'gaylord_'
'gammon_'
'friend'
'flawlessly_'
'exudes_'
'exposed_'
'exceptional'
'ethernet_'
'essence_'
'escorting_'
'entrances_'
'enthusiastically_'
'ene'
'endured_'
'elephant_'
'eh'
'eclectic_'
'dur'
'du_'
'drastically_'
'discerning_'
'designers_'
'debris_'
'cup'
'cru'
'creme_'
'cost'
'congrats_'
'compromise_'
'comical_'
'cod_'
'clicking_'
'cleanthe_'
'civil_'
'church_'
'che'
'cation_'
'case'
'cart'
'caps_'
'calming_'
'butbreakfast_'
'buns_'
'brew_'
'brandon_'
'bore_'
'book'
'bled_'
'ben'
'bean_'
'ball'
'auditor_'
'audi'
'ater_'
'anti'
'allocating_'
'alive_'
'alice_'
'age'
'advantages_'
'.._'
' ........ _'
' + '
' ( & _'
' & '
' ! ._'
'à_'
'~_'
'za'
'years'
'wonders_'
'wobbly_'
'wildlife_'
'westerns_'
'wendy_'
'volunteered_'
'vin_'
'verging_'
'venison_'
'urn_'
'unwanted_'
'unplug_'
'unoccupied_'
'unforgettable_'
'uae_'
'ua'
'tuned_'
'tun'
'trivial_'
'therei_'
'tequila_'
'swa'
'supervising_'
'suite'
'stranger_'
'star'
'ssi'
'spelt_'
'sophie_'
'solely_'
'sol_'
'smith_'
'sleep'
'shorter_'
'shook_'
'shaking_'
'shaded_'
'sg'
'sf_'
'services'
'scored_'
'savoy_'
'room'
'right'
'riding_'
'rethink_'
'resembled_'
'recovered_'
'realising_'
'ready'
'rb'
'rag'
'providers_'
'production_'
'process'
'printout_'
'pr'
'pmthe_'
'plentiful'
'pi'
'persisted_'
'perception_'
'pepsi_'
'paula_'
'patch_'
'pads_'
'observant_'
'nd'
'nar'
'nan'
'moves_'
'moaning_'
'mit'
'method_'
'menu'
'masala_'
'lobbies_'
'lo'
'ks'
'keg_'
'javier_'
'itt'
'intentioned_'
'houston_'
'hits_'
'hi'
'hallmark_'
'gn_'
'gardener_'
'fronts_'
'frantic_'
'fluently_'
'firendly_'
'filtered_'
'fault'
'ew'
'ess'
'escalated_'
'es'
'eli'
'ditto_'
'dismay_'
'disengaged_'
'diabolical_'
'der'
'dep'
'dd'
'criteria_'
'countless_'
'copious_'
'coordinated_'
'compounded_'
'closed'
'chi_'
'ched_'
'charmless_'
'cartes_'
'butwhen_'
'businesses_'
'britannia_'
'breafast_'
'boy'
'bowling_'
'bou'
'bora_'
'bo_'
'bliss_'
'bles_'
'bes'
'ber_'
'bathroom'
'bat'
'bal'
'awaits_'
'aw'
'austin_'
'attracted_'
'amazing'
'ali'
'air'
'aforementioned_'
'aed_'
'72_'
'31'
'...... _'
'!'
' ’ '
' > _'
' .. '
' ---_'
' )- _'
' " ..._'
'zu'
'wires_'
'wharf_'
'vista_'
'vile_'
'vibrant_'
'ust_'
'urge_'
'unhealthy_'
'unfamiliar_'
'unexciting_'
'trouser_'
'transition_'
'thirdly_'
'theory_'
'teething_'
'tears_'
'surf_'
'sun'
'strangers_'
'so'
'snorkeling_'
'sign'
'side'
'shuts_'
'shone_'
'ships_'
'secrets_'
'sau'
'sara'
'run'
'rude'
'roomo'
'river'
'respected_'
'relocate_'
'relating_'
'regional_'
'reef_'
'rain'
'quiet'
'protein_'
'pri'
'positions_'
'polite'
'point'
'pmand_'
'pits_'
'out'
'ora'
'ola_'
'offsite_'
'obligatory_'
'nicestaff_'
'nerve_'
'natasha_'
'nails_'
'na'
'monaco_'
'messing_'
'margaritas_'
'mainland_'
'liz_'
'li'
'left'
'lar'
'landmark_'
'know'
'kickback_'
'ker'
'keith_'
'jr_'
'jokes_'
'joked_'
'irate_'
'impressively_'
'ile_'
'ig_'
'hopelessly_'
'holiday'
'handsome_'
'greati_'
'ge'
'gates_'
'gaps_'
'gambling_'
'furious_'
'funeral_'
'fulfilling_'
'fruit'
'fragrance_'
'folding_'
'flasks_'
'fare'
'failures_'
'facilitate_'
'extractor_'
'everything'
'euro'
'ep'
'eo'
'entertainers_'
'enabled_'
'empathetic_'
'electrician_'
'dreams_'
'dr_'
'disregard_'
'din_'
'diane_'
'des'
'deli'
'dealers_'
'darkness_'
'custard_'
'criminal_'
'conveyed_'
'contains_'
'combo_'
'colder_'
'ches_'
'cheesy_'
'chargers_'
'cathedral_'
'carmen_'
'busythe_'
'buds_'
'bubbles_'
'bountiful_'
'bluntly_'
'before'
'bedthe_'
'barbut_'
'ban'
'audio_'
'au'
'atleast_'
'ate'
'areathe_'
'ands'
'amuse_'
'ama'
'always'
'alexandra_'
'ago'
'adi'
'abuse_'
'ab'
'> _'
'37_'
'33'
'23'
'140_'
'----_'
',,_'
' ! ! ) _'
'wrong'
'worst'
'withthe_'
'wins_'
'widely_'
'which'
'visual_'
'vicky_'
'valentine_'
'usa'
'unstable_'
'twelve_'
'trio_'
'trimmings_'
'travel'
'tranquil_'
'trainers_'
'tracy_'
'tracking_'
'tit'
'thoughtfulness_'
'tho'
'than'
'texture_'
'texting_'
'tet'
'terse_'
't'
'swi'
'styles_'
'stool_'
'spiral_'
'span_'
'singh_'
'shortages_'
'seemless_'
'scrumptious_'
'sai'
'sad'
'robot_'
'refrigerators_'
'qui'
'published_'
'protect_'
'proposed_'
'problem'
'premise_'
'pregnant_'
'philosophy_'
'people'
'oldest_'
'oceanfront_'
'not'
'nighti_'
'necessities_'
'neatly_'
'mumbled_'
'mud_'
'mosquitos_'
'monkey_'
'mo'
'miserably_'
'mins'
'mind'
'mention'
'mentality_'
'mbps_'
'materialise_'
'markets_'
'maple_'
'lovers_'
'littered_'
'lingering_'
'limitations_'
'lim'
'leo_'
'lei_'
'le'
'knob_'
'kenny_'
'kan'
'jeremy_'
'jer'
'iu'
'ipod_'
'ip'
'injured_'
'hy_'
'hottest_'
'hoteliers_'
'helpless_'
'hee'
'hay'
'hand'
'gran_'
'goa_'
'gents_'
'gals_'
'flo'
'fixes_'
'fillings_'
'feathers_'
'favourable_'
'facilties_'
'fabric_'
'extra'
'experiencethe_'
'dominated_'
'designs_'
'dependent_'
'dental_'
'def'
'debacle_'
'cul'
'credit'
'coworker_'
'coffeemaker_'
'citrus_'
'cin'
'chelsea_'
'charge'
'champions_'
'centric_'
'celebrated_'
'capsules_'
'cables_'
'but'
'bury_'
'builders_'
'brenda_'
'bout_'
'bound_'
'bor'
'booklet_'
'bling_'
'bells_'
'bara'
'backing_'
'await_'
'ative_'
'assigning_'
'appliances_'
'andshe_'
'ak_'
'admirable_'
'adjustable_'
'80s_'
'80'
'40th_'
'24h_'
'22'
'.... _'
' :( _'
' !" _'
'zi_'
'zealous_'
'wu'
'wil'
'wheeled_'
'what'
'westerners_'
'wellness_'
'wellington_'
'wel'
'washers_'
'viewed_'
'ver'
'vanished_'
'value'
'uv'
'uring_'
'upand_'
'uit'
'ub'
'twist_'
'tt_'
'trouble'
'toasters_'
'thermos_'
'tha'
'tempting_'
'tardy_'
'sweaty_'
'sweating_'
'stuff'
'stair_'
'ss'
'spoils_'
'spinach_'
'snorkelling_'
'small'
'sketchy_'
'singers_'
'shots_'
'shortbread_'
'sharon_'
'scandinavian_'
'sailing_'
'saigon_'
'rounded_'
'roo'
'rmb_'
'rita_'
'ripe_'
'retro_'
'repairman_'
'relatives_'
'refusal_'
'reconsider_'
'rate'
'ras'
'ramadan_'
'ques_'
'quay_'
'proudly_'
'pretending_'
'pools'
'picks_'
'persuade_'
'permit_'
'paths_'
'pas'
'par'
'ough_'
'other'
'oc'
'nsi'
'nothing'
'musical_'
'move'
'mousse_'
'moscow_'
'monitored_'
'mantra_'
'manic_'
'lustre_'
'london'
'lighter_'
'light'
'lifting_'
'leftover_'
'knocks_'
'kh'
'jobthe_'
'ji'
'jade_'
'iw'
'it'
'infused_'
'indicative_'
'in'
'implied_'
'impacted_'
'ice'
'hungarian_'
'hour'
'hotel'
'hoot_'
'hbo_'
'have'
'happy'
'gur'
'grits_'
'graduation_'
'goodservice_'
'gins_'
'gab'
'font_'
'flooring_'
'flatly_'
'figuring_'
'fetched_'
'fawning_'
'fact'
'excluding_'
'every'
'eternity_'
'ering_'
'eri'
'enta'
'enc'
'em'
'elena_'
'elected_'
'eh_'
'ef'
'dude_'
'drip_'
'dou'
'disruptive_'
'dislikes_'
'discomfort_'
'depleted_'
'denise_'
'declining_'
'cuppa_'
'crawling_'
'conferencing_'
'community_'
'comb_'
'clear'
'chu'
'charlie_'
'charleston_'
'cesar_'
'caution_'
'catherine_'
'card'
'cac'
'butit_'
'bubble_'
'bri'
'brekkie_'
'big'
'bel'
'backthe_'
'ay'
'awfully_'
'attributes_'
'ato'
'approved_'
'applaud_'
'agreeing_'
'aerobics_'
'addresses_'
'abusive_'
'aa_'
'30min_'
',(_'
' ,, _'
' ) -_'
'yum_'
'yours_'
'yet'
'wiping_'
'wind'
'wholly_'
'voiced_'
'visually_'
'veronica_'
'vel'
'validated_'
'valentines_'
'ush'
'unde'
'typed_'
'two'
'tu'
'towels'
'tiresome_'
'tiled_'
'thi'
'tesco_'
'ters_'
'target_'
'ta'
'switzerland_'
'suspicious_'
'study_'
'staystaff_'
'speech_'
'specialist_'
'smoky_'
'sky'
'shiny_'
'sever'
'servicewe_'
'scal'
'runway_'
'rosa_'
'robbed_'
'rit'
'rinse_'
'ridge_'
'revealed_'
'rest'
'respite_'
'renewed_'
'released_'
'redeem_'
'randomly_'
'producing_'
'printers_'
'prestigious_'
'ppl_'
'pot'
'planner_'
'pic_'
'pesos_'
'pedestrian_'
'pearl_'
'patty_'
'particulary_'
'pamper_'
'pal'
'organiser_'
'orchard_'
'onethe_'
'ome'
'og'
'obtaining_'
'oak_'
'novotels_'
'notifying_'
'non'
'nightstand_'
'nas'
'mid'
'mebut_'
'mealtimes_'
'materialised_'
'manner'
'linger_'
'liner_'
'lin_'
'lightning_'
'lethargic_'
'ledge_'
'landscaped_'
'labor_'
'kyle_'
'killer_'
'keycards_'
'inwe_'
'involving_'
'investigation_'
'insert_'
'increasing_'
'inconsistencies_'
'impresses_'
'ics_'
'hygienic_'
'hummus_'
'hum_'
'housekeeping'
'hourly_'
'homeless_'
'helpfula'
'hei'
'hail_'
'gun'
'glazed_'
'geo'
'frustratingly_'
'front'
'friendlywe_'
'fox_'
'forming_'
'fo'
'flown_'
'fit'
'fifty_'
'fer'
'expedite_'
'exhibited_'
'exclusively_'
'eve'
'eu_'
'enforce_'
'elevator'
'effortlessly_'
'eatery_'
'drier_'
'downfall_'
'dissapointment_'
'dinnerthe_'
'def_'
'debate_'
'dea'
'dayand_'
'dat'
'crusty_'
'cp_'
'cottages_'
'consumption_'
'confirmations_'
'conciege_'
'coco_'
'coaching_'
'chester_'
'checkout'
'chardonnay_'
'centara_'
'career_'
'cantonese_'
'cancelling_'
'calamari_'
'cairo_'
'c'
'butts_'
'butservice_'
'buts'
'brownie_'
'bonjour_'
'bon_'
'bitterly_'
'bility_'
'bella_'
'begging_'
'balloons_'
'attribute_'
'athens_'
'aswell_'
'assistants_'
'ari'
'argumentative_'
'anything'
'antique_'
'andon_'
'andeven_'
'amber_'
'after'
'advert_'
'admire_'
'accross_'
'accents_'
'able'
'\u_'
'90'
'41_'
'29th_'
'20mins_'
' - - _'
' , , , _'
'yand_'
'works'
'wider_'
'wer'
'wasvery_'
'urns_'
'unsafe_'
'unruly_'
'underwear_'
'turnaround_'
'ts'
'trusted_'
'tre'
'trapped_'
'toy_'
'tool_'
'toll_'
'timer_'
'tiffany_'
'tablets_'
'system'
'swift'
'survive_'
'surrounds_'
'supplier_'
'sunbathing_'
'sub'
'sty'
'struggles_'
'ston_'
'stafff_'
'sta'
'shutters_'
'shipped_'
'seaplane_'
'schedules_'
'rob'
'road'
'rly_'
'restuarants_'
'resetting_'
'reimbursed_'
'registering_'
'refit_'
'recurring_'
'recommendable_'
'recomend_'
'rc'
'ranked_'
'rains_'
'quinta_'
'quickly'
'qu'
'prides_'
'praised_'
'plantation_'
'placement_'
'pitched_'
'pinching_'
'pilot_'
'pharmacy_'
'ph_'
'para'
'panama_'
'ox_'
'oversold_'
'onions_'
'oma'
'officers_'
'occassion_'
'objective_'
'nly_'
'nit'
'nancy_'
'mus'
'milk'
'mickey_'
'mental_'
'memberthe_'
'mayfair_'
'mat'
'marine_'
'lt'
'loaned_'
'line'
'leeds_'
'lap'
'kindest_'
'jungle_'
'jos'
'jesus_'
'itwe_'
'ironed_'
'iously_'
'investigated_'
'int_'
'insulted_'
'inflated_'
'inevitable_'
'incentive_'
'inbut_'
'ii'
'idiots_'
'idea'
'ich_'
'ically_'
'horse_'
'hordes_'
'honest'
'hesitant_'
'helpful'
'helful_'
'handyman_'
'haggis_'
'guest'
'gown_'
'ght'
'gf_'
'gan'
'gained_'
'fyi_'
'fy_'
'furthest_'
'flavoursome_'
'favorable_'
'faux_'
'farm_'
'extract_'
'expressing_'
'expe'
'exchanges_'
'era'
'enclosed_'
'downs_'
'donna_'
'don'
'dnd_'
'disability_'
'ding'
'destinations_'
'defiantly_'
'darn_'
'cy'
'crumble_'
'criticisms_'
'creams_'
'cre'
'couteous_'
'coral_'
'convert_'
'controlling_'
'cons'
'co'
'cleanest_'
'cking_'
'circa_'
'chest_'
'cheap'
'chap'
'cellphone_'
'ce'
'cat'
'camping_'
'cam_'
'cal'
'burst_'
'bruno_'
'brighton_'
'brightly_'
'briefing_'
'breakdown_'
'breakast_'
'break'
'bread'
'booths_'
'boast_'
'blessing_'
'blatantly_'
'bizarrely_'
'bing_'
'bel_'
'bag'
'ava'
'atlantis_'
'arn'
'areas'
'apps_'
'appallingly_'
'annoy_'
'ani'
'andmy_'
'againand_'
'@_'
'?'
':) _'
'59_'
'50th_'
'27'
'!!. _'
' ?, _'
' . !_'
' ! " _'
'www_'
'workshop_'
'wed_'
'warren_'
'wal'
'waiting'
'vit'
'vist'
'vest'
'verbally_'
'vent'
'ug'
'twice'
'tub'
'training'
'trails_'
'topnotch_'
'toe_'
'tis'
'ting'
'therebut_'
'tablecloths_'
'swept_'
'surfaces_'
'supreme_'
'succeed_'
'substantially_'
'stu'
'sts_'
'stewed_'
'stayi_'
'spilt_'
'soo_'
'smo'
'sleepy_'
'sleepers_'
'site'
'sip_'
'sin'
'shri'
'shifted_'
'serene_'
'sends_'
'sa'
'rte'
'rocket_'
'retained_'
'response'
'resorted_'
'rese'
'relayed_'
'regulate_'
'ree'
'rede'
'rea'
'rattling_'
'ration_'
'rand_'
'protested_'
'proffessional_'
'principle_'
'precisely_'
'pompous_'
'poland_'
'poker_'
'please'
'platters_'
'pati'
'past'
'ow'
'overbooking_'
'overallthe_'
'or'
'oozes_'
'neutral_'
'nearer_'
'mono'
'mn'
'mince_'
'mildew_'
'mechanism_'
'mcdonald_'
'mayo_'
'mask_'
'mans_'
'makeshift_'
'madam_'
'luggage'
'legal_'
'lapse_'
'keys'
'jars_'
'ively_'
'ius_'
'issues'
'inventory_'
'intimidating_'
'interrupt_'
'intentions_'
'insulated_'
'instructors_'
'insect_'
'inordinate_'
'ingand_'
'im_'
'homey_'
'hilton'
'hill'
'heaving_'
'hab'
'gratitude_'
'grandson_'
'goody_'
'go'
'gm'
'gli'
'glacier_'
'gil'
'g'
'funds_'
'friendlystaff_'
'friendlybut_'
'freshness_'
'francis_'
'ff'
'favourites_'
'ey'
'exude_'
'exhibition_'
'excitement_'
'everywhere'
'esse'
'ert'
'enormously_'
'ena'
'edand_'
'earnest_'
'dry'
'dre'
'dramatic_'
'discovery_'
'disc'
'disapointed_'
'dimly_'
'diminished_'
'dh'
'detracted_'
'd'
'cra'
'conclude_'
'compromised_'
'comprised_'
'comings_'
'come'
'colombo_'
'col'
'cokes_'
'chic'
'che_'
'butt_'
'bot'
'born_'
'bond_'
'boats_'
'blasting_'
'bitten_'
'beth_'
'bait_'
'ashtray_'
'arena_'
'apprehensive_'
'ankle_'
'amicable_'
'aman'
'adjustments_'
'69_'
'44'
'2008_'
'1030_'
') , _'
'!!!_'
' % '
' ! , _'
'… _'
'yr'
'wifithe_'
'wife'
'whit'
'week'
'washcloth_'
'waikiki_'
'wai'
'vol'
'vintage_'
'verything_'
'val'
'vaguely_'
'ures_'
'ured_'
'upload_'
'unparalleled_'
'unmatched_'
'undermanned_'
'un'
'uch_'
'tru'
'translate_'
'tothe_'
'tat'
'tai_'
'tag'
'submitted_'
'strategy_'
'straighten_'
'stove_'
'stole_'
'stocks_'
'stays'
'state'
'standard'
'spoiling_'
'specify_'
'souvenir_'
'soured_'
'snafu_'
'smiling'
'shares_'
'shameful_'
'shady_'
'sex_'
'servicestaff_'
'sergio_'
'selves_'
'same'
'russia_'
'ru'
'rod_'
'rival_'
'rge_'
'rev'
'reuse_'
'ret'
'restaurants'
'reg'
'recompense_'
'reco'
'receives_'
'raspberry_'
'rails_'
'purse_'
'pt_'
'prop'
'profits_'
'professionalthe_'
'prices'
'ple'
'plat'
'petit_'
'peacock_'
'pe'
'pans_'
'palate_'
'owed_'
'overtly_'
'outs'
'os'
'ort'
'olds_'
'old'
'oks'
'nw'
'notch'
'nh'
'nad'
'mini'
'memberi_'
'medicine_'
'malmaison_'
'mala'
'lythe_'
'lor'
'lonely_'
'loft_'
'lobby'
'lite_'
'lie'
'leave'
'lea'
'lan'
'lady'
'ku'
'kleenex_'
'kinks_'
'joy'
'joel_'
'ji_'
'invasive_'
'internally_'
'inter_'
'intense_'
'insane_'
'ington_'
'imo_'
'ile'
'ik'
'ignorance_'
'ifi_'
'hu_'
'hotelier_'
'hooked_'
'gulf_'
'grew_'
'gray_'
'gon_'
'gi'
'ghost_'
'gan_'
'ft'
'fron_'
'fro'
'fresher_'
'format_'
'foodand_'
'fist_'
'fied_'
'fen'
'fee'
'fairthe_'
'excruciatingly_'
'exc'
'everyone'
'ets_'
'err'
'eni'
'ein'
'dynamic_'
'duo_'
'ds'
'drown_'
'drains_'
'dra'
'do'
'dn'
'dispensed_'
'destroyed_'
'demo'
'defective_'
'dear'
'dallas_'
'cubicle_'
'cracks_'
'court'
'county_'
'correcting_'
'contracted_'
'conflicting_'
'compliant_'
'classical_'
'circular_'
'cious_'
'cindy_'
'choice'
'chemicals_'
'chemical_'
'chauffeur_'
'characterless_'
'celebrity_'
'caucasian_'
'cape_'
'ca'
'business'
'border_'
'billi'
'bei'
'battered_'
'barrel_'
'bare'
'baguette_'
'audible_'
'attracts_'
'annexe_'
'andyou_'
'amo'
'ame_'
'ah'
'accessories_'
'43_'
'28'
'10pm_'
'..._'
' .[ _'
' ......... _'
' .) _'
' ( ! )_'
' ! ! ! )_'
' ! '
'yi'
'yan'
'xi'
'wristbands_'
'worth'
'workingand_'
'wit'
'whe'
'vincent_'
'ut'
'usd'
'untidy_'
'unt'
'unorganised_'
'unmotivated_'
'uninformed_'
'undi'
'ue'
'tou'
'topic_'
'tolerated_'
'tion'
'timeand_'
'threadbare_'
'thoughtfully_'
'thani_'
'texted_'
'tand_'
'tan'
'tail_'
'tai'
'sponge_'
'space'
'smashing_'
'sm_'
'situation'
'scrub_'
'scratched_'
'scenic_'
'sala'
'roomit_'
'roombreakfast_'
'rod'
'roadside_'
'ring'
'rie_'
'rested_'
'resourceful_'
'rescued_'
'reflecting_'
'recreation_'
'ranges_'
'quietness_'
'quietest_'
'qualitythe_'
'pur'
'ps'
'prof'
'predominantly_'
'poorer_'
'plus'
'pinot_'
'pina_'
'petals_'
'pes'
'persuaded_'
'perfume_'
'outstanding'
'ook_'
'only'
'olivia_'
'oa'
'ntly_'
'nother_'
'north'
'ney_'
'newest_'
'nces_'
'musicians_'
'minority_'
'midtown_'
'make'
'loaf_'
'life'
'lia_'
'lease_'
'leaning_'
'layer_'
'laughter_'
'latch_'
'kitchen'
'kit'
'kin'
'killing_'
'kathy_'
'introducing_'
'intervene_'
'interruption_'
'ink_'
'ines_'
'indulgent_'
'illy_'
'ii_'
'ig'
'hotline_'
'heart'
'gt'
'granddaughter_'
'goodhowever_'
'goodb'
'god'
'ger_'
'ga_'
'fundamental_'
'friendlyand_'
'freeze_'
'formula_'
'featuring_'
'fe_'
'facility'
'exe'
'eventhough_'
'evacuate_'
'ents_'
'elliptical_'
'eck_'
'eas'
'drunks_'
'dresses_'
'downthe_'
'dot'
'discourteous_'
'diming_'
'dig'
'devoted_'
'deny_'
'delicate_'
'decade_'
'cosmetic_'
'cornflakes_'
'cor'
'contractors_'
'contractor_'
'completion_'
'combinations_'
'colored_'
'cn'
'clubhouse_'
'claire_'
'chunky_'
'chef'
'checkouts_'
'chats_'
'chateau_'
'carafe_'
'captains_'
'butthey_'
'bustle_'
'buffetthe_'
'bru'
'brand'
'body'
'boarded_'
'bo'
'bir'
'bil'
'beach'
'bb'
'bas'
'backand_'
'astounding_'
'app'
'anonymous_'
'ani_'
'andthat_'
'andin_'
'andalso_'
'amthe_'
'amp'
'al'
'afternoon'
'accommodating'
'ac'
':'
'79_'
'66_'
'5the_'
'1970s_'
'.'
'# _'
' ” '
' ; ( _'
' ... !_'
' .--_'
'yl'
'worlds_'
'windsor_'
'weakest_'
'waterfall_'
'wasa'
'wary_'
'volleyball_'
'vendor_'
'ven'
'uswe_'
'usual'
'usekeeping_'
'upt'
'unsympathetic_'
'unheard_'
'und_'
'tting_'
'treat'
'trans'
'trading_'
'tor_'
'tongs_'
'thy_'
'thing'
'ter'
'tapping_'
'suspected_'
'sunlight_'
'summon_'
'summed_'
'stools_'
'stink_'
'step'
'starbuck_'
'staid_'
'spar'
'sp'
'som'
'snappy_'
'slowthe_'
'shooting_'
'seat'
'seaside_'
'scenario_'
'savings_'
'saunas_'
'sangria_'
'sands_'
'sal'
'sab'
'roses_'
'roome'
'rl'
'restoration_'
'respective_'
'resi'
'removal_'
'regulations_'
'ree_'
'reccomend_'
'reboot_'
'ravioli_'
'raved_'
'racks_'
'quer'
'pun'
'proving_'
'prints_'
'prep_'
'postcards_'
'ports_'
'port'
'playa_'
'philippines_'
'per'
'pavilion_'
'party'
'participate_'
'pala'
'outer_'
'oti'
'ornate_'
'oned_'
'ole_'
'occasions'
'nos'
'norway_'
'mos'
'moldy_'
'michigan_'
'mart_'
'macaroons_'
'lu'
'loo'
'logic_'
'lieu_'
'lids_'
'lick_'
'lei'
'kensington_'
'johnny_'
'jamaican_'
'inexperience_'
'illness_'
'ikea_'
'hydro_'
'hours'
'hmmm_'
'hints_'
'hil'
'hawaiian_'
'handwritten_'
'ha'
'grow_'
'generosity_'
'gas'
'ful'
'fresh'
'freebies_'
'fraction_'
'fiji_'
'exec'
'exceeding_'
'evenings'
'evacuation_'
'esh_'
'epi'
'ensued_'
'elo'
'elites_'
'ek'
'ei'
'eddie_'
'easiest_'
'dy'
'drained_'
'diversity_'
'discreetly_'
'diluted_'
'demonstrate_'
'delish_'
'dee_'
'danger_'
'dal'
'cur'
'cue_'
'crowded'
'crossing_'
'cough_'
'corporation_'
'confrontational_'
'competing_'
'communicative_'
'com'
'cliff_'
'ci'
'chunks_'
'cheese'
'cer'
'cautious_'
'cancellations_'
'cabbage_'
'cab'
'butt'
'butand_'
'bummer_'
'bul'
'buggies_'
'bucharest_'
'breakfest_'
'breakfastwas_'
'brea'
'bourbon_'
'boom_'
'blessed_'
'ble'
'bestthe_'
'bedtime_'
'becky_'
'avi'
'audacity_'
'ates_'
'assurances_'
'asa'
'arrivalthe_'
'around'
'ao'
'anticipation_'
'annoyances_'
'ang'
'andb'
'andalthough_'
'amend_'
'alexander_'
'ado'
'ade_'
'abbey_'
'a1_'
'61'
'34'
'30pm'
'220_'
' ’ , _'
' ? ? ? ? ?_'
' ) .- _'
' ! ! ! '
'yog'
'yd'
'yal'
'woo'
'win'
'wheels_'
'walkways_'
'vil'
'vans_'
'vain_'
'va'
'useable_'
'uo'
'trace_'
'tommy_'
'tolerant_'
'toasts_'
'thurs_'
'thereby_'
'technicians_'
'taylor_'
'synthetic_'
'swear_'
'swe'
'stor'
'stop'
'stones_'
'stone'
'staybridge_'
'stature_'
'stat'
'stank_'
'ssa_'
'sporting_'
'specialties_'
'specialities_'
'sofia_'
'snap_'
'sing'
'shoved_'
'senses_'
'selfish_'
'seasoning_'
'school'
'salted_'
'sally_'
'rum'
'roomthey_'
'rich'
'restore_'
'resort'
'regal_'
'ral'
'raj_'
'rad'
'queue'
'questionnaire_'
'promptness_'
'proficiency_'
'prize_'
'prince_'
'prebooked_'
'politethe_'
'piling_'
'piles_'
'pigeon_'
'pho'
'periodically_'
'pcs_'
'patronizing_'
'pass'
'overnight'
'omlets_'
'note'
'nf'
'neil_'
'naked_'
'mundane_'
'monopoly_'
'mobbed_'
'mint'
'mie'
'merlot_'
'mates_'
'lynn_'
'lon_'
'logical_'
'lit'
'les'
'lee'
'lebanese_'
'latin_'
'lakeside_'
'la'
'krystal_'
'itstaff_'
'ita_'
'insistence_'
'inclusives_'
'inclusion_'
'ih'
'ien'
'how'
'hotela'
'hm'
'hich_'
'hanger_'
'hai'
'h10_'
'guilty_'
'guacamole_'
'grouchy_'
'gay_'
'garnish_'
'from'
'flavors_'
'fishing_'
'finebut_'
'exhibit_'
'ese_'
'erthe_'
'epic_'
'entertainments_'
'end'
'employs_'
'emi'
'elli'
'el'
'duty'
'drilled_'
'dreadfully_'
'die'
'dial'
'detector_'
'decorative_'
'deal'
'daya'
'dana_'
'czech_'
'cycle_'
'curiously_'
'crisis_'
'creamy_'
'cour'
'conci'
'conceige_'
'commendation_'
'colle'
'cle'
'clarion_'
'clarification_'
'chirpy_'
'chickens_'
'chai_'
'call'
'butnot_'
'butbut_'
'building'
'brushing_'
'breakfasta'
'bracket_'
'boxing_'
'booked'
'blazing_'
'blatant_'
'belgian_'
'bedroom'
'bea'
'bat_'
'bar'
'b'
'autumn_'
'aussie_'
'aud'
'arrived'
'armchairs_'
'ara_'
'ara'
'ar'
'answer'
'anger_'
'andthen_'
'andreception_'
'ambient_'
'airplane_'
'administrative_'
'acoustics_'
'acc'
'aca'
'abit_'
'89_'
'52_'
'2x_'
'2007_'
')- _'
' ? ! ?_'
' .......... _'
' ) ,_'
' " ?_'
'year'
'xt'
'wipes_'
'wildly_'
'wh'
'westins_'
'wass'
'walter_'
'vision_'
'videos_'
'veal_'
'upgrade'
'uous_'
'unfailing_'
'una'
'ui'
'twi'
'tv'
'tubes_'
'try'
'tripped_'
'tri'
'toddlers_'
'to'
'tide_'
'thread_'
'thermal_'
'testing_'
'tendency_'
'teen_'
'teddy_'
'tara_'
'tainted_'
'tab'
'supervise_'
'sundries_'
'sty_'
'statements_'
'stares_'
'stand'
'staffwas_'
'staffso_'
'squashed_'
'sprucing_'
'sprouts_'
'spreads_'
'sprawling_'
'splashing_'
'sop'
'sooooo_'
'skeleton_'
'shore_'
'sho'
'seniors_'
'scripted_'
'scolded_'
'saw'
'saucer_'
'sashimi_'
'runners_'
'rooma'
'ri'
'retains_'
'restrictive_'
'rep'
'receptionist'
'realistic_'
'rattled_'
'rat'
'racket_'
'puerto_'
'pti'
'protocol_'
'profuse_'
'proc'
'pretended_'
'prepares_'
'preparations_'
'pon_'
'pon'
'plonked_'
'plight_'
'playground_'
'plan'
'placethe_'
'pin'
'percentage_'
'paramount_'
'panorama_'
'pan'
'pale_'
'pai'
'paddington_'
'oyster_'
'overt'
'overstretched_'
'overboard_'
'ova'
'ous'
'our'
'others'
'orth'
'orders'
'options'
'oni_'
'omi'
'odds_'
'ocean'
'need'
'mt'
'mor'
'minimize_'
'miniature_'
'midland_'
'mes'
'meg'
'me'
'mattered_'
'malls_'
'loop_'
'log'
'lk'
'lipstick_'
'lily_'
'liberty_'
'level'
'lending_'
'laws_'
'larry_'
'landscape_'
'kr'
'kil'
'kb'
'kat'
'kam'
'ka'
'joanne_'
'inti'
'interminable_'
'inso_'
'insists_'
'inevitably_'
'improves_'
'imprint_'
'impressed'
'imho_'
'ime_'
'ick_'
'hyde_'
'husband'
'housed_'
'heartbeat_'
'heaps_'
'headless_'
'gs'
'gouging_'
'goo'
'gna'
'girl'
'fussed_'
'fr'
'fond_'
'flooding_'
'fireplaces_'
'fiona_'
'fancied_'
'exploit'
'eveningand_'
'evacuated_'
'empty'
'emp'
'eme'
'ema'
'elevators'
'eduardo_'
'ect'
'dual_'
'dri'
'dor'
'div'
'direct'
'dimed_'
'difference'
'deliver'
'delicacies_'
'corner'
'cop'
'cook'
'constructed_'
'congregate_'
'concession_'
'compassion_'
'cold'
'cockroach_'
'clocks_'
'clock'
'classed_'
'clarity_'
'ck'
'ching_'
'chaps_'
'change'
'chances_'
'cappucino_'
'cappuccinos_'
'canadians_'
'came'
'businessmen_'
'buffalo_'
'brightened_'
'briefed_'
'bold_'
'blueberry_'
'blo'
'birthday'
'bicycles_'
'beni'
'bemused_'
'beating_'
'baskets_'
'authorised_'
'authorise_'
'attention'
'atmosphere'
'astonishing_'
'ars'
'aris'
'aran'
'appearances_'
'appa'
'apology'
'antly_'
'ank_'
'amazingthe_'
'allways_'
'airports_'
'acu'
'ach_'
'abo'
'56_'
'52'
'51_'
'450_'
'199'
'198'
'08'
'. ) _'
'" '
' :-'
' : + _'
' .“ _'
' ..., _'
' , ” _'
' ) .._'
'ym'
'yf'
'ye'
'wraps_'
'wolf_'
'windows'
'wes'
'werevery_'
'werethe_'
'ward_'
'waitress'
'vere_'
'val_'
'ust'
'uss'
'untill_'
'unse'
'unenthusiastic_'
'unclean_'
'unb'
'tut'
'trickle_'
'trained'
'thisbut_'
'therea'
'tha_'
'tation_'
'sweetest_'
'surprise'
'suns'
'sud'
'succeeded_'
'stupidly_'
'stuffing_'
'strongest_'
'stamp_'
'stamford_'
'staffall_'
'sse_'
'sre'
'squeaky_'
'squa'
'spring'
'sonia_'
'smooth'
'slapped_'
'ski'
'seoul_'
'sen'
'scuba_'
'scope_'
'satff_'
'sachet_'
'rry_'
'rosie_'
'roger_'
'rn_'
'rf'
'reviews'
'resturaunt_'
'restrooms_'
'resembles_'
'rer'
'renowned_'
'regarded_'
'redo_'
'recharge_'
'recep'
'reappeared_'
'ral_'
'qua'
'py_'
'ption_'
'protection_'
'platform_'
'plate'
'photocopy_'
'phe'
'pest_'
'personal'
'pen'
'passive_'
'parkers_'
'paintings_'
'paced_'
'overshadowed_'
'outside'
'outbut_'
'orient_'
'organizers_'
'ool_'
'ona'
'oli'
'okand_'
'ode'
'occurs_'
'occupying_'
'numbered_'
'nted_'
'nne'
'nightbut_'
'nationality_'
'nation_'
'mushy_'
'motorcycle_'
'monte'
'mont'
'moist_'
'misinformed_'
'mishap_'
'mir'
'millions_'
'mile'
'mer_'
'med'
'mas_'
'mariott_'
'managements_'
'malta_'
'malaysian_'
'made'
'lyn'
'loa'
'limiting_'
'lighted_'
'lake'
'kur'
'kiwi_'
'ket'
'kel'
'ke'
'jury_'
'judy_'
'joshua_'
'jon_'
'jen_'
'jar'
'itso_'
'its'
'iss'
'ising_'
'isc'
'iri'
'ipa'
'int'
'insanely_'
'infectious_'
'income_'
'ign'
'hun'
'hr'
'home'
'hkd_'
'hindsight_'
'hile_'
'her'
'he'
'ham'
'greg_'
'greatstaff_'
'grat'
'goodthey_'
'goodso_'
'goodie_'
'goodbreakfast_'
'goodall_'
'globe_'
'given'
'gh'
'ga'
'fuse_'
'freshened_'
'franc'
'foreigner_'
'forecast_'
'focusing_'
'fobbed_'
'flu'
'fixture_'
'films_'
'ffe'
'farm'
'facilitated_'
'ext_'
'expedient_'
'exce'
'ew_'
'everthing_'
'eno'
'eleven_'
'egg'
'eg'
'eda'
'economical_'
'eaton_'
'doorbell_'
'dog'
'disappears_'
'dil'
'diamonds_'
'depended_'
'departure'
'delights_'
'deleted_'
'defined_'
'defense_'
'deduct_'
'dean_'
'cushion_'
'criticise_'
'creaky_'
'crawl_'
'corona'
'convincing_'
'converter_'
'cm_'
'christopher_'
'cheers_'
'cheated_'
'cavernous_'
'cattle_'
'buton_'
'bureaucratic_'
'bud_'
'brittany_'
'bordered_'
'bla'
'bkk_'
'bhutan_'
'bear'
'bc_'
'base'
'barra'
'ban_'
'badges_'
'awa'
'attentivethe_'
'attendent_'
'art'
'anyway'
'anchorage_'
'ami_'
'alone'
'airco_'
'agenda_'
'afterthought_'
'admission_'
'adapted_'
'acropolis_'
'ack_'
'ace'
'abs'
'55'
'04_'
', '
'*_'
' ? - _'
' ) ...._'
' ( ? )_'
' ! )'
' ! !'
'yt'
'youngest_'
'workthe_'
'wifes_'
'wi'
'welsh_'
'welfare_'
'wayne_'
'wasn_'
'walkie_'
'vital_'
'vir'
'vin'
'validate_'
'ups'
'upp'
'unsurpassed_'
'underp'
'unc'
'unacceptably_'
'uld_'
'uffet_'
'ud'
'tunnel_'
'trunk_'
'tripping_'
'town'
'together'
'tn'
'tired'
'teaspoons_'
'taipei_'
'tables'
'supremely_'
'sunsets_'
'su'
'styrofoam_'
'striving_'
'strives_'
'strikes_'
'standards'
'stairwell_'
'staffthere_'
'stables_'
'spraying_'
'spiced_'
'soviet_'
'soundproof_'
'sole'
'snow'
'snd_'
'sma'
'slowness_'
'sliders_'
'sli'
'sleeps_'
'sipping_'
'shirley_'
'shar'
'sett'
'season'
'sali'
's'
'rub_'
'rt'
'rows_'
'rough'
'rou'
'rotating_'
'roomsand_'
'ron'
'roller_'
'robbery_'
'roa'
'rip'
'rig'
'rica_'
'rian_'
'revolting_'
'retiring_'
'reserv'
'remotes_'
'recognising_'
'ragged_'
'rafael_'
'rac'
'quibbles_'
'problems'
'predicament_'
'pong_'
'pokey_'
'poi'
'pn'
'plusses_'
'pil'
'penthouse_'
'pecial_'
'pb'
'parcs_'
'panini_'
'panache_'
'overrated_'
'outing_'
'oul'
'oops_'
'oi'
'offthe_'
'offer'
'occupy_'
'nthe_'
'nina_'
'nickle_'
'net'
'nde'
'ncp_'
'nc'
'nashville_'
'nap'
'nan_'
'myself'
'muddled_'
'mouldy_'
'motto_'
'modernized_'
'mia_'
'merit_'
'mee'
'meaningful_'
'masters_'
'mare_'
'marc_'
'mane'
'manageable_'
'man'
'males_'
'luxe_'
'lugging_'
'ls'
'lock'
'location'
'loc'
'lid'
'lb'
'lawns_'
'labeled_'
'lab'
'km_'
'kly_'
'kl'
'kar'
'kal'
'junction_'
'juggling_'
'joyce_'
'jee'
'jake_'
'ists_'
'issuing_'
'ire'
'involves_'
'involve_'
'intervals_'
'interests_'
'insincere_'
'ini'
'inhospitable_'
'influenced_'
'ined_'
'indeed'
'incidental_'
'immense_'
'ids_'
'hug_'
'hor'
'hoo'
'hix_'
'hit'
'helpul_'
'helpfull'
'heat'
'heartfelt_'
'has'
'hal'
'gyms_'
'grumble_'
'gre'
'gou'
'goodcheck_'
'goo_'
'gob'
'glass'
'ghe'
'generated_'
'gadgets_'
'gabriel_'
'frying_'
'fridays_'
'forewarned_'
'floors'
'flask_'
'flagship_'
'fish'
'females_'
'fastthe_'
'esta'
'esi'
'ero'
'ern'
'ent'
'ens_'
'els'
'eir_'
'ei_'
'ees_'
'education_'
'dt'
'dro'
'drake_'
'dos'
'dorm_'
'doors'
'documentation_'
'disposal_'
'disinterest_'
'discrepancy_'
'disco'
'disapointing_'
'dips_'
'din'
'diligently_'
'dialed_'
'detailing_'
'default_'
'de'
'dared_'
'dan'
'dam'
'customers'
'cus'
'cu'
'cs'
'cry_'
'cri'
'crashing_'
'crashed_'
'cow'
'countryside_'
'convivial_'
'conversational_'
'consumer_'
'consume_'
'confuse_'
'confi'
'concluded_'
'concerige_'
'clu'
'civilised_'
'ci_'
'chilling_'
'cher'
'chain'
'center'
'cbd_'
'cate'
'cartons_'
'cardi'
'cap'
'butp'
'buti'
'busyso_'
'bust'
'breezy_'
'breakfaste'
'breakers_'
'bow_'
'bottle'
'bolted_'
'bless_'
'biz_'
'bet'
'benchmark_'
'beakfast_'
'awful'
'awe_'
'awaken_'
'ats_'
'assessment_'
'arguments_'
'apt_'
'antiquated_'
'ante'
'anni'
'andt'
'andre_'
'ambi'
'alexis_'
'ain'
'agra_'
'againstaff_'
'aga'
'ag'
'affairs_'
'adapters_'
'ada_'
'ace_'
'accomplish_'
'abrasive_'
'aberdeen_'
'a'
'72'
'71'
'40pm_'
'300'
'201'
'200'
'197'
'15min_'
'10am_'
'/'
'-$_'
' .....'
' .# _'
' " .'
' ! " ._'
' ! ! ! ) ._'
'zurich_'
'zi'
'ys'
'yp'
'ws'
'wotif_'
'window'
'winded_'
'will'
'whomever_'
'whip_'
'whim_'
'wer_'
'wears_'
'wealth_'
'wanna_'
'wall'
'vic'
'veri'
'vanilla_'
'valve_'
'usi_'
'urs_'
'urine_'
'ure'
'unsuccessfully_'
'unhurried_'
'uncooperative_'
'ues_'
'ual_'
'ture_'
'tur'
'troublesome_'
'tori'
'toasting_'
'tle_'
'tig'
'tia_'
'thumping_'
'thu'
'throat_'
'they'
'thethe_'
'thereof_'
'terraces_'
'tents_'
'telephones_'
'teenager_'
'sweetheart_'
'submit_'
'stumbled_'
'stru'
'string_'
'sting'
'stench_'
'sted_'
'standby_'
'spends_'
'speed'
'spaghetti_'
'spaced_'
'souvenirs_'
'snack'
'sna'
'slowand_'
'sl'
'sie'
'shannon_'
'shack_'
'sensatori_'
'selection'
'sci'
'scheduling_'
'saucers_'
'sanctuary_'
'rusty_'
'ruining_'
'rous_'
'round'
'roomc'
'rocky_'
'robust_'
'robin_'
'ripping_'
'rie'
'relied_'
'reliably_'
'relate_'
'rei'
'regretted_'
'redecorated_'
'recption_'
'receiption_'
'rebooked_'
'reassigned_'
'reas'
'raph'
'rand'
'qual'
'pud'
'pu'
'promoting_'
'projector_'
'prevents_'
'premiere_'
'pours_'
'populated_'
'pls_'
'pleasantness_'
'picchu_'
'pha'
'perc'
'pee'
'parmesan_'
'papaya_'
'oysters_'
'outfits_'
'orthe_'
'ord'
'opulence_'
'ops_'
'oon_'
'on'
'oki_'
'offerred_'
'occitane_'
'objected_'
'nia_'
'newish_'
'nets_'
'nescafe_'
'nei'
'munchies_'
'mixup_'
'mistake'
'mil'
'meat'
'measured_'
'mani'
'mangers_'
'mam'
'maintainance_'
'machu_'
'luster_'
'lover_'
'lot'
'look'
'loi'
'locationthe_'
'lli'
'lle'
'lis'
'lineup_'
'lifestyle_'
'let'
'lessly_'
'less'
'lean'
'layers_'
'laos_'
'lac'
'kumar_'
'korea_'
'ker_'
'kebab_'
'katrina_'
'ive'
'israel_'
'ional_'
'intern_'
'interim_'
'insurance_'
'instaff_'
'ingi_'
'ill'
'ike_'
'ika_'
'ier'
'ich'
'ib'
'iar'
'hyatts_'
'hum'
'hs'
'hotspot_'
'hl'
'hid_'
'hepful_'
'hearts_'
'hauling_'
'hale'
'h'
'gue'
'grey'
'gree'
'gly_'
'gle'
'genius_'
'general'
'gen_'
'gaming_'
'frin'
'forn'
'forgiven_'
'fore_'
'fle'
'fizzy_'
'fil'
'fasti'
'extravagant_'
'ext'
'expertise_'
'exchanging_'
'ev'
'ett'
'esh'
'esc'
'erin_'
'erica_'
'enters_'
'emphasize_'
'elevated_'
'ela_'
'edi'
'ec'
'easy'
'e'
'drinker_'
'downand_'
'doorway_'
'donald_'
'dl'
'divided_'
'disdain_'
'discouraged_'
'disa'
'dilemma_'
'dha'
'df'
'definetly_'
'decked_'
'dark'
'dam_'
'creep'
'creamers_'
'craig_'
'cp'
'coworkers_'
'cousin_'
'courteous'
'course'
'consummate_'
'confess_'
'conc'
'compulsory_'
'compound_'
'complied_'
'colorado_'
'coldly_'
'coffeethe_'
'cleanness_'
'cked_'
'cis'
'chutney_'
'chunk_'
'carolina_'
'carla_'
'caramel_'
'can'
'cale'
'bust_'
'buff'
'bu'
'bs'
'brilliant'
'borrowed_'
'bolt_'
'blasted_'
'bl'
'betty_'
'betterthe_'
'belongs_'
'belmond_'
'begged_'
'barriers_'
'bari_'
'bake_'
'awkwardly_'
'aving_'
'aunt_'
'attracting_'
'attired_'
'ation'
'arthur_'
'ark'
'arc'
'aquarium_'
'ano_'
'announce_'
'annie_'
'andre'
'andas_'
'anantara_'
'amin'
'aly_'
'alleged_'
'alle'
'alcove_'
'alberto_'
'ake_'
'agnes_'
'af'
'aesthetics_'
'ae'
'advertisement_'
'aco'
'aci'
'abu'
'abound_'
'abb'
'ab_'
'78_'
'5000_'
'360_'
'3000_'
'%'
' .( '
' * '
' ! ..._'
'€'
'zoe_'
'zip_'
'zar'
'ywe_'
'youthful_'
'yar'
'y'
'word'
'wood'
'wilson_'
'whole'
'wetherspoons_'
'watt'
'waters'
'washroom_'
'warranted_'
'warms'
'war'
'walk'
'waiter'
'vera_'
'vendors_'
'valerie_'
'vable_'
'untrue_'
'untouched_'
'unstaffed_'
'unit'
'unforgivable_'
'ume'
'transferring_'
'transactions_'
'tovar_'
'tos'
'toni_'
'tokens_'
'toilet'
'tl'
'timeshares_'
'timei_'
'tid'
'threat_'
'thistle_'
'thereso_'
'theresa_'
'terra'
'surgery_'
'sum'
'suff'
'subdued_'
'stodgy_'
'stinks_'
'sting_'
'stayo'
'stationed_'
'staple_'
'sse'
'sparkle_'
'soy_'
'soiled_'
'smoother_'
'slowed_'
'signals_'
'shoot_'
'shocker_'
'shipping_'
'shel'
'shan'
'sewage_'
'servicethere_'
'seg'
'scra'
'saver_'
'saturdays_'
'salami_'
'rk'
'rising_'
'restaurent_'
'resent_'
'republic_'
'rem'
'relying_'
'reinforced_'
'refurbed_'
'refunding_'
'reeked_'
'recycled_'
'reci'
'rec_'
'really'
'ray'
'rapport_'
'ran'
'rammed_'
'rag_'
'rabbit_'
'priv'
'pressured_'
'preferring_'
'pp'
'poola'
'poo'
'plasma_'
'places'
'pic'
'perpetually_'
'paste'
'parcel_'
'pam_'
'outfit_'
'ost'
'orn_'
'orchids_'
'ong'
'oh'
'occasion'
'novel_'
'noisily_'
'noisiest_'
'nin'
'nikki_'
'nighttime_'
'nie'
'netflix_'
'ness'
'ne'
'nai'
'nage'
'myriad_'
'mt_'
'modem_'
'mist'
'metropolitan_'
'mercy_'
'men'
'mei'
'mbo'
'maya_'
'mauritius_'
'martha_'
'marriage_'
'marketplace_'
'manu'
'malfunction_'
'malaysia_'
'mal'
'main'
'mailing_'
'mag'
'madison_'
'madhouse_'
'lux'
'lugged_'
'luc'
'lr'
'love'
'lou'
'lobbythe_'
'lip'
'limited'
'lhw_'
'lai'
'kyoto_'
'k'
'juice'
'judged_'
'janet_'
'jana_'
'ithe_'
'ions'
'ion'
'intrusion_'
'integrity_'
'inspected_'
'insipid_'
'inge'
'inexplicably_'
'illi'
'icecream_'
'ic'
'housing_'
'hotelthey_'
'hotelsthe_'
'hose_'
'hn'
'hershey_'
'harm_'
'happiest_'
'han'
'hair'
'gymnasium_'
'gueststhe_'
'grunted_'
'greatwe_'
'gras_'
'grain_'
'got'
'gor'
'goode'
'goat_'
'glove_'
'gloria_'
'glen'
'giggling_'
'georgia_'
'gel'
'gate'
'functionality_'
'frosted_'
'frit'
'friendlyi_'
'freshening_'
'frayed_'
'framed_'
'fours_'
'found'
'forgets_'
'flight'
'fl_'
'filters_'
'feat_'
'failings_'
'express'
'exception'
'exa'
'event'
'este'
'ently_'
'duct_'
'dra_'
'downpour_'
'dose_'
'donation_'
'doha_'
'dismayed_'
'disclosed_'
'dim'
'dig_'
'devo'
'deplorable_'
'denying_'
'dennis_'
'deer_'
'declared_'
'darren_'
'ct'
'crushed_'
'crowed_'
'cran'
'costume_'
'continent_'
'context_'
'consult_'
'confined_'
'confer'
'comprehension_'
'complain'
'commit_'
'comi'
'coldthe_'
'cola_'
'cockroaches_'
'clo'
'cks_'
'cigars_'
'chili_'
'chat'
'cents_'
'centers_'
'celsius_'
'casinos_'
'carrier_'
'cand'
'caller_'
'buzzer_'
'butcheck_'
'bullet_'
'bull'
'bryan_'
'britain_'
'breakfeast_'
'breakfastb'
'brassiere_'
'bothers_'
'both'
'bos'
'blackpool_'
'bert'
'berry_'
'believing_'
'belgium_'
'behaving_'
'been'
'bee_'
'bears_'
'batch_'
'barcelo_'
'band'
'backup_'
'av'
'aul'
'atlantic_'
'aspire_'
'ashtrays_'
'arab_'
'arab'
'ank'
'ament'
'advance'
'ads_'
'adaptors_'
'ache_'
'accom'
'90s_'
'900_'
'75'
'54'
'19'
'109_'
'05'
'.- _'
' ”_'
' ? ._'
' ? , _'
' :(_'
' ....'
' ...'
' . ) , _'
' $ $ _'
' " , " _'
'è'
'yielded_'
'yas'
'xe'
'wl'
'wise'
'windowless_'
'whistles_'
'while'
'waythe_'
'wasgreat_'
'vera'
'vea'
'ute'
'uper_'
'unsuccessful_'
'unsolicited_'
'uns'
'unpredictable_'
'unkempt_'
'undertaken_'
'unchanged_'
'turn'
'traditionally_'
'trademark_'
'tonics_'
'tol'
'toilett'
'tive'
'tiredness_'
'tire_'
'tine'
'timers_'
'thr_'
'thor'
'thief_'
'therwise_'
'tec'
'teaspoon_'
'tch_'
'tale_'
'tail'
'swam_'
'sundry_'
'stro'
'sticker_'
'steward_'
'staywe_'
'stately_'
'stan_'
'sso'
'sservice_'
'ssa'
'spin_'
'spilling_'
'sours_'
'sophistication_'
'softer_'
'sneak_'
'smashed_'
'skimmed_'
'sive'
'sine'
'sickness_'
'si'
'serviceit_'
'seri'
'sensibly_'
'sei'
'seaweed_'
'scandic_'
'sc'
'sas'
'samey_'
'rut'
'roomall_'
'rome'
'romanian_'
'rom'
'reservationist_'
'reservation'
'reproach_'
'relates_'
'reimburse_'
'reflective_'
'receptioni_'
'rece'
'rearrange_'
'readythe_'
'rare'
'rap'
'quiz_'
'quirks_'
'quid_'
'proves_'
'protected_'
'progressed_'
'priorities_'
'present'
'prepa'
'pref'
'precision_'
'prea'
'praises_'
'porterage_'
'plainly_'
'piccadilly_'
'photo'
'phoenix_'
'philip_'
'phil_'
'person'
'pers_'
'perfect'
'ped'
'paul'
'parasols_'
'outweighed_'
'ont'
'onsi'
'once'
'onand_'
'ole'
'odo'
'obe'
'nurse_'
'nte_'
'nonsmoking_'
'noisy'
'nodded_'
'nightwe_'
'nightsthe_'
'niece_'
'nga'
'newcastle_'
'needlessly_'
'nds_'
'nav_'
'naples_'
'nam'
'nag'
'mouths_'
'morocco_'
'moon'
'momo_'
'mm'
'mist_'
'mishaps_'
'miriam_'
'microwaves_'
'meri'
'medal_'
'meatballs_'
'mas'
'marta_'
'marquis_'
'marcus_'
'ma'
'lw'
'lol'
'lobbyand_'
'lm'
'literature_'
'lind'
'lia'
'lev'
'leslie_'
'lastminute_'
'lao_'
'lak'
'laguna_'
'labels_'
'kra'
'kowloon_'
'kor'
'kenya_'
'kab'
'joke'
'jess_'
'jerry_'
'ize_'
'ix_'
'ition'
'ished_'
'invoices_'
'intentionally_'
'institutional_'
'inside'
'inoperative_'
'infant_'
'indians_'
'included'
'implemented_'
'immediatly_'
'illegal_'
'humming_'
'however'
'horses_'
'hopeful_'
'homework_'
'hom'
'hollywood_'
'hol'
'hoi_'
'hmm_'
'hir'
'hikes_'
'hes'
'heri'
'herand_'
'helpers_'
'heidi_'
'heel_'
'heal'
'hallway'
'gy_'
'guil'
'greece_'
'grange_'
'graciousness_'
'gossiping_'
'globally_'
'glassware_'
'gemma_'
'galore_'
'functioned_'
'fulfil_'
'frustrations_'
'fountains_'
'forum_'
'formality_'
'form'
'foodwas_'
'foodi_'
'foi'
'flyer_'
'flimsy_'
'flavorful_'
'flatscreen_'
'flaky_'
'filed_'
'fie'
'ffi'
'fend_'
'fascinating_'
'far'
'fabulously_'
'expand_'
'execute_'
'et'
'estaurant_'
'ep_'
'enter'
'engines_'
'eng'
'endorse_'
'email'
'elaine_'
'edward_'
'edi_'
'eagerness_'
'dso_'
'dreaded_'
'distressed_'
'distinguished_'
'dissappointed_'
'dish'
'disabilities_'
'dir'
'dina'
'differ_'
'diets_'
'dia'
'details'
'dei'
'deemed_'
'daysthe_'
'darling_'
'daniel'
'damper_'
'cynthia_'
'curbside_'
'cuc_'
'crunchy_'
'crucial_'
'cooked'
'consulted_'
'compares_'
'companions_'
'comm'
'coded_'
'circumstance_'
'children'
'checkin'
'characteristic_'
'chalets_'
'cctv_'
'cauliflower_'
'capabilities_'
'cambodian_'
'cam'
'cake'
'buta_'
'burden_'
'bt'
'brit_'
'brigade_'
'breakfastcheck_'
'branding_'
'bouche_'
'blue'
'bis'
'bin'
'bie'
'bev_'
'bests'
'belfast_'
'beachside_'
'bc'
'basic'
'bank'
'badthe_'
'aver'
'attitude'
'atthe_'
'ately_'
'astounded_'
'assertive_'
'aru'
'arm'
'arguably_'
'arethe_'
'arabian_'
'appre'
'aplomb_'
'antigua_'
'ans'
'ang_'
'andhowever_'
'andhe_'
'andc'
'ambivalent_'
'amazes_'
'alsothe_'
'alli'
'agitated_'
'ack'
'accomidating_'
'77_'
'750_'
'64_'
'58_'
'46_'
'3x_'
'330_'
'120'
'1130_'
'105_'
'07'
'.,_'
'+ ._'
') '
'('
'!!_'
' ..'
'— _'
'zz'
'zo_'
'yuk'
'yon'
'yc'
'wyn'
'wy'
'wt'
'worked'
'wn_'
'winding_'
'whistle_'
'web'
'we'
'watchful_'
'wanted'
'want'
'walled_'
'wah'
'wages_'
'wad_'
'vocal_'
'vn'
'ves'
'vert'
'vas'
'valet'
'vacation'
'usso_'
'unsettling_'
'uno'
'unen'
'uncovered_'
'unbearably_'
'ull_'
'ular_'
'ula_'
'tto_'
'trifle_'
'tran'
'tracey_'
'tour'
'tossed_'
'tones_'
'timesthe_'
'through'
'thought'
'thisi_'
'therestaff_'
'ther'
'thei'
'testament_'
'tere'
'tera'
'tempura_'
'temples_'
'tas_'
'taco_'
'sylvia_'
'string'
'stretching_'
'stray_'
'straightaway_'
'stifling_'
'stan'
'stamps_'
'staircases_'
'splurge_'
'spectacularly_'
'spec'
'spe'
'spat'
'sparsely_'
'soundproofed_'
'somethings_'
'snowed_'
'slips_'
'slap_'
'sirens_'
'silk_'
'sided_'
'sid'
'shaft_'
'sfo_'
'sex'
'sewer_'
'server'
'sensor_'
'secondary_'
'seb'
'seal_'
'sculptures_'
'screamed_'
'sag'
'sack_'
'rse'
'rri'
'rotana_'
'roomsi_'
'rma'
'rho'
'revamped_'
'restless_'
'resource_'
'reso'
'representing_'
'representation_'
'reiterate_'
'recording_'
'recognizes_'
'rav'
'questions'
'querying_'
'pul'
'propped_'
'promo_'
'prominent_'
'promenade_'
'preten'
'pret'
'polishing_'
'plant'
'pizzeria_'
'pitcher_'
'pinch_'
'phillip'
'philadelphia_'
'petr'
'personified_'
'pere'
'perceived_'
'pepper'
'pending_'
'pear_'
'patronage_'
'passwords_'
'panels_'
'origin_'
'option'
'optimal_'
'opp'
'oor_'
'onal_'
'olde_'
'oka'
'odi'
'obligation_'
'nutshell_'
'nut'
'nicea'
'nge'
'nell'
'negotiating_'
'nea'
'navigator_'
'naughty_'
'natalia_'
'nal_'
'muttered_'
'mpl'
'moral_'
'mom'
'ml'
'mixers_'
'misery_'
'minute'
'minimally_'
'millennium_'
'milks_'
'micro'
'mic_'
'mg'
'mem'
'mc_'
'mau'
'matress_'
'marl'
'mark'
'mara'
'mant'
'mansion_'
'mani_'
'mad'
'luci'
'logo_'
'liver'
'lisbon_'
'lift'
'leaving'
'lc'
'lal'
'ladder_'
'l'
'kt'
'king'
'kindthe_'
'julian'
'judgement_'
'jon'
'joanna_'
'jewelry_'
'jersey_'
'jag'
'irregular_'
'ioned_'
'inr_'
'indulge_'
'indicator_'
'incurred_'
'imposition_'
'imo'
'imagined_'
'ima'
'ille_'
'ignores_'
'hunting_'
'humans_'
'hotelw'
'hopping_'
'hob'
'highlighting_'
'hic'
'hg'
'hes_'
'hereand_'
'helpings_'
'helpfulcheck_'
'headquarters_'
'hat'
'halloween_'
'gushing_'
'grunt_'
'gris'
'gratuities_'
'goodit_'
'godsend_'
'gig_'
'germans_'
'gal'
'fut'
'fu'
'frown_'
'friends'
'fre'
'formally_'
'forces_'
'fora'
'foodw'
'foodbut_'
'flu_'
'float'
'flirting_'
'fiddled_'
'fest_'
'fel'
'extends_'
'explicitly_'
'explan'
'expeditious_'
'exhaust_'
'excellents'
'evian_'
'esthe_'
'ensuite_'
'endearing_'
'eer'
'eand_'
'eal'
'dum'
'doorstep_'
'dle_'
'distract_'
'distinguishes_'
'displaying_'
'differentiate_'
'diff'
'dge'
'describes_'
'ders_'
'deci'
'decency_'
'decaff_'
'deb'
'dbut_'
'darwin_'
'customer'
'cuc'
'cub'
'cruises_'
'crowding_'
'crabtree_'
'crabby_'
'cr'
'corn'
'controller_'
'contributors_'
'contra'
'conserv'
'conference'
'concur_'
'concentrated_'
'comprehend_'
'compelled_'
'compassionate_'
'closets_'
'clinic_'
'clicked_'
'clerk'
'cies_'
'chos'
'cheque_'
'char'
'certificates_'
'bypass_'
'busybut_'
'bumping_'
'buffer_'
'bu_'
'bt_'
'broom_'
'brekky_'
'brekfast_'
'breathe_'
'branch_'
'br_'
'br'
'bour'
'booking'
'bolton_'
'bmw_'
'blows_'
'blip_'
'bhutanese_'
'bha'
'bettered_'
'belonging_'
'bellstaff_'
'beg'
'beer'
'bathmat_'
'barn'
'barc'
'bahia_'
'backside_'
'backpackers_'
'ax'
'avo'
'authorized_'
'aura_'
'assist'
'assignments_'
'asp'
'asi'
'aro'
'arly_'
'aria_'
'ari_'
'ape'
'annoys_'
'andour_'
'ando'
'andnot_'
'amidst_'
'aj_'
'airf'
'ail'
'aggravating_'
'againwe_'
'advises_'
'account'
'access'
'abused_'
'abi'
'74_'
'630_'
'5s'
'36'
'2005_'
'1980s_'
'1100_'
'03_'
'++ _'
' •_'
' ........... _'
' -'
'zer'
'yuk_'
'ybut_'
'workso_'
'woods_'
'whi'
'wei'
'wedding'
'waterthe_'
'watch'
'warner_'
'vis_'
'vers_'
'verge_'
'veni'
'variety'
'uti'
'urs'
'urg_'
'upl'
'unsu'
'ung_'
'unders'
'uff'
'tul'
'trout_'
'trin'
'tray'
'transatlantic_'
'tranquility_'
'tracks_'
'towel'
'toppings_'
'titanium_'
'timetable_'
'tier'
'thema'
'tgi_'
'tg'
'teri'
'tered_'
'tem'
'teapots_'
'teaching_'
'teacher_'
'teabag_'
'taxi'
'tau'
'tar_'
'tall'
'tails_'
'tablethe_'
'style'
'structural_'
'strips_'
'strewn_'
'strangest_'
'store'
'sthey_'
'standouts_'
'staggered_'
'stages_'
'southwest_'
'south'
'sour'
'sot'
'soon'
'something'
'solicit'
'sol'
'soft'
'sob'
'soa'
'snacks'
'smartphone_'
'sm'
'siti'
'shiraz_'
'shin'
'shee'
'shab'
'sf'
'sey_'
'sewing_'
'ses'
'ser_'
'sel'
'screening_'
'savannah_'
'saturday'
'sas_'
'sama'
'ruins_'
'rudimentary_'
'rst_'
'ros_'
'roomse'
'rog'
'rocking_'
'ripoff_'
'ril'
'rey_'
'rever'
'retaining_'
'reopened_'
'relies_'
'relay_'
'refuses_'
'recycle_'
'recovering_'
'recalled_'
'rearranged_'
'raz'
'raises_'
'racing_'
'question'
'pulls_'
'prostitutes_'
'pros'
'props_'
'prolonged_'
'productive_'
'prince'
'preserves_'
'pres'
'prepay_'
'predictably_'
'powered_'
'power'
'pou'
'post'
'possibilities_'
'political_'
'pole_'
'pointers_'
'pio'
'photographer_'
'photograph_'
'perth_'
'peoples'
'pea_'
'paulo_'
'partie'
'palomar_'
'pad'
'outwe_'
'ota'
'ot'
'organisers_'
'ooms_'
'online'
'occurring_'
'nyway_'
'none'
'noi'
'nig'
'nick'
'nicholas_'
'nest_'
'ners_'
'neglect_'
'mysterious_'
'motor'
'moni'
'modernisation_'
'misunderstandings_'
'misinformation_'
'mine'
'mille'
'miffed_'
'metropol_'
'met'
'merry_'
'melanie_'
'medic'
'medi'
'mean'
'maui_'
'marg'
'madness_'
'luxuries_'
'lus'
'loudest_'
'll'
'livid_'
'list'
'lincoln_'
'lil'
'lifeless_'
'lib'
'liar_'
'lebua_'
'laundered_'
'lam'
'lakes_'
'kolkata_'
'kla'
'kis'
'kicking_'
'kers_'
'kebabs_'
'jas'
'issa'
'isolation_'
'ism_'
'iot'
'ior'
'insta'
'information'
'inadvertently_'
'imagin'
'ies'
'identification_'
'ict'
'iba'
'hurts_'
'hugo_'
'hub_'
'hotelthis_'
'homethe_'
'hollandaise_'
'hk'
'hind'
'hideous_'
'hh'
'hay_'
'haw'
'hau'
'hates_'
'hailing_'
'guarantees_'
'guar'
'grump'
'groom_'
'grills_'
'grading_'
'gr'
'gossip_'
'gooda'
'gels_'
'gat'
'gang_'
'gamble_'
'frendly_'
'fort'
'florence_'
'floori_'
'floorand_'
'fb_'
'family'
'eyed_'
'experi'
'expectations'
'exhausting_'
'excl'
'excell'
'evi'
'escalator_'
'erw'
'erb'
'enth'
'ensi'
'empower'
'elle_'
'ege'
'eed_'
'east'
'eagerly_'
'ea'
'dukes_'
'dub'
'draining_'
'dm'
'distress_'
'disrupted_'
'dispensing_'
'dished_'
'disgust_'
'disconnecting_'
'discon'
'disbelief_'
'dipped_'
'dill'
'dignity_'
'dge_'
'development_'
'detriment_'
'desktop_'
'deskso_'
'desi'
'deri'
'deadline_'
'db'
'dashed_'
'curt'
'cumberland_'
'cube_'
'crime_'
'cracker_'
'council_'
'could'
'correspond'
'cordially_'
'coordinate_'
'coolest_'
'conversant_'
'const'
'consist_'
'comply_'
'complement'
'comping_'
'coca_'
'cob'
'clarified_'
'christ'
'chops_'
'chooses_'
'chloe_'
'chin'
'child'
'chez_'
'cheerfulness_'
'chedi_'
'characterful_'
'chand'
'cave_'
'carbs_'
'busyand_'
'brothers_'
'breakfastso_'
'boot'
'bomb_'
'blower_'
'blanca_'
'bitt'
'bic'
'beverly_'
'bestbut_'
'belonged_'
'belie'
'befitting_'
'bef'
'bases_'
'barn_'
'barb'
'bangalore_'
'availed_'
'availablethe_'
'aug_'
'attack_'
'ath_'
'asians_'
'arte'
'arri'
'armani_'
'ard'
'architectural_'
'appro'
'application_'
'anthe'
'announcing_'
'angie_'
'andfood_'
'amusement_'
'ame'
'amar'
'alla'
'aggressively_'
'adopt_'
'adept_'
'adel'
'add'
'accompaniments_'
'accolades_'
'acceptable'
'absurdly_'
'abilities_'
'60s_'
'54_'
'4star_'
'47'
'35th_'
'1800_'
'175_'
'01'
','
'*._'
' —_'
' ° _'
' ? ? ) _'
' ;-)_'
' :'
' .... '
' .* '
' ." '
' - ( _'
' % , _'
' " ; _'
' ! ! '
'wrapping_'
'wor'
'wim'
'willi'
'who'
'whichever_'
'where'
'welland_'
'weather'
'wc_'
'wales_'
'vocabulary_'
'vivanta_'
'vips_'
'vie'
'vert_'
'vege'
'vallet_'
'ution_'
'uth'
'ura'
'unreasonably_'
'ung'
'uneaten_'
'undertrained_'
'understaffed'
'und'
'uncoordinated_'
'ult'
'uh_'
'uce'
'tyler_'
'tria'
'traveler'
'transient_'
'tp'
'towns_'
'toothe_'
'tom'
'toileteries_'
'tog'
'tip'
'tional_'
'til'
'tian_'
'thou'
'thompson_'
'thew'
'these'
'therewe_'
'thee_'
'thats'
'tenerife_'
'tempered_'
'tari'
'superlatives_'
'summarise_'
'suck_'
'stunk_'
'stuffs_'
'steaming_'
'steak'
'stars'
'stal'
'staffd'
'staffa'
'sporadically_'
'spider_'
'speechless_'
'spec_'
'spark_'
'sous_'
'sothe_'
'someone'
'sod'
'snug_'
'snarky_'
'smell'
'smart'
'slid_'
'skills'
'sk_'
'size'
'simpler_'
'shre'
'shortcoming_'
'shaver_'
'shangrila_'
'shadow_'
'seville_'
'serviceso_'
'serviceall_'
'servicea'
'sensed_'
'scratches_'
'scot'
'scant_'
'scanning_'
'scaffolding_'
'sari'
'saga_'
'sabrina_'
'rw'
'rus'
'ruc'
'rub'
'ropes_'
'romance_'
'roam_'
'riviera_'
'rivals_'
'risers_'
'rin'
'rew'
'revi'
'returns_'
'rett'
'ress'
'reservations'
'rema'
'reducing_'
'rectifying_'
'reconstituted_'
'receptionwe_'
'receptiona'
'rebook_'
'reat'
'reason'
'real'
're'
'raucous_'
'ratt'
'randy_'
'ramsey_'
'ram_'
'raj'
'rail'
'rahul_'
'rable_'
'quieten_'
'quesadilla_'
'put'
'pub'
'provi'
'press'
'presented'
'postage_'
'posed_'
'pops_'
'popping_'
'pol'
'platinums_'
'pillows'
'phi'
'penn'
'peer'
'pedi'
'pecially_'
'passage_'
'pani'
'package'
'oye'
'ox'
'overs'
'overf'
'outso_'
'ottoman_'
'ots_'
'orderthe_'
'orbitz_'
'oncierge_'
'okura_'
'ofthe_'
'ofi'
'offi'
'occur'
'oad'
'nusa_'
'nim'
'nie_'
'nica'
'niagara_'
'ngs'
'newark_'
'nett'
'negatively_'
'ned'
'nch'
'nab'
'muster_'
'muslim_'
'multi'
'mot'
'mornings'
'moneythe_'
'mona'
'mon'
'moi'
'mob_'
'misled_'
'mints_'
'midnight'
'meso_'
'merrion_'
'math_'
'mater'
'mary'
'maha'
'magnetic_'
'magn'
'macaroni_'
'lys'
'loses_'
'loosing_'
'logs_'
'llan'
'likeable_'
'lic'
'lg'
'ler'
'legend_'
'leg'
'launch_'
'language'
'lain'
'ky'
'kings'
'kie'
'kayak'
'kas'
'just'
'julio_'
'joints_'
'joey_'
'isha'
'irre'
'investing_'
'intercom_'
'intact_'
'instruct_'
'informs_'
'inefficiency_'
'indo'
'indi'
'incre'
'inconveniencing_'
'imported_'
'igh_'
'ians_'
'hustling_'
'hustled_'
'hua_'
'hou'
'honey'
'hin_'
'hin'
'helpfulso_'
'heights_'
'hector_'
'heckin_'
'health'
'hd'
'hastily_'
'guys'
'guitar_'
'gratefully_'
'graceful_'
'gong_'
'goings_'
'glo'
'gib'
'gi_'
'generation_'
'gene'
'gateway_'
'frie'
'floored_'
'fijian_'
'fig'
'fficient_'
'fei'
'feeling'
'fan'
'fa_'
'ez'
'exuded_'
'extremley_'
'exquisitely_'
'expresses_'
'explo'
'excused_'
'excus'
'excluded_'
'evidenced_'
'everyones_'
'eveninga'
'europe'
'eted_'
'eso'
'erm'
'encourages_'
'employing_'
'ement_'
'elvis_'
'earns_'
'ean'
'each'
'duplex_'
'dubious_'
'dua_'
'drum_'
'drinkthe_'
'dotted_'
'dothe_'
'dolphins_'
'divers_'
'distinction_'
'discarded_'
'disappointing'
'differing_'
'dian'
'dew'
'descended_'
'derek_'
'deposits_'
'dent_'
'deme'
'definetely_'
'deficient_'
'decor'
'deactivated_'
'davi'
'das_'
'cupboards_'
'crush_'
'cross'
'cranberry_'
'courtesies_'
'cosmetics_'
'coordinating_'
'convien'
'conveyor_'
'congress_'
'conducting_'
'concierage_'
'competitively_'
'comparatively_'
'commonly_'
'coldest_'
'coeliac_'
'clayton_'
'circuit_'
'churchill_'
'cheddar_'
'cheaply_'
'chalk_'
'cet'
'cen'
'cdg_'
'caveat_'
'cash'
'carved_'
'carr'
'caravan_'
'capa'
'cana_'
'campus_'
'cad'
'butthere_'
'buto'
'buenos_'
'buck'
'broad'
'brazil_'
'braised_'
'bodies_'
'boathouse_'
'blueberries_'
'blink_'
'blind'
'biased_'
'bespoke_'
'bending_'
'beef'
'beacon_'
'bathroomthe_'
'barre'
'baking_'
'baker'
'baffled_'
'az'
'ays_'
'aye'
'aweful_'
'averagethe_'
'attends_'
'atri'
'ata'
'assi'
'assess_'
'asse'
'artist_'
'argentina_'
'ares'
'arch_'
'anyone'
'announcement_'
'anna'
'anita_'
'andwhat_'
'andif_'
'andfriendly_'
'amr'
'amand_'
'altho_'
'alis'
'ak'
'aires_'
'afe'
'advi'
'addi'
'accessibility_'
'95'
'930_'
'64'
'62_'
'2003_'
'1400_'
'03'
'! _'
' … '
' ?( _'
' : ) _'
' , ) _'
' ( ! ) ._'
' ! !, _'
'‘ _'
'zl'
'zes_'
'yy'
'young'
'yne_'
'yl_'
'yellowstone_'
'ybe_'
'yan_'
'xt_'
'xa'
'witty_'
'wig'
'width_'
'whites_'
'wether_'
'wasand_'
'warmthe_'
'vul'
'vis'
'views'
'vibes_'
'veteran_'
'utilitarian_'
'usit_'
'ury_'
'unreal_'
'unpa'
'unp'
'unhygienic_'
'unfinished_'
'understand'
'uli'
'uar'
'tw'
'tummy_'
'trident_'
'train'
'tot'
'toss_'
'tne'
'tiered_'
'tici'
'tia'
'thoughout_'
'thomsons_'
'theres'
'thatand_'
'tense_'
'temp'
'ted'
'tb'
'tattoos_'
'tant'
'talent_'
'tal_'
'tailor_'
'sund'
'sugary_'
'styling_'
'studios_'
'stub'
'strengths_'
'streamlined_'
'stin'
'stead_'
'status'
'stas'
'staples_'
'standpoint_'
'sq_'
'splitting_'
'spared_'
'soo'
'sona'
'soi_'
'sneaky_'
'smoke'
'smirk'
'smack'
'slum'
'sizeable_'
'sim'
'signatures_'
'sideways_'
'shortfalls_'
'shortfall_'
'short'
'shore'
'sheet'
'sham'
'shakes_'
'serviceo'
'servants_'
'serv'
'sep'
'sentiment'
'sel_'
'sector_'
'scum_'
'scoop_'
'scissors_'
'science_'
'sav'
'samuel_'
'samples_'
'sam'
'sal_'
'saffron_'
'rup'
'rrived_'
'rre'
'royale_'
'roosevelt_'
'roomw'
'roomthere_'
'roomsi'
'roman_'
'rode_'
'rn'
'riverwalk_'
'rights_'
'ried_'
'returnthe_'
'respecting_'
'resaurant_'
'requests'
'repellent_'
'rentals_'
'reno'
'remo'
'refunds_'
'refu'
'refrig_'
'redi'
'rect'
'receptions'
'reali'
'rama'
'rak'
'races_'
'quilt_'
'quieted_'
'pune_'
'pta'
'provisions_'
'proven_'
'protracted_'
'prone_'
'priced'
'pos'
'portfolio_'
'pop'
'politic'
'poe'
'po_'
'pmi_'
'plates'
'plague_'
'pit'
'pillars_'
'petite_'
'persist_'
'peach_'
'payable_'
'pax_'
'particu'
'parade_'
'pane'
'oya'
'owl'
'ovely_'
'outweigh_'
'outrage'
'outc'
'ousekeeping_'
'ors'
'op'
'oneself_'
'office'
'ofcourse_'
'oceanview_'
'occupie'
'ob'
'novelty_'
'nominal_'
'nom'
'nna_'
'nn'
'nl'
'nic'
'nia'
'needed'
'nder_'
'mtr_'
'mp'
'mortified_'
'mores'
'mond'
'moh'
'minutesand_'
'ming'
'mgt_'
'metre_'
'mea'
'maître_'
'maurya_'
'massage'
'maris'
'margarine_'
'maneuver_'
'mandalay_'
'managerand_'
'maltese_'
'makings_'
'maitre'
'mai'
'machinery_'
'maa'
'luncheon_'
'lowry_'
'louis'
'los'
'lom'
'lollies_'
'lh'
'lever_'
'lem'
'leaflets_'
'lattes_'
'lasts_'
'lash'
'large'
'lang'
'kf'
'keyed_'
'kayla_'
'katherine_'
'kat_'
'kap'
'kai'
'jou'
'jol'
'jit'
'jes'
'itch'
'irene_'
'ipa_'
'involvement_'
'invaluable_'
'into'
'interval_'
'installing_'
'ins'
'inni'
'ingredient_'
'ingre'
'infront_'
'inflat'
'induc'
'indications_'
'improve'
'ilt'
'ili'
'hus'
'hurry'
'housekeep'
'hoteli'
'hotelcheck_'
'horse'
'hope'
'hoi'
'hight'
'helpthe_'
'hello'
'helfpul_'
'hed'
'hart'
'happen'
'hairdresser_'
'guy'
'grove_'
'ground'
'green'
'grad'
'gouge_'
'gos'
'goodthis_'
'glue_'
'glasshouse_'
'glamorous_'
'giovanni_'
'gina_'
'gig'
'ghastly_'
'germ'
'gem'
'gbp'
'frenetic_'
'freeview_'
'foodwe_'
'fom_'
'foc_'
'flows_'
'flori'
'floral_'
'flashy_'
'flashlight_'
'flakes_'
'fir'
'files_'
'fernando_'
'fer_'
'felix_'
'feel'
'feature'
'favoured_'
'fantasticthe_'
'famed_'
'facilitating_'
'faceless_'
'fab'
'expressions_'
'experiences'
'expecially_'
'exemplifies_'
'excellenta'
'eti'
'eth'
'establish_'
'especial_'
'esa'
'equip'
'ene_'
'ena_'
'elsewhere'
'elses_'
'eld'
'ek_'
'effects_'
'edwardian_'
'edly_'
'edgar_'
'eat'
'earshot_'
'dud'
'dubrovnik_'
'dru'
'dripped_'
'dread_'
'draw'
'drainage_'
'doorst'
'dolphin_'
'doll'
'doi'
'doc'
'distraction_'
'distracting_'
'disrespect_'
'dint_'
'differ'
'dict'
'diabetic_'
'develop_'
'detail'
'despi'
'desires_'
'decides_'
'deceptive_'
'dc'
'db_'
'dash'
'daisy_'
'creativity_'
'cow_'
'cous_'
'courtney_'
'correction_'
'correct'
'corr'
'coolers_'
'conversing_'
'contribute_'
'conne'
'cone'
'component_'
'complete'
'complements_'
'competently_'
'communicat'
'comfort'
'comedian_'
'cocoa_'
'cloying_'
'clip_'
'clim'
'clientel'
'clea'
'clam_'
'citing_'
'cistern_'
'cie'
'cia'
'choc_'
'cher_'
'chen_'
'ceo_'
'cei'
'ceased_'
'cd'
'casa'
'carte'
'cari'
'cane_'
'cafet'
'caf'
'butr'
'butn'
'butall_'
'businessman_'
'bush_'
'burmese_'
'bureau_'
'brownies_'
'broadway_'
'brit'
'brisbane_'
'breakfastit_'
'brain_'
'brag_'
'box'
'bounced_'
'borough_'
'boost_'
'bombay_'
'bol'
'bog_'
'blinking_'
'blankly_'
'bland'
'bh'
'benjamin_'
'benches_'
'begs_'
'bedlam_'
'bedi_'
'beaming_'
'barging_'
'backpack_'
'auto'
'austere_'
'attributed_'
'attentively_'
'attendents_'
'ath'
'astonishingly_'
'ass'
'aso'
'armed_'
'armchair_'
'arl'
'applicable_'
'anu'
'ands_'
'andf'
'ams'
'amenities'
'alu'
'alter_'
'alison_'
'alicia_'
'agree'
'ageing_'
'affiliated_'
'affecting_'
'ae_'
'adopted_'
'actioned_'
'act'
'abd'
'98_'
'73_'
'63'
'60th_'
'5am_'
'57_'
'29'
'240_'
'20min_'
'2004_'
'190_'
'150'
'140'
'115_'
'+'
'''
' ]_'
' ?- _'
' .> _'
' ... " _'
' .' _'
' ,( _'
' ,'
' $ $ $ '
'yu_'
'york'
'ye_'
'wristband_'
'wisely_'
'wich_'
'white'
'went'
'wedged_'
'wed'
'webpage_'
'wea'
'warmers_'
'walkable_'
'waft'
'vor'
'visitthe_'
'vio'
'via'
'vati'
'variations_'
'utility_'
'utili'
'uph'
'until'
'unsa'
'unresolved_'
'unprofessional'
'unpro'
'unheated_'
'unfa'
'unexceptional_'
'uneasy_'
'uncon'
'unbe'
'unaccommodating_'
'u'
'tues_'
'troubling_'
'trou'
'tres'
'trams_'
'total'
'tors_'
'tongue_'
'told'
'tod'
'tle'
'tim'
'tightly_'
'tidy'
'thur'
'thorough'
'thes'
'therapy_'
'themes_'
'thb_'
'thati_'
'terrine_'
'tent'
'tena'
'telly_'
'tc'
'tast'
'tarnished_'
'taped_'
'tanya_'
'takeout_'
'tain'
'taba'
'swimmers_'
'sweltering_'
'survived_'
'succeeds_'
'subjective_'
'stunningly_'
'stuart_'
'stride_'
'sthis_'
'ster'
'staybut_'
'stairway_'
'staffcheck_'
'spruce_'
'sprays_'
'spo'
'spiel_'
'spacious'
'sow'
'someones_'
'soc'
'sne'
'snail_'
'snag_'
'smokey_'
'smarter_'
'slate_'
'skin'
'skeptical_'
'ske'
'silvia_'
'signal'
'shined_'
'shattered_'
'shaky_'
'set'
'serviceth'
'serivce_'
'separates_'
'selective_'
'segments_'
'seen'
'seagulls_'
'sche'
'savvy_'
'sap'
'sampling_'
'saloon_'
'sall_'
'safer_'
'safe'
'saf'
'rush'
'rp'
'rose'
'roped_'
'rooom_'
'roomwhen_'
'roomswe_'
'roomss'
'roomshe_'
'roomg'
'rooma_'
'roc'
'riser_'
'rise'
'ria'
'reve'
'retun'
'restarant_'
'responsibilities_'
'respectfully_'
'residential_'
'resembling_'
'researched_'
'reputable_'
'repo'
'relo'
'reli'
'relentless_'
'rein'
'reg_'
'refreshingly_'
'reconfirmed_'
'rebooted_'
'rea_'
'rci_'
'raving_'
'rats_'
'rating'
'raid_'
'racist_'
'quet'
'queing_'
'qa'
'punta_'
'puk'
'prospective_'
'program'
'produces_'
'prior'
'prestige_'
'preferential_'
'predict'
'pomp'
'poly'
'pli'
'phase_'
'phan'
'ph'
'peruvian_'
'pel'
'peek_'
'pect'
'pas_'
'partition'
'oz'
'ov'
'outw'
'outnumbered_'
'oth'
'oso'
'ordinarily_'
'opus_'
'opting_'
'ooked_'
'oll'
'ola'
'oke_'
'offs_'
'offered'
'offense_'
'ock_'
'occa'
'num'
'nth'
'nsive_'
'nr'
'notion_'
'nothi'
'ninth_'
'nile_'
'nighta'
'nicethey_'
'nic_'
'nial'
'news'
'nera'
'nephew_'
'nent'
'nee'
'nced_'
'nb'
'music'
'mud'
'mthe_'
'mr'
'mothers_'
'morningwe_'
'mori'
'moo'
'mont_'
'modernity_'
'models_'
'moan'
'misunderstood_'
'minu'
'min'
'mich'
'methey_'
'meeting'
'mb'
'materialized_'
'marking_'
'margaret_'
'marcel'
'map'
'malay_'
'mak'
'maintenence_'
'maintenance'
'maintainence_'
'magazine_'
'machine'
'lyn_'
'lv'
'lte'
'low'
'loug'
'lord_'
'lice'
'led'
'leaflet_'
'law'
'laud'
'lasagna_'
'lant'
'kuoni_'
'knowledge'
'knowi'
'kni'
'kits_'
'kes'
'kep'
'kath'
'kara'
'jun'
'jump'
'jn'
'jetty_'
'jell'
'jane'
'ium_'
'itthey_'
'itm'
'ites_'
'item'
'italian'
'isn'
'irony_'
'ironic_'
'ira'
'intolerable_'
'intimacy_'
'inspire_'
'inkaterra_'
'independently_'
'inch'
'inca'
'iew'
'idyllic_'
'ida_'
'iconic_'
'icelandic_'
'ica'
'hw'
'hv_'
'huh_'
'hotelso_'
'hotelit_'
'hos'
'hog_'
'hoe'
'hoards_'
'hhonor_'
'hermitage_'
'hera'
'helpfulw'
'helpfulespecially_'
'helpfulbreakfast_'
'hellos_'
'healthier_'
'hazel_'
'hassan_'
'harm'
'happythe_'
'hams_'
'hammer_'
'gum'
'gul'
'grumpi'
'group'
'gro'
'gri'
'grape_'
'goodespecially_'
'gooda_'
'gon'
'golfer_'
'goa'
'glimpse_'
'glared_'
'glamour_'
'gian'
'georgi'
'fue'
'froze_'
'fridge'
'fraud_'
'frantically_'
'fp'
'forthe_'
'forma'
'forgo_'
'fog_'
'fob_'
'flawed_'
'flavourless_'
'flamenco_'
'finely_'
'fin'
'fib'
'fever_'
'fears_'
'fashionable_'
'eze_'
'extemely_'
'explored_'
'exaggeration_'
'esque_'
'erve'
'equi'
'equ'
'eon_'
'envelopes_'
'entrance'
'enoughthe_'
'ener'
'ened_'
'enabling_'
'employers_'
'emphasise_'
'edit'
'eded_'
'eatable_'
'dying_'
'dwe_'
'dw'
'dvds_'
'duc'
'du'
'doubling_'
'dona'
'domin'
'dom_'
'dol'
'dle'
'divide'
'discretely_'
'disclaimer_'
'disarray_'
'disappointment'
'dinners'
'dictate'
'deter_'
'desks'
'descript_'
'demonstrates_'
'delight'
'deliberate_'
'dayi_'
'daybut_'
'dau'
'date'
'dang'
'cta'
'cristina_'
'costumer_'
'corp_'
'cope'
'conversely_'
'conse'
'coni'
'complaints'
'communi'
'combining_'
'colourful_'
'colorful_'
'coffe'
'cobb_'
'clunky_'
'cloud'
'cinema_'
'cil'
'chuck_'
'choicethe_'
'chew_'
'checklist_'
'cheat_'
'chan'
'cess'
'cave'
'cappuc'
'canopy_'
'cano'
'camp'
'cai'
'cabaret_'
'bygone_'
'bv'
'buta'
'buss'
'bursting_'
'burner_'
'bunk_'
'bui'
'browsing_'
'brewery_'
'breach_'
'brave_'
'bounds_'
'bose_'
'boisterous_'
'bod'
'boc'
'blt_'
'blow'
'blackberry_'
'bk'
'bewildered_'
'bett'
'berg_'
'benefited_'
'begun_'
'beat'
'bd'
'barri'
'barged_'
'balk'
'baileys_'
'bai'
'bacon'
'backs'
'backa'
'axel_'
'aways_'
'austrian_'
'aug'
'atta'
'att'
'athe_'
'asthma_'
'assembled_'
'ase'
'arro'
'arora_'
'arizona_'
'ariel_'
'areaand_'
'ards_'
'applying_'
'appetisers_'
'apart'
'antiques_'
'announcements_'
'andth'
'andin'
'andan'
'americano_'
'amer'
'amended_'
'amelia_'
'altitude_'
'alli_'
'alerting_'
'ald'
'agu'
'adverse_'
'adventurous_'
'ado_'
'adhered_'
'adelaide_'
'achi'
'accu'
'accosted_'
'accommodates_'
';'
'94'
'91'
'65'
'63_'
'62'
'43'
'24x7_'
'1960_'
'1600_'
'! !_'
' … … '
' ;)_'
' :) ._'
' ...( _'
' ... ) , _'
' " .. _'
' ! ) .'
'”'
'ı'
'zin'
'yep_'
'workable_'
'woo_'
'wk'
'wish'
'wir'
'whopping_'
'weed_'
'waver'
'wat'
'wasw'
'wasstaff_'
'warners_'
'waist_'
'vs'
'vr'
'vpn_'
'vomiting_'
'vl'
'vic_'
'viable_'
'ved'
'utt'
'ustomer_'
'usher_'
'urt'
'unus'
'unres'
'unpleasantly_'
'unkind_'
'underdone_'
'uncle_'
'uma_'
'uma'
'uil'
'trial_'
'trepidation_'
'travell'
'trailer_'
'tooth'
'toby_'
'tobacco_'
'tob'
'tir'
'tikka_'
'tiger_'
'thrice_'
'thri'
'think'
'thereb'
'themi_'
'thembut_'
'thatw'
'tell'
'tay_'
'tas'
'tanzania_'
'tami'
'tac'
'swiping_'
'swapping_'
'sve'
'supervis'
'sunscreen_'
'suites'
'stylishly_'
'stripped_'
'street'
'stre'
'straight'
'stew'
'sters_'
'stefan_'
'stee'
'ste'
'stayed'
'stamped_'
'stai'
'stag'
'stacey_'
'stab'
'sri'
'squi'
'spread'
'spoke'
'spirited_'
'specialthe_'
'sos'
'sorbet_'
'snorkel_'
'slu'
'slick'
'skipping_'
'skewers_'
'sked_'
'sip'
'sink'
'sidewalk_'
'shoving_'
'sexy_'
'served'
'securely_'
'seater_'
'seafront_'
'screw'
'screams_'
'scowl_'
'sati'
'sana_'
'salute_'
'salary_'
'rust_'
'runner_'
'ruben_'
'rta'
'rsi'
'roux_'
'rosette_'
'roomthis_'
'roomsa'
'roll'
'rk_'
'richmond_'
'rica'
'ric'
'revel'
'returning'
'restaurantwe_'
'resemblance_'
'reprogrammed_'
'repeat'
'reopen_'
'rent'
'relish_'
'rele'
'reh'
'refer'
'redundant_'
'redemption_'
'redecoration_'
'recommended'
'receptionstaff_'
'rde'
'rap_'
'raft'
'raddison_'
'quit'
'quin'
'quiche_'
'que'
'qatar_'
'purport'
'pumps_'
'pumping_'
'puff'
'promotions_'
'problemand_'
'pricey'
'previ'
'preventing_'
'prevalent_'
'ppy_'
'polynesian_'
'pill'
'picturesque_'
'phrases_'
'personthe_'
'persons'
'perf'
'pent'
'pens_'
'parrot_'
'pant'
'pamela_'
'oxygen_'
'outfitted_'
'ote'
'orn'
'omlet_'
'olympics_'
'olga_'
'okwe_'
'okey_'
'oint'
'oca'
'obscene_'
'obli'
'o2_'
'number'
'nter'
'norwegian_'
'nondescript_'
'nines_'
'nikko_'
'ngo'
'netherlands_'
'nerves_'
'navi'
'narita_'
'namaste_'
'nada_'
'naan_'
'muted_'
'muscat_'
'murder_'
'multitude_'
'multinational_'
'moro'
'mopping_'
'molton_'
'mobiles_'
'mira'
'minate'
'mimi_'
'miller_'
'mick'
'mice_'
'mew'
'ments'
'meni'
'mela'
'mel'
'mayonnaise_'
'maximize_'
'marr'
'marketed_'
'margi'
'marc'
'mandy_'
'manda'
'malt_'
'magnolia_'
'lux_'
'lungs_'
'luca_'
'lua'
'lovelya'
'lottery_'
'logi'
'lodge'
'lod'
'llo'
'llen'
'lla'
'little'
'lifts'
'lian_'
'lers_'
'lemon'
'leis_'
'leasant_'
'laurels_'
'last'
'lani_'
'kle_'
'kitted_'
'kir'
'kerry_'
'kay_'
'kay'
'jurys_'
'jog'
'jill_'
'jetwing_'
'jeffrey_'
'jaz'
'items'
'israeli_'
'isle_'
'isla'
'irrespective_'
'irrelevant_'
'inviting'
'investigating_'
'inundated_'
'intoxicated_'
'interpersonal_'
'interns_'
'intending_'
'integrated_'
'ings'
'info'
'incu'
'incomprehensible_'
'inco'
'ince_'
'inadequately_'
'immediately'
'ils_'
'huddled_'
'hte'
'howe'
'hovered_'
'horns_'
'horn_'
'hongkong_'
'homew'
'homes_'
'ho'
'herea'
'henri'
'helpfulm'
'headphones_'
'headboard_'
'hass'
'happened'
'hank'
'handlers_'
'halves_'
'grap'
'granite_'
'graham_'
'graces_'
'gold'
'goi'
'glued_'
'glitzy_'
'gill'
'gge'
'geta'
'gers_'
'gerald_'
'generate_'
'gener'
'gard'
'gant'
'gam'
'gaining_'
'gag'
'funny'
'fumes_'
'fuel_'
'friendlye'
'frequency_'
'fred_'
'forth'
'formerly_'
'foodth'
'foo'
'followup_'
'flowed_'
'find'
'ferr'
'fere'
'faxed_'
'faw'
'exempl'
'excellenti_'
'everytime'
'estimated_'
'est'
'esp'
'eous_'
'entit'
'entice_'
'ente'
'englishthe_'
'enforcing_'
'ences_'
'embar'
'eliminated_'
'eit_'
'ega'
'ede'
'eate'
'ean_'
'eakfast_'
'eag'
'dumplings_'
'due'
'draws_'
'doorthe_'
'domini'
'docking_'
'dissap'
'disrepair_'
'discretionary_'
'discourage_'
'discontinued_'
'disappointed'
'dip'
'dialogue_'
'design'
'deposited_'
'denny_'
'denali_'
'delectable_'
'defen'
'defeat'
'decorate_'
'debited_'
'deafening_'
'dating_'
'cure_'
'cum_'
'crou'
'critique_'
'courier_'
'coul'
'costumes_'
'confirms_'
'confe'
'conceded_'
'compa'
'commotion_'
'commitments_'
'commensurate_'
'comforters_'
'colo'
'coleslaw_'
'coladas_'
'coffees'
'coffeeand_'
'client'
'cler'
'cleanup_'
'clattering_'
'clam'
'clad_'
'circulation_'
'circles_'
'chit'
'chin_'
'chf_'
'chet'
'charle'
'chandelier_'
'cha_'
'cell'
'cedric_'
'catal'
'cass'
'carpeted_'
'cardand_'
'carb_'
'cara'
'capitol_'
'capability_'
'campers_'
'buton'
'butnothing_'
'burritos_'
'burg_'
'bumps_'
'bum'
'buffe'
'bts_'
'broth_'
'brie_'
'breeze'
'bratislava_'
'bomb'
'bloom'
'bleach_'
'blasé_'
'birthdays_'
'billy_'
'bidet_'
'bicycle_'
'bhu'
'bentley_'
'beh'
'beetroot_'
'beeping_'
'becuase_'
'beaut'
'bean'
'beams_'
'bay'
'bau'
'barge_'
'banner_'
'bagged_'
'az_'
'atr'
'asy_'
'asso'
'arts_'
'arche'
'arb'
'aqua'
'aq'
'api'
'ap'
'ann'
'animated_'
'ane_'
'andfront_'
'amd_'
'amaz'
'als'
'allot'
'alist'
'aj'
'ait'
'airplanes_'
'aho'
'aff'
'aesthetically_'
'adams_'
'acti'
'accord_'
'= _'
'84_'
'830_'
'71_'
'70th_'
'5pm_'
'5mins_'
'50pm_'
'500'
'48'
'40am_'
'400'
'37'
'225_'
'2019_'
'121'
'$ '
' @'
' ? '_'
' ? " '
' ...- _'
' , .. _'
' ) .. _'
' ' .'
' ! '_'
'zh'
'zen'
'yw'
'youbut_'
'youand_'
'yn'
'yer_'
'yam'
'wri'
'wre'
'workingthe_'
'wlan_'
'whitbread_'
'whisk'
'wet'
'westbury_'
'welcomingthe_'
'weeknight_'
'weekends'
'weed'
'warwick_'
'warrants_'
'warp_'
'wardrobes_'
'wage_'
'wad'
'vivian_'
'visi'
'vik'
'vien'
'vicki_'
'versa_'
'venturing_'
'vee'
'vase_'
'uttered_'
'upi_'
'upcharge_'
'unt_'
'unsurprisingly_'
'unst'
'unrea'
'unhe'
'unh'
'unfriendliness_'
'unfor'
'unfl'
'understaffing_'
'undermine'
'uncom'
'unco'
'umber'
'uis'
'ubiquitous_'
'ub_'
'tyr'
'twin'
'tti'
'trudge_'
'trough_'
'troubled_'
'trevor_'
'traveller'
'trap'
'traf'
'trader_'
'tr'
'tow'
'toured_'
'touchthe_'
'tos_'
'tortilla_'
'todd_'
'titi'
'timel'
'tica'
'throughput_'
'throughout'
'therethey_'
'themwe_'
'thank'
'tf'
'terri'
'tenth_'
'tenner_'
'temper'
'teeny_'
'teat'
'tcha'
'tal'
'tagged_'
'tactics_'
'sync_'
'swo'
'swish_'
'sweep_'
'sweater_'
'suz'
'supurb_'
'supp'
'sunday'
'sul'
'sugar'
'subm'
'stri'
'strain_'
'stock'
'still'
'steered_'
'stationary_'
'staffit_'
'staffed'
'staffbreakfast_'
'sr'
'squeezing_'
'spreading_'
'spott'
'spi'
'spathe_'
'spaciousness_'
'sound'
'soho_'
'sofabed_'
'smooththe_'
'skimp_'
'sittings_'
'sir'
'singular_'
'singaporean_'
'simpli'
'shru'
'shou'
'shoppe'
'shire_'
'shinjuku_'
'shelter_'
'shank_'
'shake'
'shadow'
'servie'
'servicer'
'servi'
'servery_'
'sensi'
'seams_'
'sd_'
'scu'
'screened_'
'scree'
'scoring_'
'scooter_'
'scare_'
'scanned_'
'scallop_'
'saudi_'
'sans_'
'sank_'
'sanj'
'samu'
'samp'
'rural_'
'rud'
'rti'
'rotate_'
'roomso'
'rooming_'
'roomd'
'rocked_'
'robert'
'riz'
'ris'
'rin_'
'riad_'
'rh'
'revellers_'
'reta'
'restaurantand_'
'restauranta'
'resemble_'
'request'
'remote'
'remade_'
'relocating_'
'regulated_'
'refurbishment'
'refr'
'refinement_'
'ref'
'recruitment_'
'reconfirm_'
'recommendthe_'
'rch'
'raves_'
'rar'
'ramsay_'
'rally_'
'raisins_'
'rage_'
'race'
'ques'
'quent'
'puzzling_'
'putt'
'puri'
'punch'
'puffing_'
'promotes_'
'profession'
'problemthe_'
'privileged_'
'presidents_'
'prat'
'porta'
'population_'
'popularity_'
'pont'
'pointe'
'pmso_'
'ply'
'plu'
'ploy_'
'plaster_'
'pier'
'phu'
'pful_'
'petra_'
'pet'
'peso_'
'permeated_'
'performers_'
'peoplethe_'
'peo'
'pd'
'pc'
'pause_'
'path'
'pars'
'parr'
'parallel_'
'panc'
'pajamas_'
'paint'
'pain'
'paella_'
'padd'
'own'
'overseen_'
'overload_'
'overcharging_'
'outr'
'outp'
'outo'
'outlining_'
'outlined_'
'outla'
'outf'
'oute'
'ounce_'
'oun'
'opr'
'ope'
'oneand_'
'onderful_'
'ond'
'omission_'
'offending_'
'odd'
'od'
'obstructed_'
'objection_'
'nuggets_'
'nse'
'nota'
'noo'
'noc'
'nk_'
'nity_'
'nis_'
'nightso_'
'nico'
'niche_'
'newness_'
'nding_'
'nder'
'nak'
'nair'
'mush_'
'mum'
'mpt'
'moved'
'morningi_'
'morninga'
'modestly_'
'modern'
'model'
'mix'
'miracle_'
'minuscule_'
'minimalistic_'
'mindset_'
'mimosas_'
'midway_'
'michele_'
'mex_'
'meta'
'mess'
'menuthe_'
'meh'
'mber'
'mask'
'maro'
'malt'
'maho'
'maggie_'
'lyand_'
'lways_'
'lumps_'
'lty_'
'lou_'
'longer'
'loitering_'
'loews_'
'lips_'
'lights'
'lightbulb_'
'licence_'
'lemongrass_'
'leap'
'ld'
'laundromat_'
'launder'
'lati'
'lace_'
'kris'
'kon'
'knot'
'kinder_'
'kimberly_'
'kiev_'
'kiddie_'
'kettles_'
'kari'
'kana'
'jus_'
'jewellery_'
'jessie_'
'jesse_'
'jared_'
'janice_'
'jai'
'itte'
'itself'
'itl'
'ither_'
'ise'
'irritations_'
'irritate'
'irked_'
'ip_'
'intolerant_'
'internationally_'
'intern'
'instrument'
'ining_'
'inha'
'ingbut_'
'infr'
'incon'
'incessant_'
'images_'
'illustrate'
'ient_'
'idi'
'hyper_'
'hung'
'huffed_'
'hq_'
'housekeepingand_'
'hourthe_'
'hourand_'
'hose'
'hold'
'himand_'
'hild'
'highs'
'hie'
'het'
'herb_'
'helpfulc'
'hawk_'
'haute_'
'haunted_'
'handheld_'
'handbag_'
'hammam_'
'hamburg_'
'hairdr'
'habits_'
'gula'
'grout_'
'grot'
'grigio_'
'greenery_'
'greats_'
'grana'
'gradually_'
'goose_'
'goodon_'
'glow_'
'globalist_'
'gla'
'gigantic_'
'ghts_'
'geti'
'gated_'
'gardening_'
'garb'
'future'
'fuss'
'furnace_'
'froth'
'frightened_'
'friendlycheck_'
'fresco_'
'freebie_'
'fr_'
'fors'
'forgot'
'forgiving_'
'forb'
'fon'
'foil_'
'flushes_'
'floridian_'
'firm'
'fay'
'fas'
'fanc'
'fabulous'
'expen'
'ewe_'
'evry'
'eventi_'
'etta_'
'eton_'
'eta_'
'especialy_'
'ese'
'escorts_'
'escalate_'
'esca'
'erroneous_'
'er'
'eople_'
'enti'
'enthusiast'
'emerged_'
'ely'
'electrics_'
'elb'
'edr'
'ebo'
'dysfunctional_'
'dwa'
'ducks_'
'drowned_'
'dragon_'
'doubletrees_'
'double'
'dosas_'
'dos_'
'doing'
'dob'
'division_'
'divi'
'distances_'
'disregarded_'
'discovering_'
'directors_'
'diningroom_'
'dia_'
'devon_'
'developing_'
'deska'
'demotivated_'
'demolished_'
'decaffeinated_'
'dari'
'dakota_'
'cycling_'
'cult'
'crude_'
'crisp'
'credentials_'
'cream'
'cranked_'
'coz_'
'coz'
'count'
'costed_'
'corp'
'cora'
'copied_'
'contradict'
'contend_'
'cont'
'consistantly_'
'congestion_'
'conditioners_'
'condition'
'compote_'
'communist_'
'columbus_'
'collar'
'coe'
'cobble'
'close'
'cli'
'cleveland_'
'clan'
'cit'
'circulate'
'cide'
'cially_'
'churn'
'choices'
'chess_'
'cheeri'
'cheered_'
'chau'
'champaign_'
'cens'
'celebrities_'
'cathy_'
'cata'
'cas'
'cards'
'canberra_'
'calculat'
'cage_'
'butso_'
'bute'
'busywe_'
'burg'
'bugged_'
'bugg'
'buc'
'brook_'
'brewer_'
'bree'
'bracelets_'
'bracelet_'
'bow'
'boon_'
'bookings'
'bobby_'
'boat'
'bleak_'
'berni'
'bele'
'beige_'
'beard_'
'bby_'
'bathe_'
'bash'
'barso_'
'baro'
'bap'
'bang'
'bah'
'baguettes_'
'backward_'
'awsome_'
'atmos'
'ata_'
'ask'
'artic'
'arma'
'arevery_'
'arctic_'
'archery_'
'apple'
'applauded_'
'antic'
'andhow_'
'andbe'
'andat_'
'ance'
'amigo_'
'amat'
'altered_'
'alter'
'alright'
'alp'
'allu'
'allot_'
'allison_'
'alland_'
'aligned_'
'ake'
'airportthe_'
'aid'
'aha'
'aggravation_'
'againi_'
'affinia_'
'aesthetic_'
'adviser_'
'admired_'
'adly_'
'acr'
'aches_'
'accusing_'
']._'
'\\_'
'99'
'81'
'76_'
'56'
'49'
'47_'
'46'
'301_'
'2h'
'210_'
'1hr_'
'130'
'129_'
'119_'
'110'
'00hrs_'
'" - _'
'" ( _'
'"'
' ? ? )_'
' ? ? ) ._'
' ? ! '
' =_'
' ;-) _'
' :* _'
' :) '
' : • _'
' ...... '
' ... , _'
' .. .'
' . ?_'
' . :-)_'
' . )'
' ) ?_'
' ) + _'
' ( ' _'
' " : _'
' " ) , _'
' " ! !_'
'€ _'
'ythe'
'ystaff_'
'yh'
'yea_'
'xc'
'wrinkle'
'woud'
'wisdom_'
'wis'
'wih'
'wie'
'whiskies_'
'when'
'welli'
'wella'
'weeks'
'wee'
'website'
'watert'
'watersports_'
'waterslide_'
'wat_'
'waste'
'wasi'
'vy'
'von'
'voi'
'vity_'
'vie_'
'verde_'
'venetian_'
'vegeta'
'vau'
'uz'
'utilised_'
'usu'
'uptight_'
'unw'
'unripe_'
'unint'
'unhappiness_'
'unforeseen_'
'underc'
'umi'
'ula'
'uin'
'uca'
'tweaks_'
'tui'
'truthful_'
'transactional_'
'trait_'
'trainedand_'
'trac'
'touted_'
'torch_'
'tm'
'tireless_'
'tides_'
'ticket'
'thumb_'
'therew'
'therein_'
'thames_'
'tex_'
'teas'
'tched_'
'tasking_'
'tash'
'tania_'
'taller_'
'tablecloth_'
'swimwear_'
'swimmingpool_'
'swan_'
'suv_'
'sut'
'surround_'
'sunloungers_'
'sui'
'stroller_'
'stress'
'strat'
'stiff'
'stayer_'
'station'
'starwoods_'
'startled_'
'stairwells_'
'staffwh'
'staffo'
'spill_'
'spas'
'solitary_'
'solid'
'sola'
'sofitels_'
'sof'
'society_'
'snarl'
'smack_'
'skim_'
'skiing_'
'sita'
'sio'
'simone_'
'shut'
'shuffling_'
'showerthe_'
'showerhead_'
'shoeshine_'
'shoe'
'sheri'
'sheep_'
'sharm_'
'servicem'
'serviceh'
'servicecheck_'
'seperately_'
'secretary_'
'scor'
'savory_'
'sasha_'
'sanitize'
'sang'
'ryder_'
'rump_'
'rugs_'
'rro'
'rr_'
'rosem'
'rosa'
'root_'
'roomst'
'roomp'
'roomb'
'roof'
'romania_'
'roma'
'rock'
'ritual_'
'rif'
'rid'
'ribeye_'
'rhe'
'resur'
'restrict'
'restraint_'
'restaura'
'reply'
'reorder'
'reo'
'rena'
'remodelled_'
'relegated_'
'relais_'
'rehearsed_'
'regime_'
'recomm'
'reasoning_'
'reac'
'raul_'
'rationed_'
'quo'
'quai'
'qe'
'push'
'pumpkin_'
'pumped_'
'provo'
'provisioned_'
'protest_'
'prote'
'propertythe_'
'procure'
'priva'
'prem'
'precooked_'
'pray'
'ppr'
'postcard_'
'possible'
'posa'
'portugal_'
'poori'
'poo_'
'poll'
'policy'
'pms'
'pmbut_'
'pma'
'plent'
'ple_'
'plagued_'
'pl'
'pila'
'pictured_'
'photograph'
'philly_'
'period'
'pent_'
'peggy_'
'pear'
'pavillion_'
'patios_'
'passer'
'parlor_'
'parkingthe_'
'papa'
'paola_'
'override_'
'overdoing_'
'overb'
'overal_'
'outings_'
'ottawa_'
'ose'
'orm'
'ordina'
'oran'
'ora_'
'ooooo'
'onis'
'ones'
'omnipresent_'
'oming_'
'olympic_'
'oked_'
'oir'
'offe'
'ocke'
'obvious'
'observing_'
'numbers'
'notthe_'
'nose'
'nod'
'nm'
'nites_'
'nil_'
'nightlife_'
'niceties_'
'niceall_'
'ngand_'
'next'
'nest'
'ner'
'neighbo'
'nect'
'necessitated_'
'ndo'
'myr'
'muttering_'
'must'
'musician_'
'mp_'
'mozzarella_'
'mosaic_'
'morale_'
'monsoon_'
'moment'
'modified_'
'moa'
'mm_'
'miso_'
'misc'
'minutesthe_'
'minibus_'
'mic'
'messe'
'meridian_'
'mens_'
'memo_'
'md_'
'mble'
'mazing_'
'maxi'
'mate'
'marion_'
'marilyn_'
'mara_'
'mang'
'managerthe_'
'mah'
'magnifying_'
'madel'
'macdonalds_'
'lum'
'luce'
'lthe_'
'lovelys'
'loung_'
'lling_'
'ller'
'live'
'lities_'
'lf'
'lexington_'
'lex'
'lett'
'leonardo_'
'lemons_'
'leaks_'
'leaders_'
'laziness_'
'lava_'
'lated_'
'lace'
'labour_'
'kum'
'kuala_'
'kristina_'
'kle'
'kingsize_'
'kik'
'kerala_'
'kee'
'kea_'
'katy_'
'kandy_'
'kai_'
'julian_'
'juggle_'
'join'
'johan'
'jet'
'jerk'
'je_'
'jacob_'
'jac'
'ivo'
'ives_'
'iv_'
'itive_'
'ite'
'irma_'
'inu'
'intruding_'
'interpretation_'
'interface_'
'interc'
'intelligence_'
'inoperable_'
'ink'
'inis'
'indis'
'ind'
'incur_'
'inconvience_'
'inclusions_'
'inat'
'inally_'
'impressive'
'import'
'iko'
'ieve'
'ience_'
'identifying_'
'ida'
'icon_'
'ibi'
'iat'
'iah_'
'iable_'
'hugh_'
'huffing_'
'hots'
'hotl'
'hotelb'
'hotelall_'
'horr'
'holland_'
'hips_'
'hio'
'hermes_'
'herebut_'
'herd_'
'helpl'
'helpfulservice_'
'helpfuls'
'helpfulo'
'helpfulh'
'helpfulg'
'helpfulall_'
'helpf'
'heli'
'harpist_'
'hardthe_'
'harass'
'hapless_'
'hando'
'hamp'
'halifax_'
'hal_'
'haha_'
'haggling_'
'hadthe_'
'gwl_'
'gw'
'guarded_'
'gthe_'
'groceries_'
'greed_'
'graf'
'gosh_'
'goodw'
'goodc'
'goodal'
'golf'
'goldfish_'
'gog'
'goan_'
'glum_'
'glorified_'
'gie_'
'gesture'
'genuinly_'
'gems_'
'gb_'
'galway_'
'gai'
'furniture'
'fum'
'fruity_'
'frindly_'
'friendlyness_'
'footsteps_'
'foodo'
'fly'
'fluff'
'flam'
'finish'
'fineand_'
'fig_'
'fies_'
'fell'
'feet'
'fed'
'falter'
'factor'
'facetime_'
'exu'
'extrem'
'extr'
'expiration_'
'experiance_'
'expanding_'
'exits_'
'excer'
'exacerbated_'
'everywherethe_'
'evan_'
'evaluation_'
'ethiopia_'
'especi'
'ern_'
'enroll'
'endo'
'encounted_'
'empt'
'ement'
'embarassed_'
'ellie_'
'eliminate_'
'elia'
'eing_'
'eighth_'
'efi'
'effie'
'edin'
'edbut_'
'eco'
'ead'
'duff'
'dst'
'drums_'
'drift'
'drie'
'dream'
'downs'
'dough_'
'doubts_'
'dorm'
'dor_'
'doctors_'
'dne'
'dles_'
'distr'
'distinguish_'
'dissappointing_'
'discipline_'
'disapp'
'dime'
'diligence_'
'dilapidated_'
'digit'
'diately_'
'dho'
'detect_'
'detect'
'depressed_'
'depart'
'denial_'
'delux_'
'delicious'
'defrosted_'
'dee'
'ded'
'decei'
'dearer_'
'cusco_'
'curly_'
'cupcakes_'
'cultures_'
'crust_'
'criticize_'
'corresponding_'
'corinthia_'
'cords_'
'convert'
'contest_'
'contempt_'
'contemp'
'conta'
'consulting_'
'consultant_'
'constance_'
'conspicuous_'
'console_'
'consolation_'
'consi'
'conno'
'concourse_'
'conceriege_'
'complex'
'complaint'
'compensating_'
'compendium_'
'commande'
'comfy'
'collins_'
'collegues_'
'collegue_'
'colla'
'clog'
'clin'
'clearance_'
'cite'
'chocs_'
'chir'
'chips'
'chilean_'
'chile_'
'chel'
'chance'
'champagne'
'cham'
'chaise_'
'cert'
'ced'
'ceasar_'
'caviar_'
'cations_'
'cant'
'cann'
'canary_'
'cala'
'cafe'
'busses_'
'bund_'
'buddy_'
'bryce_'
'brin'
'brighten_'
'brid'
'breaka'
'braz'
'brat'
'brass_'
'brad_'
'bowled_'
'borat'
'blizzard_'
'bles'
'blended_'
'bj'
'berating_'
'beneficial_'
'belvedere_'
'bees_'
'bedsthe_'
'beautiful'
'beau'
'bart'
'bark_'
'barefoot_'
'banking_'
'baltimore_'
'babysitter_'
'aya'
'authorities_'
'authenticity_'
'audit_'
'attic_'
'attent'
'ator_'
'aste'
'assumption_'
'assu'
'asia'
'artistic_'
'articulate_'
'arrivals'
'aromatherapy_'
'ark_'
'arises_'
'arg'
'apri'
'appreciates_'
'appreciated'
'applause_'
'appease_'
'apathy_'
'anticipates_'
'annoying'
'anne'
'andwi'
'andwa'
'amit_'
'ambitious_'
'ambar_'
'amb'
'amazon_'
'amaze_'
'alt'
'ally'
'allit_'
'alin'
'alco'
'alarmed_'
'alam'
'ained_'
'ail_'
'againthe'
'againa'
'acom'
'accor'
'accompaniment_'
'abr'
'abominable_'
'82_'
'5h'
'20am_'
'2006_'
'1990_'
'1960s_'
'1950_'
'195'
'194'
'145_'
'1000'
'0800_'
'0700_'
'0630_'
'04'
'..... _'
'.)_'
',._'
'"._'
'!!'
' …'
' \u _'
' ? ' _'
' : )_'
' ...., _'
' ..." _'
' .. )_'
' - -_'
' - ' _'
' ' ..._'
'’ _'
'á'
'½_'
'zz_'
'zet'
'zach_'
'youth'
'yg'
'yangon_'
'xo'
'xed_'
'ww'
'wrappers_'
'would'
'worse'
'wolf'
'wines'
'winery_'
'wicked_'
'whispered_'
'whereabouts_'
'westm'
'werea'
'wellbeing_'
'washrooms_'
'warehouse_'
'ward'
'wand_'
'walker_'
'waitthe_'
'void_'
'visits'
'vine_'
'viking_'
'versions_'
'vern'
'verification_'
'velo'
'vei'
'vate'
'validation_'
'valiant'
'vai'
'vad'
'uts_'
'uso'
'usi'
'unwashed_'
'untr'
'unte'
'unso'
'unseasonably_'
'unfriendly'
'unexperienced_'
'undress'
'underw'
'underl'
'unct'
'unbeli'
'unapproachable_'
'unannounced_'
'umm'
'ule'
'ual'
'type'
'twee'
'tus_'
'tus'
'turf_'
'tuning_'
'tta_'
'truffles_'
'trudged_'
'trekking_'
'travelocity_'
'translates_'
'translated_'
'trades_'
'trade'
'toy'
'torm'
'toppers_'
'toc'
'toa'
'timeso_'
'tili'
'tif'
'tic'
'threaten_'
'threa'
'thou_'
'thieves_'
'thet_'
'texts_'
'territory_'
'terrible'
'tc_'
'tasty'
'tastless_'
'tarts_'
'tann'
'tandoori_'
'tampa_'
'tamara_'
'tah'
'tackle'
'swore_'
'switchboard_'
'swanky_'
'surley_'
'sura'
'suprisingly_'
'success'
'subs'
'su_'
'stuffiness_'
'stream'
'stom'
'stica'
'sten'
'stem'
'staya'
'stanley_'
'standardthe_'
'stake_'
'staffthis_'
'staffho'
'stafff'
'stad'
'spu'
'splend'
'spit_'
'spills_'
'spic'
'spect'
'specialise'
'spark'
'spar_'
'spam_'
'spaci'
'sort'
'somewhere'
'someday_'
'som_'
'soe'
'socializing_'
'socialis'
'social'
'soap'
'snot'
'snob_'
'sniff'
'sn'
'smil'
'smear'
'slush'
'sleeves_'
'sk'
'sis'
'sions_'
'sina'
'simp'
'sigh'
'sic'
'shuffle_'
'showever_'
'showers'
'shortc'
'shift'
'shepherd'
'shea'
'sharply_'
'shark'
'share'
'shang'
'shamethe_'
'sew'
'sev'
'serviettes_'
'servicew'
'servicevery_'
'serviceservice_'
'servicei'
'sent'
'sensation'
'sem'
'seed'
'seaw'
'seared_'
'scraps_'
'scraping_'
'sco'
'sauna'
'sation_'
'rv_'
'ruth'
'russians_'
'rted_'
'routines_'
'roomsw'
'roomsstaff_'
'roomi'
'roomho'
'ronnie_'
'ronald_'
'rne'
'rmo'
'rity_'
'rite'
'risk'
'rina_'
'rian'
'rey'
'retrained_'
'retaurant_'
'restoring_'
'restauraunt_'
'restaruant_'
'resol'
'resist_'
'rer_'
'repairing_'
'renee_'
'rendering_'
'rende'
'ren'
'remove'
'remnants_'
'remiss_'
'relati'
'rela'
'regulation_'
'refurb'
'refugee'
'references_'
'redesign_'
'recou'
'receipt'
'rebuilt_'
'reall'
'read'
'rdin'
'ravi_'
'ranger_'
'randolph_'
'rame'
'ram'
'raining'
'rai'
'radissons_'
'radia'
'quis'
'quet_'
'questiona'
'quebec_'
'punish'
'puffed_'
'provide'
'proposition_'
'proportion_'
'properly'
'programming_'
'profess'
'prix_'
'prim'
'presum'
'preo'
'preferable_'
'prec'
'practi'
'powerless_'
'pota'
'possession_'
'possessi'
'porto_'
'poop_'
'pony'
'pleasantw'
'pleasantbut_'
'pleas'
'piss'
'pirate_'
'pimms_'
'pigs_'
'pigeons_'
'pig'
'peti'
'pete_'
'perm'
'pei'
'pee_'
'pears_'
'pea'
'pari'
'parc'
'paras'
'parador_'
'pann'
'pande'
'pale'
'palatial_'
'palates_'
'pairs_'
'paid'
'page'
'padding_'
'owe_'
'overw'
'overla'
'outthey_'
'outth'
'outa'
'ousi'
'othe_'
'osi'
'orma'
'orient'
'orh'
'orangery_'
'oppo'
'oot_'
'ooo'
'onwe_'
'onw'
'onbut_'
'ona_'
'olin'
'oldi'
'okthe'
'okaya'
'ois_'
'oge'
'offs'
'oe_'
'occured_'
'obstructi'
'obscured_'
'obby_'
'oat_'
'oan'
'nz'
'nte'
'nta_'
'nta'
'nov'
'notice'
'noti'
'noses_'
'nola_'
'nobu_'
'nob'
'nightst'
'nightsh'
'nigel_'
'nicky_'
'nicew'
'niceon'
'nem'
'nel_'
'neglect'
'necklace_'
'near'
'nda'
'nci'
'nally_'
'muzak_'
'mut'
'mumbling_'
'mpe'
'movements_'
'mouthful_'
'morris'
'moron'
'morningthe'
'moor'
'monthly_'
'month'
'mirage_'
'minutesi_'
'mimosa_'
'milli'
'mill'
'mig'
'microphone_'
'mend'
'mena'
'meme'
'mely_'
'mel_'
'max'
'mastered_'
'master'
'massa'
'martina_'
'mardi_'
'malfunctioned_'
'mackerel_'
'lyr'
'luna'
'lump_'
'ludicrous_'
'lt_'
'lovey_'
'lovel'
'lotions_'
'loosely_'
'lon'
'local'
'lobbys'
'lls_'
'llo_'
'liquors_'
'lik'
'lih'
'liability_'
'lewis_'
'lep'
'legends_'
'lates_'
'lateness_'
'lari'
'lag'
'kuredu_'
'ku_'
'krakow_'
'knock'
'knobs_'
'kiss_'
'kins'
'kg_'
'kesh_'
'kem'
'kelsey_'
'kati_'
'kata'
'karl'
'kama'
'journ'
'jord'
'jobs'
'jobbut_'
'jea'
'jala'
'jaime_'
'jack'
'iza'
'iy_'
'ited_'
'island'
'ishly_'
'irs'
'irina_'
'ird_'
'invi'
'intrude'
'inthere_'
'intercon'
'intensive_'
'instill'
'insignificant_'
'inserted_'
'inns'
'initiated_'
'ingi'
'inga'
'infrequent_'
'infested_'
'incorporate'
'incomp'
'inclin'
'incense_'
'improvise'
'impos'
'imply_'
'immo'
'immi'
'ight'
'ici'
'hunger_'
'humanity_'
'hul'
'hugs_'
'ht_'
'hover_'
'household_'
'hotw'
'hotelf'
'hotelbreakfast_'
'hoppa_'
'honoring_'
'holidays'
'holi'
'hol_'
'hod'
'hoc_'
'his'
'hinder'
'herm'
'heritance_'
'herei_'
'helpfulthey_'
'hell'
'heir_'
'heavens_'
'heatwave_'
'hb_'
'hayley_'
'hauled_'
'hashbrowns_'
'hara'
'har_'
'handrail'
'guestrooms_'
'grun'
'grumbling_'
'grow'
'groan'
'gritt'
'grind'
'grainy_'
'goodn'
'glas_'
'generating_'
'gee_'
'gee'
'gd_'
'gay'
'garden'
'fudge_'
'frontline_'
'fronted_'
'friendlyit_'
'friedly_'
'freight_'
'frank'
'franco_'
'fran_'
'fourt'
'fot'
'foster'
'forwards_'
'fork'
'forbidden_'
'foolish_'
'foods'
'foodh'
'fm'
'floorboards_'
'float_'
'flippant_'
'flin'
'flabbergasted_'
'fishy_'
'fis'
'fiancé'
'fern'
'feeble_'
'feared_'
'faucets_'
'fathom_'
'fat'
'fares_'
'fancier_'
'fac'
'eyes'
'eye'
'extrememly_'
'extremelly_'
'exter'
'exten'
'expir'
'expedi'
'exemplified_'
'exclu'
'ewa'
'evol'
'eva'
'ethnic_'
'etcbut_'
'etcand_'
'etca'
'eta'
'ery'
'eries_'
'erd'
'entrée_'
'entre'
'entertainer_'
'enjoyable'
'englishand_'
'endea'
'enda'
'employment_'
'elsethe_'
'ell'
'elbow_'
'elan'
'ej'
'eil'
'ego_'
'eep'
'edm'
'edison_'
'eddy_'
'echoed_'
'earning_'
'eally_'
'drills_'
'drifte'
'drift_'
'dress'
'downstairs'
'dow'
'doom'
'dong_'
'doll_'
'doe'
'document'
'dock'
'dj'
'displ'
'dishes'
'dishe'
'diplomat_'
'digging_'
'diet'
'didnot_'
'diapers_'
'dh_'
'dev'
'deskwe_'
'deprived_'
'dentist_'
'demonstrating_'
'demi'
'delu'
'deliciously_'
'defini'
'deficiency_'
'deeper_'
'deduction_'
'decla'
'deca'
'deadbolt_'
'dding_'
'dani'
'custom'
'curve_'
'cum'
'cull'
'crummy_'
'crumb'
'croatia_'
'crepe_'
'cremated_'
'creaked_'
'craziness_'
'cowboy_'
'cort'
'corin'
'copthorne_'
'conver'
'convent'
'conve'
'contin'
'consultation_'
'constr'
'consent_'
'cong'
'conce'
'complimentry_'
'complicat'
'complained'
'commodity_'
'commenced_'
'column'
'colon'
'colombia'
'colli'
'coincided_'
'cofee_'
'cody_'
'coated_'
'clutter_'
'cluster_'
'clubb'
'clipboard_'
'clearer_'
'cle_'
'circulating_'
'christy_'
'cheeseburger_'
'cheeseboard_'
'cheerful'
'chea'
'chatt'
'charts_'
'charmed_'
'charm'
'changed'
'chancellor_'
'cel'
'cce'
'cava'
'caus'
'carving_'
'carne'
'carly'
'carl_'
'captured_'
'canceling_'
'butvery_'
'bulgarian_'
'browse_'
'bron'
'breath'
'breaky_'
'breakfastvery_'
'breakfastservice_'
'breakfastm'
'bran'
'brakfast_'
'bounce_'
'botched_'
'borders_'
'bonuses_'
'bob'
'bisc'
'bellman'
'belligerent_'
'bec'
'bbe'
'bb_'
'battle'
'barma'
'barkeep'
'barbe'
'banned_'
'bann'
'ballrooms_'
'baffling_'
'bads'
'backb'
'ayu'
'awar'
'avery_'
'avaia'
'ava_'
'authori'
'aust'
'atti'
'attenti'
'attendee_'
'attach'
'atl'
'atho'
'astray_'
'ashe'
'artists_'
'arra'
'arr'
'arian'
'areasthe_'
'arch'
'approaches_'
'appealed_'
'appaling_'
'ao_'
'anythingand_'
'anth'
'ante_'
'angles_'
'angl'
'andres_'
'andh'
'andevery_'
'andafter_'
'amount'
'amentities_'
'amenties_'
'ameneties_'
'alto_'
'allthe'
'allo'
'alleviate_'
'alejandro_'
'aks'
'aki'
'ajar_'
'airc'
'agi'
'affects_'
'afa'
'advisor'
'advisable_'
'adventures_'
'adjective'
'acqui'
'accomm'
'650_'
'53_'
'45mins_'
'39'
'33rd_'
'30am'
'230_'
'2200_'
'20s_'
'20pm_'
'106_'
'101'
'0s_'
'00the_'
'00pm'
'/ '
'-----'
',- _'
'* '
' :-) ._'
' : -'
' : * _'
' ..... '
' .* , _'
' ----'
' ) , '
' ( ? ) ._'
' ' . _'
' ''
'•_'
'zu_'
'zs'
'zion_'
'zab'
'youa'
'yle_'
'yang_'
'xp'
'wth_'
'writer_'
'wr'
'wow'
'woodwork_'
'wond'
'woe'
'wiring_'
'winston_'
'wil_'
'wew'
'welcomingand_'
'welcomes'
'wax_'
'waswe_'
'wasp'
'waso'
'wasn'
'wasa_'
'warnings_'
'ware'
'waa'
'vu_'
'voluntarily_'
'vo_'
'vivi'
'visa'
'virtual_'
'vino_'
'vila'
'vide'
'victim_'
'vet'
'verry_'
'vene'
'vend'
'vein_'
'valentina_'
'vale'
'vacancy_'
'upright_'
'upmost_'
'upbut_'
'unwa'
'unsc'
'unsatisfied_'
'unpolite_'
'unpersonal_'
'unl'
'unfi'
'underpaid_'
'uncomplicated_'
'unad'
'uits_'
'uht_'
'ught'
'uer'
'uda_'
'ua_'
'tz_'
'twe'
'ture'
'tunes_'
'tsi'
'tsa'
'trully_'
'troy_'
'tropics_'
'tripthe_'
'tripadvis'
'transport'
'transiting_'
'transformed_'
'tomas_'
'tk'
'tisf'
'timewe_'
'timesa'
'tik'
'tidi'
'tics_'
'ths_'
'thrust_'
'throwback_'
'thl'
'thiswe_'
'thick'
'thet'
'thermostats_'
'theo'
'themso_'
'thel'
'thatbut_'
'texan_'
'testi'
'tes'
'terrasse_'
'terrace'
'tern'
'teria'
'temper_'
'technique_'
'td'
'tav'
'tatiana_'
'tap'
'talkie_'
'taking'
'tailored_'
'symp'
'swere_'
'sweden_'
'swallow_'
'sw'
'surviv'
'surp'
'support'
'sunt'
'sunb'
'suburban_'
'subt'
'substituted_'
'stubborn_'
'stroppy_'
'strip'
'stomping_'
'stha'
'stewards_'
'stero'
'stayth'
'staying'
'stayi'
'staycation_'
'staurant_'
'starve_'
'startling_'
'staggering_'
'ssh'
'sr_'
'squirt'
'squid_'
'spruced_'
'spri'
'spike'
'spiff'
'spie'
'souffle_'
'soso_'
'sorrento_'
'sophia_'
'somb'
'snuff_'
'sms_'
'smoking'
'smilling_'
'smilethe_'
'sloppi'
'slop_'
'slipper_'
'slim'
'sleepw'
'slack'
'skybar_'
'skinny_'
'ska'
'sist'
'sider'
'shula_'
'shove_'
'shot'
'shiv'
'shing_'
'sheila_'
'shawn_'
'shaw'
'shang_'
'shane_'
'shabbi'
'settee_'
'servicewh'
'serenity_'
'sensors_'
'sen_'
'sef'
'seedy_'
'section'
'seating'
'scratchy_'
'scratching_'
'scrapp'
'scraped_'
'scr'
'scampi_'
'satisfactory'
'sardines_'
'sande'
'salad'
'sak'
'rye_'
'rusive_'
'rui'
'ruder_'
'rowing_'
'roundthe_'
'rouge_'
'rosew'
'roomsbut_'
'roomno_'
'roomin'
'roomcheck_'
'roofs_'
'rond'
'roach_'
'revisited_'
'revised_'
'reuni'
'restaurantth'
'restauarant_'
'restau'
'restaraunts_'
'resta'
'respect'
'resistance_'
'reputed_'
'repro'
'reprimanded_'
'repetative_'
'repa'
'reiterated_'
'reheat_'
'regret'
'regina_'
'refurbishments_'
'refund'
'ref_'
'recruit_'
'recpetion_'
'recon'
'recommendedthe_'
'recite'
'recieve_'
'reccomend'
'reassurance_'
'reasonable'
'raven'
'rati'
'rashers_'
'raquel_'
'rans'
'range'
'ramp'
'ramon_'
'rall'
'rains'
'rainbow_'
'rade'
'ract'
'ra'
'quiete'
'queens'
'qi'
'py'
'purpose'
'puppy_'
'punters_'
'pullout_'
'proper'
'pronunciation_'
'promis'
'profit'
'professionnal_'
'proceeds_'
'priscilla_'
'pris'
'principal_'
'pricethe_'
'pretense_'
'preserved_'
'preserve_'
'preserv'
'prepo'
'prep'
'prefers_'
'pree'
'pram'
'ppi'
'ppe'
'pparently_'
'poss'
'posit'
'pose_'
'portugese_'
'portray_'
'porter'
'poorthe_'
'poli'
'pod'
'plentyful_'
'pleaseant_'
'pleasantstaff_'
'pleaded_'
'plain'
'pk'
'pizza'
'pity'
'pitch'
'pis'
'phoneand_'
'pher'
'persistence_'
'pers'
'permits_'
'perky_'
'percepti'
'pep'
'peers_'
'peaches_'
'payment'
'pavement_'
'patt'
'patri'
'patched_'
'passi'
'paro'
'parlour_'
'panelled_'
'pamphlet'
'pairings_'
'paintwork_'
'paci'
'p'
'overstate'
'oversi'
'oversee_'
'overriding_'
'overr'
'overpa'
'overheated_'
'overhear_'
'overflowed_'
'outsh'
'outdo'
'ote_'
'oss'
'oslo_'
'osh'
'ose_'
'orst'
'organis'
'org'
'ook'
'ood'
'onn'
'oni'
'oms_'
'omm'
'olo_'
'oliv'
'oke'
'oin'
'offen'
'oco'
'oci'
'oak'
'nya'
'nur'
'numb'
'nove'
'nothe_'
'notches_'
'normal'
'nio'
'nicolas_'
'nicola_'
'niceso_'
'nicef'
'ngthe_'
'nev'
'neutr'
'nel'
'neighbourhood_'
'necessitating_'
'ndi'
'nav'
'nasi_'
'naomi_'
'names'
'nameand_'
'mysteriously_'
'musc'
'murphy_'
'mpti'
'mouthwash_'
'mouthed_'
'moto_'
'morningw'
'morningso_'
'morningbut_'
'moods_'
'monument_'
'monies_'
'mol'
'mock_'
'mn_'
'mixes_'
'mish'
'miniscule_'
'minimise_'
'miner'
'minat'
'mimi'
'milestone'
'mie_'
'midwest_'
'michaela_'
'merits_'
'merchant_'
'mentary_'
'meno'
'membership'
'memberand_'
'meli'
'meds_'
'meaningless_'
'mati'
'mathi'
'marsh'
'marquee_'
'manta'
'mans'
'mamo'
'makati_'
'maintained'
'magician_'
'madeira_'
'm2'
'lus_'
'lufthansa_'
'lp_'
'loungethe_'
'lori_'
'lope'
'lis_'
'liness_'
'linden_'
'lill'
'lic_'
'ley'
'legacy_'
'layouts_'
'laundry'
'laun'
'las'
'lands_'
'landl'
'kul'
'kot'
'knowand_'
'kirsty_'
'kia'
'keyst'
'kes_'
'kell'
'kei'
'karina_'
'kar_'
'justification_'
'justi'
'jumper_'
'jum'
'juicy_'
'judith_'
'joyful_'
'johnson_'
'jogging_'
'joan_'
'jin'
'jen'
'jav'
'janitor'
'jama'
'jal'
'jacuzzis_'
'izi'
'isw'
'ist'
'irritant_'
'iron'
'irin'
'inw'
'inver'
'inva'
'ints_'
'intruder'
'internetthe_'
'institution_'
'inspector_'
'insights_'
'input'
'inla'
'ingrid_'
'infra'
'infor'
'infa'
'indonesia_'
'indic'
'india'
'inaccessible_'
'impression'
'impractical_'
'impart'
'ilit'
'iit'
'idiotic_'
'ibly_'
'hydrotherapy_'
'hus_'
'hurriedly_'
'hunter'
'humour'
'humiliating_'
'housema'
'hould_'
'hotp'
'hostel'
'hoover_'
'hogg'
'hog'
'hobb'
'hly_'
'hkg_'
'hiltonhonors_'
'hend'
'helsinki_'
'helpfulthis_'
'helpdesk_'
'hel'
'heed_'
'hear'
'hea'
'hazel'
'harvey_'
'harrassed_'
'hap'
'hammock'
'half'
'hack'
'gust'
'guess'
'gst'
'gru'
'grooming_'
'grips_'
'grin_'
'grim'
'grief_'
'greeting'
'greene'
'greate'
'grated_'
'grandmother_'
'grace'
'goodp'
'goodevery'
'goodd'
'golfing_'
'gno'
'gni'
'giu'
'gerry_'
'georgian_'
'georgetown_'
'genial_'
'gaud'
'gator'
'gastro_'
'galley_'
'fying_'
'funniest_'
'frigid_'
'frig'
'friendlya'
'friendliest'
'fren'
'freaked_'
'freak_'
'fraser_'
'francesca_'
'forte_'
'fond'
'fold'
'floorwe_'
'flavorless_'
'flamb'
'fixed'
'fix'
'fines'
'finei_'
'fill'
'fights_'
'fiendly_'
'fields_'
'fect'
'faultthe_'
'farmer_'
'fanat'
'faire_'
'fabi'
'extreme'
'experts_'
'exhorbitant_'
'excelsior_'
'exasperated_'
'everthe'
'eventual'
'eveningi_'
'ete_'
'ete'
'etci_'
'etce'
'esthe'
'ester'
'escaped_'
'erst'
'erika_'
'eria'
'erh'
'erc'
'ept'
'enthusia'
'entertainment'
'enn'
'enjoy'
'enhancing_'
'enforcement_'
'ence'
'empties_'
'empathi'
'embarrassingly_'
'elysium_'
'elpful_'
'ellipticals_'
'elicited_'
'eli_'
'elemis_'
'elect'
'elder'
'eka_'
'eit'
'eid'
'effiecient_'
'efficients'
'efficienti_'
'efficienta'
'effici'
'een'
'educate_'
'eds_'
'eds'
'edn'
'ected_'
'economic_'
'eck'
'ece'
'eav'
'eased_'
'dutifully_'
'dusting_'
'dus'
'duck'
'dron'
'dribble_'
'downloading_'
'dori'
'dore'
'doorand_'
'dome'
'dom'
'doggy_'
'dk'
'distressing_'
'distinctive_'
'diss'
'disposed_'
'displeased_'
'dispite_'
'disney'
'disingenuous_'
'disease_'
'discolo'
'disapointment_'
'disadvantage_'
'direction'
'dinnerwe_'
'dining'
'dings_'
'dimme'
'diminish'
'dignified_'
'difficult'
'differentiator_'
'dick_'
'devi'
'detr'
'deteriorating_'
'derby_'
'depr'
'depot_'
'dented_'
'denominat'
'deni'
'delivered'
'delicous_'
'delegate_'
'delaying_'
'dej'
'deg_'
'defence_'
'deed_'
'deceiving_'
'dead'
'dart'
'dampen'
'dame_'
'dall'
'dal_'
'dai'
'daft_'
'cuto'
'cust'
'cudos_'
'crus'
'croutons_'
'crook'
'creations_'
'creaking_'
'crea'
'cover'
'cov'
'coud'
'cosmopolitan_'
'contact'
'conservation_'
'conscierge_'
'congregated_'
'congierge_'
'condos_'
'condo'
'condi'
'cond_'
'comprising_'
'components_'
'coil'
'cogn'
'coarse_'
'cling'
'cleana'
'classthe_'
'classification_'
'clarke_'
'citadines_'
'ciate'
'choke'
'chocolat_'
'chlorinated_'
'chill'
'chia'
'checkins_'
'charisma_'
'chal'
'chad_'
'centrali'
'centr'
'cebu_'
'cease_'
'cea'
'cay'
'cath'
'casey_'
'cars'
'carri'
'carparking_'
'carolyn_'
'carbo'
'capture_'
'cape'
'candies_'
'canap'
'camps_'
'calle'
'cali'
'caffeine_'
'cafetiere_'
'button'
'butthis_'
'butte'
'butin_'
'burns_'
'burj_'
'brutal_'
'brulee_'
'brown'
'broadcast'
'bridal_'
'brew'
'brek'
'breakfastw'
'brash_'
'bottom'
'boscolo_'
'bore'
'boardwalk_'
'blur'
'bloomsbury_'
'block'
'bldg_'
'binder_'
'bind'
'bia'
'beyond'
'bev'
'besti_'
'bestand_'
'bends_'
'belo'
'beli'
'being'
'bedspread_'
'beck_'
'bathrooms'
'barw'
'baros_'
'barley_'
'barg'
'barbados_'
'balla'
'balancing_'
'bake'
'backlog_'
'bacc'
'bacardi_'
'bac'
'baby'
'awe'
'avoidable_'
'aveda_'
'aval'
'availabil'
'automat'
'aut'
'aun'
'atu'
'attentitive_'
'atte'
'ats'
'atit'
'association_'
'arrivedthe_'
'arrivedand_'
'arrange'
'areai'
'arat'
'apol'
'apo'
'another'
'anj'
'anis'
'angkor_'
'angeles_'
'andwh'
'androom_'
'andnice_'
'andi'
'andfrom_'
'andagain_'
'amazinga'
'amazement_'
'alternate'
'alsow'
'alm'
'allstaff_'
'allen_'
'ality_'
'alfredo_'
'alf'
'alan'
'aint'
'aimlessly_'
'aided_'
'afr'
'advers'
'adriana_'
'admitting_'
'ading_'
'acy_'
'actic'
'acres_'
'aching_'
'accord'
'accomodating'
'abut_'
'abraham_'
'aboutthe_'
'abd_'
']_'
'[_'
'://_'
':- )'
'5i'
'59'
'57'
'530_'
'50am_'
'275_'
'250'
'230'
'199_'
'131_'
'123'
'10minutes_'
'0pm_'
'.-_'
',,,_'
', " _'
'! )_'
' –'
' ] '
' < _'
' .— _'
' ./_'
' ............ _'
' ... - _'
' ... ! !'
' .. ) _'
' .. !_'
' . ..._'
' , " '
' ) -- _'
' ) " _'
' ' ?_'
' ' ....'
' !* _'
' ! -_'
'️'
'”_'
'‘_'
'ó'
'és_'
'zzle'
'zippe'
'zia'
'zer_'
'yv'
'yup_'
'yul'
'yst'
'youtube_'
'yolanda_'
'yol'
'yield_'
'yank'
'xtremely_'
'ww_'
'wreck'
'wou'
'workman_'
'workings'
'woods'
'wong_'
'wne'
'wives_'
'witch_'
'winds'
'whist_'
'whining_'
'wha'
'weres'
'wembley_'
'wedges_'
'wealthy_'
'weaknesses_'
'wd'
'wb'
'waterp'
'wasf'
'wards_'
'walnut_'
'walmart_'
'waiters'
'waitand_'
'waist'
'wag'
'vowed_'
'vlad'
'visita'
'virginia_'
'villa'
'vice'
'ventilate'
'vening_'
'vegans_'
'variab'
'varadero_'
'valuethe_'
'vac'
'uu'
'uto'
'usal'
'uro_'
'urned_'
'urely_'
'upwe_'
'unsuitable_'
'unsecured_'
'unrelated_'
'unre'
'unnerving_'
'unnec'
'unmemorable_'
'unlo'
'unhelpful'
'undergo_'
'uled_'
'ulate_'
'uel'
'udi'
'ude'
'uc'
'typhoon_'
'tutt'
'tures_'
'tum'
'tudor_'
'tted_'
'trustworthy_'
'trumps_'
'triggered_'
'trem'
'tread'
'trea'
'transparent_'
'tough'
'tort'
'tome'
'tofu_'
'toasty_'
'tivoli_'
'tis_'
'timew'
'timeb'
'ths'
'throught_'
'thinne'
'thim'
'thestaff_'
'thermometer_'
'theme'
'thef'
'theat'
'terraz'
'termina'
'term'
'teppanyaki_'
'tel'
'teac'
'tch'
'tbh_'
'tapped_'
'tang'
'tanding_'
'tallinn_'
'talents_'
'take'
'swinging_'
'swell'
'sweetened_'
'swarming_'
'suspicion_'
'susann'
'surf'
'supr'
'sup'
'sunwing_'
'sunni'
'summer'
'summari'
'sultan'
'suitcase'
'succession_'
'suc'
'suburb'
'subo'
'suberb_'
'studiously_'
'structure'
'strap'
'stomachs_'
'stinking_'
'stefano_'
'steam'
'stat_'
'stampede_'
'stalls_'
'stall'
'stage'
'stafffro'
'squee'
'square'
'sq'
'spritz'
'sprite_'
'springfield_'
'spot'
'spontaneously_'
'sponsored_'
'splashed_'
'spend'
'spencer_'
'speci'
'spacy_'
'sources_'
'soothe'
'soh'
'softly_'
'snu'
'snowing_'
'sneezing_'
'snatch'
'smoothly'
'smallthe_'
'slope_'
'sling'
'slimy_'
'slight'
'slat'
'skewe'
'skat'
'sizable_'
'siri'
'singled_'
'silver'
'sightsee'
'sig'
'sif'
'siesta_'
'sick'
'shisha_'
'shirt'
'shi_'
'sharpen_'
'shank'
'shal'
'sey'
'seven'
'seth'
'serviceno'
'servicee'
'servicec'
'serviceb'
'serice_'
'second'
'seas_'
'seal'
'scuffed_'
'scrum'
'screws_'
'screwdriver_'
'scorching_'
'scen'
'scales_'
'sbury_'
'sazerac_'
'satay_'
'saro'
'santos'
'sanitary_'
'sandos_'
'sams'
'salt'
'sach'
'ryanair_'
'rve'
'russell_'
'russ'
'rul'
'rudes'
'rubb'
'royalton_'
'rotated_'
'ross'
'rosen_'
'ros'
'roomwas_'
'roomt'
'roomon_'
'roommate_'
'rooml'
'roomha'
'rook'
'roni'
'roman'
'rol'
'rna'
'rint'
'rine'
'rik'
'rien'
'rib'
'rga'
'rful_'
'reviv'
'revert_'
'reveal_'
'reuben_'
'retrospect_'
'retreated_'
'retrain_'
'retire'
'restu'
'reste'
'restaurantso_'
'respectively_'
'resonable_'
'repl'
'repai'
'renovation'
'reliability_'
'relaxing'
'reimbursement_'
'regretfully_'
'refrigeration_'
'refrigerated_'
'refillable_'
'refers_'
'rees_'
'redirected_'
'reconnect_'
'reconnect'
'recession_'
'receptionwas_'
'receptionso_'
'receiver_'
'rec'
'rearranging_'
'rdered_'
'rca'
'rbut_'
'raymond_'
'rationale_'
'ratethe_'
'rates'
'rasher_'
'ras_'
'ramo'
'ramb'
'rait'
'radios_'
'quito'
'quin_'
'quill'
'quickthe_'
'quart'
'quar'
'ption'
'protesting_'
'protea_'
'prospect_'
'propertys'
'proofed_'
'pronounced_'
'promt_'
'promptly'
'programmes_'
'probs_'
'problema'
'prob_'
'prob'
'pricier_'
'priceless_'
'prevailed_'
'prevail'
'prepayment_'
'prem_'
'prefered_'
'preco'
'preca'
'practise_'
'potter'
'portioned_'
'politea'
'polis_'
'pleasent'
'plaque_'
'pitty_'
'pitt'
'piper_'
'pipe'
'pinn'
'pim'
'pilots_'
'pills_'
'picki'
'phil'
'pestana_'
'pervades_'
'perv'
'pert'
'perched_'
'pennies_'
'penang_'
'peak'
'pave'
'patrol_'
'pata'
'pat'
'pastas_'
'particular'
'parent'
'pare'
'pap'
'paltry_'
'palette_'
'palazzo_'
'pak'
'padded_'
'pacif'
'ower'
'overwhelm_'
'overweight_'
'overe'
'overalls'
'overa'
'outward_'
'outsiders_'
'outi'
'outb'
'othing_'
'orry_'
'oro_'
'ork'
'orb'
'onti'
'onse'
'onl'
'onable_'
'omani_'
'oktoberfest_'
'oft_'
'offputting_'
'oeuvre_'
'oes_'
'och'
'oceana_'
'obsolete_'
'obsessed_'
'objecti'
'oats_'
'nursing_'
'numbering_'
'nth_'
'nst'
'nou'
'noticable_'
'noth'
'nook_'
'nons'
'noir_'
'noice_'
'niti'
'nightsi_'
'ngt'
'nfe'
'newbie'
'neu'
'networks_'
'nes'
'nerv'
'nep'
'negotiation_'
'negate'
'necks_'
'natt'
'nationals_'
'nadi'
'murky_'
'mouth'
'most'
'mort'
'morse_'
'mora'
'moneys'
'mondays_'
'mond_'
'monaster'
'mok'
'mode'
'mock'
'mob'
'mme'
'mitigate_'
'missi'
'mislead_'
'mira_'
'minibars_'
'mili'
'mignon_'
'mighty_'
'micros'
'mewe_'
'menue_'
'memori'
'memberth'
'melting_'
'melt'
'meeru_'
'mediocrity_'
'mec'
'meb'
'md'
'mbu'
'maz'
'mayhem_'
'maswik_'
'masterc'
'masseurs_'
'mass'
'mart'
'mars'
'marker_'
'margin_'
'mare'
'marble'
'mania'
'maintenace_'
'mainstream_'
'maine_'
'magnet'
'mage'
'maca'
'lydia_'
'lve'
'lut'
'lurking_'
'lur'
'lucia_'
'lucas_'
'lows_'
'loveliest_'
'lorraine_'
'loos_'
'looking'
'logistical_'
'logan_'
'locat'
'lled_'
'listens_'
'listen'
'limerick_'
'lightbulbs_'
'lig'
'liber'
'lew'
'lenny_'
'ledge'
'leb'
'least'
'leas'
'lbs_'
'lau'
'lar_'
'lao'
'lands'
'lanai_'
'lagers_'
'lad'
'kos'
'knowlegeable_'
'kicker_'
'khali'
'kennel'
'keep'
'kd_'
'kc'
'kate'
'jw'
'judge'
'journeys_'
'joa'
'jim'
'jiggle'
'jarr'
'jacqu'
'jab'
'ivy_'
'ivi'
'itz'
'itb'
'istic_'
'ission'
'irresponsible_'
'iran_'
'ique_'
'ios'
'inwas_'
'interrogat'
'intentional_'
'inten'
'instructing_'
'inst'
'inser'
'inno'
'innkeeper'
'initiate_'
'ingo'
'industry'
'inconvien'
'inconvenien'
'inci'
'incessantly_'
'inad'
'impo'
'implying_'
'impaired_'
'impacts_'
'imme'
'ime'
'iin_'
'igua'
'ias_'
'ially_'
'hypo'
'humor'
'humb'
'hud'
'housekeepingthe_'
'hound_'
'hott'
'hotplate_'
'hotelservice_'
'hotell'
'hotelha'
'hotelfr'
'host'
'hosp'
'hort'
'horseradish_'
'horrendously_'
'hoovered_'
'hock_'
'hiker'
'hertz_'
'hers'
'herestaff_'
'hep'
'helpfulvery_'
'helper_'
'helicopter_'
'hele'
'heeled_'
'heck'
'heap_'
'haves'
'hasty_'
'hange'
'handmade_'
'handi'
'hamm'
'halal_'
'hake_'
'h00_'
'gy'
'gut_'
'gusts_'
'gun_'
'gua'
'groov'
'grassy_'
'granting_'
'graduate'
'goodness'
'goodm'
'gone'
'going'
'gma'
'glad'
'glacial_'
'girlfriends_'
'gio_'
'ges'
'gentleman'
'gent'
'geni'
'gaz'
'gation_'
'garment'
'gall'
'fundamentally_'
'fry'
'fron'
'friendlythey_'
'friendlly_'
'frankie_'
'franchisee_'
'frag'
'foundation_'
'fought_'
'formulaic_'
'forceful_'
'forbid_'
'fluke_'
'fluid'
'flour_'
'flou'
'floorst'
'flightthe_'
'flatbread_'
'flat'
'fj'
'firmer_'
'finn'
'finger'
'filip'
'filing_'
'fiddling_'
'fic_'
'fiable_'
'ffle'
'ffe_'
'fence_'
'fella_'
'federal_'
'faz'
'faulti'
'fart'
'fara'
'fanta'
'fairy_'
'fairbanks_'
'facili'
'ez_'
'extreemly_'
'extracti'
'experienced'
'expenditure_'
'excite'
'exaggerate'
'even'
'ett_'
'etr'
'etch'
'esti'
'estaff_'
'espite_'
'espa'
'esk_'
'esb'
'erran'
'ergonomic_'
'erg'
'epitomize'
'epitomise'
'enu'
'ens'
'enou'
'enhance'
'enge'
'endorse'
'encompass'
'emo'
'emil'
'emerg'
'elusive_'
'els_'
'ella'
'either'
'efficientw'
'efficiant_'
'effec'
'effcient_'
'eet'
'eed'
'edwe_'
'edo'
'edg'
'ecl'
'ebut_'
'eau_'
'earth'
'eable_'
'dumbfounded_'
'drib'
'draughty_'
'downt'
'downmarket_'
'downe'
'dowe'
'dowdy_'
'doughnuts_'
'docks_'
'diversi'
'distasteful_'
'dissipate'
'dissapoint_'
'disrespect'
'disr'
'disputed_'
'disorient'
'disin'
'discriminati'
'discouraging_'
'disaster'
'dipping_'
'different'
'differed_'
'dialled_'
'dialing_'
'dhar'
'dged_'
'devere_'
'detracts_'
'deteriorate_'
'deta'
'despa'
'deskth'
'deskc'
'deodorant_'
'dent'
'denmark_'
'dela'
'degustation_'
'definitively_'
'defines_'
'deepak_'
'decrepit_'
'decreased_'
'deceived_'
'decay'
'decadent_'
'dazzl'
'dayss'
'darl'
'dad'
'curfew_'
'cud'
'cubans_'
'cting_'
'crème_'
'cruise'
'crowning_'
'crow'
'criticised_'
'critic'
'cramp'
'courte'
'cordial'
'convoluted_'
'contri'
'contes'
'contented_'
'conte'
'contagious_'
'consum'
'constraints_'
'consistant_'
'consci'
'connects_'
'congregating_'
'confus'
'condom'
'computer'
'compre'
'comple'
'competitor_'
'compensates_'
'compe'
'compass_'
'compara'
'commentary_'
'comment'
'comically_'
'combat'
'coma'
'colda'
'colada_'
'coincidence_'
'coi'
'coach'
'cloakroom_'
'clip'
'clincher_'
'climbed_'
'clara_'
'cl_'
'cke'
'civilized_'
'citi'
'cia_'
'cht'
'chorizo_'
'choc'
'chennai_'
'chemi'
'chek_'
'chastised_'
'charismatic_'
'chari'
'chan_'
'champion_'
'chairs'
'chair'
'chafing_'
'cent'
'cello'
'cedar_'
'cecilia_'
'catalogue_'
'casti'
'carlo'
'caring'
'careless'
'capuccino_'
'capr'
'canopies_'
'cani'
'camill'
'calories_'
'calls'
'californian_'
'cajun_'
'caitl'
'cad_'
'buy'
'butg'
'butbe'
'butafter_'
'busys'
'busyi_'
'busted_'
'busload'
'bunfight_'
'bundle_'
'bugbear_'
'bud'
'bruges_'
'brough_'
'broc'
'britt'
'bris'
'brews_'
'brewing_'
'bren'
'breathing_'
'breaksfast_'
'breakfastf'
'breakfastall_'
'bott'
'bosses_'
'boa'
'blu'
'blight'
'blank'
'blake'
'bircher_'
'bethe_'
'benn'
'believes_'
'beco'
'becks_'
'beautifull_'
'batht'
'bass'
'barnsley_'
'bargain'
'barber'
'barbeque_'
'balloon_'
'bak'
'bagg'
'bagan_'
'bachelor'
'ax_'
'aven'
'auth'
'aus_'
'aurora_'
'august'
'attracti'
'att_'
'atic_'
'athmosphere_'
'arun'
'arth'
'aroundthe_'
'approve_'
'appologised_'
'appl'
'appeti'
'apologizes_'
'apologise'
'apologetically_'
'apa'
'anxiety_'
'anton'
'anta'
'anomaly_'
'andr'
'andoverall_'
'andone_'
'andm'
'andhe'
'andg'
'andfi'
'andevery'
'ances_'
'amor'
'american'
'ambition'
'amari_'
'alternati'
'alr'
'allocations_'
'allergenic_'
'alittle_'
'aldo_'
'alc'
'alb'
'ako'
'aking_'
'ais_'
'ais'
'airs_'
'aine_'
'aggravated_'
'aggr'
'agg'
'afterward_'
'aerobic_'
'aero'
'adu'
'adjo'
'adina_'
'address'
'achieving_'
'accommodation'
'abundantly_'
'absorb_'
'abide_'
'aar'
'aand_'
'??'
'; '
'74'
'730_'
'73'
'5m'
'4p'
'37th_'
'310_'
'2b'
'2a'
'260_'
'210'
'2000'
'1930_'
'165_'
'12noon_'
'118_'
'114'
'104_'
'1030'
'00a'
'---_'
'+++ '
'* * * * * '
')--'
'! ! !_'
' ” ( _'
' ] , _'
' ? ? ? '
' ? ) '
' = '
' ;'
' :-( _'
' : “ _'
' : ) '
' : ' _'
' : $ _'
' .~_'
' .... ) ._'
' ... ?_'
' . -_'
' . ! '
' --'
' , ‘ _'
' ( € _'
' ( ~'
' ( ? ) , _'
' ' ) _'
' ' ) ._'
' " ...._'
' " -- _'
' ! ? '
' ! ) . _'
' ! ! ! ! '
'“_'
'zation_'
'yway_'
'yvonne_'
'yuc'
'youthe'
'yous'
'youi_'
'yness_'
'yen'
'yeara'
'yawn'
'yak'
'yacht_'
'xl'
'xin'
'xavier_'
'wy_'
'wrangl'
'woul'
'wom'
'wn'
'withw'
'withdraw'
'wing'
'wiling_'
'wilderness_'
'wigwam'
'widest_'
'whine_'
'whelmed_'
'wend'
'wells_'
'welcomew'
'weirdly_'
'weirdest_'
'weigh_'
'weekthe_'
'weeki'
'wear'
'wdw_'
'wasfr'
'wase'
'wart'
'warr'
'walnuts_'
'wakes_'
'waiving_'
'vulgar_'
'vue_'
'vouch_'
'volcano_'
'voca'
'violet'
'violen'
'viewthe_'
'verizon_'
'ventually_'
'vd'
'variance_'
'varia'
'vani'
'valid'
'valenc'
'usw'
'usthey_'
'usn'
'usm'
'uru'
'upso_'
'upr'
'upped_'
'uphill_'
'upa'
'unto'
'unpleasant'
'unnoticed_'
'unn'
'unm'
'unin'
'unhapp'
'unfussy_'
'unethical_'
'unduly_'
'unch_'
'umbr'
'uen'
'ude_'
'udaipur_'
'uchi'
'ucc'
'typi'
'tvi'
'turnoff_'
'tuck_'
'tual'
'tua'
'ttentive_'
'tricks_'
'trec'
'trave'
'trash'
'transp'
'transit'
'transformation_'
'trail'
'tract'
'tra_'
'tote'
'tory_'
'torture_'
'tortu'
'tore'
'toni'
'toh'
'toba'
'tment_'
'tivit'
'tipp'
'timea'
'tikal_'
'tighte'
'ticking_'
'thy'
'thunder'
'thin'
'theref'
'text'
'terrif'
'termin'
'teresa_'
'tend'
'temperature'
'teh'
'teams'
'tay'
'taw'
'tastings_'
'tango_'
'tanc'
'tammy_'
'tame'
'taker_'
'taken'
'taff'
'tact_'
'tack_'
'tabs_'
'tablew'
'tableand_'
'swimm'
'swiming_'
'swh'
'sweeten'
'sweate'
'swarm'
'swans_'
'svery_'
'sush'
'surve'
'surpass_'
'surge_'
'supris'
'suppliers_'
'supplements_'
'supplemented_'
'supervisory_'
'superiority_'
'sunde'
'sundae_'
'suitethe_'
'sua'
'stupid'
'strained_'
'stormy_'
'stormed_'
'stevenage_'
'stein_'
'steamroom_'
'starr'
'stairways_'
'staffp'
'staffh'
'staffb'
'ssu'
'sra'
'squeal'
'sprinkler'
'splendido_'
'spla'
'spectacle'
'specious_'
'speak'
'sparking_'
'soup'
'souless_'
'solve'
'sok'
'snowstorm_'
'snobb'
'sno'
'sni'
'sneeze_'
'smug_'
'smoothed_'
'smokes_'
'smiles'
'smi'
'smartphones_'
'smal_'
'slope'
'sloooooo'
'slipp'
'sley_'
'sleepi'
'slams_'
'skimping_'
'situ_'
'sis_'
'sings_'
'signposted_'
'sierra_'
'sides'
'sic_'
'sia'
'shorte'
'shock'
'shipment_'
'shilla_'
'shelle'
'shelburne_'
'sharper_'
'sfa'
'seventies_'
'settees_'
'serving'
'servicethey_'
'servicef'
'sensitivity_'
'sek'
'seemd_'
'seem'
'seelbach_'
'sdo'
'sde'
'scroll'
'scrib'
'scrambling_'
'scout'
'scoop'
'scheck_'
'sbreakfast_'
'saya'
'sawa'
'saut'
'sash_'
'sao_'
'sandp'
'salesman_'
'sage_'
'sacrifice_'
'saba'
'ryth'
'rvi'
'rustle_'
'rusted_'
'rupee_'
'rump'
'rumo'
'rumble'
'rudeand_'
'rth'
'rta_'
'rst'
'rrr'
'rove'
'routed_'
'roti_'
'rotation_'
'rot'
'rope_'
'roomth'
'roomsf'
'roomma'
'romm'
'rode'
'robin'
'robbi'
'roadworks_'
'riya'
'riot'
'rig_'
'rico_'
'ricky_'
'rhubarb_'
'reykjavik_'
'retro'
'retirement_'
'resturant'
'restuar'
'resto'
'restaurantbut_'
'restart_'
'ressed_'
'responsib'
'resortthe_'
'resonate'
'resolved'
'residue_'
'residences_'
'repu'
'repetition_'
'reorgani'
'rennovation_'
'ren_'
'remake_'
'relax'
'rehab_'
'rehab'
'regular'
'rega'
'refo'
'refil'
'recti'
'recruiting_'
'recruited_'
'recomend'
'recipes_'
'receptionth'
'rebate_'
'reb'
'reasona'
'reap_'
'realistically_'
'readiness_'
'reacti'
'reaches_'
'raw'
'rau'
'ration'
'rash'
'rainforest_'
'rainfall_'
'rad_'
'rachael_'
'quiz'
'quicki'
'quesadillas_'
'queenstown_'
'qualms_'
'qt_'
'pyramid'
'pyjamas_'
'puzzle_'
'purposely_'
'pulo'
'pudong_'
'publici'
'psych'
'proven'
'protests_'
'protest'
'prot'
'prosec'
'prosc'
'proprietor_'
'proportioned_'
'properties'
'prom'
'prohibit'
'professionali'
'problemst'
'privil'
'privele'
'pric'
'prevent'
'preside'
'prepped_'
'preferably_'
'predi'
'preci'
'preceded_'
'pran'
'practiced_'
'powers_'
'powerpoint'
'pott'
'positioning_'
'poolwe_'
'poolbar_'
'ponder'
'politei'
'polit'
'ply_'
'pleasanta'
'placate_'
'placard_'
'pix'
'pita_'
'pine'
'pillar_'
'pie'
'pickle_'
'pica'
'phillip_'
'philip'
'pestered_'
'pesh'
'persuasion_'
'personnal'
'personalis'
'perrier_'
'perfection'
'pera'
'penne_'
'pend'
'pena'
'pelican_'
'peeked_'
'pedal'
'paw'
'paulina_'
'patient'
'pathetically_'
'pastr'
'participated_'
'parliament_'
'parks'
'parfait_'
'parag'
'paradis'
'palme'
'pal_'
'paired_'
'painless'
'packaging_'
'oy_'
'ows_'
'ovi'
'overzealous_'
'ove'
'outweighs_'
'outwardly_'
'outl'
'outbound_'
'oustanding_'
'ousness_'
'osc'
'ort_'
'oriented'
'orie'
'organised'
'orderand_'
'optic'
'oppressive_'
'opinion'
'onic'
'onal'
'omitted_'
'omelete'
'okw'
'okstaff_'
'oki'
'okd'
'okaywe_'
'okayi'
'oil'
'ogi'
'og_'
'ofs'
'offl'
'offence_'
'octopus_'
'obv'
'objects_'
'oba'
'nshi'
'nottingham_'
'nott'
'nos_'
'norwich_'
'norma_'
'nordic_'
'nonplussed_'
'noisethe_'
'nitpick'
'nita'
'ning'
'niko'
'nightthe'
'nightstaff_'
'nighti'
'nighth'
'nickel'
'niceth'
'nicecheck_'
'nibbl'
'nge_'
'neys_'
'newport_'
'never'
'nese_'
'neo'
'nen'
'nee_'
'nearing_'
'ndly_'
'nded_'
'nau'
'nate'
'namibia_'
'nailed_'
'naff_'
'nacional_'
'nac'
'mush'
'muscle_'
'munic'
'mun'
'multipl'
'mug'
'mox'
'mov'
'motorcycles_'
'motivating_'
'moth'
'morgan_'
'monterey_'
'monosyllabic_'
'monorail_'
'moha'
'mmed'
'misrepresentation_'
'mislaid_'
'mingle_'
'mills_'
'mf'
'mey'
'merg'
'merchandise_'
'menus'
'memeber_'
'meikle_'
'media'
'mechanic'
'mead'
'mbe'
'maximise_'
'mauro_'
'maur'
'matte'
'matin'
'masseur_'
'martin'
'mangoes_'
'manc'
'managers'
'making'
'makan_'
'maintain'
'magiquest_'
'macarons_'
'macaro'
'm6_'
'm1_'
'lumpur_'
'luggagethe_'
'ludi'
'luck'
'lous'
'looby_'
'longs'
'lobbyw'
'lobbyi'
'ln'
'litte'
'litre_'
'liter_'
'lion'
'linking_'
'limit'
'limes'
'lilli'
'lighten_'
'lif'
'liat'
'lf_'
'leva'
'letha'
'lessen'
'lens_'
'legitimate_'
'leek_'
'lco'
'lay'
'laughs_'
'laterand_'
'lanzarote_'
'lago'
'laden_'
'kristi'
'kristen_'
'koi_'
'known'
'knack_'
'kk'
'kingdom_'
'kilo'
'keyb'
'kent_'
'kend'
'kea'
'kathleen_'
'kash'
'kasa'
'kare'
'kan_'
'judi'
'josephine_'
'joe'
'jock'
'joband_'
'jew'
'jenn'
'jefferson_'
'jed'
'jad'
'jackhammer'
'iz'
'ived_'
'iva'
'itv'
'itr'
'itn'
'itfr'
'itcheck_'
'itbreakfast_'
'ista'
'isma'
'isb'
'ipl'
'invo'
'investor'
'intri'
'interview_'
'interfere'
'institute'
'insti'
'installation'
'inspiration_'
'insa'
'inna'
'injection_'
'init'
'ingt'
'infuriating_'
'iner'
'industrious_'
'indulged_'
'inconv'
'incons'
'implies_'
'implement_'
'imperi'
'impeccable'
'immature_'
'ilia'
'ik_'
'ihop_'
'ify_'
'icu'
'ick'
'ial'
'hubb'
'http_'
'howeverthe_'
'hower_'
'hottub_'
'hotelsi'
'hoteln'
'hotelc'
'hospita'
'hopp'
'hop'
'hoovering_'
'hood'
'honeymooners_'
'homei'
'homea'
'hite'
'hitch'
'hispanic_'
'hires_'
'hig'
'hia'
'hey'
'hest'
'hesitated_'
'herethe'
'herbs_'
'headli'
'hc'
'haz'
'hav'
'hate'
'hassle'
'harv'
'hari_'
'hari'
'hardy_'
'hardship_'
'hap_'
'hansar_'
'hanged_'
'hangar'
'handle'
'hana_'
'hammers_'
'hamilton_'
'hallmarks_'
'hak'
'guide'
'guesta'
'grounds'
'grizzl'
'gristle_'
'grin'
'grime_'
'gregory_'
'greenb'
'greats'
'greatness_'
'greatn'
'greath'
'grandsons_'
'grandma_'
'grandiose_'
'gran'
'gramm'
'gp'
'goodmy_'
'gha'
'getti'
'german'
'genuin'
'geneva_'
'generates_'
'gea'
'gb'
'gasp'
'gart'
'gand'
'gad'
'fussing_'
'furbished_'
'funnily_'
'fund'
'fuji_'
'fs'
'fryer_'
'frowned_'
'friendlyw'
'freeze'
'frederick'
'franchised_'
'foyer'
'forf'
'footing_'
'fools_'
'foodi'
'foode'
'foll'
'foli'
'fogg'
'flyers_'
'fluctuated_'
'flipped_'
'flick'
'flapjack'
'flags_'
'fitt'
'finea'
'filming_'
'filipinos_'
'fet'
'fest'
'feri'
'feli'
'fea'
'favours_'
'favors_'
'favorably_'
'faultlessly_'
'farcical_'
'fantasic_'
'familiarity_'
'famili'
'fala'
'fal'
'fag_'
'faff'
'facil'
'facecloths_'
'fabio_'
'expo'
'explicit_'
'experiencew'
'experiencei_'
'expensivethe_'
'expect'
'exorbitantly_'
'exhibit'
'excruciating_'
'except'
'exaggerating_'
'evict'
'evere'
'events'
'evaluate_'
'eurostar_'
'ethics_'
'etcwe_'
'esw'
'estimation_'
'esther_'
'establishment'
'essional_'
'essa'
'esk'
'erri'
'ernesto_'
'erna'
'eri_'
'erased_'
'entr'
'enting_'
'entertain'
'enquires_'
'enought_'
'engrossed_'
'englishw'
'engl'
'ende'
'encouragement_'
'emu'
'emphasised_'
'embarass'
'eman'
'ellen_'
'elit'
[...]
