'<pad>'
'<EOS>'
'<GO>'
'<OOV>'
'<DOC>'
'</DOC>'
' ._'
'the_'
'a_'
' , _'
'and_'
'was_'
'is_'
'to_'
'good_'
'for_'
'i_'
'in_'
'it_'
'of_'
'hotel_'
'very_'
'but_'
'not_'
'we_'
'this_'
'breakfast_'
'with_'
'room_'
'that_'
'at_'
'on_'
'had_'
' - _'
'stay_'
'as_'
'you_'
'were_'
'have_'
'are_'
'there_'
'would_'
'food_'
'be_'
't_'
'which_'
'n_'
''_'
's_'
'nice_'
' '_'
'so_'
'all_'
'my_'
'an_'
'if_'
'no_'
'one_'
'great_'
' ( _'
'expensive_'
'price_'
'night_'
'our_'
'here_'
'only_'
'service_'
'they_'
'really_'
' !_'
'quality_'
'from_'
'rooms_'
'free_'
'restaurant_'
'did_'
'buffet_'
'value_'
'overall_'
'again_'
'more_'
'better_'
'also_'
'excellent_'
'stayed_'
'than_'
'or_'
'well_'
'just_'
'what_'
'get_'
'do_'
'choice_'
'other_'
'hotels_'
'quite_'
'bar_'
'when_'
'ok_'
'out_'
' ) _'
'small_'
'experience_'
'worth_'
'wifi_'
'rate_'
'fine_'
'much_'
'time_'
'average_'
'could_'
'has_'
'too_'
'can_'
'reasonable_'
'like_'
' $ _'
' " _'
'up_'
' . _'
'by_'
'pool_'
'bit_'
'place_'
'some_'
'day_'
'been_'
'will_'
'about_'
'little_'
'best_'
'standard_'
'staff_'
'money_'
'even_'
'selection_'
' ' _'
'dinner_'
'however_'
'got_'
'pretty_'
'5_'
'me_'
'hot_'
'._'
'internet_'
'decent_'
'star_'
'high_'
'2_'
'two_'
'included_'
'comfortable_'
'business_'
'nights_'
' ) ._'
'_'
'us_'
' / _'
'parking_'
'area_'
'floor_'
'first_'
'over_'
'bed_'
'poor_'
'your_'
' £ _'
'most_'
'after_'
'paid_'
'coffee_'
'nothing_'
'water_'
'lounge_'
'prices_'
'cheap_'
'3_'
'booked_'
'disappointing_'
'sleep_'
'4_'
'disappointed_'
'though_'
'view_'
'pay_'
'its_'
'found_'
'still_'
'although_'
'think_'
'check_'
'because_'
'hilton_'
'available_'
'next_'
'their_'
'per_'
'am_'
'any_'
'expect_'
'cost_'
'deal_'
'everything_'
'large_'
'bad_'
'back_'
'many_'
'shower_'
'location_'
'then_'
'use_'
'facilities_'
'cold_'
'drinks_'
'say_'
'bathroom_'
' : _'
'extra_'
'evening_'
'property_'
'gym_'
'full_'
'being_'
'go_'
'size_'
'made_'
'should_'
'both_'
'd_'
'definitely_'
'limited_'
'given_'
'recommend_'
'before_'
'adequate_'
'enough_'
'club_'
'lobby_'
'probably_'
'off_'
'charge_'
'inn_'
'meal_'
' & _'
'find_'
'staying_'
'need_'
'menu_'
'pricey_'
'does_'
'same_'
'priced_'
'morning_'
'thought_'
'impressed_'
'few_'
'overpriced_'
'down_'
'options_'
'lot_'
'way_'
'rather_'
'people_'
'never_'
'marriott_'
'another_'
'big_'
'around_'
'last_'
' ... _'
'top_'
'1_'
' ; _'
'during_'
'spa_'
'having_'
'basic_'
'certainly_'
'such_'
'special_'
'expected_'
'every_'
'happy_'
'resort_'
'make_'
'airport_'
'air_'
'noise_'
'work_'
'tv_'
'offer_'
'while_'
'days_'
'pleased_'
'want_'
'used_'
'where_'
'old_'
'thing_'
'holiday_'
'told_'
'felt_'
'choices_'
'surprised_'
'restaurants_'
'clean_'
'executive_'
'upgrade_'
'less_'
'plenty_'
'door_'
'pleasant_'
'level_'
'ever_'
'especially_'
'sure_'
'offered_'
'guests_'
'times_'
'variety_'
'wine_'
'new_'
'said_'
'friendly_'
'them_'
' ?_'
'lovely_'
'eat_'
'feel_'
'long_'
'trip_'
'acceptable_'
'tea_'
'access_'
'etc_'
'return_'
'see_'
'option_'
'main_'
'ate_'
'plus_'
'things_'
'far_'
'10_'
'extremely_'
'suite_'
'into_'
'through_'
'dining_'
'quiet_'
'slow_'
'these_'
'paying_'
'went_'
'always_'
'now_'
'otherwise_'
'enjoyed_'
'complimentary_'
'usual_'
'tasty_'
'rates_'
' ..._'
'’_'
've_'
'going_'
'beds_'
'second_'
'reasonably_'
'else_'
'cooked_'
' ’_'
'seemed_'
'conference_'
'visit_'
'fresh_'
'early_'
'side_'
' ) , _'
'looking_'
'amenities_'
'open_'
'typical_'
'each_'
'reception_'
'how_'
'lunch_'
'served_'
'look_'
'style_'
'part_'
'who_'
'continental_'
'/_'
'hour_'
'fi_'
'since_'
'outside_'
'booking_'
'something_'
'wi_'
'including_'
'park_'
'know_'
'three_'
'space_'
'asked_'
'standards_'
'range_'
're_'
'looked_'
'years_'
'actually_'
'drink_'
'least_'
'why_'
'try_'
'hours_'
'worst_'
'london_'
'huge_'
'without_'
'meals_'
'm_'
'family_'
'either_'
'problem_'
'take_'
'left_'
'come_'
'6_'
'provided_'
'eggs_'
'fruit_'
'ca_'
'reviews_'
'hard_'
'30_'
'items_'
'lots_'
'arrived_'
'real_'
'fairly_'
'noisy_'
'weekend_'
'luxury_'
'nt_'
'end_'
'considering_'
'due_'
'week_'
'- _'
' ., _'
'couple_'
'itself_'
'book_'
'needs_'
'give_'
'compared_'
' ,_'
'may_'
'late_'
'order_'
'low_'
'50_'
'points_'
'four_'
'offers_'
'seems_'
'desk_'
'once_'
'20_'
'year_'
'half_'
'charged_'
' ! !_'
'put_'
'-_'
'fact_'
'e_'
'modern_'
'different_'
'above_'
'00_'
'away_'
'member_'
'course_'
'almost_'
'fantastic_'
'double_'
'anything_'
'busy_'
'elsewhere_'
'must_'
'fair_'
'car_'
'premier_'
'disappointment_'
'enjoyable_'
'rating_'
'package_'
'those_'
'unfortunately_'
'issue_'
'cheaper_'
' -_'
'start_'
'plentiful_'
'hyatt_'
'took_'
'generally_'
'came_'
'building_'
'whole_'
'terrible_'
'table_'
'minutes_'
'bath_'
' -- _'
'15_'
'short_'
'needed_'
'front_'
'kids_'
', _'
' )_'
'spread_'
'light_'
'lack_'
'might_'
'until_'
'pm_'
'wanted_'
'person_'
'point_'
'several_'
'getting_'
'flight_'
'let_'
'areas_'
'yes_'
'fee_'
'class_'
'delicious_'
'okay_'
'despite_'
'touch_'
'spent_'
'budget_'
'reason_'
'maybe_'
'7_'
'window_'
'upgraded_'
'8_'
'wo_'
'chain_'
'set_'
'city_'
'similar_'
'overnight_'
'difficult_'
'choose_'
'site_'
'between_'
'swimming_'
'stars_'
'five_'
'able_'
'own_'
'snacks_'
'particularly_'
'others_'
'rest_'
'warm_'
'checked_'
'unless_'
'b_'
'right_'
'higher_'
'worked_'
'views_'
'wait_'
'safe_'
'accommodation_'
'wide_'
'perfectly_'
'slightly_'
'll_'
'number_'
'bottle_'
'mini_'
'sheraton_'
'ordered_'
'done_'
'below_'
'under_'
'non_'
'mediocre_'
' .( _'
'review_'
'guest_'
'website_'
'conditioning_'
'sized_'
'type_'
'helpful_'
'amazing_'
'tried_'
'he_'
' ! _'
'expectations_'
'group_'
'negative_'
'breakfasts_'
'fitness_'
'making_'
'except_'
'brand_'
'ask_'
'arrival_'
'annoying_'
'normal_'
'westin_'
'travel_'
'makes_'
'simple_'
'loud_'
'spacious_'
'wonderful_'
'places_'
'somewhat_'
'y_'
'satisfied_'
'working_'
'totally_'
'close_'
'towels_'
'fast_'
'center_'
'awful_'
'decided_'
'card_'
'pressure_'
'using_'
'recently_'
' .- _'
'varied_'
'near_'
'connection_'
'charges_'
'keep_'
'seem_'
'absolutely_'
'tired_'
'world_'
'dishes_'
'usually_'
'fridge_'
'100_'
'dated_'
'bedroom_'
'properties_'
'24_'
'single_'
'positive_'
'perhaps_'
'opinion_'
'machine_'
'toiletries_'
'ridiculous_'
'throughout_'
'pleasantly_'
'amount_'
'walk_'
'seen_'
'guess_'
'windows_'
' ...._'
'speed_'
'afternoon_'
'spend_'
'premium_'
'meeting_'
'instead_'
' % _'
'glass_'
':_'
'western_'
'received_'
'ing_'
'taste_'
'12_'
'later_'
'consider_'
'atmosphere_'
'gave_'
'beer_'
'previous_'
'wife_'
'euros_'
'somewhere_'
'believe_'
'members_'
'impressive_'
' .. _'
'25_'
'change_'
'ed_'
'lighting_'
'wrong_'
'tiny_'
'provide_'
'nearby_'
'9_'
'la_'
'king_'
'issues_'
'grand_'
'line_'
'ago_'
'platinum_'
'nicer_'
'major_'
'terms_'
'offering_'
'important_'
'inside_'
'house_'
'biggest_'
'beach_'
'avoid_'
'advance_'
'crowded_'
'balcony_'
'toilet_'
'relaxing_'
'channels_'
'looks_'
'customer_'
'uncomfortable_'
'minor_'
'enjoy_'
'closed_'
'shame_'
'run_'
'bacon_'
' .._'
'whilst_'
'local_'
'someone_'
'hear_'
'turned_'
'quick_'
'lodge_'
'english_'
'shop_'
'presented_'
'sound_'
'bread_'
'expecting_'
'complaint_'
'chose_'
'facility_'
'convenient_'
'lower_'
'valet_'
'perfect_'
'home_'
'highly_'
'gold_'
'call_'
'beautiful_'
'apart_'
'wall_'
'kept_'
'bill_'
'children_'
'self_'
'indeed_'
'fault_'
'kind_'
'based_'
'across_'
'located_'
'case_'
'surprise_'
'simply_'
'public_'
'leave_'
' ! ! !_'
'trying_'
'longer_'
'general_'
'elevators_'
'unacceptable_'
'super_'
'past_'
'c_'
'clearly_'
'additional_'
'( _'
'temperature_'
'called_'
'superb_'
'surprisingly_'
'completely_'
'costs_'
'already_'
'outstanding_'
'relatively_'
'street_'
'cafe_'
'break_'
'services_'
'decor_'
'complaints_'
'welcome_'
'liked_'
'upon_'
'system_'
'minute_'
'extensive_'
'anyone_'
'worse_'
'fare_'
'comfort_'
'twice_'
'bland_'
'o_'
'ready_'
'checking_'
'generous_'
'suites_'
'regular_'
'pillows_'
'inclusive_'
'soft_'
'impression_'
'prepared_'
'party_'
'downside_'
'hampton_'
'eating_'
'yet_'
'ordinary_'
'understand_'
'head_'
'moved_'
'phone_'
'equipment_'
' – _'
'read_'
'exceptional_'
'coming_'
'equipped_'
'steak_'
'elevator_'
'often_'
'age_'
'experienced_'
'sofitel_'
'difference_'
'she_'
'mind_'
'sit_'
'40_'
'ritz_'
'euro_'
'affordable_'
'outrageous_'
'200_'
'help_'
'fan_'
'doors_'
'11_'
'salad_'
'within_'
'gets_'
'charging_'
'separate_'
'juice_'
'love_'
'problems_'
'finally_'
'floors_'
'fish_'
'note_'
'bargain_'
'ended_'
'leisure_'
'tub_'
'cheese_'
'efficient_'
'downstairs_'
'international_'
'superior_'
'ground_'
'anyway_'
'husband_'
'express_'
'dark_'
'con_'
'waiting_'
'radisson_'
'added_'
'reservation_'
'add_'
'appointed_'
'recommended_'
' .... _'
' € _'
'solid_'
'meant_'
'daily_'
'anywhere_'
'scrambled_'
'management_'
'pre_'
'pastries_'
'true_'
'novotel_'
'motel_'
'idea_'
'feeling_'
'everyone_'
' + _'
'list_'
'visited_'
'loved_'
'road_'
'serves_'
'machines_'
'complain_'
'means_'
'luggage_'
'spg_'
'move_'
'centre_'
'obviously_'
'credit_'
'foods_'
'95_'
'larger_'
'chicken_'
'changed_'
'none_'
'entire_'
' ( $ _'
'strange_'
'discount_'
'stays_'
'tour_'
'disney_'
'cool_'
'lacking_'
'chips_'
'possible_'
'sauna_'
'chairs_'
'offerings_'
'normally_'
'empty_'
'stop_'
'impossible_'
'total_'
'cheapest_'
'&_'
'outdoor_'
'horrible_'
'concierge_'
'sunday_'
'sufficient_'
'design_'
'tables_'
'taken_'
'bathrooms_'
'appreciated_'
'sleeping_'
'pools_'
'ones_'
'central_'
'wireless_'
'pub_'
'comfy_'
'bring_'
'music_'
' * _'
'sadly_'
'minibar_'
'cereals_'
'. _'
'smaller_'
'include_'
'honest_'
'online_'
'treat_'
'com_'
'requested_'
'nicely_'
'board_'
'lift_'
'easy_'
'returned_'
'renovated_'
'nearly_'
'housekeeping_'
'tax_'
'furniture_'
'comment_'
'carte_'
'seating_'
'glad_'
'friends_'
'egg_'
'renovation_'
'dollars_'
'fully_'
'odd_'
'nyc_'
'usd_'
'opened_'
'bonus_'
'managed_'
'comes_'
'via_'
'months_'
'corner_'
'saw_'
'turn_'
'town_'
'station_'
'name_'
'american_'
'indoor_'
'attention_'
'300_'
'truly_'
'middle_'
'ice_'
'works_'
'example_'
'sort_'
'families_'
'diamond_'
'weak_'
'walls_'
'satisfactory_'
'job_'
'smoking_'
'wish_'
'surprising_'
'request_'
'r_'
'roof_'
'future_'
'inexpensive_'
'chair_'
'along_'
'par_'
'functional_'
'deluxe_'
'key_'
'intercontinental_'
'convenience_'
'care_'
'third_'
'singapore_'
'taking_'
'portions_'
'ly_'
'asian_'
'recent_'
'competitive_'
'burger_'
'pricing_'
'complete_'
'basically_'
'kitchen_'
'vacation_'
'quickly_'
'indian_'
'ac_'
'weeks_'
'smell_'
'provides_'
'weather_'
'therefore_'
'ocean_'
'maintained_'
'her_'
'mid_'
'european_'
'garden_'
'unusual_'
'uk_'
'serve_'
'mentioned_'
'exactly_'
'sausages_'
'pizza_'
'sea_'
'cocktails_'
'status_'
'signal_'
'returning_'
'improved_'
'heat_'
'heating_'
'shuttle_'
' " ._'
'thin_'
'saturday_'
'heard_'
'myself_'
'feels_'
'sink_'
'luxurious_'
'toast_'
'stocked_'
'overlooking_'
'buy_'
'slept_'
'g_'
'common_'
'bottles_'
'running_'
'event_'
'easily_'
'convention_'
'selections_'
'screen_'
'facing_'
'show_'
'his_'
'doubt_'
'flat_'
'suggest_'
'older_'
' “ _'
'summer_'
'stuff_'
'alone_'
'hand_'
'bother_'
'courtyard_'
'following_'
'sign_'
'rip_'
'reading_'
'nor_'
'addition_'
'14_'
'useful_'
'round_'
'imagine_'
'starbucks_'
'mostly_'
'italian_'
'rated_'
'live_'
'comparable_'
'fixed_'
'attractive_'
'18_'
'sitting_'
'sandwich_'
'please_'
'broken_'
'ample_'
'sometimes_'
'category_'
'aware_'
'together_'
'reliable_'
'inns_'
'hall_'
'alternative_'
'delivered_'
'cramped_'
'travelling_'
'season_'
'minimal_'
'hardly_'
'walking_'
'refurbished_'
'lights_'
'gone_'
'wedding_'
'customers_'
'travelers_'
'taxes_'
'supposed_'
'saying_'
'lifts_'
'company_'
'bottled_'
'terrace_'
'likely_'
'hope_'
'everywhere_'
'massage_'
'dry_'
'leaving_'
'fancy_'
'europe_'
'mean_'
'fit_'
'control_'
'apparently_'
'60_'
'upscale_'
'comparison_'
'fun_'
'es_'
'attentive_'
'yourself_'
'extras_'
'advertised_'
'manager_'
'tell_'
'entertainment_'
'attached_'
',_'
' :_'
'started_'
'pounds_'
'corporate_'
'clear_'
'/ _'
'chinese_'
'accor_'
'write_'
'power_'
'twin_'
'consistent_'
'condition_'
'snack_'
'mattress_'
'adults_'
'traveler_'
'mention_'
'l_'
'elite_'
'particular_'
'forward_'
'store_'
'improvement_'
'frustrating_'
'white_'
'taxi_'
'pricy_'
'laundry_'
'ibis_'
'exec_'
'brought_'
'bars_'
'york_'
'starwood_'
'notch_'
'missing_'
'doing_'
'plaza_'
'purpose_'
'personal_'
'w_'
'paper_'
'occasion_'
'ihg_'
'feature_'
'visiting_'
'suitable_'
'christmas_'
'bigger_'
'barely_'
'plan_'
'negatives_'
'knew_'
'checkout_'
'properly_'
'includes_'
'fabulous_'
'construction_'
'traveller_'
'remember_'
'priceline_'
'penny_'
'directly_'
'tasted_'
'strong_'
'incredibly_'
'red_'
'cleanliness_'
'traveling_'
'tower_'
'sun_'
'sad_'
'private_'
'2nd_'
'worn_'
'tasteless_'
'mixed_'
'friday_'
'frankly_'
'experiences_'
' ! )_'
'outlets_'
'entrance_'
'accommodations_'
'required_'
'maker_'
'freshly_'
'16_'
'soon_'
'previously_'
'le_'
'japanese_'
'excessive_'
'cup_'
'asking_'
'sorry_'
'opted_'
'exception_'
'dirty_'
'ridiculously_'
'travellers_'
'oh_'
'joke_'
'corridor_'
'allowed_'
'steam_'
'prefer_'
'noticed_'
'happened_'
'arrive_'
' ” _'
'unit_'
'hong_'
'catering_'
'sandwiches_'
'soap_'
'f_'
'awesome_'
'poorly_'
'corridors_'
'chance_'
'beyond_'
' ’ _'
'ideal_'
'fruits_'
'prior_'
'layout_'
'kong_'
'tip_'
'tight_'
'pick_'
'neither_'
'cereal_'
'grill_'
'designed_'
'150_'
'watch_'
'considered_'
'bottom_'
'appeared_'
'receive_'
'meat_'
'honestly_'
'advantage_'
'stand_'
'curtains_'
'ambience_'
'80_'
'voucher_'
'save_'
'ng_'
'matter_'
'further_'
'establishment_'
'seriously_'
'juices_'
'boring_'
'whether_'
'tripadvisor_'
'market_'
'inconvenient_'
'french_'
'waste_'
'interesting_'
'eventually_'
'45_'
'wines_'
'sports_'
'spending_'
'refurbishment_'
'possibly_'
'match_'
'cocktail_'
'3rd_'
'$ _'
'earlier_'
'400_'
' . )_'
'unable_'
'soup_'
'preferred_'
'plastic_'
'certain_'
'breads_'
'u_'
'albeit_'
'35_'
'17_'
'salmon_'
'miss_'
'complained_'
'behind_'
'bedrooms_'
'90_'
'workout_'
'hence_'
'bangkok_'
'happen_'
'venue_'
'security_'
'living_'
'healthy_'
'groups_'
'decorated_'
'carlton_'
' ....._'
'grounds_'
'buffets_'
'bags_'
'setting_'
'opening_'
'giving_'
'arriving_'
'st_'
'rack_'
'mistake_'
'deals_'
'river_'
'brilliant_'
'benefit_'
'walked_'
'various_'
'result_'
'orange_'
'meetings_'
'gives_'
'fees_'
'unpleasant_'
'serving_'
'hair_'
'flights_'
'effective_'
'dubai_'
'complementary_'
'state_'
'sausage_'
'massive_'
'cons_'
'tastes_'
'handy_'
' : - _'
'jacuzzi_'
'iron_'
'basis_'
'13_'
'70_'
'wow_'
'relax_'
'known_'
'goes_'
'sofa_'
'plate_'
'levels_'
'function_'
'chocolate_'
'ceiling_'
'stairs_'
'overly_'
' ? _'
'till_'
'seasons_'
'proper_'
'heated_'
'cut_'
'black_'
'500_'
'stuck_'
'reasons_'
'necessary_'
'chef_'
'bus_'
'allocated_'
'spectacular_'
' ." _'
'gift_'
'resorts_'
'honors_'
'features_'
'extortionate_'
'cleaned_'
'birthday_'
'agree_'
'queen_'
'plates_'
'news_'
'milk_'
'met_'
'fire_'
'exorbitant_'
'embassy_'
'aircon_'
'substantial_'
'rooftop_'
'policy_'
'notice_'
'maintenance_'
'dollar_'
'block_'
'wing_'
'waited_'
'compare_'
'vegetarian_'
'renovations_'
'mornings_'
'carpet_'
'beverages_'
'bag_'
'showers_'
'placed_'
'lacks_'
'informed_'
'gripe_'
'closet_'
'character_'
'against_'
'22_'
'terminal_'
'spoilt_'
'nowhere_'
'downtown_'
'plug_'
'casino_'
'suppose_'
'nd_'
'mainly_'
'hit_'
'dish_'
'detail_'
'appears_'
'steep_'
'newer_'
'mirror_'
'lucky_'
'become_'
'welcoming_'
'surely_'
'shampoo_'
'products_'
'mins_'
'immediately_'
'equally_'
'badly_'
'towel_'
'thoroughly_'
'microwave_'
'health_'
'friend_'
'cruise_'
'young_'
'thai_'
'storage_'
'p_'
'memorable_'
'thank_'
'replaced_'
'date_'
'cleaning_'
'wise_'
'tap_'
'chicago_'
'sat_'
'discounted_'
'costly_'
' ! ) ._'
'queue_'
'modest_'
'junior_'
'clothes_'
'boutique_'
'99_'
'250_'
' ' ._'
'winter_'
'refrigerator_'
'inadequate_'
'alcohol_'
'factor_'
'aspect_'
'updated_'
'portion_'
'k_'
'hallway_'
'disaster_'
'beware_'
'vegas_'
'traffic_'
'thanks_'
'period_'
'onto_'
'fried_'
'court_'
'courses_'
'basement_'
'occasions_'
'beers_'
'dreadful_'
'details_'
'personally_'
'meats_'
'life_'
'frequent_'
'cream_'
' ..... _'
'traditional_'
'says_'
'royal_'
'mine_'
'expectation_'
'country_'
'obvious_'
'inconvenience_'
'charm_'
'built_'
'boston_'
'beef_'
'paris_'
'concerned_'
'bought_'
'summary_'
'spaces_'
'shut_'
'jw_'
'allow_'
'midnight_'
'loyalty_'
'crowne_'
'constant_'
'account_'
'stopped_'
'nevertheless_'
'er_'
'sent_'
'reviewers_'
'picture_'
'benefits_'
'ahead_'
'sold_'
'peak_'
'literally_'
'email_'
'conditioner_'
'became_'
'exercise_'
'cash_'
'box_'
'lacked_'
'green_'
'dessert_'
'underwhelming_'
'tad_'
'stated_'
'opposite_'
'conrad_'
'program_'
'professional_'
'presentation_'
'month_'
'weights_'
'treatments_'
'swim_'
'improve_'
'fairmont_'
'web_'
'tag_'
'regency_'
'highlight_'
'eaten_'
'changing_'
'bedding_'
'75_'
'uninspiring_'
'renaissance_'
'meet_'
'expedia_'
'andthe_'
' ( £ _'
'seat_'
'quantity_'
'kettle_'
'final_'
'environment_'
'decision_'
'aspects_'
' " , _'
'wardrobe_'
'treatment_'
'frills_'
'finished_'
'comments_'
'attending_'
'(_'
'takes_'
'switch_'
'covered_'
'champagne_'
'cable_'
'adjacent_'
'keeping_'
'atrium_'
'al_'
'activities_'
'reserved_'
'product_'
'hhonors_'
'heavy_'
'expense_'
'appealing_'
'advised_'
'suited_'
'spot_'
'rewards_'
'privacy_'
'pleasure_'
'original_'
'golf_'
'cover_'
'couples_'
'asia_'
'son_'
'lost_'
'gbp_'
'word_'
'slippers_'
'providing_'
'freezing_'
'criticism_'
'thus_'
'showing_'
'national_'
'hk_'
'calls_'
'19_'
'worthy_'
'tray_'
'suit_'
'situation_'
'ran_'
'proofing_'
'information_'
'croissants_'
'unexpected_'
'spoiled_'
'piece_'
'noted_'
'mix_'
'aside_'
'appropriate_'
'ut_'
'travelodge_'
'square_'
'smoke_'
'ourselves_'
'luckily_'
'glasses_'
'doubletree_'
'cakes_'
'appear_'
'weekends_'
'thinking_'
'taj_'
'sydney_'
'serious_'
'popular_'
'packed_'
'impressions_'
'hallways_'
'face_'
'daughter_'
'chains_'
'soundproofing_'
'pillow_'
'furnishings_'
'computer_'
'team_'
'starter_'
'rare_'
'impersonal_'
'garage_'
'described_'
'appreciate_'
'irritating_'
'interior_'
'him_'
'extended_'
'distance_'
'beans_'
'visits_'
'typically_'
'treated_'
'share_'
'plugs_'
'onsite_'
'laid_'
'insulation_'
'eur_'
'brasserie_'
'base_'
'unlike_'
'romantic_'
'hold_'
'heathrow_'
'effort_'
'cuisine_'
'cafeteria_'
'bright_'
'bedside_'
'adjoining_'
'starting_'
'secure_'
'section_'
'inedible_'
'exceptionally_'
'useless_'
'tough_'
'excited_'
'drive_'
'falls_'
'beverage_'
'north_'
'july_'
' ) - _'
'partner_'
'pancakes_'
'lake_'
'h_'
'stopover_'
'signs_'
'shocked_'
'san_'
'reservations_'
'overcooked_'
'flying_'
'eye_'
'evenings_'
'closer_'
'tokyo_'
'catch_'
'adult_'
'upgrades_'
'sky_'
'six_'
'nightly_'
'missed_'
'helped_'
'hanging_'
'elegant_'
'delighted_'
'crazy_'
'cake_'
'v_'
'television_'
'supply_'
'sub_'
'refused_'
'reduced_'
'priority_'
'pass_'
'luck_'
'hospitality_'
'dinners_'
'constantly_'
'bistro_'
'biscuits_'
'ambiance_'
'alcoholic_'
' .* _'
'terrific_'
'omelette_'
'ham_'
'dryer_'
'de_'
'1st_'
'positives_'
'pictures_'
'patio_'
'numerous_'
'hiltons_'
'gesture_'
'fix_'
'firm_'
'advisor_'
'actual_'
'* _'
'trouble_'
'touches_'
'straight_'
'plain_'
'initially_'
'exchange_'
'blu_'
'29_'
'0_'
' ! ! ! !_'
'wake_'
'update_'
'standing_'
'shape_'
'proved_'
'manchester_'
'hotwire_'
'firstly_'
'depending_'
'connected_'
'attended_'
'apartment_'
'alarm_'
'4th_'
' ‘ _'
'unnecessary_'
'pity_'
'multiple_'
'ingredients_'
'dined_'
'colleagues_'
'upper_'
'tourist_'
'shopping_'
'office_'
'lukewarm_'
'ironing_'
'form_'
'encountered_'
'child_'
'alternatives_'
'significantly_'
'prepaid_'
'picked_'
'highest_'
'comprehensive_'
'afford_'
'upstairs_'
'today_'
'school_'
'regularly_'
'planning_'
'moment_'
'hi_'
'hate_'
'grateful_'
'forget_'
'direct_'
'south_'
'sense_'
'receptionist_'
'process_'
'furnished_'
'unique_'
'shown_'
'moving_'
'foyer_'
'filling_'
'favorite_'
'clock_'
'beautifully_'
'attitude_'
'yogurt_'
'sounds_'
'replenished_'
'photos_'
'parts_'
'lodging_'
'india_'
'checkin_'
'towards_'
'rush_'
'hoping_'
'game_'
'fortunately_'
'entry_'
'channel_'
' ! ) _'
'warned_'
'step_'
'pint_'
'ours_'
'omni_'
'feet_'
'existent_'
'excuse_'
'curry_'
'counter_'
'chosen_'
'cheeses_'
'21_'
'x_'
'seafood_'
'remote_'
'reakfast_'
'minimum_'
'deliver_'
'degrees_'
'" _'
'outdated_'
'finding_'
'filled_'
'classic_'
'amenity_'
'agreed_'
'wear_'
'paint_'
'describe_'
' .$ _'
'ten_'
'sauce_'
'refund_'
'play_'
'omelettes_'
'lit_'
'heater_'
'explained_'
'buildings_'
'woke_'
'wet_'
'vouchers_'
'updating_'
'tourists_'
'tariff_'
'spotty_'
'inviting_'
'departure_'
'chargeable_'
'carpets_'
'annoyed_'
'agent_'
'accept_'
'types_'
'thankfully_'
'speak_'
'potential_'
'poolside_'
'availability_'
' , $ _'
'rs_'
'cups_'
'anymore_'
'accomodation_'
'west_'
'supposedly_'
'stale_'
'sell_'
'seeing_'
'occupancy_'
'captive_'
'bucks_'
'theme_'
'terribly_'
'talking_'
'response_'
'relaxed_'
'quieter_'
'pot_'
'led_'
'guarantee_'
'consistently_'
'000_'
'stuffy_'
'sockets_'
'showed_'
'rock_'
'putting_'
'man_'
'lounges_'
'justify_'
'incredible_'
'curtain_'
'cook_'
'catered_'
'august_'
'wash_'
'waffles_'
'suspect_'
'significant_'
'purchase_'
'promised_'
'en_'
'deck_'
'bowl_'
'accurate_'
'120_'
'weird_'
'villa_'
'upgrading_'
'taxis_'
'pasta_'
'january_'
'devices_'
'careful_'
'cabin_'
'$_'
'zero_'
'wonder_'
'vegetables_'
'needless_'
'lady_'
'hassle_'
'hairdryer_'
'fries_'
'essential_'
'discovered_'
'desserts_'
'depressing_'
'connect_'
'28_'
'slight_'
'sheets_'
'remains_'
'pain_'
'ny_'
'membership_'
'lines_'
'held_'
'deep_'
'apology_'
'ages_'
'themselves_'
'shocking_'
'satisfying_'
'reputation_'
'pet_'
'overlooked_'
'holidays_'
'goodthe_'
'carvery_'
'cardio_'
'blue_'
'absolute_'
'unlimited_'
'supplied_'
'story_'
'practical_'
'potatoes_'
'nightmare_'
'hesitate_'
'dine_'
'dc_'
'cosy_'
'brunch_'
'beat_'
'admit_'
'smoked_'
'repeat_'
'present_'
'item_'
'fell_'
'ers_'
'demand_'
'wood_'
'oriental_'
'mobile_'
'melbourne_'
'laptop_'
'hotelthe_'
'happily_'
'connecting_'
'classy_'
'appalling_'
'train_'
'saving_'
'roll_'
'reality_'
'rain_'
'newly_'
'loads_'
'island_'
'definately_'
'accessible_'
'waiter_'
'visitors_'
'term_'
'score_'
'ruined_'
'purchased_'
'march_'
'bothered_'
'besides_'
'30pm_'
'somehow_'
'shows_'
'post_'
'forced_'
'andi_'
'23_'
'yoghurt_'
'watching_'
'lowest_'
'ie_'
'iceland_'
'hopefully_'
'harbour_'
'eve_'
'entirely_'
'dim_'
'concern_'
'appetizers_'
'spring_'
'refurb_'
'frequently_'
'copenhagen_'
'complaining_'
'changes_'
'whatever_'
'upmarket_'
'tasting_'
'starters_'
'sister_'
'regarding_'
'hungry_'
'equivalent_'
'drawback_'
'desired_'
'december_'
'currently_'
'competition_'
'brands_'
'upset_'
'underwhelmed_'
'rude_'
'min_'
'medium_'
'leaves_'
'lamb_'
'followed_'
'favourite_'
'edible_'
'conferences_'
'beginning_'
'bathtub_'
'5th_'
'26_'
'warning_'
'trips_'
'surroundings_'
'october_'
'norm_'
'narrow_'
'hoped_'
'faced_'
'current_'
'computers_'
'cities_'
'bay_'
'removed_'
'pros_'
'pork_'
'mercure_'
'locations_'
'lets_'
'events_'
'deserves_'
'shared_'
'seats_'
'salads_'
'pushed_'
'layover_'
'enter_'
'canteen_'
'assume_'
'alright_'
'advise_'
'advice_'
'ventilation_'
'transfer_'
'stylish_'
'ship_'
'shangri_'
'rolls_'
'parties_'
'nonetheless_'
'meaning_'
'las_'
'journey_'
'grade_'
'delivery_'
'cooking_'
'confirmed_'
'accommodate_'
'sum_'
'skip_'
'nespresso_'
'menus_'
'dried_'
'coach_'
'british_'
'awake_'
'assortment_'
' (_'
'wired_'
'wanting_'
'picky_'
'movies_'
'moderate_'
'hang_'
'ensure_'
'dull_'
'complex_'
'basics_'
'anniversary_'
'treadmills_'
'training_'
'ratio_'
'quoted_'
'handle_'
'exterior_'
'entering_'
'drop_'
'coke_'
'caters_'
'aaa_'
' .£ _'
' , ( _'
'writing_'
'virtually_'
'stunning_'
'sparse_'
'smallest_'
'planned_'
'mandarin_'
'lousy_'
'continue_'
'ta_'
'robes_'
'report_'
'ordering_'
'opportunity_'
'movie_'
'mark_'
'length_'
'espresso_'
'electrical_'
'brown_'
'australia_'
'65_'
'27_'
'words_'
'towers_'
'sounded_'
'shops_'
'palace_'
'june_'
'irish_'
'ic_'
'electric_'
'drinking_'
'description_'
'correct_'
'cookies_'
'accepted_'
' _'
' ;_'
'units_'
'unfortunate_'
'strongly_'
'stained_'
'silly_'
'print_'
'playing_'
'outrageously_'
'keys_'
'casual_'
'bizarre_'
'bits_'
'avoided_'
'annoyance_'
'amazed_'
'affair_'
' ? ?_'
'unbelievable_'
'saved_'
'queues_'
'pieces_'
'minus_'
'linen_'
'knowing_'
'horrendous_'
'gel_'
'foot_'
'east_'
'diner_'
'comparing_'
'cause_'
'art_'
'ts_'
'sweet_'
'salt_'
'represented_'
'polite_'
'orlando_'
'fashioned_'
'exceeded_'
'colleague_'
'cater_'
'caliber_'
'burgers_'
'arrangement_'
'600_'
'tend_'
'sharing_'
'send_'
'sale_'
'safety_'
'represents_'
'recommendation_'
'rarely_'
'perk_'
'glazing_'
'finish_'
'duvet_'
'disabled_'
'device_'
'consisted_'
'cell_'
'bet_'
'absurd_'
'8th_'
'140_'
' - $ _'
'ways_'
'understandable_'
'similarly_'
'sheet_'
'select_'
'locked_'
'gluten_'
'el_'
'conclusion_'
'compensation_'
'approx_'
'55_'
'unfair_'
'pathetic_'
'omelet_'
'misleading_'
'manage_'
'mall_'
'bank_'
'30am_'
'surcharge_'
'shabby_'
'selected_'
'question_'
'miles_'
'log_'
'lock_'
'ion_'
'inflated_'
'grab_'
'frozen_'
'formal_'
'entered_'
'enormous_'
'confirmation_'
'code_'
'carry_'
'body_'
' –_'
' , " _'
'ugly_'
'trendy_'
'smelled_'
'smart_'
'screaming_'
'rome_'
'reported_'
'poached_'
'nobody_'
'ness_'
'marriot_'
'investment_'
'interested_'
'flush_'
'fall_'
'equal_'
'café_'
'assigned_'
'350_'
'transit_'
'teas_'
'sides_'
'refreshing_'
'reach_'
'nicest_'
'kimpton_'
'football_'
'failed_'
'desert_'
'decide_'
'dangerous_'
'chaotic_'
'butthe_'
'awkward_'
'among_'
'6th_'
'130_'
'verall_'
'unlikely_'
'switched_'
'ripped_'
'respect_'
'outlet_'
'newspaper_'
'marriotts_'
'loungers_'
'instant_'
'fly_'
'exciting_'
'claustrophobic_'
'charming_'
'caused_'
'cancelled_'
'canapes_'
'blocks_'
'balance_'
'array_'
'woken_'
'stick_'
'staythe_'
'reminded_'
'latter_'
'initial_'
'individual_'
'dressing_'
'destination_'
'baked_'
'32_'
'variable_'
'speaking_'
'shock_'
'scale_'
'pudding_'
'parks_'
'organised_'
'listed_'
'inconsistent_'
'dropped_'
'coupon_'
'confusing_'
'appearance_'
'weight_'
'valley_'
'tvs_'
'sushi_'
'soulless_'
'residents_'
'purposes_'
'nibbles_'
'hugely_'
'greasy_'
'gorgeous_'
'delivers_'
'apple_'
'afraid_'
'willing_'
'vast_'
'usa_'
'ticket_'
'ry_'
'promptly_'
'powerful_'
'numbers_'
'noticeable_'
'noises_'
'natural_'
'mattresses_'
'figure_'
'faster_'
'fans_'
'deposit_'
'challenge_'
'banging_'
'supermarket_'
'relative_'
'recognition_'
'pastry_'
'mess_'
'justified_'
'hey_'
'guy_'
'ere_'
'dissapointed_'
'america_'
'180_'
'unreasonable_'
'unbearable_'
'tickets_'
'springs_'
'ride_'
'opens_'
'meridien_'
'lay_'
'intermittent_'
'hoteli_'
'history_'
'consideration_'
'considerably_'
'berlin_'
'april_'
'7th_'
' ) ; _'
'wants_'
'th_'
'supplement_'
'suitcase_'
'sleeper_'
'september_'
'separately_'
'potato_'
'position_'
'loyal_'
'japan_'
'hole_'
'getaway_'
'folks_'
'easter_'
'duty_'
'driving_'
'drawers_'
'dog_'
'declined_'
'cheerful_'
'ce_'
'audience_'
'altogether_'
'whatsoever_'
'waldorf_'
'vs_'
'vegetarians_'
'spirits_'
'shelf_'
'sets_'
'realised_'
'porridge_'
'phones_'
'november_'
'mushrooms_'
'marks_'
'linens_'
'exclusive_'
'delhi_'
'contemporary_'
'completed_'
'closing_'
'china_'
'ble_'
'varieties_'
'travelled_'
'suitcases_'
'rich_'
'relaxation_'
'perks_'
'manhattan_'
'lamp_'
'ish_'
'improvements_'
'cozy_'
'buffett_'
'attempt_'
'arranged_'
' , £ _'
'worthwhile_'
'wooden_'
'waitress_'
'volume_'
'vending_'
'unreliable_'
'rice_'
'reviewer_'
'requests_'
'realize_'
'plane_'
'neighbors_'
'needing_'
'kitchenette_'
'guaranteed_'
'gourmet_'
'gotten_'
'gardens_'
'essentially_'
'delightful_'
'cases_'
'cabins_'
'airline_'
')_'
' --_'
'vary_'
'turning_'
'states_'
'rubbish_'
'ring_'
'proximity_'
'peaceful_'
'neighbours_'
'miami_'
'marked_'
'historic_'
'hh_'
'flow_'
'drain_'
'canapés_'
' --- _'
'£ _'
'tree_'
'specifically_'
'shall_'
'pack_'
'lunches_'
'hie_'
'greatly_'
'fill_'
'cutlery_'
'courteous_'
'boxes_'
'benedict_'
'band_'
'assured_'
'apparent_'
' .-_'
'supper_'
'sizes_'
'situated_'
'serviced_'
'seated_'
'reflect_'
'partial_'
'hrs_'
'february_'
'fab_'
'cross_'
'choosing_'
'answer_'
'tier_'
'squeezed_'
'realise_'
'photo_'
'parents_'
'owners_'
'originally_'
'jet_'
'guys_'
'greeted_'
'forgot_'
'extraordinary_'
'everyday_'
'countries_'
'coffees_'
'according_'
'110_'
'yosemite_'
'secret_'
'plumbing_'
'ne_'
'monday_'
'liking_'
'kid_'
'height_'
'fittings_'
'fireplace_'
'ear_'
'cope_'
'centrally_'
'cab_'
'39_'
' . ._'
'wasted_'
'turns_'
'toaster_'
'telephone_'
'surprises_'
'struggle_'
'stations_'
'starts_'
'stains_'
'reward_'
'resturant_'
'regard_'
'ratings_'
'omelets_'
'lamps_'
'internal_'
'forever_'
'electricity_'
'downsides_'
'disturb_'
'combined_'
'combination_'
'cards_'
' ) . _'
'veg_'
'thermostat_'
'stockholm_'
'sorted_'
'smile_'
'scones_'
'scheme_'
'require_'
'overcrowded_'
'lobster_'
'join_'
'gatwick_'
'disgusting_'
'crowd_'
'cooling_'
'collection_'
'bookings_'
'blocked_'
'aud_'
'version_'
'studio_'
'stone_'
'setup_'
'regardless_'
'proof_'
'preference_'
'mains_'
'inferior_'
'hefty_'
'hands_'
'gin_'
'falling_'
'eg_'
'dust_'
'decoration_'
'crown_'
'compact_'
'canyon_'
'boiled_'
'becomes_'
'basin_'
'baby_'
'2014_'
'unimpressed_'
'triple_'
'trained_'
'tiles_'
'temp_'
'smallish_'
'settled_'
'se_'
'reflected_'
'promotion_'
'prime_'
'payment_'
'oatmeal_'
'nasty_'
'ies_'
'grossly_'
'desperate_'
'couch_'
'closes_'
'branded_'
'attend_'
'apartments_'
' … _'
'written_'
'village_'
'ur_'
'undercooked_'
'timeshare_'
'soggy_'
'sites_'
'silver_'
'roast_'
'passable_'
'parked_'
'overrated_'
'mandatory_'
'lodges_'
'incl_'
'inches_'
'explain_'
'display_'
'dinning_'
'coverage_'
'chocolates_'
'balconies_'
'alot_'
'ad_'
' .: _'
'´_'
'washing_'
'warmer_'
'vibe_'
'thick_'
'thailand_'
'structure_'
'steakhouse_'
'solution_'
'singles_'
'reviewed_'
'residence_'
'regret_'
'produce_'
'pp_'
'locally_'
'learn_'
'insufficient_'
'granted_'
'disturbing_'
'cuts_'
'conversation_'
'claim_'
'amsterdam_'
'amazingly_'
'1000_'
'wished_'
'undergoing_'
'supplies_'
'stayi_'
'remain_'
'rail_'
'packages_'
'opt_'
'noon_'
'muffins_'
'lifetime_'
'lax_'
'hamburger_'
'fourth_'
'economical_'
'doubles_'
'disturbed_'
'brief_'
'bagels_'
'allows_'
'85_'
' - £ _'
'underground_'
'tomato_'
'title_'
'struggled_'
'spoil_'
'specials_'
'shade_'
'restful_'
'privilege_'
'pretentious_'
'practice_'
'ons_'
'mass_'
'lap_'
'generic_'
'fitted_'
'enjoying_'
'edge_'
'dogs_'
'contact_'
'ceilings_'
'capacity_'
'andwe_'
'ally_'
' ' , _'
' '
'tacky_'
'secondly_'
'premises_'
'persons_'
'passed_'
'ot_'
'orleans_'
'occupied_'
'lavish_'
'hidden_'
'faithful_'
'explanation_'
'effect_'
'décor_'
'controls_'
'800_'
'160_'
'worried_'
'support_'
'splurge_'
'specific_'
'skipped_'
'pod_'
'ill_'
'hangers_'
'halls_'
'discover_'
'delay_'
'connectivity_'
'circumstances_'
'tips_'
'thru_'
'suggested_'
'stood_'
'sterile_'
'soda_'
'sliding_'
'repair_'
'rent_'
'pull_'
'perspective_'
'marble_'
'load_'
'inner_'
'figured_'
'establishments_'
'dublin_'
'disgrace_'
'disappoint_'
'critical_'
'complicated_'
'century_'
'cars_'
'butter_'
'automatically_'
'app_'
'adding_'
'accommodating_'
'125_'
'restuarant_'
'research_'
'niggles_'
'motels_'
'mexican_'
'maintain_'
'insisted_'
'inc_'
'hen_'
'heavily_'
'hawaii_'
'fits_'
'faultless_'
'definite_'
'concept_'
'calling_'
'burnt_'
'brussels_'
'beside_'
'bathrobes_'
'adjust_'
'9th_'
' .’_'
' ! ) , _'
'vietnam_'
'utterly_'
'unusable_'
'unremarkable_'
'travels_'
'tennis_'
'te_'
'solo_'
'sick_'
'selling_'
'roomthe_'
'reserve_'
'refreshed_'
'recall_'
'makeover_'
'hotelbut_'
'functioning_'
'francisco_'
'expects_'
'energy_'
'edinburgh_'
'driver_'
'dissapointing_'
'clients_'
'buying_'
'bear_'
'bare_'
'waiters_'
'vastly_'
'understaffed_'
'un_'
'stupid_'
'sparkling_'
'sight_'
'resulted_'
'resolved_'
'reflects_'
'realized_'
'rave_'
'ranch_'
'ous_'
'mineral_'
'lie_'
'latest_'
'ipad_'
'hurry_'
'hesitation_'
'exhausted_'
'earplugs_'
'continued_'
'clientele_'
'bell_'
'arrangements_'
'approach_'
'ai_'
'advertising_'
'action_'
'2013_'
'-- _'
'watery_'
'tomatoes_'
'strength_'
'posted_'
'multi_'
'matters_'
'loose_'
'knows_'
'gratuity_'
'gas_'
'economy_'
'drawer_'
'colour_'
'cent_'
'associated_'
'2012_'
'yummy_'
'tours_'
'toilets_'
'sri_'
'signature_'
'search_'
'replacement_'
'rear_'
'pop_'
'nowadays_'
'newspapers_'
'massages_'
'insult_'
'honeymoon_'
'geared_'
'fortune_'
'employees_'
'dire_'
'conveniently_'
'cancel_'
'buti_'
'blinds_'
'bbq_'
'baths_'
'australian_'
'10th_'
' …_'
' ...... _'
'wings_'
'usage_'
'unusually_'
'unhappy_'
'tlc_'
'tall_'
'steaks_'
'spoke_'
'snow_'
'slamming_'
'rental_'
'page_'
'net_'
'mood_'
'mile_'
'meets_'
'jam_'
'insane_'
'happens_'
'fat_'
'ey_'
'extreme_'
'escape_'
'ends_'
'dump_'
'dropping_'
'death_'
'cupboard_'
'cuba_'
'count_'
'contrast_'
'coat_'
'boy_'
'begin_'
'andaz_'
'ambassador_'
'+_'
'ted_'
'surrounding_'
'stands_'
'staffed_'
'sour_'
'runs_'
'rang_'
'prompt_'
'promise_'
'nz_'
'mumbai_'
'men_'
'mb_'
'majority_'
'leela_'
'hoteland_'
'heart_'
'harbor_'
'fussy_'
'focus_'
'flavour_'
'fixtures_'
'eyes_'
'emails_'
'commented_'
'becoming_'
'advertise_'
': _'
'38_'
'2015_'
' # _'
'whenever_'
'trust_'
'suggestion_'
'speeds_'
'specially_'
'refundable_'
'pound_'
'posh_'
'patchy_'
'passing_'
'operation_'
'oil_'
'humid_'
'greater_'
'games_'
'dingy_'
'cooler_'
'connections_'
'caesar_'
'xmas_'
'worldwide_'
'wind_'
'transport_'
'thursday_'
'stingy_'
'slices_'
'signage_'
'secured_'
'robe_'
'requirements_'
'pie_'
'ood_'
'mentioning_'
'lived_'
'kit_'
'inexcusable_'
'heading_'
'forgotten_'
'disco_'
'deserve_'
'cutting_'
'cookie_'
'conditions_'
'claims_'
'cap_'
'build_'
'breeze_'
'automatic_'
'700_'
' ? ? ?_'
'villas_'
'unavailable_'
'turkey_'
'ton_'
'tent_'
'talk_'
'spots_'
'sf_'
'replace_'
'queens_'
'noting_'
'mouth_'
'marginal_'
'largest_'
'inch_'
'honor_'
'goodi_'
'glasgow_'
'ft_'
'florida_'
'dress_'
'costing_'
'costa_'
'concrete_'
'camp_'
'bringing_'
'bite_'
'assumed_'
'andit_'
'2016_'
'wotif_'
'ty_'
'trade_'
'strip_'
'socket_'
'slide_'
'seattle_'
'ripoff_'
'respects_'
'remembered_'
'remained_'
'owned_'
'necessarily_'
'nature_'
'mr_'
'michelin_'
'message_'
'liverpool_'
'largely_'
'importantly_'
'impact_'
'ignored_'
'hostel_'
'hd_'
'hat_'
'fuss_'
'finger_'
'elaborate_'
'easier_'
'dismal_'
'dime_'
'degree_'
'dbb_'
'croissant_'
'continues_'
'authentic_'
'admittedly_'
' ......_'
'welcomed_'
'tolerable_'
'thrown_'
'themed_'
'stock_'
'spanish_'
'risk_'
'represent_'
'reduction_'
'pullman_'
'pan_'
'overwhelming_'
'loudly_'
'leg_'
'hearty_'
'handled_'
'groupon_'
'gap_'
'famous_'
'confirm_'
'accomodations_'
'33_'
'.. _'
'wrote_'
'tube_'
'tepid_'
'subject_'
'stretch_'
'steps_'
'spite_'
'sliced_'
'shouting_'
'salty_'
'rydges_'
'row_'
'remarkable_'
'refreshments_'
'radio_'
'quid_'
'pointless_'
'pointed_'
'petty_'
'metro_'
'metal_'
'lotion_'
'lesser_'
'intimate_'
'heavenly_'
'fairfield_'
'everybody_'
'est_'
'efficiently_'
'california_'
'amongst_'
'49_'
'2011_'
'whereas_'
'social_'
'server_'
'sand_'
'press_'
'pleasing_'
'peeling_'
'ould_'
'marina_'
'magnificent_'
'luke_'
'learned_'
'grey_'
'greatest_'
'funny_'
'follow_'
'erratic_'
'elements_'
'duration_'
'distinctly_'
'delight_'
'dealt_'
'dead_'
'crab_'
'communal_'
'afterwards_'
'`_'
'usb_'
'tons_'
'taps_'
'rollaway_'
'reply_'
'radiator_'
'pure_'
'pulled_'
'powdered_'
'played_'
'plans_'
'payed_'
'letdown_'
'kl_'
'image_'
'harsh_'
'feedback_'
'draft_'
'covers_'
'coupons_'
'contained_'
'broadband_'
'address_'
'abysmal_'
'. , _'
' ? ) _'
' ? !_'
' ....... _'
'wallpaper_'
'unbelievably_'
'toronto_'
'test_'
'tapas_'
'shot_'
'scottish_'
'rise_'
'recommending_'
'produced_'
'primarily_'
'prepare_'
'prawns_'
'perfection_'
'ongoing_'
'nickel_'
'leading_'
'imperial_'
'hundreds_'
'headed_'
'grilled_'
'eight_'
'drab_'
'creek_'
'carpark_'
'butlins_'
'blackout_'
'barcelona_'
'award_'
'ability_'
'170_'
' ? ) ._'
' .– _'
'telling_'
'sunbeds_'
'spare_'
'smooth_'
'seconds_'
'sales_'
'route_'
'roomi_'
'requires_'
'relation_'
'quirky_'
'predictable_'
'na_'
'mobility_'
'miserable_'
'isolated_'
'increased_'
'increase_'
'impeccable_'
'holder_'
'helps_'
'frame_'
'deli_'
'comp_'
'cleaner_'
'boat_'
'banquet_'
'airconditioning_'
'additionally_'
';_'
'00pm_'
' ? )_'
'worry_'
'woman_'
'weddings_'
'uses_'
'sumptuous_'
'substandard_'
'smells_'
'reached_'
'quarter_'
'push_'
'panel_'
'orders_'
'munich_'
'memory_'
'max_'
'keeps_'
'keen_'
'italy_'
'fluffy_'
'fight_'
'fatty_'
'expansive_'
'error_'
'era_'
'duck_'
'deserts_'
'content_'
'considerable_'
'concerns_'
'climate_'
'clerk_'
'cafes_'
'bw_'
'birmingham_'
'atlantis_'
'arm_'
'appeal_'
'amex_'
'allowing_'
'airy_'
'34_'
'warrant_'
'video_'
'uninspired_'
'tho_'
'tends_'
'squeeze_'
'sorely_'
'shaving_'
'redeeming_'
'q_'
'problematic_'
'privileges_'
'presumably_'
'practically_'
'pipes_'
'partially_'
'os_'
'operate_'
'measure_'
'lose_'
'ladies_'
'joined_'
'ineffective_'
'holding_'
'external_'
'exist_'
'ess_'
'entitled_'
'eastern_'
'crowds_'
'chipped_'
'celebrate_'
'canada_'
'bucket_'
'broke_'
'blanket_'
'bikes_'
'ball_'
'applied_'
'alas_'
'addressed_'
'absence_'
'220_'
'21st_'
'unimpressive_'
'tries_'
'trays_'
'tin_'
'suffered_'
'subpar_'
'spain_'
'shirt_'
'resulting_'
'reluctant_'
'mounted_'
'loo_'
'lives_'
'likewise_'
'instance_'
'incident_'
'hotter_'
'hotelwe_'
'guide_'
'grace_'
'goodbut_'
'false_'
'fairness_'
'extension_'
'exit_'
'excess_'
'exact_'
'edges_'
'detract_'
'crisps_'
'conversations_'
'chilly_'
'carefully_'
'capital_'
'calibre_'
'britannia_'
'boarding_'
'blackpool_'
'ay_'
'ale_'
'airlines_'
'accordingly_'
') _'
' , & _'
' " - _'
'visitor_'
'venues_'
'venetian_'
'unfriendly_'
'traveled_'
'transportation_'
'tinned_'
'temperatures_'
'suits_'
'rule_'
'related_'
'region_'
'raw_'
'purely_'
'provision_'
'pocket_'
'plush_'
'planes_'
'performance_'
'oriented_'
'opposed_'
'okbut_'
'monaco_'
'merely_'
'maximum_'
'maid_'
'lumpy_'
'lastly_'
'lager_'
'ity_'
'ireland_'
'hotelit_'
'friendliness_'
'courtesy_'
'chill_'
'cappuccino_'
'bunch_'
'blow_'
'bakery_'
'atrocious_'
'89_'
'+ _'
' ! ! ! ! !_'
'yellowstone_'
'waffle_'
'usable_'
'unlucky_'
'ultimately_'
'ting_'
'switches_'
'sunset_'
'stops_'
'signed_'
'showering_'
'shanghai_'
'serviceable_'
'restricted_'
'remove_'
'reduce_'
'positioned_'
'pluses_'
'peninsula_'
'passport_'
'passes_'
'packet_'
'mail_'
'lying_'
'lastminute_'
'knock_'
'itc_'
'hip_'
'god_'
'gaylord_'
'frustrated_'
'fed_'
'feather_'
'england_'
'drunk_'
'diet_'
'daylight_'
'consistency_'
'conditioned_'
'chic_'
'chaos_'
'caught_'
'breakfastthe_'
'boiling_'
'blowing_'
'ation_'
'approximately_'
'act_'
'48_'
'129_'
'-$_'
' — _'
' [ _'
' . - _'
'z_'
'women_'
'vietnamese_'
'ups_'
'umbrella_'
'tear_'
'surface_'
'stage_'
'soul_'
'rules_'
'quibble_'
'prevent_'
'prague_'
'port_'
'player_'
'pizzas_'
'pays_'
'palm_'
'nuisance_'
'niggle_'
'mold_'
'melia_'
'marred_'
'les_'
'iphone_'
'industrial_'
'honours_'
'holes_'
'hkd_'
'heads_'
'gravy_'
'giant_'
'german_'
'fraction_'
'featured_'
'electronic_'
'drawbacks_'
'downhill_'
'don_'
'diners_'
'desperately_'
'dates_'
'data_'
'contacted_'
'co_'
'cancun_'
'blankets_'
'bathrobe_'
'architecture_'
'apples_'
'andbreakfast_'
'abundant_'
'59_'
' .; _'
' . ) _'
'wondering_'
'warsaw_'
'warmth_'
'veggie_'
'user_'
'underneath_'
'tubs_'
'tremendous_'
'sweets_'
'sunny_'
'sthe_'
'stable_'
'spotless_'
'seven_'
'scalding_'
'savings_'
'rustic_'
'rubber_'
'roomy_'
'rib_'
'requirement_'
'remodeled_'
'refunded_'
'quarters_'
'peace_'
'neck_'
'mystery_'
'minuses_'
'midweek_'
'lunchtime_'
'locker_'
'kinda_'
'indifferent_'
'hundred_'
'hire_'
'hill_'
'highway_'
'government_'
'gloomy_'
'flaw_'
'fayre_'
'familiar_'
'evident_'
'enjoyment_'
'dip_'
'dial_'
'decidedly_'
'create_'
'consequently_'
'comfortably_'
'cheated_'
'castle_'
'browns_'
'blown_'
'bills_'
'billed_'
'apply_'
'ant_'
'amounts_'
'ala_'
'aged_'
'69_'
'42_'
'37_'
'31_'
'... _'
' !- _'
'yellow_'
'waking_'
'tidy_'
'sugar_'
'stream_'
'split_'
'servers_'
'runway_'
'rough_'
'refresh_'
'reflection_'
'rectified_'
'possibility_'
'personnel_'
'oddly_'
'oberoi_'
'nuts_'
'neighbor_'
'museum_'
'listen_'
'kinds_'
'judge_'
'invest_'
'insulated_'
'horribly_'
'girls_'
'frankfurt_'
'former_'
'forgettable_'
'fitting_'
'extent_'
'entrees_'
'entree_'
'ent_'
'emergency_'
'effectively_'
'dozen_'
'disneyland_'
'dislike_'
'department_'
'dear_'
'danish_'
'crap_'
'client_'
'claimed_'
'cancellation_'
'buses_'
'andthis_'
'aircraft_'
'againthe_'
'450_'
'& _'
' . , _'
' !, _'
' !( _'
'yen_'
'um_'
'truth_'
'tion_'
'systems_'
'staybut_'
'stating_'
'staffing_'
'shortly_'
'sheer_'
'severely_'
'sells_'
'regis_'
'official_'
'nite_'
'network_'
'moderately_'
'marginally_'
'lettuce_'
'land_'
'involved_'
'indicated_'
'ignore_'
'hvac_'
'haul_'
'gripes_'
'goodwe_'
'ge_'
'france_'
'fellow_'
'downgrade_'
'dispenser_'
'converted_'
'conventions_'
'conducive_'
'canal_'
'bridge_'
'brick_'
'basket_'
'appetizer_'
'anticipated_'
'andbut_'
'affect_'
'activity_'
'36_'
'2017_'
'00am_'
'vip_'
'unimaginative_'
'spicy_'
'slice_'
'sensible_'
'senior_'
'roombut_'
'requesting_'
'remodel_'
'raised_'
'puts_'
'platter_'
'pancake_'
'painfully_'
'odor_'
'ns_'
'ment_'
'matched_'
'inspiring_'
'insist_'
'hated_'
'goodand_'
'global_'
'functions_'
'fiji_'
'extend_'
'dressed_'
'dream_'
'draw_'
'discounts_'
'die_'
'convinced_'
'compensate_'
'cigarette_'
'cared_'
'brighton_'
'bitter_'
'attractions_'
'asleep_'
'14th_'
' /_'
' ' - _'
'washer_'
'vat_'
'unappealing_'
'umbrellas_'
'ultra_'
'uber_'
'trick_'
'tourism_'
'throw_'
'ther_'
'subjective_'
'smokers_'
'shallow_'
'settle_'
'semi_'
'satisfy_'
'repeated_'
'remaining_'
'readily_'
'ranking_'
'ps_'
'piano_'
'pair_'
'overlook_'
'overhaul_'
'object_'
'musty_'
'mushroom_'
'mill_'
'loss_'
'locals_'
'letter_'
'league_'
'lazy_'
'instructions_'
'hors_'
'hearing_'
'gladly_'
'girl_'
'faded_'
'element_'
'elderly_'
'depends_'
'decline_'
'crash_'
'controlled_'
'concert_'
'competitors_'
'communication_'
'color_'
'cardboard_'
'bearing_'
'bali_'
'assistance_'
'ar_'
'anybody_'
'24hrs_'
'younger_'
'vicinity_'
'vegetable_'
'users_'
'unbeatable_'
'treats_'
'topped_'
'tonight_'
'suffer_'
'staywe_'
'stayit_'
'shrimp_'
'sample_'
'repetitive_'
'record_'
'receipt_'
'qualify_'
'programme_'
'otel_'
'optional_'
'od_'
'mould_'
'massively_'
'likes_'
'laps_'
'lanka_'
'installed_'
'hgi_'
'heck_'
'hash_'
'happening_'
'glazed_'
'garlic_'
'foreign_'
'flavor_'
'fillet_'
'faulty_'
'fail_'
'extensively_'
'emailed_'
'ds_'
'drove_'
'difficulty_'
'damaged_'
'crammed_'
'correctly_'
'catching_'
'breakfasti_'
'beijing_'
'anytime_'
'allowance_'
'!_'
'!. _'
'zurich_'
'yoghurts_'
'yangon_'
'won_'
'wider_'
'wave_'
'vienna_'
'ver_'
'vanity_'
'undrinkable_'
'unappetising_'
'tuna_'
'transfers_'
'torn_'
'tonic_'
'swiss_'
'suffice_'
'suddenly_'
'stress_'
'steal_'
'spray_'
'somebody_'
'slowly_'
'shaped_'
'seek_'
'scandinavian_'
'roomand_'
'reports_'
'replacing_'
'pots_'
'personality_'
'painful_'
'operated_'
'occasionally_'
'nine_'
'neighborhood_'
'model_'
'maui_'
'ludicrous_'
'letting_'
'kicked_'
'industry_'
'impress_'
'hurt_'
'hopes_'
'handicapped_'
'handed_'
'gouging_'
'goods_'
'fortunate_'
'fifth_'
'favour_'
'esp_'
'endless_'
'elegance_'
'efficiency_'
'digital_'
'creative_'
'corrected_'
'corners_'
'coast_'
'cart_'
'canadian_'
'bearable_'
'bbc_'
'bandwidth_'
'baht_'
'avail_'
'agency_'
'adds_'
'240_'
'135_'
' ” ._'
'– _'
'workers_'
'weekday_'
'versus_'
'values_'
'valued_'
'upkeep_'
'updates_'
'unsatisfactory_'
'turndown_'
'tuesday_'
'travelzoo_'
'teenagers_'
'takeaway_'
'streaming_'
'stiff_'
'staffs_'
'ss_'
'speedy_'
'shortcomings_'
'shortage_'
'sensitive_'
'screens_'
'schedule_'
'scene_'
'rose_'
'regards_'
'processed_'
'printer_'
'presidential_'
'poorest_'
'peru_'
'pc_'
'paradise_'
'pampered_'
'pacific_'
'nightthe_'
'navajo_'
'muscat_'
'macau_'
'ling_'
'limit_'
'lead_'
'knocking_'
'info_'
'host_'
'hare_'
'greeting_'
'furnace_'
'faces_'
'facelift_'
'ex_'
'escapes_'
'earned_'
'dvd_'
'delayed_'
'cubicle_'
'crappy_'
'counts_'
'conscious_'
'challenging_'
'camping_'
'button_'
'butit_'
'bracket_'
'books_'
'blast_'
'blame_'
'bang_'
'ba_'
'audible_'
'astoria_'
'andand_'
'adelaide_'
'accustomed_'
'105_'
' ] _'
' .& _'
'wondered_'
'weekdays_'
'websites_'
'waterfront_'
'waikiki_'
'viewing_'
'venture_'
'unsure_'
'universal_'
'twenty_'
'treadmill_'
'spartan_'
'soundproof_'
'sophisticated_'
'slipped_'
'sinks_'
'sharp_'
'saigon_'
'rubbery_'
'resolve_'
'rely_'
'relief_'
'random_'
'prosecco_'
'pro_'
'ping_'
'periods_'
'onion_'
'observation_'
'norway_'
'mountain_'
'monopoly_'
'magic_'
'lively_'
'lcd_'
'latte_'
'inform_'
'indigo_'
'immediate_'
'hell_'
'gate_'
'focused_'
'feast_'
'favor_'
'excluding_'
'encounter_'
'employee_'
'dodgy_'
'deserved_'
'damp_'
'coupled_'
'context_'
'comforts_'
'clue_'
'clothing_'
'cardiff_'
'breaks_'
'bored_'
'boot_'
'bites_'
'balanced_'
'affected_'
'19th_'
' • _'
'watering_'
'vodka_'
'understood_'
'understatement_'
'trend_'
'trees_'
'trash_'
'til_'
'thinks_'
'temporary_'
'sticky_'
'stayand_'
'slam_'
'sh_'
'rushing_'
'revisit_'
'rank_'
'raise_'
'questionable_'
'promises_'
'overcharged_'
'organisation_'
'neighbouring_'
'mirrors_'
'mcdonalds_'
'managers_'
'liquor_'
'lackluster_'
'isolation_'
'ins_'
'hr_'
'hopeless_'
'gyms_'
'germany_'
'funky_'
'frustration_'
'filthy_'
'ery_'
'ending_'
'embarrassing_'
'draught_'
'dependable_'
'def_'
'deco_'
'cracked_'
'cottage_'
'cot_'
'ck_'
'cinnamon_'
'chilled_'
'chewy_'
'cabs_'
'breakfastwe_'
'blind_'
'bartender_'
'au_'
'anda_'
'260_'
'2000_'
'145_'
' = _'
' ......._'
'yogurts_'
'windy_'
'warn_'
'uninviting_'
'trains_'
'toothbrush_'
'theatre_'
'thanksgiving_'
'teh_'
'tech_'
'swing_'
'southern_'
'source_'
'slippery_'
'shoes_'
'seasoned_'
'roughly_'
'roomit_'
'risotto_'
'refuse_'
'questioned_'
'prawn_'
'oven_'
'operator_'
'nce_'
'myanmar_'
'moreover_'
'manner_'
'lighter_'
'itthe_'
'irritation_'
'irritated_'
'injury_'
'informal_'
'historical_'
'helping_'
'granola_'
'gala_'
'flaws_'
'flagship_'
'female_'
'faulted_'
'facial_'
'explore_'
'experiencethe_'
'et_'
'established_'
'ease_'
'drinkable_'
'downgraded_'
'directions_'
'dealing_'
'collect_'
'celebration_'
'carried_'
'bun_'
'began_'
'attendant_'
'aimed_'
'accommodated_'
'18th_'
'15th_'
'12th_'
'119_'
'109_'
' :-)_'
' :)_'
'worthless_'
'wonderfully_'
'whoever_'
'vent_'
'variation_'
'tells_'
'tayed_'
'strangely_'
'stellar_'
'statement_'
'staircase_'
'smelt_'
'smelly_'
'seperate_'
'scam_'
'saver_'
'riu_'
'revamp_'
'requiring_'
'rented_'
'refurbishing_'
'ranging_'
'promotional_'
'positively_'
'password_'
'passengers_'
'outlook_'
'outdoors_'
'okthe_'
'necessity_'
'meters_'
'ls_'
'legs_'
'interest_'
'identical_'
'houses_'
'homemade_'
'havana_'
'goodbreakfast_'
'gem_'
'furthermore_'
'ful_'
'flexible_'
'finishes_'
'factory_'
'expresso_'
'excellence_'
'discussion_'
'disappointingly_'
'decently_'
'currency_'
'crispy_'
'condo_'
'colonial_'
'climb_'
'bench_'
'beauty_'
'anyhow_'
'annual_'
'againbut_'
'accompanied_'
'20th_'
'wrap_'
'wheelchair_'
'waters_'
'visible_'
'veranda_'
'venice_'
'varies_'
'upside_'
'tropical_'
'thrilled_'
'thistle_'
'thankful_'
'terminals_'
'swissotel_'
'suggests_'
'substantially_'
'stressful_'
'stall_'
'spoon_'
'sleepless_'
'sightseeing_'
'shoe_'
'sheratons_'
'satisfaction_'
'rushed_'
'roomwe_'
'ribs_'
'retreat_'
'remarkably_'
'rainy_'
'questions_'
'profile_'
'pricier_'
'preparation_'
'piping_'
'peeve_'
'overhead_'
'moneythe_'
'mo_'
'million_'
'memories_'
'materials_'
'marketing_'
'laughable_'
'language_'
'jug_'
'jan_'
'intended_'
'insanely_'
'infrastructure_'
'imo_'
'hype_'
'hotelthis_'
'harder_'
'gain_'
'flowers_'
'feed_'
'favourable_'
'electronics_'
'dripping_'
'download_'
'downer_'
'departing_'
'dedicated_'
'ded_'
'db_'
'created_'
'containers_'
'companies_'
'chefs_'
'carlson_'
'bones_'
'baggage_'
'attempts_'
'asset_'
'aed_'
'accounts_'
'44_'
'"_'
' @ _'
' ........_'
'zone_'
'ys_'
'yard_'
'winner_'
'whose_'
'track_'
'touring_'
'tops_'
'tone_'
'tatty_'
'surrounded_'
'subsequently_'
'stopping_'
'stamford_'
'sport_'
'splash_'
'slot_'
'skin_'
'silent_'
'seaview_'
'scratch_'
'results_'
'replied_'
'repeatedly_'
'preferable_'
'pin_'
'pile_'
'physical_'
'partly_'
'organized_'
'operating_'
'obtain_'
'noodles_'
'niagara_'
'negotiated_'
'nearest_'
'meh_'
'manageable_'
'liquid_'
'leeds_'
'leaked_'
'lane_'
'ipod_'
'imaginative_'
'imagination_'
'horrid_'
'hindsight_'
'heritage_'
'hectic_'
'hazard_'
'feelings_'
'fails_'
'earth_'
'diverse_'
'displayed_'
'disconcerting_'
'desire_'
'dance_'
'covering_'
'compromise_'
'compensated_'
'cnn_'
'clubs_'
'cleared_'
'certificate_'
'bummer_'
'buck_'
'bristol_'
'bin_'
'bid_'
'assist_'
'argue_'
'antiquated_'
'annex_'
'aging_'
'advertises_'
'adjusted_'
'; _'
'79_'
'5star_'
'23rd_'
'199_'
'1970_'
'175_'
'16th_'
'165_'
'--_'
' : $ _'
' .'
' , , _'
' " . _'
' " ( _'
'yoga_'
'wee_'
'waits_'
'urban_'
'unsuitable_'
'tomorrow_'
'tissue_'
'tempting_'
'struggling_'
'straw_'
'sorts_'
'someplace_'
'slower_'
'scored_'
'scheduled_'
'rupees_'
'renovate_'
'remodeling_'
'ranks_'
'proposition_'
'praise_'
'pepper_'
'oxford_'
'overdone_'
'oslo_'
'opulent_'
'offset_'
'oeuvres_'
'negotiate_'
'mother_'
'mistakes_'
'midtown_'
'makers_'
'lso_'
'listening_'
'leaking_'
'lagoon_'
'ks_'
'jack_'
'highlights_'
'hawaiian_'
'flushing_'
'flexibility_'
'favorable_'
'faults_'
'enclosed_'
'ee_'
'drilling_'
'denver_'
'custom_'
'creating_'
'cloud_'
'ch_'
'bug_'
'budapest_'
'btw_'
'broad_'
'boys_'
'bly_'
'blew_'
'bike_'
'balls_'
'ashamed_'
'ancient_'
'airports_'
'achieved_'
'230_'
'*. _'
' % ._'
'wharf_'
'wearing_'
'washington_'
'wary_'
'vey_'
'vacations_'
'upto_'
'unwelcoming_'
'unstable_'
'touched_'
'tart_'
'streets_'
'spotlessly_'
'solved_'
'soaps_'
'slip_'
'sleepers_'
'seemingly_'
'rim_'
'remainder_'
'recommendable_'
'recognized_'
'recognised_'
'raining_'
'quote_'
'pushing_'
'profit_'
'prevented_'
'poster_'
'porter_'
'pods_'
'owever_'
'orchard_'
'oceanfront_'
'narita_'
'mexico_'
'melon_'
'meagre_'
'mayfair_'
'makeup_'
'luxe_'
'leather_'
'kings_'
'jazz_'
'istanbul_'
'interconnecting_'
'incidentals_'
'inappropriate_'
'hung_'
'hubby_'
'hesitant_'
'happier_'
'handicap_'
'greek_'
'golden_'
'genuine_'
'flash_'
'exposed_'
'evidence_'
'ethernet_'
'efforts_'
'duvets_'
'disgraceful_'
'dirt_'
'diego_'
'devoid_'
'desirable_'
'cushions_'
'crew_'
'crack_'
'courts_'
'comparatively_'
'causing_'
'cares_'
'cans_'
'burning_'
'brings_'
'breaker_'
'boasts_'
'bfast_'
'beforehand_'
'allergies_'
'airplane_'
'agoda_'
'admission_'
'70s_'
'139_'
' … ._'
' : -_'
' ! ! _'
'zealand_'
'wrapped_'
'woefully_'
'whirlpool_'
'vere_'
'veggies_'
'van_'
'unexciting_'
'tissues_'
'tempted_'
'teenage_'
'swedish_'
'sums_'
'suffers_'
'suffering_'
'strawberries_'
'staybreakfast_'
'soundproofed_'
'slides_'
'skimpy_'
'shelves_'
'searching_'
'scary_'
'saves_'
'sake_'
'ruin_'
'robbery_'
'receiving_'
'rd_'
'raffles_'
'race_'
'ra_'
'poorer_'
'overwhelmed_'
'obtained_'
'nit_'
'neat_'
'ms_'
'moab_'
'minuscule_'
'mezzanine_'
'mere_'
'mbps_'
'mary_'
'mariott_'
'leak_'
'label_'
'knocked_'
'kindly_'
'islands_'
'interiors_'
'intend_'
'ings_'
'incorrect_'
'id_'
'iced_'
'hum_'
'honesty_'
'homewood_'
'hint_'
'hike_'
'headache_'
'genuinely_'
'franchise_'
'forth_'
'flew_'
'finishing_'
'fear_'
'exquisite_'
'engine_'
'encourage_'
'eco_'
'dreary_'
'direction_'
'demanded_'
'decaf_'
'decades_'
'damage_'
'crackers_'
'continually_'
'confusion_'
'confident_'
'clearing_'
'classes_'
'cava_'
'caution_'
'caring_'
'caribbean_'
'cabinet_'
'cabana_'
'butwe_'
'buttons_'
'burn_'
'bulbs_'
'brighter_'
'breakfastit_'
'breakfastbut_'
'boards_'
'bass_'
'barman_'
'ballroom_'
'ated_'
'astronomical_'
'akin_'
'againi_'
'abundance_'
'80s_'
'2010_'
'115_'
' ]_'
' ... ) ._'
'zoo_'
'whisky_'
'watched_'
'ure_'
'upsetting_'
'unnecessarily_'
'unforgivable_'
'trapped_'
'thumbs_'
'tesco_'
'tended_'
'temperamental_'
'tavern_'
'tahiti_'
'swe_'
'subway_'
'stuffed_'
'staythis_'
'splendid_'
'spire_'
'skype_'
'si_'
'shameful_'
'servings_'
'servicethe_'
'series_'
'seeking_'
'secondary_'
'sachets_'
'runny_'
'riverside_'
'rid_'
'revenue_'
'restaraunt_'
'renovating_'
'reaction_'
'quicker_'
'quay_'
'prove_'
'primary_'
'pricei_'
'pressed_'
'pointing_'
'pink_'
'pinching_'
'pics_'
'pi_'
'painted_'
'overseas_'
'olives_'
'oasis_'
'nottingham_'
'neighboring_'
'nec_'
'naturally_'
'mugs_'
'moan_'
'mixture_'
'marquis_'
'magical_'
'lly_'
'jury_'
'independent_'
'ian_'
'hote_'
'hooks_'
'grocery_'
'greedy_'
'goodness_'
'goodit_'
'gathering_'
'follows_'
'finest_'
'festive_'
'festival_'
'fashion_'
'factors_'
'extractor_'
'eateries_'
'dubious_'
'drury_'
'driven_'
'disruptive_'
'directed_'
'ding_'
'daughters_'
'clever_'
'circa_'
'chalet_'
'cbd_'
'categories_'
'bothersome_'
'attempted_'
'ard_'
'appetising_'
'andoverall_'
'americans_'
'72_'
'179_'
'149_'
'11th_'
' ; - _'
' ' ( _'
' ! ! )_'
'win_'
'whopping_'
'whom_'
'wednesday_'
'watered_'
'valuables_'
'upfront_'
'understanding_'
'uncomfortably_'
'trivial_'
'thoughts_'
'switzerland_'
'suprised_'
'struck_'
'soak_'
'smoothly_'
'sir_'
'shave_'
'shades_'
'session_'
'sed_'
'scared_'
'scandic_'
'rocket_'
'rides_'
'refill_'
'realistic_'
'ramada_'
'railway_'
'principle_'
'princess_'
'potentially_'
'ports_'
'plugged_'
'plant_'
'peas_'
'parcs_'
'painting_'
'pad_'
'oversized_'
'ors_'
'nightand_'
'named_'
'muesli_'
'microwaved_'
'metropole_'
'meter_'
'master_'
'male_'
'lisbon_'
'library_'
'ley_'
'langham_'
'kempinski_'
'jurys_'
'jumeirah_'
'iti_'
'interestingly_'
'intercon_'
'ingly_'
'individually_'
'indication_'
'inclined_'
'humidity_'
'herethe_'
'heaven_'
'grubby_'
'grapefruit_'
'flushed_'
'flies_'
'fingers_'
'filet_'
'fake_'
'failure_'
'extravagant_'
'expenses_'
'exhorbitant_'
'ensuring_'
'earn_'
'drying_'
'drapes_'
'downfall_'
'district_'
'distinct_'
'disapointing_'
'disadvantage_'
'designer_'
'delux_'
'delivering_'
'deceptive_'
'debit_'
'darkness_'
'culture_'
'cuisines_'
'configuration_'
'comped_'
'carrying_'
'cambridge_'
'bungalow_'
'bugs_'
'brush_'
'brochure_'
'bird_'
'beats_'
'beaten_'
'banana_'
'attract_'
'applies_'
'andthere_'
'achieve_'
'68_'
'51_'
'225_'
' .-- _'
'youth_'
'yacht_'
'wherever_'
'westerns_'
'warmed_'
'walkway_'
'upwards_'
'unpack_'
'tucked_'
'toddler_'
'toasted_'
'thyme_'
'switching_'
'student_'
'stomach_'
'stark_'
'sometime_'
'sole_'
'shoulder_'
'shockingly_'
'shirts_'
'shell_'
'shampoos_'
'settings_'
'separated_'
'reconsider_'
'recognize_'
'rained_'
'published_'
'printing_'
'powder_'
'portable_'
'pinot_'
'pineapple_'
'phuket_'
'phoned_'
'philadelphia_'
'peoples_'
'patrons_'
'nose_'
'nightstand_'
'nh_'
'ned_'
'nearer_'
'muffin_'
'maze_'
'madrid_'
'mad_'
'lowered_'
'login_'
'lesson_'
'landing_'
'lan_'
'lag_'
'keg_'
'joint_'
'itbut_'
'irritant_'
'ine_'
'inclusion_'
'ifi_'
'hygiene_'
'grub_'
'furnishing_'
'fter_'
'fooled_'
'explaining_'
'exceed_'
'examples_'
'entertaining_'
'embarrassment_'
'ears_'
'doorman_'
'domestic_'
'dock_'
'dispensers_'
'disapointed_'
'deeply_'
'crockery_'
'cooled_'
'continuous_'
'compete_'
'compares_'
'colombo_'
'colder_'
'chip_'
'cat_'
'browsing_'
'bowls_'
'bone_'
'biscuit_'
'berries_'
'bellman_'
'battery_'
'bananas_'
'answered_'
'allegedly_'
'ahwahnee_'
'africa_'
'62_'
'550_'
'54_'
'270_'
' ) ..._'
' ) ., _'
'yelling_'
'university_'
'tricky_'
'tovar_'
'ties_'
'ticked_'
'thoughtful_'
'thomson_'
'televisions_'
'tastefully_'
'tacos_'
'tablet_'
'success_'
'subsequent_'
'stories_'
'springhill_'
'speaker_'
'sofas_'
'smiles_'
'sirloin_'
'sing_'
'sfo_'
'sending_'
'scrum_'
'screwed_'
'scotland_'
'scarce_'
'salon_'
'roadside_'
'ripe_'
'rings_'
'repaired_'
'registration_'
'queuing_'
'que_'
'procedure_'
'prepay_'
'pr_'
'poured_'
'pier_'
'pavilion_'
'outweigh_'
'ou_'
'notwithstanding_'
'noisey_'
'nightclub_'
'names_'
'minimalist_'
'mat_'
'manila_'
'malta_'
'lockers_'
'link_'
'lemon_'
'lasted_'
'lame_'
'labor_'
'jump_'
'jets_'
'invoice_'
'inter_'
'indicate_'
'incentive_'
'improving_'
'impractical_'
'imho_'
'hyatts_'
'hotelbreakfast_'
'hospital_'
'horizon_'
'hook_'
'honored_'
'homely_'
'halfway_'
'gross_'
'greet_'
'grandeur_'
'glitch_'
'generator_'
'foam_'
'flair_'
'finethe_'
'film_'
'emirates_'
'embarrassed_'
'detracted_'
'detailed_'
'decorations_'
'dare_'
'cute_'
'crying_'
'cord_'
'confused_'
'companion_'
'chest_'
'cheaply_'
'chat_'
'celebrating_'
'canned_'
'butbreakfast_'
'breakfastand_'
'beachfront_'
'bagel_'
'attendees_'
'assuming_'
'assessment_'
'arrange_'
'appointment_'
'anonymous_'
'angry_'
'angle_'
'allergy_'
'airco_'
'advanced_'
'active_'
'absurdly_'
'66_'
'40th_'
'24th_'
'210_'
'2018_'
'2009_'
'169_'
')._'
' :) _'
' ! ! ! ! ! !_'
'zed_'
'wyndham_'
'wildly_'
'weekly_'
'washed_'
'ware_'
'valuable_'
'utensils_'
'unwind_'
'unknown_'
'unhelpful_'
'undergone_'
'unattractive_'
'therwise_'
'therethe_'
'tender_'
'teeth_'
'swift_'
'sweden_'
'strict_'
'stores_'
'stored_'
'squash_'
'sporadic_'
'sore_'
'smoker_'
'slipping_'
'shorter_'
'shining_'
'shine_'
'sgd_'
'severe_'
'sections_'
'scruffy_'
'sa_'
'renting_'
'reminds_'
'regal_'
'reference_'
'recommendations_'
'ray_'
'professionally_'
'printed_'
'pricethe_'
'preferences_'
'popped_'
'packaged_'
'oz_'
'ottawa_'
'offensive_'
'novotels_'
'mount_'
'motor_'
'ml_'
'merit_'
'mash_'
'manor_'
'malmaison_'
'loft_'
'lima_'
'lean_'
'landed_'
'keurig_'
'jammed_'
'ipads_'
'insulting_'
'indoors_'
'ikea_'
'human_'
'houston_'
'hop_'
'hide_'
'hanoi_'
'handling_'
'grande_'
'goodies_'
'gear_'
'flip_'
'filter_'
'facilites_'
'enhanced_'
'eats_'
'eater_'
'doubled_'
'dissappointed_'
'dissapointment_'
'denied_'
'daytime_'
'copy_'
'contains_'
'conservatory_'
'confortable_'
'chlorine_'
'chilli_'
'cheesecake_'
'cents_'
'cambodia_'
'breakfastbreakfast_'
'bora_'
'boom_'
'bkk_'
'belly_'
'beige_'
'bahamas_'
'athens_'
'artificial_'
'approached_'
'apologies_'
'anyways_'
'acknowledged_'
'900_'
'9'
'280_'
' ... )_'
' . . ._'
' , ._'
' $ $ _'
'£_'
'ze_'
'yesterday_'
'yards_'
'westins_'
'wc_'
'waterpark_'
'voices_'
'vfm_'
'utilized_'
'utilitarian_'
'union_'
'uneven_'
'uld_'
'tiring_'
'ticks_'
'tic_'
'thousands_'
'ter_'
'technology_'
'tasteful_'
't5_'
'sweat_'
'stifling_'
'sticks_'
'sticking_'
'steel_'
'standout_'
'stag_'
'spouse_'
'spoons_'
'soups_'
'sorting_'
'soooo_'
'solve_'
'soaked_'
'sits_'
'shuttles_'
'shoddy_'
'sealed_'
'satellite_'
'rowdy_'
'rocks_'
'rm_'
'responsive_'
'remind_'
'reflective_'
'redone_'
'recomend_'
'reccomend_'
'rc_'
'presume_'
'porch_'
'picking_'
'physically_'
'partake_'
'paddington_'
'packing_'
'overdue_'
'overbooked_'
'ought_'
'orientated_'
'orchid_'
'optimal_'
'occurred_'
'occupants_'
'occasional_'
'noodle_'
'nighti_'
'ncp_'
'navigate_'
'miniscule_'
'mildly_'
'mega_'
'material_'
'map_'
'maldives_'
'mac_'
'lounger_'
'lately_'
'ked_'
'jams_'
'ive_'
'itwe_'
'ir_'
'invested_'
'intrusive_'
'intolerable_'
'intermittently_'
'interaction_'
'instantly_'
'install_'
'innovative_'
'indicative_'
'immensely_'
'iconic_'
'horrendously_'
'haphazard_'
'hammering_'
'haggis_'
'grumble_'
'grown_'
'grabbed_'
'girlfriend_'
'ginger_'
'ghastly_'
'garbage_'
'gaps_'
'fulfilled_'
'fronts_'
'freshness_'
'freshen_'
'freezer_'
'freeview_'
'fountain_'
'formula_'
'forest_'
'force_'
'for'
'fireworks_'
'films_'
'fighting_'
'feb_'
'favourites_'
'facade_'
'experiencing_'
'experiencei_'
'existing_'
'exhibition_'
'essentials_'
'ensured_'
'ence_'
'el'
'dusty_'
'drops_'
'disappeared_'
'dependent_'
'definition_'
'cuban_'
'criticisms_'
'crews_'
'cotton_'
'contract_'
'container_'
'consisting_'
'commensurate_'
'combo_'
'coloured_'
'cleaners_'
'classed_'
'champions_'
'calm_'
'buzzing_'
'butler_'
'brekkie_'
'breath_'
'borderline_'
'bloody_'
'blocking_'
'bizarrely_'
'behaviour_'
'background_'
'awoken_'
'ave_'
'apologised_'
'annoyances_'
'andso_'
'andnot_'
'alongside_'
'agents_'
'african_'
'[ _'
'?_'
'57_'
'41_'
'25'
'20'
'190_'
'1500_'
'06_'
'.'
' . ) ._'
'wever_'
'well'
'weary_'
'wallet_'
'virgin_'
'vintage_'
'vely_'
'unsafe_'
'unprofessional_'
'undoubtedly_'
'uncommon_'
'trek_'
'toward_'
'tile_'
'syrup_'
'styles_'
'strawberry_'
'stranded_'
'spas_'
'seaside_'
'reviewing_'
'remembering_'
'regulate_'
'regrettably_'
'refurbish_'
'refilled_'
'redemption_'
'rattled_'
'quantities_'
'pulling_'
'progress_'
'presents_'
'presence_'
'portland_'
'polynesian_'
'pitch_'
'pipe_'
'pages_'
'ow_'
'organic_'
'odds_'
'nightcap_'
'newest_'
'nervous_'
'mushy_'
'moon_'
'montreal_'
'mode_'
'midland_'
'med_'
'martini_'
'ma_'
'louder_'
'limp_'
'law_'
'laugh_'
'lankan_'
'knife_'
'kick_'
'judging_'
'james_'
'jaded_'
'introduction_'
'ini_'
'imaginable_'
'ia_'
'handles_'
'handful_'
'ha_'
'guessing_'
'gs_'
'gm_'
'glitches_'
'glance_'
'fry_'
'frig_'
'flawless_'
'ff_'
'ferry_'
'enquired_'
'engineer_'
'endure_'
'ellipticals_'
'ell_'
'elected_'
'dramatically_'
'disturbance_'
'disconnected_'
'disappointments_'
'depend_'
'decade_'
'crisp_'
'cp_'
'cove_'
'courtyards_'
'corn_'
'containing_'
'compliment_'
'coffe_'
'codes_'
'cm_'
'closest_'
'clinical_'
'cigarettes_'
'chateau_'
'cancelling_'
'cad_'
'busier_'
'burned_'
'bulb_'
'breaking_'
'br_'
'bog_'
'blanc_'
'blah_'
'bf_'
'ayers_'
'avoiding_'
'ary_'
'armchair_'
'appropriately_'
'ah_'
'afterthought_'
'adjustment_'
'accident_'
'abu_'
'70'
'58_'
'56_'
'45'
'43_'
'360_'
'17th_'
'159_'
'101_'
' .:) _'
' +_'
' ) : _'
' $ $ $ _'
'xanterra_'
'wowed_'
'worth'
'workable_'
'were'
'wellington_'
'wasting_'
'wanna_'
'vanilla_'
'vancouver_'
'valid_'
'unreasonably_'
'unpacked_'
'unheard_'
'unexpectedly_'
'uneventful_'
'underway_'
'unclear_'
'unaware_'
'ul_'
'tusayan_'
'trouser_'
'trolley_'
'tiled_'
'temps_'
'tab_'
'substitute_'
'stronger_'
'strike_'
'storm_'
'sq_'
'spice_'
'skyline_'
'shout_'
'shorts_'
'ses_'
'serena_'
'seminar_'
'seasonal_'
'santa_'
'sandals_'
'safari_'
'roombreakfast_'
'resident_'
'reliability_'
'refrigerators_'
'razor_'
'ranked_'
'quaint_'
'pump_'
'programs_'
'presentations_'
'polish_'
'police_'
'plunge_'
'pickup_'
'pets_'
'ped_'
'patch_'
'pace_'
'operational_'
'ooked_'
'olympic_'
'okaybut_'
'occupant_'
'noteworthy_'
'notes_'
'nicethe_'
'neutral_'
'mechanical_'
'maintaining_'
'lengthy_'
'ld_'
'laying_'
'lakeside_'
'kidding_'
'kensington_'
'kauai_'
'ka_'
'jr_'
'j'
'invited_'
'inroom_'
'inefficient_'
'ight_'
'hosting_'
'hosted_'
'honour_'
'holds_'
'hamptons_'
'hairs_'
'guinness_'
'goa_'
'generously_'
'gambling_'
'fs_'
'fridges_'
'flooded_'
'flavours_'
'finebut_'
'fancier_'
'expensivethe_'
'exotic_'
'exorbitantly_'
'exhaust_'
'exceptions_'
'etc'
'empire_'
'edwardian_'
'dozens_'
'didn_'
'deserving_'
'defiantly_'
'damn_'
'cy_'
'criteria_'
'counters_'
'conveniences_'
'contents_'
'consists_'
'concentrate_'
'competent_'
'college_'
'cheeky_'
'charger_'
'chaise_'
'cave_'
'carries_'
'calamari_'
'brisbane_'
'booze_'
'blend_'
'belongings_'
'belong_'
'backs_'
'ayed_'
'awards_'
'austere_'
'audio_'
'arms_'
'argument_'
'area'
'alternate_'
'afforded_'
'adequately_'
'accompanying_'
'8'
'60s_'
'60'
'6'
'52_'
'5'
'47_'
'320_'
'32'
'30'
'2008_'
'12'
'100'
'00'
'*._'
' ) .( _'
' ) !_'
' " ... _'
' ! - _'
'yours_'
'ya_'
'world'
'wandering_'
'waitresses_'
'voice_'
'ving_'
'vegan_'
'value'
'unpacking_'
'united_'
'unexceptional_'
'ultimate_'
'tu'
'too'
'thirty_'
'temple_'
'talked_'
'sunrise_'
'sucks_'
'stew_'
'stain_'
'sooner_'
'softer_'
'smiling_'
'smelling_'
'slots_'
'signing_'
'sights_'
'shower'
'servicing_'
'seal_'
'sampled_'
'rosen_'
'room'
'roaming_'
'restored_'
'respond_'
'representative_'
'reluctantly_'
'recognise_'
'racket_'
'provider_'
'prohibitive_'
'prison_'
'priceit_'
'pricebut_'
'plays_'
'plasma_'
'planet_'
'placement_'
'pit_'
'philly_'
'pen_'
'pcs_'
'owner_'
'one'
'ome_'
'om_'
'oki_'
'observations_'
'nutshell_'
'northern_'
'non'
'nly_'
'night'
'nap_'
'nachos_'
'moneyit_'
'money'
'mod_'
'miffed_'
'messed_'
'measures_'
'marathon_'
'loaded_'
'landmark_'
'knowledge_'
'knob_'
'jfk_'
'inthe_'
'indicating_'
'increasingly_'
'inconsiderate_'
'ier_'
'hotelso_'
'horrific_'
'hitting_'
'hiking_'
'hiccup_'
'here'
'haddock_'
'guided_'
'gran_'
'graded_'
'gowns_'
'google_'
'goodthis_'
'filtered_'
'field_'
'favorites_'
'fares_'
'exploring_'
'excessively_'
'exceedingly_'
'evian_'
'evening'
'estate_'
'ervice_'
'environmental_'
'ely_'
'echo_'
'dresser_'
'downright_'
'doubtful_'
'dly_'
'dj_'
'dive_'
'dishwasher_'
'disgusted_'
'differences_'
'dhabi_'
'developed_'
'departures_'
'definetely_'
'deal'
'dancing_'
'criticise_'
'copley_'
'conversion_'
'consequence_'
'cider_'
'chowder_'
'cheesy_'
'cheap'
'casa_'
'buzz_'
'buffet'
'bs_'
'belmond_'
'believed_'
'bathing_'
'avocado_'
'attracted_'
'airways_'
'again'
'adventure_'
'advantages_'
'admitted_'
'adaptor_'
'adapter_'
'accomodate_'
'\u_'
'90s_'
'750_'
'74_'
'64_'
'46_'
'2006_'
'195_'
'189_'
'185_'
'15'
'!._'
' ... ) _'
' . '_'
' . !_'
' , ' _'
' ) -_'
' " ) _'
' ! ?_'
'ws_'
'wishing_'
'wembley_'
'weigh_'
'wateringly_'
'warrants_'
'walks_'
'victoria_'
'ves_'
'ven_'
'vehicles_'
'vehicle_'
'valuethe_'
'uffet_'
'ty'
'twist_'
'trimmings_'
'trainers_'
'toothpaste_'
'thousand_'
'this'
'that'
'text_'
'tel_'
'synthetic_'
'swipe_'
'surf_'
'successful_'
'strips_'
'storing_'
'storey_'
'spreads_'
'splurged_'
'spirit_'
'sons_'
'socks_'
'sloppy_'
'sleeps_'
'sixth_'
'shutters_'
'shambles_'
'screams_'
'scandinavia_'
'scandalous_'
'sbut_'
'roomthere_'
'roomso_'
'rolled_'
'rewarded_'
'retired_'
'rethink_'
'remotely_'
'reflecting_'
'refills_'
'reception'
'rarity_'
'promo_'
'project_'
'pretend_'
'predictably_'
'prebooked_'
'popcorn_'
'politely_'
'polished_'
'pokey_'
'players_'
'plat_'
'phenomenal_'
'percent_'
'pedicure_'
'pay'
'parker_'
'packets_'
'overrun_'
'outs_'
'outer_'
'oom_'
'okay'
'notable_'
'nonexistent_'
'nightit_'
'nationalities_'
'nail_'
'mum_'
'mouse_'
'mountains_'
'motorway_'
'minded_'
'mild_'
'mickey_'
'messy_'
'mats_'
'mar'
'maintains_'
'maids_'
'machu_'
'losing_'
'locks_'
'lite_'
'lime_'
'lasagne_'
'ky_'
'ke_'
'junk_'
'ja'
'j_'
'ities_'
'itand_'
'irrelevant_'
'inconveniences_'
'ideally_'
'ich_'
'icelandair_'
'housekeeper_'
'hourly_'
'hosts_'
'hoppa_'
'ho_'
'hing_'
'headboard_'
'hamburgers_'
'habit_'
'gon_'
'glowing_'
'gifts_'
'get'
'gentleman_'
'full'
'frosted_'
'foodthe_'
'foodbut_'
'food'
'folk_'
'fold_'
'fo'
'fir_'
'fineand_'
'fills_'
'fewer_'
'faucet_'
'fallen_'
'experienceand_'
'excellant_'
'exaggerated_'
'eu_'
'essence_'
'emptied_'
'ele'
'eaters_'
'drank_'
'dimly_'
'deserted_'
'descript_'
'demanding_'
'delegates_'
'delays_'
'decorative_'
'deciding_'
'da_'
'creaky_'
'copious_'
'continuously_'
'consecutive_'
'congested_'
'coin_'
'cloths_'
'cloth_'
'citadines_'
'circle_'
'cigar_'
'childrens_'
'cheek_'
'challenged_'
'carts_'
'carpeting_'
'britain_'
'breast_'
'brazilian_'
'branding_'
'bowling_'
'blessing_'
'bad'
'backed_'
'awfully_'
'average'
'automated_'
'auckland_'
'assorted_'
'arking_'
'appliances_'
'appetite_'
'ants_'
'ance_'
'am'
'alley_'
'alaska_'
'ably_'
'82_'
'7'
'4'
'2x_'
'24hr_'
'0'
' ~_'
' ) .- _'
' ) & _'
'worlds_'
'wo'
'wire_'
'wifi'
'wasthe_'
'wa_'
'visually_'
'uninteresting_'
'understated_'
'uncooked_'
'twins_'
'tv'
'truck_'
'torture_'
'toiletry_'
'tions_'
'timing_'
'time'
'tie_'
'tick_'
'thumping_'
'thomas_'
'thermal_'
'theirs_'
'tested_'
'task_'
'tape_'
'taipei_'
'sweating_'
'surly_'
'superbly_'
'sundays_'
'sufficiently_'
'substance_'
'styled_'
'stodgy_'
'sterling_'
'stature_'
'standards'
'spoken_'
'spices_'
'speciality_'
'spaghetti_'
'slowest_'
'slick_'
'sleepi_'
'shangrila_'
'seldom_'
'sek_'
'romance_'
'roads_'
'rising_'
'rio_'
'ridge_'
'restocked_'
'repairs_'
'relieved_'
'refit_'
'refined_'
'readers_'
'rabbit_'
'quibbles_'
'proceeded_'
'pride_'
'precisely_'
'po'
'pisco_'
'picchu_'
'phoenix_'
'permanently_'
'peppers_'
'paste_'
'panoramic_'
'overlooks_'
'oppressive_'
'operates_'
'opaque_'
'oldest_'
'nut_'
'nternet_'
'nonsense_'
'noisiest_'
'nines_'
'nights'
'nightbut_'
'nick_'
'neighbourhood_'
'moscow_'
'moorea_'
'military_'
'member'
'mecure_'
'mcdonald_'
'matches_'
'marco_'
'majestic_'
'magnifying_'
'lu'
'lthough_'
'lounging_'
'louise_'
'lol_'
'limits_'
'lid_'
'lhr_'
'leaf_'
'leads_'
'laptops_'
'kingsize_'
'juan_'
'jacket_'
'is'
'irst_'
'ironic_'
'ingthe_'
'indicates_'
'incidentally_'
'impacted_'
'immaculately_'
'immaculate_'
'ide_'
'husbands_'
'hurricane_'
'housed_'
'hotelthere_'
'hotels'
'hostess_'
'hose_'
'horror_'
'honoured_'
'h'
'grille_'
'greens_'
'globally_'
'glamorous_'
'george_'
'furious_'
'fox_'
'fork_'
'flooring_'
'flooding_'
'extraordinarily_'
'expensivei_'
'exists_'
'exemplary_'
'es'
'errors_'
'ensuite_'
'employer_'
'du_'
'drivers_'
'drag_'
'dome_'
'divine_'
'disastrous_'
'desks_'
'denny_'
'denali_'
'delta_'
'del_'
'definitively_'
'darn_'
'dallas_'
'curious_'
'credited_'
'cracks_'
'contrary_'
'constructed_'
'compromised_'
'cod_'
'clarion_'
'circulation_'
'choicethe_'
'characterless_'
'ces_'
'cdg_'
'caveat_'
'capsules_'
'cabanas_'
'butthis_'
'butand_'
'buta_'
'busiest_'
'bungalows_'
'bulk_'
'buffer_'
'bubble_'
'boyfriend_'
'blood_'
'blank_'
'birds_'
'billing_'
'batteries_'
'barcelo_'
'awaiting_'
'atlanta_'
'assure_'
'artwork_'
'arcade_'
'appetizing_'
'ans_'
'andif_'
'andfood_'
'anantara_'
'alert_'
'alarms_'
'againwe_'
'accessed_'
'50'
'26th_'
'25th_'
'1980s_'
'16'
'11'
'1'
'08_'
'' _'
' ” , _'
' @_'
' ? ) , _'
' - -_'
' ( € _'
' $ ._'
' ! ! ! _'
'yrs_'
'yo'
'ying_'
'xcellent_'
'workspace_'
'wich_'
'wholly_'
'wholesome_'
'wdw_'
'warranted_'
'waitstaff_'
'visit'
'visa_'
'viking_'
'victorian_'
'verandah_'
'varying_'
'vacuum_'
'upload_'
'unprepared_'
'unjustified_'
'trucks_'
'transferred_'
'tolerate_'
'toddlers_'
'tes_'
'tank_'
'sur'
'sunshine_'
'studios_'
'students_'
'stolen_'
'stinks_'
'star'
'stair_'
'sourced_'
'solely_'
'slim_'
'skills_'
'singing_'
'sin_'
'showered_'
'shake_'
'sessions_'
'sept_'
'selecting_'
'searched_'
'scores_'
'scenery_'
'safer_'
'rt_'
'rolling_'
'rmb_'
'revealed_'
'retained_'
'restrictions_'
'responded_'
'resonable_'
'rejected_'
'reheated_'
'register_'
'reaching_'
'radissons_'
'raddison_'
'queried_'
'quality'
'qualities_'
'puerto_'
'proofed_'
'priceythe_'
'pricey'
'president_'
'premise_'
'plus'
'plague_'
'personalized_'
'penthouse_'
'papers_'
'ownership_'
'oversight_'
'overheated_'
'outweighed_'
'ously_'
'oth_'
'orangery_'
'omg_'
'okwe_'
'occur_'
'occitane_'
'obscene_'
'objective_'
'nts_'
'now'
'notified_'
'nominal_'
'ning_'
'nightso_'
'nice'
'ni'
'newcastle_'
'neighbour_'
'neglected_'
'necessities_'
'mon_'
'mom_'
'misses_'
'mint_'
'mashed_'
'marketed_'
'manages_'
'mai_'
'm'
'luxuries_'
'lounge'
'logged_'
'location'
'linger_'
'lifted_'
'lebua_'
'lebanese_'
'laughlin_'
'kowloon_'
'kitchens_'
'kill_'
'keycard_'
'ka'
'joining_'
'jackson_'
'ised_'
'inward_'
'inspection_'
'influence_'
'ily_'
'icing_'
'ial_'
'hua_'
'hotelall_'
'hin_'
'hershey_'
'helsinki_'
'hello_'
'haven_'
'harvester_'
'hardware_'
'grand'
'glacier_'
'gather_'
'fyi_'
'fri_'
'frequented_'
'freely_'
'flatscreen_'
'fixing_'
'file_'
'facilties_'
'extract_'
'existed_'
'exceeds_'
'equiped_'
'elliptical_'
'drawn_'
'doctor_'
'disposable_'
'difficulties_'
'designated_'
'definetly_'
'dad_'
'curries_'
'crystal_'
'criminal_'
'crib_'
'copthorne_'
'convert_'
'conclude_'
'concession_'
'competitively_'
'competing_'
'comforter_'
'colors_'
'classify_'
'claiming_'
'choice'
'chi_'
'chf_'
'chances_'
'capable_'
'canceled_'
'butbut_'
'brother_'
'breakfast'
'boxed_'
'bitterly_'
'bins_'
'bidding_'
'bears_'
'beach'
'battered_'
'barn_'
'barbecue_'
'bait_'
'bag'
'awakened_'
'austin_'
'attracts_'
'arrivals_'
'architectural_'
'apps_'
'apologise_'
'apex_'
'aloft_'
'aim_'
'againthis_'
'adjustable_'
'accompany_'
'accidentally_'
'87_'
'30th_'
'28'
'26'
'2'
'05_'
'.- _'
' : '
' .+ _'
' ) '
' ( '
'yr_'
'yo_'
'worrying_'
'wires_'
'width_'
'widely_'
'waterfall_'
'vista_'
'vin_'
'viable_'
'verything_'
'ved_'
'valentines_'
'useable_'
'us'
'up'
'unwelcome_'
'unhealthy_'
'understandably_'
'unappetizing_'
'u'
'tubes_'
'trickle_'
'traders_'
'toasting_'
'thisthe_'
'thirdly_'
'therei_'
'tents_'
'telly_'
'teens_'
'tar'
'survive_'
'summarise_'
'sucked_'
'stupidly_'
'stunned_'
'strictly_'
'straightforward_'
'stepped_'
'stella_'
'starred_'
'stadium_'
'splashing_'
'spendy_'
'spell_'
'specified_'
'soya_'
'sophistication_'
'sofitels_'
'snoring_'
'smoothies_'
'sleek_'
'ski_'
'ski'
'signals_'
'shutting_'
'shiny_'
'sherry_'
'shame'
'service'
'scope_'
'sauces_'
'rusty_'
'rudely_'
'routine_'
'router_'
'rooms'
'rico_'
'rickety_'
'ri_'
'reykjavik_'
'reunion_'
'return'
'rep_'
'reminiscent_'
'registered_'
'receptionists_'
'reat_'
'rapidly_'
'queenstown_'
'puddings_'
'pubs_'
'protein_'
'prohibitively_'
'priced'
'pressing_'
'pour_'
'pool'
'pissed_'
'pig_'
'pierre_'
'person'
'peculiar_'
'pate_'
'panorama_'
'paintwork_'
'overpowering_'
'overal_'
'over'
'outcome_'
'outback_'
'organization_'
'opulence_'
'ooms_'
'onwards_'
'okit_'
'oj_'
'obligatory_'
'ner_'
'mozzarella_'
'motion_'
'misfortune_'
'milan_'
'merits_'
'meals'
'matching_'
'marvelous_'
'mango_'
'malaysia_'
'macdonald_'
'lump_'
'litre_'
'linked_'
'lined_'
'laterooms_'
'lanai_'
'lacklustre_'
'ko_'
'knowledgeable_'
'judgement_'
'jobs_'
'irritations_'
'io'
'int_'
'inspired_'
'insipid_'
'inns'
'inhouse_'
'informing_'
'infinity_'
'iness_'
'increasing_'
'illy_'
'humming_'
'hotel'
'holders_'
'hits_'
'hilton'
'high'
'hiccups_'
'herewe_'
'heaters_'
'haute_'
'guessed_'
'growing_'
'grease_'
'grass_'
'gown_'
'goodthere_'
'glory_'
'glaring_'
'ges_'
'gbp'
'functionality_'
'fri'
'frequency_'
'forty_'
'fort_'
'forgive_'
'forewarned_'
'fond_'
'fo_'
'flowing_'
'flower_'
'floorboards_'
'floor'
'flimsy_'
'favourably_'
'father_'
'f'
'explains_'
'experience'
'expensivebut_'
'exiting_'
'executed_'
'excursions_'
'exaggeration_'
'everytime_'
'europeans_'
'etap_'
'engineering_'
'dryers_'
'dread_'
'drake_'
'drained_'
'drainage_'
'doona_'
'divided_'
'dissatisfied_'
'disrupted_'
'disorganised_'
'directory_'
'determined_'
'departed_'
'dawn_'
'dar'
'ct_'
'creamer_'
'convince_'
'consuming_'
'congress_'
'congealed_'
'comprised_'
'commercial_'
'colours_'
'collected_'
'coffeemaker_'
'closets_'
'choices'
'chinle_'
'chi'
'chester_'
'cherry_'
'chelsea_'
'chatting_'
'chardonnay_'
'cc_'
'cavernous_'
'carton_'
'canary_'
'cameron_'
'cal_'
'cables_'
'buta'
'bunk_'
'bumped_'
'buenos_'
'brilliantly_'
'bountiful_'
'bidet_'
'beneficial_'
'bend_'
'beg_'
'basic'
'avg_'
'aussie_'
'attraction_'
'ating_'
'arrogant_'
'arrives_'
'aroma_'
'appointments_'
'ane'
'andvery_'
'andno_'
'ammenities_'
'allergic_'
'alike_'
'alarming_'
'aires_'
'aforementioned_'
'accessories_'
'absent_'
'aarp_'
'80'
'299_'
'290_'
'245_'
'22'
'1970s_'
'1200_'
'10'
'----_'
' > _'
' ) .'
' ( # _'
'x'
'www_'
'work'
'wore_'
'wit_'
'wild_'
'wifithe_'
'westerners_'
'weekend'
'we'
'way'
'waived_'
'vinegar_'
'vents_'
'utility_'
'upsell_'
'unreal_'
'undersized_'
'und_'
'una'
'turkish_'
'tune_'
'treating_'
'tradition_'
'tonics_'
'toileteries_'
'tipping_'
'timethe_'
'ti_'
'threw_'
'thereof_'
'theory_'
'the'
'tenaya_'
'teenager_'
'technically_'
'swimmers_'
'swap_'
'supervisor_'
'sundries_'
'sunbed_'
'su'
'stroll_'
'steamed_'
'standard'
'sta'
'sponge_'
'spinach_'
'speed'
'sodas_'
'smoothie_'
'sketchy_'
'sizeable_'
'shuts_'
'showerhead_'
'shop'
'shift_'
'shaver_'
'sensational_'
'seamless_'
'sea'
'scotch_'
'scallops_'
'scaffolding_'
'saunas_'
'salsa_'
'sails_'
'rugby_'
'roosevelt_'
'roomswe_'
'rocking_'
'riverwalk_'
'restless_'
'resembled_'
'replenish_'
'rendezvous_'
'relevant_'
'relationship_'
'relations_'
'regretted_'
'ree_'
'realy_'
'ranges_'
'quirks_'
'provisions_'
'proposed_'
'promising_'
'price'
'prestige_'
'preferring_'
'powered_'
'pouring_'
'pot'
'posts_'
'policies_'
'pn_'
'placei_'
'pints_'
'pinch_'
'pic'
'permanent_'
'perception_'
'pennies_'
'partying_'
'participants_'
'parking'
'par'
'pans_'
'palomar_'
'pal'
'paintings_'
'packs_'
'overwater_'
'overflow_'
'os'
'opting_'
'operations_'
'opera_'
'omlette_'
'olive_'
'offsite_'
'offices_'
'offer'
'off'
'observed_'
'obliged_'
'nye_'
'nu'
'noticeably_'
'noisier_'
'nightwe_'
'ni_'
'mosquitoes_'
'morning'
'monument_'
'moneyi_'
'modernised_'
'miserly_'
'midday_'
'micro_'
'metre_'
'ments_'
'melted_'
'medical_'
'media_'
'markets_'
'managing_'
'mainland_'
'magnolia_'
'lustre_'
'ludicrously_'
'lowry_'
'low'
'logical_'
'loch_'
'locate_'
'loaf_'
'loading_'
'limo_'
'limitations_'
'level'
'lessons_'
'lemonade_'
'ledge_'
'laughing_'
'large'
'labeled_'
'kudos_'
'kippers_'
'ketchup_'
'ke'
'justification_'
'john_'
'je'
'itit_'
'ise_'
'irons_'
'ious_'
'ions_'
'interrupted_'
'institutional_'
'inr_'
'inquired_'
'infact_'
'individuals_'
'ina_'
'immense_'
'illegal_'
'ile_'
'il_'
'iffy_'
'hottest_'
'hoteloverall_'
'honey_'
'home'
'hills_'
'hideous_'
'healthier_'
'hbo_'
'have'
'hand'
'grigio_'
'graciously_'
'goodso_'
'goodoverall_'
'golfers_'
'gar'
'free'
'flops_'
'flood_'
'floating_'
'flavors_'
'fires_'
'finei_'
'fer'
'feeding_'
'fedex_'
'fare'
'fallsview_'
'fabric_'
'fa'
'extra'
'extortion_'
'ever'
'escorted_'
'embers_'
'dy_'
'dutch_'
'dual_'
'drunken_'
'dribble_'
'door'
'disliked_'
'discuss_'
'disappoints_'
'diming_'
'detergent_'
'descriptions_'
'den_'
'default_'
'dd'
'cucumber_'
'creamy_'
'crashing_'
'core_'
'cooks_'
'continuing_'
'compliments_'
'comparably_'
'com'
'ci'
'cheeseburger_'
'chase_'
'cast_'
'candy_'
'butoverall_'
'bullet_'
'breakfastso_'
'ble'
'blasting_'
'benchmark_'
'bella_'
'belfast_'
'bed'
'bean_'
'bal'
'awarded_'
'aving_'
'avenue_'
'available'
'atmospheric_'
'astonishing_'
'associate_'
'are'
'aqua_'
'appalled_'
'apologized_'
'antique_'
'animals_'
'animal_'
'angel_'
'ana_'
'amused_'
'ali'
'ales_'
'aid_'
'againand_'
'advisable_'
'adjusting_'
'activated_'
'acoustics_'
'acknowledgement_'
'aberdeen_'
'aa_'
'90'
'84_'
'55'
'53_'
'50th_'
'500'
'35'
'300'
'28th_'
'275_'
'27'
'1990s_'
'1980_'
'1800_'
'168_'
'155_'
'124_'
'104_'
'.(_'
'++ _'
' ` _'
' > $ _'
' .. '
' ! ._'
' !'
'• _'
'” _'
'é_'
'you'
'wound_'
'worries_'
'wetherspoons_'
'warner_'
'warmly_'
'vpn_'
'vice_'
'valueand_'
'urgent_'
'uplift_'
'upgrade'
'unused_'
'unspectacular_'
'unplug_'
'unmemorable_'
'under'
'unbearably_'
'trump_'
'trifle_'
'tremendously_'
'trap_'
'transiting_'
'trading_'
'towns_'
'touching_'
'tooth_'
'timei_'
'then'
'th'
'tenerife_'
'teen_'
'technical_'
'te'
'tarnished_'
'tariffs_'
'sure'
'supplements_'
'suck_'
'sublime_'
'street'
'stewed_'
'stench_'
'stays'
'stayoverall_'
'standpoint_'
'stamp_'
'st'
'ss'
'specialty_'
'special'
'speaks_'
'speakers_'
'situations_'
'sirens_'
'silence_'
'show'
'shocker_'
'shares_'
'shaft_'
'settling_'
'servicebut_'
'seoul_'
'seafront_'
'science_'
'sauvignon_'
'sashimi_'
'sanctuary_'
'sama_'
'sagged_'
'ru'
'royalty_'
'roomsthe_'
'roomsi_'
'roaring_'
'retrospect_'
'restaurant'
'responsibility_'
'reset_'
'representation_'
'renowned_'
'refilling_'
'refer_'
'reef_'
'reckon_'
'recieved_'
'rattling_'
'quit_'
'quiet'
'query_'
'q'
'purple_'
'professionalism_'
'prix_'
'prestigious_'
'preserved_'
'posting_'
'poor'
'pockets_'
'play'
'plants_'
'placing_'
'pittsburgh_'
'pitiful_'
'picnic_'
'permitted_'
'per'
'peanuts_'
'pane_'
'palms_'
'palate_'
'palatable_'
'oysters_'
'overall'
'oranges_'
'option'
'open'
'oo_'
'oni_'
'olympics_'
'okaythe_'
'officially_'
'occurrence_'
'occassion_'
'obnoxious_'
'novelty_'
'norwegian_'
'noice_'
'no'
'nicei_'
'negligible_'
'mur'
'mp'
'mouldy_'
'moneybut_'
'mixer_'
'mis'
'mildew_'
'michael_'
'messages_'
'mesa_'
'menu'
'mediterranean_'
'measly_'
'masala_'
'marvellous_'
'maple_'
'makings_'
'mails_'
'machinery_'
'lux_'
'luton_'
'lover_'
'los_'
'long'
'lone_'
'lists_'
'listing_'
'lightly_'
'lick_'
'leftovers_'
'le'
'lb_'
'layer_'
'lauderdale_'
'labelled_'
'know'
'kandy_'
'jumping_'
'jumped_'
'jersey_'
'jakarta_'
'jaipur_'
'ir'
'inkaterra_'
'inevitably_'
'inability_'
'icelandic_'
'ice'
'hostels_'
'honolulu_'
'hk'
'hiltonthe_'
'herei_'
'her'
'helpfulness_'
'heineken_'
'hed_'
'harry_'
'grumpy_'
'grouting_'
'grout_'
'grotty_'
'grim_'
'great'
'grandson_'
'gold'
'gi'
'ght_'
'gf_'
'geyser_'
'furama_'
'fresher_'
'freeway_'
'folded_'
'flu'
'floridian_'
'flo'
'featuring_'
'faucets_'
'fast'
'fact'
'facilities'
'expensive'
'expanded_'
'existant_'
'excel_'
'equation_'
'enticing_'
'ens_'
'eh_'
'ee'
'earl_'
'eager_'
'drains_'
'draining_'
'dragged_'
'dorm_'
'dislikes_'
'disinterested_'
'diminished_'
'diamonds_'
'development_'
'deteriorated_'
'desk'
'describes_'
'descent_'
'depth_'
'deducted_'
'dec_'
'deaf_'
'daft_'
'customary_'
'cumbersome_'
'culinary_'
'creates_'
'craft_'
'cracking_'
'counting_'
'coral_'
'continual_'
'consumed_'
'complement_'
'command_'
'comfortable'
'combine_'
'cola_'
'clotted_'
'closely_'
'citizen_'
'circular_'
'churchill_'
'chops_'
'cho'
'charmless_'
'charity_'
'ch'
'ce'
'care'
'capsule_'
'caps_'
'candles_'
'businessmen_'
'business'
'bunker_'
'buggy_'
'bugbear_'
'bucharest_'
'breakfastthis_'
'breakers_'
'bre'
'bothering_'
'bordering_'
'blows_'
'blaring_'
'biz_'
'bitten_'
'bill'
'better'
'best'
'beneath_'
'belongs_'
'belief_'
'beaches_'
'bb_'
'barthe_'
'barista_'
'baltimore_'
'back'
'attendants_'
'attempting_'
'asparagus_'
'arena_'
'architect_'
'appreciative_'
'ano'
'ang'
'andhowever_'
'andgood_'
'and'
'amusing_'
'allocate_'
'aiming_'
'aggressive_'
'againit_'
'againbreakfast_'
'advising_'
'adjustments_'
'78_'
'76_'
'71_'
'650_'
'61_'
'51'
'4star_'
'340_'
'330_'
'31st_'
'27th_'
'23'
'21'
'2007_'
'200'
'18'
'122_'
'116_'
'1100_'
'09_'
'02_'
'01_'
'...... _'
' ~ _'
' .“ _'
' .[ _'
' - € _'
' ), _'
' ) ?_'
' ) ... _'
' ( " _'
' ( ! ) _'
' ' ' _'
' $ $ ._'
'é'
'à_'
'zen_'
'ythe_'
'ymca_'
'woeful_'
'wise'
'wheel_'
'westbury_'
'weaknesses_'
'waterloo_'
'water'
'washbasin_'
'was'
'warm'
'wan_'
'wakeup_'
'vo'
'vine_'
'verging_'
'veal_'
'valuei_'
'va'
'ur'
'unplugged_'
'ue_'
'ubiquitous_'
'ub'
'uae_'
'tweaks_'
'turnover_'
'trusted_'
'tru'
'trident_'
'travelocity_'
'town'
'tor'
'topper_'
'toothbrushes_'
'toe_'
'tly_'
'times'
'timely_'
'tiered_'
'thread_'
'though'
'thing'
'there'
'themes_'
'thee_'
'thb_'
'thati_'
'than'
'texture_'
'texas_'
'ten'
'tely_'
'tedious_'
'sy'
'suspicious_'
'surfing_'
'surcharges_'
'sunlight_'
'suggesting_'
'sto'
'stepping_'
'steady_'
'staya_'
'starving_'
'spotted_'
'spa'
'southwest_'
'snob_'
'snag_'
'slammed_'
'shoulders_'
'short'
'shakes_'
'sex_'
'servicei_'
'scrub_'
'screw_'
'scratched_'
'scenario_'
'sbreakfast_'
'sas_'
'safely_'
'ryanair_'
'rv_'
'rs'
'rotten_'
'roomhowever_'
'rom_'
'ro_'
'rivals_'
'ris'
'ringing_'
'revolving_'
'retrieve_'
'resturants_'
'restuarants_'
'restrictive_'
'restraunt_'
'restauranti_'
'responsible_'
'resolution_'
'resent_'
'rendered_'
'relocated_'
'regrets_'
'regional_'
'refreshment_'
'redo_'
'redeemed_'
'red'
'rectify_'
'rating'
'rant_'
'ramp_'
'ral'
'raising_'
'rains_'
'puzzled_'
'production_'
'printers_'
'preparing_'
'pra'
'pond_'
'pm'
'phnom_'
'pesos_'
'persistent_'
'perfume_'
'people'
'path_'
'passage_'
'partners_'
'parkroyal_'
'panels_'
'pampering_'
'pads_'
'pa_'
'oyster_'
'owns_'
'overcome_'
'ot'
'orbitz_'
'oo'
'onions_'
'omlettes_'
'oman_'
'oct_'
'occassions_'
'obliging_'
'ob'
'ns'
'notoriously_'
'notably_'
'nites_'
'nightsi_'
'nighter_'
'nicewe_'
'nicebut_'
'ngs_'
'netflix_'
'nd'
'nb'
'napa_'
'namely_'
'muted_'
'mustard_'
'mussels_'
'much'
'mrs_'
'mousse_'
'moroccan_'
'morningthe_'
'more'
'moneywe_'
'moments_'
'mojito_'
'moist_'
'moana_'
'mis_'
'mid'
'meager_'
'marriott'
'married_'
'marketplace_'
'margin_'
'manners_'
'mal'
'macdonalds_'
'lunch'
'loudest_'
'london'
'listened_'
'limited'
'lifeless_'
'li_'
'laguna_'
'l'
'kuala_'
'kolkata_'
'knives_'
'killer_'
'kicker_'
'kes_'
'justice_'
'jungle_'
'junction_'
'ju'
'joke'
'itso_'
'itbreakfast_'
'isthe_'
'iphones_'
'investigate_'
'insurance_'
'inquire_'
'inn'
'ini'
'indulgence_'
'indore_'
'incompetent_'
'income_'
'inclusions_'
'incidents_'
'incessant_'
'inca_'
'inaccurate_'
'ime_'
'images_'
'ility_'
'ig_'
'ied_'
'ics_'
'ically_'
'ic'
'ht_'
'hs_'
'house'
'hours'
'hotelfood_'
'hot'
'horrified_'
'hkg_'
'himself_'
'highlighted_'
'hideously_'
'helpfull_'
'heatwave_'
'hearted_'
'gulf_'
'guilty_'
'grandchildren_'
'gouge_'
'glorified_'
'gh_'
'generation_'
'gamble_'
'ga'
'fun'
'fumes_'
'fu'
'friendlier_'
'foul_'
'fool_'
'flyers_'
'fluctuate_'
'floorthe_'
'flavourless_'
'flavoured_'
'flashing_'
'fine'
'ff'
'feeble_'
'fe_'
'faux_'
'fault'
'fair'
'failing_'
'f1_'
'excellent'
'eventi_'
'ethe_'
'emphasis_'
'ement_'
'elsewhere'
'else'
'elites_'
'eligible_'
'elevated_'
'economic_'
'early'
'dvc_'
'dumped_'
'dro'
'drill_'
'downmarket_'
'doubts_'
'doormen_'
'don'
'diversity_'
'ditto_'
'distant_'
'disruption_'
'discomfort_'
'disappear_'
'disagree_'
'differential_'
'di_'
'devere_'
'deter_'
'deliberate_'
'deficiencies_'
'decadent_'
'dearer_'
'dealthe_'
'cultural_'
'cube_'
'cted_'
'cs'
'cru'
'crt_'
'creativity_'
'cre'
'couches_'
'cornflakes_'
'coped_'
'conventional_'
'contain_'
'conferencing_'
'conditioners_'
'cold'
'col'
'coats_'
'clogged_'
'clo'
'cliff_'
'classified_'
'christchurch_'
'choicebut_'
'chilling_'
'cheddar_'
'characters_'
'carved_'
'carrots_'
'carrot_'
'carpeted_'
'canberra_'
'camera_'
'cabbage_'
'butnothing_'
'bus'
'bur'
'bump_'
'bt_'
'bridges_'
'breathtaking_'
'breakfasts'
'brazil_'
'brainer_'
'boscolo_'
'bolt_'
'boil_'
'boats_'
'blemish_'
'bleak_'
'betterthe_'
'bells_'
'bel'
'behavior_'
'before'
'bedthe_'
'bathroom'
'barrier_'
'banged_'
'bands_'
'backing_'
'babies_'
'aw'
'avoidable_'
'autograph_'
'auto_'
'attractively_'
'atlantic_'
'ations_'
'astonishingly_'
'around'
'armchairs_'
'apprehensive_'
'anti_'
'annoyingly_'
'andwhen_'
'andas_'
'allocation_'
'ala'
'airconditioner_'
'ago'
'after'
'aesthetic_'
'aerobic_'
'adlon_'
'activate_'
'accommodation'
'absorb_'
'abroad_'
'abandoned_'
'aa'
'a1_'
'98_'
'88_'
'77_'
'73_'
'67_'
'3'
'269_'
'265_'
'24hours_'
'24h_'
'2005_'
'17'
'114_'
'07_'
',- _'
')- _'
') ._'
' ’ ._'
' ?, _'
' ? '
' .• _'
' " '
' !" _'
' ! ! ) _'
' ! ! ) ._'
'ywe_'
'yuk_'
'yu'
'yed_'
'ya'
'wrongly_'
'with'
'winds_'
'windowless_'
'whi'
'wheels_'
'wells_'
'wellness_'
'waves_'
'wasi_'
'warming_'
'war_'
'wa'
'vowed_'
'vote_'
'vision_'
'ville_'
'verizon_'
'verdict_'
'variety'
'valuebut_'
'valentine_'
'utilised_'
'ut'
'usthe_'
'use'
'unwilling_'
'untrue_'
'unsettling_'
'uninterested_'
'uni'
'undertaken_'
'unchanged_'
'unc'
'unavoidable_'
'uk'
'ue'
'turquoise_'
'tuned_'
'tuk_'
'tthe_'
'truely_'
'travel'
'tiniest_'
'thirsty_'
'thereand_'
'thereafter_'
'terraces_'
'ternet_'
'tequila_'
'teeny_'
'tea'
'target_'
'sweaty_'
'surrounds_'
'super'
'sul'
'sudden_'
'style'
'stretching_'
'stressed_'
'stayvery_'
'stay'
'static_'
'staff'
'stack_'
'sprucing_'
'spruce_'
'sprawling_'
'sporting_'
'splitting_'
'specify_'
'sounding_'
'souless_'
'soles_'
'smokey_'
'sma'
'sleepthe_'
'sleep'
'singer_'
'sing'
'si'
'shipped_'
'shinjuku_'
'shifted_'
'shaded_'
'settee_'
'servicewe_'
'served'
'scribe_'
'scratchy_'
'sauce'
'sacrifice_'
's'
'ry'
'rust_'
'rundown_'
'rounds_'
'rotana_'
'right'
'riding_'
'ri'
'ret'
'resting_'
'restaurent_'
'reserving_'
'republic_'
'removing_'
'remarks_'
'regarded_'
'refurbed_'
'redundant_'
'rediculous_'
'redecorated_'
'recharge_'
'realistically_'
'rate'
'ras'
'randomly_'
'quietness_'
'qualified_'
'pushy_'
'purchasing_'
'pu'
'protection_'
'promoted_'
'promenade_'
'problem'
'prides_'
'pretzels_'
'pre'
'poisoning_'
'points'
'pleasurable_'
'plated_'
'pizzeria_'
'pies_'
'personalised_'
'pepsi_'
'pending_'
'pence_'
'pen'
'peeves_'
'payable_'
'patience_'
'past'
'participate_'
'park'
'parent_'
'paperwork_'
'pants_'
'paltry_'
'pale_'
'palatial_'
'overprice_'
'overcharge_'
'outside'
'osaka_'
'orth_'
'organizers_'
'ord_'
'or'
'opener_'
'oozes_'
'ook_'
'onward_'
'olde_'
'okand_'
'ok'
'of'
'oceanview_'
'obscenely_'
'ny'
'np_'
'notify_'
'not'
'nope_'
'noone_'
'nola_'
'nit'
'nigh_'
'ngly_'
'negatively_'
'nation_'
'nassau_'
'na'
'myr_'
'mus'
'ms'
'movement_'
'mosquitos_'
'mos'
'moneyand_'
'mon'
'modernized_'
'misunderstanding_'
'mission_'
'miraculously_'
'minimalistic_'
'millennium_'
'mignon_'
'mia_'
'mi_'
'metres_'
'ment'
'memorial_'
'measured_'
'mc'
'marmalade_'
'margarita_'
'manned_'
'malaysian_'
'make'
'mainstream_'
'mac'
'lug_'
'loud'
'lou'
'lotions_'
'lot'
'logging_'
'lodgings_'
'lobbies_'
'lo'
'lied_'
'lev_'
'leisurely_'
'laws_'
'lat'
'lagged_'
'labels_'
'ku'
'ko'
'kicking_'
'key'
'kar'
'justifies_'
'judged_'
'jamaica_'
'jacuzzis_'
'itthis_'
'itoverall_'
'ist_'
'isi'
'ironically_'
'intimacy_'
'internet'
'internationally_'
'internally_'
'insignificant_'
'inde'
'incurred_'
'imagined_'
'iest_'
'ideas_'
'ht'
'howling_'
'housing_'
'hotspot_'
'hotelgood_'
'horse_'
'hopeful_'
'hongkong_'
'honest'
'holland_'
'hoi_'
'hmm_'
'hix_'
'herebut_'
'hb_'
'harvey_'
'harrah_'
'gymnasium_'
'guard_'
'greenbrier_'
'gordon_'
'goodnot_'
'goodhowever_'
'goodgood_'
'gooda_'
'good'
'goal_'
'go'
'ging_'
'gimmick_'
'gibraltar_'
'geneva_'
'ge'
'garnish_'
'fuel_'
'freshening_'
'freebies_'
'fr_'
'foremost_'
'foodwe_'
'folder_'
'flaky_'
'flag_'
'fla'
'firmly_'
'firmer_'
'fireplaces_'
'finer_'
'financial_'
'fillings_'
'fence_'
'farce_'
'fantastically_'
'fancied_'
'fairbanks_'
'faint_'
'extremly_'
'expresses_'
'experiance_'
'excelsior_'
'eurostar_'
'eur2'
'ets_'
'eri'
'entrée_'
'ently_'
'entertained_'
'enough'
'enabled_'
'eleven_'
'ect_'
'eaton_'
'easiest_'
'earns_'
'ear'
'dusit_'
'duplex_'
'dungeon_'
'duly_'
'drip_'
'dough_'
'dosa_'
'dominated_'
'distinguish_'
'dismayed_'
'discerning_'
'disapointment_'
'din_'
'differ_'
'dietary_'
'dge_'
'detracts_'
'des_'
'der'
'depressed_'
'denmark_'
'denarau_'
'deg_'
'defeats_'
'decorating_'
'dayi_'
'dairy_'
'cupboards_'
'crust_'
'creme_'
'creature_'
'creaking_'
'crawl_'
'county_'
'cottages_'
'considering'
'connection'
'condiments_'
'condensation_'
'concluded_'
'concierges_'
'con'
'competitor_'
'compensates_'
'claret_'
'city'
'cin'
'chunky_'
'choicei_'
'ches_'
'cheery_'
'cha'
'cement_'
'cellar_'
'celebrated_'
'cal'
'c'
'buthowever_'
'but'
'buffalo_'
'bubbly_'
'brugge_'
'brits_'
'brewed_'
'brekky_'
'breakfasta_'
'brandy_'
'bou'
'borgata_'
'boots_'
'bon'
'boiler_'
'bliss_'
'bingo_'
'belgian_'
'beachside_'
'bartenders_'
'banyan_'
'ays_'
'awoke_'
'awhile_'
'averagethe_'
'atm_'
'astounding_'
'asks_'
'ash_'
'arguing_'
'archaic_'
'approaching_'
'anxious_'
'anticipate_'
'announced_'
'andall_'
'an'
'ame_'
'ambient_'
'also'
'als_'
'almond_'
'all'
'alive_'
'ale'
'ak'
'ageing_'
'afternoons_'
'affiliated_'
'advert_'
'admire_'
'ada'
'ad'
'ache_'
'accepting_'
']. _'
'> _'
'= _'
'93_'
'91_'
'63_'
'45pm_'
'4000_'
'40'
'295_'
'24'
'235_'
'212_'
'1700_'
'13'
'120'
'-'
' ° _'
' ? ? ? ?_'
' ? ._'
' :( _'
' .” _'
' ......... _'
' ..., _'
' . '
' - - _'
' - " _'
' ' '
' &_'
' " ) ._'
'z'
'yikes_'
'xi'
'wraps_'
'wonders_'
'wipe_'
'winning_'
'windsor_'
'wilderness_'
'wifibut_'
'whiskey_'
'what'
'westin'
'wellthe_'
'washers_'
'wasbut_'
'warners_'
'warehouse_'
'wander_'
'walkways_'
'walkable_'
'wait'
'vistana_'
'view'
'vic_'
'urn_'
'urine_'
'upcharge_'
'unwarranted_'
'uns'
'unrealistic_'
'unobtrusive_'
'unload_'
'unforgettable_'
'uncovered_'
'ugh_'
'uch_'
'two'
'twin'
'twelve_'
'tur'
'trousers_'
'troublesome_'
'trivago_'
'trip'
'trio_'
'tri'
'tre'
'travelodges_'
'trader_'
'toys_'
'tow_'
'topping_'
'tom_'
'toll_'
'todays_'
'toasts_'
'timer_'
'tiki_'
'tied_'
'tia'
'throwing_'
'thrills_'
'thought'
'tho'
'thisbut_'
'tears_'
'teabags_'
'tay_'
'taxi'
'tail_'
'sy_'
'supporting_'
'supervision_'
'supermarkets_'
'summed_'
'suite'
'styrofoam_'
'strategy_'
'stool_'
'stock'
'stayso_'
'staybridge_'
'stank_'
'stainless_'
'staggering_'
'staffthe_'
'stacked_'
'sprung_'
'spill_'
'spectrum_'
'specialties_'
'sp'
'sooo_'
'songs_'
'somethings_'
'some'
'software_'
'soaking_'
'snorkeling_'
'smoky_'
'skinny_'
'singers_'
'simpler_'
'sided_'
'shy_'
'shed_'
'shattered_'
'sewer_'
'sewage_'
'seville_'
'sensor_'
'sensibly_'
'selection'
'see'
'seagulls_'
'sd_'
'say'
'saturdays_'
'sao_'
'salad'
'safes_'
'sachet_'
'runner_'
'rubens_'
'rouge_'
'rotating_'
'roomthis_'
'rod_'
'roanoke_'
'rly_'
'rival_'
'ria_'
'retiring_'
'retail_'
'resemble_'
'reputable_'
'repeating_'
'reopened_'
'reno_'
'remedied_'
'remark_'
'refurbishments_'
'ree'
'redeem_'
'reasonable'
'realm_'
'reader_'
'ratethe_'
'ranged_'
'ral_'
'r'
'quinta_'
'quilt_'
'quest_'
'qualifies_'
'py_'
'purchases_'
'prop'
'promote_'
'programming_'
'profiteering_'
'prize_'
'primitive_'
'premiere_'
'positions_'
'porters_'
'pleasant'
'plazas_'
'pits_'
'pin'
'penh_'
'pax_'
'part'
'parc_'
'paper'
'panini_'
'pan'
'palates_'
'pains_'
'overpriced'
'overflowing_'
'overallthe_'
'outage_'
'out'
'ott_'
'other'
'ost_'
'organisers_'
'order'
'options'
'operators_'
'op'
'ong_'
'omission_'
'om'
'olds_'
'old'
'odour_'
'obstructed_'
'oaks_'
'nozzle_'
'nov_'
'nordic_'
'nikko_'
'ng'
'nes_'
'ne'
'nations_'
'nat'
'nashville_'
'napkins_'
'naked_'
'nails_'
'my'
'muggy_'
'mud_'
'monthly_'
'monitor_'
'miss'
'misrepresentation_'
'mini'
'ming_'
'minds_'
'mex_'
'merlot_'
'med'
'meantime_'
'mccormick_'
'mas_'
'mart_'
'manic_'
'man'
'mad'
'macaroons_'
'ly'
'lumpur_'
'lt'
'loves_'
'logs_'
'logo_'
'logan_'
'locking_'
'lli'
'lle_'
'lla_'
'line'
'limousine_'
'like'
'legal_'
'leftover_'
'lee'
'learnt_'
'laughably_'
'lattes_'
'late'
'latch_'
'lalit_'
'korea_'
'kong'
'km_'
'kiosk_'
'k'
'jo'
'iven_'
'iti'
'ita'
'irrespective_'
'intense_'
'ink_'
'inflexible_'
'infant_'
'inevitable_'
'ine'
'indulgent_'
'indulge_'
'indonesia_'
'independently_'
'inconsistency_'
'ina'
'ii_'
'identity_'
'icon_'
'iberostar_'
'i'
'hyped_'
'hy_'
'hut_'
'hunting_'
'hotelsthe_'
'hotelnot_'
'hotelas_'
'hollywood_'
'hired_'
'hile_'
'hil'
'hen'
'helpful'
'heartbeat_'
'har'
'halal_'
'had'
'gym'
'gutted_'
'gristle_'
'grip_'
'greatthe_'
'granddaughter_'
'grabbing_'
'goodno_'
'goodall_'
'gooda'
'gm'
'gloucester_'
'glorious_'
'globe_'
'glimpse_'
'ghost_'
'ged_'
'gammon_'
'galway_'
'fusion_'
'fro_'
'fran_'
'forum_'
'forthcoming_'
'forms_'
'formed_'
'foolishly_'
'foodie_'
'foodi_'
'flight'
'flashy_'
'flam_'
'flagstaff_'
'fizz_'
'fixture_'
'finewe_'
'files_'
'fifty_'
'fifteen_'
'fi'
'fax_'
'fan'
'fading_'
'facetime_'
'faceless_'
'extortionately_'
'extends_'
'extending_'
'experiencebut_'
'exhausting_'
'excuses_'
'excl_'
'excellently_'
'evidently_'
'everything'
'eu'
'eti'
'esp'
'ese_'
'ering_'
'ered_'
'episode_'
'envelope_'
'ensures_'
'enable_'
'em_'
'eli'
'eing_'
'ei_'
'eggs'
'ef'
'eda'
'eatery_'
'drowned_'
'drown_'
'drinkers_'
'drawing_'
'doorway_'
'dong_'
'done'
'distract_'
'diss'
'disrepair_'
'displays_'
'disability_'
'disa'
'dirhams_'
'differently_'
'did'
'dhaka_'
'detector_'
'destinations_'
'designers_'
'den'
'delights_'
'defense_'
'decaff_'
'debris_'
'debated_'
'deb'
'day'
'dam_'
'da'
'd'
'cubes_'
'crumble_'
'coughing_'
'cosmopolitan_'
'corinthia_'
'console_'
'confirming_'
'confidence_'
'conference'
'complains_'
'compatible_'
'companions_'
'communications_'
'communicate_'
'commitment_'
'comical_'
'comforters_'
'comedy_'
'combinations_'
'comb_'
'cokes_'
'coca_'
'co'
'cloudy_'
'climbing_'
'clean'
'clarify_'
'cl_'
'civilised_'
'citizens_'
'cinema_'
'chopped_'
'chop_'
'choise_'
'chili_'
'chennai_'
'chedi_'
'checks_'
'cheapbut_'
'channels'
'cdn_'
'cd_'
'casinos_'
'cascades_'
'carltons_'
'car'
'cappucino_'
'cap'
'cantonese_'
'candle_'
'cabinets_'
'ca'
'butno_'
'butin_'
'bumping_'
'buds_'
'brutal_'
'brownie_'
'bri'
'breezes_'
'breakast_'
'bps_'
'bound_'
'bore_'
'book'
'benches_'
'ben'
'belt_'
'behaved_'
'befitting_'
'beeping_'
'bedroom'
'bedded_'
'bc_'
'battle_'
'bath'
'basketball_'
'barking_'
'bamboo_'
'bain_'
'badbut_'
'backi_'
'ba'
'awful'
'aug_'
'attitudes_'
'attendance_'
'ater_'
'aswell_'
'astounded_'
'assumption_'
'ash'
'asap_'
'asa'
'arguably_'
'areas'
'areai_'
'arabic_'
'ar'
'applicable_'
'apologetic_'
'anti'
'annoys_'
'ando'
'andin_'
'ana'
'amuse_'
'amentities_'
'allthe_'
'allotted_'
'aircondition_'
'ai'
'agreement_'
'agreeable_'
'afternoon'
'advance'
'adly_'
'ade'
'additions_'
'accurately_'
'accomodating_'
'97_'
'630_'
'54'
'380_'
'375_'
'37'
'33'
'314_'
'3000_'
'29th_'
'22nd_'
'215_'
'1990_'
'123_'
'110'
'108_'
'--- _'
'+/_'
'$/_'
'# _'
'! !_'
' @ $ _'
' .€ _'
' ./_'
' ... ) , _'
' . ) , _'
' - ( _'
' , € _'
' , - _'
' ) ,_'
' % '
' !* _'
' !$ _'
' ! '
'€/_'
'zing_'
'ze'
'zan'
'za_'
'yet'
'yeah_'
'ye'
'worka'
'witnessed_'
'wishes_'
'wins_'
'wilted_'
'west'
'wentworth_'
'weber_'
'web'
'warwick_'
'warren_'
'warp_'
'wall'
'walker_'
'wakes_'
'w'
'void_'
'visual_'
'vet'
'valuebreakfast_'
'vacuumed_'
'vacationing_'
'utilize_'
'usd'
'unpredictable_'
'unde'
'unattended_'
'uluru_'
'turf_'
'trout_'
'trough_'
'tour'
'tossed_'
'toppings_'
'tools_'
'token_'
'toasters_'
'tive_'
'tipped_'
'tion'
'timesthe_'
'thu'
'thro'
'thisit_'
'thisi_'
'thi'
'thereit_'
'thatthe_'
'terrine_'
'ter'
'teething_'
'teapot_'
'tar_'
'tand_'
'tan'
'tainted_'
'taco_'
'tablets_'
'ta'
'swiming_'
'swi'
'swanky_'
'swallow_'
'swa'
'surround_'
'surfaces_'
'suprise_'
'sunbathing_'
'summer'
'suggestions_'
'subdued_'
'stri'
'strangers_'
'stove_'
'staythere_'
'staygood_'
'staycation_'
'staurant_'
'start'
'stars'
'staring_'
'stables_'
'sso_'
'squashed_'
'sprite_'
'spread'
'specialities_'
'sparkle_'
'space'
'son'
'so'
'slow'
'slo'
'sliders_'
'slc_'
'skewers_'
'skeptical_'
'size'
'site'
'sir'
'sip_'
'singapore'
'shoved_'
'ships_'
'shelving_'
'seventh_'
'seniors_'
'segment_'
'sedona_'
'sec_'
'se'
'schnitzel_'
'scented_'
'scant_'
'savoy_'
'satay_'
'sat'
'sandos_'
'sack_'
'ruth_'
'rugs_'
'rub_'
'roomsand_'
'ron'
'roman_'
'robbed_'
'roasting_'
'rm'
'rises_'
'risers_'
'rinse_'
'rin'
'ries_'
'retro_'
'restroom_'
'restaurantbut_'
'responses_'
'resembles_'
'researching_'
'res_'
'res'
'request'
'replenishing_'
'reminding_'
'reminder_'
'reimbursed_'
'refrigerated_'
'reeked_'
'recover_'
'recompense_'
'recommended'
'rebranded_'
'ready'
'rea'
'rb'
'rateand_'
'rapid_'
'randolph_'
'rainfall_'
'rain'
'radiators_'
'quiche_'
'puzzling_'
'purpose'
'pur'
'pun'
'pt'
'proud_'
'protest_'
'proportion_'
'principal_'
'presently_'
'preface_'
'practices_'
'ppe'
'pp'
'possibilities_'
'portfolio_'
'por'
'poolthe_'
'political_'
'poker_'
'point'
'pleasent_'
'pleased'
'platform_'
'placethe_'
'pizza'
'piri_'
'pic_'
'photographs_'
'petit_'
'pestana_'
'peruvian_'
'personable_'
'pee_'
'pedestrian_'
'pear_'
'pea_'
'pe_'
'paulo_'
'paul_'
'pattern_'
'patron_'
'passports_'
'pass'
'pantry_'
'palette_'
'padding_'
'owing_'
'owed_'
'ow'
'outskirts_'
'outi_'
'our'
'ouch_'
'ou'
'ottoman_'
'ory_'
'ore_'
'opportunities_'
'opinions_'
'online'
'oned_'
'on'
'oli'
'ole_'
'ol_'
'oktoberfest_'
'okthis_'
'oi'
'od'
'occupying_'
'oc'
'nt'
'notices_'
'noisy'
'nk_'
'nickle_'
'ney_'
'negotiation_'
'nearby'
'multi'
'mtr_'
'monies_'
'moneybreakfast_'
'mond'
'moldy_'
'modernization_'
'mo'
'minute'
'millions_'
'midst_'
'mi'
'metropolitan_'
'metropol_'
'mer'
'melt_'
'meikle_'
'medication_'
'meatballs_'
'meal'
'mayonnaise_'
'mayo_'
'maurya_'
'matress_'
'masses_'
'mark'
'maps_'
'manual_'
'mandalay_'
'malls_'
'mal_'
'magazines_'
'macao_'
'lure_'
'ls'
'loving_'
'lovers_'
'louis_'
'lonely_'
'lobby'
'lo_'
'lining_'
'liner_'
'lim'
'lightning_'
'lifting_'
'lexington_'
'lessly_'
'lei_'
'lawn_'
'landscaping_'
'landscaped_'
'land'
'lakeview_'
'labour_'
'kyoto_'
'kits_'
'kie'
'kids'
'kicks_'
'kickback_'
'ki'
'kebab_'
'joints_'
'ji'
'jer'
'jar_'
'jacked_'
'ive'
'ith_'
'it'
'iously_'
'ion'
'invitation_'
'investing_'
'introduced_'
'insects_'
'infront_'
'influenced_'
'indeed'
'incorrectly_'
'incorporated_'
'in'
'importance_'
'ill'
'ii'
'ight'
'id'
'ici'
'hyderabad_'
'hyatt'
'hunt_'
'hummus_'
'hucks_'
'hub_'
'hotelvery_'
'hotelsi_'
'hotelin_'
'hotelif_'
'hor'
'hopping_'
'hood_'
'homeless_'
'hobart_'
'hhonours_'
'help'
'head'
'he'
'hdv_'
'hcmc_'
'hassles_'
'hanger_'
'guest'
'greed_'
'greece_'
'greati_'
'grape_'
'grainy_'
'gor'
'goodwill_'
'goodour_'
'golfing_'
'gen'
'gateway_'
'ga_'
'g'
'fuzzy_'
'furthest_'
'fundamental_'
'front'
'freshener_'
'freeze_'
'freebie_'
'fountains_'
'formerly_'
'format_'
'foodit_'
'foc_'
'fluctuating_'
'floors'
'flavorful_'
'fire'
'fe'
'favorably_'
'fastest_'
'faith_'
'expressed_'
'experiencethis_'
'experienceit_'
'exclusively_'
'every'
'euston_'
'ethiopia_'
'err'
'equipments_'
'environmentally_'
'ent'
'enquire_'
'enormously_'
'enforce_'
'encouraged_'
'enclosure_'
'employed_'
'elemis_'
'eighth_'
'edthe_'
'ed'
'ect'
'ec'
'ea_'
'dysfunctional_'
'dying_'
'ds'
'drives_'
'drinker_'
'drier_'
'dri'
'dreaded_'
'dramatic_'
'drama_'
'downs_'
'dongle_'
'do'
'dkk_'
'diy_'
'diving_'
'distinctive_'
'distinction_'
'dispute_'
'displaying_'
'disneyworld_'
'discussions_'
'discussed_'
'disappointed'
'dis_'
'dis'
'dinner'
'dining'
'diets_'
'dic'
'dia'
'describing_'
'der_'
'depart_'
'delicate_'
'defective_'
'declining_'
'decisions_'
'deception_'
'decaying_'
'daythe_'
'david_'
'darling_'
'dan'
'cycle_'
'cuc_'
'cs_'
'crowded'
'creams_'
'creaked_'
'cousin_'
'counted_'
'council_'
'cough_'
'cool'
'converter_'
'controlling_'
'continent_'
'consi'
'confined_'
'conduct_'
'condition'
'cond_'
'compulsory_'
'compelling_'
'commission_'
'commend_'
'colored_'
'collecting_'
'coffee'
'coconut_'
'cockroaches_'
'clubhouse_'
'clu'
'closure_'
'cleanest_'
'classical_'
'cistern_'
'circles_'
'cing_'
'chunks_'
'chris_'
'chintzy_'
'ched_'
'che_'
'chatrium_'
'chalets_'
'cel'
'cebu_'
'cauliflower_'
'case'
'carousel_'
'carbs_'
'cancellable_'
'cabled_'
'bye_'
'butwhen_'
'butb'
'bustling_'
'bush_'
'buisness_'
'builders_'
'brutally_'
'bruges_'
'bro'
'breathing_'
'breathe_'
'breakdown_'
'branch_'
'bot'
'bose_'
'booth_'
'booked'
'bomb_'
'bolted_'
'boast_'
'bloomsbury_'
'bled_'
'blandness_'
'blamed_'
'blackberry_'
'berna_'
'belgium_'
'behalf_'
'beating_'
'beacon_'
'basil_'
'bash_'
'barramundi_'
'bangkok'
'balcony'
'backyard_'
'backpackers_'
'ay'
'awaits_'
'aveda_'
'ava'
'av_'
'authorisation_'
'authenticity_'
'aus_'
'au'
'at'
'ast_'
'arrival'
'arora_'
'argentinian_'
'aquarius_'
'apologize_'
'annoy_'
'ani'
'andwifi_'
'andmy_'
'andfor_'
'anaheim_'
'ambassadors_'
'amari_'
'alli_'
'aka_'
'airport'
'aims_'
'aggravating_'
'agenda_'
'ag'
'affects_'
'advertisement_'
'admin_'
'addressing_'
'acts_'
'acropolis_'
'acknowledge_'
'ack_'
'accepts_'
'acc'
'able'
'a'
'\\_'
'?'
'99'
'95'
'83_'
'75'
'71'
'5the_'
'50p_'
'410_'
'32nd_'
'325_'
'255_'
'249_'
'229_'
'2004_'
'154_'
'150'
'14'
'128_'
'126_'
'117_'
'112_'
'10x_'
'106_'
'04_'
'. $ _'
'),_'
'!!. _'
' ’ '
' ~$_'
' ?( _'
' =_'
' ; ( _'
' ; $ _'
' : " _'
' .... '
' ...( _'
' ...'
' .* '
' , ... _'
' , '
' ( ? ) _'
' ' ) _'
' % , _'
' $ $ $ $ _'
' " ..._'
' !£ _'
'… _'
'zi'
'yourselves_'
'youngsters_'
'yorkshire_'
'york'
'year'
'yd'
'yan'
'ws'
'wre'
'wou'
'worse'
'worlde_'
'worker_'
'wool_'
'woodwork_'
'woods_'
'woburn_'
'wobbly_'
'wk'
'witness_'
'wink_'
'window'
'willingly_'
'wil'
'who'
'whitbread_'
'whistling_'
'which'
'wheat_'
'wel'
'website'
'weather'
'weakest_'
'wasn_'
'washroom_'
'wales_'
'waist_'
'voted_'
'vin'
'vie'
'vi'
'vert'
'venue'
'variations_'
'validated_'
'vacant_'
'v'
'utter_'
'usi_'
'urs_'
'urgently_'
'urge_'
'ure'
'unresponsive_'
'unpleasantly_'
'uniform_'
'unhygienic_'
'unheated_'
'undisturbed_'
'underfloor_'
'uncrowded_'
'um'
'ule'
'ui'
'tunnel_'
'ts'
'truffles_'
'tro'
'tripping_'
'tripadvisor'
'trainer_'
'trail_'
'touted_'
'tot'
'tool_'
'ton'
'toiletries'
'toffee_'
'tl_'
'timed_'
'til'
'tightly_'
'tic'
'thy_'
'thunderbird_'
'threadbare_'
'thorough_'
'therebut_'
'therapists_'
'themit_'
'theater_'
'tha'
'tgi_'
'texan_'
'tex_'
'testing_'
'terrasse_'
'terrace'
'terra'
'terminal'
'tenner_'
'tendency_'
'tb'
'tau'
'taped_'
'tanzania_'
'tai_'
't4_'
'system'
'sweeping_'
'swear_'
'swapped_'
'swan_'
'surgery_'
'surfrider_'
'surfers_'
'supplier_'
'sunsets_'
'sunken_'
'suites'
'suitably_'
'subtle_'
'styling_'
'stunk_'
'stung_'
'stretched_'
'stopper_'
'stopover'
'stop'
'stools_'
'sticker_'
'sti'
'steer_'
'sted_'
'steak'
'stayfood_'
'stayed'
'stationary_'
'starbuck_'
'staple_'
'stanford_'
'standardi_'
'stalls_'
'stairwell_'
'springy_'
'spoils_'
'spec_'
'spas'
'spacious'
'souvenirs_'
'sooooo_'
'sofabed_'
'smallthe_'
'small'
'slightest_'
'slider_'
'skipping_'
'sincerely_'
'similiar_'
'sign'
'shots_'
'shortcoming_'
'sher'
'shelter_'
'shambolic_'
'shaking_'
'shady_'
'sha'
'sf'
'services'
'servicea'
'separating_'
'sep'
'selectionthe_'
'sector_'
'scuffed_'
'scratches_'
'scottsdale_'
'scent_'
'scar'
'scales_'
'sar'
'sand'
'sam'
'salt'
'safe'
'russian_'
'run'
'royale_'
'rounded_'
'rosette_'
'ropey_'
'roomservice_'
'roomsbut_'
'roomsa'
'roomnot_'
'roofs_'
'role_'
'roasted_'
'riverfront_'
'rightly_'
'rica_'
'revolting_'
'reviews'
'reversed_'
'revelation_'
'returning'
'restrooms_'
'restaurantthe_'
'rest'
'respite_'
'respectively_'
'respectable_'
'resist_'
'resented_'
'reporting_'
'rentals_'
'renewed_'
'ren_'
'ren'
'reliably_'
'released_'
'release_'
'relates_'
'rei'
'refrig_'
'refillable_'
'rediculously_'
'rede'
'recycling_'
'recovery_'
'recipe_'
'rece'
'reap_'
'reads_'
'rd'
'ration_'
'rateso_'
'ratei_'
'rasa_'
'rammed_'
'racks_'
'races_'
'rac'
'ra'
'r1'
'qui'
'questioning_'
'quebec_'
'qualityi_'
'pumps_'
'property'
'promotions_'
'programmes_'
'profits_'
'pro'
'privately_'
'pristine_'
'priorities_'
'pricy'
'pricewise_'
'prices'
'pres'
'prefered_'
'preferably_'
'precise_'
'ppl_'
'pours_'
'posters_'
'postage_'
'pong_'
'pollution_'
'poky_'
'playground_'
'pillows'
'pigeons_'
'pickle_'
'pia'
'pi'
'ph'
'petrol_'
'perth_'
'performing_'
'perfect'
'penalty_'
'peek_'
'pearl_'
'payments_'
'pat'
'passion_'
'partition_'
'particular'
'parmesan_'
'pap'
'paella_'
'pa'
'p'
'overnighter_'
'overheard_'
'overbooking_'
'outward_'
'outlay_'
'ound_'
'ots_'
'othing_'
'orn'
'orient_'
'ori'
'ordeal_'
'optimistic_'
'op_'
'onthe_'
'ond'
'oma'
'ola'
'ol'
'okish_'
'okbreakfast_'
'og'
'oe'
'occurring_'
'obsidian_'
'oak_'
'nzd_'
'numbered_'
'nted_'
'notification_'
'noti'
'nother_'
'noth'
'nondescript_'
'nobu_'
'nner_'
'nished_'
'nightbreakfast_'
'niceit_'
'nge'
'news'
'newark_'
'negotiable_'
'needed'
'neatly_'
'native_'
'nar'
'nal_'
'murphy_'
'mug_'
'moves_'
'movenpick_'
'mor'
'modestly_'
'modem_'
'mod'
'mixers_'
'mistaken_'
'mismatch_'
'mind'
'midrange_'
'method_'
'metered_'
'mes'
'meriton_'
'mercedes_'
'mel'
'mei_'
'meat'
'me'
'matter'
'matresses_'
'masquerading_'
'mask_'
'mas'
'marriotts'
'mar_'
'mans_'
'manoeuvre_'
'mani'
'mahi_'
'made'
'machine'
'lush_'
'lumps_'
'luggage'
'lufthansa_'
'lt_'
'loo'
'lodge'
'lobbybut_'
'lle'
'lla'
'lity_'
'littered_'
'lin'
'life'
'lieu_'
'li'
'lg_'
'letters_'
'lem'
'leep_'
'layovers_'
'layers_'
'latin_'
'lar'
'lani_'
'languages_'
'lands_'
'lakes_'
'lai'
'ks'
'kr_'
'kingdom_'
'kimptons_'
'kiddie_'
'kat_'
'karaoke_'
'kan'
'just'
'jars_'
'jabiru_'
'ized_'
'issued_'
'ise'
'ironed_'
'introduce_'
'intervals_'
'intention_'
'instructor_'
'installation_'
'inspite_'
'inspire_'
'inside'
'insect_'
'ingredient_'
'ing'
'infused_'
'infinitely_'
'inexplicable_'
'individuality_'
'indifference_'
'inconvenienced_'
'inclusives_'
'improves_'
'impressed'
'impossibly_'
'imposing_'
'imply_'
'implied_'
'impeccably_'
'im'
'ile'
'ignoring_'
'ies'
'icy_'
'iceberg_'
'hydro_'
'hunters_'
'hum'
'hu'
'however'
'hour'
'hotelm'
'hotelhowever_'
'hotela'
'hooked_'
'hol'
'hmmm_'
'hin'
'hie'
'hiding_'
'hich_'
'hi'
'hermitage_'
'hermes_'
'heels_'
'heed_'
'heart'
'hardest_'
'hap'
'han'
'hammer_'
'hamilton_'
'guacamole_'
'gu'
'gt'
'group'
'grosvenor_'
'gro'
'grime_'
'grew_'
'greatwe_'
'gray_'
'grated_'
'grandiose_'
'gra'
'gouldings_'
'got'
'goose_'
'goodthey_'
'goodif_'
'goers_'
'gobsmacked_'
'glitz_'
'glasshouse_'
'gigantic_'
'ger'
'gaudy_'
'gau'
'gates_'
'gaming_'
'gallon_'
'gallery_'
'gale_'
'gag'
'gadgets_'
'fussed_'
'fulfilling_'
'ft'
'frosty_'
'fre'
'frayed_'
'fraud_'
'frames_'
'fra'
'fours_'
'fortnight_'
'forks_'
'fore'
'ford_'
'forces_'
'foor_'
'folding_'
'floori_'
'first'
'firm'
'finesse_'
'fineit_'
'figures_'
'fiasco_'
'ffe'
'feeling'
'feathers_'
'fawlty_'
'factored_'
'facilitiesbut_'
'facebook_'
'ey'
'experiencewe_'
'expensivethis_'
'expensiveso_'
'expensiveand_'
'expectations'
'exe'
'excellentthe_'
'exce'
'evi'
'euro'
'etci_'
'etca'
'et'
'estimated_'
'ess'
'eso'
'ero'
'ere'
'era'
'equate_'
'enti'
'enthusiasm_'
'entertain_'
'enjoys_'
'enjoy'
'eng'
'enforced_'
'ene'
'endured_'
'embarassing_'
'emanating_'
'ella_'
'elephant_'
'electrics_'
'egg'
'efinitely_'
'een_'
'ecent_'
'ea'
'e2'
'dumplings_'
'duct_'
'dry'
'drunks_'
'dream'
'draws_'
'dragon_'
'dragging_'
'drafty_'
'dra'
'dr_'
'doubletrees_'
'dos_'
'donuts_'
'donatello_'
'docking_'
'dn'
'distraction_'
'distracting_'
'disrespectful_'
'disproportionate_'
'disorganized_'
'disney'
'disjointed_'
'dishonest_'
'discount'
'disclosed_'
'disappointment'
'dips_'
'diplomat_'
'dimed_'
'dig'
'differentiate_'
'died_'
'die'
'developing_'
'delish_'
'deliberately_'
'deemed_'
'deceiving_'
'dec'
'dearly_'
'dealbut_'
'dea'
'danger_'
'cutter_'
'cus'
'cul'
'cry_'
'cruises_'
'cricket_'
'cri'
'crawling_'
'course'
'cotai_'
'costs'
'cos_'
'corp_'
'coronado_'
'cor'
'cop'
'coo'
'contribute_'
'contacting_'
'consumption_'
'consist_'
'conceirge_'
'compressor_'
'complacency_'
'comparative_'
'committed_'
'collins_'
'cockroach_'
'coaches_'
'clicking_'
'clerks_'
'cleanness_'
'claustrophobia_'
'clarke_'
'circumstance_'
'churlish_'
'cher'
'check'
'chasing_'
'chargers_'
'chap_'
'change'
'centers_'
'carte'
'captain_'
'capitals_'
'cape_'
'cancellations_'
'campground_'
'camper_'
'calories_'
'cairns_'
'by'
'butthere_'
'butter'
'butt'
'butso_'
'buts'
'butgood_'
'busy'
'businesses_'
'businessbut_'
'burst_'
'bull_'
'bul'
'buffetthe_'
'bu'
'broccoli_'
'briefly_'
'brick'
'brewers_'
'brekfast_'
'breakfeast_'
'breakfastgood_'
'breakfastfor_'
'breakf'
'breafast_'
'brag_'
'br'
'boy'
'bouncy_'
'border_'
'boar_'
'bo'
'blu'
'blt_'
'blo'
'bleach_'
'blatant_'
'bland'
'bircher_'
'bin'
'biltmore_'
'bility_'
'bermuda_'
'bent_'
'bengali_'
'belvedere_'
'belonged_'
'bell'
'belfry_'
'beep_'
'beakfast_'
'bb'
'batter_'
'barefoot_'
'ball'
'baileys_'
'baguettes_'
'badge_'
'backwards_'
'b'
'ayurvedic_'
'availed_'
'autumn_'
'aud'
'atypical_'
'attributes_'
'attentiveness_'
'atleast_'
'ati'
'ath_'
'ates_'
'aston_'
'associates_'
'assistant_'
'arusha_'
'arts_'
'art'
'army_'
'arizona_'
'aria_'
'argued_'
'areathe_'
'aramark_'
'ape'
'anything'
'anticipating_'
'annexe_'
'andthat_'
'andp'
'analog_'
'amounted_'
'amiss_'
'amenties_'
'ame'
'amb'
'amazing'
'amalia_'
'alter_'
'ajar_'
'airflow_'
'aesthetics_'
'adventurous_'
'adapters_'
'aco'
'ace_'
'accent_'
'abound_'
'abo'
'abit_'
'aback_'
'://_'
':- _'
'96_'
'94_'
'830_'
'82'
'65'
'62'
'5a'
'53'
'500ml_'
'4the_'
'46'
'3x_'
'39'
'36'
'359_'
'30mins_'
'29'
'279_'
'259_'
'209_'
'198'
'1960_'
'1900_'
'189'
'142_'
'1400_'
'118_'
'1000'
'05'
'000'
'.._'
'- '
'*_'
'!'
' ” '
' —_'
' ?- _'
' ? ? ? ? ?_'
' : ( _'
' ./ _'
' .......... _'
' ........ _'
' .. !_'
' . ' _'
' . " _'
' - '
' -'
' ,, _'
' )( _'
' ) .._'
' ) ...._'
' ( ! )_'
' %_'
' $ , _'
' $ $ $ ._'
' ! ! ! '
'€_'
'—_'
'zz'
'zo'
'youthe_'
'yit_'
'yi_'
'yes'
'years'
'y'
'xx'
'xpensive_'
'wuksachi_'
'wrong'
'workshop_'
'working'
'wlan_'
'wildlife_'
'wifii_'
'whites_'
'whit'
'whistles_'
'whereby_'
'where'
'whe'
'weeks'
'weekends'
'week'
'wee'
'wedged_'
'wealthy_'
'watermelon_'
'wardrobes_'
'ward_'
'walton_'
'wal'
'waive_'
'wailea_'
'vol'
'vl'
'vital_'
'views'
'vie_'
'videos_'
'vibrations_'
'vibrating_'
'ves'
'verify_'
'veri'
'ventured_'
'venison_'
'vendor_'
'vel'
'vacationers_'
'usd3'
'usand_'
'usa'
'uri'
'urg'
'ups'
'upi_'
'upholstery_'
'unsu'
'unpretentious_'
'unloved_'
'unlocked_'
'unk'
'unfinished_'
'une'
'uncon'
'uncertain_'
'uckily_'
'uc'
'twist'
'tw'
'tun'
'try'
'trips'
'tripped_'
'trepidation_'
'transaction_'
'trainee_'
'trademark_'
'tournament_'
'touristy_'
'toured_'
'tou'
'tothe_'
'tones_'
'tolerated_'
'today'
'tle_'
'tivoli_'
'tiresome_'
'tiramisu_'
'timeit_'
'tighter_'
'ticking_'
'ti'
'thump_'
'throught_'
'thin'
'thier_'
'they'
'them'
'tep'
'tem'
'tel'
'teddy_'
'tch'
'tbh_'
'tahoe_'
'tags_'
'tag'
'table'
't'
'sydney'
'swo'
'swinging_'
'sweltering_'
'swearing_'
'swe'
'survey_'
'surprise'
'surpassed_'
'surname_'
'suprisingly_'
'supported_'
'supplying_'
'sundae_'
'sukhumvit_'
'sugary_'
'succulent_'
'sub'
'study_'
'sts_'
'struggles_'
'string_'
'striking_'
'streaky_'
'strange'
'stones_'
'stir_'
'sting_'
'ster_'
'ster'
'staynot_'
'stayer_'
'starwoods_'
'starbut_'
'stand'
'stan'
'staffwe_'
'staffo'
'staffi_'
'sse'
'squi'
'squeezing_'
'squeak_'
'sqm_'
'spoiling_'
'spo'
'splashed_'
'spiral_'
'spin_'
'spin'
'spar'
'spaciousness_'
'soviet_'
'sort'
'sorbet_'
'snow'
'snot_'
'snapped_'
'sna'
'smorgasbord_'
'smo'
'smith_'
'smiled_'
'smell'
'smalli_'
'slowi'
'sleepbreakfast_'
'slapped_'
'slaley_'
'sla'
'sl_'
'skybar_'
'sizethe_'
'sizable_'
'sive_'
'sit'
'sion_'
'sin'
'sil'
'signposted_'
'signal'
'sigh_'
'sideways_'
'side'
'sickness_'
'siam_'
'shut'
'shrug_'
'showerthe_'
'shines_'
'sheffield_'
'sha_'
'sg_'
'sevilla_'
'servicethis_'
'serviceit_'
'servi'
'serene_'
'ser'
'sequoia_'
'sensatori_'
'sec'
'sebel_'
'seaworld_'
'seasoning_'
'seams_'
'screen'
'scream_'
'scraping_'
'scoring_'
'scone_'
'schemes_'
'scenic_'
'scallop_'
'savoury_'
'savannah_'
'sauna'
'sau'
'sandy_'
'sandwich'
'sands_'
'sana_'
'san'
'salisbury_'
'salami_'
'saddened_'
'sad'
'rvice_'
'rudeness_'
'rthe_'
'routinely_'
'rot'
'roomthey_'
'roomoverall_'
'roomin'
'rooma'
'roller_'
'robust_'
'rn'
'ritz'
'risen_'
'rig'
'ridiculous'
'ric'
'ribeye_'
'rf'
'rew'
'revamped_'
'retain_'
'restoration_'
'resto_'
'resteraunt_'
'restaurantwe_'
'restaurantso_'
'restaurants'
'restauranta'
'responsiveness_'
'resorted_'
'resort'
'resi'
'representing_'
'removal_'
'remoteness_'
'remedy_'
'relying_'
'relaxing'
'rel'
'regulations_'
'referred_'
'reducing_'
'recorded_'
'reconnect_'
'recommand_'
'recess_'
'receives_'
'reat'
'realising_'
'real'
'read'
're'
'raving_'
'rates'
'rants_'
'rancho_'
'ran'
'ramadan_'
'ram'
'rails_'
'rag'
'racing_'
'quoting_'
'quietest_'
'quick'
'quer'
'pushes_'
'purports_'
'purifier_'
'proportions_'
'projector_'
'produces_'
'procedures_'
'prob_'
'prints_'
'pricewe_'
'priceless_'
'pric'
'pri'
'prem'
'prec'
'portugal_'
'poolwe_'
'polynesia_'
'polo_'
'pole_'
'ply_'
'pls_'
'pleasure'
'pleasently_'
'playford_'
'plaster_'
'pla'
'pitched_'
'pit'
'pick'
'pianist_'
'phil'
'periodically_'
'perfunctory_'
'patties_'
'patches_'
'passenger_'
'parlor_'
'panes_'
'pancras_'
'pamper_'
'paid'
'own'
'overs_'
'overkill_'
'overcharging_'
'overalli_'
'ov'
'outweighs_'
'outstandingly_'
'outset_'
'outright_'
'ous'
'orry_'
'ordinarily_'
'oneself_'
'once'
'ona'
'okayi_'
'oily_'
'ode'
'ocean'
'oard_'
'o2_'
'nting_'
'nsi'
'note'
'nos_'
'norwich_'
'north'
'nonsmoking_'
'nok_'
'noise'
'nightsthe_'
'nick'
'ness'
'ner'
'neglect_'
'nec'
'nairobi_'
'naff_'
'nad'
'must'
'multitude_'
'mu'
'mt_'
'mt'
'move'
'mouths_'
'mot'
'mosquito_'
'mort'
'morningi_'
'monsoon_'
'monotonous_'
'moneyso_'
'moaning_'
'mm_'
'mit'
'mistake'
'mist'
'miso_'
'misled_'
'mislead_'
'miserably_'
'minibus_'
'mina'
'mil'
'mig'
'mic_'
'mg'
'meridian_'
'meri'
'mer_'
'mechanism_'
'means'
'mean'
'mckinley_'
'mbe'
'mate_'
'martinis_'
'marking_'
'marine_'
'marg'
'manually_'
'manicured_'
'manicure_'
'mang'
'mammoth_'
'malfunctioning_'
'mala'
'makeshift_'
'main'
'mahal_'
'mag'
'madhouse_'
'ma'
'm2_'
'luxury'
'lus_'
'lows_'
'love'
'loung_'
'lotus_'
'lor'
'longer'
'logic_'
'loa'
'little'
'liter_'
'lit'
'list'
'lis'
'lingering_'
'lind'
'limitation_'
'lies_'
'lia'
'lf_'
'les'
'ler_'
'lengths_'
'legendary_'
'leadership_'
'lea'
'layouts_'
'lay'
'lawns_'
'law'
'lavatory_'
'laundered_'
'lasting_'
'lapses_'
'landscape_'
'kr'
'korean_'
'knees_'
'knee_'
'kleenex_'
'kitchen'
'kindness_'
'killing_'
'kil'
'kat'
'kampala_'
'kalahari_'
'jos'
'jetlagged_'
'jelly_'
'jeans_'
'jaz'
'jail_'
'jacks_'
'jackets_'
'iva'
'its'
'ito'
'itinerary_'
'items'
'ite_'
'issue'
'iss'
'iso'
'ising_'
'ish'
'ip_'
'inwe_'
'invite_'
'invisible_'
'invariably_'
'intuitive_'
'intrusion_'
'intermediate_'
'integral_'
'inte'
'institution_'
'insisting_'
'inline_'
'inl'
'injury'
'inf'
'ines_'
'indonesian_'
'inconvenience'
'included'
'incidental_'
'inbut_'
'illuminated_'
'ig'
'idi'
'ib'
'hy'
'hw'
'hustle_'
'hurts_'
'huge'
'http_'
'hower_'
'howard_'
'hou'
'hotelno_'
'hoste_'
'hoo_'
'hoo'
'holiday'
'hol_'
'hl'
'hiltoni_'
'hiltonhonors_'
'hhonor_'
'hh'
'hg'
'herring_'
'herethis_'
'hereand_'
'helpings_'
'heights_'
'heel_'
'heaps_'
'hay'
'hav'
'hau'
'hats_'
'hard'
'handy'
'hams_'
'hammam_'
'ham'
'hallmark_'
'halibut_'
'hake_'
'hair'
'gun'
'guiness_'
'guests'
'guarantees_'
'gua'
'greenhouse_'
'gre'
'grapes_'
'gosh_'
'goods'
'goodness'
'goodmy_'
'gly_'
'gh'
'gestures_'
'gents_'
'gently_'
'generated_'
'gay_'
'gauge_'
'gastronomic_'
'gastro_'
'galore_'
'futuristic_'
'furnitures_'
'furnish_'
'funds_'
'functioned_'
'fulness_'
'fulfill_'
'fruit'
'froze_'
'fron_'
'friendly'
'fridge'
'freindly_'
'formulaic_'
'forgiven_'
'foreigners_'
'fore_'
'footprint_'
'footage_'
'foolish_'
'foodbreakfast_'
'foo'
'focussed_'
'fluorescent_'
'fluctuated_'
'flor'
'fle'
'flannel_'
'fixings_'
'fis'
'fired_'
'finitely_'
'finethis_'
'fiddly_'
'fest_'
'featureless_'
'feature'
'fascinating_'
'farther_'
'fanciest_'
'fairmonts_'
'facts_'
'facility'
'eyesore_'
'express'
'explicitly_'
'expired_'
'expensivewe_'
'expedia'
'expect'
'exp'
'existence_'
'exhibit_'
'execution_'
'exclusivity_'
'excitement_'
'excelent_'
'exceeding_'
'exc'
'ex'
'evey'
'everthing_'
'event'
'evaluation_'
'evacuation_'
'evacuate_'
'ethiopian_'
'eth'
'eternity_'
'esse'
'esque_'
'escort_'
'escalator_'
'ers'
'ergonomic_'
'equates_'
'eo'
'entice_'
'enthusiastic_'
'eno'
'enhance_'
'engines_'
'engaged_'
'ened_'
'enamel_'
'ena'
'emptying_'
'elegantly_'
'ela'
'ek'
'eh'
'eg'
'effects_'
'edison_'
'eco'
'eclectic_'
'east'
'dy'
'due'
'drink'
'dreadfully_'
'down'
'dolphins_'
'document_'
'doc'
'dit_'
'dit'
'disturbances_'
'distressed_'
'dissatisfaction_'
'dissappointing_'
'disease_'
'disconnecting_'
'disclosure_'
'disappointingthe_'
'disabilities_'
'dirham_'
'director_'
'directing_'
'dipping_'
'din'
'dimmer_'
'diluted_'
'dg'
'df'
'deteriorate_'
'destroyed_'
'des'
'dept_'
'depleted_'
'departments_'
'dep'
'dental_'
'dent_'
'demolished_'
'demands_'
'defi'
'defence_'
'def'
'decking_'
'debate_'
'deali_'
'deafening_'
'de'
'dd_'
'daywe_'
'days'
'daya'
'dash_'
'das_'
'darwin_'
'dared_'
'daniels_'
'dame_'
'dai'
'cut'
'custard_'
'cur'
'crème_'
'crunchy_'
'crummy_'
'crumbs_'
'croutons_'
'cross'
'creepy_'
'cracker_'
'cra'
'cp'
'countless_'
'counterparts_'
'couldn_'
'cost'
'cosmetic_'
'cos'
'corporation_'
'cordial_'
'cook'
'convenient'
'controllable_'
'consume_'
'congee_'
'conf'
'conducting_'
'conditioning'
'cond'
'concur_'
'comps_'
'components_'
'component_'
'complain'
'compelled_'
'compa'
'commendable_'
'comforting_'
'colourful_'
'colon'
'coincided_'
'coarse_'
'clutter_'
'clunky_'
'club'
'clos'
'clip_'
'clearer_'
'clam_'
'cla'
'cl'
'ck'
'civilized_'
'cis'
'circuit_'
'cia'
'chunk_'
'chrome_'
'chill'
'chilean_'
'children'
'checkout'
'checkin'
'cheapskate_'
'cheaper'
'che'
'chased_'
'changeable_'
'chan'
'cham'
'challenges_'
'chalk_'
'cet'
'ceasar_'
'cation_'
'cathode_'
'cat'
'casita_'
'casablanca_'
'cas'
'carl'
'card'
'caravan_'
'carafe_'
'capitol_'
'canvas_'
'canopy_'
'can'
'cameras_'
'cally_'
'calculate_'
'cafe'
'cad'
'butyou_'
'butwhat_'
'butfood_'
'bustle_'
'busines_'
'bury_'
'burg'
'bun'
'bukhara_'
'budget'
'buckets_'
'bt'
'brushing_'
'brl_'
'brioche_'
'bride_'
'breakfastvery_'
'breakfastoverall_'
'breakfasthowever_'
'brakfast_'
'braised_'
'bra'
'boxy_'
'bout_'
'bounce'
'bouche_'
'bot_'
'boost_'
'bomb'
'bolton_'
'bol'
'body'
'bodies_'
'blip_'
'bleu_'
'blea'
'black'
'bla'
'bkfst_'
'bison_'
'bi_'
'bhutan_'
'bewleys_'
'bes'
'berry_'
'bengal_'
'benefitted_'
'belonging_'
'believes_'
'begins_'
'begging_'
'bee_'
'beds'
'bear'
'beams_'
'bayshore_'
'bathroomi_'
'bat'
'bases_'
'baseball_'
'bargains_'
'bar'
'banks_'
'ban'
'ballrooms_'
'baguette_'
'bagged_'
'backthe_'
'backside_'
'bab'
'aweful_'
'avi'
'availablei_'
'aus'
'attribute_'
'attachment_'
'att_'
'ats_'
'atmosphere'
'astronomically_'
'ast'
'asia'
'artist_'
'arrived'
'arranging_'
'aromatherapy_'
'arise_'
'ari'
'arg'
'ara'
'apt_'
'appreciation_'
'applying_'
'appetites_'
'appearing_'
'anyway'
'anyplace_'
'answering_'
'angles_'
'anemic_'
'andyou_'
'andone_'
'andm'
'andg'
'anda'
'anc'
'amusement_'
'amigo_'
'amazon_'
'ama'
'aly_'
'alton_'
'altitude_'
'altho_'
'alone'
'alleged_'
'alcove_'
'albuquerque_'
'alacarte_'
'air'
'ains_'
'aggravation_'
'age'
'aerobics_'
'ado_'
'admiral_'
'adi'
'addis_'
'adapted_'
'ada_'
'acting_'
'act'
'acquired_'
'ach_'
'accomplished_'
'accomodated_'
'accessibility_'
'acceptable'
'academy_'
'aca'
'abuse_'
'abt_'
'abrupt_'
'abama_'
'ab'
'86_'
'81'
'63'
'61'
'52'
'50s_'
'45am_'
'44'
'430_'
'420_'
'415_'
'400'
'3star_'
'37th_'
'289_'
'2300_'
'230'
'202_'
'1960s_'
'1950_'
'1930_'
'15pm_'
'138_'
'136_'
'133_'
'10pm_'
'102_'
'. £ _'
'-£_'
'- $ _'
', '
')'
'"'
' ’ , _'
' ? ? )_'
' :(_'
' ... '
' .., _'
' .--_'
' .' _'
' .# _'
' ." '
' . . . ._'
' . -_'
' -- $ _'
' )- _'
' ) -- _'
' )'
' ( ~_'
' "_'
' " ; _'
' " !_'
' ! ) - _'
' ! ) '
' ! '_'
' ! ! ! )_'
' ! ! ! ) _'
' ! ! ! ! ! ! ! !_'
'€ _'
'‘ _'
'— _'
'è'
'~_'
'zy_'
'zagreb_'
'yum_'
'youtube_'
'youngest_'
'yl'
'yi'
'yas_'
'yand_'
'yal'
'yaiza_'
'xo'
'xi_'
'x1'
'wristband_'
'wrinkles_'
'worthit_'
'workmen_'
'worki_'
'wor'
'wood'
'wonder'
'wolf_'
'wn_'
'winter'
'wine'
'wimbledon_'
'wifibreakfast_'
'wie'
'wi'
'whichever_'
'westmark_'
'weeknight_'
'wedge_'
'weakness_'
'wd_'
'waterslide_'
'waswe_'
'wastage_'
'wasand_'
'wasa'
'war'
'wandered_'
'walt'
'walmart_'
'waistline_'
'wagyu_'
'wag'
'wad_'
'vouch_'
'visitthe_'
'virginia_'
'villa'
'vile_'
'vil'
'vik_'
'viewed_'
'victory_'
'vera'
'ver'
'veni'
'veneer_'
'vati'
'vas'
'vans_'
'valuewe_'
'vague_'
'vacuuming_'
'vable_'
'uti'
'ust_'
'ush'
'usd2'
'usd1'
'urt'
'uros_'
'ura_'
'ura'
'upthe_'
'upt'
'untrained_'
'unt'
'unsupervised_'
'unsecured_'
'unsa'
'unobstructed_'
'unmatched_'
'universally_'
'uniforms_'
'uncalled_'
'unb'
'ul'
'uff'
'ud_'
'ud'
'ua'
'typ'
'twi'
'twee'
'turtle_'
'turn'
'tte_'
'tta_'
'tsi'
'troubling_'
'tripit_'
'tripadviser_'
'treasure_'
'travellodge_'
'traveler'
'transformed_'
'tranquility_'
'tram_'
'traditionally_'
'tra'
'tr'
'tp_'
'touch'
'toss_'
'tors_'
'torch_'
'top'
'tony_'
'toni'
'tom'
'tokens_'
'toi_'
'tod'
'tively_'
'tire_'
'tin'
'timers_'
'tiling_'
'tid'
'thunder_'
'ths_'
'threat_'
'thou_'
'thisand_'
'think'
'thet'
'therewe_'
'therein_'
'therefor_'
'themthe_'
'themi_'
'thani_'
'territory_'
'termin'
'tenth_'
'temporarily_'
'telephoned_'
'tee_'
'technician_'
'teaspoon_'
'tax'
'tastier_'
'tas'
'tambo_'
'taller_'
'tal_'
'tal'
'takeout_'
'tai'
'tacked_'
'swam_'
'suv_'
'sut'
'sustain_'
'suspicion_'
'surpri'
'surf'
'supreme_'
'supportive_'
'supervised_'
'superbreak_'
'suffocating_'
'subt'
'suboptimal_'
'submitted_'
'submit_'
'sua'
'stuttgart_'
'stumble_'
'stuffing_'
'stu'
'strikes_'
'stratford_'
'stranger_'
'strand_'
'stin'
'sthis_'
'sthey_'
'steamy_'
'steamroom_'
'stead_'
'std_'
'status'
'stateroom_'
'state'
'stare_'
'stairwells_'
'stairway_'
'staircases_'
'staffit_'
'staffc'
'sso'
'ssion_'
'spirited_'
'spilled_'
'specification_'
'specialist_'
'sparsely_'
'spar_'
'soy_'
'soverall_'
'southampton_'
'soured_'
'soundproof'
'sought_'
'soothing_'
'somewhere'
'solutions_'
'soi_'
'soft'
'sofia_'
'snafu_'
'smothered_'
'smartphone_'
'sm'
'slussen_'
'sloping_'
'sliver_'
'sleepthis_'
'sleepover_'
'sleepa'
'skylight_'
'ske'
'sk_'
'sis_'
'sipping_'
'singaporean_'
'sim_'
'sim'
'sierra_'
'siem_'
'sie'
'sickly_'
'sic'
'sia'
'shudder_'
'shrimps_'
'shredded_'
'shopped_'
'shone_'
'shipping_'
'shi'
'she'
'shank_'
'shan'
'shadow_'
'sg'
'seventies_'
'set'
'serviceand_'
'sends_'
'sen'
'seminyak_'
'seminars_'
'seaweed_'
'seater_'
'seatac_'
'seas_'
'sealant_'
'sd'
'scro'
'scramble_'
'sco'
'sci'
'scathing_'
'scam'
'satt_'
'sank_'
'sandpaper_'
'sam_'
'salted_'
'sall_'
'saggy_'
'sagging_'
'sa'
'russia_'
'rus'
'rupee_'
'rung_'
'rump_'
'rum_'
'rum'
'rth_'
'rst_'
'rri'
'rre'
'rows_'
'round'
'rou'
'roomsthis_'
'roomst'
'roomsi'
'roomno_'
'roomier_'
'rooma_'
'roo'
'rock'
'roc'
'road'
'ro'
'rn_'
'riverview_'
'river'
'ripping_'
'richmond_'
'rhodes_'
'rg'
'rey_'
'reverse_'
'revellers_'
'retr'
'restore_'
'restauarant_'
'ress_'
'residential_'
'resembling_'
'researched_'
'rep'
'rendering_'
'remotes_'
'remarked_'
'relies_'
'reli'
'rele'
'relatives_'
'reinforced_'
'rein'
'reimbursement_'
'rega'
'refusing_'
'refresh'
'ref'
'reds_'
'redi'
'redecoration_'
'rectangular_'
'rect'
'recovered_'
'records_'
'reco'
'recieve_'
'recalled_'
'rebooked_'
'reason'
'really'
'reali'
'reakfasts_'
'rci_'
'ravioli_'
'raves_'
'ratebut_'
'rap'
'rancid_'
'rage_'
'rad_'
'quinoa_'
'quietly_'
'questionnaire_'
'quesadilla_'
'qualitythe_'
'quad_'
'qua'
'qu'
'qt_'
'put'
'punt'
'pun_'
'ption_'
'ptic'
'ps'
'pru'
'proudly_'
'pros'
'proportioned_'
'propertythe_'
'properties'
'promoting_'
'prominent_'
'program'
'proce'
'problems'
'prizes_'
'priv'
'pringles_'
'pricetag_'
'pricepoint_'
'priceline'
'priceand_'
'pretending_'
'presumed_'
'pressured_'
'pressure'
'presidents_'
'predominantly_'
'prea'
'pped_'
'power'
'pounding_'
'post'
'posher_'
'poolit_'
'poo'
'polyester_'
'poly'
'poland_'
'plunger_'
'plu'
'ploy_'
'plo'
'pli'
'plethora_'
'ple'
'platters_'
'plate'
'plat'
'plantation_'
'placebut_'
'place'
'pillar_'
'pictures'
'pictured_'
'pickings_'
'piccadilly_'
'pho_'
'philosophy_'
'philippines_'
'phe'
'perplexed_'
'peroni_'
'perform_'
'percentage_'
'perceived_'
'pent_'
'penny'
'peer_'
'pedestal_'
'peanut_'
'pe'
'pb'
'parasols_'
'paramount_'
'parador_'
'papaya_'
'palacio_'
'pain'
'paidthe_'
'paddle_'
'packagethe_'
'package'
'oy'
'ox'
'owl_'
'overprized_'
'overcrowding_'
'outthis_'
'outit_'
'outing_'
'outbut_'
'ound'
'others'
'ost'
'ose_'
'orm'
'organise_'
'opr'
'opo'
'opi'
'oon_'
'ool'
'ony_'
'ons'
'ome'
'oked_'
'offs_'
'offense_'
'offa'
'odi'
'occupy_'
'occasions'
'occ'
'oblivious_'
'objected_'
'oat_'
'o'
'nyc'
'nusa_'
'nr'
'nowa'
'notthe_'
'noticable_'
'notebook_'
'nostalgia_'
'norma_'
'nor'
'nom'
'noisyi_'
'noisily_'
'nob'
'nightthis_'
'nightsand_'
'nighta'
'nia'
'nex'
'networks_'
'nets_'
'net'
'nerve_'
'nell'
'negatives'
'nder'
'nda'
'nav_'
'nationality_'
'nast'
'naples_'
'napkin_'
'nac'
'mrt_'
'mped_'
'mortgage_'
'monterey_'
'monte_'
'mont'
'monitored_'
'moneythis_'
'moisturiser_'
'modernising_'
'modernisation_'
'ml'
'mixing_'
'mist_'
'miracle_'
'mira'
'minimi'
'minbar_'
'millenium_'
'middling_'
'metate_'
'merri'
'merc'
'mentality_'
'members'
'meg'
'meetings'
'mebut_'
'meanwhile_'
'mealthe_'
'mealsthe_'
'mcd_'
'mbo'
'mature_'
'mates_'
'materialise_'
'markup_'
'market'
'marina'
'marie_'
'mari'
'margaritas_'
'mam'
'malt_'
'mali'
'mail'
'magically_'
'magazine_'
'mach'
'macaroni_'
'm1_'
'lv'
'luxembourg_'
'luster_'
'luggages_'
'lucerne_'
'luau_'
'lty_'
'lst'
'loses_'
'loos_'
'look'
'longleat_'
'lom'
'loews_'
'loca'
'llent_'
'lled_'
'll'
'litter_'
'lip_'
'lion_'
'ling'
'limiting_'
'lil'
'light'
'lift'
'lifeguards_'
'lic'
'liberty_'
'less'
'lend_'
'leek_'
'leave'
'lease_'
'leas'
'lean'
'leader_'
'ld'
'lc'
'lau'
'latitude_'
'lanzarote_'
'laminate_'
'lak_'
'lagunamar_'
'lagers_'
'ladder_'
'ky'
'kt'
'kona_'
'knowledgable_'
'kni'
'kiva_'
'kitted_'
'kit'
'kings'
'khajuraho_'
'kfc_'
'kfast_'
'kevin_'
'ker'
'ken_'
'keenly_'
'kailyard_'
'jw'
'joy_'
'joy'
'jolly_'
'johnny_'
'johannesburg_'
'joe_'
'job'
'jet'
'jaccuzi_'
'jac'
'ited_'
'italia_'
'ita_'
'isl'
'isit_'
'irritants_'
'irksome_'
'ire_'
'ire'
'ional_'
'iona'
'io_'
'inventory_'
'interstate_'
'internetthe_'
'interent_'
'interconti_'
'intent_'
'int'
'instances_'
'ins'
'ino'
'innthe_'
'injured_'
'init_'
'ingl'
'infuriating_'
'infrequent_'
'informative_'
'inflict'
'inexplicably_'
'inexperienced_'
'increases_'
'incomprehensible_'
'incl'
'imposition_'
'imported_'
'imme'
'ime'
'imagin'
'illumination_'
'ili'
'il'
'ign'
'igh_'
'ie'
'ido'
'idiots_'
'idiot_'
'icecream_'
'ible_'
'iat'
'ially_'
'hyper_'
'huts_'
'husband'
'hunger_'
'humble_'
'housekeeping'
'hough_'
'hotthe_'
'hotelo'
'hotelnice_'
'hotelmy_'
'hoteleverything_'
'hotele'
'hotela_'
'honestthe_'
'hon'
'homey_'
'homework_'
'hols_'
'hollandaise_'
'hockey_'
'hoc_'
'hm'
'his'
'hips_'
'hinges_'
'hine_'
'hers_'
'hereo'
'herd_'
'herbal_'
'hell'
'hel'
'heavier_'
'heartily_'
'headline_'
'hdmi_'
'hat'
'hast'
'harm'
'harbourview_'
'happen'
'hangars_'
'halloween_'
'hade'
'gymn_'
'gwl_'
'gul'
'guestroom_'
'gthe_'
'grumbles_'
'gru'
'grouse_'
'ground'
'groceries_'
'grin'
'grills_'
'gri'
'green'
'gras_'
'granite_'
'grain_'
'grades_'
'gracious_'
'goulding_'
'gos'
'goodvery_'
'goodp'
'goodnice_'
'goodfr'
'goo_'
'goo'
'goldfish_'
'god'
'goats_'
'goa'
'gloss_'
'glo_'
'glitter'
'gle'
'glamour_'
'girlfriends_'
'gin'
'giles_'
'gig_'
'gig'
'ght'
'getbut_'
'gentlemen_'
'generators_'
'gen_'
'gels_'
'gc'
'gb_'
'gatherings_'
'gathered_'
'gat'
'gas'
'gara'
'gal'
'funeral_'
'fundamentally_'
'ful'
'frying_'
'from'
'friendliest_'
'frenetic_'
'freestanding_'
'frank'
'francs_'
'francisco'
'franc'
'fr'
'forte_'
'forgiving_'
'forgivable_'
'forf'
'forego_'
'forcing_'
'foodwise_'
'foods'
'fog_'
'fluff_'
'flows_'
'floorwe_'
'floored_'
'floorand_'
'floods_'
'flicking_'
'flex_'
'fleece_'
'flavored_'
'flatbread_'
'flakes_'
'fl_'
'fix'
'fit'
'fist_'
'finland_'
'financially_'
'fin_'
'filipino_'
'figuring_'
'fif'
'fierce_'
'fields_'
'fied_'
'fears_'
'fantastic'
'family'
'fail'
'face'
'fac'
'exudes_'
'extraction_'
'ext_'
'experiment_'
'experiencebreakfast_'
'expensivebreakfast_'
'excursion_'
'excluded_'
'exchanged_'
'exaggerating_'
'exacerbated_'
'ew_'
'eventhough_'
'eveningthe_'
'evelyn_'
'evaluate_'
'ev'
'euros'
'eureka_'
'eur1'
'eur'
'etter_'
'ett'
'ethnic_'
'ete'
'estuary_'
'estimation_'
'establish_'
'esta'
'est'
'essi'
'ese'
'escaping_'
'ern'
'erhaps_'
'erb'
'erat'
'er'
'equals_'
'epi'
'ep'
'entryway_'
'enhancement_'
'engaging_'
'energetic_'
'end'
'encounters_'
'enc'
'emi'
'emergencies_'
'eme'
'elsewherethe_'
'either'
'eit_'
'egregious_'
'effort'
'een'
'edward_'
'eds_'
'edi'
'edd'
'eati'
'eas'
'eally_'
'e1'
'e'
'durham_'
'dumbbells_'
'dua_'
'dthe_'
'dt_'
'drone_'
'driveway_'
'dripped_'
'drew_'
'draughty_'
'drastically_'
'dprk_'
'downloads_'
'downgrading_'
'doughnuts_'
'dot_'
'dose_'
'dormitory_'
'dor_'
'doorstep_'
'doo'
'dolphin_'
'dol'
'documents_'
'doable_'
'dling_'
'distracted_'
'dissappointment_'
'disregard_'
'disppointed_'
'disposal_'
'dispensed_'
'disp'
'dismay_'
'disingenuous_'
'dishwater_'
'dishes'
'discreet_'
'discovery_'
'disconnects_'
'disconnect_'
'disc'
'disappointingi_'
'disappointing'
'disappointedthe_'
'disadvantages_'
'dim'
'dig_'
'differentiates_'
'dial'
'diagonal_'
'diabolical_'
'di'
'dhs_'
'devoted_'
'detour_'
'deterioration_'
'dete'
'deni'
'demographic_'
'deliveries_'
'delightfully_'
'del'
'dei'
'defo_'
'defects_'
'deduct_'
'decrepit_'
'decides_'
'dearest_'
'deals'
'dealit_'
'dazhong_'
'daybut_'
'darkened_'
'dand_'
'cycles_'
'cy'
'customs_'
'customer'
'cusco_'
'curved_'
'cure_'
'cumberland_'
'cultures_'
'cu'
'cts_'
'ction_'
'cti'
'crowdedi_'
'crowd'
'crossed_'
'crewe_'
'credits_'
'credible_'
'credentials_'
'creak_'
'cranberry_'
'crafts_'
'crabtree_'
'covent_'
'countryside_'
'cosmo_'
'cosmetics_'
'corr'
'cordoba_'
'copies_'
'cope'
'convenience'
'contracted_'
'continential_'
'consolation_'
'considers_'
'conrads_'
'conn'
'conjunction_'
'congestion_'
'conci'
'concerts_'
'concerning_'
'compromising_'
'compounded_'
'compound_'
'complaints'
'compl'
'compe'
'commonwealth_'
'commenting_'
'comment'
'comfy'
'comfortablethe_'
'come'
'combining_'
'comb'
'coma'
'columbus_'
'collectively_'
'cole'
'coldest_'
'coins_'
'cobb_'
'cn'
'clueless_'
'closeness_'
'clocks_'
'cleverly_'
'clear'
'cle'
'clayton_'
'classier_'
'clarity_'
'clar'
'cked_'
'citrus_'
'citi'
'cit'
'cious_'
'chur'
'choicethis_'
'choiceand_'
'choi'
'chlorinated_'
'chiller_'
'child'
'chic'
'chelly_'
'cheapthe_'
'cheapi_'
'chauffeur_'
'charm'
'charleston_'
'chandeliers_'
'chandelier_'
'champ'
'chains'
'chain'
'certificates_'
'ceremony_'
'central'
'center'
'cent'
'cease_'
'cd'
'cctv_'
'cc'
'caveats_'
'cattle_'
'category'
'carribean_'
'carlton'
'carlo_'
'cardiovascular_'
'cardi'
'carb_'
'captured_'
'cappuccinos_'
'campus_'
'camp'
'call'
'calais_'
'cairo_'
'bw'
'buzzed_'
'buys_'
'butwi'
'butvery_'
'butts_'
'butt_'
'butnot_'
'butif_'
'butfor_'
'bust_'
'businessthe_'
'businessman_'
'burns_'
'buns_'
'bumps_'
'bull'
'bui'
'buffetwe_'
'buffetbreakfast_'
'buck'
'bubbles_'
'brulee_'
'brittania_'
'brit'
'brie_'
'brewery_'
'brew_'
'breakfastwas_'
'breakfastall_'
'breakfasta'
'bread'
'breach_'
'brassiere_'
'bournemouth_'
'bour'
'boracay_'
'booking'
'bond_'
'bodied_'
'bod'
'blueberry_'
'blueberries_'
'bling_'
'bli'
'bles'
'bit'
'birthday'
'bic'
'bi'
'beverly_'
'besti_'
'ber'
'below'
'behold_'
'behave_'
'beggars_'
'bef'
'beetroot_'
'bec'
'beau'
'bbc1_'
'basis'
'barren_'
'bargin_'
'bare'
'barbeque_'
'bara'
'banner_'
'bank'
'balancing_'
'baking_'
'baffled_'
'bads'
'axum_'
'awfull_'
'away'
'averagei_'
'averageand_'
'avarage_'
'authority_'
'attic_'
'ato'
'atl'
'athletic_'
'athe_'
'ath'
'association_'
'assign_'
'ask'
'asi'
'ashtray_'
'asda_'
'artisan_'
'arm'
'aqua'
'apr'
'approved_'
'appealed_'
'appallingly_'
'ap_'
'ap'
'ao'
'anyone'
'any'
'antly_'
'answers_'
'anomaly_'
'announcement_'
'angeles_'
'andyes_'
'andw'
'ands'
'andother_'
'andon_'
'andok_'
'andne'
'andho'
'andb'
'andalso_'
'amo'
'american'
'amenities'
'ambitious_'
'ambi'
'amateurish_'
'ama_'
'alto_'
'althought_'
'allo'
'aligned_'
'alerted_'
'ald'
'alco'
'ake_'
'ak_'
'ais'
'airports'
'airless_'
'aircon'
'ain_'
'ail_'
'againgood_'
'againb'
'againa_'
'afterall_'
'aesthetically_'
'ads_'
'adr'
'adore_'
'ado'
'adina_'
'adequate'
'ade_'
'addi'
'acted_'
'accross_'
'accompaniments_'
'accompaniment_'
'accom'
'abs'
'about'
'abode_'
'abnormal_'
'abe'
'abd_'
'=_'
'= '
':) _'
'92_'
'81_'
'5h'
'5000_'
'4we_'
'4th'
'4s'
'49er_'
'42'
'41'
'38th_'
'370_'
'36th_'
'34'
'339_'
'330'
'305_'
'3030_'
'2b_'
'285_'
'226_'
'221_'
'2200_'
'220'
'217_'
'2100_'
'208_'
'197'
'1950s_'
'190'
'180'
'175'
'15am_'
'153_'
'148_'
'140'
'13th_'
'1300_'
'113_'
'107_'
'100s_'
'0700_'
'/'
'..._'
'..... _'
'. ) _'
','
'+ '
'$ '
'!!_'
' … '
' ”_'
' ” ( _'
' “_'
' ¥ _'
' ;)_'
' :) ._'
' : • _'
' : + _'
' - ' _'
' + + _'
' * ) _'
' % ) _'
' $ '
' !-_'
' ! ..._'
' ! ) . _'
'‘_'
'ö'
'½_'
'zones_'
'zip'
'zin'
'zi_'
'za'
'yy'
'yup_'
'yso_'
'ypical_'
'youbut_'
'yep_'
'yearly_'
'ybe_'
'xt'
'xed_'
'wrinkled_'
'wr'
'woud_'
'worththe_'
'worst'
'word'
'withthe_'
'wiser_'
'wisely_'
'wiped_'
'winters_'
'windows'
'win'
'wigwam_'
'wifiit_'
'wifiand_'
'wide'
'whittlebury_'
'whitebait_'
'whist_'
'whirring_'
'wherein_'
'whcih_'
'whatsoever'
'whack_'
'westminster_'
'wered'
'welli_'
'weirdly_'
'wedges_'
'webpage_'
'wd'
'wat_'
'wasteful_'
'wass'
'washcloths_'
'warnings_'
'wardman_'
'wand_'
'wafer_'
'wading_'
'vrbo_'
'volumes_'
'vodafone_'
'vivanta_'
'vist'
'visito'
'visitbut_'
'visi'
'vis_'
'violation_'
'viewthe_'
'vibrated_'
'verve_'
'versions_'
'vern'
'verity_'
'verbal_'
'verage_'
'ventilated_'
'ventilat'
'vendors_'
'ven'
'vegetation_'
've'
'varanasi_'
'valve_'
'valuew'
'valuegood_'
'vale_'
'vaguely_'
'vacation'
'vacated_'
'vacate_'
'uts_'
'uswe_'
'usual'
'usthis_'
'uss'
'usoverall_'
'usit_'
'usbut_'
'uring_'
'urg_'
'urant_'
'upright_'
'uplifting_'
'upit_'
'upand_'
'unwi'
'unwanted_'
'unw'
'untill_'
'until'
'unripe_'
'unnerving_'
'unli'
'unjustifiable_'
'unin'
'uniformly_'
'uni_'
'ung'
'unfortunatley_'
'unex'
'unen'
'undressed_'
'undi'
'undesirable_'
'underlying_'
'underdone_'
'undercover_'
'unconscionable_'
'unclean_'
'unad'
'ult'
'ught'
'uck'
'ub_'
'tyne_'
'tut'
'turnaround_'
'ture_'
'tummy_'
'tucson_'
'tuck_'
'tto_'
'ttering_'
'tter_'
'trumped_'
'true'
'triggered_'
'trial_'
'tres'
'tregenna_'
'tree'
'travels'
'transparent_'
'translation_'
'transatlantic_'
'trans'
'tranquil_'
'trait_'
'trai'
'trafalgar_'
'trad'
'tracking_'
'tp'
'toy_'
'tos'
'toliet_'
'toilet'
'together'
'toes_'
'tl'
'tit'
'tint'
'ting'
'tine_'
'tine'
'timebut_'
'timber_'
'tilt_'
'tide_'
'throws_'
'thri'
'thoughtless_'
'thiswe_'
'thisthis_'
'thisa'
'things'
'thief_'
'theses_'
'theref'
'ther'
'theo'
'theming_'
'thei'
'thatwe_'
'thatbut_'
'thanked_'
'thali_'
'tg'
'ters_'
'term'
'teri'
'tera'
'tempura_'
'telephones_'
'teams_'
'tc'
'tation_'
'tasty'
'tastless_'
'taste'
'tartar_'
'tan_'
'talks_'
'tale_'
'take'
'tails_'
'tah'
'taff_'
'swore_'
'swivel_'
'swimmingpool_'
'swiftly_'
'swept_'
'sweet'
'sw_'
'suspected_'
'sus'
'survived_'
'surprised'
'sureif_'
'superlatives_'
'superficially_'
'sup'
'sundry_'
'sunday'
'sun'
'sulphur_'
'suit'
'sufficed_'
'suburban_'
'subsidised_'
'subs'
'subjected_'
'sty'
'sturdy_'
'stur'
'stub'
'stro'
'strive_'
'stripped_'
'stress'
'streak_'
'strap'
'strain_'
'stra'
'stovepipe_'
'stopovers_'
'stomping_'
'stinking_'
'steigenberger_'
'stayw'
'staymy_'
'staybe'
'stayb'
'stayas_'
'statue_'
'stately_'
'starve_'
'starpoints_'
'stari'
'staples_'
'stanley_'
'stal'
'stair'
'staggeringly_'
'staggered_'
'ssi'
'sse_'
'sr'
'squishy_'
'squid_'
'squeaky_'
'sprouts_'
'sprayed_'
'spout_'
'sportsbar_'
'sporadically_'
'splurging_'
'spl'
'spg'
'spends_'
'spark'
'spaced_'
'sow'
'southport_'
'southeast_'
'soup'
'sound'
'sou'
'sorry'
'soooooo_'
'soo_'
'song_'
'sona'
'sommelier_'
'som'
'soleil_'
'sol'
'soho_'
'sofitel'
'soe'
'society_'
'soccer_'
'sob'
'snuff_'
'snowing_'
'snooty_'
'snooker_'
'sneezing_'
'sneaky_'
'snap_'
'snacks'
'sn'
'sms_'
'smarter_'
'sm_'
'sls_'
'slope_'
'sli'
'slh_'
'sley_'
'sleepy_'
'sleepbut_'
'sleepand_'
'sle'
'slanted_'
'slabs_'
'slab_'
'sl'
'sky'
'skimp_'
'skim_'
'sk'
'sixteen_'
'sittings_'
'sisters_'
'singular_'
'simplicity_'
'similar'
'silverware_'
'shutter_'
'shot'
'shoot_'
'ship'
'shifts_'
'sheraton'
'shar'
'shapes_'
'shang'
'shaky_'
'shad'
'shack_'
'sgd1'
'sgd'
'sever'
'ses'
'servicebreakfast_'
'servery_'
'separation_'
'sent'
'sensors_'
'senses_'
'self'
'sei'
'segments_'
'seelbach_'
'section'
'seals_'
'scuba_'
'scot'
'schiphol_'
'scattered_'
'scare_'
'scampi_'
'sash_'
'sarajevo_'
'sara'
'sandwiched_'
'sande'
'sal'
'sailing_'
'sag'
'ryder_'
'rust'
'russians_'
'rumble_'
'ruining_'
'rub'
'rts_'
'rti'
'rsi'
'rse'
'rra'
'roy_'
'roundtrip_'
'rotting_'
'rose'
'ros_'
'rop'
'roomyou_'
'roomvery_'
'roomo'
'roomgood_'
'ron_'
'rog'
'rl'
'ritual_'
'risk'
'riser_'
'rioja_'
'rinks_'
'rim'
'rie_'
'rie'
'rian_'
'ria'
'rh'
'rga'
'revi'
'reuse_'
'returnthe_'
'returni'
'retains_'
'retaining_'
'resu'
'restraunts_'
'restraint_'
'rested_'
'restauran'
'resources_'
'resemblance_'
'reputed_'
'repu'
'reportedly_'
'replicate_'
'rent'
'renovations'
'rence_'
'reminders_'
'remi'
'remembers_'
'relo'
'reliant_'
'relay'
'rela'
'reject_'
'reimburse_'
'regulated_'
'refers_'
'recycled_'
'recycle_'
'reconstituted_'
'recommendthe_'
'recom'
'reccommend_'
'rebuilt_'
'rebu'
'rebook_'
'reassuring_'
'reassured_'
'reas'
'realizing_'
'rc'
'rays_'
'ravel'
'raved_'
'rattle_'
'rat_'
'rat'
'ramsay_'
'rak'
'raises_'
'rail'
'raft_'
'raf'
'radar_'
'rab'
'queue'
'quesadillas_'
'ques_'
'qualitywe_'
'qualitys'
'qatar_'
'qa'
'py'
'push'
'pumpkin_'
'pumping_'
'puff'
'pt_'
'providers_'
'proves_'
'protected_'
'prospective_'
'propertyit_'
'proo'
'prompted_'
'programmed_'
'profitable_'
'professionals_'
'producing_'
'processing_'
'proceed_'
'proactive_'
'prized_'
'principally_'
'princesa_'
'prince_'
'priceyi_'
'priceybut_'
'pricethere_'
'pricer'
'pricea'
'prevents_'
'pretense_'
'pretends_'
'presenting_'
'prep_'
'prem_'
'prego_'
'pregnant_'
'prefers_'
'prefer'
'prefect_'
'precious_'
'prc'
'practicality_'
'ppa'
'possible'
'portuguese_'
'portman_'
'port'
'popularity_'
'pops_'
'pony_'
'pontins_'
'polar_'
'pointe_'
'pn'
'pmi_'
'plum'
'plonk_'
'ple_'
'platinum'
'plainly_'
'places'
'placeit_'
'pl'
'pj_'
'pity'
'piped_'
'pioneer_'
'pint'
'pinpoint_'
'pine_'
'piles_'
'pigeon_'
'picturesque_'
'pickled_'
'phl_'
'pharmacy_'
'pg'
'petra_'
'petite_'
'pet'
'pesto_'
'peri'
'perched_'
'pep'
'pens_'
'penn_'
'peers_'
'peeled_'
'ped'
'peak'
'peacock_'
'paying'
'paving_'
'pause_'
'paucity_'
'patty_'
'patronize_'
'pati'
'pathetically_'
'pasta'
'partic'
'parki'
'parisian_'
'pare'
'para'
'pak'
'paix_'
'page'
'padded_'
'overt'
'overstuffed_'
'overs'
'overpaid_'
'overnite_'
'overnighting_'
'overloaded_'
'overhauled_'
'overd'
'overcharges_'
'outthe_'
'outsourced_'
'outs'
'outlined_'
'outlandish_'
'outbound_'
'outb'
'ounge_'
'ott'
'ota_'
'oru'
'orthe_'
'ornate_'
'orks_'
'origin'
'orb'
'ora'
'opus_'
'opt'
'opp'
'opinion'
'oozing_'
'oor_'
'oooo'
'ool_'
'onwe_'
'oni'
'onethe_'
'oneo'
'okwh'
'oks'
'okoverall_'
'okm'
'oking_'
'okb'
'okayit_'
'oka'
'og_'
'offputting_'
'offit_'
'offers'
'ofcourse_'
'oe_'
'oddity_'
'oda'
'octopus_'
'occurs_'
'occupation_'
'oca'
'obtaining_'
'objects_'
'objection_'
'obably_'
'nzd'
'nut'
'nuggets_'
'nth'
'nsive_'
'nouveau_'
'notion_'
'nothing'
'norms_'
'noiseb'
'nno'
'ninth_'
'nightstands_'
'nightsbut_'
'nighto'
'nig'
'niceth'
'nicer'
'ngo'
'ngi'
'newish_'
'nescafe_'
'nep'
'nemacolin_'
'nei'
'needs'
'nda_'
'ncy_'
'ncing_'
'nce'
'navy_'
'nautical_'
'nathan_'
'nasi_'
'nas'
'nailed_'
'nah_'
'nagpur_'
'mut'
'musky_'
'musicians_'
'musical_'
'museums_'
'mundane_'
'munchies_'
'mouthwash_'
'mouth'
'motor'
'motel'
'morton_'
'morningwe_'
'mornings'
'morningand_'
'mono'
'monitors_'
'moneys'
'moneya_'
'monetary_'
'mob'
'moans_'
'mn'
'mmmm_'
'mm'
'misplaced_'
'mishaps_'
'mishap_'
'minu'
'mint'
'mins'
'minibars_'
'minibar'
'mince_'
'minat'
'milking_'
'milk'
'mile'
'mighty_'
'midnight'
'micro'
'michigan_'
'mezze_'
'mewe_'
'merited_'
'meo'
'mentions_'
'menti'
'mentally_'
'memphis_'
'melbourne'
'meit_'
'meh'
'meeru_'
'mediocrity_'
'medieval_'
'meaningless_'
'meaningful_'
'mcc'
'mc_'
'mbs_'
'mb'
'mazing_'
'mayhem_'
'maya'
'maximise_'
'mattress'
'mattered_'
'mati'
'mart'
'marrakech_'
'marr'
'maries_'
'margaritaville_'
'mare_'
'manu'
'mano'
'mannered_'
'manhattan'
'manchester'
'maltese_'
'maldron_'
'mailed_'
'magna_'
'magn'
'madeira_'
'lywe_'
'luxuriously_'
'lung_'
'luncheon_'
'lump'
'lud'
'lte_'
'lsi'
'lp'
'lowlights_'
'lovely'
'lotte_'
'loosely_'
'looked'
'longe'
'longboards_'
'londonthe_'
'lond'
'loin_'
'locationi_'
'locality_'
'locale_'
'loan_'
'lm'
'llo_'
'llo'
'lling_'
'lk_'
'ljubljana_'
'livable_'
'literature_'
'liquors_'
'lint_'
'links_'
'lineup_'
'liness_'
'linden_'
'lil_'
'likethe_'
'lightening_'
'lib'
'lhw_'
'levied_'
'ler'
'lei'
'leg'
'left'
'leasure_'
'leaning_'
'leaned_'
'leaky_'
'lco'
'lb'
'lava_'
'lasagna_'
'largish_'
'lapse_'
'lap'
'lan'
'lag'
'lactose_'
'lab'
'kuredu_'
'kra'
'knackered_'
'kle'
'kip_'
'king'
'kin'
'kim'
'kilo'
'killed_'
'kigali_'
'kidsthe_'
'ki_'
'khao_'
'kgb_'
'kandalama_'
'kab'
'justifiable_'
'jun'
'juicy_'
'juicer_'
'jugs_'
'journeys_'
'joking_'
'jewellery_'
'jewel_'
'jes'
'ives_'
'itvery_'
'itp'
'iton_'
'itfood_'
'ites_'
'itch'
'itc'
'itb'
'ital'
'ist'
'issues'
'israel_'
'ism_'
'isi_'
'ishi'
'ique_'
'ip'
'iot'
'ior'
'ioni'
'inwards_'
'involves_'
'invigorating_'
'investigation_'
'inver'
'invaded_'
'inva'
'intimidating_'
'interi'
'interfere_'
'intercontinental'
'intentional_'
'instruction_'
'installing_'
'inspect_'
'insists_'
'insi'
'inni'
'ink'
'initiative_'
'ingwe_'
'ingi_'
'ingand_'
'influx_'
'infl'
'infants_'
'ined_'
'indu'
'indicator_'
'indi'
'incre'
'incompetence_'
'incoming_'
'ince'
'inb'
'inand_'
'inal'
'improvement'
'improved'
'impressedthe_'
'impl'
'imm'
'im_'
'illa'
'ike_'
'iho'
'ifi'
'ibis'
'ia'
'hyde_'
'hv_'
'hus'
'hug'
'hr'
'hotwire'
'hotelyou_'
'hotelwas_'
'hotelthey_'
'hotelt'
'hotelswe_'
'hotelg'
'hospitable_'
'hordes_'
'hope'
'hook'
'homes_'
'hive_'
'hit'
'hiroshima_'
'hinge_'
'hilarious_'
'highland'
'hf'
'het'
'hes'
'heri'
'hereso_'
'hem'
'hei'
'heaving_'
'heath'
'hcm_'
'haz'
'hayfield_'
'haw'
'hatt'
'hardship_'
'happened'
'hangover_'
'hang'
'handset_'
'handing_'
'handheld_'
'hamp'
'hallway'
'halekulani_'
'hal_'
'hal'
'hai'
'hack'
'gy'
'gwr_'
'guess'
'guards_'
'guarded_'
'grove_'
'grill'
'greenery_'
'greatit_'
'greatand_'
'grange_'
'grandkids_'
'grander_'
'gran'
'graces_'
'gp_'
'gouged_'
'goodyou_'
'goodwo'
'goodwhen_'
'goodon'
'goodno'
'golfer_'
'gob'
'gni'
'glu'
'gloves_'
'gli'
'gk'
'gift'
'gia'
'gett'
'getaway'
'gers_'
'ger_'
'georgian_'
'gentle_'
'genting_'
'general'
'gee'
'gbp15_'
'gbp1'
'gated_'
'garish_'
'gang_'
'gan'
'gained_'
'fy'
'future'
'fuss'
'furbished_'
'fs'
'fruity_'
'fro'
'frightfully_'
'friends'
'friend'
'fridays_'
'freshest_'
'freshened_'
'fresh'
'freight_'
'freei'
'freedom_'
'freak_'
'frank_'
'fran'
'four'
'formica_'
'form'
'forgetting_'
'forb'
'foodstuffs_'
'flown_'
'floorw'
'fleet_'
'fleeced_'
'flavoursome_'
'flats_'
'flame_'
'fixes_'
'fixable_'
'fiver_'
'finger'
'fined_'
'finds_'
'find'
'fin'
'filth_'
'fiesta_'
'fic'
'ffi'
'ferries_'
'fer_'
'fel'
'feel'
'feared_'
'fathom_'
'fate_'
'families'
'fairs_'
'fairb'
'facilitiesthe_'
'facilitiesi'
'faci'
'externally_'
'ext'
'expression_'
'expo'
'explored_'
'exploitation_'
'explicit_'
'expesive_'
'experiencew'
'experiencethere_'
'expensivethere_'
'expensiveoverall_'
'expensiveit_'
'exited_'
'exh'
'exempt_'
'exec'
'excruciatingly_'
'excite_'
'exceptional'
'excels_'
'evidenced_'
'everywhere'
'everytime'
'eveningand_'
'even'
'eve'
'europa_'
'etiquette_'
'ethos_'
'etch'
'estaurant_'
'escaped_'
'ert'
'ermin_'
'erg'
'equipment'
'equated_'
'epitome_'
'epic_'
'epcot_'
'environment'
'ents_'
'enthusiastically_'
'ensued_'
'enought_'
'eni'
'engage_'
'enerally_'
'ener'
'ende'
'emp'
'em'
'elo'
'elk_'
'eliminate_'
'elevators'
'elect_'
'eld_'
'eiffel_'
'ei'
'egypt_'
'effortless_'
'effective'
'effected_'
'eel_'
'edwe_'
'edit_'
'edi_'
'edg'
'eded_'
'edand_'
'econd_'
'ece'
'ebut_'
'ean_'
'eakfast_'
'ead'
'dwi'
'dv'
'durango_'
'dunston_'
'dumpy_'
'dumb_'
'dud_'
'dud'
'ducts_'
'dubai'
'dub'
'drowning_'
'drapers_'
'drafts_'
'downthe_'
'downt'
'downstairs'
'downscale_'
'downs'
'downloading_'
'downand_'
'doubtless_'
'doubly_'
'doubling_'
'double'
'dou'
'dosas_'
'dorchester_'
'dor'
'doorthe_'
'donation_'
'dom'
'doha_'
'docklands_'
'docked_'
'dividing_'
'divide_'
'div'
'ditch_'
'distressing_'
'distances_'
'disservice_'
'disrupt_'
'disrespect_'
'dispiriting_'
'dispensing_'
'dismissive_'
'dism'
'dish'
'disguised_'
'discussing_'
'discretionary_'
'discourage_'
'disappointedwe_'
'disapoint'
'dipped_'
'dinnerthe_'
'dinged_'
'dimensions_'
'dilapidated_'
'digs_'
'different'
'dice_'
'dge'
'dfw_'
'detail'
'detached_'
'desperation_'
'desktop_'
'designs_'
'design'
'desc'
'deplorable_'
'deo'
'dent'
'demonstrated_'
'delicious'
'delicacies_'
'delic'
'deli'
'delegate_'
'delectable_'
'degraded_'
'definitly_'
'deficient_'
'defen'
'decorate_'
'decor'
'decent'
'dece'
'dealso_'
'dbreakfast_'
'daysthe_'
'dayso_'
'daybreakfast_'
'dayand_'
'darker_'
'dal'
'czk_'
'cyprus_'
'cycling_'
'curt'
'cuppa_'
'cupcake_'
'cum_'
'cum'
'ctually_'
'ct'
'crusty_'
'crush_'
'crowed_'
'crowding_'
'crossing_'
'crocodile_'
'croatia_'
'crime_'
'crieff_'
'creeping_'
'craving_'
'crater_'
'crap'
'cran'
'crackling_'
'cow_'
'coverings_'
'coventry_'
'courtyard'
'cour'
'count'
'cou'
'cot'
'corridor'
'corkage_'
'cork_'
'copied_'
'copacabana_'
'cop_'
'coordination_'
'coopers_'
'cools_'
'cooked'
'convience_'
'convention'
'controller_'
'contributed_'
'contradictory_'
'contradict'
'considera'
'conned_'
'connects_'
'congratulations_'
'confronted_'
'configured_'
'confi'
'condos_'
'condemned_'
'concorde_'
'complimented_'
'complex'
'completion_'
'complemented_'
'complement'
'comparisons_'
'company'
'commute_'
'communicated_'
'commonplace_'
'commodity_'
'commode_'
'coming'
'comically_'
'comfort'
'colle'
'collapse_'
'coleslaw_'
'coincidence_'
'coffin_'
'coex_'
'coded_'
'cocktails'
'cock'
'cm'
'clumsy_'
'clubroom_'
'clothes'
'closures_'
'closed'
'cling_'
'clim'
'client'
'class'
'circulate_'
'chu'
'chooses_'
'choose'
'chocolat_'
'choc_'
'chipping_'
'chip'
'ching_'
'chile_'
'chiang_'
'chees'
'cheer_'
'cheapo_'
'charts_'
'charges'
'charged'
'characteristics_'
'chant'
'chanced_'
'chance'
'chafing_'
'chablis_'
'certain'
'cer'
'centre'
'cellular_'
'cells_'
'celebrations_'
'cea'
'cavalieri_'
'causes_'
'cations_'
'cathedral_'
'casually_'
'cash'
'casa'
'cartons_'
'carriage_'
'carparking_'
'caramel_'
'capped_'
'cant'
'canopies_'
'canapé_'
'cale'
'cai'
'caffe_'
'caf'
'cac'
'cabo_'
'bygone_'
'buyer_'
'butwould_'
'butthey_'
'butthat_'
'butmy_'
'butm'
'butl'
'butall_'
'businessi_'
'bushes_'
'burrito_'
'burmese_'
'burg_'
'bureau_'
'bunk'
'building'
'buggies_'
'bugged_'
'buffetbut_'
'buff'
'budweiser_'
'budgets_'
'bs'
'brut'
'broth_'
'brochures_'
'broader_'
'broadcast_'
'brightly_'
'brief'
'brewer_'
'bretagne_'
'breakfats_'
'breakfastthere_'
'breakfastth'
'breakfastp'
'breakfastg'
'breakfas'
'brass_'
'brand'
'bran'
'brakefast_'
'brain'
'bracelet_'
'bourne_'
'boul'
'bottomless_'
'bottle'
'both'
'bosphorus_'
'bos'
'borrow_'
'born_'
'borders_'
'bordered_'
'bor'
'booths_'
'booklet_'
'bookable_'
'boo'
'bonus'
'boisterous_'
'board'
'blobs_'
'blind'
'blessed_'
'bles_'
'blends_'
'bitt'
'biti'
'bite'
'bis'
'birthdays_'
'billi'
'big'
'bie'
'bid'
'biased_'
'bias_'
'bh'
'betterth'
'bespoke_'
'berg'
'ber_'
'ben_'
'bei'
'beforethe_'
'bedspread_'
'bedhead_'
'becuase_'
'beck'
'bea'
'bbe'
'bayside_'
'bauer_'
'bathtubs_'
'bathe_'
'bas'
'barn'
'bari_'
'barbe'
'ban_'
'balloons_'
'balloon_'
'backo'
'backbut_'
'bacardi_'
'bacara_'
'baby'
'awkwardly_'
'awa'
'averaging_'
'averaged_'
'averagebut_'
'ave'
'av'
'aust'
'attire_'
'attention'
'attach_'
'atively_'
'ate'
'astronomic_'
'astonished_'
'asthma_'
'assisted_'
'asse'
'asp'
'asians_'
'as'
'artists_'
'ars_'
'arrive'
'arose_'
'aro'
'ark_'
'arises_'
'arguments_'
'arethe_'
'ards_'
'ard'
'arch'
'applaud_'
'appar'
'appa'
'app'
'anted_'
'annoying'
'anno'
'ank_'
'animation_'
'ani_'
'andwh'
'andwas_'
'andt'
'andstayed_'
'andrew_'
'andre'
'andonly_'
'andnice_'
'andlo'
'andiamo_'
'andalthough_'
'andafter_'
'anchovies_'
'amp'
'ami_'
'amen'
'amd_'
'amazes_'
'amaze_'
'amateur_'
'alvaston_'
'although'
'alternatively_'
'alter'
'alt'
'alm'
'ally'
'allot_'
'alleviate_'
'alle'
'alk'
'alca'
'alaskan_'
'airs_'
'airplanes_'
'airfare_'
'aiport_'
'ain'
'aho'
'agra_'
'agent'
'againso_'
'agains'
'againhad_'
'afi'
'affairs_'
'afe'
'aero'
'adviser_'
'advi'
'advertisements_'
'adverse_'
'adv'
'adorned_'
'adam_'
'actively_'
'acknowledging_'
'accra_'
'accord_'
'accor'
'accomm'
'accessing_'
'access'
'acces_'
'abused_'
'abruptly_'
'above'
'ables_'
'aberration_'
'abb'
'9am_'
'930_'
'91'
'700'
'66'
'60th_'
'5x_'
'57'
'49'
'480_'
'47'
'430'
'39th_'
'390_'
'365_'
'345_'
'315_'
'310_'
'31'
'2nights_'
'288_'
'250'
'24hour_'
'239_'
'219_'
'211_'
'20usd_'
'20pm_'
'205_'
'2001_'
'199'
'198_'
'192'
'1911_'
'19'
'182_'
'178_'
'176_'
'173_'
'171_'
'167_'
'1600_'
'156_'
'1500'
'144_'
'143_'
'134_'
'127_'
'1230_'
'121_'
'10mins_'
'103_'
'03_'
'/- _'
'. ( _'
'. '
'+'
'* '
')-_'
') , _'
'('
'''
' £ '
' ` '
' @ £ _'
' ?" _'
' ? ..._'
' ? - _'
' ? , _'
' ? '_'
' = £ _'
' : * _'
' .… _'
' .‘ _'
' ............ _'
' ....( _'
' .... )_'
' ... ?_'
' ... $ _'
' ..'
' .) _'
' ." ( _'
' . )'
' ---_'
' , “ _'
' , ) _'
' + ) _'
' + $ _'
' + '
' ) ; - _'
' ( ? _'
' ( ? ) ._'
' ( > '
' ( + _'
' ( & _'
' ('
' ' .'
' ' ) ._'
' " : _'
' " $ _'
' ! , _'
' ! ! ! ) ._'
' ! ! '
'“ _'
'’ _'
'ä'
'~ _'
'zoo'
'zie'
'zes_'
'zen'
'yw'
'yuck_'
'yuan_'
'yu_'
'yst'
'ys'
'youwe_'
'youths_'
'yon'
'yn'
'ym_'
'yg'
'yell_'
'ybut_'
'yavapai_'
'xp'
'xian_'
'x2_'
'wrongbut_'
'wrapping_'
'wrangler_'
'woth_'
'wort'
'workstation_'
'workit_'
'workingthe_'
'wording_'
'woo_'
'woo'
'wok_'
'withe_'
'withdrawn_'
'wis'
'winston_'
'winds'
'winding_'
'william_'
'will'
'wii_'
'widespread_'
'why'
'whomever_'
'wholeheartedly_'
'whistle_'
'whisper_'
'whip'
'whic_'
'wha'
'wf'
'wetherspoon_'
'wether_'
'western'
'wes'
'werethe_'
'wen'
'welsh_'
'wells'
'welcome'
'weight'
'weighing_'
'weighed_'
'weeki_'
'wed'
'wears_'
'weak'
'wea'
'waved_'
'wav'
'waterslides_'
'waterside_'
'waters'
'waterb'
'wat'
'washrooms_'
'wash'
'wase'
'wasd'
'wasa_'
'wallpaper'
'wallets_'
'waitrose_'
'waiti_'
'wage_'
'wack'
'vue_'
'vt'
'vre'
'vomit_'
'vomit'
'volcano_'
'voip_'
'vit'
'visibly_'
'visibility_'
'visa'
'violent_'
'vinyl_'
'vino_'
'vig'
'viewi'
'vid'
'vict'
'viceroy_'
'vic'
'vibrate'
'via'
'vg'
'very'
'vers_'
'verpriced_'
'verde_'
'vent'
'venerable_'
'velvet_'
'vein_'
'vegans_'
'vea'
'vd'
'vc_'
'vation_'
'vases_'
'varie'
'varia'
'var_'
'var'
'van'
'valueso_'
'valueit_'
'valuei'
'valuea'
'valets_'
'valet'
'vacationi'
'vaca'
'vac'
'uvi'
'uve'
'utt'
'utilise_'
'uta'
'usour_'
'usly_'
'usi'
'ushered_'
'ury_'
'urprisingly_'
'uro_'
'ures_'
'upsides_'
'uploaded_'
'upcoming_'
'unusual'
'unto'
'unsurprisingly_'
'unsteady_'
'unst'
'unsightly_'
'unseasonably_'
'unrea'
'unre'
'unplanned_'
'unne'
'unmade_'
'unl'
'unit'
'uniqueness_'
'uniquely_'
'uninterrupted_'
'unhurried_'
'unhe'
'ung_'
'unfounded_'
'unforgiveable_'
'unfor'
'unf'
'uneaten_'
'uneatable_'
'uneasy_'
'unduly_'
'underwear_'
'unders'
'underrated_'
'underp'
'underhand_'
'undergo_'
'unda'
'und'
'uncleared_'
'unassuming_'
'unacceptable'
'un'
'ume'
'umber'
'umb'
'ully_'
'ulate'
'uin'
'ug'
'ude_'
'uda'
'uce'
'ucci'
'ual_'
'tz'
'typing_'
'tvs'
'turnoff_'
'tulip_'
'tuck'
'tubi'
'tub'
'tte'
'tt'
'tst_'
'trysting_'
'truthfully_'
'troubles_'
'trolleys_'
'tripwe_'
'tripthe_'
'tripi'
'trigger_'
'tribute_'
'tria'
'treat'
'traveller'
'travelers'
'transpired_'
'transition_'
'transit'
'transfered_'
'transfer'
'trans_'
'tradewinds_'
'tradeshow_'
'tradeoff_'
'toyota_'
'totalling_'
'tossing_'
'tos_'
'torrential_'
'tori'
'toom'
'tongue_'
'tol'
'tok'
'toil'
'toby_'
'tobacco_'
'tob'
'toast'
'toa'
'tness_'
'tley_'
'tiv'
'titanium_'
'tired'
'tir'
'tip'
'timings_'
'timewe_'
'timeshares_'
'timeframe_'
'timea'
'tighten'
'tig'
'tick'
'thurs_'
'thumb_'
'ths'
'throwback_'
'throat_'
'thrill_'
'thread'
'thre_'
'thre'
'thoughth'
'thon_'
'thompson_'
'thist'
'thirteen_'
'thimble_'
'thicker_'
'thethe_'
'these'
'thermostats_'
'thermo'
'thereso_'
'thereby_'
'therapy_'
'therapist_'
'theatres_'
'thea'
'thatt'
'thata'
'tf'
'tether_'
'tet'
'tests_'
'terrible'
'terr'
'teppanyaki_'
'temperature'
'telford_'
'tele'
'teen'
'technogym_'
'teaspoons_'
'team'
'tched_'
'taurant_'
'tated_'
'tasti'
'taster_'
'tarrif_'
'tape'
'tap'
'tang_'
'tang'
'tampa_'
'tallahassee_'
'tall'
'tala'
'taj'
'tahitian_'
'tabs_'
'tab'
'symposium_'
'swung_'
'switch'
'swindon_'
'swim'
'swif'
'sweater_'
'swanston_'
'suspects_'
'surpise'
'surge_'
'supports_'
'supp'
'superst'
'superlative_'
'superficial_'
'superc'
'sunscreen_'
'sunroute_'
'sunk_'
'sund'
'sunborn_'
'sumpt'
'summarize_'
'sullen_'
'suede_'
'stv_'
'stuffi'
'stuff'
'stuart_'
'structures_'
'stripe'
'stringy_'
'stretches_'
'stre'
'strangest_'
'storms_'
'storeys_'
'stoo'
'stone'
'stocking_'
'stockholm'
'stirrers_'
'stirling_'
'stir'
'stipulated_'
'stink_'
'stil_'
'stickers_'
'stic_'
'sters_'
'steeply_'
'ste'
'staywell_'
'staystayed_'
'stayp'
'stayno_'
'stayhowever_'
'staygreat_'
'stayfor_'
'stayf'
'stayers_'
'stayd'
'staya'
'stat_'
'stat'
'starthe_'
'stared_'
'starbucks'
'standby_'
'standardsthe_'
'standardised_'
'standardand_'
'standar'
'standalone_'
'stairs'
'stage'
'staffbut_'
'stadtpark_'
'ssa_'
'squares_'
'spur_'
'spu'
'spruced_'
'sprinkle'
'springfield_'
'spri'
'spraying_'
'spotlights_'
'spoon'
'spontaneously_'
'sponsored_'
'spoiler_'
'splashes_'
'spilling_'
'spider_'
'spiced_'
'spic'
'spi'
'sper'
'spend'
'spencer_'
'spen'
'spectacularly_'
'specialthe_'
'speak'
'spea'
'spath'
'span'
'spades_'
'sp_'
'souvenir_'
'southbank_'
'sourdough_'
'sources_'
'sorryi_'
'sop'
'somerset_'
'soma'
'solv'
'soiled_'
'soften_'
'sod'
'sock'
'soaring_'
'snowy_'
'snowstorm_'
'snorkel_'
'snobby_'
'snobbish_'
'sno_'
'snip'
'snagged_'
'snacking_'
'smooth'
'smoke'
'smirnoff_'
'smi'
'smartly_'
'smart'
'sly_'
'slr_'
'sloped_'
'slimy_'
'slieve_'
'sleepwe_'
'sleepo'
'sleepn'
'sleepd'
'slats_'
'slap_'
'skyr_'
'skylights_'
'skye_'
'skins_'
'skiing_'
'skating_'
'skates_'
'sixt'
'sinister_'
'sincere_'
'simultaneously_'
'simple'
'silver'
'silicone_'
'sies_'
'sidewalk_'
'sideb'
'sic_'
'shuffled_'
'shu'
'shrugged_'
'shrigley_'
'showerwe_'
'showerand_'
'shoving_'
'shouted_'
'shout'
'shortbread_'
'shore_'
'shore'
'shopping'
'shook_'
'shock'
'sho'
'shiraz_'
'sheikh_'
'sharpen_'
'shake'
'sey_'
'setting'
'sett'
'serviceb'
'seri'
'seperately_'
'sep_'
'seo'
'sentence_'
'sely_'
'selfish_'
'sek'
'sefton_'
'sees_'
'seedy_'
'sed'
'sebastian_'
'searing_'
'seared_'
'seal'
'sculptures_'
'scrumptious_'
'scrubbing_'
'scri'
'screws_'
'screamed_'
'scre'
'scrapped_'
'scrape_'
'score'
'scoo'
'sch'
'sceptical_'
'scan_'
'scaffold'
'sc'
'savory_'
'savo'
'savera_'
'sausage'
'saucer_'
'saturday'
'satisfied'
'sata'
'santiago_'
'sanitary_'
'samsung_'
'sams_'
'samp'
'samey_'
'salu'
'salts_'
'salmon'
'salary_'
'sala'
'sain'
'sai'
'sahara_'
'sage_'
'saga'
'rwa'
'ruth'
'rusted_'
'runways_'
'runners_'
'ruins_'
'rubbing_'
'rubb'
'rtunately_'
'rt'
'rr_'
'rp_'
'rp'
'royce_'
'roxy_'
'rowe'
'row'
'roulette_'
'rough'
'roth_'
'rosettes_'
'rosemont_'
'roomwas_'
'roomsthere_'
'roomso'
'roomsm'
'roomsb'
'roomr'
'roomp'
'roomha'
'roomfood_'
'roomall_'
'rooftops_'
'roof'
'ront'
'romanian_'
'romania_'
'roll'
'rod'
'rocky_'
'rockliffe_'
'rockies_'
'rocco_'
'roasts_'
'roam_'
'roadtrip_'
'rm1'
'rk'
'rive_'
'riv'
'ritzy_'
'rity_'
'rit'
'risking_'
'ripp'
'rip'
'rio'
'rigid_'
'rights_'
'riff_'
'rif'
'ride'
'rices_'
'rhin'
'rewarding_'
'revisited_'
'review'
'revert_'
'rev'
'reu'
'returnbut_'
'retirement_'
'retaurant_'
'resume_'
'rests'
'restricting_'
'restrict'
'restaurantand_'
'respective_'
'respected_'
'respect'
'resistance_'
'residences_'
'rese'
'rescue_'
'required'
'replenishment_'
'repl'
'repellent_'
'repacking_'
'repack_'
'rene'
'rena'
'remodelling_'
'remodelled_'
'reme'
'religious_'
'relied_'
'relent'
'relate_'
'reindeer_'
'reheat_'
'rehab_'
'regulation_'
'regulat'
'regrettable_'
'regretfully_'
'regist'
'refuses_'
'refurbishment'
'refurb'
'refunding_'
'refresher_'
'refinement_'
'reethi_'
'rees_'
'reduces_'
'redmonds_'
'rectangle_'
'reconstruction_'
'recon'
'recomended_'
'recogniz'
'recliner_'
'reckon'
'recharging_'
'receptioni'
'rec'
'rebuild_'
'reataurant_'
'reasons'
'reasoni'
'reasonal'
'reak'
'reais_'
'reaaly_'
'rdi'
'rde'
'rav'
'ration'
'ratingthe_'
'ratewe_'
'rateo'
'ratea'
'rashe'
'ranger'
'rance_'
'rais'
'rainshower_'
'raining'
'rainforest_'
'railings_'
'raid_'
'radi'
'rable_'
'quiz'
'quite'
'quint'
'quinn_'
'quet_'
'queries_'
'quart'
'qualitybut_'
'qualitybreakfast_'
'qualityand_'
'qual'
'qantas_'
'pyramid_'
'purported_'
'puri'
'puree'
'punctual_'
'pullout_'
'pull'
'pud_'
'public'
'pti'
'prunes_'
'providence_'
'protectors_'
'protect_'
'propos'
'proportionate_'
'propertyi_'
'prong_'
'promotes_'
'projects_'
'profusely_'
'product'
'proclaimed_'
'probs_'
'probably'
'privileged_'
'privat'
'prior'
'printout_'
'princeton_'
'priceywe_'
'priceys'
'pricew'
'priceso'
'pricesh'
'priceo'
'pricel'
'pricedthe_'
'pricedi'
'prevalent_'
'prevail_'
'pret_'
'pret'
'presum'
'preserve_'
'prese'
'prepaying_'
'preparations_'
'premade_'
'pref'
'prede'
'pred'
'prat'
'ppy_'
'ppo'
'pping_'
'ppi'
'pou'
'possession_'
'positioning_'
'posada_'
'portrays_'
'porti'
'popping_'
'popp'
'pop'
'poole'
'pon_'
'politic'
'polite'
'polenta_'
'poking_'
'pointi_'
'podium_'
'pocket'
'pmo'
'pluss'
'plumbed_'
'plonked_'
'ploenchit_'
'plentiful'
'playa_'
'platinums_'
'plan'
'placewe_'
'placeth'
'placeoverall_'
'pl_'
'pir'
'pip'
'piling_'
'piled_'
'pig'
'pier'
'pied_'
'piece'
'pickles_'
'php_'
'photography_'
'photograph_'
'photo'
'phoning_'
'phon'
'phillip'
'pher'
'pheasant_'
'pha'
'ph_'
'peter_'
'pest_'
'pes'
'pert'
'personit_'
'persisted_'
'persist_'
'perr'
'permission_'
'permeates_'
'periodic_'
'perimeter_'
'pepper'
'pend'
'pel'
'peking_'
'peep_'
'peep'
'pee'
'pedi'
'pd'
'pc'
'pavillon_'
'pavillion_'
'patronising_'
'patronised_'
'patong_'
'patisserie_'
'paths_'
'pasteries_'
'passion'
'party'
'particulary_'
'parma_'
'parliament_'
'parka'
'pari'
'parfait_'
'parasol_'
'paned_'
'pane'
'pallets_'
'pairs_'
'painless_'
'paidb'
'pai'
'pad'
'packers_'
'packaging_'
'pace'
'overwhelmingly_'
'overused_'
'oversold_'
'overpricedand_'
'overp'
'overnight'
'overload_'
'overhyped_'
'overb'
'overallbut_'
'oval_'
'outwe_'
'outwards_'
'outrigger_'
'outrage_'
'outp'
'outn'
'outfitted_'
'outfit_'
'ouse_'
'ough_'
'otheri'
'ote_'
'oscars_'
'oscar_'
'oro'
'orn_'
'orma'
'orl'
'ork_'
'originality_'
'ori_'
'organize_'
'organising_'
'org'
'ore'
'ordination_'
'orbit_'
'orat'
'ora_'
'optionit_'
'optimum_'
'oozed_'
'ooo'
'oomph_'
'onto'
'ont_'
'ono'
'only'
'onbut_'
'oms_'
'omlets_'
'omani_'
'omaha_'
'olympia_'
'ols'
'okt'
'okif_'
'oke_'
'okaywe_'
'okall_'
'ohare_'
'ofthe_'
'ofit_'
'offs'
'offi_'
'offerred_'
'offering'
'offere'
'offend_'
'offe'
'offb'
'oco'
'och'
'oc_'
'obscure_'
'obs'
'oblige_'
'ob_'
'oak'
'oad'
'nylon_'
'nutrition_'
'nursing_'
'nur'
'nuclear_'
'nty_'
'nto_'
'ntal_'
'nstead_'
'novatel_'
'nov'
'nouvelle_'
'nou'
'notorious_'
'notice'
'nosy_'
'nostalgic_'
'northe'
'noo'
'nominally_'
'noisei_'
'noi'
'noc'
'nne_'
'nn'
'nk'
'njoyed_'
'nj'
'nity_'
'nitpicking_'
'nine'
'nil_'
'nightwould_'
'nightvery_'
'nightthere_'
'nightt'
'nightst'
'nightsa'
'nightp'
'nightlight_'
'nightlife_'
'nighti'
'nightho'
'nightal'
'niggling_'
'niche_'
'niceo'
'niceb'
'nibble_'
'ngton_'
'ngs'
'ngorongoro_'
'ngn'
'nfortunately_'
'newport_'
'newness_'
'new'
'neve'
'nestly_'
'nest'
'nes'
'nero_'
'neon_'
'nel'
'neig'
'necessitating_'
'necessar'
'nearing_'
'ndo'
'nding_'
'ndi'
'nch_'
'nch'
'nces_'
'ncaa_'
'nc'
'naughty_'
'natura_'
'national'
'nap'
'nan_'
'nan'
'name'
'nable_'
'naan_'
'n'
'myth'
'mysterious_'
'myself'
'museli_'
'muse_'
'murky_'
'mumbai'
'multistory_'
'mr'
'mpw_'
'movements_'
'mountain'
'mothers_'
'mosque_'
'mos_'
'morrison_'
'morocco_'
'morningo'
'morningbreakfast_'
'morninga'
'mores_'
'monty_'
'month'
'mont_'
'monorail_'
'moni'
'moneyt'
'moneyo'
'moneyal'
'monarch_'
'moi'
'modified_'
'modernis'
'moder'
'moc'
'mna'
'mix'
'mistakenly_'
'mismanagement_'
'mish_'
'misery_'
'misc_'
'minutes'
'minimize_'
'minimally_'
'miniature_'
'mingle_'
'ming'
'min'
'millers_'
'milestones_'
'mie'
'midway_'
'midl'
'middle'
'microwaves_'
'michelangelo_'
'mice_'
'mgr_'
'mgmt_'
'mezz'
'mey'
'mews_'
'metropol'
'metropark_'
'methis_'
'methinks_'
'methere_'
'methe_'
'methe'
'messing_'
'mes_'
'mercure'
'mercifully_'
'mens_'
'mend_'
'mem'
'mela_'
'meeting'
'mediocre'
'medicine_'
'mec'
'mebreakfast_'
'meatloaf_'
'meand_'
'md_'
'mbi'
'maxim'
'mauna_'
'master'
'masse'
'massage'
'masculine_'
'martin_'
'marriotti_'
'marriage_'
'marquee_'
'marque'
'maro'
'maritim_'
'marc'
'mansion_'
'maneuver_'
'mane'
'maj'
'maitre_'
'maintained'
'maid'
'mai'
'magellan_'
'm6_'
'm25_'
'lyr'
'lyi'
'lyb'
'lw'
'lute'
'lut'
'lus'
'lur'
'lugging_'
'lucky'
'luck'
'lub_'
'ltr'
'loyalist'
'lox_'
'loungew'
'louis'
'loudi_'
'lottery_'
'losses_'
'los'
'lord_'
'loosing_'
'looo'
'longi'
'longest_'
'lol'
'logistics_'
'locationthe_'
'locationi'
'loc'
'lobbyi_'
'lly'
'livingstone_'
'litt'
'litera'
'listings_'
'lis_'
'liqueur_'
'lio'
'linguini_'
'lingu'
'lincoln_'
'lifts'
'lifestyle_'
'lie'
'lids_'
'lic_'
'liar_'
'lgw_'
'lew'
'levels'
'leveli_'
'let'
'lenox_'
'lecture_'
'leclub_'
'leaks_'
'launder'
'laughter_'
'laud'
'latei_'
'last'
'lassi'
'lass_'
'laos_'
'landings_'
'lake'
'lad'
'kur'
'kp'
'kota_'
'kor'
'kne'
'kna'
'kle_'
'kiwi_'
'kitt'
'kitkat_'
'kir'
'kinzie_'
'kind'
'kimo'
'kiln_'
'kidsi'
'kho'
'kg_'
'keyboard_'
'kettle'
'kers_'
'kerala_'
'ker_'
'kenya_'
'kenn'
'ken'
'kel'
'keeper_'
'kebabs_'
'kea_'
'kb_'
'kayaks_'
'karo'
'kakadu_'
'kaanapali_'
'justifying_'
'judgment_'
'joyed_'
'jordan_'
'johnson_'
'jo_'
'jin'
'ji_'
'jetwing_'
'jetlag_'
'jerk_'
'ject'
'jd_'
'jaw_'
'jackhammer_'
'ivi'
'itt'
'itst'
'itr'
'itnot_'
'itm'
'itle_'
'itia'
'ithowever_'
'ither_'
'itf'
'iter'
'ite'
'istan'
'isn_'
'ishly_'
'isbut_'
'isan'
'isa'
'irritatingly_'
'irritat'
'irregular_'
'irre'
'irony_'
'irked_'
'ira_'
'ional'
'involve_'
'investments_'
'investigating_'
'inutes_'
'introduc'
'intrigued_'
'intri'
'intolerance_'
'inti'
'interven'
'interval_'
'inters'
'interpretation_'
'interneti'
'intern'
'intermi'
'interference_'
'intercontinentals_'
'interacted_'
'intentionally_'
'intenet_'
'intending_'
'integrated_'
'inta'
'insure_'
'insulted_'
'instructed_'
'inspector_'
'inso_'
'inso'
'insert_'
'inordinate_'
'inoperative_'
'inlcuded_'
'inherent_'
'ingw'
'ingr'
'inge'
'inga'
'indo'
'indis'
'incur_'
'incomplete_'
'inco'
'incapable_'
'inadvertently_'
'inadequately_'
'inaccessible_'
'improper_'
'impressively_'
'impresseda'
'imper'
'impa'
'immigration_'
'iment'
'imac_'
'ima'
'ilton_'
'ilk_'
'ila'
'iki'
'ik'
'igua'
'ignorant_'
'ights_'
'ige'
'ift'
'ified_'
'iff'
'if'
'ier'
'ience_'
'ien'
'identify_'
'identified_'
'ident'
'ideaw'
'ideal'
'idea'
'icke'
'ick_'
'ich'
'icc_'
'iba'
'ians_'
'ian'
'ial'
'hurrah_'
'hungary_'
'humid'
'human'
'hua'
'hter'
'hs'
'hq_'
'how'
'hover'
'housekeepers_'
'hourthe_'
'hotle_'
'hotelsi'
'hotelre'
'hotelone_'
'hotelno'
'hotelin'
'hotelf'
'hotelb'
'hotelalso_'
'hotelal'
'hospital'
'horse'
'horns_'
'hoot_'
'honeymoon'
'honesti_'
'homestead_'
'hollow_'
'holl'
'hne'
'hn'
'hly_'
'hkd1'
'hiring_'
'hir'
'hip'
'hiltona'
'hilst_'
'hight'
'highspeed_'
'highs_'
'highb'
'hig'
'hid'
'hho'
'hesitated_'
'heritance_'
'hereit_'
'herefor'
'hereb'
'henry_'
'helm'
'helicopter_'
'hein'
'hect'
'heath_'
'heat'
'hear'
'headphones_'
'headl'
'hdtv_'
'hc'
'hb'
'hazardous_'
'hazard'
'haunted_'
'hassle'
'hass'
'has'
'harvest_'
'hart'
'harrogate_'
'harrahs_'
'hardb'
'handrail_'
'handlery_'
'hampton'
'hammers_'
'hame_'
'hamburg_'
'halt_'
'hall'
'hairdryers_'
'hairdresser_'
'haggling_'
'haggle_'
'hadwe_'
'hadthe_'
'habits_'
'h10_'
'gy_'
'gv'
'gut_'
'gut'
'gus'
'gurgling_'
'gur'
'gum'
'guitar_'
'guidance_'
'guestrooms_'
'guarantee'
'growth_'
'grow_'
'grou'
'gritty_'
'grits_'
'gristly_'
'griddle_'
'greets_'
'gree'
'greatw'
'greatbut_'
'gratuities_'
'gratis_'
'gratifying_'
'gratefully_'
'grass'
'grasp_'
'gram_'
'graduation_'
'grading_'
'graci'
'grace'
'gps_'
'gpi_'
'governor_'
'gou'
'goth'
'goreng_'
'goodto_'
'goodthat_'
'goodm'
'goodh'
'goodfood_'
'goodde'
'goodco'
'goodc'
'goodb'
'goodafter_'
'gondola_'
'gon'
'golds_'
'godsend_'
'gno'
'gned_'
'glossy_'
'glories_'
'gloom_'
'gle_'
'glazing'
'glas'
'glare_'
'glanced_'
'glacial_'
'gir'
'gins_'
'gim'
'gies_'
'ghts_'
'ghe'
'gest'
'georgetown_'
'gent_'
'gent'
'gellert_'
'gei'
'gauging_'
'gaug'
'gauche_'
'gator'
'gasp'
'gam'
'gall'
'gal_'
'gadget'
'fying_'
'fy_'
'furt'
'furb'
'fur_'
'fur'
'fund_'
'fund'
'fulle'
'fue'
'frugal_'
'frontage_'
'frittata_'
'frites_'
'fringe_'
'frills'
'frightening_'
'freew'
'freak'
'frat_'
'fragrance_'
'fp'
'found'
'fou'
'forw'
'forth'
'fort'
'forget'
'forg'
'fores'
'forecourt_'
'force'
'fora'
'foot'
'fooda'
'fondant_'
'foi'
'foggy_'
'fogg'
'focal_'
'fluctuates_'
'flowed_'
'florida'
'flop_'
'flock_'
'flights'
'flavorless_'
'flashlight_'
'flare_'
'flamb'
'flakey_'
'fitzwilliam_'
'fir'
'finicky_'
'fineoverall_'
'fineo'
'finen'
'finebreakfast_'
'final'
'filtration_'
'fill'
'file'
'ffic'
'ffet_'
'feta_'
'fest'
'ference_'
'feet'
'fees'
'feed'
'fee'
'fc'
'faultbut_'
'fau'
'fatal_'
'fashionable_'
'fasci'
'farm_'
'farm'
'far'
'failings_'
'facillities_'
'facial'
'eye'
'extras'
'extrai'
'exter'
'exploration_'
'exploited_'
'expertly_'
'expert_'
'experienceso_'
'experienceo'
'experienceh'
'exper'
'expensivef'
'expensivea'
'expectedly_'
'expected'
'expecially_'
'expand_'
'exits_'
'exhibitions_'
'exhaustion_'
'exhaus'
'exercising_'
'exercise'
'execute_'
'excused_'
'excusable_'
'exclude_'
'excercise_'
'excellents'
'excellenti_'
'excecutive_'
'exca'
'ew'
'evol'
'evil_'
'everyone'
'evertheless_'
'evert'
'eveningo'
'eveningbut_'
'evel_'
'eucalyptus_'
'etihad_'
'etcwe_'
'etcthe_'
'esti'
'esthe_'
'esi'
'esh_'
'erthe_'
'erst'
'ersonally_'
'erri'
'erm'
'erl'
'erie'
'erawan_'
'eran'
'equal'
'envelopes_'
'entrances_'
'entitle_'
'enticed_'
'enthusiasts_'
'enthusiast_'
'enter'
'entails_'
'ens'
'enquiring_'
'enoughthe_'
'enjoyed'
'enjoyable'
'english'
'england'
'engagement_'
'enemy_'
'enda'
'ence'
'employ'
'empathy_'
'emitted_'
'emin'
'embarras'
'emb'
'emailing_'
'elysian_'
'elsewe'
'elses'
'els'
'elli'
'eliminated_'
'elevate_'
'electronically_'
'elbow_'
'eks_'
'eir'
'ein'
'eighties_'
'ega'
'effi'
'effecient_'
'eff'
'edthere_'
'eds'
'edit'
'eden_'
'edbut_'
'ection_'
'ecting_'
'ec_'
'ebo'
'eau_'
'eau'
'easyjet_'
'earthquake_'
'earth'
'earls_'
'eand_'
'ean'
'each'
'dwh'
'dwe_'
'duxton_'
'dust'
'dus'
'dur'
'dup'
'dun'
'dump'
'dumbe'
'dum'
'duc'
'du'
'dtw_'
'dthere_'
'drum_'
'drop'
'dresden_'
'dre'
'drastic_'
'draped_'
'drakes_'
'dour_'
'doubletree'
'dos'
'doorwe_'
'doori_'
'dollop_'
'doggie_'
'dn_'
'dl_'
'dl'
'divider_'
'dist'
'dissapoint_'
'displeasure_'
'displeased_'
'disin'
'disgust_'
'dise'
'discretion_'
'discolored_'
'disco'
'discarded_'
'disaster'
'disappointingbut_'
'disappoint'
'disappo'
'dirty'
'direct'
'dio'
'dinnerwe_'
'dinners'
'dings_'
'ding'
'diminish_'
'differing_'
'differed_'
'diff'
'dif'
'dies_'
'dictated_'
'dicta'
'diamond'
'dia_'
'dh'
'devine_'
'develop'
'dev'
'detrimental_'
'detriment_'
'detest_'
'determin'
'det'
'desp'
'desert'
'deri'
'deposits_'
'dependant_'
'depart'
'dense_'
'dens'
'demonstrate_'
'demolition_'
'demo'
'deme'
'dem'
'delphi_'
'degrees'
'deg'
'defrosted_'
'deflated_'
'defintely_'
'definitley_'
'defini'
'defines_'
'defined_'
'define_'
'definatly_'
'deer_'
'deeper_'
'deed_'
'deco'
'deceitful_'
'deca'
'deala'
'dc'
'dbut_'
'db'
'daz'
'daysa'
'dayo'
'dayit_'
'daw'
'danube_'
'danishes_'
'dang'
'dampness_'
'dam'
'cypress_'
'cynical_'
'cycled_'
'cuz_'
'cushioned_'
'curve_'
'curtly_'
'curtains'
'curling_'
'curio_'
'cupcakes_'
'cup'
'cubicles_'
'cry'
'crunch_'
'crucial_'
'crow'
'cro'
'critique_'
'criticize_'
'critic'
'cringe_'
'cried_'
'crest'
'crescent_'
'crepes_'
'creep'
'crashed_'
'cranky_'
'cramp'
'cr'
'coz_'
'coz'
'cowboy_'
'cove'
'couscous_'
'cous'
'couple'
'coup'
'counter'
'coud'
'cots_'
'costi'
'costco_'
'cornwall_'
'corkscrew_'
'cords_'
'coping_'
'coordinat'
'cooperative_'
'cooper_'
'coolness_'
'cooler'
'cooker_'
'conveyor_'
'convey_'
'convers'
'conver'
'conve'
'contributors_'
'contributor_'
'contrasting_'
'contra'
'conti'
'contend_'
'contemplating_'
'constructive_'
'const'
'consolidator_'
'conserve_'
'conservation_'
'conscience_'
'cons'
'coni'
'conform'
'confit_'
'confess_'
'conducted_'
'condu'
'concierge'
'concessions_'
'concern'
'concei'
'conc'
'comprehend_'
'composed_'
'compo'
'compliant_'
'completing_'
'complacent_'
'competative_'
'compartment_'
'community_'
'communicating_'
'commotion_'
'commodore_'
'commit_'
'commanding_'
'coml'
'comic_'
'comfortablei_'
'colo'
'collegue_'
'collar_'
'collapsed_'
'collage_'
'coldthe_'
'coffeewe_'
'coffeee_'
'cofee_'
'coeliac_'
'cocoa_'
'coco_'
'coco'
'cobwebs_'
'cob'
'coaching_'
'coa'
'clunking_'
'clinic_'
'clin'
'click_'
'cli'
'clearance_'
'cleans'
'cleanl'
'cleaning'
'cleanb'
'cle_'
'clarins_'
'cks_'
'cking_'
'cke'
'citron_'
'citizenm_'
'cir'
'cinder'
'cigars_'
'cies_'
'cie'
'ci_'
'churning_'
'church_'
'chun'
'christmas'
'christ'
'chorizo_'
'choked_'
'choicewe_'
'choiceso_'
'choicebreakfast_'
'choc'
'chobe_'
'chit_'
'chino_'
'chine_'
'chicken'
'chicago'
'chen'
'chemicals_'
'cheltenham_'
'cheeseboard_'
'cheep_'
'checke'
'cheapit_'
'cheapens_'
'chatter'
'chat'
'charter_'
'charles_'
'chargea'
'charge'
'characterful_'
'char'
'chancellor_'
'championship_'
'chamber_'
'chal'
'chai_'
'chai'
'ceviche_'
'cert'
'cerials_'
'cerial_'
'cerals_'
'centric_'
'centres_'
'centred_'
'centi'
'cen'
'celsius_'
'cell'
'ced_'
'cco'
'cca'
'caviar_'
'cautious_'
'cats_'
'catch'
'catal'
'cata'
'cast'
'casserole_'
'cas_'
'cartoon_'
'carrier_'
'carpet'
'carnival_'
'carnation_'
'career_'
'cards'
'carbon_'
'capt'
'capabilities_'
'cao'
'canaries_'
'came'
'camb'
'calorie_'
'calming_'
'calmer_'
'cali'
'cages_'
'cabernet_'
'cabaret_'
'cab'
'bv'
'butto_'
'butpr'
'butonly_'
'butits_'
'buti'
'buth'
'butg'
'butexcellent_'
'bute'
'butas_'
'busythe_'
'busyi'
'busses_'
'burritos_'
'buried_'
'bundle_'
'build'
'buffering_'
'bud_'
'buc'
'bruised_'
'bru_'
'bru'
'brook'
'broken'
'broadway_'
'broad'
'brit_'
'brighten_'
'bridal_'
'bred_'
'breath'
'breaky_'
'breaksfast_'
'breakie_'
'breakfest_'
'breakfastthey_'
'breakfastt'
'breakfastnot_'
'breakfastis_'
'breakfastif_'
'breakfasted_'
'breaka'
'breadcrumbs_'
'brea'
'brave_'
'bp_'
'boxing_'
'bow'
'boulders_'
'bothers_'
'boring'
'boon_'
'bookingthis_'
'booki_'
'boo_'
'bonuses_'
'bonn_'
'bonkers_'
'bogus_'
'boggles_'
'bog'
'boca_'
'bobs_'
'bob_'
'boardwalk_'
'bm'
'blvd_'
'bluetooth_'
'blot_'
'blooms_'
'bloom'
'blog_'
'block'
'blob_'
'blissful_'
'blended_'
'bldg_'
'blasted_'
'bisque_'
'billion'
'bik'
'biggie_'
'bew'
'betterwe_'
'betterit_'
'bettera'
'bethe_'
'bet'
'bestthe_'
'berth_'
'bert'
'bergen_'
'beni'
'benefited_'
'bemused_'
'bellhop_'
'bellevue_'
'belle_'
'believing_'
'begrudge_'
'begged_'
'beg'
'beet'
'beer'
'beefeater_'
'bee'
'bedw'
'bedth'
'bedsthe_'
'bedding'
'bedd'
'becquer_'
'bd'
'bby_'
'bbl'
'bayer'
'bay'
'batt'
'bathtub'
'bathroomi'
'bathmat_'
'batch_'
'bat_'
'bast'
'basins_'
'basing_'
'bart_'
'bart'
'bars'
'barriers_'
'barrel_'
'barm'
'barked_'
'barit_'
'bargaini_'
'barg'
'bann'
'bankside_'
'bangs_'
'bangalore_'
'band'
'bamb'
'balance'
'bake_'
'bail'
'bags'
'badthe_'
'badi_'
'badi'
'bacon'
'backw'
'backthis_'
'backpack_'
'backache_'
'bacc'
'azure_'
'az_'
'axel_'
'awfuli_'
'awareness_'
'awarding_'
'awaken_'
'awake'
'avoid'
'avid_'
'avery_'
'averagely_'
'aven'
'availing_'
'availablethe_'
'avail'
'auto'
'authoriz'
'aut'
'austrian_'
'australia'
'aunt'
'audience'
'audacity_'
'ature_'
'attracting_'
'atthe_'
'attentive'
'atte'
'attack_'
'attach'
'atop_'
'ation'
'atic_'
'athroom_'
'ately_'
'atb'
'atal'
'ata'
'assignment_'
'assets_'
'assembly_'
'aspires_'
'aso'
'asically_'
'ase'
'articles_'
'arth'
'artemide_'
'arro'
'arn'
'armed_'
'arlanda_'
'arge_'
'arei_'
'ared_'
'areathis_'
'areast'
'areaso_'
'areab'
'arctic_'
'arch_'
'aran'
'arab_'
'aquarium_'
'apron_'
'appro'
'apportioned_'
'application_'
'appl'
'appeals_'
'appartment_'
'apparent'
'api'
'aph_'
'aperitif_'
'antonio_'
'ante'
'ant'
'answer'
'another'
'annually_'
'announcements_'
'anne'
'anna_'
'ankly_'
'ankle_'
'angus_'
'ang_'
'andwould_'
'andthey_'
'andthen_'
'andth'
'andse'
'androom_'
'android_'
'andrestaurant_'
'andr'
'andina_'
'andin'
'andhotel_'
'andgreat_'
'ande'
'andcon'
'andab'
'ance'
'anal'
'anaemic_'
'amthe_'
'ams_'
'ams'
'amin'
'ami'
'amended_'
'amenable_'
'ambivalent_'
'alway_'
'althou'
'alsos'
'alp'
'alo'
'alls_'
'allowances_'
'allmy_'
'alland_'
'alla'
'ality_'
'align_'
'alfresco_'
'alexandria_'
'aldi_'
'albert_'
'albany_'
'alba'
'al'
'aksum_'
'akfast_'
'ake'
'airporta'
'airline'
'aire'
'aircondition'
'airbnb_'
'airb'
'ails_'
'ahi_'
'ah'
'aguas_'
'agreeing_'
'agi'
'agen'
'againl'
'affordability_'
'affecting_'
'aff'
'aer'
'ael'
'aed'
'ae_'
'ae'
'adver'
'advantageous_'
'adu'
'adopted_'
'admirable_'
'adjust'
'add'
'adaptors_'
'acr'
'acquire_'
'acoustic_'
'ack'
'aci'
'ache'
'accumulated_'
'accomplish'
'accomadation_'
'acce'
'ac'
'abouti'
'abi'
'abbey_'
'aba'
'a4'
'? _'
';'
':-)_'
':-'
'9i'
'950_'
'94'
'92'
'9000_'
'850_'
'85'
'84'
'83'
'747_'
'73'
'720_'
'630am_'
'600'
'5th'
'5pm_'
'5m'
'5i'
'59'
'560_'
'525_'
'50th'
'50e'
'4stars_'
'4n'
'43'
'416_'
'3m'
'395_'
'350'
'349_'
'329_'
'328_'
'30a'
'309_'
'304_'
'301_'
'2p'
'2k_'
'2a'
'256_'
'2400'
'238_'
'228_'
'210'
'20s_'
'20mins_'
'20e_'
'207_'
'206_'
'204_'
'2019_'
'201'
'2003_'
'2002_'
'1p'
'1l_'
'1k_'
'1hr_'
'1b'
'1995_'
'1985_'
'195'
'1930s_'
'1800'
'177_'
'174_'
'170'
'161_'
'15mins_'
'147_'
'141_'
'137_'
'131_'
'130'
'1200'
'111_'
'111'
'10k_'
'10a'
'100usd_'
'0h'
'0b'
'0900_'
'0800_'
'0630_'
'06'
'03'
'02'
'....'
'. )'
'-- '
'--'
'++ '
'+ ._'
'* * * _'
'* * * * '
'))'
'( '
'$+'
'!!!!'
'! )'
' … .._'
' … .. _'
' •_'
' –'
' ] '
' ? ? ) _'
' ?'
' = $ _'
' ; '
' :-) ._'
' :-(_'
' :-'
' :'
' .~ _'
' .~'
' ............_'
' ... :'
' ... - _'
' ... !_'
' .* , _'
' .* * * * * '
' .( '
' . , '
' . ! !_'
' -- '
' -( _'
' , ” _'
' ,'
' + £ _'
' * , _'
' * '
' ) -'
' ) , '
' ( ~$_'
' ( ? ) , _'
' ( ' _'
' ( ! ) , _'
' ( ! '
' ' ....'
' ' '_'
' ' !_'
' $ $ '
' " .. _'
' " .'
' " -_'
' " " _'
' !:'
' ! -_'
' ! )'
' ! ! ! ) , _'
' ! ! ! ! ! _'
' ! ! ! ! ! ! !_'
'👎 '
'い'
'、_'
'€. _'
'…_'
'—-'
'–_'
'ño'
'ê'
'zza_'
'zur'
'zucchini_'
'zu'
'zt'
'zo_'
'zl'
'zayed_'
'zation_'
'zar_'
'zar'
'zabeel_'
'yulara_'
'yucky_'
'ything_'
'ythere_'
'yth'
'yt'
'ysi'
'yra'
'yr'
'youn'
'youg'
'yorkthe_'
'yolks_'
'yog'
'yob'
'ym'
'ylan'
'yhe'
'yh'
'yer'
'yea_'
'yc'
'ybreakfast_'
'yawn'
'yat'
'xxxx'
'xx_'
'xu'
'xter'
'xt_'
'xe'
'wyoming_'
'wynn_'
'wyn'
'wrist_'
'wright_'
'wrecked_'
'wowcher_'
'would'
'woul'
'woukd_'
'woudl_'
'worthwile_'
'wortha'
'worsti'
'worm'
'worldc'
'workwe_'
'workthe_'
'workouts_'
'workmanship_'
'workedi'
'workbut_'
'worht_'
'woodland'
'wonky_'
'wonderfull_'
'wom'
'wld_'
'wives_'
'within'
'withi'
'withh'
'wither'
'witha_'
'wit'
'wiset'
'wiring_'
'winners_'
'wing'
'wineth'
'winchester_'
'wim'
'willi'
'willard_'
'wild'
'wig'
'wifithis_'
'wifes_'
'wife'
'widest_'
'wicker_'
'wholesale'
'whole'
'whis'
'whipped_'
'whining_'
'whims'
'whet'
'whelming_'
'whelmed_'
'wheeled_'
'wheelchairs_'
'wheel'
'whee'
'weth'
'weston_'
'westerner_'
'wern'
'wer_'
'wer'
'wellwe_'
'wellw'
'wellit_'
'wellbut_'
'wellbreakfast_'
'welcoming'
'welcomes_'
'weird'
'weekthe'
'weekn'
'weekit_'
'weekendthe_'
'weeds_'
'weed_'
'wedding'
'wed_'
'weav'
'wear'
'weakthe_'
'wb'
'waw'
'watts_'
'watt'
'waterw'
'waterview_'
'watertable_'
'waterpr'
'waterl'
'wateri_'
'waterford_'
'waterf'
'waterc'
'waterand_'
'waste'
'wast'
'wasps_'
'wasp'
'wasit_'
'washa'
'wasg'
'wasf'
'wasb'
'wars'
'warrior_'
'warri'
'warmest_'
'ward'
'want'
'wan'
'walnuts_'
'walled_'
'walkers_'
'walk'
'walgreens_'
'wakefield_'
'waiver_'
'wail'
'wai'
'wages_'
'waft'
'waffle'
'wad'
'waaaay_'
'vy'
'vv'
'vu_'
'vr'
'vor'
'voluntary_'
'volunt'
'voltage_'
'volleyball_'
'volcan_'
'voil'
'virtuoso_'
'virtue_'
'virtual_'
'vir'
'viq_'
'violat'
'ving'
'vinales_'
'villages_'
'viewso'
'viewb'
'vibration_'
'vibrant_'
'viand'
'vf'
'veryt'
'vertically_'
'verse'
'versailles_'
'vers'
'verr'
'vermont_'
'verge_'
'vere'
'veness_'
'vene'
'vendome_'
'velo'
'vela_'
'vei'
'vegeterian_'
'vege_'
'vegas'
'veg'
'vaue_'
'vator'
'varsity_'
'varq_'
'varietythe_'
'varadero_'
'vant'
'vani'
'vanderbilt_'
'vanda_'
'vamp_'
'valuet'
'valuer'
'valueno'
'valued'
'valuea_'
'valu'
'vall'
'validati'
'val_'
'vag'
'vacu'
'vacationer_'
'va_'
'utive_'
'ute_'
'ustic'
'ust'
'usion'
'usf'
'user'
'useful'
'used'
'useand_'
'usd200_'
'usd150_'
'usb'
'us2'
'us1'
'urni'
'urgency_'
'urd'
'urbane_'
'urban'
'upward_'
'upper'
'upl'
'uphold'
'upgradewe_'
'upga'
'upf'
'uper_'
'upcharge'
'upbut_'
'upbeat_'
'upb'
'uous_'
'uous'
'unwrapped_'
'unwell_'
'unwatchable_'
'unvar'
'untidy_'
'unti_'
'unthinkable_'
'unt_'
'unsuspecting_'
'unsuccessful'
'unso'
'unserviced_'
'unse'
'unruly_'
'unrest'
'unres'
'unrela'
'unpro'
'unpo'
'unpleasant'
'unpersonal_'
'unparalleled_'
'unpalatable_'
'unor'
'unna'
'unmi'
'unmanned_'
'unlock_'
'unloading_'
'unkept_'
'uninte'
'uninspiring'
'unimportant_'
'unh'
'unge_'
'unfort'
'unfold'
'unfi'
'unfavorable_'
'unedible_'
'undrinkable'
'undoubtably_'
'undone_'
'underutilized_'
'undertaking_'
'undert'
'understan'
'underst'
'underco'
'uncoo'
'uncontrolled_'
'uncontrollable_'
'uncomplicated_'
'uncomfortable'
'unco'
'unche'
'uncharacteristic_'
'unchanging_'
'unch_'
'uncaring_'
'uncar'
'unbranded_'
'unbiased_'
'unbel'
'unavailab'
'unanswered_'
'unadventurous_'
'unacceptably_'
'umi'
'umalu_'
'ulu'
'uli'
'ularly_'
'ular_'
'ula_'
'uite'
'uit_'
'ui_'
'uht_'
'ugliest_'
'ugl'
'ugh'
'ugg'
'uga'
'ug_'
'uf'
'ues_'
'uded_'
'udaipur_'
'uch'
'uble_'
'uat'
'ually_'
'u232_'
'tzer'
'tz_'
'type'
'twice'
'tvth'
'tus_'
'ture'
'turb'
'tuning_'
'tunately_'
'tumble_'
'tula'
'tuks_'
'tuesdays_'
'tude_'
'tto'
'tth'
'tt_'
'tsunami_'
'tst'
'tsa'
'tryi'
'trx_'
'troo'
'tripthis_'
'tripso_'
'tripo'
'tripand_'
'trim_'
'tricks_'
'trick'
'trib'
'triangles_'
'triangle_'
'trek'
'treatments'
'trea'
'tray'
'travellers'
'trat'
'trashy_'
'trash'
'traps_'
'trappings_'
'transport'
'transparency_'
'transp'
'transmit_'
'translates_'
'translate_'
'transient_'
'tran'
'trampoline_'
'tramp'
'train'
'trailfinders_'
'trailer'
'trag'
'trace_'
'toy'
'townthe_'
'tower'
'towell'
'towel'
'towe_'
'tow'
'tourist'
'tougher_'
'total'
'tor_'
'topp'
'toothe'
'toot'
'toooo_'
'tomo'
'tomat'
'tolietries_'
'tolerance_'
'tolera'
'tokyo'
'tog'
'toe'
'toc'
'toasty_'
'toastie_'
'to'
'tn_'
'tm'
'tling_'
'tives_'
'titi'
'titan'
'tis_'
'tis'
'tipp'
'tional_'
'tiona'
'tio'
'timew'
'timethe'
'timetable_'
'timesa'
'timep'
'timeoverall_'
'timeo'
'timem_'
'timeless_'
'timef'
'tim'
'tilted_'
'tile'
'tiger_'
'tiff'
'tiers_'
'tidied_'
'tides_'
'ticket'
'tht_'
'throughput_'
'throughout'
'thro_'
'thrilling_'
'threatened_'
'thoughtfully_'
'thoughi_'
'thoughb'
'thoughand_'
'thou'
'thoroughfare_'
'thorough'
'thorn'
'thomsons_'
'thiso'
'thisbreakfast_'
'thinly_'
'thingwe_'
'thingsbut_'
'thingbut_'
'thig'
'thew'
'thermidor'
'theres'
'thereno'
'therei'
'therego'
'thered'
'therebreakfast_'
'thereal'
'thereabouts_'
'therea'
'thenthe_'
'theni_'
'theme'
'theft_'
'thay_'
'thato'
'thatb'
'thann_'
'thanks'
'thames_'
'thal'
'thailand'
'tha_'
'tex'
'tethe'
'tes'
'terrified_'
'terrestrial_'
'teria'
'tentative_'
'tenne'
'tempr'
'temples_'
'tempered_'
'temperaturethe'
'temper_'
'tels_'
'teh'
'teeming_'
'tee'
'ted'
'techno_'
'techni'
'tec'
'teath'
'tear'
'teach_'
'teac'
'td'
'tbut_'
'taxed_'
'tavern'
'tatt'
'tat_'
'tat'
'tastings_'
'tastes'
'tast'
'tasman'
'task'
'tartare_'
'targeted_'
'tard'
'tara_'
'tank'
'tandoori_'
'tandard'
'tama'
'tali'
'tales_'
'talented_'
'takayama_'
'taka'
'taiwan_'
'tain'
'tactic'
'tack_'
'tablew'
'tablethe'
'tablesthe'
'tablei'
'tablecloths_'
'tabix_'
't3_'
't2_'
'syn'
'symptomatic_'
'sympathy_'
'sympathetically_'
'sympathetic_'
'symbol'
'swor'
'swol'
'swisshotel_'
'swish_'
'swin'
'swimsuit'
'swimmer_'
'swimm'
'swill'
'sweetener_'
'sweated_'
'swb_'
'swayed_'
'swansea_'
'swamp'
'sustainability_'
'sustain'
'sussex_'
'survives_'
'surreal_'
'surfcomber_'
'sureb'
'sur_'
'suppliers_'
'suppl'
'supers'
'superfluous_'
'sunway_'
'sunt'
'sunlounger'
'sunglasses_'
'sunbe'
'sunb'
'suna'
'summarised_'
'summari'
'summ'
'sultan'
'sugar'
'sug'
'sufficent_'
'sufferers_'
'sue_'
'sucking_'
'sucker'
'such'
'succinct'
'successfully_'
'succeeds_'
'suc'
'suburbs_'
'subscribed_'
'subscribe_'
'submi'
'stylist'
'stylei'
'sty_'
'stunningly_'
'stun'
'stumbled_'
'stry'
'structur'
'strongest_'
'stric'
'strat'
'straine'
'straighten_'
'strai'
'strada_'
'stormont_'
'store'
'stor'
'stopp'
'stomach'
'stll_'
'stl'
'stingi'
'stiflingly_'
'stiff'
'stick'
'stically_'
'stica'
'sthere_'
'stg_'
'stew'
'steri'
'stereo_'
'stem'
'steeper_'
'steeped_'
'steep'
'stee'
'steaming_'
'stealing_'
'stea'
'stayyou_'
'staywi'
'staythey_'
'stayth'
'stayt'
'staysa'
'stayre'
'stayon'
'stayok_'
'stayn'
'staylo'
'staying'
'stayin'
'stayhad_'
'stayex'
'staye'
'stayc'
'stayall_'
'stayal'
'statues_'
'stats_'
'statione'
'starwood'
'starview_'
'startthe_'
'startling_'
'starters'
'starsthe'
'starsbut_'
'starit_'
'starfish_'
'standardthe_'
'standardsa'
'standardized_'
'standardi'
'standardbut_'
'standarda'
'standa'
'stamps_'
'staining_'
'staid_'
'stai'
'staffw'
'staffthis_'
'staffth'
'staffin'
'staffe'
'staffand_'
'staffa_'
'stac'
'ssu'
'ssl'
'ssen'
'ssa'
'sre'
'sra'
'squire_'
'squeezy_'
'squeaking_'
'squeak'
'sque'
'squat_'
'square'
'spur'
'spro'
'spritz'
'sprinkler_'
'sprinkled_'
'springdale_'
'spre'
'spott'
'spon'
'spoilt'
'splu'
'splendour_'
'splend'
'spit'
'spelt_'
'speedier_'
'speech'
'spectac'
'spect'
'speci'
'spec'
'spaw'
'spark_'
'spared_'
'span_'
'spacing_'
'spaces'
'spabut_'
'spaa'
'souv'
'souther'
'sours_'
'soundly_'
'soun'
'souffl'
'sothe_'
'sot'
'sorr'
'sopwell_'
'soooooooo'
'sonoma_'
'sono'
'sone'
'somewherei'
'something'
'somehw'
'somehow'
'solicit'
'sole'
'soldier_'
'solarium_'
'solar_'
'soit_'
'sofitelb'
'sofa'
'sof'
'socket'
'sobe'
'soar'
'soap'
'soa'
'snuggl'
'snug_'
'snowed_'
'snoo'
'snic'
'sneeze_'
'sneak_'
'sneak'
'snaks_'
'snak'
'smudge'
'smoother_'
'smoker'
'smog_'
'smil'
'smashing_'
'smarten_'
'smallth'
'smalln'
'smacked_'
'smack_'
'slum'
'sluggish_'
'slu'
'sloww'
'slowthe_'
'slows_'
'slowbut_'
'slop_'
'slop'
'slipper'
'slip'
'sling'
'slim'
'slighty_'
'slighl'
'sleeve'
'sleepnot_'
'sleepi'
'sleeph'
'sleepf'
'slaw_'
'slav'
'slat'
'slack'
'skytrain_'
'skyrocket'
'skyland_'
'skyl'
'skirt'
'skippe'
'skill_'
'skies_'
'skate_'
'sizea'
'sively_'
'sitter_'
'siting_'
'siteso_'
'sis'
'sions_'
'sinking_'
'sink'
'singaporei'
'simon'
'sill_'
'silk_'
'silence'
'signposting_'
'signif'
'sighted_'
'sie_'
'sidew'
'sidethe_'
'sickening_'
'shuttle'
'shrub'
'shrivelled_'
'shri'
'shr'
'showerb'
'showcase_'
'shoudl_'
'shortchanged_'
'shoppe'
'shooting_'
'shoestring_'
'shire_'
'shir'
'shing'
'shield_'
'sherlock_'
'sheridan_'
'shenzhen_'
'shellfish_'
'shelled_'
'sheeted_'
'sheep_'
'shee'
'shea'
'shaved_'
'shave'
'sharp'
'shannon_'
'shampoo'
'shamethe_'
'shameless'
'shamefully_'
'shameb'
'sham_'
'sham'
'shaker_'
'shadows_'
'shabbiness_'
'sh'
'sfood_'
'sexy_'
'sewing_'
'sevice_'
'setback_'
'servicew'
'serviceso_'
'serviceon'
'serviceno'
'servicei'
'servicehow'
'servicec'
'servicea_'
'servic'
'servce_'
'servants_'
'serice_'
'serenity_'
'serai_'
'ser_'
'separates_'
'sentiment'
'sensor'
'sensi'
'sensation_'
'sens'
'semi'
'selv'
'sels'
'selective_'
'selectionit_'
'selectionb'
'sel'
'segregated_'
'seeth'
'seemd_'
'seekers_'
'seeds_'
'seed'
'securely_'
'secluded_'
'seating'
'seat'
'season'
'seam_'
'seabank_'
'seab'
'scru'
'scroll_'
'scrimp_'
'screened_'
'scrapp'
'scout_'
'scorching_'
'scooter'
'scoop_'
'school'
'scho'
'schmick'
'schm'
'schedules_'
'scenes_'
'scenario'
'sce'
'scarcely_'
'scand'
'scaled_'
'scal'
'sca'
'sc_'
'sbo'
'sb'
'sazerac_'
'saw'
'saucers_'
'satyed_'
'satisfies_'
'sap'
'sante_'
'sanit'
'sangu_'
'sang'
'sandwiche'
'sandwhich_'
'samudra_'
'sampler_'
'sampan_'
'sameness_'
'salvation_'
'sail'
'saffron_'
'safeway_'
'saf'
'sacrificing_'
'sacred_'
'sacramento_'
'sacked_'
'sac'
'sabean_'
'sab'
'ryl'
'rwanda_'
'rvi'
'rusting_'
'rupt'
'rumour'
'rumfire_'
'rumbles_'
'ruling_'
'rui_'
'ruc'
'rthis_'
'rst'
'rrr'
'rred_'
'royally_'
'rowing_'
'rove'
'route'
'rounder_'
'roundabout_'
'rotis'
'roti_'
'rot_'
'rost'
'rosewood_'
'rosewater_'
'ros'
'rope'
'rooom_'
'roon'
'roomwh'
'roomthat_'
'roomsy'
'roomss'
'roomsoverall_'
'roomsok_'
'roomsh'
'roomonly_'
'roomon'
'roomn'
'roommy_'
'roomm'
'roomli'
'roomla'
'roomi'
'roomex'
'roome'
'roomdi'
'roomd'
'roombe'
'roomb'
'romm_'
'rol'
'rode'
'rocket'
'robert'
'robbing_'
'rob'
'roared_'
'roadw'
'roach'
'roa'
'rne'
'rmally_'
'rma'
'rium_'
'riti'
'risks_'
'ripoff'
'rious_'
'rinsing_'
'rink_'
'ringit'
'rind_'
'rifi'
'ricotta_'
'rick_'
'ric_'
'rial'
'rhubarb_'
'rh_'
'revolution'
'reviewsi'
'reviewand_'
'reverberate'
'revelers_'
'reveals_'
'reveal_'
'reveal'
'returnth'
'returns_'
'retire_'
'result'
'resturan'
'rests_'
'restrict_'
'restocking_'
'resti'
'restauraunt_'
'restaurantw'
'restaurantth'
'restauranto'
'restaurantit_'
'restaurantbreakfast_'
'restaruant'
'restarant'
'resp'
'resource_'
'resortw'
'resortth'
'resonably_'
'resona'
'resisted_'
'reserve'
'rescue'
'resaurant_'
'resale_'
'rer_'
'rer'
'requisite_'
'repute'
'reputation'
'repo'
'replen'
'repeat'
'repairing_'
'repa'
'reo'
'renoir_'
'rennovation_'
'rennaisance_'
'renew_'
'remodels_'
'remo'
'remitted_'
'remake_'
'relish_'
'relieve'
'relic_'
'relativ'
'relati'
'rejuvenated_'
'rej'
'reiterat'
'regu'
'regret'
'reg_'
'reg'
'refusal_'
'refurbish'
'refuge_'
'refu'
'refrigerator'
'refridgerator_'
'refinements_'
'refer'
'reeks_'
'redwo'
'redesigned_'
'recurring_'
'recreational_'
'recr'
'recovering_'
'reconsidered_'
'reconfirmed_'
'recommendb'
'recommendation'
'recommend'
'recommen'
'recomm'
'reclin'
'recit'
'receptions_'
'receptionist'
'recently'
'receipts_'
'reccommended_'
'reccomend'
'reca'
'rebut_'
'rebrand'
'reassur'
'reasonnable_'
'reas_'
'rearrange_'
'rearrang'
'reagan_'
'rdina'
'rci'
'rbut_'
'rb_'
'ratty_'
'rattles_'
'rationali'
'ratio'
'ratingi'
'ratingb'
'rati'
'ratethis_'
'ratef'
'ratebreakfast_'
'ratch'
'raspberry_'
'rashers_'
'ras_'
'rare'
'rapids_'
'raped_'
'rap_'
'rangebut_'
'range'
'rangali_'
'rand'
'ramsey_'
'ramps_'
'ramblas_'
'rambl'
'rally_'
'rajputana_'
'rajasthan_'
'raj'
'raithwaite_'
'raisin_'
'raine'
'railroad_'
'ragged_'
'radius_'
'rade'
'rad'
'racti'
'race'
'quotes_'
'quot'
'quo_'
'quito'
'quirk_'
'quin'
'quilt'
'quietthe_'
'quieti'
'queueing_'
'queued_'
'quet'
'question'
'queing_'
'quays_'
'qualitywas_'
'qualityi'
'qualitya'
'qualit'
'qualifi'
'quai'
'quad'
'qm_'
'qi'
'qhotels_'
'pyongyang_'
'pursue_'
'purse_'
'purposesand_'
'purportedly_'
'pup'
'punched_'
'punakaiki_'
'pumped_'
'pulls_'
'puk'
'puddle_'
'pudding'
'puck'
'publicised_'
'pub'
'pts_'
'pton'
'psych'
'pseudo_'
'prudent'
'proving_'
'provincial_'
'proven'
'prov'
'protesting_'
'protested_'
'protest'
'protecting_'
'protea_'
'prosciutto_'
'propertywe_'
'propertyo'
'propertybut_'
'propertyand_'
'proper'
'prop_'
'pronounced_'
'prone_'
'promp'
'prolonged_'
'prohibit'
'progressed_'
'progress'
'profit'
'profess'
'prof'
'proc'
'problemsb'
'problemi_'
'problema'
'proble'
'probab'
'prob'
'proactive'
'proa'
'privile'
'prisons_'
'prise'
'pris'
'priorityclub_'
'prioritise'
'principe_'
'princip'
'prim'
'priciest_'
'priceyw'
'priceyth'
'priceyi'
'priceya'
'pricethis_'
'priceth'
'priceso_'
'pricenot_'
'pricemy_'
'pricei'
'pricegood_'
'priceb'
'priceall_'
'pricea_'
'preview'
'prevailing_'
'pretensions_'
'preten'
'prest'
'preset_'
'preservation_'
'present'
'prepare'
'premis'
'premiers_'
'pree'
'precor_'
'precinct_'
'precede'
'precautions_'
'pray_'
'pram_'
'prague'
'pragmatic_'
'practica'
'pr'
'pov'
'potte'
'potent'
'potable_'
'posi'
'posh'
'pose'
'pos'
'portugese_'
'portray_'
'portioned_'
'portholes_'
'portal_'
'porc'
'por_'
'poorthe_'
'pools'
'poolb'
'pooland_'
'poola_'
'poo_'
'ponds_'
'pomp'
'pomme'
'pom'
'policing_'
'polic'
'poli'
'pola'
'poison'
'pointthe_'
'pointsbreak'
'pointe'
'poh'
'pmwe_'
'pmthe_'
'pma'
'plywood_'
'plusher_'
'plummet'
'plumber_'
'plugging_'
'plesantly_'
'plentyful_'
'plent'
'pleaseda'
'please'
'plead'
'plea'
'plaz'
'platin'
'plastic'
'planters_'
'planetarium_'
'plane'
'plaice_'
'placen'
'plac'
'pk'
'pitta'
'piti'
'pitching_'
'pitcher'
'pis'
'pino'
'pines_'
'pim'
'pillow'
'pill'
'pil'
'pid'
'pichu_'
'pical'
'phrase'
'phone'
'phoenician_'
'philipp'
'philip'
'phi'
'phase_'
'petty'
'petals_'
'peta'
'peso_'
'peso'
'pervasive_'
'persuade_'
'persu'
'personthe_'
'personn'
'personal'
'pers_'
'perpetual'
'permit_'
'permit'
'permeate_'
'perish'
'peril'
'performs_'
'performer_'
'perfectl'
'perfe'
'pere'
'perch'
'perce'
'pera'
'pepperoni_'
'peoplei'
'peo'
'pentahotel_'
'pentagon_'
'pent'
'pension'
'pensa'
'penne_'
'penguin'
'penetrati'
'penetrate_'
'pencil'
'pelle'
'pelican_'
'pei'
'peg'
'peerless_'
'pedantic_'
'pect'
'peckish_'
'pec'
'pebble'
'peas'
'pealing_'
'peaches_'
'peach_'
'peace'
'peabody_'
'pavement_'
'pav'
'paul'
'patter'
'patroniz'
'patronage_'
'patr'
'patio'
'patient_'
'pathways_'
'pathumwan_'
'patched_'
'pastries'
'pasti'
'pastas_'
'passi'
'passers_'
'passageway_'
'passage'
'partneri'
'partner'
'parting_'
'partie'
'parti'
'parkway_'
'parks'
'parkingt'
'parkingi_'
'parkingb'
'paris'
'parcel_'
'parat'
'parag'
'paradisus_'
'paradi'
'panic_'
'pani'
'panelling_'
'paneling_'
'panc'
'panam'
'pana'
'palpable_'
'palm'
'palazzo_'
'palace'
'pajamas_'
'pairings_'
'paired_'
'pag'
'paddling_'
'packages'
'pacif'
'oys_'
'oxygen_'
'oxbo_'
'ox_'
'ower_'
'overwhelm'
'overw'
'overstated_'
'overslept_'
'overshadow_'
'overseas'
'override'
'overra'
'overpricedthe_'
'overpr'
'overpower'
'overpa'
'overnights_'
'overnighters_'
'overlap'
'overi'
'overhaul'
'overha'
'overgrown_'
'overco'
'overcast_'
'overbearing_'
'overallthis_'
'ove'
'outstanding'
'outso_'
'outraged_'
'outrag'
'outpost_'
'outo'
'outlets'
'outdo'
'outages_'
'oustanding_'
'ourse'
'ourg'
'ounce'
'oulton_'
'oti'
'othersi_'
'othersi'
'othe'
'ote'
'otc'
'ota'
'ostensibly_'
'oscillating_'
'osa'
'ory'
'orwe_'
'ors'
'ork'
'orient'
'organizing_'
'orev'
'ordina'
'ordered'
'ord'
'optionth'
'optionsthe_'
'optionso'
'optionsbut_'
'optioni_'
'opposi'
'operat'
'opera'
'ony'
'onthis_'
'onth'
'onsidering_'
'onlyi'
'onit_'
'onis'
'onf'
'onew'
'oneth'
'onest'
'onerous_'
'onei_'
'onea'
'onb'
'ona_'
'omni'
'omis'
'omi'
'omfortable_'
'omelette'
'oly_'
'ologi'
'olo'
'oll'
'olivia_'
'oliv'
'oldi'
'oku'
'okthere_'
'okr'
'oknot_'
'okn'
'okfood_'
'okey_'
'okd'
'okayoverall_'
'okayi'
'okaybreakfast_'
'okayand_'
'okaya_'
'okan'
'oit'
'oise_'
'oing_'
'oin_'
'oils_'
'ohio_'
'ogg'
'oge'
'often'
'ofo'
'offthe'
'offse'
'offloading_'
'offered'
'offend'
'odours_'
'odor'
'odo'
'odern_'
'odation_'
'occurance_'
'occupies_'
'obvious'
'obtrusive_'
'observ'
'obscured_'
'obl'
'objectively_'
'objectionable_'
'oas'
'oahu_'
'nyway_'
'nya'
'nutritious_'
'nutella_'
'numberi'
'numb'
'nug'
'nto'
'ntly_'
'ntial'
'nti'
'nte'
'ntary_'
'np'
'nowledge'
'novotel'
'novel_'
'noticing_'
'notch'
'nota'
'nose'
'norw'
'northwoods_'
'normali'
'nori'
'nooks_'
'nonrefundable_'
'nomi_'
'noisythe_'
'noisyso_'
'noisei'
'noir_'
'noi_'
'nodd'
'nod_'
'nod'
'noa'
'nni'
'nment_'
'nks_'
'niz'
'nitpicky_'
'nite'
'nis'
'nipp'
'nio'
'ning'
'ninety_'
'nineties_'
'nile_'
'nikki_'
'nik'
'nigth'
'nighttime_'
'nightswe_'
'nightsthis_'
'nightre'
'nightno_'
'nightmy_'
'nightmarish_'
'nightmare'
'nightin'
'nightfor_'
'nightd'
'nightco'
'nighta_'
'niggly_'
'niece_'
'nie_'
'nie'
'nico'
'nicked_'
'niceties_'
'niceno'
'nicei'
'nicea'
'nic'
'nia_'
'nhe'
'nha'
'ngthe'
'ngt'
'nge_'
'ngbut_'
'nf'
'newc'
'newb'
'netting_'
'nest_'
'ners_'
'nera'
'neptunes_'
'nephew_'
'negr'
'negotiations_'
'negotiating_'
'negativeb'
'negati'
'negated_'
'needlessly_'
'nee'
'near'
'ndow'
'ndi_'
'ndee'
'nded_'
'nci'
'nbut_'
'nb_'
'navo_'
'navi'
'natured_'
'nat_'
'narrower_'
'nam_'
'nal'
'naively_'
'nab'
'méridien_'
'myrtle_'
'myriad_'
'myeong'
'mya'
'muzak_'
'muslim_'
'music'
'mundial_'
'munch'
'mum'
'mulled_'
'muffled_'
'muffle_'
'muck_'
'muchthe'
'muchand_'
'muc'
'mpton_'
'mpt'
'mps_'
'mple'
'mpl'
'mper'
'mozzies_'
'mouthfuls_'
'mouthed_'
'mous_'
'mounti'
'mound'
'mou'
'motto_'
'moto_'
'motivated_'
'motions_'
'mossie'
'mosaic_'
'morsels_'
'morse_'
'moron_'
'morningr'
'morningh'
'mori'
'mores'
'moral_'
'mop_'
'mop'
'moot_'
'moore'
'moon'
'moo'
'monuments_'
'months'
'monte'
'montcalm_'
'monkfish_'
'mong'
'moneyr'
'moneyif_'
'moneyho'
'moneygood_'
'momo_'
'mola'
'mojitos_'
'moisture_'
'moh'
'mogan_'
'moet_'
'modul'
'moderni'
'modern'
'modell'
'model'
'modation'
'moaned_'
'moa'
'mmmmm_'
'mming_'
'mizzen_'
'mitt'
'mit_'
'missi'
'misnomer_'
'misinformed_'
'misg'
'miscommunication_'
'misc'
'mirrored_'
'mire'
'mirage_'
'minority_'
'minor'
'minn'
'minist'
'minimise_'
'minimal'
'minh_'
'milling_'
'mik'
'midge'
'microscopic_'
'mick'
'mic'
'mgallery_'
'mfortable_'
'mezzo_'
'metallic_'
'met'
'mess'
'mers'
'merger_'
'mercy_'
'merchandise_'
'merce'
'menzies_'
'menuthe_'
'menubut_'
'mention'
'mental'
'men'
'memorabl'
'memberthe_'
'memberi_'
'melons_'
'melia'
'melaka_'
'mega'
'mee'
'medit'
'media'
'mechani'
'meb'
'meas'
'meanness_'
'meani'
'mealsi_'
'meali'
'meadows_'
'mead'
'mea'
'mbit_'
'mayflower_'
'maybe'
'maximize_'
'maximiz'
'mauritius_'
'mau'
'matt'
'matin'
'math_'
'materialised_'
'mat'
'maswik_'
'masseuse_'
'mass'
'maspalomas_'
'masked_'
'marshmallows_'
'marriottth'
'markt_'
'marke'
'mario'
'marin'
'mardi_'
'marcos_'
'marchi'
'mapi_'
'manyara_'
'many'
'mantra_'
'mant'
'manning_'
'mann'
'manger_'
'mange'
'mandar'
'manchesteri'
'managment_'
'managerial_'
'mana'
'malt'
'malbec_'
'malay_'
'makati_'
'makan'
'mak'
'majorly_'
'mainten'
'maine_'
'maha'
'magnitude_'
'madison_'
'maddening_'
'macy'
'machines'
'lys'
'lv_'
'luxuryi'
'luxor'
'luxe'
'lured_'
'lun'
'luckily'
'lte'
'lse'
'lowi'
'lovelyb'
'lounges'
'lough_'
'louge_'
'loudthe_'
'loudness_'
'loser'
'loop'
'looking'
'londons'
'londoni_'
'logy_'
'log'
'lodged_'
'lock'
'locationo'
'locationbreakfast_'
'locational'
'locat'
'localiz'
'lobbywe_'
'lobbythis_'
'lobbythe_'
'lobbys'
'lobbybreakfast_'
'lobbyand_'
'lob'
'lne'
'lk'
'lj'
'livid_'
'liver_'
'live'
'lish_'
'lise'
'lira_'
'lipstick_'
'lini'
'linger'
'liners_'
'limitless_'
'limit'
'limes_'
'limerick_'
'lime'
'liking'
'likei'
'likea'
'lightsw'
'lighting'
'lighthouse_'
'lighten_'
'lighted_'
'lightbulbs_'
'lifefitness_'
'lid'
'liar'
'liability_'
'lho'
'lh'
'lg'
'lex'
'lever_'
'leva'
'lest_'
'lenny_'
'len'
'lemongrass_'
'leith_'
'legitimate_'
'legit_'
'legi'
'lege'
'legally_'
'lega'
'lect'
'learning_'
'leakage_'
'leaf'
'lazin'
'laze_'
'layover'
'lavender_'
'laundrette_'
'launch'
'laughed_'
'latte'
'lathe'
'later'
'latche'
'lasts_'
'lashings_'
'laser_'
'lark'
'lansdowne_'
'lang'
'lancaster_'
'lana'
'lampshade_'
'lamb'
'lam'
'lal'
'lak'
'laguardia_'
'lady'
'lad_'
'lacking'
'lack'
'lac'
'lable_'
'label'
'la'
'kovalam_'
'kos'
'kop'
'kok'
'knox'
'knowwe_'
'known'
'knowingly_'
'knowi'
'knocks_'
'knobs_'
'kn'
'km'
'kly_'
'klu'
'klia_'
'kli'
'kla'
'kl'
'kk_'
'kk'
'kitsch_'
'kipper_'
'kins'
'kinks_'
'kidd'
'kiama_'
'khmer_'
'kf'
'keys'
'kettles_'
'ket_'
'kerb'
'keni'
'kelloggs_'
'kell'
'keep'
'kbps_'
'kas'
'kand'
'kamp_'
'kal'
'kahala_'
'jutt'
'jus_'
'jumper_'
'jumbo_'
'jul'
'juic'
'jpy_'
'jor'
'john'
'jog'
'jets'
'jenny_'
'jee'
'jean_'
'jason_'
'jas'
'japan'
'jap'
'jal'
'jai'
'jackhammering_'
'ja_'
'izing_'
'ize'
'iza'
'iz'
'iw'
'ivor'
'iv_'
'iu'
'itythe_'
'ity'
'itwhen_'
'itwhat_'
'itwas_'
'itthere_'
'itthat_'
'itse'
'iton'
'itive_'
'itison_'
'ition'
'iting_'
'itin_'
'ithe'
'itgood_'
'itg'
'iterat'
'itemsi'
'isth'
'ista'
'issuethe_'
'issuesth'
'issa'
'isle_'
'island'
'isk_'
'isation_'
'isa_'
'irs'
'irritates_'
'ironb'
'iron'
'ips'
'ipat'
'ipa'
'ioned_'
'inyo'
'invest'
'inventive_'
'intru'
'intr'
'intolerant_'
'intolerably_'
'inthis_'
'interviews_'
'interruptions_'
'interrupti'
'interrupt_'
'interrogat'
'interpret'
'internetwe_'
'interneto'
'internetb'
'intermitt'
'interl'
'interfered_'
'intercon'
'intercom'
'interactions_'
'interact_'
'inter'
'intensi'
'integrity_'
'insulate'
'insu'
'insti'
'inst'
'insight_'
'inserted_'
'inse'
'inquir'
'input_'
'inoverall_'
'inoperable_'
'ino_'
'innw'
'innth'
'inno'
'innh'
'innbut_'
'inj'
'init'
'ining_'
'inho'
'inhibit'
'inha'
'ingu'
'ington'
'ingth'
'ingo'
'ingit_'
'ingin'
'ingbut_'
'infi'
'infer'
'infe'
'inex'
'inet'
'inescapable_'
'ines'
'inen'
'ineffectual_'
'indulged_'
'inducing_'
'induced_'
'indoor'
'indig'
'indic'
'indians_'
'indescribabl'
'indent'
'ind_'
'ind'
'incu'
'incorporate_'
'inconveniencing_'
'inconsistencies_'
'incon'
'includedw'
'includedthe_'
'incident'
'inci'
'incentives_'
'inbreakfast_'
'inbound_'
'inbetween_'
'inattentive_'
'inated_'
'inat'
'inan'
'improve'
'impro'
'imposed_'
'impose_'
'important'
'impo'
'implies_'
'implication'
'implemented_'
'implement_'
'implement'
'imperfections_'
'imped'
'impatient_'
'impaired_'
'impacts_'
'imo'
'imitation_'
'imes_'
'iment_'
'imbalance_'
'illustrate_'
'illustrate'
'illusion_'
'illuminati'
'illu'
'illogical_'
'illo'
'illeg'
'ild'
'iin'
'ihc_'
'ih'
'ign_'
'igi'
'ify_'
'ifies_'
'iet'
'ided_'
'icehotel_'
'icate_'
'icat'
'ican'
'ical_'
'ica_'
'ibility_'
'ibahn_'
'hypnos_'
'hygienic_'
'hybrid_'
'hwe_'
'hutch_'
'hur'
'humor_'
'hummed_'
'humiliating_'
'humiliated_'
'humidifier_'
'humans_'
'huf'
'hue_'
'hudson_'
'hu_'
'hre'
'hovering_'
'hov'
'hous'
'hourst'
'hound'
'hotwe_'
'hots'
'hoto'
'hoti_'
'hotelwi'
'hotelwh'
'hotelwell_'
'hoteltonight_'
'hotelsthis_'
'hotelstayed_'
'hotelss'
'hotelsp'
'hotelsbut_'
'hotelsand_'
'hotelour_'
'hotelopia_'
'hotelon_'
'hotellet_'
'hotell'
'hotelhotel_'
'hotelfr'
'hotelde'
'hotelco'
'hotelclub_'
'hotdog_'
'hotand_'
'hotal_'
'hostel'
'horrifically_'
'horrid'
'horou'
'horn_'
'hore'
'hor_'
'hoppe'
'hopelessly_'
'hooray_'
'hoop'
'honors'
'honeymooners_'
'honeycomb_'
'honestly'
'homew'
'homes'
'holmes_'
'hollins_'
'holidaysthe_'
'holidays'
'holidaying_'
'holder'
'hold'
'hok'
'hoi'
'hogging_'
'hog'
'hofn_'
'hof_'
'hoe'
'hob_'
'hob'
'hoards_'
'hoa'
'hitch_'
'hio'
'hinder'
'hiltonwe_'
'hiltonthis_'
'hiltonsi_'
'hiltons'
'hiltone'
'hight_'
'highi_'
'hideaway_'
'hid_'
'hickory_'
'hibiscus_'
'hhonors'
'hhh'
'hest'
'hes_'
'hert'
'herself_'
'hereinternet_'
'hereg'
'hered'
'herea_'
'herbs_'
'height'
'hee'
'hedge_'
'heavi'
'heave'
'heate'
'heartburn_'
'heap_'
'headquarters_'
'headaches_'
'hea'
'havn'
'having'
'haunt_'
'hates_'
'hatch_'
'hash'
'harrison_'
'harr'
'harpist_'
'harp'
'harge'
'hare'
'hardwood_'
'hardness_'
'harass'
'hara'
'har_'
'hapuna_'
'happ'
'hant'
'hansar_'
'hangs_'
'hanged_'
'handsome_'
'handful'
'handbasin_'
'han_'
'hammer'
'hamb'
'hama'
'halves_'
'halloumi_'
'hallmarks_'
'hale'
'hail_'
'hadrians_'
'hadit_'
'hacienda_'
'habitable_'
'habarana_'
'habana_'
'hab'
'gymth'
'guys'
'gusts_'
'gust'
'gushing_'
'gum_'
'guin'
'guilt_'
'guides_'
'guid'
'gui'
'guestsa'
'guesti'
'guesthouse_'
'gues_'
'guar'
'gst_'
'gs'
'grunt'
'grung'
'grudge_'
'grouping'
'grot'
'groom'
'grohe_'
'groan'
'grisly_'
'grinding_'
'grinder'
'grimy_'
'griffin'
'grievance'
'greatso_'
'greats_'
'greats'
'greatho'
'grea'
'graze'
'gravel'
'grave'
'grate_'
'grasp'
'graph'
'grandsons_'
'grandest_'
'grana'
'grains_'
'grafton_'
'gradually_'
'gr'
'govt_'
'govern'
'gov'
'gouges_'
'gothic_'
'gorilla_'
'goodw'
'goodth'
'goodso'
'goodroom_'
'goodrea'
'goodr'
'goodo'
'goodnight_'
'goodhotel_'
'goodhad_'
'goodgreat_'
'goodf'
'goodexcellent_'
'goode'
'gooddi'
'goodbye_'
'goodas_'
'goodalso_'
'gonder_'
'gol'
'goe'
'gnocchi_'
'gne_'
'gne'
'gna'
'glutt'
'glutinous_'
'glued_'
'gloo'
'glob'
'glo'
'glassw'
'glamourous_'
'glam_'
'glad'
'glacially_'
'gla'
'given'
'give'
'gimi'
'gill_'
'giggling_'
'gic'
'gi_'
'ghosts_'
'ghl'
'ghan'
'ggy_'
'ggle'
'gge'
'gg'
'gf'
'gey'
'getwe_'
'geti_'
'germans_'
'geous'
'genev'
'generating_'
'generate_'
'generally'
'gener'
'gems_'
'gelat'
'gear'
'gc_'
'gazing_'
'gaze'
'gaz'
'gatwick'
'gate'
'gast'
'gary_'
'garner'
'garde'
'garcia_'
'garb'
'garages_'
'gaping_'
'gang'
'gan_'
'galveston_'
'galling_'
'galley_'
'gall_'
'gale'
'futurew'
'futurei_'
'futile_'
'fuse_'
'fus'
'furniture'
'func'
'fty_'
'fts_'
'fto'
'fry'
'frustrations_'
'frustratingly_'
'fruitthe'
'fruits'
'fru'
'fronting_'
'frontier_'
'frontenac_'
'fresco_'
'frei'
'freea'
'freaking_'
'freaked_'
'franchise'
'framed_'
'frag'
'fra_'
'fourt'
'foundry_'
'fot_'
'forward'
'forthe_'
'forgo_'
'forgetful_'
'forecast_'
'fora_'
'foots'
'footing_'
'footer_'
'footb'
'fools_'
'foodthere_'
'foodp'
'foodh'
'font_'
'follow'
'folio_'
'fodder_'
'focusing_'
'focuses_'
'fobbed_'
'fn'
'flyer_'
'fly'
'flush'
'flower'
'flour'
'florentine_'
'floorno'
'floorboard_'
'floorb'
'floo'
'floats_'
'float_'
'flo_'
'flipped_'
'flip'
'flightthe'
'flickering_'
'fled_'
'fleas_'
'flasks_'
'flashes_'
'flash'
'flapjacks_'
'flannels_'
'flan'
'flaking_'
'flagged_'
'flag'
'fixe_'
'fitt'
'fitout_'
'fishy_'
'fisherman_'
'fisher'
'fishcakes_'
'fishbone'
'firmness_'
'firew'
'fio'
'fins'
'finnish_'
'finished'
'finethere_'
'fineso_'
'fines'
'finegood_'
'finea'
'fina'
'filtering_'
'fillets_'
'filini_'
'fijian_'
'fiit'
'figur'
'fight'
'fig'
'fib'
'fhr_'
'fever_'
'fett'
'fetch_'
'fess'
'fenway_'
'fenc'
'fen'
'fect'
'feasible_'
'fd_'
'fb'
'favoured_'
'favour'
'favor'
'favola_'
'faults'
'faultit_'
'fatt'
'fatigue'
'fastpass_'
'fashioned'
'farmer_'
'farewe'
[...]
