'<pad>'
'<EOS>'
'<GO>'
'<OOV>'
'<DOC>'
'</DOC>'
'the_'
' ._'
'and_'
' , _'
'was_'
'a_'
'room_'
'very_'
'rooms_'
'with_'
'is_'
'are_'
'in_'
'comfortable_'
'to_'
'of_'
'but_'
'nice_'
'hotel_'
'bed_'
'it_'
'were_'
'bathroom_'
'good_'
'for_'
'i_'
'we_'
'large_'
'had_'
'spacious_'
' - _'
'well_'
'clean_'
'small_'
'not_'
'our_'
'on_'
'as_'
'that_'
'shower_'
'this_'
'beds_'
'modern_'
'great_'
'have_'
' ( _'
'size_'
'you_'
'which_'
'all_'
'my_'
'at_'
'there_'
'so_'
'an_'
'no_'
't_'
'big_'
'n_'
'be_'
'one_'
'from_'
'quite_'
'really_'
's_'
''_'
'lovely_'
' '_'
'they_'
'view_'
'floor_'
'breakfast_'
'quiet_'
'excellent_'
'huge_'
'appointed_'
'has_'
'old_'
'tv_'
' !_'
'would_'
'bath_'
'standard_'
'out_'
'comfy_'
' ) _'
'stay_'
'two_'
'suite_'
'like_'
'little_'
'bit_'
'area_'
'did_'
'fine_'
'stayed_'
'amenities_'
'could_'
' / _'
'staff_'
'than_'
'night_'
'also_'
'if_'
' . _'
'just_'
'bathrooms_'
'some_'
'only_'
'more_'
'bedroom_'
'up_'
'service_'
'king_'
'2_'
'too_'
'everything_'
'pillows_'
'space_'
'or_'
'been_'
'new_'
'itself_'
'decor_'
'ok_'
'water_'
'need_'
'although_'
'pool_'
' " _'
'dated_'
'enough_'
'quality_'
'equipped_'
'by_'
' ) ._'
'when_'
'other_'
'air_'
'even_'
'basic_'
'however_'
'beautiful_'
'facilities_'
'double_'
'decent_'
'decorated_'
' & _'
'though_'
'pretty_'
'do_'
'over_'
'coffee_'
'adequate_'
'hot_'
'extremely_'
'sized_'
'free_'
'high_'
'here_'
'nicely_'
'furniture_'
'get_'
'much_'
'bar_'
'separate_'
'sleep_'
'lobby_'
'what_'
'place_'
' : _'
'tiny_'
'most_'
'time_'
'overall_'
'desk_'
'us_'
'better_'
'food_'
' ; _'
'plenty_'
' ' _'
'hotels_'
'can_'
'balcony_'
'towels_'
'first_'
'_'
'wifi_'
'tub_'
'furnished_'
'toiletries_'
'style_'
'about_'
'door_'
'still_'
'tired_'
'me_'
'average_'
'got_'
'etc_'
'luxurious_'
'fridge_'
'dark_'
'friendly_'
'your_'
'views_'
'work_'
'toilet_'
'nights_'
'functional_'
'its_'
'feel_'
'super_'
'property_'
'both_'
'lounge_'
'3_'
'windows_'
'window_'
'found_'
'expect_'
'nothing_'
'after_'
'being_'
'looked_'
'side_'
'location_'
'top_'
'open_'
'4_'
'day_'
'light_'
'rather_'
'down_'
'soft_'
'gym_'
' ) , _'
'5_'
'into_'
'maintained_'
'full_'
'upgraded_'
'use_'
' ... _'
'needed_'
'design_'
'made_'
'noise_'
'restaurant_'
'fantastic_'
'kitchen_'
'furnishings_'
'lots_'
'price_'
'star_'
'check_'
'flat_'
'tea_'
'screen_'
'warm_'
'fairly_'
'wall_'
'building_'
'again_'
'booked_'
'any_'
'amazing_'
'walls_'
'needs_'
'off_'
'best_'
'renovated_'
'lighting_'
'areas_'
'many_'
'while_'
'conditioning_'
'wonderful_'
'around_'
'safe_'
'sofa_'
'next_'
'queen_'
'look_'
'sink_'
'business_'
'living_'
'walk_'
'felt_'
'their_'
'bedding_'
'executive_'
'given_'
'noisy_'
'pressure_'
'hard_'
'people_'
'looking_'
'because_'
'worn_'
'back_'
'bright_'
'outside_'
'standards_'
'typical_'
'will_'
'table_'
'worked_'
'fresh_'
'._'
'designed_'
'1_'
'updated_'
'including_'
'cold_'
'single_'
'expected_'
'especially_'
'pleasant_'
'touch_'
'every_'
'upgrade_'
'usual_'
'recently_'
'make_'
'linens_'
'way_'
'chair_'
'poor_'
'inn_'
'smaller_'
'marriott_'
'stylish_'
'perfect_'
'extra_'
'kept_'
'where_'
'mattress_'
'see_'
'chairs_'
'closet_'
'mini_'
'helpful_'
'looks_'
'them_'
'reception_'
'hilton_'
'bad_'
'few_'
' ,_'
'club_'
'family_'
'd_'
'lot_'
'deluxe_'
'then_'
'carpet_'
'bedrooms_'
'provided_'
'ever_'
'always_'
'does_'
'thin_'
'beautifully_'
'internet_'
'long_'
'same_'
'roomy_'
'included_'
'luxury_'
'available_'
'microwave_'
'seemed_'
'sitting_'
'city_'
'larger_'
'plus_'
' ..._'
'having_'
'dining_'
'twin_'
'ready_'
'find_'
'spa_'
'think_'
'used_'
'inside_'
'cool_'
'say_'
'put_'
'slept_'
'suites_'
'floors_'
'level_'
'buffet_'
'reasonable_'
'second_'
'said_'
'experience_'
'uncomfortable_'
'perfectly_'
'front_'
'each_'
'corner_'
' -- _'
'cramped_'
'making_'
'am_'
'special_'
'working_'
'older_'
'done_'
'choice_'
'before_'
'such_'
'public_'
'- _'
'another_'
'elegant_'
'thought_'
'glass_'
'actually_'
'should_'
'without_'
'morning_'
'doors_'
'bathtub_'
'during_'
'want_'
'ceiling_'
'refurbished_'
'main_'
'things_'
'reasonably_'
'ac_'
'resort_'
'definitely_'
'smell_'
'days_'
'curtains_'
'four_'
'superior_'
'three_'
'go_'
'interior_'
'overlooking_'
'above_'
'condition_'
'years_'
'apartment_'
've_'
'storage_'
'since_'
'superb_'
'probably_'
'rate_'
'loved_'
'’_'
'bigger_'
'unit_'
'compact_'
'last_'
' -_'
'airport_'
'slightly_'
'absolutely_'
'almost_'
'these_'
'value_'
'selection_'
'set_'
'never_'
'layout_'
'now_'
'cozy_'
'outdated_'
'con_'
'showers_'
'despite_'
'told_'
'refrigerator_'
'sheets_'
'right_'
'different_'
'parking_'
'contemporary_'
'except_'
'machine_'
'renovation_'
'low_'
'wardrobe_'
'gorgeous_'
'spotless_'
'through_'
'channels_'
'-_'
'firm_'
' ’_'
'massive_'
'london_'
'hear_'
'sure_'
'arrived_'
'problem_'
'comfort_'
'paid_'
'end_'
'linen_'
'certainly_'
'close_'
'complimentary_'
'due_'
'between_'
'part_'
'thing_'
'somewhat_'
'went_'
'whole_'
'temperature_'
'seen_'
'enjoyed_'
', _'
'located_'
'fabulous_'
'holiday_'
'staying_'
'fan_'
' $ _'
'sea_'
'throughout_'
'impressive_'
'left_'
'relatively_'
'head_'
'access_'
'sleeping_'
'once_'
'away_'
'how_'
'seating_'
'marble_'
' ., _'
'simple_'
'brand_'
'who_'
'particularly_'
'e_'
'far_'
'cosy_'
'fittings_'
'sound_'
'class_'
'times_'
'least_'
'couple_'
'c_'
're_'
'early_'
'type_'
'rest_'
'maker_'
'airy_'
'lights_'
'guest_'
' .. _'
'6_'
'white_'
'efficient_'
'expensive_'
'attractive_'
'european_'
'asked_'
'common_'
'tastefully_'
'newly_'
'wood_'
'laid_'
'guests_'
'cheap_'
'loud_'
'seems_'
'fashioned_'
'fitness_'
'kitchenette_'
'those_'
'may_'
'facing_'
'something_'
'drinks_'
' )_'
'ocean_'
'junior_'
'spotlessly_'
'yet_'
'heating_'
'came_'
'liked_'
' ! _'
'conference_'
'facility_'
'evening_'
'yes_'
'décor_'
'real_'
'ample_'
'going_'
'otherwise_'
'dinner_'
'compared_'
'money_'
'offered_'
'equipment_'
'fact_'
'wi_'
'getting_'
'updating_'
'either_'
'under_'
'couch_'
'carpets_'
'dirty_'
'motel_'
'iron_'
'come_'
'age_'
'okay_'
' ! !_'
'fi_'
'took_'
'easy_'
'trip_'
'fixtures_'
'surprised_'
'fully_'
'checked_'
'meeting_'
'powerful_'
'short_'
'm_'
'nt_'
'corridors_'
'seem_'
'less_'
'unfortunately_'
'stocked_'
'pillow_'
'non_'
' ?_'
'arrival_'
'swimming_'
'others_'
'accommodation_'
'kids_'
'hallways_'
'andthe_'
'mirror_'
'own_'
'impressed_'
'10_'
'park_'
'jacuzzi_'
'restaurants_'
'enormous_'
'disappointed_'
'keep_'
'must_'
'ground_'
'take_'
'normal_'
'touches_'
'generally_'
'several_'
'issue_'
'sit_'
'person_'
'opened_'
'premier_'
'grand_'
'broken_'
'board_'
'let_'
'limited_'
'river_'
'maybe_'
'ca_'
'know_'
'love_'
'luggage_'
'near_'
'housekeeping_'
'pleased_'
'awesome_'
'street_'
'year_'
'else_'
'pay_'
'might_'
'garden_'
'ceilings_'
'able_'
'feels_'
'products_'
'across_'
'offer_'
'fit_'
'incredibly_'
'y_'
'grounds_'
'kind_'
'outdoor_'
'power_'
'aircon_'
'courtyard_'
'run_'
'turn_'
'world_'
'refurbishment_'
'relaxing_'
'fluffy_'
'system_'
'anything_'
'shape_'
'lit_'
'hair_'
'home_'
'generous_'
'move_'
'feeling_'
'per_'
'worth_'
'together_'
'spent_'
'odd_'
'until_'
'rain_'
'classic_'
'outstanding_'
'complete_'
'give_'
'fast_'
'/_'
'cleanliness_'
' ...._'
'recommend_'
'makes_'
' .- _'
'gave_'
'welcome_'
'issues_'
'general_'
'dryer_'
'shampoo_'
'curtain_'
'visit_'
'ed_'
'robes_'
'strange_'
'chain_'
'nicer_'
'hours_'
'ask_'
'pm_'
'slippers_'
'outlets_'
' .._'
'terrible_'
'change_'
'plush_'
'lack_'
'acceptable_'
'indeed_'
'surprisingly_'
'course_'
'newer_'
'conditioner_'
'control_'
'why_'
'apart_'
'ing_'
'westin_'
'elevators_'
'completely_'
'barely_'
'whilst_'
'turned_'
'paint_'
'smallish_'
'half_'
'tidy_'
'soap_'
'decoration_'
'places_'
'traditional_'
'below_'
'cons_'
'ours_'
'welcoming_'
'convenient_'
'order_'
'entire_'
'elevator_'
'built_'
'tvs_'
'difficult_'
'fitted_'
'counter_'
'paper_'
'late_'
'upon_'
'works_'
' £ _'
'cleaned_'
'heated_'
'moved_'
'nyc_'
'minibar_'
'along_'
'pools_'
'stunning_'
'lodge_'
'busy_'
'he_'
'week_'
'date_'
'priced_'
'wooden_'
'pleasantly_'
'center_'
'tight_'
'features_'
'classy_'
'higher_'
'beach_'
'wet_'
'hallway_'
'corridor_'
'charge_'
'wide_'
'heat_'
'clothes_'
'properly_'
'kettle_'
'private_'
'perhaps_'
'wanted_'
' – _'
'smart_'
'smoking_'
'cabin_'
'number_'
'sufficient_'
'middle_'
'allocated_'
'strong_'
'television_'
'requested_'
'instead_'
'clearly_'
'minutes_'
'charm_'
'wing_'
'house_'
'wife_'
'points_'
'awful_'
'sinks_'
'coming_'
'30_'
'five_'
'art_'
'tasteful_'
'ago_'
'spread_'
'black_'
'vanity_'
'worst_'
'totally_'
'reviews_'
'previous_'
'themselves_'
'showing_'
'disappointing_'
'exceptionally_'
'onto_'
'update_'
'hanging_'
'towel_'
'ironing_'
'stained_'
'wear_'
'hyatt_'
'hand_'
'options_'
'sauna_'
'range_'
'7_'
'problems_'
'items_'
'surprise_'
'shabby_'
'studio_'
'ones_'
'badly_'
'atmosphere_'
'point_'
'deal_'
'presented_'
'notch_'
'major_'
'changed_'
'attention_'
'8_'
'terrace_'
'spectacular_'
'someone_'
'similar_'
'member_'
'duvet_'
'stuffy_'
'roof_'
'fireplace_'
' .( _'
'immaculate_'
'cleaning_'
'poorly_'
'cost_'
'flight_'
'fancy_'
'dressing_'
'smallest_'
'balconies_'
'central_'
'hour_'
'considering_'
'job_'
'biggest_'
'call_'
'heavenly_'
'hairdryer_'
'appreciated_'
'slow_'
'lift_'
'try_'
'happy_'
'menu_'
'overnight_'
'drawers_'
'weekend_'
'en_'
'trendy_'
'fruit_'
'character_'
'everywhere_'
'inviting_'
'easily_'
'walking_'
'past_'
'exceptional_'
'stars_'
'children_'
'regular_'
'narrow_'
'within_'
'obviously_'
'mattresses_'
'plug_'
'patio_'
'indoor_'
'chic_'
'terms_'
'sheraton_'
'smelled_'
'spaces_'
'hall_'
'enjoy_'
'. _'
'simply_'
'tables_'
'hampton_'
'missing_'
'meant_'
'variety_'
'group_'
'offers_'
'tower_'
'book_'
'deep_'
'wine_'
'overlooked_'
'third_'
'quick_'
'leave_'
'fair_'
'original_'
'tiles_'
'stand_'
'prices_'
'mine_'
'closed_'
'brown_'
' .... _'
'expectations_'
'steam_'
'return_'
'served_'
'complaints_'
'booking_'
'bedside_'
'lacking_'
'drink_'
'complaint_'
'case_'
'road_'
'car_'
'20_'
'upscale_'
'ultra_'
'taste_'
'boutique_'
'wash_'
'unique_'
'funky_'
'entrance_'
':_'
'request_'
'appeared_'
'accommodations_'
'relax_'
'lower_'
'daily_'
'provide_'
'english_'
'using_'
'remodeled_'
'thick_'
'already_'
'show_'
'called_'
'phone_'
'maintenance_'
'lake_'
'( _'
'units_'
'nespresso_'
'adults_'
'received_'
'quirky_'
'help_'
'centre_'
'bottle_'
'w_'
'heater_'
'heard_'
'plastic_'
'charming_'
'villa_'
'replaced_'
'pictures_'
'sliding_'
'basically_'
'sun_'
'europe_'
'budget_'
'start_'
'interesting_'
'sort_'
'plugs_'
'machines_'
'later_'
'key_'
'cubicle_'
'website_'
'albeit_'
'station_'
'block_'
'musty_'
'smoke_'
'finally_'
'stains_'
'amount_'
'behind_'
'required_'
'addition_'
'sleek_'
'hardly_'
'delicious_'
'2nd_'
'privacy_'
'expecting_'
'wallpaper_'
'feature_'
'meal_'
'o_'
'negative_'
'll_'
'crowded_'
'site_'
'disappointment_'
'impression_'
'ensuite_'
'electric_'
'choices_'
'bottles_'
'terrific_'
'properties_'
'usually_'
'square_'
'atrium_'
'wait_'
'neat_'
'box_'
'workout_'
'keeping_'
'spend_'
'/ _'
' + _'
'seperate_'
'minor_'
'guess_'
'attentive_'
'reading_'
'exactly_'
'means_'
'gold_'
'pull_'
'l_'
'basin_'
'horrible_'
'stuff_'
'seat_'
'novotel_'
'ly_'
'sockets_'
'reason_'
'watch_'
'lacked_'
'worse_'
'weird_'
'read_'
'plain_'
'bathrobes_'
'placed_'
'eat_'
'travel_'
'snacks_'
'rustic_'
'proper_'
'crisp_'
'feet_'
'ibis_'
'drawer_'
'15_'
'taken_'
'round_'
'york_'
'premium_'
'detail_'
'option_'
'husband_'
'necessary_'
'tried_'
'beyond_'
'japanese_'
'adjoining_'
'opening_'
'important_'
'american_'
'she_'
'anyway_'
'face_'
'downstairs_'
'wrong_'
'minimal_'
'covered_'
'added_'
' ! ! !_'
'unless_'
'starting_'
'empty_'
'buildings_'
'bonus_'
'blinds_'
'comes_'
'9_'
'town_'
'possible_'
'electrical_'
'supplied_'
'comfortably_'
'mind_'
'brilliant_'
'solid_'
'saw_'
'believe_'
'pushed_'
'baths_'
' " ._'
'natural_'
'bland_'
'western_'
'truly_'
'minimalist_'
'ended_'
'wish_'
'picture_'
'longer_'
'experienced_'
'care_'
'bags_'
'concierge_'
'attached_'
'soon_'
'lifts_'
'everyone_'
'stairs_'
'mentioned_'
'often_'
'3rd_'
'unusual_'
'peeling_'
'butthe_'
'rating_'
'none_'
'4th_'
'line_'
'afternoon_'
'recent_'
'quickly_'
'personal_'
'equally_'
'b_'
'cabins_'
'plentiful_'
'lcd_'
'friends_'
'annoying_'
'practical_'
'fire_'
'trying_'
'impossible_'
'setting_'
'photos_'
'choose_'
'fun_'
'fault_'
'signs_'
'lumpy_'
'renovations_'
'heavy_'
'wonderfully_'
'his_'
'exterior_'
'running_'
'dim_'
'cupboard_'
' “ _'
'note_'
'hong_'
' ! ) ._'
'laundry_'
'include_'
'noticed_'
'self_'
'additional_'
'step_'
'kong_'
'lamps_'
'rates_'
'positive_'
'incredible_'
'ice_'
'stall_'
'apartments_'
'r_'
'improvement_'
'bottled_'
'fixed_'
'es_'
'particular_'
'directly_'
'services_'
'platinum_'
'downside_'
'exercise_'
'details_'
'ambience_'
'professional_'
' * _'
'true_'
'furnishing_'
'bring_'
'tile_'
'bay_'
'shelf_'
'returned_'
'gel_'
'dingy_'
'upstairs_'
'historic_'
'her_'
'faced_'
'connection_'
'confortable_'
'difference_'
'music_'
'taking_'
'extras_'
'ideal_'
'12_'
'overly_'
'lamp_'
'effective_'
'complain_'
'upper_'
'spartan_'
'twice_'
'adjacent_'
'toilets_'
'members_'
'cover_'
'amazingly_'
'mostly_'
'anyone_'
'ritz_'
'red_'
'against_'
'nearly_'
'delightful_'
'body_'
'waiting_'
'serviced_'
'plumbing_'
'contained_'
'pros_'
'mid_'
'100_'
'harbour_'
'suitcases_'
'ventilation_'
'deco_'
'construction_'
'prefer_'
'possibly_'
'breakfasts_'
'category_'
'00_'
'roll_'
'refurb_'
'party_'
'equiped_'
'changing_'
'anywhere_'
'50_'
' ! )_'
'review_'
'5th_'
'shut_'
'serious_'
'roomthe_'
'filled_'
'decided_'
'checking_'
'theme_'
'tear_'
'ordinary_'
'downtown_'
'weather_'
'store_'
'offering_'
'hang_'
'understand_'
'apparently_'
'wo_'
'gardens_'
'g_'
'sofitel_'
'example_'
'drab_'
' : - _'
'wow_'
'international_'
'tell_'
'highly_'
'mod_'
'(_'
'impeccable_'
'express_'
'immaculately_'
'customer_'
'negatives_'
'opinion_'
'state_'
'v_'
'depressing_'
'foot_'
'claustrophobic_'
'switch_'
'appears_'
'paying_'
'walked_'
'managed_'
'green_'
'appear_'
'weak_'
'literally_'
'damp_'
'bars_'
'daughter_'
'controls_'
'charging_'
'parts_'
'flatscreen_'
'accessible_'
'stop_'
'plan_'
'lunch_'
'freezing_'
'comfortablethe_'
'11_'
'remote_'
'card_'
'add_'
'gets_'
'tad_'
'purpose_'
'meals_'
'foyer_'
'uk_'
'positives_'
'lucky_'
'actual_'
'break_'
'wireless_'
'drain_'
'local_'
'chipped_'
'standing_'
'nearby_'
'makeover_'
'traffic_'
'falling_'
'dull_'
'24_'
'speed_'
' ” _'
'poster_'
'mirrors_'
'carpeting_'
'colors_'
'blackout_'
'unlike_'
'stays_'
'bottom_'
'assigned_'
'washer_'
'bare_'
'soaking_'
'separated_'
'office_'
'nor_'
' ’ _'
' :_'
'tour_'
'mounted_'
'families_'
'sheet_'
'mean_'
'finished_'
'entering_'
'distance_'
'6th_'
'upgrading_'
'eggs_'
'washing_'
'french_'
'myself_'
'tasty_'
'section_'
'therefore_'
'panel_'
'multiple_'
'fab_'
'traveling_'
'function_'
'clear_'
'appearance_'
'straight_'
'alone_'
'suitcase_'
'disney_'
'met_'
'inns_'
'traveler_'
'refresh_'
'minute_'
'elsewhere_'
'connecting_'
'chose_'
'gives_'
'deck_'
'name_'
'tall_'
'imagine_'
'sides_'
'golf_'
'conditioned_'
'stuck_'
'sleeper_'
'towards_'
'degrees_'
'adequately_'
'frills_'
'allowed_'
'marks_'
' ....._'
'tlc_'
'thermostat_'
'shown_'
'enjoyable_'
'immediately_'
'handy_'
'oh_'
'continental_'
'avoid_'
'ate_'
'amenity_'
'summer_'
'son_'
'hangers_'
'cracked_'
'ugly_'
'ng_'
'painted_'
'entry_'
'sparse_'
'shuttle_'
'normally_'
'par_'
'leaving_'
'prepared_'
'opposite_'
'interiors_'
'loose_'
'cable_'
'supposed_'
'smelt_'
'spg_'
'magnificent_'
'length_'
'importantly_'
'based_'
'mold_'
'clock_'
'treat_'
'repair_'
'sadly_'
'nicethe_'
'management_'
'computer_'
'winter_'
'visited_'
'wedding_'
'showed_'
'shared_'
'gloomy_'
'entered_'
'basement_'
'reviewers_'
'internal_'
'desperate_'
'closets_'
'hit_'
'tokyo_'
'giving_'
'started_'
'improved_'
'duvets_'
'somewhere_'
'rock_'
'pricey_'
'dry_'
'80_'
'total_'
'redone_'
'exec_'
'described_'
'travelling_'
'reserved_'
'remember_'
'opulent_'
'idea_'
'cute_'
'suitable_'
'shame_'
'1st_'
'tap_'
'oversized_'
'largest_'
'accommodate_'
'traveller_'
'gone_'
'milk_'
'color_'
' .* _'
'shows_'
'singles_'
'matter_'
'master_'
'loads_'
'liking_'
'tray_'
'levels_'
'la_'
'halls_'
'dresser_'
'seriously_'
'sumptuous_'
'sometimes_'
'saying_'
'rack_'
'feather_'
'reservation_'
'er_'
'please_'
'nowhere_'
'concrete_'
'refreshing_'
'package_'
'cooked_'
'combination_'
'awkward_'
'7th_'
'upgrades_'
'smells_'
'shop_'
'period_'
'brought_'
'accommodating_'
'cruise_'
'months_'
'laptop_'
'japan_'
'exception_'
'villas_'
'useful_'
'satisfactory_'
'bag_'
'tiled_'
'school_'
'robe_'
'ny_'
'hk_'
'comforter_'
'colour_'
'situated_'
'neither_'
'live_'
'ambiance_'
'70_'
'consider_'
'various_'
'u_'
'status_'
'provides_'
'mention_'
'colonial_'
'grey_'
'dishes_'
'cabinet_'
'pieces_'
'lacks_'
'overpriced_'
'led_'
'individual_'
'soaps_'
'partial_'
'match_'
'doing_'
'dishwasher_'
'corporate_'
'heads_'
'embassy_'
'extensive_'
'enter_'
'decorations_'
'rail_'
'granite_'
'wc_'
'rooftop_'
'combo_'
'preferred_'
'flush_'
'fare_'
'dust_'
'diamond_'
'convention_'
'shaped_'
'noted_'
'charged_'
'medium_'
'hvac_'
'featured_'
'bidet_'
' . )_'
'sofas_'
'hd_'
'blanket_'
'leisure_'
'cheaper_'
'suited_'
'story_'
'sizes_'
'insulation_'
'includes_'
'fans_'
'young_'
'terribly_'
'helped_'
'goes_'
'weights_'
'shelves_'
'colours_'
'chocolate_'
'polite_'
'lock_'
'leading_'
'biscuits_'
'channel_'
'drapes_'
'residence_'
'paris_'
'doubles_'
'disabled_'
'brick_'
'aged_'
'proofing_'
' " , _'
'inadequate_'
'holes_'
'ft_'
'allow_'
'weeks_'
'signal_'
'sign_'
'faded_'
'christmas_'
'bunk_'
' % _'
'manager_'
'soundproofing_'
'queens_'
'knew_'
'armchair_'
'25_'
'suit_'
'ship_'
'eventually_'
'comparison_'
'typically_'
'supply_'
'spot_'
'peaceful_'
'held_'
'edges_'
'comforts_'
'40_'
'via_'
'tubs_'
'setup_'
'pre_'
'appliances_'
'k_'
' ;_'
'previously_'
'overhead_'
' ! ) _'
'st_'
'glasses_'
'conveniences_'
'blankets_'
'usb_'
'replacement_'
'notice_'
'loft_'
'complained_'
'writing_'
'mix_'
'constant_'
'advertised_'
' ) - _'
'pleasing_'
'beat_'
'travelers_'
'piece_'
'oven_'
'north_'
'flooring_'
'sky_'
'neighbors_'
'delivered_'
'asian_'
'8th_'
'vibe_'
'trouble_'
'soundproof_'
'kingsize_'
'cups_'
'base_'
'takes_'
'sense_'
'plaza_'
'loo_'
'honest_'
'hi_'
'alarm_'
'le_'
'blue_'
'radisson_'
'proof_'
'hope_'
'washroom_'
'lotion_'
'serviceable_'
'glad_'
'child_'
'aside_'
'dire_'
'basics_'
'&_'
'woke_'
'frig_'
'shades_'
'seasons_'
'hold_'
'tech_'
'inch_'
' ' ._'
'types_'
'ordered_'
'forward_'
'triple_'
'train_'
'ish_'
'fitting_'
'f_'
'connected_'
'comment_'
'thank_'
'slight_'
'reach_'
'moving_'
'impersonal_'
'decently_'
'courteous_'
' ‘ _'
'tube_'
'leather_'
'converted_'
'complementary_'
'wake_'
'friend_'
'controlled_'
'* _'
'whirlpool_'
'seats_'
'prior_'
'finish_'
'facelift_'
'delighted_'
'bother_'
'agree_'
'advance_'
'starbucks_'
'shopping_'
'ridiculously_'
'pod_'
'hip_'
'foam_'
' , ( _'
'nevertheless_'
'meet_'
'encountered_'
'country_'
'bungalow_'
'bits_'
'vacation_'
'result_'
'enclosed_'
'cooking_'
'replacing_'
'consisted_'
'aspects_'
'architecture_'
'share_'
'reminded_'
'hole_'
'200_'
'temp_'
'quaint_'
'modest_'
'intercontinental_'
'desired_'
'chocolates_'
'century_'
'putting_'
'plasma_'
'noises_'
'handle_'
'taps_'
'eating_'
'covers_'
'casino_'
'x_'
'oddly_'
'lay_'
'elegantly_'
'convenience_'
'arriving_'
'stated_'
'pot_'
'aware_'
'thanks_'
'sat_'
'restful_'
'further_'
'constantly_'
'beer_'
'switched_'
'stale_'
'refreshed_'
'mountains_'
'meetings_'
'electronic_'
'complex_'
'smelly_'
'mould_'
'life_'
'bench_'
'antique_'
'recommended_'
'maid_'
'h_'
'communal_'
'bedthe_'
'9th_'
'inner_'
'finishes_'
'earlier_'
'benefit_'
'write_'
'varied_'
'romantic_'
'flow_'
'ancient_'
'west_'
'harbor_'
'fell_'
'exquisite_'
' (_'
'ut_'
'sad_'
'groups_'
'cooling_'
'appealing_'
'undergoing_'
'fee_'
'tatty_'
'radiator_'
'insulated_'
'honestly_'
'filthy_'
'entertainment_'
'condo_'
'baby_'
' ..... _'
' # _'
'nicest_'
'ipod_'
'initially_'
'inches_'
'dvd_'
'updates_'
'obvious_'
'news_'
'metal_'
'useless_'
'six_'
'require_'
'reliable_'
'meaning_'
'ie_'
'fourth_'
'appreciate_'
'airconditioning_'
'wise_'
'switches_'
'highest_'
'following_'
' ! ) , _'
'divine_'
'visiting_'
'stone_'
'springs_'
'rainfall_'
'discovered_'
'cut_'
'cottage_'
'cleaner_'
'cases_'
'60_'
',_'
' .-_'
'south_'
'screens_'
'satisfied_'
'net_'
'manhattan_'
'luckily_'
'ikea_'
'frame_'
'company_'
'unpleasant_'
'settee_'
'nd_'
'hospitality_'
'greeted_'
'gas_'
'fix_'
'cup_'
'became_'
'valet_'
'talking_'
'supplies_'
'scheme_'
'providing_'
'player_'
'height_'
'aspect_'
'arm_'
'sterile_'
'hate_'
'giant_'
'fall_'
'thankfully_'
'doubt_'
'suggest_'
'stove_'
'functioning_'
'consistent_'
'cardio_'
'travellers_'
'eye_'
'creaky_'
'combined_'
'canal_'
'blocked_'
'arrive_'
'vegas_'
'photo_'
'hotelthe_'
'arrangement_'
'watching_'
'smooth_'
'freshly_'
'firstly_'
'factor_'
'devices_'
'mosquito_'
'yourself_'
'receptionist_'
'personally_'
'generously_'
'frankly_'
'environment_'
'cigarette_'
'checkin_'
'beige_'
'al_'
'surroundings_'
'starwood_'
'man_'
'leaked_'
'impressions_'
'frosted_'
'dubai_'
'sparkling_'
'rear_'
'ran_'
'movies_'
'dreadful_'
'de_'
'concept_'
'beside_'
'torn_'
'smallthe_'
'rollaway_'
'retro_'
'numerous_'
'exposed_'
'birthday_'
'18_'
'towers_'
'sounds_'
'singapore_'
'odor_'
'miss_'
'log_'
'certain_'
'spare_'
'era_'
'climate_'
'boring_'
'accessories_'
'mountain_'
'mediocre_'
'edge_'
'10th_'
'turning_'
'somehow_'
'replenished_'
'establishment_'
'elegance_'
'cotton_'
'apple_'
'adult_'
'thoroughly_'
'technology_'
'split_'
'slippery_'
'safety_'
'palace_'
'centrally_'
'bowl_'
'arranged_'
'serve_'
'keys_'
'glazing_'
'cafe_'
'bathrobe_'
'fold_'
'carlton_'
'bangkok_'
'90_'
' –_'
'today_'
'serves_'
'season_'
'play_'
'catering_'
'travelodge_'
'taj_'
'online_'
'damaged_'
'corners_'
'chalet_'
'wardrobes_'
'shaving_'
'occupied_'
'massage_'
'lounges_'
'joke_'
'hence_'
'hardwood_'
'gigantic_'
'form_'
'80s_'
' ) ; _'
'royal_'
'opted_'
'euro_'
'word_'
'till_'
'surface_'
'identical_'
'history_'
'sizeable_'
'scratched_'
'ottoman_'
'locked_'
'lavish_'
'spray_'
'silent_'
'returning_'
'position_'
'keurig_'
'dead_'
'couples_'
' ? _'
'whether_'
'ur_'
'thus_'
'terminal_'
'surrounding_'
'press_'
'overhaul_'
'makeup_'
'health_'
'fortunately_'
'300_'
'p_'
'lines_'
'informed_'
'faucet_'
'fashion_'
'cushions_'
' ." _'
'stations_'
'present_'
'outlet_'
'juice_'
'humid_'
'cell_'
'14_'
'stark_'
'plates_'
'orange_'
'needing_'
'mainly_'
'describe_'
' --_'
'whatsoever_'
'utensils_'
'structure_'
'security_'
'refurbishing_'
'vent_'
'rough_'
'removed_'
'rated_'
'pleasure_'
'opens_'
'kitchens_'
'jet_'
'closer_'
'beginning_'
'asking_'
'ammenities_'
'advantage_'
'70s_'
'pokey_'
'planned_'
'kit_'
'headboard_'
'goodthe_'
'bus_'
'marina_'
'rs_'
'packed_'
'event_'
'coat_'
'accomodation_'
'zero_'
'vast_'
'sunday_'
'sent_'
'lodges_'
'considered_'
'sounded_'
'sets_'
'market_'
'loungers_'
'likely_'
'homely_'
'elite_'
'designer_'
'remodel_'
'radio_'
'modernised_'
'leaking_'
'flowers_'
'compare_'
'asia_'
'armchairs_'
'adjust_'
' --- _'
'tons_'
'speaking_'
'soundproofed_'
'pipes_'
'grade_'
'cot_'
'castle_'
'brighter_'
'tacky_'
'support_'
'superbly_'
'sq_'
'doubletree_'
'clothing_'
'banging_'
'16_'
'sports_'
'sharing_'
'says_'
'gap_'
'dusty_'
'dreary_'
'cookies_'
'accor_'
'understated_'
'treadmills_'
'stopped_'
'sthe_'
'pet_'
'cooler_'
'quieter_'
'grubby_'
'die_'
'desperately_'
'bedded_'
'appropriate_'
'appointments_'
'weight_'
'unusually_'
'strangely_'
'resorts_'
'persons_'
'occitane_'
'extended_'
'euros_'
'east_'
'credit_'
'styled_'
'spots_'
'speak_'
'similarly_'
'efficiently_'
'dog_'
'surprising_'
'scale_'
'proofed_'
'minimum_'
'comparable_'
'neighbours_'
'expansive_'
'dock_'
'delight_'
'conveniently_'
'chance_'
'alright_'
'waste_'
'virtually_'
'current_'
'become_'
'unable_'
'tend_'
'team_'
'smelling_'
'saturday_'
'renaissance_'
'italian_'
'chinese_'
'charges_'
'chaise_'
'showering_'
'scandinavian_'
'pick_'
'lost_'
'lady_'
'1970_'
'televisions_'
'squeeze_'
'secure_'
'positioned_'
'minimalistic_'
'faultless_'
'drive_'
'comments_'
' .: _'
'reported_'
'promised_'
'locker_'
'kinda_'
'build_'
'ways_'
'vary_'
'sophisticated_'
'shade_'
'moment_'
'mildew_'
'latest_'
'future_'
'favorite_'
'ensure_'
'closing_'
'offerings_'
'moderate_'
'indian_'
'gift_'
'buy_'
'1970s_'
'stain_'
'semi_'
'relaxed_'
'rare_'
'phones_'
'partner_'
'midnight_'
'marked_'
'mall_'
'generic_'
'disgusting_'
'themed_'
'steps_'
'socket_'
'outlook_'
'missed_'
'improve_'
'heritage_'
'coffeemaker_'
'blocks_'
'affordable_'
'vintage_'
'th_'
'significant_'
'national_'
'mixed_'
'list_'
'entirely_'
'direct_'
'bathroomthe_'
'artwork_'
'spring_'
'forget_'
'china_'
' , & _'
'suppose_'
'occasion_'
'mood_'
'installed_'
'bill_'
'45_'
'threadbare_'
'skyline_'
'nonetheless_'
'materials_'
'glazed_'
'essentially_'
'crowne_'
'blind_'
'0_'
' , " _'
'uncomfortably_'
'topper_'
'sufficiently_'
'spending_'
'shops_'
'overlook_'
'multi_'
'fairmont_'
'effort_'
'bulbs_'
'bugs_'
'besides_'
'beams_'
'adjustable_'
'shampoos_'
'occasions_'
'mins_'
'ipad_'
'criticism_'
'concerned_'
'cheapest_'
'challenge_'
'tree_'
'tent_'
'leak_'
'cocktails_'
'classical_'
'boxes_'
'swim_'
'supposedly_'
'regency_'
'impeccably_'
'gripe_'
'external_'
'effect_'
'climb_'
'aging_'
'specious_'
'seeing_'
'painting_'
'molton_'
'memorable_'
'electronics_'
'comfythe_'
'cleanthe_'
'chest_'
'yellow_'
'wonder_'
'softer_'
'luxuriously_'
'lowest_'
'honors_'
'happened_'
'customers_'
'court_'
'colleagues_'
'careful_'
'annex_'
'1980_'
'unbelievably_'
'scuffed_'
'prison_'
'hooks_'
'gowns_'
'cook_'
'basins_'
'among_'
'shutters_'
'ripped_'
'ness_'
'luxe_'
'him_'
'flooded_'
'falls_'
'elements_'
'ages_'
'visits_'
'visible_'
'sub_'
'snack_'
'rise_'
'month_'
'jw_'
'ion_'
'grout_'
'cutlery_'
'containing_'
'bungalows_'
'beware_'
' _'
'treatment_'
'tourist_'
'roomsthe_'
'process_'
'mistake_'
'improvements_'
'dispensers_'
'costs_'
'warmer_'
'underneath_'
'te_'
'swing_'
'squeaky_'
'saggy_'
'reasons_'
'micro_'
'ihg_'
'former_'
'existent_'
'cookie_'
'aveda_'
'usable_'
'reality_'
'pulled_'
'ear_'
'cream_'
'configuration_'
'cocktail_'
'-- _'
'welcomed_'
'soulless_'
'showerhead_'
'pristine_'
'lighted_'
'freezer_'
'fill_'
'exceeded_'
'currently_'
'conrad_'
'cap_'
'cabinets_'
'11th_'
'proximity_'
'originally_'
'movie_'
'essentials_'
'breeze_'
'bacon_'
'androoms_'
' ! ! ! !_'
'tip_'
'splendid_'
'receive_'
'pass_'
'heart_'
'couches_'
'camp_'
'awake_'
'attended_'
'activities_'
')_'
'ten_'
'runway_'
'proportioned_'
'noticeable_'
'neutral_'
'mat_'
'crammed_'
'ahead_'
'save_'
'pain_'
'ourselves_'
'organized_'
'fruits_'
'chilly_'
'champagne_'
'attractively_'
'12th_'
' … _'
'thinking_'
'thai_'
'struggled_'
'sorry_'
'respect_'
'highlight_'
'flights_'
'fifth_'
'disturbed_'
'com_'
'allowing_'
'web_'
'trees_'
'suspect_'
'staircase_'
'rich_'
'hidden_'
'expectation_'
'ce_'
'trouser_'
'tops_'
'tones_'
'reminiscent_'
'outfitted_'
'operate_'
'finding_'
'dangerous_'
'accommodated_'
'500_'
'uninspiring_'
'strip_'
'necessities_'
'nasty_'
'figure_'
'ble_'
'wired_'
'slamming_'
'signature_'
'rubbish_'
'pink_'
'handicapped_'
'dual_'
'description_'
'completed_'
'clever_'
'whatever_'
'turndown_'
'regularly_'
'pastries_'
'known_'
'confusing_'
'british_'
'bread_'
'blowing_'
'waited_'
'ts_'
'toaster_'
'sparsely_'
'partially_'
'minus_'
'kitted_'
'ers_'
'chips_'
'cake_'
'assume_'
'styling_'
'specially_'
'pullout_'
'intimate_'
'garage_'
'drawback_'
'cooled_'
'commented_'
'bothered_'
'1980s_'
'15th_'
'" _'
'wheelchair_'
'sold_'
'plate_'
'leaves_'
'kimpton_'
'essential_'
'tropical_'
'springhill_'
'remained_'
'modernized_'
'mobile_'
'dinning_'
'count_'
'according_'
'400_'
'usa_'
'ridiculous_'
'remodeling_'
'parents_'
'finethe_'
'dirt_'
'dimly_'
'stopover_'
'serving_'
'mark_'
'guy_'
'everyday_'
'cupboards_'
'creek_'
'covering_'
'chicago_'
'taxi_'
'sunny_'
'posh_'
'port_'
'game_'
'funny_'
'friday_'
'flying_'
'evenings_'
'drinking_'
'decorative_'
'damage_'
'bridge_'
'unpack_'
'prompt_'
'preference_'
'occupancy_'
'mornings_'
'june_'
'flimsy_'
'fish_'
'decorating_'
'basis_'
'turns_'
'sweet_'
'supremely_'
'stretch_'
'seaview_'
'portions_'
'manage_'
'faulty_'
'dream_'
'depending_'
'chains_'
'advised_'
'twins_'
'surely_'
'stiff_'
'revamp_'
'pad_'
'pack_'
'marriotts_'
'july_'
'interconnecting_'
'extractor_'
'december_'
'checkout_'
'upmarket_'
'restored_'
'realized_'
'realised_'
'ports_'
'kid_'
'journey_'
'initial_'
'crazy_'
'cared_'
'blow_'
'16th_'
'solo_'
'situation_'
'significantly_'
'sight_'
'roomand_'
'inexpensive_'
'happen_'
'fabric_'
'dispenser_'
'colleague_'
'woken_'
'tucked_'
'toothbrush_'
'thoughtful_'
'stylishly_'
'selections_'
'renovating_'
'relaxation_'
'refrigerators_'
'portion_'
'fits_'
'featuring_'
'dorm_'
'changes_'
'breakfastthe_'
'boards_'
'anymore_'
'androom_'
' ' , _'
' '
'remains_'
'redecorated_'
'pub_'
'post_'
'porch_'
'ies_'
'cottages_'
'cheese_'
'14th_'
'valley_'
'unbelievable_'
'showerthe_'
'matress_'
'maintain_'
'lagoon_'
'industrial_'
'dollars_'
'comforters_'
' . , _'
'venue_'
'trained_'
'ton_'
'temperatures_'
'snug_'
'practically_'
'hiltons_'
'anniversary_'
'absolute_'
'smile_'
'silver_'
'shiny_'
'secondly_'
'panoramic_'
'itthe_'
'homey_'
'holder_'
'hairs_'
'foods_'
'espresso_'
'eg_'
'confirmed_'
'cat_'
'carpeted_'
'calls_'
'andwe_'
'victorian_'
'utilitarian_'
'treated_'
'thread_'
'requirements_'
'promptly_'
'potential_'
'poolside_'
'ornate_'
'likewise_'
'information_'
'hands_'
'flawless_'
'complaining_'
'cheerful_'
'automatic_'
'august_'
'21st_'
'vs_'
'sofabed_'
'san_'
'requires_'
'reached_'
'mess_'
'gadgets_'
'fortunate_'
'employees_'
'duplex_'
'catch_'
'admit_'
'historical_'
'fireplaces_'
'designs_'
'caused_'
'carry_'
'button_'
' …_'
'upkeep_'
'sharp_'
'settled_'
'requests_'
'lush_'
'jets_'
'furnitures_'
'favourite_'
'andi_'
'alcove_'
'wants_'
'unacceptable_'
'sunken_'
'shoe_'
'shangri_'
'rusty_'
'november_'
'ill_'
'curved_'
'conferences_'
'boston_'
' € _'
' /_'
' . ) _'
'sunset_'
'staythe_'
'soothing_'
'roombut_'
'pity_'
'pathetic_'
'norm_'
'island_'
'insufficient_'
'computers_'
'collection_'
'becoming_'
'bear_'
'accomodations_'
' ...... _'
'wind_'
'washbasin_'
'warned_'
'scruffy_'
'planes_'
'jaded_'
'hhonors_'
'failed_'
'explained_'
'events_'
'discount_'
'bose_'
'30pm_'
'17_'
'warmth_'
'steel_'
'slide_'
'shocked_'
'shallow_'
'se_'
'min_'
'mercure_'
'las_'
'inconvenient_'
'hung_'
'functioned_'
'forgot_'
'extension_'
'cater_'
'bought_'
'bargain_'
'andour_'
'32_'
'spite_'
'soak_'
'scratchy_'
'reviewer_'
'organised_'
'lets_'
'ladies_'
'grab_'
'frayed_'
'extraordinary_'
'chandelier_'
'width_'
'un_'
'term_'
'reflect_'
'glance_'
'degree_'
'crown_'
'cause_'
'telephone_'
'sydney_'
'stool_'
'specifically_'
'picky_'
'peak_'
'mezzanine_'
'chill_'
'250_'
'workspace_'
'wished_'
'ty_'
'surrounded_'
'staffed_'
'restroom_'
'replace_'
'playing_'
'parks_'
'panels_'
'overdue_'
'okthe_'
'mineral_'
'famous_'
'cracks_'
'crack_'
'catered_'
'boiling_'
'allows_'
'150_'
'13_'
'usd_'
'stands_'
'sorted_'
'repairs_'
'remove_'
'remembered_'
'remain_'
'march_'
'investment_'
'draw_'
'crt_'
'chandeliers_'
'breathtaking_'
'beverages_'
'uninviting_'
'unexpected_'
'smallbut_'
'pure_'
'lived_'
'lick_'
'inclusive_'
'hide_'
'guaranteed_'
'grandeur_'
'games_'
'deposit_'
'conversations_'
'conversation_'
'connect_'
'attitude_'
'attempt_'
'andit_'
'tourists_'
'slick_'
'rarely_'
'portable_'
'manner_'
'instant_'
'hoped_'
'crockery_'
'counters_'
'concern_'
'amsterdam_'
'aloft_'
'wanting_'
'vents_'
'tripadvisor_'
'struggle_'
'sister_'
'popcorn_'
'meets_'
'loudly_'
'heavily_'
'enjoying_'
'eclectic_'
'digital_'
'bathtubs_'
'aircraft_'
': _'
'whenever_'
'wasted_'
'venetian_'
'ted_'
'tastes_'
'september_'
'regarding_'
'quilt_'
'presentation_'
'pounds_'
'polished_'
'palatial_'
'october_'
'lying_'
'legs_'
'houses_'
'handicap_'
'forever_'
'faces_'
'drop_'
'contain_'
'conditions_'
'ball_'
'assortment_'
'asleep_'
'volume_'
'urgent_'
'underfloor_'
'rug_'
'product_'
'pots_'
'noon_'
'nightmare_'
'memory_'
'lanai_'
'january_'
'humidity_'
'heaters_'
'gesture_'
'frames_'
'forest_'
'floorboards_'
'evident_'
'disturbing_'
'device_'
'delux_'
'correct_'
'cities_'
'benefits_'
'attractions_'
'appalling_'
' ? ?_'
'teas_'
'states_'
'sizable_'
'sealed_'
'ry_'
'realize_'
'racks_'
'quietthe_'
'priority_'
'pluses_'
'planning_'
'newish_'
'moderately_'
'locations_'
'exhaust_'
'daylight_'
'contrast_'
'coloured_'
'begin_'
'assured_'
'adjusted_'
' ? ) _'
' ) . _'
'worried_'
'separating_'
'safes_'
'respects_'
'proved_'
'personality_'
'men_'
'hostel_'
'girls_'
'fantastically_'
'disappoint_'
'airco_'
'unremarkable_'
'training_'
'touched_'
'toast_'
'plane_'
'operated_'
'movement_'
'moldy_'
'meters_'
'keeps_'
'india_'
'hermes_'
'folks_'
'flushing_'
'ey_'
'desks_'
'bank_'
'april_'
'apparent_'
'19_'
'18th_'
' . ._'
'user_'
'unusable_'
'unbearable_'
'summary_'
'study_'
'sand_'
'queue_'
'push_'
'picked_'
'penthouse_'
'owners_'
'numbers_'
'newspaper_'
'miles_'
'flair_'
'email_'
'disaster_'
'dc_'
'consistently_'
'blocking_'
'attending_'
'afraid_'
'35_'
'19th_'
'urban_'
'underground_'
'undergone_'
'travelled_'
'tho_'
'salad_'
'raised_'
'passed_'
'oceanfront_'
'metro_'
'laminate_'
'hopefully_'
'hie_'
'faux_'
'experiences_'
'electricity_'
'dropped_'
'bug_'
'blew_'
'ants_'
'additionally_'
'30am_'
'20th_'
'unattractive_'
'surround_'
'steep_'
'snow_'
'rewards_'
'rainshower_'
'pointed_'
'marriot_'
'luxuries_'
'luck_'
'fridges_'
'exceedingly_'
'definite_'
'coverings_'
'countertop_'
'chosen_'
'bbc_'
'amenties_'
'alternative_'
' . - _'
'surfaces_'
'substantial_'
'squeezed_'
'sleeps_'
'screaming_'
'oriented_'
'minuscule_'
'miniscule_'
'greatly_'
'granted_'
'flower_'
'flaws_'
'exciting_'
'dismal_'
'blu_'
'antiquated_'
' ? ) ._'
'toward_'
'topped_'
'tents_'
'stepping_'
'saving_'
'reservations_'
'q_'
'needless_'
'modernisation_'
'inspection_'
'ineffective_'
'horribly_'
'handles_'
'ge_'
'created_'
'creaked_'
'circular_'
'circa_'
'bulb_'
'bliss_'
'bedsthe_'
'arrangements_'
'wave_'
'systems_'
'spanish_'
'sightseeing_'
'purposes_'
'prime_'
'oom_'
'neighbor_'
'melbourne_'
'downsides_'
'departure_'
'correctly_'
'42_'
'words_'
'windowless_'
'teeny_'
'sorts_'
'soaked_'
'shelving_'
'settings_'
'rainforest_'
'opposed_'
'omni_'
'nature_'
'lounging_'
'holidays_'
'frequent_'
'enclosure_'
'definately_'
'array_'
'angle_'
'alot_'
'afford_'
' . ) ._'
'waking_'
'travels_'
'tough_'
'thoughtfully_'
'sticky_'
'rust_'
'rundown_'
'rude_'
'rose_'
'question_'
'premises_'
'ne_'
'mouldy_'
'lodging_'
'lighter_'
'library_'
'ic_'
'freeview_'
'fixture_'
'excellently_'
'docking_'
'disturb_'
'cm_'
'canyon_'
'brush_'
'adds_'
'90s_'
' [ _'
'waterfall_'
'tiling_'
'tag_'
'sqm_'
'spoiled_'
'sizethe_'
'scratches_'
'popular_'
'pods_'
'ment_'
'joined_'
'fussy_'
'drains_'
'distinct_'
'america_'
'; _'
'95_'
'21_'
' ( # _'
'warning_'
'uses_'
'treatments_'
'throw_'
'tablet_'
'suggested_'
'scrambled_'
'sagging_'
'rugs_'
'material_'
'hoping_'
'hook_'
'dressed_'
'divided_'
'breath_'
'bizarre_'
'basket_'
'attic_'
' ( $ _'
'visitors_'
'traditionally_'
'tissues_'
'taxes_'
'sixth_'
'ring_'
'purple_'
'partly_'
'paintwork_'
'ons_'
'nightthe_'
'nets_'
'lie_'
'language_'
'kinds_'
'impractical_'
'frequently_'
'faucets_'
'fairfield_'
'excuse_'
'escape_'
'ends_'
'earplugs_'
'dish_'
'decades_'
'cope_'
'continued_'
'cluttered_'
'broke_'
'amazed_'
'agreed_'
'toiletry_'
'thrown_'
'ta_'
'runs_'
'rip_'
'resulting_'
'reminds_'
'remarkable_'
'pricing_'
'powder_'
'policy_'
'plants_'
'personnel_'
'niggles_'
'neck_'
'model_'
'maze_'
'gross_'
'chef_'
'carte_'
'athroom_'
'upholstery_'
'umbrella_'
'starts_'
'shining_'
'plugged_'
'partition_'
'makers_'
'leg_'
'healthy_'
'gotten_'
'finishing_'
'energy_'
'continue_'
'college_'
'caters_'
'calm_'
'beverage_'
'airplane_'
'17th_'
'yard_'
'washed_'
'thru_'
'shanghai_'
'screened_'
'repaired_'
'presumably_'
'opportunity_'
'ns_'
'neighboring_'
'murphy_'
'lousy_'
'hospital_'
'highway_'
'greatthe_'
'firmer_'
'demand_'
'creaking_'
'contains_'
'clinical_'
'cereal_'
'appeal_'
'accept_'
'23_'
'. , _'
'´_'
'wings_'
'viewing_'
'uber_'
'sausage_'
'rod_'
'report_'
'refrig_'
'rails_'
'quarters_'
'plunge_'
'pics_'
'paintings_'
'oriental_'
'land_'
'hill_'
'hers_'
'helps_'
'grill_'
'football_'
'eyes_'
'extreme_'
'expects_'
'equivalent_'
'easier_'
'dogs_'
'courtyards_'
'cloths_'
'cavernous_'
'brief_'
'bang_'
'120_'
'woodwork_'
'village_'
'trips_'
'swift_'
'stream_'
'stood_'
'satellite_'
'rubber_'
'ride_'
'refused_'
'plaster_'
'panelling_'
'ous_'
'jr_'
'jetted_'
'imac_'
'heaven_'
'goodies_'
'functions_'
'flash_'
'fabrics_'
'ere_'
'drawn_'
'connections_'
'cereals_'
'carried_'
'bin_'
'authentic_'
' — _'
' = _'
'tiniest_'
'styles_'
'stuffed_'
'spacey_'
'print_'
'parties_'
'nightly_'
'neighbouring_'
'magnifying_'
'loyalty_'
'instance_'
'housed_'
'hen_'
'god_'
'furbished_'
'flies_'
'filling_'
'et_'
'duty_'
'drying_'
'discover_'
'cross_'
'considerably_'
'colorful_'
'branded_'
'banquet_'
'$ _'
'women_'
'waterfront_'
'toothpaste_'
'suits_'
'stifling_'
'slip_'
'rented_'
'regardless_'
'refurbed_'
'refit_'
'opera_'
'majority_'
'hills_'
'heathrow_'
'hdtv_'
'egg_'
'drier_'
'drainage_'
'desert_'
'cheaply_'
'bedspread_'
'ad_'
'!. _'
' • _'
' : -_'
' " ( _'
'subtle_'
'soooo_'
'seemingly_'
'scent_'
'resulted_'
'relative_'
'refined_'
'overwhelming_'
'motels_'
'meridien_'
'manchester_'
'leaks_'
'hazard_'
'formal_'
'floorthe_'
'effectively_'
'earth_'
'cosmetics_'
'cathedral_'
'carefully_'
'brightly_'
'banged_'
'automatically_'
'75_'
'sunlight_'
'steak_'
'smoked_'
'scratch_'
'presidential_'
'phenomenal_'
'noisey_'
'lotions_'
'juices_'
'hey_'
'dodgy_'
'cutting_'
'bones_'
'agent_'
'22_'
'!_'
'worry_'
'willing_'
'underwhelming_'
'track_'
'tax_'
'surprises_'
'sunbeds_'
'stick_'
'spacy_'
'slowly_'
'silly_'
'sideways_'
'shoes_'
'sagged_'
'poky_'
'pacific_'
'museum_'
'liquid_'
'iphone_'
'gracious_'
'crowd_'
'constructed_'
'conducive_'
'chalets_'
'ability_'
'whoever_'
'warmly_'
'uneven_'
'tape_'
'suffered_'
'spruce_'
'soul_'
'somebody_'
'sheer_'
'sell_'
'seater_'
'sausages_'
'roomi_'
'refurbish_'
'reflected_'
'pizza_'
'pipe_'
'pair_'
'mile_'
'marvelous_'
'lead_'
'lap_'
'landing_'
'irritating_'
'iceland_'
'homewood_'
'freshening_'
'elemis_'
'dryers_'
'cutter_'
'calling_'
'belongings_'
'bell_'
'ageing_'
'addressed_'
'600_'
'000_'
'– _'
'venice_'
'upholstered_'
'twist_'
'trim_'
'tasted_'
'talk_'
'slam_'
'selected_'
'railway_'
'prints_'
'padded_'
'onsite_'
'matching_'
'item_'
'infrastructure_'
'functionality_'
'forced_'
'followed_'
'final_'
'february_'
'excited_'
'dripping_'
'decidedly_'
'complicated_'
'buttons_'
'berlin_'
'beers_'
'andthis_'
'amongst_'
'wrap_'
'worthy_'
'streets_'
'speedy_'
'specific_'
'physical_'
'perfection_'
'opaque_'
'matched_'
'lockers_'
'listed_'
'hassle_'
'happening_'
'grouting_'
'est_'
'display_'
'dip_'
'delivers_'
'create_'
'cars_'
'blast_'
'ambassador_'
'26_'
'+_'
' ? )_'
'warn_'
'vaulted_'
'trash_'
'strength_'
'sprayed_'
'sooo_'
'send_'
'pullman_'
'privilege_'
'prepare_'
'manageable_'
'mac_'
'likes_'
'knowing_'
'ins_'
'greatest_'
'freshen_'
'ess_'
'ensured_'
'daughters_'
'conditioners_'
'circulation_'
'bistro_'
'availability_'
'ally_'
'--_'
' " - _'
'unbearably_'
'treats_'
'spotty_'
'sites_'
'shocking_'
'sh_'
'regard_'
'reflects_'
'realise_'
'platform_'
'paneling_'
'nightstand_'
'nce_'
'locks_'
'ling_'
'horrid_'
'hesitate_'
'guys_'
'girl_'
'follow_'
'fairness_'
'eve_'
'equal_'
'dollar_'
'darker_'
'colored_'
'coach_'
'cakes_'
'ballroom_'
'austere_'
'affair_'
'2013_'
'woman_'
'vey_'
'veranda_'
'transit_'
'tion_'
'spaciousthe_'
'seated_'
'seal_'
'responsive_'
'renovate_'
'remarkably_'
'program_'
'prevent_'
'newest_'
'kindly_'
'hat_'
'hardware_'
'gown_'
'german_'
'gels_'
'formed_'
'fly_'
'fake_'
'factory_'
'evidence_'
'el_'
'drafty_'
'cleaners_'
'capacity_'
'boy_'
'books_'
'bog_'
'annexe_'
'accessed_'
'.. _'
' .’_'
'woods_'
'version_'
'tries_'
'tricky_'
'stock_'
'sloping_'
'radiators_'
'neighbour_'
'institutional_'
'happily_'
'grim_'
'flood_'
'expense_'
'district_'
'deliver_'
'consisting_'
'cloth_'
'br_'
'beauty_'
'ar_'
'advisor_'
'65_'
'washrooms_'
'warehouse_'
'treadmill_'
'timber_'
'tennis_'
'teeth_'
'teenage_'
'sale_'
'rome_'
'requesting_'
'pans_'
'ooms_'
'knows_'
'italy_'
'inthe_'
'horrendous_'
'handled_'
'frustrating_'
'exploring_'
'economy_'
'difficulty_'
'deserves_'
'consists_'
'comfiest_'
'colourful_'
'approx_'
'approach_'
'adding_'
'2014_'
'2012_'
'yogurt_'
'walkway_'
'waldorf_'
'transfer_'
'trains_'
'smokers_'
'retreat_'
'random_'
'orlando_'
'navigate_'
'maximum_'
'lg_'
'gear_'
'faulted_'
'explore_'
'exit_'
'dedicated_'
'cooker_'
'connectivity_'
'coffe_'
'cleverly_'
'butler_'
'bucket_'
'breads_'
'armoire_'
'2016_'
'+ _'
' ......_'
'whereas_'
'waffles_'
'toileteries_'
'strongly_'
'stank_'
'ss_'
'sprucing_'
'smartly_'
'rusted_'
'rolling_'
'palm_'
'overlooks_'
'ot_'
'opt_'
'miserable_'
'marginally_'
'liverpool_'
'jammed_'
'inconvenience_'
'inconsistent_'
'hitting_'
'hearing_'
'headed_'
'harder_'
'flaw_'
'familiar_'
'exclusive_'
'eco_'
'delivery_'
'cloud_'
'clerk_'
'chilled_'
'chargers_'
'cards_'
'burned_'
'bedspreads_'
'bathing_'
'australia_'
'account_'
' , , _'
'wellthe_'
'wasthe_'
'warmed_'
'ver_'
'teenagers_'
'sticking_'
'stainless_'
'stable_'
'shock_'
'perks_'
'odour_'
'modernly_'
'membership_'
'justify_'
'goodness_'
'glamorous_'
'firmness_'
'facilites_'
'explain_'
'element_'
'elderly_'
'eds_'
'cuisine_'
'characterless_'
'bikes_'
'backed_'
'alcohol_'
'55_'
'350_'
'1960s_'
' ? !_'
' " ) _'
'whose_'
'valuables_'
'touching_'
'sweets_'
'spaced_'
'sore_'
'sits_'
'sights_'
'ruined_'
'refreshments_'
'redecoration_'
'passing_'
'letting_'
'lean_'
'knocked_'
'heading_'
'fuss_'
'forth_'
'faults_'
'dthe_'
'disappointingly_'
'dial_'
'cord_'
'charger_'
'cd_'
'butrooms_'
'boot_'
'beijing_'
'bedlinen_'
'balance_'
'ation_'
'architectural_'
'admittedly_'
'110_'
' .– _'
'walled_'
'voucher_'
'verandah_'
'variable_'
'tissue_'
'ting_'
'spec_'
'shave_'
'rom_'
'rolled_'
'renewed_'
'patios_'
'netting_'
'lively_'
'ledge_'
'layouts_'
'landscaping_'
'invest_'
'ings_'
'hideous_'
'handheld_'
'floral_'
'finishings_'
'finger_'
'dump_'
'ds_'
'dealt_'
'competitive_'
'boys_'
'boat_'
'beaten_'
'audible_'
'akin_'
'activity_'
'action_'
'z_'
'workable_'
'telly_'
'student_'
'softest_'
'skin_'
'servicing_'
'sandwiches_'
'resolved_'
'pump_'
'priceline_'
'occupants_'
'nightstands_'
'muted_'
'mother_'
'maids_'
'lax_'
'laptops_'
'holding_'
'hh_'
'glorious_'
'finest_'
'facade_'
'england_'
'elaborate_'
'efficiency_'
'driving_'
'drawbacks_'
'confirm_'
'comparing_'
'commode_'
'comfortablerooms_'
'classically_'
'canteen_'
'brands_'
'altogether_'
'alcoholic_'
'afforded_'
'99_'
'2011_'
'1990s_'
'1990_'
'1000_'
'... _'
'written_'
'verall_'
'title_'
'tier_'
'tended_'
'tel_'
'switching_'
'swiss_'
'storey_'
'stench_'
'staffs_'
'speaker_'
'spaceous_'
'select_'
'scented_'
'purchase_'
'pic_'
'noticeably_'
'microwaves_'
'metres_'
'layover_'
'knock_'
'keen_'
'guarantee_'
'gray_'
'fabulously_'
'expedia_'
'dowdy_'
'countertops_'
'chicken_'
'ch_'
'cares_'
'burning_'
'burger_'
'bells_'
'beddings_'
'anticipated_'
'aesthetically_'
'abundant_'
' ] _'
'trimmings_'
'sunshine_'
'suddenly_'
'sash_'
'samsung_'
'response_'
'recall_'
'quarter_'
'newspapers_'
'motif_'
'monsoon_'
'mandarin_'
'lives_'
'listen_'
'latter_'
'lastly_'
'hotter_'
'hose_'
'getaway_'
'genuine_'
'gaps_'
'forgotten_'
'eight_'
'dried_'
'dress_'
'directions_'
'department_'
'courses_'
'copenhagen_'
'continues_'
'casual_'
'casita_'
'browns_'
'anda_'
'accepted_'
'25th_'
'140_'
')._'
' ? ? ?_'
' .; _'
'yoga_'
'westins_'
'wee_'
'tone_'
'terraces_'
'studios_'
'seconds_'
'rocks_'
'pier_'
'peace_'
'patched_'
'necessarily_'
'message_'
'manor_'
'm2_'
'loch_'
'lly_'
'knobs_'
'isolation_'
'indicated_'
'hundreds_'
'host_'
'furthermore_'
'exhausted_'
'endless_'
'eastern_'
'divider_'
'dinners_'
'configured_'
'cleanest_'
'church_'
'butroom_'
'brass_'
'blown_'
'barcelona_'
'band_'
'apportioned_'
'aesthetic_'
'advice_'
'accomodate_'
' , ._'
'wider_'
'weary_'
'warsaw_'
'synthetic_'
'springy_'
'spoke_'
'remind_'
'relief_'
'reakfast_'
'ranch_'
'pale_'
'oasis_'
'max_'
'marvellous_'
'lobbies_'
'instructions_'
'incl_'
'immediate_'
'honeymoon_'
'guide_'
'ful_'
'freshener_'
'figured_'
'fashionable_'
'ent_'
'duck_'
'dropping_'
'distinctly_'
'crappy_'
'comparatively_'
'cash_'
'carpark_'
'canapes_'
'butit_'
'bolted_'
'battered_'
'areathe_'
'alas_'
'28_'
'2015_'
' ” ._'
'ythe_'
'wrapped_'
'unnecessary_'
'thinthe_'
'ter_'
'sunrise_'
'solution_'
'soaker_'
'slot_'
'score_'
'riu_'
'regards_'
'reeked_'
'played_'
'perspective_'
'pc_'
'oversize_'
'ongoing_'
'oil_'
'nobody_'
'nibbles_'
'mixture_'
'magazines_'
'lose_'
'lined_'
'knees_'
'joy_'
'irish_'
'individually_'
'image_'
'friendliness_'
'freestanding_'
'exudes_'
'extraordinarily_'
'extent_'
'excessive_'
'don_'
'disco_'
'dates_'
'crying_'
'creative_'
'consequently_'
'cigarettes_'
'chrome_'
'buffets_'
'blend_'
'bike_'
'automated_'
'attempts_'
'arms_'
'ant_'
'29_'
' ... ) ._'
' ( £ _'
'weekends_'
'wearing_'
'walkin_'
'unimpressive_'
'thrilled_'
'therethe_'
'sprawling_'
'spoilt_'
'spaciousness_'
'shaft_'
'saved_'
'rid_'
'reduced_'
'provision_'
'prepaid_'
'positively_'
'placement_'
'permanently_'
'passable_'
'outdoors_'
'orleans_'
'neighborhood_'
'motion_'
'mismatched_'
'mirrored_'
'meticulously_'
'maneuver_'
'landscaped_'
'inferior_'
'hrs_'
'hell_'
'gulf_'
'guestrooms_'
'goods_'
'fountain_'
'folded_'
'flooding_'
'fires_'
'eur_'
'escorted_'
'eaten_'
'distant_'
'detached_'
'delhi_'
'decked_'
'danish_'
'colder_'
'coffees_'
'claim_'
'catching_'
'calming_'
'backs_'
'answer_'
'amentities_'
'ambient_'
'african_'
';_'
' ? ) , _'
' ; - _'
'wires_'
'utterly_'
'trickle_'
'ther_'
'temperamental_'
'swish_'
'servicethe_'
'pedestal_'
'oak_'
'novotels_'
'motor_'
'modernising_'
'matters_'
'magic_'
'ley_'
'internally_'
'happens_'
'garbage_'
'fresher_'
'everytime_'
'ease_'
'descent_'
'cubicles_'
'comprised_'
'cnn_'
'bouncy_'
'beneath_'
'background_'
'andmy_'
'accents_'
'1960_'
'"_'
' ....... _'
'wheels_'
'usage_'
'universal_'
'tvthe_'
'trend_'
'touring_'
'toothbrushes_'
'teak_'
'sweeping_'
'storing_'
'soundly_'
'smoothly_'
'smoky_'
'scalding_'
'rush_'
'rolls_'
'retains_'
'restricted_'
'rent_'
'quilts_'
'posted_'
'piping_'
'pillowsthe_'
'outer_'
'oceanview_'
'nap_'
'na_'
'mosquitoes_'
'mobility_'
'meat_'
'layed_'
'kings_'
'kick_'
'intended_'
'inc_'
'ia_'
'hundred_'
'hob_'
'highlights_'
'hgi_'
'hated_'
'flushed_'
'devoid_'
'declined_'
'darkening_'
'coupled_'
'comprehensive_'
'comfortableroom_'
'cheery_'
'cafeteria_'
'burn_'
'andvery_'
'accomodating_'
'22nd_'
'1950_'
'trick_'
'thailand_'
'stepped_'
'soda_'
'showered_'
'settle_'
'separately_'
'sensational_'
'sections_'
'row_'
'roomwe_'
'rickety_'
'requiring_'
'reputation_'
'produced_'
'penny_'
'owned_'
'neatly_'
'minuses_'
'miami_'
'leads_'
'knob_'
'harsh_'
'grotty_'
'greeting_'
'geared_'
'fireworks_'
'filter_'
'doona_'
'delightfully_'
'decision_'
'courtesy_'
'condensation_'
'bunch_'
'beachfront_'
'awkwardly_'
'alley_'
'700_'
'180_'
'ventilated_'
'transparent_'
'test_'
'sum_'
'staffthe_'
'stadium_'
'squishy_'
'squashed_'
'shouting_'
'shortly_'
'shine_'
'seven_'
'sensor_'
'sandwich_'
'salt_'
'roomroom_'
'rectified_'
'rarity_'
'purchased_'
'piano_'
'path_'
'patch_'
'os_'
'oozes_'
'onthe_'
'occasional_'
'nowadays_'
'nondescript_'
'modernthe_'
'mats_'
'largely_'
'innovative_'
'ideally_'
'hurt_'
'hugely_'
'hanger_'
'grace_'
'fried_'
'folding_'
'finebut_'
'dislike_'
'datedthe_'
'croissants_'
'cobwebs_'
'co_'
'claw_'
'causing_'
'caliber_'
'bringing_'
'becomes_'
'baththe_'
'avenue_'
'australian_'
'assumed_'
'advise_'
' :) _'
'waters_'
'viewthe_'
'vietnam_'
'useable_'
'upside_'
'unappealing_'
'traveled_'
'teh_'
'sugar_'
'subway_'
'substance_'
'source_'
'soup_'
'seventh_'
'route_'
'roomit_'
'quit_'
'promise_'
'prestige_'
'pond_'
'pine_'
'peninsula_'
'pancakes_'
'okbut_'
'okaythe_'
'ning_'
'naturally_'
'moreover_'
'mega_'
'lounger_'
'kitchenettes_'
'imagination_'
'illuminated_'
'hint_'
'etcthe_'
'ensuring_'
'disturbance_'
'ding_'
'dined_'
'decade_'
'creature_'
'cracking_'
'coast_'
'closely_'
'clogged_'
'climbing_'
'claims_'
'ceramic_'
'broom_'
'boasts_'
'appetizers_'
'antiques_'
'againthe_'
'`_'
'23rd_'
'130_'
' ) !_'
'watched_'
'ware_'
'vending_'
'vanities_'
'ure_'
'unfortunate_'
'tooth_'
'speakers_'
'sooooo_'
'smalland_'
'quietly_'
'pop_'
'oldish_'
'modular_'
'mill_'
'mechanism_'
'mansion_'
'lukewarm_'
'ls_'
'killer_'
'ignored_'
'housing_'
'glory_'
'francisco_'
'focus_'
'florida_'
'fat_'
'equipments_'
'edinburgh_'
'drip_'
'disgrace_'
'containers_'
'comforable_'
'challenging_'
'camping_'
'butwe_'
'bites_'
'batteries_'
'accurate_'
' :)_'
'ups_'
'tremendous_'
'tin_'
'swanky_'
'suffer_'
'resembled_'
'pan_'
'operating_'
'named_'
'million_'
'melia_'
'manicured_'
'madrid_'
'luggages_'
'lazy_'
'lavatory_'
'knocking_'
'interestingly_'
'inspiring_'
'infinity_'
'imaginable_'
'gbp_'
'ell_'
'dreamy_'
'definition_'
'decadent_'
'crib_'
'crew_'
'countries_'
'conventional_'
'contact_'
'considerable_'
'competition_'
'closes_'
'caught_'
'canopy_'
'brilliantly_'
'attend_'
'ated_'
'address_'
') _'
'& _'
' .+ _'
'wheel_'
'video_'
'tips_'
'timeshare_'
'stops_'
'standalone_'
'sloped_'
'slipping_'
'roomso_'
'rm_'
'recognition_'
'recliner_'
'plant_'
'perk_'
'pane_'
'operation_'
'ned_'
'methe_'
'ks_'
'kicked_'
'integrated_'
'impress_'
'focused_'
'film_'
'downgraded_'
'discounted_'
'destination_'
'creepy_'
'creating_'
'cosmetic_'
'controllable_'
'consideration_'
'concerns_'
'claimed_'
'bw_'
'buti_'
'bend_'
'barn_'
'atmospheric_'
'apt_'
'airline_'
'acropolis_'
'27_'
'26th_'
'13th_'
'$_'
'wobbly_'
'unfriendly_'
'trek_'
'stupid_'
'stored_'
'splash_'
'sf_'
'sensitive_'
'salts_'
'sachets_'
'remaining_'
'razor_'
'rave_'
'questionable_'
'polish_'
'ping_'
'parked_'
'mugs_'
'mount_'
'merely_'
'matches_'
'marbled_'
'load_'
'join_'
'ireland_'
'insects_'
'ingly_'
'housekeeper_'
'hopeless_'
'gs_'
'gaudy_'
'flowing_'
'fight_'
'entryway_'
'elliptical_'
'dublin_'
'def_'
'deals_'
'dank_'
'comfortableour_'
'cockroach_'
'closest_'
'caribbean_'
'capital_'
'burnt_'
'blood_'
'baggage_'
'assist_'
'approximately_'
'220_'
' .$ _'
'voices_'
'upto_'
'unwelcoming_'
'umbrellas_'
'tranquil_'
'trade_'
'thorough_'
'superking_'
'stellar_'
'stair_'
'squeaked_'
'sleepthe_'
'sleepers_'
'sick_'
'ships_'
'sexy_'
'secured_'
'scene_'
'risk_'
'retained_'
'rattled_'
'rainy_'
'princess_'
'patterned_'
'patchy_'
'niggle_'
'nicerooms_'
'meats_'
'layer_'
'largethe_'
'insisted_'
'heaps_'
'hamptons_'
'guestroom_'
'garish_'
'frozen_'
'fluorescent_'
'flashy_'
'fees_'
'feathers_'
'extravagant_'
'exist_'
'engine_'
'dozen_'
'dissapointed_'
'directed_'
'depends_'
'cushion_'
'confirmation_'
'competent_'
'comfortablewe_'
'candles_'
'butour_'
'bet_'
'began_'
'ay_'
'ave_'
'associated_'
'accordingly_'
' :-)_'
' .• _'
'xmas_'
'wines_'
'viewed_'
'vibrant_'
'veneer_'
'university_'
'uniquely_'
'tours_'
'telling_'
'subpar_'
'stories_'
'sometime_'
'shoddy_'
'sewage_'
'separation_'
'sank_'
'roomier_'
'rocking_'
'resembles_'
'quirks_'
'pretentious_'
'pictured_'
'pads_'
'overcrowded_'
'outthe_'
'noisythe_'
'neglected_'
'molding_'
'mass_'
'masculine_'
'leaky_'
'laying_'
'lawn_'
'graded_'
'golden_'
'germany_'
'footstool_'
'female_'
'engineer_'
'emergency_'
'eager_'
'duration_'
'ded_'
'decore_'
'contrary_'
'code_'
'chintzy_'
'cement_'
'bordering_'
'blows_'
'blah_'
'baked_'
'audio_'
'appropriately_'
'ans_'
'andbut_'
'andaz_'
'60s_'
'00pm_'
'00am_'
'.(_'
' !, _'
'zen_'
'workthe_'
'whistles_'
'washington_'
'vacuum_'
'truth_'
'tripping_'
'transport_'
'toto_'
'stockholm_'
'spain_'
'smoker_'
'smiling_'
'sed_'
'scattered_'
'rydges_'
'requirement_'
'related_'
'regulate_'
'reduce_'
'rd_'
'rang_'
'powered_'
'porter_'
'pocket_'
'pin_'
'peculiar_'
'olde_'
'okaybut_'
'od_'
'nicei_'
'nicebut_'
'ms_'
'mosquitos_'
'intermittent_'
'ingredients_'
'hawaiian_'
'greet_'
'extend_'
'esp_'
'ergonomic_'
'ending_'
'edthe_'
'dominated_'
'desire_'
'crystal_'
'creak_'
'crawling_'
'contents_'
'container_'
'capsule_'
'bucks_'
'brochure_'
'bins_'
'atrocious_'
'angled_'
'adapter_'
'abundance_'
'absence_'
'28th_'
'24th_'
'2000_'
'1950s_'
' ) : _'
' &_'
'youth_'
'wharf_'
'wetroom_'
'weddings_'
'victoria_'
'urgently_'
'upthe_'
'um_'
'tune_'
'tasteless_'
'stately_'
'spire_'
'sorely_'
'series_'
'scuff_'
'scottish_'
'saunas_'
'rooftops_'
'rental_'
'reno_'
'remodelled_'
'recess_'
'programme_'
'pricy_'
'peeve_'
'ou_'
'modernization_'
'loveseat_'
'loaded_'
'latch_'
'ingthe_'
'improving_'
'imperial_'
'hawaii_'
'haul_'
'ferry_'
'exemplary_'
'espa_'
'drawing_'
'drained_'
'downright_'
'downgrade_'
'diner_'
'dessert_'
'designers_'
'decide_'
'crap_'
'condos_'
'collapsed_'
'clunky_'
'clients_'
'classed_'
'categories_'
'broadband_'
'bracket_'
'bedwe_'
'avoided_'
'auto_'
'assistance_'
'app_'
'andand_'
'adapted_'
'act_'
' .-- _'
'yummy_'
'wedged_'
'washcloths_'
'vip_'
'tracks_'
'temps_'
'sri_'
'soviet_'
'sons_'
'silk_'
'selling_'
'sectional_'
'scary_'
'salmon_'
'repeat_'
'relation_'
'refilled_'
'quietest_'
'queues_'
'que_'
'profile_'
'professionally_'
'pit_'
'ood_'
'occupant_'
'mixer_'
'minimally_'
'marginal_'
'map_'
'loyal_'
'lightning_'
'lid_'
'lemon_'
'learned_'
'lawns_'
'jump_'
'intrusive_'
'interest_'
'inspired_'
'info_'
'imposing_'
'id_'
'holds_'
'growing_'
'fuzzy_'
'field_'
'faithful_'
'enhanced_'
'empire_'
'easter_'
'duct_'
'draws_'
'direction_'
'den_'
'darkness_'
'creates_'
'compensated_'
'chip_'
'canada_'
'breaking_'
'boiler_'
'awhile_'
'assuming_'
'appointedthe_'
'apology_'
'annoyed_'
'aircondition_'
'adorned_'
'800_'
'109_'
' ) ..._'
'zed_'
'worldwide_'
'wondering_'
'visually_'
'velvet_'
'varying_'
'vacuumed_'
'trays_'
'transportation_'
'teens_'
'sweat_'
'suggests_'
'substantially_'
'sublime_'
'subdued_'
'struck_'
'stamp_'
'snoring_'
'skirting_'
'shortage_'
'safari_'
'riverside_'
'revamped_'
'redo_'
'rectangular_'
'raining_'
'provisions_'
'preserved_'
'pen_'
'oppressive_'
'omelettes_'
'nite_'
'nine_'
'mahogany_'
'livingroom_'
'lanvin_'
'kiva_'
'jam_'
'inward_'
'instantly_'
'impact_'
'hyde_'
'hotwire_'
'horror_'
'hits_'
'helpfull_'
'fallen_'
'extremly_'
'expresso_'
'everybody_'
'ellipticals_'
'dramatic_'
'distinctive_'
'deserve_'
'death_'
'dance_'
'curry_'
'concert_'
'comfortableand_'
'coke_'
'cave_'
'bygone_'
'balls_'
'attachment_'
'ary_'
'artificial_'
'apples_'
'anyways_'
'affect_'
'85_'
' , # _'
' ! ! ! ! !_'
'warmthe_'
'walkways_'
'unpacked_'
'unlucky_'
'underwhelmed_'
'tthe_'
'triangular_'
'tolerable_'
'ties_'
'ticks_'
'tick_'
'temporary_'
'temple_'
'supportive_'
'socks_'
'skip_'
'signage_'
'shot_'
'sensible_'
'schemes_'
'rice_'
'resturant_'
'restrooms_'
'ren_'
'rely_'
'regis_'
'reaching_'
'pitch_'
'owner_'
'omelette_'
'nook_'
'mt_'
'mode_'
'mo_'
'miniature_'
'lesser_'
'leeds_'
'learn_'
'lag_'
'ity_'
'isthe_'
'ipads_'
'grown_'
'glassed_'
'gentleman_'
'ethe_'
'erratic_'
'dripped_'
'dormitory_'
'da_'
'cushy_'
'cuba_'
'congested_'
'comfotable_'
'canapés_'
'bubble_'
'brings_'
'bowls_'
'bearable_'
'arabic_'
'appartment_'
'anti_'
'animal_'
'andbathroom_'
'amounts_'
'alternatives_'
'37_'
'27th_'
' ) ,_'
' " . _'
'win_'
'waterpark_'
'walks_'
'waiter_'
'vienna_'
'versus_'
'unplug_'
'unpacking_'
'unlimited_'
'timethe_'
'throwback_'
'theirs_'
'teenager_'
'substandard_'
'storm_'
'steal_'
'stage_'
'southern_'
'slides_'
'slanted_'
'ski_'
'sing_'
'severely_'
'satisfying_'
'rotten_'
'roomour_'
'roasting_'
'resemble_'
'represented_'
'refridgerator_'
'ra_'
'quantity_'
'pro_'
'primarily_'
'practice_'
'potentially_'
'postage_'
'platter_'
'pantry_'
'panelled_'
'pampered_'
'overpowering_'
'overheated_'
'occasionally_'
'niceour_'
'niceand_'
'nail_'
'mum_'
'midtown_'
'michigan_'
'mexican_'
'mary_'
'letter_'
'isolated_'
'impressively_'
'gyms_'
'guessing_'
'gripes_'
'grass_'
'freshened_'
'framed_'
'flip_'
'fixing_'
'fellow_'
'fails_'
'exquisitely_'
'executed_'
'ely_'
'elevated_'
'disrepair_'
'delay_'
'cuts_'
'conventions_'
'comforting_'
'chaotic_'
'cables_'
'butthis_'
'buses_'
'brasserie_'
'balinese_'
'allotted_'
'allergy_'
'accompanied_'
'abit_'
'201_'
'1930_'
' .'
' ) .- _'
'yr_'
'younger_'
'wondered_'
'waitress_'
'upset_'
'union_'
'uninspired_'
'ugh_'
'trapped_'
'tly_'
'taller_'
'swivel_'
'solved_'
'social_'
'sided_'
'shout_'
'severe_'
'sealant_'
'scenery_'
'sandpaper_'
'riverview_'
'reward_'
'retain_'
'reflection_'
'rattling_'
'quibble_'
'problematic_'
'prevented_'
'pi_'
'photographs_'
'pattern_'
'ors_'
'omg_'
'om_'
'nz_'
'nordic_'
'noisiest_'
'monday_'
'meter_'
'majestic_'
'maintaining_'
'lunches_'
'ld_'
'lane_'
'lampshades_'
'lakeside_'
'knowledgeable_'
'inwards_'
'hygiene_'
'humming_'
'hangars_'
'ham_'
'grateful_'
'glorified_'
'glasgow_'
'gatwick_'
'force_'
'fog_'
'ex_'
'emptied_'
'employee_'
'draining_'
'daytime_'
'daybed_'
'cube_'
'crawl_'
'courts_'
'continually_'
'confused_'
'comp_'
'cleanness_'
'characterful_'
'cbd_'
'caps_'
'cab_'
'bush_'
'bulky_'
'boiled_'
'boarding_'
'bellman_'
'bedsheets_'
'beans_'
'amiss_'
'ameneties_'
'alongside_'
'affected_'
'adjusting_'
'accoutrements_'
'36_'
'210_'
'160_'
' ... ) _'
' ) & _'
'• _'
'ying_'
'wire_'
'warp_'
'vista_'
'valve_'
'utility_'
'unplugged_'
'underway_'
'unbeatable_'
'twenty_'
'trust_'
'tends_'
'tears_'
'swinging_'
'swedish_'
'suggestion_'
'stretching_'
'stores_'
'stating_'
'soiled_'
'smokey_'
'skylight_'
'skimpy_'
'shorter_'
'shirts_'
'shirt_'
'secret_'
'scenic_'
'rings_'
'rim_'
'refreshment_'
'ratings_'
'pulling_'
'poolthe_'
'polyester_'
'patches_'
'overdone_'
'outward_'
'nuts_'
'nozzle_'
'notwithstanding_'
'nicewe_'
'niceit_'
'mr_'
'motorway_'
'lovelythe_'
'liner_'
'lately_'
'languages_'
'lakeview_'
'kl_'
'judging_'
'insist_'
'hum_'
'hubby_'
'hinges_'
'hiking_'
'hike_'
'hbo_'
'happier_'
'handed_'
'generator_'
'gem_'
'gate_'
'furthest_'
'floods_'
'false_'
'facilties_'
'exact_'
'estate_'
'efforts_'
'drove_'
'dilapidated_'
'dents_'
'custom_'
'culture_'
'coverage_'
'conversion_'
'continuously_'
'continuous_'
'conservatory_'
'compensate_'
'compartment_'
'coats_'
'clientele_'
'chat_'
'celebrate_'
'carts_'
'buzzing_'
'bumped_'
'brunch_'
'bali_'
'anyhow_'
'anonymous_'
'annoyingly_'
'animals_'
'airconditioner_'
'ai_'
'additions_'
'31_'
' .£ _'
' ' - _'
'zone_'
'workers_'
'wifithe_'
'visitor_'
'vinyl_'
'vegetarian_'
'uplift_'
'unexpectedly_'
'tattered_'
'tank_'
'struggling_'
'striking_'
'starters_'
'stairwell_'
'sport_'
'spiral_'
'sales_'
'rotting_'
'roadside_'
'restoration_'
'restocked_'
'region_'
'refund_'
'proportions_'
'printer_'
'pressed_'
'predictable_'
'plans_'
'peter_'
'painfully_'
'overwater_'
'opulence_'
'munich_'
'mouthwash_'
'moisture_'
'luke_'
'locally_'
'kyoto_'
'jungle_'
'ive_'
'ier_'
'ian_'
'hyatts_'
'hugethe_'
'hotelrooms_'
'honours_'
'hollywood_'
'headboards_'
'gin_'
'futuristic_'
'furnace_'
'functionally_'
'frette_'
'freeze_'
'france_'
'fewer_'
'faster_'
'extensively_'
'exchange_'
'establishments_'
'ery_'
'error_'
'driver_'
'draft_'
'doorway_'
'doorthe_'
'ditto_'
'detract_'
'cubical_'
'crowds_'
'crooked_'
'cleared_'
'cheeses_'
'casitas_'
'carries_'
'capsules_'
'candy_'
'california_'
'cabana_'
'bustle_'
'birds_'
'battery_'
'ballrooms_'
'av_'
'attendant_'
'aswell_'
'artistic_'
'arrange_'
'ard_'
'appointment_'
'airconditioned_'
'aesthetics_'
'advertise_'
'active_'
'accustomed_'
'?_'
'39_'
'30th_'
'204_'
'2017_'
'*. _'
' : ( _'
' ' ( _'
'visual_'
'understood_'
'truck_'
'toasty_'
'terminals_'
'tepid_'
'taste'
'suprised_'
'supermarket_'
'suitably_'
'suffice_'
'suffering_'
'stinks_'
'stereo_'
'stalls_'
'sour_'
'slammed_'
'shortcomings_'
'sheratons_'
'seaside_'
'scuffs_'
'scored_'
'roughly_'
'residents_'
'receptionists_'
'ps_'
'possibility_'
'pile_'
'permanent_'
'parisian_'
'papers_'
'outrageous_'
'oth_'
'official_'
'noisy'
'nightclub_'
'nicks_'
'neutrogena_'
'muggy_'
'modernity_'
'misleading_'
'menus_'
'mechanical_'
'matresses_'
'mask_'
'manages_'
'lthough_'
'layers_'
'junk_'
'jug_'
'joining_'
'irons_'
'ious_'
'inefficient_'
'industry_'
'indoors_'
'indifferent_'
'ide_'
'hungry_'
'hardest_'
'grande_'
'goodbut_'
'glitzy_'
'ghastly_'
'freeway_'
'fills_'
'fail_'
'excessively_'
'excelent_'
'emailed_'
'draperies_'
'displayed_'
'dine_'
'dhabi_'
'desserts_'
'dated'
'crash_'
'countryside_'
'console_'
'consistency_'
'combine_'
'clad_'
'circle_'
'chipping_'
'ceilinged_'
'canvas_'
'cans_'
'burner_'
'bulgari_'
'buds_'
'bling_'
'bijou_'
'bedi_'
'bathroombut_'
'army_'
'anytime_'
'annoyance_'
'angles_'
'andbed_'
'americans_'
'alaska_'
'airless_'
'advertising_'
'abu_'
'38_'
'202_'
'2010_'
'105_'
'100'
' ( ! ) _'
' ! - _'
'yellowstone_'
'ws_'
'windy_'
'wicker_'
'volcano_'
'verything_'
'venues_'
'users_'
'unfinished_'
'unclean_'
'tions_'
'tightly_'
'thursday_'
'theatre_'
'text_'
'tes_'
'technical_'
'sweltering_'
'stopping_'
'smalli_'
'sidethe_'
'shoebox_'
'shaver_'
'shares_'
'serene_'
'rushed_'
'runways_'
'roaring_'
'represents_'
'raise_'
'rained_'
'quay_'
'plump_'
'passes_'
'passage_'
'paradise_'
'palette_'
'painful_'
'pace_'
'offset_'
'odern_'
'musky_'
'mural_'
'mouse_'
'mo'
'microscopic_'
'mexico_'
'malfunctioning_'
'maintains_'
'losing_'
'longue_'
'lol_'
'listening_'
'letdown_'
'les_'
'laps_'
'kowloon_'
'involved_'
'inter_'
'inroom_'
'ine_'
'independent_'
'increase_'
'imagined_'
'ically_'
'huts_'
'hurry_'
'hoteli_'
'hiding_'
'hectic_'
'ha_'
'gymnasium_'
'format_'
'foreign_'
'follows_'
'flexible_'
'faint_'
'externally_'
'explanation_'
'excess_'
'equipt_'
'dread_'
'doubled_'
'disneyland_'
'dings_'
'designated_'
'dating_'
'danube_'
'curious_'
'critical_'
'cords_'
'cooktop_'
'content_'
'cond_'
'complemented_'
'comfortablebut_'
'chemical_'
'chargeable_'
'cast_'
'caravan_'
'cancelled_'
'calibre_'
'cabanas_'
'bustling_'
'bureau_'
'bumping_'
'bs_'
'bookings_'
'bizarrely_'
'bird_'
'bedbut_'
'bbq_'
'attempted_'
'argue_'
'amply_'
'alive_'
'airplanes_'
'afterwards_'
'adorable_'
'adjustment_'
'ada_'
'35th_'
'30'
'2x_'
'205_'
'115_'
'101_'
' +_'
'zealand_'
'wool_'
'weirdly_'
'vancouver_'
'urine_'
'understatement_'
'toys_'
'tiredthe_'
'ticked_'
'technically_'
'streaming_'
'stools_'
'sticks_'
'staircases_'
'stacked_'
'spotted_'
'spatious_'
'spacious'
'softness_'
'silverware_'
'sill_'
'seventies_'
'scrupulously_'
'scandic_'
'roth_'
'roomrooms_'
'roads_'
'reserve_'
'redecorating_'
'recommendation_'
'rabbit_'
'puts_'
'protruding_'
'preferable_'
'pre'
'otel_'
'olympic_'
'oldest_'
'niceroom_'
'necessity_'
'muffins_'
'mentioning_'
'meh_'
'massages_'
'ma_'
'lux_'
'liquor_'
'link_'
'interested_'
'human_'
'hr_'
'hottest_'
'honored_'
'heck_'
'hammock_'
'hair'
'greater_'
'gathering_'
'gain_'
'fragrance_'
'footprint_'
'feb_'
'fear_'
'ethernet_'
'encounter_'
'enamel_'
'driven_'
'docks_'
'differently_'
'describes_'
'depth_'
'decks_'
'conclusion_'
'cigar_'
'chlorine_'
'btw_'
'barthe_'
'ashtray_'
'arabian_'
'apply_'
'appearing_'
'125_'
'05_'
' . ) , _'
' , ' _'
' ) -_'
' ( ? ) _'
'yelling_'
'withthe_'
'warped_'
'wa_'
'unobtrusive_'
'unnecessarily_'
'unlocked_'
'tv'
'tram_'
'tradition_'
'thomas_'
'texas_'
'tayed_'
'suitethe_'
'stroll_'
'starter_'
'sprays_'
'spouse_'
'splurge_'
'spirits_'
'spacethe_'
'southwest_'
'sooner_'
'sofitels_'
'sloppy_'
'slate_'
'simplistic_'
'shutting_'
'shoved_'
'screws_'
'screwed_'
'screw_'
'santa_'
'roomthis_'
'results_'
'resting_'
'rested_'
'requisite_'
'reports_'
'repeatedly_'
'remainder_'
'reflecting_'
'record_'
'rainwater_'
'quiet'
'progress_'
'produce_'
'pitiful_'
'parquet_'
'overwhelmed_'
'overallthe_'
'ously_'
'netflix_'
'mumbai_'
'minifridge_'
'messy_'
'ments_'
'media_'
'med_'
'manoeuvre_'
'malmaison_'
'male_'
'lso_'
'locking_'
'linked_'
'leaning_'
'largish_'
'ladder_'
'kits_'
'killed_'
'kidding_'
'ked_'
'justice_'
'john_'
'install_'
'ily_'
'iced_'
'hut_'
'helping_'
'genuinely_'
'fraying_'
'fortune_'
'fooled_'
'flawlessly_'
'festival_'
'exotic_'
'engineering_'
'electrics_'
'ee_'
'drunk_'
'dome_'
'cum_'
'compete_'
'comfortableit_'
'clocks_'
'cells_'
'carved_'
'capitol_'
'café_'
'butbathroom_'
'burj_'
'bold_'
'boasted_'
'blissfully_'
'bigthe_'
'awfully_'
'auckland_'
'aroma_'
'architecturally_'
'arch_'
'allthe_'
'affording_'
'advertises_'
'5'
'119_'
' ), _'
' ! ! )_'
'window'
'wever_'
'were'
'varieties_'
'usthe_'
'undoubtedly_'
'uncluttered_'
'translucent_'
'toddler_'
'stripped_'
'stink_'
'std_'
'spectacularly_'
'slope_'
'slid_'
'shed_'
'sauce_'
'sag_'
'roofs_'
'roman_'
'ridge_'
'ri_'
'respond_'
'repeated_'
'ranging_'
'race_'
'promises_'
'premiere_'
'pouring_'
'pound_'
'physically_'
'petals_'
'ped_'
'parlor_'
'palms_'
'page_'
'padding_'
'outrageously_'
'obstructed_'
'oberoi_'
'numbered_'
'novel_'
'noisier_'
'ninth_'
'nicethis_'
'new'
'nautical_'
'mushy_'
'modestly_'
'metropole_'
'metre_'
'massively_'
'magical_'
'mad_'
'locationthe_'
'law_'
'lanka_'
'landscape_'
'lagged_'
'knee_'
'jazz_'
'jack_'
'increased_'
'immense_'
'ig_'
'ial_'
'hotelsthe_'
'hospitable_'
'horrific_'
'honor_'
'haven_'
'grime_'
'greens_'
'georgian_'
'g'
'fter_'
'feedback_'
'fed_'
'egyptian_'
'eaves_'
'dented_'
'defective_'
'datedbut_'
'cy_'
'cots_'
'comprising_'
'companion_'
'citizenm_'
'choosing_'
'charmless_'
'buta_'
'bund_'
'bump_'
'bly_'
'bleak_'
'billed_'
'big'
'benefited_'
'beats_'
'bearing_'
'bathtube_'
'barking_'
'awaiting_'
'arge_'
'andnice_'
'allergies_'
'aimed_'
'89_'
'68_'
'46_'
'40'
'33_'
'301_'
'104_'
' ......._'
' .& _'
' , - _'
' , $ _'
'ya_'
'x'
'wonky_'
'windowthe_'
'waves_'
'waterthe_'
'warrant_'
'warming_'
'waffle_'
'utilized_'
'unwind_'
'unused_'
'unstable_'
'tubthe_'
'trucks_'
'telephones_'
'tea'
'subject_'
'stress_'
'standardthe_'
'span_'
'soo_'
'slipped_'
'sleep'
'slats_'
'sizebut_'
'sirens_'
'signed_'
'shockingly_'
'sewer_'
'senior_'
'secondary_'
'scrub_'
'sanitary_'
'roller_'
'residential_'
'realy_'
'racket_'
'prosecco_'
'presents_'
'preferences_'
'practicality_'
'posters_'
'portland_'
'pointless_'
'pm'
'placethe_'
'pets_'
'petite_'
'partying_'
'overstuffed_'
'outs_'
'offices_'
'notable_'
'no'
'ngly_'
'mouth_'
'mom_'
'mint_'
'mild_'
'midday_'
'lightly_'
'lifted_'
'leftovers_'
'laughable_'
'ko'
'itc_'
'ir_'
'intercon_'
'insanely_'
'iness_'
'iffy_'
'hustle_'
'hugh_'
'hotelroom_'
'hesitation_'
'headache_'
'flaking_'
'feeble_'
'facilitiesthe_'
'experience'
'existing_'
'emails_'
'edwardian_'
'ect_'
'dungeon_'
'dribble_'
'draughty_'
'disposable_'
'dinged_'
'dancing_'
'crabtree_'
'coughing_'
'controlling_'
'consequence_'
'confined_'
'carrying_'
'budapest_'
'borderline_'
'blaring_'
'bedroomed_'
'bedand_'
'balanced_'
'backside_'
'attraction_'
'atlanta_'
'astoria_'
'asprey_'
'aromatherapy_'
'appointed'
'applied_'
'amenitiesthe_'
'albert_'
'alarms_'
'acoustics_'
'48_'
'450_'
'4'
'34_'
'2018_'
'102_'
'10'
' … ._'
' .:) _'
' ... )_'
' . '
' ( " _'
' !- _'
' !( _'
'zing_'
'yosemite_'
'yards_'
'wrote_'
'workstation_'
'workdesk_'
'wonderfull_'
'wiring_'
'wild_'
'widescreen_'
'wattage_'
'warren_'
'visibly_'
'ves_'
'ved_'
'varies_'
'vacant_'
'v'
'upright_'
'unhappy_'
'understaffed_'
'trappings_'
'transferred_'
'trademark_'
'toppers_'
'tonight_'
'toilettries_'
'toilette_'
'toiletries'
'tiring_'
'tic_'
'thicker_'
'thames_'
'teddy_'
'tariff_'
'tablets_'
'sweating_'
'sunsets_'
'sunk_'
'strangest_'
'stingy_'
'stay'
'spreads_'
'spoil_'
'splashing_'
'spider_'
'speeds_'
'specified_'
'southwestern_'
'sophistication_'
'slightest_'
'si_'
'showerheads_'
'settees_'
'seams_'
'seamless_'
'scales_'
'scaffolding_'
'sandals_'
'sample_'
'sa_'
'ruin_'
'removing_'
'recommendations_'
'rasa_'
'protector_'
'programmes_'
'pride_'
'presence_'
'plantation_'
'placing_'
'picking_'
'personalized_'
'perfume_'
'pearl_'
'pacious_'
'overused_'
'overall'
'orders_'
'noise'
'nights'
'network_'
'ner_'
'monitor_'
'monaco_'
'lime_'
'like'
'liberty_'
'landmark_'
'key'
'ise_'
'intermittently_'
'insect_'
'indicate_'
'ignore_'
'horizon_'
'homemade_'
'ho_'
'heatwave_'
'hdmi_'
'halfway_'
'hairdryers_'
'grandma_'
'glimpse_'
'furniture'
'feelings_'
'fading_'
'extraction_'
'emphasis_'
'electronically_'
'eighth_'
'drilling_'
'dressers_'
'domestic_'
'disliked_'
'devine_'
'desirable_'
'delegates_'
'decoratedthe_'
'day'
'dare_'
'dangerously_'
'dad_'
'cp_'
'contacted_'
'coin_'
'coffee'
'closet'
'cava_'
'carvery_'
'capable_'
'bristol_'
'breaks_'
'boast_'
'blower_'
'blasting_'
'beef_'
'bedtime_'
'bedroom'
'baseboards_'
'babies_'
'ayed_'
'andbeds_'
'ance_'
'amazingthe_'
'aaa_'
'45'
'208_'
'203_'
'107_'
'' _'
' ” , _'
' ’ ._'
' ~_'
' . . ._'
' ( ! ) , _'
' ! ! ) ._'
'yo_'
'yesterday_'
'yarra_'
'worthwhile_'
'work'
'with'
'winner_'
'warm'
'waiters_'
'waikiki_'
'vouchers_'
'vibrating_'
'van_'
'untouched_'
'tubes_'
'trolley_'
'top'
'toe_'
'tired'
'timeless_'
'threw_'
'thousands_'
'thermostats_'
'taxis_'
'sucked_'
'steamy_'
'spared_'
'space'
'slots_'
'sleepless_'
'silence_'
'shower'
'shortbread_'
'shapes_'
'shaded_'
'sewing_'
'separates_'
'seattle_'
'scotland_'
'rusting_'
'retaining_'
'restuarant_'
'restaurant'
'regret_'
'registration_'
'refitted_'
'recharge_'
'reat_'
'quad_'
'primary_'
'porcelain_'
'playground_'
'piped_'
'pillars_'
'panorama_'
'packing_'
'oval_'
'omelets_'
'okay'
'observation_'
'nts_'
'novelty_'
'notes_'
'nit_'
'navajo_'
'names_'
'montreal_'
'moist_'
'ming_'
'measure_'
'mail_'
'lumps_'
'lowered_'
'lifting_'
'lavishly_'
'ky_'
'kill_'
'kempinski_'
'ja'
'ith_'
'invited_'
'immensely_'
'imaginative_'
'humongous_'
'hosts_'
'hopes_'
'hop_'
'herethe_'
'here'
'hefty_'
'greasy_'
'gourmet_'
'galore_'
'fulfilled_'
'footage_'
'fo'
'fitout_'
'fields_'
'ferragamo_'
'excellant_'
'entrances_'
'entertaining_'
'enjoyment_'
'eateries_'
'drown_'
'down'
'doorman_'
'detergent_'
'delayed_'
'dec_'
'cushioned_'
'creams_'
'comfyand_'
'cheesy_'
'celebration_'
'caulking_'
'casa_'
'cardboard_'
'cally_'
'brother_'
'brighten_'
'blank_'
'bite_'
'awards_'
'award_'
'attract_'
'attendees_'
'architect_'
'andthere_'
'an'
'amazing'
'allergic_'
'alike_'
'ah_'
'again'
'adelaide_'
'ably_'
'72_'
'5the_'
'3'
'240_'
'----_'
' ✅ _'
' , '
' ( & _'
'ze_'
'workmanship_'
'woefully_'
'vicinity_'
'ven_'
'vegetables_'
'vastly_'
'unsure_'
'unsafe_'
'unrenovated_'
'ul_'
'ty'
'turkish_'
'turkey_'
'trump_'
'tiredness_'
'tie_'
'thumbs_'
'thoughts_'
'there'
'sweaty_'
'supper_'
'success_'
'sturdy_'
'stretched_'
'stopper_'
'spraying_'
'sir_'
'silky_'
'shell_'
'shake_'
'seperated_'
'sea'
'screams_'
'scheduled_'
'rinse_'
'reviewed_'
'revealed_'
'repainted_'
'reduction_'
'redeeming_'
'recessed_'
'reaction_'
'ray_'
'raw_'
'protection_'
'pricethe_'
'periods_'
'pastel_'
'packs_'
'packet_'
'ow_'
'ory_'
'of'
'occupy_'
'observations_'
'oatmeal_'
'nuisance_'
'notably_'
'ngs_'
'neighbourhood_'
'mystery_'
'mosaic_'
'molten_'
'modern'
'minded_'
'mere_'
'managers_'
'lining_'
'league_'
'large'
'langham_'
'labelled_'
'knowledge_'
'ing'
'infact_'
'incorporated_'
'images_'
'iconic_'
'icelandic_'
'ible_'
'hower_'
'hire_'
'hello_'
'hanoi_'
'handsome_'
'handling_'
'gutted_'
'greenery_'
'great'
'gran_'
'gleaming_'
'ges_'
'ged_'
'gallery_'
'ft'
'fronted_'
'freebies_'
'frankfurt_'
'footsteps_'
'floored_'
'floor'
'films_'
'facial_'
'experiencethe_'
'exhibition_'
'evidently_'
'everthing_'
'evelyn_'
'equipped'
'environmental_'
'emirates_'
'edible_'
'echo_'
'dysfunctional_'
'dozens_'
'dividing_'
'divan_'
'discreet_'
'disappointments_'
'disappeared_'
'dimensions_'
'des_'
'consist_'
'conscious_'
'comfortablei_'
'column_'
'ck_'
'celebrating_'
'burgers_'
'brussels_'
'befitting_'
'bedwas_'
'beatles_'
'bathrooms'
'bagels_'
'ba_'
'atlantis_'
'arguing_'
'aqua_'
'amenities'
'afterthought_'
'accident_'
'absorbent_'
':- _'
'5star_'
'501_'
'4star_'
'310_'
'305_'
'209_'
'1930s_'
'170_'
'111_'
'),_'
'yrs_'
'yours_'
'workmen_'
'wherever_'
'water'
'wall'
'very'
'vertical_'
'understanding_'
'understandable_'
'unavailable_'
'ultimately_'
'trap_'
'toilet'
'together'
'til_'
'therwise_'
'thermal_'
'themes_'
'tells_'
'teabags_'
'tasting_'
'task_'
'tartan_'
'taped_'
'sympathetically_'
'swe_'
'subsequently_'
'striped_'
'strictly_'
'stra'
'staid_'
'spell_'
'soggy_'
'smal_'
'skinny_'
'shines_'
'shall_'
'sands_'
'salon_'
'rules_'
'rennovated_'
'regal_'
'refurbishments_'
'refill_'
'quietness_'
'questions_'
'plywood_'
'pillowtop_'
'payment_'
'payed_'
'paste_'
'overbooked_'
'orchid_'
'oms_'
'ome_'
'obscured_'
'nose_'
'noice_'
'night'
'nearest_'
'naked_'
'moulton_'
'mosque_'
'modernistic_'
'mis'
'messed_'
'mersey_'
'mediterranean_'
'mayfair_'
'masses_'
'macau_'
'lounge'
'locate_'
'lifetime_'
'lifestyle_'
'lackluster_'
'judge_'
'istanbul_'
'ist_'
'housekeepers_'
'horizontal_'
'home'
'holders_'
'hile_'
'gra'
'goodwe_'
'glass'
'glamour_'
'gaylord_'
'freely_'
'formerly_'
'flannels_'
'exude_'
'experiencing_'
'essence_'
'escapes_'
'entitled_'
'enough'
'enabled_'
'drivers_'
'drag_'
'doormen_'
'detector_'
'descript_'
'dental_'
'deliciously_'
'decrepit_'
'decorate_'
'dear_'
'copy_'
'cool'
'conservative_'
'compares_'
'commercial_'
'comfie_'
'columns_'
'coldthe_'
'clouds_'
'clearing_'
'chatting_'
'butlins_'
'but'
'bricks_'
'breathe_'
'blues_'
'bi_'
'bi'
'bent_'
'benches_'
'belong_'
'basic'
'bands_'
'balcony'
'b'
'athrooms_'
'achieved_'
'achieve_'
'abysmal_'
'8'
'79_'
'6'
'45pm_'
'29th_'
'25'
'215_'
'1920s_'
'15'
'117_'
'103_'
'0'
') ._'
' : '
' ........_'
' .# _'
'zipped_'
'xcellent_'
'wound_'
'won_'
'whom_'
'whisper_'
'wand_'
'wafer_'
'tumble_'
'too'
'tobacco_'
'tinier_'
'timing_'
'thisthe_'
'thinks_'
'that'
'tenth_'
'teen_'
'stunk_'
'students_'
'strips_'
'stomach_'
'statue_'
'staring_'
'star'
'splashed_'
'smallit_'
'slim_'
'shy_'
'scones_'
'schedule_'
'scarce_'
'rule_'
'rounded_'
'roomsi_'
'rooms'
'roms_'
'rio_'
'ringing_'
'replied_'
'renewal_'
'recognised_'
'receiving_'
'rc_'
'rattle_'
'q'
'pushing_'
'pudding_'
'prove_'
'propped_'
'promenade_'
'programs_'
'proceeded_'
'printed_'
'presume_'
'potatoes_'
'phoned_'
'personable_'
'paul_'
'park'
'paneled_'
'paned_'
'packages_'
'owever_'
'opener_'
'occurred_'
'myanmar_'
'morningthe_'
'modernist_'
'me'
'mate_'
'marketing_'
'lythe_'
'loudest_'
'lingering_'
'ities_'
'invested_'
'interrupted_'
'ined_'
'ight_'
'ied_'
'hu'
'hotelbut_'
'hosting_'
'horn_'
'head'
'grandmother_'
'government_'
'gifts_'
'gather_'
'formula_'
'fond_'
'floating_'
'flickering_'
'flashing_'
'finds_'
'excellence_'
'examples_'
'elevator'
'elephants_'
'dumbbells_'
'dimmer_'
'didn_'
'desktop_'
'depend_'
'dealing_'
'daythe_'
'crumbs_'
'coupon_'
'corrected_'
'confusion_'
'configurations_'
'conceivable_'
'combining_'
'client_'
'chaos_'
'causes_'
'cancel_'
'by'
'buzz_'
'butbut_'
'bumps_'
'bluetooth_'
'bkk_'
'biz_'
'bathroomwe_'
'barren_'
'bag'
'backyard_'
'asset_'
'arty_'
'arts_'
'are'
'andoverall_'
'ana_'
'aligned_'
'acres_'
'acknowledged_'
'accessibility_'
'7'
'53'
'41_'
'330_'
'31st_'
'312_'
'304_'
'214_'
'212_'
'2009_'
'2006_'
'20'
'114_'
'106_'
'00'
'!._'
' ) ., _'
' ( '
' " ) ._'
'zurich_'
'zoo_'
'ys_'
'wilderness_'
'wi'
'weathered_'
'vice_'
'unreliable_'
'unlikely_'
'united_'
'ubiquitous_'
'ub_'
'tripped_'
'toronto_'
'tickets_'
'thinner_'
'themthe_'
'talked_'
'swissotel_'
'sushi_'
'survive_'
'super'
'strawberries_'
'srooms_'
'splashes_'
'spirit_'
'slab_'
'si'
'showerit_'
'shift_'
'seek_'
'scandinavia_'
'salads_'
'safe'
'runners_'
'ro_'
'richly_'
'res_'
'representative_'
'relocated_'
'regulated_'
'reclining_'
'rattan_'
'randomly_'
'ramada_'
'puddle_'
'property'
'project_'
'poached_'
'plugging_'
'players_'
'plat_'
'phuket_'
'pasta_'
'partitioned_'
'pampering_'
'packets_'
'outside'
'organic_'
'ore_'
'noting_'
'not'
'nonsmoking_'
'nh_'
'negotiate_'
'misses_'
'mis_'
'mildly_'
'mattress'
'marred_'
'm'
'luxury'
'loving_'
'lovey_'
'louder_'
'logs_'
'lip_'
'linger_'
'lightbulbs_'
'laundered_'
'kitschy_'
'ke_'
'jumped_'
'juliet_'
'ju'
'ions_'
'interconnected_'
'inter'
'injury_'
'inconsiderate_'
'inclined_'
'incident_'
'imo_'
'il_'
'hudson_'
'hotels'
'hotel'
'honoured_'
'hin_'
'high'
'helpful'
'gym'
'grand'
'global_'
'glitches_'
'glacier_'
'fort_'
'footed_'
'ff_'
'exorbitant_'
'eu_'
'etc'
'ence_'
'elbow_'
'eighties_'
'ear'
'ea'
'ds'
'drops_'
'drench_'
'draped_'
'downhill_'
'downfall_'
'dly_'
'diverse_'
'dissapointment_'
'dissapointing_'
'displays_'
'disconnected_'
'difficulties_'
'detailed_'
'deserving_'
'decors_'
'darkthe_'
'dame_'
'cra'
'costing_'
'copper_'
'copious_'
'contributed_'
'concerning_'
'cold'
'cleanour_'
'cleanbut_'
'chunky_'
'cent_'
'cancun_'
'cal_'
'breakfast'
'boxed_'
'birmingham_'
'bid_'
'belongs_'
'beaches_'
'bathroomour_'
'bathroomi_'
'bad'
'backwards_'
'averagethe_'
'approached_'
'anybody_'
'andalthough_'
'allegedly_'
'africa_'
'adaptor_'
'adapters_'
'55'
'320_'
'309_'
'306_'
'303_'
'302_'
'300'
'225_'
'206_'
'2005_'
' ; ( _'
' : " _'
'yesteryear_'
'yangon_'
'wore_'
'wit_'
'winding_'
'wifi'
'wich_'
'wer'
'websites_'
'wandering_'
'w'
'vestibule_'
'vere_'
'vely_'
'us'
'ur'
'upgrade'
'unsightly_'
'unheated_'
'undisturbed_'
'uncommon_'
'ue_'
'tub'
'travelzoo_'
'transformed_'
'tow_'
'torch_'
'tiered_'
'theming_'
'te'
'tan_'
'sy_'
'surrounds_'
'sur'
'street'
'steakhouse_'
'steady_'
'stationary_'
'stack_'
'ss'
'smiles_'
'slippy_'
'slipper_'
'shutter_'
'shifted_'
'sheers_'
'servers_'
'ser'
'sensibly_'
'searching_'
'scraped_'
'saigon_'
'safely_'
'royalty_'
'rotating_'
'reply_'
'renovation'
'remotes_'
'reminding_'
'recognized_'
'rebuilt_'
'radi'
'qualitythe_'
'qualify_'
'pulls_'
'ps'
'privileges_'
'primitive_'
'porthole_'
'porridge_'
'play'
'perfect'
'patterns_'
'pastry_'
'pants_'
'pa'
'oxford_'
'overseas_'
'ould_'
'operator_'
'op_'
'offthe_'
'occupying_'
'nostalgic_'
'northern_'
'nooks_'
'non'
'newcastle_'
'nan'
'nails_'
'moroccan_'
'moon_'
'moments_'
'moldings_'
'memories_'
'medieval_'
'measures_'
'markets_'
'mar'
'lotus_'
'loo'
'locals_'
'linnen_'
'kudos_'
'kingsized_'
'james_'
'jacuzzis_'
'islands_'
'inform_'
'indulgent_'
'inclusions_'
'impecable_'
'icy_'
'ical_'
'husbands_'
'hotelwe_'
'hotelit_'
'hoteland_'
'hors_'
'hkg_'
'hearty_'
'havana_'
'haunted_'
'hard'
'grocery_'
'gri'
'goodit_'
'glow_'
'gh_'
'futon_'
'fusty_'
'froze_'
'foul_'
'formica_'
'foodthe_'
'follifoot_'
'flushes_'
'flew_'
'fitments_'
'firm'
'fineroom_'
'fine'
'filtered_'
'fifteen_'
'fayre_'
'favour_'
'favorites_'
'fan'
'fair'
'f'
'expresses_'
'explaining_'
'ep'
'enthusiastic_'
'ens_'
'ears_'
'dvds_'
'draught_'
'doorways_'
'differences_'
'delicate_'
'delays_'
'decor'
'days'
'damn_'
'cycle_'
'costa_'
'convinced_'
'convertible_'
'controller_'
'complains_'
'competitors_'
'communication_'
'comfywe_'
'coldest_'
'clo'
'cleanwe_'
'cleanand_'
'chocs_'
'challenges_'
'cart_'
'carlson_'
'campus_'
'butmy_'
'burns_'
'bunks_'
'buffet'
'boxy_'
'booth_'
'boats_'
'best'
'ber'
'belief_'
'behold_'
'bedso_'
'beda_'
'barrier_'
'balconythe_'
'backthe_'
'back'
'awoke_'
'awakened_'
'assorted_'
'area'
'andwhen_'
'andso_'
'andshower_'
'andno_'
'ana'
'als_'
'advanced_'
'activated_'
'accent_'
'\\_'
'900_'
'66_'
'602_'
'59_'
'4the_'
'32nd_'
'307_'
'219_'
'217_'
'2007_'
'1920_'
'112_'
')- _'
' @ _'
' ? ? ? ?_'
' : + _'
' ./ _'
' ........ _'
' , ... _'
' ! ! ) _'
'yuk_'
'yuck_'
'yed_'
'yacht_'
'wowed_'
'woodland_'
'wildlife_'
'wet'
'welcomes_'
'washers_'
'washbasins_'
'was'
'war_'
'wander_'
'wakes_'
'ving_'
'vehicle_'
'veg_'
'up'
'unreal_'
'uninteresting_'
'unhelpful_'
'unexceptional_'
'undersized_'
'uncomfy_'
'ultramodern_'
'ultimate_'
'tt'
'town'
'towels'
'towelling_'
'toliet_'
'toiletriesthe_'
'toes_'
'thro'
'though'
'thee_'
'tented_'
'su'
'sti'
'stateroom_'
'statement_'
'staining_'
'staff'
'squeezy_'
'squeaking_'
'squeak_'
'spilled_'
'spiders_'
'spas_'
'sinking_'
'ses_'
'servicable_'
'see'
'seafront_'
'seafood_'
'rv_'
'rugby_'
'roses_'
'rooom_'
'roomvery_'
'roommy_'
'rival_'
'represent_'
'reminder_'
'reds_'
'red'
'reception'
'readythe_'
'readily_'
'quoted_'
'quote_'
'quality'
'purifier_'
'provisioned_'
'proportion_'
'promotion_'
'promising_'
'programming_'
'praise_'
'posts_'
'poorest_'
'pollution_'
'pie_'
'picturesque_'
'peoples_'
'pedestrian_'
'pax_'
'pancake_'
'orientated_'
'oldfashioned_'
'off'
'ny'
'nt'
'noisethe_'
'nly_'
'native_'
'narrower_'
'na'
'mustard_'
'murals_'
'moulded_'
'monument_'
'modernizing_'
'moan_'
'mm_'
'measured_'
'marketed_'
'marine_'
'ma'
'livable_'
'littered_'
'lite_'
'limit_'
'lies_'
'level'
'lent_'
'laugh_'
'keycard_'
'joint_'
'jacket_'
'ithe_'
'it'
'irst_'
'installations_'
'impossibly_'
'if'
'hygienic_'
'hostess_'
'hosted_'
'hix_'
'hing_'
'handful_'
'hadthe_'
'grip_'
'grimy_'
'goodour_'
'gloriously_'
'ginger_'
'generation_'
'galley_'
'furnish_'
'friendlythe_'
'fountains_'
'forgettable_'
'firmly_'
'feed_'
'exiting_'
'excellent'
'erthe_'
'ensuites_'
'en'
'effects_'
'dy_'
'dreadfully_'
'drapery_'
'downthe_'
'disconcerting_'
'disagree_'
'developed_'
'departing_'
'deg_'
'deceiving_'
'criticisms_'
'criteria_'
'coral_'
'complement_'
'comped_'
'comfortablevery_'
'co'
'clutter_'
'clean'
'classes_'
'cistern_'
'chilling_'
'cheap'
'capacious_'
'cancellation_'
'bubbly_'
'bubbles_'
'breakfastrooms_'
'breakfastroom_'
'bored_'
'bloody_'
'bleach_'
'benefitted_'
'bedit_'
'bears_'
'bathroon_'
'bathroomsthe_'
'baking_'
'backache_'
'average'
'attendants_'
'armani_'
'angel_'
'also'
'ali'
'ale_'
'ala_'
'aid_'
'agreeable_'
'adjustments_'
':) _'
'69_'
'502_'
'44_'
'425_'
'40th_'
'401_'
'38'
'34'
'33rd_'
'318_'
'311_'
'2008_'
'1500_'
'135_'
'129_'
'108_'
'1'
'.'
'--- _'
'*._'
' ° _'
' ` _'
' .) _'
' ! ! _'
' ! '
'— _'
'£ _'
'za'
'xi'
'worries_'
'worlds_'
'wishes_'
'whistle_'
'wellington_'
'well'
'watering_'
'void_'
'view'
'vibrated_'
'unobstructed_'
'um'
'tyne_'
'turnover_'
'trail_'
'tourism_'
'tiny'
'timely_'
'tied_'
'throwing_'
'thinnest_'
'thin'
'thatthe_'
'thatched_'
'thankful_'
'tempting_'
'tee_'
'tarnished_'
'tar'
'swiftly_'
'suprisingly_'
'suggestions_'
'straw_'
'standard'
'stairway_'
'spin'
'specification_'
'special'
'sole_'
'sodas_'
'smashing_'
'simultaneously_'
'shoulders_'
'shook_'
'serena_'
'seminar_'
'search_'
'sculptures_'
'scrapes_'
'sco'
'rows_'
'roomwas_'
'roomsbut_'
'respectable_'
'resident_'
'research_'
'refurbishment'
'redesigned_'
'recycling_'
'ratio_'
'quibbles_'
'proud_'
'preparing_'
'pork_'
'popped_'
'pool'
'polynesian_'
'pole_'
'pointing_'
'pigeon_'
'perched_'
'per'
'pealing_'
'pays_'
'paddington_'
'packaged_'
'overflow_'
'over'
'outstandingly_'
'os'
'operational_'
'ony_'
'ong_'
'omelet_'
'odors_'
'obliged_'
'nu'
'np_'
'nouveau_'
'noisily_'
'nightwe_'
'nicked_'
'nest_'
'nes_'
'need'
'mthe_'
'morning'
'modernize_'
'milan_'
'mid'
'maximise_'
'maui_'
'masterpiece_'
'marquis_'
'manually_'
'mal_'
'machinery_'
'lu'
'london'
'lobbythe_'
'little'
'lighting'
'light'
'lever_'
'lavender_'
'lat'
'labeled_'
'ku'
'kleenex_'
'jury_'
'jumeirah_'
'jo'
'jar_'
'jan_'
'jackson_'
'ized_'
'itv_'
'ite_'
'ish'
'irritation_'
'intimacy_'
'inns'
'inn'
'influence_'
'inedible_'
'indigo_'
'ina_'
'illumination_'
'ia'
'have'
'handbasin_'
'graciously_'
'gorgeously_'
'goodrooms_'
'gon_'
'ging_'
'ght_'
'george_'
'gar'
'ga'
'fusion_'
'functional'
'full'
'freindly_'
'fre'
'foremost_'
'flops_'
'flavour_'
'fl_'
'fit'
'finer_'
'fi'
'festive_'
'farthest_'
'fa'
'excellentthe_'
'evening'
'esque_'
'enable_'
'embedded_'
'em_'
'elephant_'
'ee'
'dreaded_'
'door'
'distinguish_'
'discoloured_'
'disadvantage_'
'directory_'
'dimmed_'
'dime_'
'deserved_'
'delta_'
'deliberately_'
'debris_'
'data_'
'darn_'
'darling_'
'dan'
'cur'
'cs_'
'condition'
'compound_'
'compliment_'
'compensation_'
'comb_'
'clubs_'
'climbed_'
'classified_'
'circumstances_'
'chunks_'
'ches_'
'charme_'
'ch'
'caulk_'
'candle_'
'canary_'
'cambridge_'
'butt_'
'business'
'bts_'
'brighton_'
'breakout_'
'bore_'
'bon'
'boasting_'
'biscuit_'
'bedvery_'
'basicthe_'
'bamboo_'
'backing_'
'available'
'austin_'
'ations_'
'at'
'associate_'
'asi'
'ashamed_'
'ark_'
'answered_'
'andas_'
'ah'
'advantages_'
'ache_'
'accommodates_'
'ab'
']. _'
'9'
'74'
'63_'
'506_'
'50'
'43_'
'410_'
'36'
'35'
'32'
'2br_'
'230'
'221_'
'220'
'207_'
'1br_'
'149_'
'101'
'/'
' ~ _'
' ---_'
' ( ! )_'
' " ) , _'
'£_'
'zip_'
'ye'
'worn'
'worlde_'
'wn_'
'wipe_'
'wierd_'
'whisky_'
'whiskey_'
'wembley_'
'ward_'
'walkable_'
'views'
'variation_'
'utilised_'
'upwards_'
'uns'
'unpretentious_'
'unimpressed_'
'under'
'una'
'tur'
'tuned_'
'tuesday_'
'tu'
'toiletthe_'
'todays_'
'ticket_'
'throws_'
'thr_'
'th'
'ten'
'tapas_'
'ta'
't'
'suprise_'
'sucks_'
'subsequent_'
'style'
'stunningly_'
'structural_'
'stronger_'
'stinky_'
'steaming_'
'sprung_'
'spongy_'
'specials_'
'spanking_'
'sothe_'
'sorting_'
'son'
'solve_'
'smellies_'
'smell'
'smallrooms_'
'smallroom_'
'slider_'
'sizeand_'
'sink'
'side'
'showerwe_'
'showerroom_'
'shoulder_'
'shore_'
'shard_'
'service'
'server_'
'seedy_'
'scared_'
's'
'rthe_'
'roomed_'
'rooma'
'riverwalk_'
'rips_'
'revamping_'
'restrictions_'
'responded_'
'resistance_'
'reset_'
'resemblance_'
'repainting_'
'reluctantly_'
'reliably_'
'register_'
'refuse_'
'ready'
'razors_'
'railings_'
'purely_'
'pubic_'
'presentable_'
'potions_'
'pot'
'planet_'
'plainly_'
'pitched_'
'piled_'
'philips_'
'personalised_'
'peel_'
'patrons_'
'paperwork_'
'ownership_'
'overrun_'
'outwards_'
'ott_'
'ostentatious_'
'orthe_'
'ordering_'
'orchids_'
'or'
'open'
'oi'
'occupies_'
'oc'
'notified_'
'nightlight_'
'nickel_'
'newthe_'
'neon_'
'neglect_'
'muddy_'
'movable_'
'moorish_'
'moisturiser_'
'military_'
'mfortable_'
'meanwhile_'
'mb_'
'mal'
'makings_'
'lovingly_'
'lovely'
'loss_'
'lli'
'laughing_'
'label_'
'kitchen'
'kingdom_'
'king'
'khalifa_'
'justified_'
'jurys_'
'itrooms_'
'ised_'
'irritations_'
'ir'
'io'
'interstate_'
'internet'
'int_'
'insult_'
'installation_'
'insert_'
'inevitably_'
'indication_'
'inconveniently_'
'illy_'
'ile_'
'ii_'
'icing_'
'hypnos_'
'humidifier_'
'huge'
'hooked_'
'honesty_'
'hollow_'
'hk'
'harrah_'
'hardthe_'
'haphazard_'
'hangings_'
'hammering_'
'granddaughter_'
'gothic_'
'gluten_'
'gladly_'
'gi'
'ger_'
'georgetown_'
'gadget_'
'fyi_'
'furnished'
'fries_'
'friendlier_'
'fri'
'fraction_'
'fox_'
'flavor_'
'flare_'
'failing_'
'extortionate_'
'extends_'
'expensive'
'exceptions_'
'es'
'embarrassing_'
'ei'
'dusting_'
'drury_'
'drunken_'
'dreams_'
'doable_'
'died_'
'di_'
'der'
'den'
'del_'
'decorator_'
'decorated'
'decaf_'
'deal'
'dbl_'
'daysthe_'
'dampness_'
'd'
'cuban_'
'ct_'
'ct'
'crumbling_'
'crispy_'
'crisps_'
'cramped'
'cramp_'
'counted_'
'costly_'
'coolest_'
'cookware_'
'confy_'
'conceived_'
'compromise_'
'comprises_'
'communist_'
'comfyroom_'
'comfortablethis_'
'colombo_'
'cleanroom_'
'cla'
'city'
'circus_'
'chic'
'caring_'
'cappuccino_'
'cape_'
'cafes_'
'bvlgari_'
'butter_'
'butno_'
'bunker_'
'building'
'bubbling_'
'brushing_'
'broad_'
'brisbane_'
'breaker_'
'bre'
'branding_'
'borgata_'
'boil_'
'boardroom_'
'bla'
'ben'
'belfast_'
'beamed_'
'beam_'
'bbc1_'
'bathroomrooms_'
'bathe_'
'bartender_'
'barracks_'
'banyan_'
'balloons_'
'bal'
'autiful_'
'au_'
'ating_'
'astonishing_'
'arethe_'
'arcade_'
'ar'
'approaching_'
'any'
'antonio_'
'anti'
'and'
'all'
'afternoons_'
'aerobic_'
'ae'
'adventure_'
'admire_'
'ace_'
'accepting_'
'absent_'
'abound_'
'abandoned_'
'64_'
'52'
'505_'
'49_'
'420_'
'406_'
'322_'
'316_'
'23'
'222_'
'130'
'112'
'# _'
'!!. _'
' : * _'
' .[ _'
' - - _'
' ) ... _'
' ) '
' " '
' ! ._'
'~ _'
'zz'
'ze'
'ym_'
'yay_'
'ya'
'wipes_'
'wigwam_'
'whimsical_'
'which'
'weekend'
'wednesday_'
'wallthe_'
'waits_'
'voice_'
'vietnamese_'
'valued_'
'vacuuming_'
'upbeat_'
'unt'
'unsuitable_'
'unspectacular_'
'unsatisfactory_'
'unloved_'
'uniformly_'
'uni'
'une'
'uncontrollable_'
'uluru_'
'tri'
'tremendously_'
'transformation_'
'trams_'
'toy_'
'tower'
'tothe_'
'tive_'
'tinythe_'
'timer_'
'thirdly_'
'thing'
'tele_'
'technician_'
'takeaway_'
'sweden_'
'surpassed_'
'surcharge_'
'sundries_'
'sums_'
'suffers_'
'stylethe_'
'string_'
'stones_'
'sto'
'stinking_'
'steamed_'
'steaks_'
'stayit_'
'start'
'staffing_'
'st'
'squash_'
'spoon_'
'sp'
'souless_'
'some'
'sober_'
'snowy_'
'smarter_'
'smallwe_'
'small'
'sla'
'sion_'
'shuts_'
'sherry_'
'sheeting_'
'shame'
'shaking_'
'sha'
'servings_'
'sep_'
'senses_'
'seldom_'
'seeking_'
'scar'
'scandanavian_'
'rotana_'
'roomsrooms_'
'rooma_'
'ring'
'rig'
'ries_'
'revellers_'
'retired_'
'restaurantthe_'
'relations_'
'refurb'
'reflective_'
'recommending_'
'rank_'
'railing_'
'qui'
'pseudo_'
'protect_'
'programmed_'
'pp_'
'poured_'
'porters_'
'points'
'pleasant'
'pirate_'
'pillows'
'pillow'
'performance_'
'pee_'
'oversight_'
'overcooked_'
'ough_'
'opportunities_'
'ooked_'
'oo'
'onwards_'
'on'
'omfortable_'
'oldthe_'
'odds_'
'obtained_'
'obliging_'
'objects_'
'now'
'norway_'
'nonexistent_'
'niceties_'
'niagara_'
'ni'
'newness_'
'nces_'
'nathan_'
'my'
'multitude_'
'monster_'
'mist_'
'misfortune_'
'mini'
'mind'
'microwave'
'mickey_'
'metropolitan_'
'memorabilia_'
'melted_'
'mbps_'
'matchbox_'
'mas'
'makati_'
'mains_'
'magnified_'
'macaroons_'
'luxurythe_'
'lt'
'loud'
'lou'
'look'
'location'
'lo_'
'listing_'
'li'
'le'
'lasted_'
'lamb_'
'jaccuzi_'
'j_'
'ironically_'
'io_'
'ini_'
'infant_'
'indulgence_'
'inde'
'increasingly_'
'imho_'
'illusion_'
'il'
'iest_'
'hunt_'
'hotelthis_'
'hongkong_'
'hed_'
'guessed_'
'guard_'
'grosvenor_'
'grohe_'
'greys_'
'greatwe_'
'grander_'
'gradually_'
'goodroom_'
'glossy_'
'girlfriend_'
'fun'
'frustrated_'
'fro_'
'frigid_'
'friendliest_'
'ford_'
'foot'
'food'
'fluff_'
'flu'
'flows_'
'floridian_'
'flat'
'flannel_'
'first'
'fingers_'
'finerooms_'
'financial_'
'fiddly_'
'feast_'
'feared_'
'expanded_'
'excluding_'
'excercise_'
'everywhere'
'ese_'
'ered_'
'entertained_'
'enoughthe_'
'eli'
'eg'
'eccentric_'
'eally_'
'dvc_'
'dun'
'dubious_'
'dramatically_'
'dragged_'
'downs_'
'doors'
'doonas_'
'distraction_'
'disposal_'
'discussion_'
'disability_'
'diet_'
'diego_'
'deeply_'
'darkened_'
'cumbersome_'
'creaks_'
'cowboy_'
'corn'
'cordial_'
'cor'
'condiments_'
'comfortablemy_'
'collect_'
'cockroaches_'
'clue_'
'class'
'citizen_'
'circulate_'
'cinnamon_'
'chemicals_'
'checks_'
'charleston_'
'charles_'
'ced_'
'catches_'
'casinos_'
'care'
'captive_'
'butbed_'
'burgundy_'
'bummer_'
'buildingthe_'
'buckets_'
'brushed_'
'bright'
'breakfasts'
'bothersome_'
'borrow_'
'blvd_'
'blackpool_'
'black'
'better'
'benedict_'
'bed'
'bean_'
'beachy_'
'bathtub'
'bathrrom_'
'bathroomand_'
'bathrom_'
'bar'
'banana_'
'balconys_'
'avoiding_'
'avg_'
'autumn_'
'aud_'
'attracted_'
'ati'
'athens_'
'asthe_'
'assure_'
'associates_'
'arrivals_'
'arranging_'
'around'
'arguably_'
'arena_'
'archaic_'
'aquarium_'
'applying_'
'apologies_'
'annoyances_'
'andin_'
'andbreakfast_'
'analog_'
'amex_'
'am'
'airey_'
'aired_'
'adored_'
'aching_'
'accompanying_'
'acceptably_'
'= _'
'91'
'65'
'56_'
'408_'
'407_'
'405_'
'404_'
'403_'
'38th_'
'36th_'
'308_'
'21'
'200'
'150'
'116_'
'-$_'
' :( _'
' .“ _'
' ... '
' - -_'
' ) .( _'
' ' ' _'
' " !_'
' ! , _'
'é'
'youthe_'
'yo'
'yes'
'yellowish_'
'world'
'wonders_'
'wo'
'withe_'
'wiped_'
'week'
'wan_'
'visit'
'viewsthe_'
'vi'
'vegetarians_'
'van'
'vaguely_'
'utilities_'
'ut'
'ures_'
'unmatched_'
'underwent_'
'unchanged_'
'uk'
'ues_'
'type'
'trundle_'
'truely_'
'tru'
'triangle_'
'travel'
'transfers_'
'tra'
'touchthe_'
'tor_'
'topnotch_'
'tonic_'
'ti'
'thirsty_'
'thingthe_'
'tha_'
'texan_'
'tely_'
'sus'
'surf_'
'supporting_'
'sunbed_'
'suite'
'stomping_'
'still'
'staywe_'
'statues_'
'stare_'
'stairways_'
'squeezing_'
'sponge_'
'spit_'
'spic_'
'specialty_'
'speaks_'
'slower_'
'sketchy_'
'simpler_'
'showeri_'
'she'
'shady_'
'settling_'
'secluded_'
'seasoned_'
'seals_'
'se'
'scrubbing_'
'sbut_'
'satisfaction_'
'salvatore_'
'rushing_'
'router_'
'romance_'
'river'
'ris'
'rf'
'resembling_'
'repellent_'
'refer_'
'rant_'
'rainhead_'
'quantities_'
'py_'
'pu'
'provincial_'
'proverbial_'
'professionalism_'
'productive_'
'printing_'
'pressing_'
'preserve_'
'pr'
'pour_'
'pmthe_'
'place'
'pit'
'piles_'
'pic'
'pi'
'peru_'
'peek_'
'pavilion_'
'pat'
'overrated_'
'overcome_'
'orchard_'
'oozed_'
'oning_'
'onethe_'
'ol'
'og'
'offensive_'
'oard_'
'nutshell_'
'nthe_'
'notices_'
'narita_'
'murano_'
'mp'
'moveable_'
'mor'
'monkeys_'
'mixing_'
'mission_'
'miraculously_'
'midweek_'
'michelin_'
'mer'
'medical_'
'marriott'
'maps_'
'manual_'
'mainland_'
'mahal_'
'ly'
'lisbon_'
'limitations_'
'lift'
'lie'
'lengthy_'
'laura_'
'laughably_'
'landings_'
'landed_'
'itself'
'itbut_'
'itand_'
'iron'
'interactive_'
'intend_'
'installing_'
'inquired_'
'inevitable_'
'individuals_'
'incorporating_'
'incomplete_'
'inclusion_'
'inability_'
'ime_'
'ie'
'hue_'
'hot'
'hindsight_'
'handsomely_'
'hand'
'hamburger_'
'greece_'
'grainy_'
'goose_'
'goldfish_'
'glassware_'
'gaming_'
'fu'
'fs_'
'freethe_'
'free'
'fool_'
'floorand_'
'flag_'
'fixings_'
'fashioned'
'fancier_'
'factors_'
'ex'
'everywherethe_'
'europe'
'established_'
'epic_'
'enticing_'
'enormously_'
'encased_'
'electrically_'
'edroom_'
'echoed_'
'ec'
'dutch_'
'dusit_'
'drips_'
'drenched_'
'download_'
'disturbances_'
'distressed_'
'disruption_'
'disgusted_'
'disguise_'
'disappoints_'
'differ_'
'delivering_'
'degrees'
'definitively_'
'definetely_'
'deco'
'decline_'
'dangling_'
'cycled_'
'curtains'
'crummy_'
'cro'
'crashing_'
'cranked_'
'craft_'
'cozy'
'counts_'
'cough_'
'cos_'
'corridor'
'core_'
'continuing_'
'conformable_'
'comfortablea'
'combines_'
'combinations_'
'collected_'
'clearance_'
'cle'
'clawfoot_'
'classify_'
'clarion_'
'ci'
'chi_'
'cherry_'
'challenged_'
'ces_'
'carpet'
'canals_'
'can'
'camera_'
'butand_'
'bulk_'
'buffett_'
'bruised_'
'bridges_'
'brag_'
'bothering_'
'book'
'bolt_'
'bli'
'bee'
'bedbathroom_'
'beautifull_'
'bea'
'bath'
'bashed_'
'bases_'
'barefoot_'
'ays_'
'away'
'awaited_'
'avail_'
'audience_'
'ates_'
'ast_'
'ashley_'
'arctic_'
'applies_'
'appartments_'
'ankle_'
'andeverything_'
'ami'
'alt'
'al'
'ak'
'age'
'adequate'
'accomodated_'
'98_'
'64'
'62_'
'54'
'52_'
'409_'
'402_'
'314_'
'211_'
'2004_'
'193'
'126_'
'120'
'118_'
'111'
'11'
'102'
'09_'
'08_'
'02_'
'.... _'
' : • _'
' .--_'
' . '_'
' ,, _'
' ) .._'
' ) + _'
' ' '
' ! ?_'
' ! ! ! ! ! !_'
'zion_'
'yu'
'you'
'yoghurt_'
'ymca_'
'yl'
'yet'
'www_'
'worrying_'
'wood'
'wolf_'
'witha_'
'winning_'
'who'
'whistling_'
'whereby_'
'way'
'walls'
'wallet_'
'wa'
'viking_'
'verify_'
'verging_'
'varnish_'
'values_'
'valuable_'
'urs_'
'unpleasantly_'
'unknown_'
'uninterrupted_'
'unconventional_'
'turquoise_'
'tuck_'
'tte_'
'tre'
'traders_'
'traces_'
'townhouse_'
'towel'
'tomorrow_'
'tin'
'tic'
'thousand_'
'thoughthe_'
'this'
'thickness_'
'thanksgiving_'
'than'
'tha'
'textured_'
'terry_'
'tender_'
'teams_'
'tat'
'tahoe_'
'swung_'
'swank_'
'surly_'
'supported_'
'superficial_'
'sumptuously_'
'sumptious_'
'suck_'
'stuff'
'struggles_'
'streetthe_'
'stow_'
'stays'
'stayroom_'
'squashy_'
'spreading_'
'spill_'
'sparkly_'
'sparking_'
'sparce_'
'soft'
'so'
'snazzy_'
'smallthis_'
'smack_'
'sliced_'
'slabs_'
'skype_'
'skylights_'
'sixties_'
'siting_'
'sin'
'sher'
'shape'
'sessions_'
'sep'
'seoul_'
'sells_'
'saver_'
'satisfy_'
'sand'
'sal'
'rubbed_'
'ru'
'rosewood_'
'roon_'
'roomsit_'
'roomsare_'
'roomoverall_'
'room'
'roger_'
'rising_'
'rises_'
'ri'
'rethink_'
'responsible_'
'respite_'
'residences_'
'reluctant_'
'relevant_'
'redesign_'
'recomend_'
'recognize_'
'recharging_'
'rece'
'rate'
'ramblas_'
'raffles_'
'quicker_'
'queenstown_'
'purchasing_'
'pumps_'
'pumped_'
'prop_'
'prep_'
'predictably_'
'powerpoints_'
'pounding_'
'potato_'
'poor'
'police_'
'ply_'
'plusses_'
'plus'
'plo'
'plays_'
'pineapple_'
'pillar_'
'pigeons_'
'pet'
'person'
'perfumed_'
'peeves_'
'peep_'
'pe_'
'paths_'
'passport_'
'passageway_'
'partners_'
'part'
'parking'
'pa_'
'owing_'
'overheard_'
'ought_'
'other'
'organization_'
'optimal_'
'operations_'
'openthe_'
'oli'
'offs_'
'obsolete_'
'obnoxious_'
'nottingham_'
'nicevery_'
'nice'
'ng'
'nd'
'nas'
'nal_'
'muchthe_'
'moves_'
'mon_'
'mirror'
'midst_'
'mi'
'mews_'
'metropol_'
'mel'
'mari'
'marbles_'
'mar_'
'maintainedthe_'
'mad'
'luxuriousthe_'
'luxurious'
'lug_'
'low'
'los_'
'loos_'
'long'
'lodgings_'
'listened_'
'lino_'
'lincoln_'
'limp_'
'limits_'
'lights'
'lifeless_'
'lia'
'leaned_'
'leaf_'
'kuerig_'
'ki'
'keyboard_'
'kettles_'
'kes_'
'ka_'
'ka'
'j'
'itour_'
'ite'
'itchy_'
'ion'
'inoperable_'
'inducing_'
'indicating_'
'inconveniences_'
'incidentally_'
'housekeeping'
'hotthe_'
'hotelour_'
'hired_'
'hinge_'
'henry_'
'hare_'
'halogen_'
'hairdrier_'
'had'
'h'
'grungy_'
'gro'
'grandson_'
'graffiti_'
'glam_'
'gf_'
'ge'
'gala_'
'furniturethe_'
'fumes_'
'friend'
'fridge'
'frequented_'
'forcing_'
'floori_'
'flickered_'
'flats_'
'fjord_'
'fire'
'filth_'
'filters_'
'fighting_'
'ffe'
'featureless_'
'father_'
'fascinating_'
'fact'
'faceless_'
'expected'
'exceeding_'
'exaggeration_'
'etro_'
'esthe_'
'ervice_'
'eri'
'ere'
'era'
'er'
'enquired_'
'end'
'encourage_'
'enabling_'
'eiffel_'
'edgy_'
'economical_'
'eautiful_'
'earned_'
'eames_'
'ea_'
'du'
'dri'
'drew_'
'drape_'
'drake_'
'dotted_'
'dor'
'done'
'discomfort_'
'discolored_'
'disappear_'
'director_'
'did'
'detracted_'
'desk'
'deserted_'
'des'
'denver_'
'defiantly_'
'dd'
'db_'
'dash_'
'da'
'curiously_'
'cry_'
'croatia_'
'cri'
'crackers_'
'counterspace_'
'cosy'
'coronado_'
'copacabana_'
'considerate_'
'cons'
'conce'
'components_'
'competitively_'
'companions_'
'comfortableoverall_'
'comfort'
'comf'
'cn_'
'cloudy_'
'clicking_'
'clarins_'
'ck'
'cinema_'
'cellar_'
'caveat_'
'caution_'
'cardiff_'
'canadian_'
'call'
'c'
'butvery_'
'buta'
'builders_'
'brickwork_'
'bos'
'bordered_'
'bor'
'bodies_'
'bo'
'blends_'
'blasted_'
'bit'
'bel'
'beforehand_'
'bedswe_'
'bedour_'
'beautiful'
'bay'
'bass_'
'bas'
'banks_'
'bakery_'
'backdrop_'
'awoken_'
'aura_'
'aug_'
'artsy_'
'arrivalthe_'
'arm'
'argument_'
'areas'
'ara'
'apr'
'apologized_'
'apointed_'
'ands'
'ando'
'andnot_'
'andhowever_'
'andhotel_'
'andgood_'
'amneties_'
'alone'
'allright_'
'ajar_'
'aim_'
'ai'
'ago'
'aforementioned_'
'ade_'
'ad'
'acts_'
'acknowledge_'
'abroad_'
'> _'
'92'
'90'
'80'
'77_'
'70'
'62'
'609_'
'56'
'50th_'
'50s_'
'503_'
'34th_'
'324_'
'317_'
'180'
'165_'
'160'
'124_'
'110'
'04_'
'01_'
',(_'
'('
' .... '
' .( '
' ) ...._'
' )'
' "_'
' " ... _'
' ! ! ! _'
' !'
'é_'
'yi'
'wyndham_'
'wotif_'
'works'
'working'
'wit'
'windowsthe_'
'windowsill_'
'windows'
'westerns_'
'webs_'
'we'
'waterside_'
'virgin_'
'villeroy_'
'ver'
'vel'
'vehicles_'
'vacations_'
'uu'
'utter_'
'uss'
'use'
'unwelcome_'
'uno'
'unmade_'
'unfair_'
'underwear_'
'unde'
'und_'
'un'
'uht_'
'ue'
'tudor_'
'trip'
'travelodges_'
'transported_'
'trans'
'towelsthe_'
'touch'
'toothe_'
'tivoli_'
'times'
'tight'
'tho'
'thinso_'
'therefor_'
'theater_'
'the'
'tempted_'
'techno_'
'tablethe_'
'tab_'
'switzerland_'
'swipe_'
'swi'
'suspended_'
'sup'
'suggesting_'
'suffocating_'
'successful_'
'stupidly_'
'stupendous_'
'strict_'
'static_'
'standardsthe_'
'stand'
'stag_'
'sroom_'
'spotlights_'
'spoken_'
'soundproofed'
'soundproof'
'soooooo_'
'sony_'
'som'
'soften_'
'slams_'
'sized'
'singular_'
'showerbut_'
'shinjuku_'
'sel'
'scream_'
'san'
'sad'
'ry'
'russian_'
'run'
'rt'
'rs'
'roomthere_'
'roomsroom_'
'roomsour_'
'roomsand_'
'roomnice_'
'roommate_'
'rods_'
'rly_'
'rituals_'
'revive_'
'reviewing_'
'reverse_'
'reveal_'
'reunion_'
'rests_'
'restless_'
'ress_'
'replenish_'
'renovationthe_'
'renovated'
'rendered_'
'removable_'
'remark_'
'regent_'
'reeks_'
'receptionthe_'
'rapid_'
'quietwe_'
'quid_'
'quebec_'
'pt_'
'protected_'
'problem'
'price'
'pri'
'preventing_'
'president_'
'precious_'
'powdered_'
'positions_'
'portholes_'
'po'
'plunger_'
'plethora_'
'pits_'
'pilows_'
'pillowcases_'
'permeates_'
'panic_'
'pamper_'
'pagoda_'
'overs'
'ovely_'
'outs'
'ours'
'ou'
'ori'
'ord_'
'oranges_'
'oman_'
'olympics_'
'old'
'ol_'
'okit_'
'observed_'
'ob'
'nyc'
'noteworthy_'
'nope_'
'nineties_'
'ni_'
'net'
'ner'
'naff_'
'multi'
'mul'
'mtr_'
'ms'
'mop_'
'modernise_'
'modem_'
'mit'
'mistaken_'
'middle'
'mercedes_'
'mental_'
'meantime_'
'maximize_'
'maswik_'
'master'
'married_'
'marco_'
'malls_'
'mainstream_'
'macdonald_'
'mac'
'lump_'
'lovley_'
'longest_'
'lone_'
'login_'
'lofty_'
'lobby'
'lled_'
'lit'
'lipstick_'
'lion_'
'liking'
'lightening_'
'lied_'
'lexington_'
'levelthe_'
'lesson_'
'ler_'
'lava_'
'lashings_'
'land'
'laminated_'
'lalit_'
'labels_'
'lab'
'km_'
'kitsch_'
'kids'
'kea_'
'kar'
'junction_'
'jfk_'
'jetlag_'
'ive'
'iu'
'itroom_'
'ito'
'isi'
'is'
'intuitive_'
'intelligently_'
'intact_'
'inspite_'
'insane_'
'inoffensive_'
'innthe_'
'ini'
'informing_'
'ine'
'independently_'
'imi'
'illuminate_'
'ig'
'identity_'
'ideas_'
'hues_'
'ht'
'houston_'
'hotelmy_'
'hote_'
'ho'
'hints_'
'hilton'
'highlighted_'
'hides_'
'hes_'
'heels_'
'hats_'
'hash_'
'has'
'hangs_'
'handrail_'
'habit_'
'gu'
'grumble_'
'groomed_'
'greek_'
'greatrooms_'
'goo'
'gm_'
'gly_'
'glue_'
'glowing_'
'glitz_'
'glitch_'
'glazing'
'glaring_'
'ginormous_'
'gent'
'fronts_'
'freshness_'
'fragrant_'
'forgive_'
'forgetting_'
'fore'
'fogged_'
'flowed_'
'floorbut_'
'firmthe_'
'fir_'
'finewe_'
'fer'
'façade_'
'family'
'fallsview_'
'failure_'
'facilities'
'facilitated_'
'exceed_'
'exce'
'ette_'
'ets_'
'etap_'
'et'
'estuary_'
'equippedthe_'
'engaging_'
'emptying_'
'ele'
'ela'
'edly_'
'earthy_'
'doubletrees_'
'dormer_'
'dislikes_'
'disinterested_'
'disgraceful_'
'dinner'
'differentiate_'
'development_'
'deteriorated_'
'designed'
'design'
'descriptions_'
'dependable_'
'definetly_'
'deer_'
'deciding_'
'darken_'
'dallas_'
'cy'
'customary_'
'curtainsthe_'
'curtained_'
'cubby_'
'cu'
'cthe_'
'credenza_'
'crashed_'
'cram_'
'court'
'corinthia_'
'convert_'
'contraption_'
'confort_'
'conferencing_'
'conditioningthe_'
'concierges_'
'compromised_'
'complimented_'
'companies_'
'comfyi_'
'comfy'
'collapse_'
'col'
'cocoon_'
'cho'
'chester_'
'characteristic_'
'change'
'chamber_'
'chairthe_'
'chair'
'celsius_'
'case'
'cap'
'cane_'
'cameras_'
'buying_'
'butt'
'bur'
'bugbear_'
'bt_'
'brownish_'
'bro'
'breakfastour_'
'breakfastit_'
'boyfriend_'
'bounce_'
'bosphorus_'
'border_'
'blessed_'
'ble'
'blazing_'
'bing_'
'belonged_'
'believed_'
'behaved_'
'beeping_'
'bedthis_'
'bedsheet_'
'bedding'
'bd'
'batroom_'
'baths'
'bathroomroom_'
'bat'
'baskets_'
'baroque_'
'bagan_'
'ay'
'awaits_'
'avi'
'averagely_'
'availablethe_'
'ata'
'asap_'
'asa'
'artex_'
'art'
'arrival'
'ari'
'apprehensive_'
'ap'
'ante_'
'andt'
'amusing_'
'aminities_'
'allocate_'
'airlines_'
'airflow_'
'air'
'aided_'
'admitted_'
'acoustic_'
'accurately_'
'accented_'
'abo'
'abi'
'84_'
'78_'
'74_'
'73'
'71'
'67_'
'616_'
'60'
'45am_'
'44'
'414_'
'411_'
'41'
'360_'
'28'
'275_'
'216_'
'2'
'190_'
'1900_'
'18'
'175_'
'13'
'122_'
'1200_'
'12'
','
'*_'
') , _'
'''
'" '
'!'
' •_'
' .......... _'
' .* * _'
' - '
' + '
' ' ) ._'
' % ._'
' " : _'
'zy_'
'z'
'youngest_'
'yogurts_'
'yep_'
'ww'
'wth_'
'wrinkled_'
'wonderful'
'windsor_'
'wife'
'west'
'wer_'
'wellness_'
'wel_'
'wee'
'waythe_'
'wasa'
'war'
'wanna_'
'vo'
'vibration_'
'verandas_'
'vacated_'
'va'
'unsu'
'unmemorable_'
'unfussy_'
'understandably_'
'uncomfortablethe_'
'uncomfortable'
'ub'
'ual_'
'turret_'
'tunnel_'
'tomato_'
'tolietries_'
'toiletteries_'
'titanic_'
'tilted_'
'ti_'
'throat_'
'thomson_'
'therapy_'
'them'
'ters_'
'tele'
'taupe_'
'tastefull_'
'swap_'
'sv'
'supplement_'
'supervisor_'
'sun'
'summers_'
'sulphur_'
'sufferers_'
'successfully_'
'suburban_'
'structures_'
'straightforward_'
'stiflingly_'
'staybridge_'
'stature_'
'stars'
'squi'
'squeeky_'
'squeaks_'
'sprayer_'
'sporting_'
'spilling_'
'spa'
'sop'
'someones_'
'soccer_'
'soaring_'
'soames_'
'snowed_'
'smeared_'
'smartphone_'
'smallso_'
'smaller'
'sli'
'skyscraper_'
'sky'
'skipped_'
'ski'
'size'
'sited_'
'sie'
'showroom_'
'showers'
'showerand_'
'show'
'shone_'
'sho'
'shi'
'shaky_'
'shabby'
'sensation_'
'self'
'screamed_'
'scores_'
'say'
'saratoga_'
'sam'
'sake_'
'sachet_'
'royale_'
'row'
'routine_'
'rm'
'risers_'
'richmond_'
'reykjavik_'
'return'
'replete_'
'replenishing_'
'remotely_'
'remodel'
'relatives_'
'rehab_'
'regrettably_'
'refreshingly_'
'redoing_'
'rede'
'recover_'
'receptions_'
'rat_'
'rapidly_'
'rain'
'qualities_'
'puzzling_'
'purpose'
'pt'
'protectors_'
'prize_'
'pressure'
'preparation_'
'prefect_'
'prefabricated_'
'prague_'
'powering_'
'por'
'poorer_'
'pleasent_'
'piccadilly_'
'phoenix_'
'pho'
'ph'
'petronas_'
'periodically_'
'pathetically_'
'passports_'
'parliament_'
'parador_'
'overwhelmingly_'
'overs_'
'overflowing_'
'outdated'
'out'
'our'
'ost_'
'ost'
'organize_'
'op'
'oo_'
'only'
'ond'
'olive_'
'okwe_'
'oily_'
'oils_'
'oddest_'
'ocean'
'occassion_'
'obtain_'
'nylon_'
'numbering_'
'nti'
'ns'
'nonsense_'
'nod_'
'nightour_'
'nighti_'
'nighta'
'nec_'
'nearer_'
'ne'
'ndi'
'napkins_'
'mushrooms_'
'much'
'mt'
'monorail_'
'money'
'module_'
'modernand_'
'miss'
'miracle_'
'minutes'
'min'
'millennium_'
'mesh_'
'men'
'memberthe_'
'melt_'
'marathon_'
'manila_'
'man'
'malaysian_'
'magazine_'
'machine'
'luxorious_'
'lo'
'llo'
'll'
'links_'
'linens'
'linen'
'lin'
'legendary_'
'leakage_'
'lea'
'lan_'
'lame_'
'laden_'
'knocks_'
'knackered_'
'kit'
'kiosk_'
'ker'
'jumping_'
'je'
'jaw_'
'jail_'
'iv_'
'itit_'
'iti'
'issued_'
'inventory_'
'introduced_'
'integral_'
'inspire_'
'ingenious_'
'informative_'
'indonesian_'
'indicative_'
'indicates_'
'indi'
'incorrect_'
'incense_'
'inca_'
'importance_'
'ier'
'hurricane_'
'hunting_'
'hua_'
'hou'
'hotplate_'
'hotelso_'
'horse_'
'hoover_'
'holiday'
'hockey_'
'hipster_'
'hiex_'
'hich_'
'her'
'helicopter_'
'han_'
'han'
'hab'
'gymthe_'
'grossly_'
'grilled_'
'greatbut_'
'grandchildren_'
'gr'
'goodthis_'
'good'
'gloss_'
'globalist_'
'glo'
'gilchrist_'
'ghost_'
'gentle_'
'generated_'
'gambling_'
'fuji_'
'fro'
'friendly'
'franchise_'
'foxtel_'
'fort'
'forks_'
'fore_'
'for'
'folk_'
'foldout_'
'fo_'
'floorroom_'
'flight'
'flavored_'
'flatscreens_'
'finely_'
'fiji_'
'fierce_'
'fe_'
'fax_'
'fastest_'
'fare'
'fantastic'
'fancy'
'extra'
'existant_'
'everythingthe_'
'eventi_'
'eurostar_'
'ensures_'
'enought_'
'endure_'
'ement_'
'emanating_'
'ema'
'eing_'
'effected_'
'edrooms_'
'ect'
'early'
'duvet'
'dumpy_'
'du_'
'driveway_'
'drank_'
'doorstep_'
'dolphin_'
'dog'
'divide_'
'discrete_'
'dipped_'
'dinnerthe_'
'dim'
'dge_'
'detachable_'
'destroyed_'
'depressingly_'
'decorthe_'
'decking_'
'decanters_'
'dawn_'
'dark'
'cuisines_'
'ction_'
'course'
'cop'
'coo'
'converts_'
'confident_'
'conduct_'
'conditioning'
'comtemporary_'
'compressor_'
'compliments_'
'compatible_'
'commodious_'
'comm'
'comings_'
'comfyit_'
'comfortablebathroom_'
'comforatble_'
'com'
'cofee_'
'cleanrooms_'
'cleanit_'
'circulating_'
'circuit_'
'chu'
'ching_'
'chinatown_'
'child'
'chewing_'
'ched_'
'che'
'chateau_'
'chase_'
'chanels_'
'ces'
'cation_'
'catalogue_'
'cat'
'cage_'
'butts_'
'butthere_'
'buto'
'butnothing_'
'butin_'
'businessman_'
'busakorn_'
'bus'
'bumpy_'
'buggy_'
'buck_'
'browsing_'
'britannia_'
'break'
'bra'
'bothers_'
'booked'
'bobs_'
'bles_'
'bigelow_'
'betterthe_'
'bestthe_'
'ben_'
'belies_'
'begun_'
'bedsit_'
'bedsbut_'
'bedbugs_'
'beautifulthe_'
'beating_'
'bdrm_'
'bathrooom_'
'bathroomthis_'
'bathroom'
'bathmat_'
'bathbut_'
'balconey_'
'bab'
'awe_'
'aw'
'attracts_'
'atthe_'
'att'
'ath_'
'asthma_'
'ash_'
'as'
'arizona_'
'architects_'
'appeals_'
'anxious_'
'anticipating_'
'ani'
'angular_'
'ang'
'andwhat_'
'andstayed_'
'andon_'
'andgreat_'
'andf'
'amo'
'ama'
'aluminium_'
'altho_'
'alo'
'allocation_'
'alli'
'ale'
'aka_'
'airportthe_'
'airport'
'aircon'
'affairs_'
'af'
'adaquate_'
'acquired_'
'accessing_'
'abs'
'82'
'750_'
'63'
'61'
'604_'
'601_'
'54_'
'53_'
'51_'
'510_'
'507_'
'46'
'430_'
'424_'
'40s_'
'315_'
'30s_'
'2b'
'280_'
'270_'
'24hrs_'
'230_'
'226_'
'218_'
'197'
'1940s_'
'1900s_'
'1800_'
'179_'
'151'
'121_'
'113_'
'113'
'07_'
'03_'
'. '
'- '
' > _'
' ; '
' . -_'
' . !_'
' - ( _'
' ( ~_'
' ! ! '
'… _'
'½_'
'zi'
'zayed_'
'za_'
'ypical_'
'yn'
'year'
'wraparound_'
'workingthe_'
'worked'
'wor'
'wishing_'
'wins_'
'wink_'
'wildly_'
'widely_'
'whites_'
'werethe_'
'wellwe_'
'weird'
'wedge_'
'wass'
'wary_'
'wait'
'waist_'
'wafting_'
'wad_'
'vr'
'vodka_'
'vision_'
'vertigo_'
'versa_'
'ventilate_'
'veggie_'
've'
'vault_'
'vanilla_'
'value'
'valance_'
'uti'
'utah_'
'ured_'
'ure'
'upsides_'
'upp'
'upgradethe_'
'uper_'
'unforgettable_'
'unexciting_'
'undi'
'unconfortable_'
'unacceptably_'
'uit'
'uge_'
'ug'
'u'
'twi'
'tro'
'transiting_'
'tossed_'
'tidy'
'throoms_'
'threshold_'
'thistle_'
'thinand_'
'thethe_'
'thet'
'therapist_'
'theory_'
'textures_'
'tested_'
'terrasse_'
'terracotta_'
'teapot_'
'tandard_'
'tan'
'tale_'
'sympathetic_'
'supreme_'
'superlative_'
'sundeck_'
'summer'
'sul'
'sufficed_'
'sty_'
'stuffy'
'stuffiness_'
'stucco_'
'structured_'
'strewn_'
'streamlined_'
'strategically_'
'stovetop_'
'storeys_'
'stickers_'
'steeped_'
'steam'
'stayi_'
'state'
'starthe_'
'starkly_'
'standup_'
'standart_'
'sta'
'ssi'
'squa'
'sporadic_'
'splurged_'
'specialthe_'
'sparkle_'
'spaciuos_'
'southeast_'
'someplace_'
'sol_'
'snowing_'
'snap_'
'smy_'
'smalls'
'sma'
'slowest_'
'slopes_'
'slices_'
'slept'
'slapped_'
'slap_'
'sizea'
'sit'
'singing_'
'simplicity_'
'similiar_'
'sim'
'signing_'
'signals_'
'siam_'
'showerrooms_'
'shocker_'
'shins_'
'shin_'
'shel'
'shakes_'
'shabbiness_'
'sh'
'sgd_'
'sfo_'
'sept_'
'sensors_'
'seeming_'
'sealing_'
'scrumptious_'
'sack_'
'sa'
'rumbling_'
'rudely_'
'ruby_'
'rub'
'rtable_'
'rop'
'ron_'
'roar_'
'rn_'
'rivals_'
'rge_'
'restrained_'
'restaurants'
'resolve_'
'reserving_'
'remedied_'
'remarked_'
'refresher_'
'refi'
'referred_'
'reek_'
'ree'
'rectangle_'
'reconstruction_'
'reason'
'realising_'
'rap'
'ranking_'
'ranked_'
'ramp_'
'ram'
'rains_'
'ragged_'
'rable_'
'quest_'
'queensize_'
'qua'
'py'
'procedure_'
'pro'
'pressured_'
'pref'
'precor_'
'pped_'
'poo_'
'ponds_'
'politely_'
'ple'
'plank_'
'places'
'pint_'
'pin'
'pig_'
'picnic_'
'pianist_'
'phone'
'permeated_'
'perimeter_'
'peri'
'performed_'
'peppers_'
'pel'
'peeled_'
'pea'
'pay'
'past'
'password_'
'passages_'
'pantheon_'
'pajamas_'
'pairs_'
'overt'
'overgrown_'
'overal_'
'ottawa_'
'others'
'ortable_'
'orientation_'
'organisation_'
'ore'
'orderly_'
'operates_'
'oks'
'okrooms_'
'oka'
'ok'
'ofthe_'
'oe'
'odd'
'oa'
'nut_'
'ntly_'
'nta'
'noticing_'
'nothing'
'notchthe_'
'nostalgia_'
'nor'
'nightsthe_'
'nighter_'
'nightand_'
'niche_'
'nicehowever_'
'nervous_'
'needthe_'
'necks_'
'nailed_'
'nad'
'mus'
'mur'
'mundane_'
'mug_'
'mos'
'moody_'
'mont'
'moneythe_'
'mon'
'mm'
'mississippi_'
'minibars_'
'minbar_'
'mildewy_'
'meticulous_'
'menu'
'memorial_'
'medicine_'
'meagre_'
'mbi'
'mayflower_'
'matrass_'
'luscious_'
'luggage'
'lt_'
'lovers_'
'loses_'
'logged_'
'lobster_'
'loading_'
'liver_'
'lightweight_'
'let'
'lessly_'
'lengths_'
'lend_'
'len'
'legacy_'
'leftover_'
'lbs_'
'lati'
'lakes_'
'kn'
'kicking_'
'ket'
'kensington_'
'kay_'
'juliette_'
'juan_'
'ize_'
'ist'
'ism_'
'ise'
'irritated_'
'iphones_'
'ip_'
'invite_'
'insulated'
'institution_'
'inside'
'inserted_'
'inquire_'
'input_'
'infested_'
'inf'
'inexcusable_'
'ince_'
'implies_'
'ility_'
'ida'
'icelandair_'
'ice'
'ic'
'hy_'
'hum'
'ht_'
'hr'
'howard_'
'house'
'hotelvery_'
'hopping_'
'hood_'
'hillside_'
'hil'
'hid_'
'hiccup_'
'hi'
'hen'
'helpfulness_'
'help'
'heights_'
'heating'
'headphones_'
'handing_'
'ha'
'grove_'
'groupon_'
'grou'
'greati_'
'grease_'
'grassy_'
'grandparents_'
'grades_'
'grabbed_'
'goods'
'goodand_'
'goo_'
'gel'
'gazing_'
'gallet_'
'ga_'
'fy_'
'furnishings'
'function'
'front'
'foyers_'
'forthcoming_'
'fortable_'
'forgiven_'
'folds_'
'foggy_'
'fluffier_'
'fluctuate_'
'florence_'
'flashlight_'
'flaky_'
'fla'
'fired_'
'finesse_'
'fin'
'fence_'
'feel'
'favourites_'
'eye'
'exteriors_'
'expertly_'
'exists_'
'exec'
'every'
'eva'
'eur'
'eti'
'etched_'
'estimate_'
'ess'
'escaped_'
'errors_'
'err'
'ering_'
'equi'
'equals_'
'epitome_'
'enters_'
'enter'
'ent'
'ens'
'enjoys_'
'enc'
'embarrassment_'
'elongated_'
'eleven_'
'el'
'edi'
'earthquake_'
'earn_'
'dw'
'dust'
'dur'
'dumped_'
'duly_'
'ducts_'
'dre'
'dra'
'downer_'
'dou'
'dot_'
'don'
'doha_'
'documents_'
'do'
'dl'
'divinely_'
'distracting_'
'distinguished_'
'disorganised_'
'disc'
'directv_'
'dips_'
'diners_'
'di'
'dg'
'detail'
'deskthe_'
'ders_'
'deg'
'defined_'
'deficiencies_'
'defen'
'default_'
'deepest_'
'decanter_'
'dde'
'david_'
'danger_'
'creekside_'
'creamer_'
'crafted_'
'cous'
'corridors'
'coped_'
'contra'
'contempory_'
'connects_'
'confidence_'
'complimentry_'
'compact'
'comically_'
'comfyour_'
'comfybut_'
'comfortablea_'
'comfortable'
'comforatable_'
'columbia_'
'colorado_'
'coffeepot_'
'cn'
'clu'
'clock'
'cliff_'
'clarke_'
'clanging_'
'cit'
'cin'
'chopped_'
'choice'
'choc'
'chlorinated_'
'chintz_'
'chin'
'chi'
'characters_'
'char'
'channelsthe_'
'channels'
'chairs'
'chain'
'cha'
'ceremony_'
'center'
'ce'
'capped_'
'cam'
'cabinetry_'
'buthotel_'
'bute'
'busy'
'busiest_'
'buffalo_'
'buenos_'
'brutal_'
'brightness_'
'bride_'
'bri'
'brekkie_'
'breakfastwe_'
'bowling_'
'bow_'
'bout_'
'blonde_'
'blond_'
'bloc_'
'blinking_'
'blinds'
'blessing_'
'blended_'
'bhutan_'
'bfast_'
'bes'
'belt_'
'belmond_'
'beiges_'
'bedsroom_'
'bedsi'
'bedsand_'
'bedroomthe_'
'bedhead_'
'beatiful_'
'beach'
'bayview_'
'bathroomit_'
'bathit_'
'basicbut_'
'barman_'
'barcelo_'
'bank'
'baht_'
'badthe_'
'ba'
'aweful_'
'austrian_'
'attack_'
'atlantic_'
'astounding_'
'astonishingly_'
'assistant_'
'assignment_'
'artist_'
'artfully_'
'arrives_'
'ard'
'arched_'
'application_'
'appliance_'
'appetising_'
'appearances_'
'anything'
'anticipate_'
'ank'
'ane'
'andwell_'
'amthe_'
'amounted_'
'amm'
'althought_'
'alternate_'
'alls_'
'alla'
'alittle_'
'ag'
'adjoined_'
'addressing_'
'adaptors_'
'acting_'
'accounts_'
'accommodation'
'access'
'aca'
'absolutly_'
'about'
'able'
'88_'
'75'
'72'
'701_'
'66'
'603_'
'58_'
'57_'
'550_'
'514_'
'508_'
'419_'
'416_'
'332_'
'325_'
'1985_'
'15pm_'
'159_'
'1400_'
'140'
'131'
'127_'
',,_'
')'
'!!!_'
' @_'
' ? '
' < _'
' :- _'
' :'
' ......... _'
' ... ) , _'
' .. '
' .* '
' ' ) _'
'“ _'
'à_'
'zo'
'yw'
'yucky_'
'yt'
'yrooms_'
'yp'
'ym'
'yen_'
'yellowed_'
'years'
'xi_'
'ws'
'worka'
'witch_'
'wis'
'wing'
'williamsburg_'
'wie'
'white'
'whichthe_'
'whi'
'wh'
'wetbar_'
'westminster_'
'wella'
'weirdest_'
'weekendthe_'
'weekday_'
'wed_'
'waterway_'
'waterview_'
'waterfalls_'
'waste'
'wash'
'warnings_'
'wardrobe'
'walnut_'
'vogue_'
'vit'
'vibrate_'
'vert_'
'velux_'
'veiw_'
'vegetation_'
'vases_'
'ust_'
'ushered_'
'uri'
'upgraded'
'unpredictable_'
'unpractical_'
'unplugging_'
'unoccupied_'
'unit'
'unimaginative_'
'uniforms_'
'unders'
'uncovered_'
'uncon'
'unc'
'ui'
'ud'
'uc'
'twists_'
'twelve_'
'twee'
'ture_'
'tto_'
'truffles_'
'trivial_'
'triumph_'
'trainers_'
'tot'
'toss_'
'tools_'
'tip'
'tinted_'
'ting'
'time'
'tiki_'
'tidythe_'
'thump_'
'throughout'
'through'
'things'
'texture_'
'tes'
'ter'
'tending_'
'tendency_'
'tempurpedic_'
'temporarily_'
'temples_'
'temperature'
'technological_'
'tech'
'tastfully_'
'tart_'
'tallest_'
'table'
'syn'
'swabs_'
'survived_'
'supplying_'
'superficially_'
'sunloungers_'
'sugar'
'stuffing_'
'sts_'
'stro'
'stripes_'
'strengths_'
'stolen_'
'sthis_'
'staymy_'
'standout_'
'stairwells_'
'stacks_'
'sprinkler_'
'spooky_'
'spoils_'
'splendour_'
'specify_'
'sparkled_'
'span'
'spaces'
'soon'
'somethings_'
'somethe_'
'sme'
'smallmy_'
'slanting_'
'sizerooms_'
'sip_'
'sions_'
'sincere_'
'silver'
'shuttles_'
'shuttered_'
'shrubs_'
'shr'
'shorts_'
'short'
'shoot_'
'shar'
'shamethe_'
'shambles_'
'shaft'
'sg'
'sex_'
'servicei_'
'servi'
'sees_'
'sec'
'sculpture_'
'scu'
'scents_'
'scenes_'
'sb'
'saves_'
'sat'
'sags_'
'rum_'
'ruins_'
'rudimentary_'
'rst'
'rowdy_'
'rope_'
'roomy'
'roomt'
'roomsafe_'
'roomno_'
'roombeds_'
'roombe'
'room1'
'roof'
'rondavels_'
'romms_'
'rollers_'
'rocky_'
'rob'
'rich'
'rh'
'revolving_'
'reviews'
'retractable_'
'restore_'
'restaraunt_'
'repl'
'repack_'
'renovations'
'renos_'
'rennovation_'
'renew_'
'remodelling_'
'remnants_'
'remake_'
'rejected_'
'registered_'
'regarded_'
'ref_'
'reducing_'
'redo'
'recovered_'
'recieved_'
'rearranged_'
're'
'rd'
'rb'
'ra'
'quite'
'quietrooms_'
'queuing_'
'qu'
'pubs_'
'ption_'
'provider_'
'propertythe_'
'prop'
'processed_'
'privately_'
'pricey'
'pressurethe_'
'presented'
'pregnant_'
'prefab_'
'precinct_'
'powerfull_'
'positioning_'
'porches_'
'plush'
'pleasurable_'
'plazas_'
'pittsburgh_'
'pis'
'pillowsb'
'photograph_'
'phnom_'
'phe'
'pervasive_'
'peoplethe_'
'people'
'penh_'
'pe'
'pc'
'pass'
'partitions_'
'parasols_'
'para'
'panes_'
'pan'
'pal'
'painless_'
'pad'
'overnighter_'
'outweighed_'
'ous'
'ornaments_'
'orbitz_'
'opp'
'onsen_'
'ons'
'oni'
'one'
'om'
'olufsen_'
'oeuvres_'
'oct_'
'occurrence_'
'occur_'
'oaks_'
'nursing_'
'norwegian_'
'north'
'nites_'
'nis'
'nile_'
'nightrooms_'
'nightit_'
'nightcap_'
'nig'
'nick_'
'nick'
'nices'
'nicemy_'
'nicebeds_'
'nia'
'nge'
'negotiated_'
'needs'
'nda'
'ncy_'
'navy_'
'nat'
'nashville_'
'nap'
'mut'
'murky_'
'mozzies_'
'motorized_'
'more'
'monterey_'
'monstrosity_'
'modified_'
'mn'
'mints_'
'minimalism_'
'mice_'
'meaningful_'
'mdf_'
'mash_'
'marshmallow_'
'mani'
'mandatory_'
'mandalay_'
'manager'
'malaysia_'
'makeshift_'
'main'
'mail'
'mai_'
'magnificently_'
'mag'
'lunchtime_'
'lugging_'
'luck'
'lthe_'
'lows_'
'loudthe_'
'lot'
'lor'
'lopsided_'
'lookingthe_'
'lodged_'
'lock'
'loaf_'
'lla_'
'litter_'
'lightthe_'
'lightbulb_'
'leopard_'
'lenox_'
'leisurely_'
'lebua_'
'lay'
'laughed_'
'latte_'
'lampshade_'
'lacklustre_'
'lace_'
'labor_'
'ks'
'korean_'
'ko_'
'knives_'
'kingbed_'
'kil'
'kidsthe_'
'k'
'just'
'ji'
'jewel_'
'jams_'
'jakarta_'
'jacuzzi'
'itwe_'
'its'
'iti_'
'ites_'
'ironed_'
'iri'
'ire_'
'ip'
'iny_'
'involve_'
'investing_'
'inv'
'intricate_'
'interacted_'
'intention_'
'intense_'
'inspected_'
'insecure_'
'ins'
'ino'
'informal_'
'influenced_'
'inexplicably_'
'indicator_'
'incongruous_'
'ina'
'in'
'improve'
'ima'
'ige'
'id'
'howling_'
'horrendously_'
'hoo'
'hon'
'hmm_'
'himself_'
'him'
'hikes_'
'hideaway_'
'hg'
'heyday_'
'herd_'
'herbal_'
'he'
'hb'
'hazardous_'
'hast'
'har'
'handmade_'
'hall'
'hai'
'hag'
'hacienda_'
'gy_'
'gum_'
'gue'
'gthe_'
'grumpy_'
'gru'
'greets_'
'green'
'greatroom_'
'greatour_'
'greated_'
'gravel_'
'grain_'
'goodo'
'goodi_'
'goers_'
'glued_'
'globe_'
'given'
'gilded_'
'ghts_'
'gh'
'gau'
'gas'
'gable_'
'furnitured_'
'fungus_'
'functionalthe_'
'functionable_'
'fry_'
'fridgethe_'
'foc_'
'flyer_'
'flowery_'
'floorit_'
'flagship_'
'fittings'
'fithe_'
'fir'
'finemy_'
'find'
'filler_'
'file_'
'fied_'
'ff'
'fas'
'fantasticthe_'
'fairy_'
'fabulous'
'fabricated_'
'exuded_'
'extensions_'
'expressed_'
'exposure_'
'exposing_'
'expe'
'expanse_'
'existed_'
'exellent_'
'exceeds_'
'evocative_'
'evian_'
'ever'
'eventhough_'
'etcwe_'
'etcbut_'
'esp'
'ert'
'ers'
'equipment'
'equip_'
'equate_'
'eqipped_'
'epcot_'
'ently_'
'enti'
'enquire_'
'enourmous_'
'enhance_'
'energetic_'
'ena'
'emphasize_'
'emp'
'emitted_'
'elevatorsthe_'
'efficent_'
'echoing_'
'echoes_'
'ean_'
'dub'
'droppings_'
'dribbled_'
'dresses_'
'doorsthe_'
'dom'
'dit'
'dist'
'disorganized_'
'dismay_'
'discussed_'
'disapointed_'
'disabilities_'
'dirty'
'dirtiest_'
'dimming_'
'differing_'
'dia'
'dh'
'detailing_'
'desparate_'
'designing_'
'departed_'
'dent_'
'delights_'
'deeper_'
'declared_'
'deceptively_'
'dealthe_'
'dea'
'dar'
'dam_'
'cuppa_'
'cuddly_'
'cubes_'
'cub'
'cti'
'crushed_'
'cre'
'crannies_'
'cpap_'
'courtyard'
'coul'
'cosier_'
'corkscrew_'
'converter_'
'connector_'
'congregate_'
'composed_'
'compliant_'
'compfortable_'
'compa'
'commodities_'
'commensurate_'
'command_'
'comfys'
'comfyb'
'comfortables'
'coconut_'
'coa'
'club'
'clothesline_'
'closure_'
'cleans'
'cking_'
'cityscape_'
'cill'
'churchill_'
'chunk_'
'chris_'
'charms_'
'charm'
'characteristics_'
'ceiling'
'cds_'
'cated_'
'cartons_'
'carton_'
'carl'
'cal'
'cairo_'
'cafetiere_'
'caesar_'
'butshower_'
'butoverall_'
'butas_'
'bury_'
'burst_'
'burners_'
'burg_'
'bun_'
'bul'
'buffetthe_'
'buff'
'bu_'
'brushes_'
'bruges_'
'breezy_'
'brazilian_'
'bou'
'bot_'
'booze_'
'boots_'
'boo'
'bl'
'bitter_'
'billing_'
'biased_'
'beverly_'
'bettered_'
'begins_'
'bee_'
'bedsour_'
'bedsi_'
'beds'
'bedmy_'
'beaut'
'bead_'
'bathroomwas_'
'bathr'
'batch_'
'basketball_'
'basin'
'baseball_'
'barbecue_'
'awesomely_'
'attentiveness_'
'athe_'
'ast'
'ash'
'arrived'
'aqua'
'appetizer_'
'apologised_'
'angeles_'
'ane_'
'andwas_'
'andthey_'
'ande'
'andalso_'
'andall_'
'anchorage_'
'analogue_'
'amused_'
'alcoves_'
'ala'
'airports_'
'aires_'
'ained_'
'ain'
'agra_'
'aga'
'affinia_'
'adorn_'
'adore_'
'ado'
'acted_'
'ack_'
'aches_'
'accompany_'
'abused_'
'absorb_'
'abbey_'
']._'
':'
'94'
'88'
'82_'
'81_'
'73_'
'71_'
'57th_'
'51'
'426_'
'42'
'415_'
'39th_'
'39'
'37th_'
'333_'
'329_'
'27'
'26'
'25c_'
'251'
'249_'
'239_'
'22'
'201'
'2003_'
'199_'
'1995_'
'195'
'192'
'172'
'171'
'170'
'161'
'16'
'141_'
'141'
'121'
'103'
'01'
'+ ._'
'! '
' € '
' ? ? ) _'
' ;)_'
' : ) _'
' .” _'
' ........._'
' - $ _'
' -'
' ,( _'
' , £ _'
' , , , _'
' ) .'
' $ '
' " ; _'
' ! ..._'
' ! ) '
'️_'
'ything_'
'ys'
'york'
'yeah_'
'yan'
'yak'
'y'
'xanterra_'
'x1'
'wynn_'
'wrought_'
'wr'
'worthless_'
'worldly_'
'worker_'
'wooded_'
'witnessed_'
'winter'
'wigwams_'
'wholesome_'
'whir'
'whine_'
'while'
'wheeled_'
'wheel'
'westin'
'ways'
'waters'
'wasa_'
'wanted'
'vol'
'virtual_'
'ving'
'villa'
'viewbut_'
'via'
'vertically_'
'verge_'
'verandahs_'
'venture_'
'vel_'
'vamp_'
'valuethe_'
'valentine_'
'vac'
'vable_'
'utmost_'
'utilize_'
'ute_'
'ust'
'usly_'
'upload_'
'upi'
'upfront_'
'ung_'
'unfa'
'unbe'
'ult'
'ull_'
'ued_'
'ua'
'turnaround_'
'tude_'
'ts'
'troubles_'
'trolleys_'
'trifle_'
'tranquility_'
'trainer_'
'tournament_'
'toooo_'
'toom_'
'toned_'
'tom_'
'toll_'
'tog'
'tob'
'tle_'
'tlc'
'tit'
'tional_'
'tinned_'
'tine'
'tiffany_'
'tidying_'
'thumping_'
'throne_'
'thrills_'
'thirty_'
'think'
'thick'
'thereafter_'
'therea'
'tesco_'
'terrifically_'
'terraced_'
'temper'
'tee'
'technologically_'
'tas'
'tarmac_'
'tari'
'target_'
'tapestry_'
'tap'
'tall'
'tai'
'tags_'
'tables'
'sy'
'swimmingpool_'
'sweet'
'surfing_'
'sunbathing_'
'sunb'
'suiteand_'
'suede_'
'sublimely_'
'stu'
'strongest_'
'strike_'
'stri'
'stray_'
'strangers_'
'stone'
'stic_'
'ster_'
'ster'
'stayrooms_'
'stayed'
'staybut_'
'stat_'
'stat'
'starched_'
'staples_'
'staffb'
'sso_'
'sr'
'squares_'
'spruced_'
'spot'
'sported_'
'splendor_'
'spicy_'
'spi'
'spends_'
'spat'
'spaciousroom_'
'spacerooms_'
'sources_'
'sounding_'
'sofitel'
'snuggly_'
'snooker_'
'sneezing_'
'snd_'
'sna'
'smoking'
'smashed_'
'smallness_'
'sm_'
'slow'
'slo'
'sliver_'
'slit_'
'slice_'
'sleeping'
'sle'
'slatted_'
'slant_'
'skyscrapers_'
'skirt_'
'sipping_'
'singaraja_'
'sing'
'sign'
'showerour_'
'showera'
'shorte'
'shortcoming_'
'shopworn_'
'shipping_'
'shield_'
'sheltered_'
'sheikh_'
'sheets'
'sham'
'shadow_'
'sex'
'seville_'
'sever'
'seen'
'sectioned_'
'seamlessly_'
'scruff'
'scree'
'scratching_'
'savoy_'
'sap'
'salty_'
'salt'
'rural_'
'runner_'
'rub_'
'rt_'
'rri'
'rp'
'round'
'rotated_'
'ros_'
'ros'
'roomswe_'
'roomso'
'roomsa'
'roomd'
'romm_'
'roam_'
'road'
'roaches_'
'riding_'
'rides_'
'rewarded_'
'reveals_'
'retrieve_'
'rest'
'resonable_'
'replacements_'
'repairing_'
'removal_'
'reminders_'
'remembering_'
'rem'
'regretted_'
'refunded_'
'refrigerator'
'refrig'
'ree_'
'recycle_'
'recreation_'
'rearrange_'
'reak'
'read'
'reaches_'
'ratty_'
'ranged_'
'raising_'
'quieti_'
'quick'
'que'
'qm_'
'pyramid_'
'puzzled_'
'puzzle_'
'pumping_'
'pull'
'pul'
'pudong_'
'properly'
'prone_'
'prob'
'pra'
'postcard_'
'pos'
'portico_'
'port'
'pops_'
'popping_'
'poop_'
'pong_'
'polo_'
'poker_'
'poi'
'plently_'
'pla'
'pins_'
'pil'
'pike_'
'pickup_'
'phoning_'
'perfunctory_'
'percent_'
'pend'
'pcs_'
'patio'
'passengers_'
'parti'
'paper'
'paltry_'
'pale'
'palazzo_'
'pains_'
'pac'
'p'
'overthe_'
'overseeing_'
'ove'
'outlets'
'ound_'
'ottomans_'
'othe_'
'oslo_'
'osi'
'ornamental_'
'orient_'
'order'
'ora'
'oozing_'
'oon_'
'ont'
'ono'
'onal_'
'omi'
'okey_'
'offsite_'
'oddity_'
'oddities_'
'od'
'occupation_'
'occitaine_'
'object_'
'nyway_'
'nye_'
'num'
'nsi'
'notthe_'
'noticable_'
'noti'
'noisyi_'
'nit'
'nikko_'
'nightlife_'
'nigh_'
'nie'
'nicea_'
'nic'
'ngthe_'
'neutrally_'
'nepresso_'
'neo'
'needed'
'nds_'
'narrow'
'namely_'
'nam'
'nally_'
'nable_'
'mybed_'
'mud_'
'mu'
'move'
'moulding_'
'moose_'
'monochromatic_'
'monica_'
'ml'
'mislead_'
'mish_'
'miller_'
'mill'
'mig'
'ment'
'meit_'
'mc'
'mb'
'mazing_'
'mart'
'mariott_'
'maria_'
'mantained_'
'mant'
'manned_'
'mala'
'maintenance'
'maintained'
'magnificient_'
'macs_'
'm6_'
'lv'
'luxu'
'lud'
'ls'
'lovel'
'love'
'louis_'
'lord_'
'logging_'
'loccitane_'
'lle_'
'lity_'
'litle_'
'lis'
'linoleum_'
'limiting_'
'lifefitness_'
'lf_'
'lf'
'lettuce_'
'less'
'lei'
'leg'
'leela_'
'lee_'
'lean'
'late'
'lar'
'lani_'
'lanes_'
'lac'
'labo_'
'know'
'kitchenette'
'kind'
'kimptons_'
'killing_'
'kel'
'kauai_'
'jutting_'
'joking_'
'jelly_'
'jar'
'istic_'
'iss'
'ior'
'involves_'
'invoice_'
'intimidating_'
'internetthe_'
'internationally_'
'interior'
'intercontinentals_'
'int'
'insides_'
'ingi_'
'ingb'
'infinitely_'
'inex'
'independence_'
'increasing_'
'included'
'inclu'
'inappropriate_'
'impa'
'imitation_'
'ime'
'ike_'
'ies'
'ici'
'ich_'
'icely_'
'hype_'
'husband'
'hus'
'howeverthe_'
'hovering_'
'hottub_'
'hoteli'
'hopelessly_'
'hookups_'
'hm'
'hitch_'
'historically_'
'highthe_'
'hie'
'hideously_'
'hiccups_'
'hhonours_'
'herself_'
'hay'
'harvey_'
'harm_'
'hardness_'
'happen'
'hap'
'handrails_'
'ham'
'hallway'
'gymn_'
'gur'
'guided_'
'guests'
'guarantees_'
'gua'
'grossed_'
'groovy_'
'groaned_'
'grills_'
'greetings_'
'grati'
'grandiose_'
'grading_'
'gracefully_'
'gou'
'got'
'google_'
'goa_'
'go'
'gloom_'
'globally_'
'gio'
'ginza_'
'gig_'
'geyser_'
'gett'
'ger'
'geo'
'gents_'
'gentlemen_'
'gate'
'gare_'
'fused_'
'fur_'
'fundamental_'
'frying_'
'fruit'
'frontage_'
'frog_'
'frill_'
'freak_'
'form'
'footrest_'
'fol'
'fog'
'fluctuating_'
'floorwe_'
'floors'
'flakes_'
'flagstaff_'
'fixes_'
'fist_'
'finethis_'
'finea'
'fin_'
'figuring_'
'fiber_'
'ffi'
'favourable_'
'favorable_'
'favor_'
'fast'
'farm_'
'fant'
'faintly_'
'facet'
'eyesore_'
'extreamly_'
'extract_'
'extending_'
'expecially_'
'exceptional'
'excepted_'
'excel_'
'excecutive_'
'exaggerating_'
'ew_'
'ev'
'europeans_'
'etcrooms_'
'etcour_'
'escalators_'
'esc'
'eras_'
'eo'
'environmentally_'
'entrance'
'enlarged_'
'enjoy'
'eng'
'enclosures_'
'empty'
'else'
'elm'
'elbows_'
'edo'
'economic_'
'eats_'
'ead'
'dumpster_'
'duc'
'dry'
'drought_'
'drooms_'
'dro'
'dream'
'dragging_'
'double'
'dose_'
'dor_'
'dominates_'
'doctor_'
'dj_'
'ditch_'
'dissappointed_'
'diss'
'disney'
'discovery_'
'discovering_'
'disadvantages_'
'dis'
'diplomat_'
'dinky_'
'din_'
'dil'
'dials_'
'dge'
'devi'
'designthe_'
'derelict_'
'der_'
'depressive_'
'departures_'
'demanding_'
'demanded_'
'dela'
'dehumidifier_'
'deflated_'
'decay_'
'dc'
'darkly_'
'dal'
'cycles_'
'cut'
'curling_'
'cul'
'ctive_'
'cs'
'cruises_'
'crucial_'
'cru'
'crowed_'
'criticise_'
'creatively_'
'cranky_'
'crank_'
'crane_'
'crab_'
'coziness_'
'cover'
'countless_'
'counter'
'cou'
'corn_'
'converting_'
'control'
'contrasting_'
'contract_'
'consumed_'
'confirming_'
'conference'
'concur_'
'compounded_'
'compfy_'
'community_'
'commendable_'
'comfyrooms_'
'comfortableso_'
'comfortablep'
'comfortablee'
'columbus_'
'colour'
'cologne_'
'collins_'
'coils_'
'coffin_'
'coffeethe_'
'coc'
'coarse_'
'closetthe_'
'cloister_'
'clicked_'
'cleano'
'cleani_'
'claustrophobia_'
'classification_'
'claiming_'
'cks_'
'cious_'
'chf_'
'cheerfully_'
'cheated_'
'charmingly_'
'chapel_'
'chap_'
'champ'
'cet'
'centers_'
'cedar_'
'cats_'
'cathode_'
'cash'
'cart'
'car'
'cant'
'camper_'
'cambodia_'
'cale'
'cabs_'
'buzzed_'
'butthey_'
'butst'
'butso_'
'buts'
'butnot_'
'butnice_'
'busythe_'
'bunkbeds_'
'bunched_'
'buisness_'
'bug'
'bs'
'briefly_'
'breathing_'
'breakfastvery_'
'breakfasti_'
'breakfastand_'
'brea'
'branches_'
'br'
'bountiful_'
'bouncing_'
'borders_'
'booths_'
'boon_'
'bookedthe_'
'boo_'
'bone_'
'bol'
'boch_'
'boarded_'
'blame_'
'blacked_'
'bitten_'
'bir'
'binoculars_'
'bills_'
'bility_'
'bicycles_'
'bett'
'beg_'
'before'
'befits_'
'bedrooms'
'bedo'
'bedb'
'bear'
'battle_'
'bathtubthe_'
'bathroomvery_'
'bathroommy_'
'batho'
'bathed_'
'basicrooms_'
'barroom_'
'bandwidth_'
'ban'
'bale_'
'backs'
'bac'
'bably_'
'az'
'aunt_'
'atmosphere'
'atleast_'
'athletic_'
'athenee_'
'ater_'
'ately_'
'asthmatic_'
'assessment_'
'assess'
'askew_'
'artworks_'
'aromatic_'
'ark'
'arenal_'
'aren'
'appetizing_'
'appalled_'
'apart'
'anteroom_'
'ante'
'ant'
'annual_'
'andyou_'
'andw'
'ands_'
'andp'
'andlarge_'
'andfor_'
'andc'
'amusement_'
'amidst_'
'amenites_'
'ame_'
'ame'
'amd_'
'alsothe_'
'alonethe_'
'allo'
'alle'
'alice_'
'aka'
'ajoining_'
'aids_'
'affords_'
'aeroplane_'
'adequete_'
'ada'
'acrylic_'
'ach_'
'accumulated_'
'accidentally_'
'ac'
'absurd_'
'abr'
'abode_'
'aa'
'? '
'83'
'806_'
'801_'
'76'
'61_'
'519_'
'509_'
'504_'
'47_'
'422_'
'412_'
'3x_'
'3the_'
'37'
'33'
'310'
'260_'
'246_'
'235_'
'228_'
'224_'
'221'
'199'
'196'
'182'
'1600_'
'15am_'
'151_'
'145_'
'143'
'14'
'136_'
'1300_'
'.._'
'( '
' … .._'
' ” '
' ] , _'
' =_'
' ........... _'
' ....'
' ... !_'
' - £ _'
' , .. _'
' , ) _'
' * '
' )- _'
' ) -- _'
' !* _'
' ! !, _'
' ! ! ! )_'
'–_'
'~_'
'zones_'
'zer'
'yroom_'
'youtube_'
'yon'
'yellowing_'
'ybut_'
'yachts_'
'xtremely_'
'xt_'
'wrongly_'
'wrist_'
'wrapper_'
'wou'
'worth'
'wlan_'
'winds_'
'wii_'
'wig'
'wifii_'
'wicked_'
'whit'
'whisked_'
'whis'
'whe'
'wes'
'wellso_'
'wellrooms_'
'wei'
'weekthe_'
'web'
'weather'
'weakness_'
'weakest_'
'weak'
'wdw_'
'wave'
'watt_'
'waterw'
'watered_'
'watch'
'wat'
'wasvery_'
'wasting_'
'waso'
'wasn_'
'washlet_'
'washes_'
'washcloth_'
'warr'
'want'
'walk'
'visitthe_'
'vile_'
'vigorous_'
'viewour_'
'vesuvius_'
'vert'
'vent'
'veni'
'vat_'
'var'
'usi_'
'usd'
'uro'
'unst'
'unsettling_'
'unreasonable_'
'unre'
'unma'
'unload_'
'unkempt_'
'uninterested_'
'uniform_'
'unhygienic_'
'unheard_'
'unh'
'unfold'
'undergo_'
'undercooked_'
'unavoidable_'
'unattended_'
'unassuming_'
'uite_'
'uin'
'ude_'
'uck'
'tuna_'
'tubs'
'tting_'
'tte'
'try'
'trough_'
'trou'
'trendy'
'traveler'
'trampoline_'
'trailer_'
'traded_'
'tp_'
'towns_'
'towells_'
'tou'
'tossing_'
'tomatoes_'
'tom'
'token_'
'toilitries_'
'tn'
'tion'
'tinybut_'
'timeshares_'
'tilt_'
'thunder'
'throom_'
'thought'
'thou_'
'thickest_'
'therein_'
'thereby_'
'then'
'thann_'
'territory_'
'terrace'
'tering_'
'tavern_'
'tas_'
't2_'
'system'
'symp'
'swo'
'swimwear_'
'swe'
'swallow_'
'swa'
'suspicious_'
'support'
'sum'
'suitcase'
'sudden_'
'subterranean_'
'subt'
'subjective_'
'subjected_'
'styrofoam_'
'stuffthe_'
'stressed_'
'straighteners_'
'stir_'
'sticker_'
'steamroom_'
'ste'
'stayour_'
'staycation_'
'staya'
'station'
'stanley_'
'standards'
'standardrooms_'
'standardized_'
'stan'
'stamford_'
'stagnant_'
'staffthis_'
'stables_'
'stab'
'sse'
'spring'
'spree_'
'sprawl_'
'spotlight_'
'spotless'
'spoons_'
'spin_'
'spills_'
'spiffy_'
'spectrum_'
'spas'
'spanning_'
'spaciousbut_'
'south'
'sou'
'solutions_'
'sole'
'sof'
'sock_'
'socialize_'
'smudges_'
'smoke'
'smo'
'smellthe_'
'smallest'
'slumber_'
'slu'
'slop'
'sleigh_'
'skills_'
'ska'
'sizeit_'
'siti'
'singer_'
'sin_'
'sidewalk_'
'sic_'
'sic'
'shut'
'shu'
'shredded_'
'showy_'
'showeri'
'showe_'
'shoeshine_'
'shelves'
'shangrila_'
'shameful_'
'setee_'
'servicerooms_'
'serenity_'
'sequoia_'
'seniors_'
'sending_'
'seeped_'
'securely_'
'seagulls_'
'sculpt'
'screenthe_'
'screen'
'scooter_'
'science_'
'school'
'scarcely_'
'scan'
'scal'
'sas_'
'sandwiched_'
'sandton_'
'sanderson_'
'sai'
'sage_'
'safethe_'
'ruth_'
'rui'
'rud'
'roy_'
'rounds_'
'root'
'roosevelt_'
'roomthey_'
'roomo'
'roomgreat_'
'roomf'
'rom'
'rog'
'rock'
'roast_'
'rl'
'riviera_'
'right'
'rib_'
'rho'
'rg'
'revisit_'
'revenue_'
'retrofitted_'
'retiring_'
'retire_'
'resturants_'
'responsibility_'
'respect'
'resolution_'
'researched_'
'republic_'
'rep'
'rendering_'
'reli'
'regulating_'
'regional_'
'refurnished_'
'refurbishmentthe_'
'refundable_'
'refu'
'refinished_'
'refillable_'
'recycled_'
'recommended'
'recommendable_'
'reco'
'recliners_'
'receipt_'
'rec'
'rebuild_'
'rebranded_'
'realistic_'
'readers_'
'rc'
'rats_'
'ration'
'ranks_'
'range'
'rand'
'ral_'
'ral'
'rainbow_'
'rag_'
'rad'
'r'
'quis'
'quirkiness_'
'quin'
'quiete'
'quietb'
'questioned_'
'qt_'
'qs_'
'qi'
'putrid_'
'pun'
'puffy_'
'published_'
'pti'
'pros'
'proofed'
'proof'
'prong_'
'promotional_'
'prominent_'
'projector_'
'prof'
'producing_'
'privacy'
'princes_'
'priceless_'
'priced'
'prevents_'
'pretend_'
'prestigious_'
'pressures_'
'presidents_'
'presently_'
'presentations_'
'prefers_'
'predominantly_'
'precisely_'
'pping_'
'power'
'post'
'possessed_'
'porta'
'polis_'
'polar_'
'poking_'
'podge_'
'plusher_'
'plum_'
'plug'
'plex_'
'pleasantthe_'
'platforms_'
'pinch_'
'picchu_'
'piazza_'
'photo'
'ph_'
'peruvian_'
'permitted_'
'pen'
'peep'
'pec'
'peacock_'
'peach_'
'passion_'
'passageways_'
'partner'
'parma_'
'parcs_'
'parallel_'
'parade_'
'par'
'papered_'
'paint'
'pain'
'pages_'
'ox'
'overslept_'
'overlay_'
'outskirts_'
'outset_'
'othing_'
'ors'
'orks_'
'origins_'
'originals_'
'organise_'
'org'
'opa'
'ontario_'
'onion_'
'oki_'
'okayrooms_'
'offe'
'ode'
'ock'
'obscure_'
'notification_'
'notice'
'normal'
'nirvana_'
'nik'
'nighttime_'
'nicer'
'niceo'
'ness'
'neo_'
'neg'
'neat'
'nc'
'nb'
'mrt_'
'mrs_'
'mouldings_'
'moths_'
'motel'
'mot'
'mont_'
'monopoly_'
'monkey_'
'monastery_'
'modernrooms_'
'modernbut_'
'modelled_'
'mod'
'mock_'
'moaning_'
'ml_'
'mitchell_'
'miserably_'
'mirrorthe_'
'mira_'
'minimi'
'midnight'
'midgets_'
'midget_'
'microwaved_'
'micro'
'metallic_'
'mes'
'merc'
'menities_'
'member'
'melon_'
'mattered_'
'massaging_'
'masquerading_'
'masking_'
'marvel_'
'marr'
'manufactured_'
'mantra_'
'managing_'
'mall'
'malin_'
'magnificant_'
'mage'
'machu_'
'luxery_'
'luxembourg_'
'lustre_'
'lumpur_'
'luc'
'lty_'
'loves_'
'loungethe_'
'logan_'
'loews_'
'lodge'
'lle'
'liveable_'
'litre_'
'liness_'
'limited'
'lig'
'li_'
'les'
'lenny_'
'lem'
'leicester_'
'ledges_'
'ld'
'lc'
'laws_'
'lavazza_'
'lather_'
'las'
'lar_'
'lap'
'lant'
'lankan_'
'lands_'
'lanais_'
'lakefront_'
'lad'
'ky'
'kuala_'
'kohler_'
'knife_'
'kne'
'kin'
'kie'
'kicks_'
'kicker_'
'ken'
'kandy_'
'joy'
'jolly_'
'jobs_'
'job'
'jewelry_'
'jackets_'
'iw'
'iva'
'iso'
'isa'
'irregular_'
'ired_'
'inwe_'
'into'
'interi'
'interaction_'
'intake_'
'insulate_'
'instruction_'
'inour_'
'infused_'
'inflated_'
'ines_'
'indo'
'individuality_'
'ind_'
'impression'
'ille_'
'ile'
'ignoring_'
'ights_'
'ifi_'
'ide'
'ics_'
'ib'
'hydro_'
'hy'
'hutch_'
'husbandthe_'
'hun'
'hub_'
'hoto'
'hotelw'
'hotelb'
'hotela'
'horns_'
'honey_'
'homes_'
'hog'
'hodge_'
'hmmm_'
'hl'
'hit'
'hig'
'herb'
'helpfulthe_'
'helpfully_'
'hei'
'hed'
'heck'
'heavier_'
'hearts_'
'hear'
'headthe_'
'heads'
'headaches_'
'hav'
'harrogate_'
'hammam_'
'gut_'
'gth'
'gre'
'graph'
'granola_'
'graceful_'
'gosh_'
'gorge_'
'goodthe'
'goodmy_'
'goodf'
'goodbathroom_'
'goetz_'
'glimpses_'
'glen'
'gla'
'giraffe_'
'gil'
'ght'
'gen'
'gates_'
'gat'
'garments_'
'galway_'
'gale_'
'gal'
'gai'
'fuse_'
'furn'
'frustration_'
'frontier_'
'from'
'fri_'
'fresh'
'freezing'
'freedom_'
'frank_'
'fours_'
'forty_'
'forthe_'
'forte_'
'foliage_'
'fluff'
'fluctuated_'
'flea_'
'flatware_'
'flash'
'fiore_'
'finnish_'
'finei_'
'fineb'
'fii'
'fiddle_'
'fia'
'fest'
'ferries_'
'fen'
'feeding_'
'feathered_'
'featherbed_'
'feat_'
'faultthe_'
'fanciest_'
'fame_'
'fairmonts_'
'fab'
'ext'
'explains_'
'expensively_'
'exp'
'exe'
'excitement_'
'exchanged_'
'ewe_'
'evokes_'
'eveningthe_'
'even'
'eve'
'ethiopia_'
'esti'
'ergonomically_'
'equip'
'eous_'
'envelope_'
'encouraged_'
'enchanting_'
'em'
'els_'
'eliminate_'
'elevators'
'eld_'
'eit_'
'ein'
'eh_'
'effi'
'eck_'
'earth'
'ead_'
'dying_'
'dwarfed_'
'duper_'
'dunedin_'
'dumpsters_'
'dump'
'dumbells_'
'duke_'
'ducks_'
'dth'
'drives_'
'dress'
'drama_'
'doored_'
'doo'
'doe'
'doc'
'dm'
'disrupt_'
'discussions_'
'disconnecting_'
'discerning_'
'discarded_'
'disappointment'
'disappearing_'
'diff'
'diesel_'
'diameter_'
'diagonally_'
'determined_'
'deter_'
'detect_'
'destinations_'
'desp'
'deserts_'
'describing_'
'dept_'
'departments_'
'denied_'
'demonstrated_'
'demolished_'
'demo'
'deluxe'
'deliveries_'
'define_'
'deferred_'
'defects_'
'def'
'decent'
'deca'
'dec'
'deafening_'
'daft_'
'dad'
'cus'
'curl_'
'cumberland_'
'cultural_'
'cult'
'crowded'
'crossing_'
'crepes_'
'cred'
'creamy_'
'crampedthe_'
'cramp'
'coworkers_'
'cow_'
'cow'
'cour'
'coupons_'
'counting_'
'couldn_'
'costumes_'
'cosi'
'cornerthe_'
'corner'
'cork_'
'cord'
'cools_'
'conti'
'context_'
'consuming_'
'constructions_'
'consecutive_'
'conn'
'coni'
'confess_'
'conditioned'
'concourse_'
'concentrate_'
'concealed_'
'con'
'compli'
'completing_'
'complement'
'compactthe_'
'comfrotable_'
'comfortablethere_'
'comfortabel_'
'comfier_'
'comfi_'
'comedy_'
'color'
'collecting_'
'coffemaker_'
'coal_'
'cluster_'
'clubroom_'
'clubby_'
'closed'
'clips_'
'cleanmy_'
'cleanly_'
'cleanish_'
'clea'
'cle_'
'claustrophobically_'
'clan_'
'cl_'
'cked_'
'cient_'
'cht'
'chop'
'choc_'
'chipboard_'
'childrens_'
'chick'
'chess_'
'chefs_'
'chedi_'
'che_'
'chances_'
'certificate_'
'centerpiece_'
'cell'
'ceilingthe_'
'ceil'
'causeway_'
'carvings_'
'card'
'captain_'
'candies_'
'camps_'
'camp'
'caked_'
'ca'
'butthat_'
'butsmall_'
'buteverything_'
'busted_'
'bushes_'
'builder_'
'buffer_'
'bud_'
'buckled_'
'bu'
'bthe_'
'bru'
'brown'
'bridal_'
'brew'
'brekfast_'
'bree'
'breath'
'breakfasta'
'brash_'
'boutiquey_'
'bound_'
'bottle'
'bomb_'
'body'
'blockout_'
'blo'
'blissful_'
'bldg_'
'blamed_'
'bio'
'biggish_'
'bic'
'bev'
'bet'
'belie'
'belgian_'
'bel_'
'beit_'
'behaviour_'
'behavior_'
'bedst'
'bedsrooms_'
'becuase_'
'beck'
'beautifuly_'
'beat'
'bc_'
'bawa_'
'bathroomb'
'batha'
'baseboard_'
'bare'
'bangs_'
'bananas_'
'balcon'
'balancing_'
'backpackers_'
'backpacker_'
'awfull_'
'awa'
'aven'
'autograph_'
'aus'
'atypical_'
'attach_'
'atop_'
'ational_'
'astonished_'
'assisting_'
'assisted_'
'assign_'
'arrogant_'
'armoir_'
'arl'
'aris'
'aria_'
'ara_'
'aptly_'
'appo'
'apparatus_'
'apologetic_'
'ao'
'annoy_'
'anemic_'
'andwith_'
'andwhile_'
'andth'
'andsome_'
'andlovely_'
'andin'
'andbe'
'andba'
'anda'
'anantara_'
'ammenties_'
'ament'
'altough_'
'almond_'
'allergenic_'
'alis'
'alex_'
'ake'
'ait'
'aircondition'
'agoda_'
'aggressive_'
'agents_'
'agency_'
'affixed_'
'aesop_'
'ae_'
'adobe_'
'admiral_'
'adi'
'accross_'
'accordance_'
'accord_'
'accompaniments_'
'accom_'
'accessable_'
'accesible_'
'acc'
'abs_'
'ables_'
'aback_'
'aa_'
'[_'
'902_'
'850_'
'84'
'77'
'720_'
'709_'
'704_'
'650_'
'608_'
'607_'
'58'
'530_'
'525_'
'520_'
'4x'
'48th_'
'417_'
'400'
'349_'
'321_'
'31'
'29'
'260'
'250'
'24h_'
'240'
'223_'
'211'
'210'
'1994_'
'1927_'
'191'
'190'
'152_'
'142'
'123'
'114'
'10min_'
'106'
'.- _'
'.,_'
'++ _'
'+ '
' … ) '
' ’ , _'
' —_'
' ? - _'
' ..........._'
' . ' _'
' , ” _'
' ) . '
' ) , '
' ' . _'
' ''
' $ $ _'
' $ $ '
' ! -_'
' ! ! ) , _'
'…'
'‘_'
'‘ _'
'í'
'zin'
'zi_'
'zes_'
'zar'
'zan'
'yoghurts_'
'yit_'
'yearthe_'
'ye_'
'yb'
'yand_'
'xian_'
'xed_'
'xe'
'x2_'
'wuksachi_'
'wt'
'wow'
'worse'
'woodchip_'
'woo'
'wobbled_'
'winters_'
'windowso'
'william_'
'wifirooms_'
'wifes_'
'whack'
'westm'
'western'
'welcome'
'wel'
'weekdays_'
'wea'
'wase'
'wars_'
'warmour_'
'warmi'
'warmest_'
'warmers_'
'ward'
'wallpapers_'
'wakeup_'
'waive'
'waitresses_'
'wad'
'wack'
'voyage'
'vou'
'vote_'
'voltage_'
'volt_'
'voi'
'vle'
'vivanta_'
'viv'
'vital_'
'vine'
'vik_'
'vic'
'vet'
'vera'
'ventured_'
'vene'
'vegan_'
'varnished_'
'vans_'
'valves_'
'vale_'
'vacum'
'usethe_'
'used'
'usa'
'uring_'
'urethe_'
'ura'
'upstairs'
'ups'
'uploaded_'
'uo'
'unwell_'
'unw'
'untucked_'
'untidy_'
'unseasonably_'
'unse'
'unresponsive_'
'unpl'
'unpainted_'
'unn'
'ung'
'unfortunatly_'
'uneven'
'underpowered_'
'und'
'unclear_'
'uncared_'
'unaware_'
'ul'
'ugg'
'two'
'twisting_'
'twin'
'tvb'
'tuscany_'
'tuscan_'
'tuk_'
'tta_'
'trunk_'
'tripthe_'
'trims_'
'trib'
'trends_'
'trem'
'tread_'
'tread'
'trails_'
'traditional'
'trading_'
'tovar_'
'touristy_'
'tottenham_'
'total'
'tos'
'torm_'
'tongariro_'
'tole'
'toilets'
'toast'
'tiv'
'tiredbut_'
'tine_'
'til'
'tiger_'
'tie'
'thy_'
'threatened_'
'thread'
'thr'
'thom'
'thi'
'thereand_'
'therapists_'
'ther'
'theb'
'thb_'
'thankyou_'
'tge_'
'textiles_'
'terrif'
'terrible'
'tera'
'tep'
'tenaya_'
'temp'
'tekapo_'
'teething_'
'teathe_'
'teat'
'tbh_'
'tbe_'
'tau'
'tanzania_'
'talks_'
'taipei_'
'tail_'
'tag'
't5_'
'swivels_'
'swirly_'
'swept_'
'swapped_'
'swan_'
'survey_'
'surpri'
'surface'
'surf'
'sure'
'supermarkets_'
'sundays_'
'sund'
'sukhumvit_'
'suites'
'succeeded_'
'suc'
'stylish'
'sty'
'stuffs_'
'stroke_'
'strikingly_'
'stretches_'
'stressful_'
'straightened_'
'stop'
'stocked'
'stepper_'
'step'
'stash_'
'standpoint_'
'sre'
'squished_'
'splintered_'
'spigot_'
'specifics_'
'spaci'
'sos'
'sort'
'soo'
'song_'
'something'
'solving_'
'solidly_'
'soi_'
'softthe_'
'sofia_'
'sofa'
'soa'
'snorkel'
'snob_'
'sni'
'sneeze_'
'smiley_'
'smears_'
'smallvery_'
'smallour_'
'smallhowever_'
'sly_'
'slighty_'
'sleepm'
'sleeper'
'slc_'
'slat'
'sl_'
'skybar_'
'skipping_'
'skimped_'
'skid_'
'sizeo'
'sizedthe_'
'sive_'
'site'
'sinkthe_'
'sinks'
'silicone_'
'sigh_'
'siem_'
'sideboard_'
'shui_'
'shrimp_'
'showeron'
'showergel_'
'showerc'
'shiseido_'
'shielded_'
'shelter_'
'sheeted_'
'shavers_'
'sf'
'set'
'session_'
'servicewe_'
'servicethis_'
'services'
'servicem'
'sen'
'sebel_'
'seasonal_'
'seam_'
'sd_'
'screw'
'screeching_'
'scrape_'
'scra'
'scotch_'
'scope_'
'scissors_'
'sch'
'scaled_'
'sbed_'
'saw'
'savings_'
'sara'
'santiago_'
'sant'
'sans_'
'sampled_'
'same'
'saloon_'
'sails_'
'ruct'
'rubble_'
'rst_'
'routes_'
'roundabout_'
'rot'
'rosen_'
'roooms_'
'roomsw'
'roomsvery_'
'roomsthis_'
'roomss'
'roomsgood_'
'roomservice_'
'roomok_'
'roomm'
'roomin_'
'roome'
'roombed_'
'roomas_'
'rollaways_'
'rocket_'
'roc'
'robust_'
'ro'
'rni'
'rn'
'ritzy_'
'ripoff_'
'rid'
'rg_'
'rew'
'reuse_'
'reu'
'retrospect_'
'retail_'
'ret'
'restrict'
'resta'
'resort'
'resistant_'
'resist_'
'residue_'
'reserv'
'rese'
'rer'
'req'
'reproduction_'
'representation_'
'reporting_'
'repetitive_'
'rep_'
'renowned_'
'renovat'
'rene'
'rena'
'ren'
'remover_'
'remodeled'
'remade_'
'relish_'
'relieved_'
'relic_'
'rele'
'rejuvenated_'
'rei'
'regulations_'
'regulation_'
'regret'
'rega'
'refurbish'
'refuge_'
'refills_'
'refilling_'
'reference_'
'redi'
'recurring_'
'rectify_'
'recon'
'recommendedthe_'
'recognizing_'
'reckon_'
'recipe_'
'reassigned_'
'really'
'raving_'
'ration_'
'rati'
'ras'
'rant'
'rammed_'
'raj_'
'raises_'
'rainshowers_'
'rail'
'radios_'
'race'
'quet_'
'qualitya'
'quadruple_'
'push'
'puny_'
'punctual_'
'puerto_'
'puddles_'
'pta'
'proves_'
'prot'
'propo'
'promotes_'
'promoted_'
'professionals_'
'production_'
'pris'
'priorities_'
'printers_'
'principle_'
'priceb'
'pretty'
'prettiest_'
'press'
'preferably_'
'pred'
'preci'
'prebooked_'
'prawns_'
'ppl_'
'pper'
'powers'
'posting_'
'pose_'
'portuguese_'
'pop'
'poo'
'pon'
'poly_'
'poly'
'poland_'
'point'
'pn_'
'plumber_'
'plinth_'
'plentiful'
'plasticky_'
'plastered_'
'plan'
'pl'
'pizzas_'
'pills_'
'pillowsour_'
'pill'
'photography_'
'philly_'
'philadelphia_'
'petty_'
'petit_'
'pes'
'perth_'
'perr'
'perf'
'percolator_'
'pens_'
'peer'
'peel'
'pedicure_'
'pedic_'
'pedi'
'ped'
'peanuts_'
'peaceful'
'pea_'
'pd'
'patrick_'
'patina_'
'patience_'
'particulary_'
'parkland_'
'parkingthe_'
'papa'
'pant'
'paddle_'
'ox_'
'owels_'
'overweight_'
'overview_'
'overtly_'
'overstated_'
'oversold_'
'overr'
'overlo'
'overlarge_'
'overhaul'
'overd'
'overc'
'outweigh_'
'outfit_'
'outdo'
'outa'
'oul'
'ouch_'
'ose_'
'oscillating_'
'osa'
'ora_'
'opulently_'
'option'
'opposite'
'opposing_'
'operable_'
'openable_'
'oor_'
'ool_'
'onlythe_'
'online'
'ona'
'okthis_'
'okour_'
'oe_'
'occ'
'oc_'
'obtrusive_'
'observe_'
'obligatory_'
'obese_'
'o2_'
'nw'
'np'
'novatel_'
'nov_'
'nov'
'note'
'nonfunctional_'
'noisyso_'
'noisybut_'
'nk_'
'nk'
'nities_'
'nite'
'nish'
'nin'
'nil_'
'nightsb'
'niece_'
'nicethere_'
'nicely'
'nicehotel_'
'niceb'
'nh'
'nga'
'newport_'
'nev'
'nett'
'nescafe_'
'nepal_'
'needle_'
'necessitating_'
'nce'
'navigating_'
'name'
'mysterious_'
'muscles_'
'muesli_'
'mr'
'mp3_'
'mouth'
'mountains'
'motorised_'
'motifs_'
'most'
'moscow_'
'monk_'
'moni'
'modesty_'
'moderni'
'moden_'
'models_'
'mode'
'modcons_'
'moat_'
'moab_'
'mittens_'
'mistakenly_'
'mismatch_'
'mira'
'mir'
'minute'
'milton_'
'milks_'
'mighty_'
'mesa_'
'meri'
'mercifully_'
'mer_'
'mentions_'
'mentality_'
'mens_'
'measuring_'
'md'
'mcdonalds_'
'mattressthe_'
'mat'
'masks_'
'mart_'
'marshmallows_'
'manner'
'manicure_'
'maneuvering_'
'mand'
'mali'
'malfunction_'
'maker'
'maid'
'magnolia_'
'magna_'
'macarons_'
'm1_'
'lyn'
'lw'
'luxuri'
'lux'
'luster_'
'lus'
'lumpy'
'lucked_'
'lua'
'lr_'
'lover_'
'louvre_'
'louvered_'
'lottery_'
'lop'
'loop_'
'longleat_'
'lonely_'
'londonthe_'
'lon'
'logo_'
'lockoff_'
'lob'
'lk'
'linnens_'
'line'
'limo_'
'limescale_'
'lima_'
'liitle_'
'lightings_'
'life'
'lh'
'lg'
'lethal_'
'lends_'
'lemonade_'
'leeping_'
'leep_'
'leds_'
'lect'
'leafy_'
'lbe'
'layout'
'laundr'
'lau'
'lain'
'laguna_'
'lager_'
'labyrinth_'
'la'
'krakow_'
'korres_'
'kon'
'kolkata_'
'kitchenthe_'
'kingside_'
'kiddie_'
'kh'
'ker_'
'keeper_'
'ke'
'kayak'
'kat'
'justifi'
'juni'
'juice'
'jpy'
'jos'
'joints_'
'join'
'jin'
'jetlagged_'
'jersey_'
'jasper_'
'jan'
'jaccuzzi_'
'ives_'
'itso_'
'itn'
'ition_'
'ita'
'issue'
'issi'
'ipl'
'investigation_'
'inti'
'intern'
'interactions_'
'intending_'
'intelligent_'
'inspect_'
'inland_'
'ink'
'inh'
'ington_'
'ings'
'ingo'
'ingle'
'infront_'
'infestation_'
'infamous_'
'inexplicable_'
'induction_'
'incorrectly_'
'incon'
'incentive_'
'improves_'
'implied_'
'imperfections_'
'impacted_'
'imp'
'immi'
'imaginatively_'
'imacs_'
'im'
'ilst_'
'illogical_'
'ii'
'ihome_'
'ign_'
'ified_'
'ien'
'icon_'
'i'
'hyper_'
'hyg'
'hyatt'
'hurts_'
'hs_'
'however'
'how'
'hours'
'hour'
'hough_'
'hoteliers_'
'hostels_'
'horses_'
'horrified_'
'horrifically_'
'hor'
'hop'
'honest'
'hone'
'hol'
'hinged_'
'hine_'
'hind'
'hin'
'hiltonthe_'
'hiltons'
'hilo_'
'hill'
'hight_'
'hia'
'hh'
'het'
'hesitant_'
'hes'
'hershey_'
'herm'
'hereo'
'helsinki_'
'heats_'
'heat'
'healthier_'
'hd'
'hau'
'hat'
'harry_'
'harbourview_'
'handwash_'
'hail'
'haha_'
'hadi'
'habitable_'
'h10_'
'gy'
'gust'
'gus'
'gs'
'grumbles_'
'grub_'
'grouped_'
'grooming_'
'groceries_'
'groan_'
'greenbrier_'
'greedy_'
'greatit_'
'grate_'
'granvia_'
'grandest_'
'governor_'
'gouges_'
'gorgeous'
'gooda_'
'gooda'
'gne'
'gle_'
'gizmos_'
'gifted_'
'gib'
'gge'
'get'
'gera'
'gently_'
'genius_'
'gene'
'gati'
'gathered_'
'gateway_'
'galleries_'
'gadgetry_'
'furniturebut_'
'furb_'
'funiture_'
'ful'
'fst'
'frig'
'freight_'
'franc'
'fragile_'
'fra'
'fr_'
'formulaic_'
'footb'
'fon'
'folder_'
'foldaway_'
'foldable_'
'flush'
'flor'
'floppy_'
'flood'
'float'
'flipped_'
'flightthe_'
'fle'
'fireplace'
'finicky_'
'fines'
'fill'
'fifty_'
'fiddling_'
'fiddled_'
'fic_'
'fibre_'
'feng_'
'felt'
'feelthe_'
'feeling'
'fee'
'fe'
'fatigue_'
'far'
'fancied_'
'fairthe_'
'facility'
'facelift'
'eys_'
'extravagantly_'
'expert_'
'experi'
'expect'
'exo'
'execution_'
'execut'
'excels_'
'examination_'
'everyones_'
'event'
'evenly_'
'etcit_'
'etci_'
'etch'
'etca'
'eta'
'esta'
'espe'
'escort_'
'escalator_'
'ero'
'erf'
'environs_'
'entrees_'
'entit'
'enthusiasm_'
'entertain_'
'enoughb'
'engineers_'
'engaged_'
'enforce'
'ened_'
'emin'
'elli'
'elle'
'ella_'
'elizabeth_'
'elected_'
'ek'
'ege_'
'effortless_'
'ef'
'edm'
'edi_'
'ed'
'ecti'
'eco'
'ecent_'
'eb'
'eaton_'
'eater_'
'easiest_'
'eas_'
'earl_'
'décor'
'duomo_'
'dumb_'
'dull'
'dul'
'dubrovnik_'
'drug_'
'drowned_'
'drinkers_'
'drill_'
'drastic_'
'drain'
'downwards_'
'downmarket_'
'dow'
'doublethe_'
'dorms_'
'doorb'
'donuts_'
'dona'
'domed_'
'dom_'
'does'
'dod'
'dlr_'
'dividers_'
'distribution_'
'distract_'
'disruptive_'
'disproportionately_'
'disproportionate_'
'dispa'
'disjointed_'
'disinfectant_'
'disgustingly_'
'disguised_'
'disco'
'disappointed'
'disapointing_'
'disagree'
'dio'
'dingy'
'ding'
'din'
'dimmable_'
'dimension_'
'different'
'dial'
'devoted_'
'develop'
'deterioration_'
'deteriorating_'
'detailthe_'
'det'
'depression_'
'depressed_'
'dependent_'
'deo'
'denali_'
'delu'
'deli_'
'del'
'degreesthe_'
'defintely_'
'definitly_'
'defeated_'
'ded'
'decorateda'
'deadbolt_'
'de'
'daughter'
'datedour_'
'darkest_'
'damp'
'damages_'
'cycling_'
'curtainthe_'
'curtain'
'curt'
'currency_'
'curr'
'cup'
'cular_'
'cubb'
'crusty_'
'crus'
'crow'
'critic'
'crisis_'
'crews_'
'creeping_'
'crawled_'
'crampy_'
'crafts_'
'cozythe_'
'cozier_'
'coz_'
'courtyardthe_'
'council_'
'couch'
'corridoors_'
'cornic'
'coordination_'
'cook'
'convince_'
'convector_'
'continual_'
'contin'
'conthe_'
'contemporary'
'contempary_'
'contemp'
'contacting_'
'consum'
'constr'
'consistant_'
'consi'
'conne'
'connaught_'
'confuse_'
'confronted_'
'confi'
'conf'
'cone'
'conditionthe_'
'conditioner'
'cond'
'conclude_'
'component_'
'complaint'
'complain'
'competing_'
'compe'
'compacted_'
'comp'
'comortable_'
'communi'
'commonly_'
'common'
'committed_'
'commenting_'
'comical_'
'comfortablehowever_'
'comfortablegreat_'
'comfortablebreakfast_'
'comfortableas_'
'comfortabe_'
'colla'
'coe'
'cod_'
'cobweb_'
'cob'
'coating_'
'coated_'
'coasters_'
'cm'
'clump'
'clothes'
'clin'
'cliff'
'cli'
'cleveland_'
'clearn_'
'cleanw'
'cleans_'
'cleaner'
'claustrophobic'
'clar'
'clanking_'
'clammy_'
'cladding_'
'citizens_'
'cis'
'cigars_'
'cie'
'chuck'
'christmas'
'chore_'
'choicethe_'
'chique_'
'ches'
'cher'
'chen'
'cheerless_'
'cheer_'
'check'
'charts_'
'charming'
'chai'
'cer_'
'cer'
'centuries_'
'centric_'
'centa'
'celling_'
'celings_'
'cel'
'ccommodation_'
'cc'
'cb'
'caved_'
'casablanca_'
'carriage_'
'carltons_'
'careworn_'
'captured_'
'capture_'
'capability_'
'canopied_'
'canned_'
'candlewood_'
'cancelling_'
'canberra_'
'cana'
'campground_'
'came'
'cambria_'
'calm'
'calgary_'
'cad_'
'cad'
'cac'
'cab'
'buy'
'butlo'
'buthowever_'
'butgood_'
'butall_'
'busses_'
'businessthe_'
'businessmen_'
'businesses_'
'busier_'
'bur_'
'bun'
'build'
'bud'
'buckingham_'
'bt'
'brutalist_'
'brochures_'
'brocade_'
'brits_'
'brill_'
'brightening_'
'bridge'
'brewer_'
'brew_'
'breakfastw'
'breakers_'
'brav'
'brass'
'bras'
'brand'
'boxspring_'
'box'
'boulevard_'
'bottom'
'born_'
'bo_'
'blu'
'blanc'
'bitthe_'
'bitterly_'
'beutiful_'
'bergen_'
'bend'
'belle_'
'belfry_'
'being'
'beg'
'beeing_'
'bedsa'
'bedroomand_'
'bedf'
'bedcovers_'
'bedco'
'bedclothes_'
'beads_'
'bbc2_'
'bathw'
'bathroomthe'
'bathroomso_'
'bathroomo'
'bathroomhowever_'
'bathroomf'
'bathrooma'
'bathroms_'
'bathoom_'
'basici_'
'bartenders_'
'bari'
'bargain'
'bait_'
'bahia_'
'backpack_'
'awsome_'
'awful'
'awakening_'
'awaken_'
'await_'
'avocado_'
'auto'
'au'
'attractive'
'attendance_'
'attempting_'
'ats_'
'ato'
'assign'
'aspire_'
'ase_'
'arth'
'arte'
'ars_'
'aroundthe_'
'arly_'
'ares'
'areasthe_'
'ards_'
'apppointed_'
'appointedbut_'
'aplenty_'
'ape'
'ao_'
'anth'
'ano'
'announcements_'
'ann'
'andst'
'andr'
'andm'
'andina_'
'andg'
'andeven_'
'anddo'
'andd'
'andafter_'
'ambi'
'amber_'
'amaze_'
'amaz'
'amateur_'
'amarillo_'
'aly_'
'alter_'
'already'
'alpine_'
'aloha_'
'alofts_'
'alleyway_'
'alleged_'
'alert_'
'ald'
'alaskan_'
'ais'
'aint'
'afterall_'
'affects_'
'affecting_'
'aff'
'advising_'
'adquate_'
'adl'
'adina_'
'adequatethe_'
'adams_'
'activate_'
'act'
'acs_'
'ack'
'acious_'
'accessory_'
'acceptable'
'accentuated_'
'abstract_'
'aber'
'aba'
'a'
']_'
'[ _'
'@'
'95'
'94_'
'92_'
'87'
'80ies_'
'70s'
'619_'
'618_'
'612_'
'606_'
'605_'
'511_'
'460_'
'43'
'42nd_'
'429_'
'421_'
'418_'
'401'
'3x'
'326_'
'323_'
'319_'
'312'
'30c_'
'301'
'2s'
'261'
'245_'
'241'
'24'
'236_'
'232_'
'231_'
'222'
'213_'
'202'
'1m'
'1999_'
'189_'
'186'
'185_'
'17'
'143_'
'139_'
'134_'
'131_'
'10m'
'1030_'
'0s'
'06_'
'--'
'-'
', '
'++ '
'+ ) _'
'* * _'
'* '
'$'
'"'
'!!_'
' ”_'
' ?'
' ;'
' .… _'
' ... - _'
' ... , _'
' .. ) _'
' . . . '
' . + _'
' -, _'
' - " _'
' )* _'
' ) ) ._'
' ) ( _'
' ( ? ) ._'
' ( ! ) ._'
' ' !_'
' & '
' " .'
' ! )'
' ! " _'
' ! ! ! '
'€'
'” _'
'ó'
'è'
'zu'
'zen'
'zation_'
'ywe_'
'your'
'yorkshire_'
'yog'
'yhe_'
'yg'
'yellows_'
'yavapai_'
'yale_'
'xy_'
'wu'
'writers_'
'writ'
'wrinkles_'
'wreck'
'woven_'
'worstthe_'
'worm'
'worksthe_'
'workour_'
'workingand_'
'workedthe_'
'woody_'
'wonderland_'
'wok'
'woeful_'
'wish'
'wine'
'wimpy_'
'willi'
'will'
'wilde'
'wil'
'wifia'
'widow_'
'wide'
'wick'
'whist_'
'whiff_'
'whichever_'
'wheat_'
'wellour_'
'wellit_'
'welcoming'
'weighed_'
'weekly_'
'waterproof_'
'wateri'
'waterf'
'wasthis_'
'wasroom_'
'waslarge_'
'wasit_'
'wasb'
'warwick_'
'warrior_'
'warner_'
'wardman_'
'wand'
'wan'
'walmart_'
'wallb'
'wak'
'waist'
'waft'
'vor'
'volumes_'
'vistas_'
'visa_'
'vin'
'viewa'
'videos_'
'vid'
'vessel_'
'verde_'
'verb'
'venting_'
'ven'
'velour_'
'velcro_'
'veer'
'vat'
'vanish'
'valu'
'valentines_'
'val_'
'val'
'vacation'
'uv'
'utes_'
'usual'
'uso'
'usi'
'urn_'
'urg'
'upo'
'uplifting_'
'upcharge_'
'upbut_'
'unwatchable_'
'untr'
'unsurpassed_'
'unsupportive_'
'unpre'
'unpersonal_'
'unp'
'unkept_'
'unk'
'universally_'
'unisex_'
'unin'
'unhealthy_'
'undesirable_'
'undertaken_'
'underside_'
'undercover_'
'uncomp'
'ule_'
'uding_'
'ud_'
'uction'
'uch_'
'uble_'
'ually_'
'uae_'
'twee_'
'tvth'
'tvs'
'tvroom_'
'turn'
'turf_'
'tted_'
'tsu'
'truthfully_'
'troublesome_'
'treet'
'travertine_'
'translation_'
'transient_'
'traine'
'train'
'trader_'
'trace_'
'tr'
'tp'
'towles_'
'tow'
'touted_'
'tour'
'touches'
'torture_'
'toni'
'ton'
'tolerate_'
'toilettes_'
'toiletaries_'
'toile'
'togetherthe_'
'toe'
'toddlers_'
'tod'
'to'
'tment_'
'tl'
'tive'
'timesthe_'
'timel'
'tighter_'
'tighten'
'thunder_'
'thumb_'
'ths_'
'threatening_'
'thou'
'thinn'
'thew'
'thes'
'thermostatic_'
'therewe_'
'thereit_'
'thei'
'theat'
'tful_'
'tet'
'tern'
'term'
'teri'
'tequila_'
'tenerife_'
'tempt_'
'tell'
'televison_'
'tehr'
'teenaged_'
'ted'
'tec_'
'taxi'
'tati'
'tastethe_'
'tarts_'
'tar_'
'taiwan_'
'tain'
'tailored_'
'taff_'
'tac'
'tablet'
'swor'
'swin'
'swimsuits_'
'swiming_'
'swell'
'sweep_'
'swear_'
'swamp_'
'suspected_'
'surprise'
'surgery_'
'superb'
'sunglasses_'
'sunday'
'summertime_'
'summed_'
'summarize_'
'sulfur_'
'suitew'
'suitesthe_'
'suitcasesthe_'
'suit'
'subtly_'
'sual_'
'stunned_'
'stun'
'stubbed_'
'stru'
'strings_'
'streak'
'strategic_'
'stranded_'
'strand_'
'stoop_'
'stole_'
'stock'
'stl'
'stile_'
'stically_'
'sters_'
'sten'
'staterooms_'
'starr'
'starck_'
'staple_'
'standa'
'stairs'
'stair'
'staffrooms_'
'ssee_'
'squealing_'
'square'
'spu'
'spoo'
'spo'
'splitting_'
'splendidly_'
'spilt_'
'spiffing_'
'sperate_'
'specs_'
'specifications_'
'spea'
'sparklingly_'
'spar'
'spacous_'
'spaciousrooms_'
'spacia'
'spaceand_'
'soy_'
'sov'
'souvenirs_'
'souvenir_'
'southbank_'
'sourced_'
'soul'
'sorta_'
'sombre_'
'somber_'
'soli'
'solely_'
'solarium_'
'sofathe_'
'soap'
'snuff_'
'snow'
'snooze_'
'snooty_'
'sneak'
'snake_'
'snags_'
'sn'
'smartening_'
'smart'
'smallthere_'
'smallm'
'smallbed_'
'smallal'
'smalla_'
'slippers'
'slighl'
'sleepover_'
'sleepi'
'sleekly_'
'slat_'
'skytrain_'
'sk_'
'sk'
'sizes'
'sizebathroom_'
'situations_'
'sisters_'
'siren_'
'simple'
'silk'
'shutt'
'showever_'
'showerwas_'
'showerthe'
'showert'
'shop'
'shire_'
'ship'
'shift'
'sheffield_'
'shee'
'shear_'
'shapethe_'
'shannon_'
'shampoo'
'shabbythe_'
'shabbier_'
'sha_'
'sewerage_'
'setups_'
'sett'
'serviceroom_'
'sensi'
'seminars_'
'sem'
'seine_'
'segment_'
'seeping_'
'securing_'
'seat'
'season'
'searched_'
'scum_'
'scrapped_'
'scrap'
'scr'
'scho'
'sce'
'scalded_'
'savvy_'
'sav'
'sau'
'saturday'
'saturated_'
'satisf'
'sati'
'sar'
'samples_'
'sala_'
'sala'
'sak'
'sacrificed_'
'rya'
'runway'
'rum'
'rubbery_'
'rti'
'rsthe_'
'rot_'
'ropey_'
'roomsi'
'roomsb'
'roomli'
'roomgood_'
'roomc'
'room2'
'roofed_'
'ron'
'romania'
'role_'
'rod'
'rocke'
'robbed_'
'roadthe_'
'roach_'
'roa'
'rke'
'rium_'
'riti'
'rise'
'rious_'
'rigid_'
'ridges_'
'rhe_'
'reversed_'
'reverberate'
'revel'
'revealing_'
'retrofit_'
'retr'
'resu'
'resorted_'
'reside'
'requisites_'
'replenishment_'
'repellant_'
'repaint_'
'reopened_'
'renting_'
'rentals_'
'rent'
'renewing_'
'rend'
'remote'
'released_'
'relationship_'
'relate_'
'rela'
'rel'
'reiterated_'
'rein'
'rehab'
'regi'
'refurnish'
'refurbished'
'refrigerated_'
'refinement_'
'redeemed_'
'recreational_'
'reconsider_'
'recognise_'
'recline_'
'recl'
'receives_'
'reb'
'reasonable'
'reap_'
'reall'
'realistically_'
'rea'
'ras_'
'rambling_'
'railroad_'
'racecourse_'
'rac'
'quit'
'quirk_'
'quire_'
'quipped_'
'quinta_'
'quilted_'
'quietroom_'
'quests_'
'query_'
'queries_'
'queens'
'quays_'
'qual'
'purport'
'purchases_'
'punched_'
'pum'
'puff'
'pud'
'provide'
'pron'
'promote_'
'products'
'proceed_'
'prob_'
'privileged_'
'privil'
'priv'
'princesa_'
'pricier_'
'previ'
'prevalent_'
'prevail'
'pretending_'
'prese'
'prepay_'
'predominant_'
'precise_'
'precariously_'
'prec'
'pray'
'prawn_'
'prat'
'ppo'
'ppi'
'pp'
'pours_'
'pou'
'possibilities_'
'position'
'portfolio_'
'porn_'
'poorthe_'
'poolb'
'poola'
'pont'
'policies_'
'poked_'
'poke'
'pockets_'
'plum'
'plugs'
'plopped_'
'pleasingly_'
'pleased'
'plea'
'plati'
'plastic'
'planks_'
'plaid_'
'pk'
'pisco_'
'pink'
'pines_'
'pillowthe_'
'pillowsa'
'pillowcase_'
'pig'
'pies_'
'pictures'
'phr'
'pes_'
'pervading_'
'perspex_'
'personthe_'
'personified_'
'personal'
'perpetually_'
'permi'
'perform_'
'pepsi_'
'pent_'
'penn_'
'penin'
'pene'
'pencil_'
'pena'
'peacocks_'
'payable_'
'pavillion_'
'patong_'
'patient_'
'pate'
'party'
'particle'
'parker_'
'pari'
'pared_'
'palatable_'
'palacio_'
'palaces_'
'pala'
'paints_'
'ovi'
'overnight'
'overheat'
'overhauled_'
'overhanging_'
'overcharged_'
'overbearing_'
'overbath_'
'overb'
'ovens_'
'outrooms_'
'outn'
'outl'
'oute'
'outdatedthe_'
'outbuildings_'
'outage_'
'ouse_'
'ound'
'ounce_'
'otb_'
'ot'
'ornately_'
'orn_'
'orm'
'ork_'
'organ'
'ores'
'optional_'
'optimum_'
'openness_'
'opened'
'oot'
'ooo'
'ook_'
'ont_'
'onl'
'onit_'
'oneself_'
'oned_'
'ona_'
'omm'
'omission_'
'oma'
'ols'
'olives_'
'olden_'
'ola_'
'ola'
'okura_'
'okg'
'oked_'
'oke'
'okays'
'oiled_'
'officially_'
'office'
'offi'
'oes_'
'ocked_'
'occasion'
'occa'
'obi'
'oak'
'nycthe_'
'nv'
'nut'
'nusa_'
'nr_'
'nowthe_'
'novotel'
'notoriously_'
'notify_'
'notches_'
'notch'
'nose'
'nos'
'norms_'
'noodle_'
'nom'
'noisyit_'
'noi'
'nne'
'nm'
'nightst'
'nightmy_'
'nifty_'
'nickle_'
'nich'
'niceso_'
'niceoverall_'
'nicenice_'
'nicel'
'nicei'
'nicebed_'
'neutrals_'
'nescafé_'
'nes'
'negative'
'necessaries_'
'necces'
'nearing_'
'nder'
'nded_'
'nde'
'ndard_'
'nbe'
'nb_'
'navigat'
'nary_'
'narrowthe_'
'napping_'
'napa_'
'nan_'
'nami'
'nal'
'nak'
'nai'
'nag'
'myself'
'musical_'
'munchies_'
'mun'
'multipl'
'multimedia_'
'muffled_'
'mou'
'motor'
'motivated_'
'moss'
'morningrooms_'
'mordern_'
'moods_'
'moo'
'monte_'
'molds_'
'mol'
'modernish_'
'modernis'
'moc'
'moans_'
'mmy_'
'mmm_'
'mme'
'mist'
'misnomer_'
'minimal'
'mindthe_'
'mindful_'
'mimi'
'millenium_'
'mila'
'mic_'
'mgallery_'
'mfy_'
'mewe_'
'met'
'mes_'
'meriton_'
'menuthe_'
'ments'
'members'
'mel_'
'mega'
'medication_'
'mechanisms_'
'mec'
'meals'
'meal'
'mckinley_'
'maya'
'mauve_'
'mau'
'mature_'
'mattresses'
'matter'
'matt'
'material'
'mate'
'match'
'masked_'
'martini_'
'marriots_'
'marri'
'marm'
'maria'
'marble'
'manners_'
'mang'
'mana'
'malta_'
'mak'
'mailed_'
'madness_'
'made'
'lurking_'
'luminous_'
'lum'
'ludicrously_'
'lte'
'lp'
'lowthe_'
'loverly_'
'lovelywe_'
'lovelyth'
'loung_'
'lorries_'
'loosing_'
'loosely_'
'looks'
'looked'
'longe_'
'lomond_'
'logical_'
'logic_'
'locationi'
'locali'
'locale_'
'loca'
'loa'
'ln'
'lling_'
'lizards_'
'livi'
'litthe_'
'linin'
'ling'
'lind'
'lilac_'
'lil_'
'liketh'
'likea'
'lightingthe_'
'lighten_'
'liftsthe_'
'lieu_'
'lid'
'lic'
'lib'
'lhr_'
'lev'
'lenty_'
'lel'
'leave'
'leap_'
'leans_'
'leadership_'
'lb'
'largebut_'
'lan'
'lam'
'lagoons_'
'lads_'
'ladders_'
'kurig_'
'kt'
'kol'
'kok_'
'kle'
'kl'
'kk'
'kiss'
'kir'
'kiosks_'
'kingthe_'
'kim'
'ki_'
'kha'
'kg_'
'keycards_'
'kettle'
'kee'
'kd_'
'kb'
'kats_'
'kap'
'kan'
'kab'
'jumbo_'
'judged_'
'joyed_'
'jou'
'john'
'jogging_'
'japan'
'jamb_'
'jacqu'
'ja_'
'ix_'
'ively_'
'itv'
'itslef_'
'itselfthe_'
'ists_'
'ista'
'ising_'
'isc'
'irrespective_'
'irrelevant_'
'iro'
'iq'
'ipan'
'ionthe_'
'ionizer_'
'iona'
'inviting'
'invites_'
'invitation_'
'invisible_'
'inventive_'
'invariably_'
'inu'
'intrusion_'
'intrude'
'intervals_'
'interl'
'interfere_'
'interfer'
'intercon'
'intent_'
'insisting_'
'inse'
'inne'
'inna'
'inmy_'
'injection_'
'inhibit'
'ingthis_'
'inga'
'inet'
'indulge_'
'incl'
'incidents_'
'inbuilt_'
'inb'
'inadequately_'
'inaccessible_'
'imported_'
'ilit'
'ih'
'igo'
'iet'
'idl'
'idiots_'
'idiot_'
'idi'
'identikit_'
'identify_'
'identified_'
'ick_'
'ican_'
'ibi'
'ibe'
'ians_'
'ially_'
'hypoallergenic_'
'hyp'
'hygenic_'
'hw'
'hv'
'hurst_'
'hurrah_'
'hur'
'humor'
'hts_'
'hs'
'housekeepingthe_'
'hoti_'
'hotelsit_'
'hotelh'
'horrible'
'horned_'
'horizontally_'
'honeymooners_'
'homethe_'
'homestead_'
'homeless_'
'holl'
'hole'
'hold'
'hob'
'his'
'hiroshima_'
'hips_'
'hilst_'
'hilariously_'
'hick'
'hese_'
'hert'
'hermitage_'
'hens_'
'height'
'heel_'
'hee'
'hedge_'
'hears_'
'heap_'
'headroom_'
'hc'
'harris_'
'harn'
'harmoni'
'hardw'
'hanged_'
'hana'
'hammer_'
'hallmark_'
'hal'
'gut'
'gurgling_'
'guin'
'grue'
'groom_'
'greed_'
'greats'
'greatand_'
'gratuity_'
'gran'
'gram'
'graf'
'gouged_'
'goodwh'
'goodvery_'
'goodne'
'goodie_'
'goodba'
'goodb'
'golfers_'
'golfer_'
'goings_'
'goid_'
'god'
'gobsmacked_'
'glitter_'
'glistening_'
'glassthe_'
'glare_'
'glam'
'girlfriends_'
'gin'
'gibraltar_'
'gian'
'gi_'
'ghting_'
'gha'
'geometric_'
'geneva_'
'generators_'
'general'
'gee'
'gea'
'gd_'
'gc_'
'gaze_'
'gaze'
'gatherings_'
'gated_'
'gargantuan_'
'garden'
'gard'
'gant'
'gan'
'gamble_'
'gall'
'gal_'
'fying_'
'furnishedthe_'
'furbishment_'
'funn'
'funi'
'fulls_'
'fulfills_'
'fudge_'
'frustratingly_'
'fright'
'frige_'
'freew'
'fran_'
'fou'
'forniture_'
'forms_'
'forewarned_'
'forbidden_'
'fly'
'flung_'
'fluid_'
'fluffiest_'
'flow'
'flourishes_'
'florescent_'
'floorrooms_'
'floorplan_'
'floorc'
'flick_'
'flawed_'
'flatter_'
'flattened_'
'flatt'
'flame_'
'fl'
'fizz_'
'fitted'
'fitt'
'fishing_'
'fisher'
'fish'
'fineth'
'fineo'
'finei'
'fineg'
'filtration_'
'files_'
'fijian_'
'fiesta_'
'feature'
'feather'
'fears_'
'fea'
'favorably_'
'fav_'
'fathom_'
'fat'
'fart'
'fal'
'fade_'
'facing'
'facilitiesb'
'faciliti'
'facilit'
'face'
'fac'
'ey'
'extravagance_'
'extractors_'
'ext_'
'expression_'
'explored_'
'explicitly_'
'expir'
'expectthe_'
'expansion_'
'expa'
'exhausting_'
'executives_'
'excuses_'
'excursions_'
'excelsior_'
'excell'
'exacerbated_'
'evo'
'evidenced_'
'everything'
'evacuation_'
'eu'
'etr'
'eties_'
'ethnic_'
'ethis_'
'eth'
'est'
'eso'
'esi'
'esh_'
'esco'
'ertainly_'
'erna'
'erl'
'ergonomics_'
'equipmentthe_'
'equiped'
'equ'
'epo'
'episode_'
'ents_'
'entice_'
'enth'
'enteri'
'ental_'
'enta'
'enou'
'eno'
'eni'
'engines_'
'engineered_'
'ene'
'endthe_'
'encourages_'
'enclose_'
'ence'
'emperor_'
'emi'
'emerging_'
'emerge'
'elsewhere'
'els'
'elipticals_'
'eliminated_'
'elevatorthe_'
'egypt_'
'efficient'
'eer'
'een_'
'edy_'
'edw'
'edn'
'edit_'
'edding_'
'econo'
'econd_'
'eal'
'each'
'e'
'dy'
'dusted_'
'dustbin_'
'dum'
'dua_'
'dt'
'drywall_'
'drunks_'
'dru'
'droom_'
'drone_'
'drinkable_'
'drifted_'
'dribbling_'
'drear'
'draper_'
'downt'
'downside'
'dove_'
'dour_'
'douglas_'
'dori'
'doorknob_'
'doora'
'dol'
'doesn_'
'document'
'dn'
'diy_'
'division_'
'divinethe_'
'dive_'
'div'
'distributed_'
'dissapoint'
'dispense'
'disp'
'dismayed_'
'dishe'
'discre'
'disastrous_'
'disapointment_'
'dirtier_'
'diplomatic_'
'dining'
'diminutive_'
'digni'
'digging_'
'difficult'
'difference'
'dif'
'dies_'
'dict'
'dian'
'diagonal_'
'df'
'devo'
'devere_'
'deteriorate_'
'destroy'
'designi'
'descript'
'depot_'
'deplorable_'
'depicted_'
'depart'
'deodorizer_'
'dent'
'demolition_'
'demi'
'delicacies_'
'deli'
'definatley_'
'defect_'
'deemed_'
'dee'
'deducted_'
'decrease_'
'decisions_'
'deci'
'decaying_'
'decadence_'
'deb'
'deaf_'
'deaden'
'dding_'
'dbut_'
'db'
'datedwe_'
'date'
'das_'
'darkish_'
'dar_'
'daniel'
'dampen_'
'dama'
'dakota_'
'dairy_'
'curve_'
'cupboardthe_'
'cullen_'
'cuc_'
'cted_'
'crust_'
'crowd'
'crouch_'
'cross'
'croissant_'
'critique_'
'crime_'
'cricket_'
'creme_'
'creeky_'
'credited_'
'crate'
'cran'
'crackling_'
'cp'
'cove_'
'cot'
'cosmopolitan_'
'corroded_'
'corr'
'copthorne_'
'copley_'
'cooli'
'converters_'
'convection_'
'conv'
'contributors_'
'contract'
'contortionist_'
'consthe_'
'const'
'considers_'
'conservation_'
'connect'
'congress_'
'conge'
'conform_'
'conditon'
'conditioningi'
'condi'
'conco'
'concentrated_'
'concave_'
'compu'
'compo'
'complete'
'competitor_'
'comparis'
'compar'
'commonwealth_'
'commenced_'
'commanding_'
'comfymy_'
'comfye'
'comfortablew'
'comfortablenice_'
'comfortablef'
'comfortablealthough_'
'combs_'
'colo'
'colli'
'collections_'
'cokes_'
'cocoa_'
'coco_'
'coastal_'
'coaches_'
'clusters_'
'clumsy_'
'close'
'cloakroom_'
'cliffs_'
'click_'
'cleopatra_'
'clen_'
'cleanthe'
'cleaniness_'
'cleaned'
'cleana'
'classier_'
'clamber_'
'cke'
'citi'
'circulated_'
'cir'
'cing_'
'cies_'
'cider_'
'ci_'
'chur'
'christchurch_'
'chor'
'chin_'
'chiang_'
'cher_'
'chennai_'
'cheek_'
'chat'
'charity_'
'chari'
'characterize_'
'chap'
'chao_'
'chandigarh_'
'chan'
'champions_'
'chalk_'
'cfl_'
'cdg_'
'cd'
'cay'
'caveats_'
'category'
'categorized_'
'categori'
'cate'
'catalog_'
'castors_'
'casing_'
'cartoon'
'carthe_'
'carafe_'
'cara'
'capital'
'canap'
'calories_'
'caf'
'cade'
'butwalls_'
'buton_'
'butlarge_'
'buti'
'butha'
'butg'
'butbreakfast_'
'butbe'
'burg'
'bum'
'buildup_'
'buildings'
'buildingb'
'bugged_'
'budget'
'brut'
'bruise_'
'broken'
'broadway_'
'britain_'
'brit'
'brilliant'
'brick'
'breezes_'
'breaky_'
'breakfest_'
'breakfasthotel_'
'breakfastb'
'breakast_'
'breafast_'
'bread'
'bravo_'
'bra_'
'boxing_'
'bowed_'
'boulder_'
'bottoms_'
'both'
'bot'
'boscolo_'
'borrowed_'
'bordello_'
'boost_'
'bond_'
'bolton_'
'bodywash_'
'bodied_'
'boardwalk_'
'board'
'blurry_'
'blue'
'blockage_'
'blethe_'
'blending_'
'bleed_'
'blacks_'
'bk'
'bind'
'biltmore_'
'billiard_'
'bill'
'bile'
'bie'
'bidet'
'bespoke_'
'bert'
'berg_'
'bereft_'
'benchmark_'
'bellmen_'
'bellhop_'
'bellboy_'
'bell'
'beforethe_'
'bedsm'
'bedro'
'bedhotel_'
'bedframe_'
'bede'
'bedal'
'bec_'
'beautif'
'beautful_'
'beacon_'
'be'
'bb'
'bau'
'battleship_'
'bathwe_'
'bathth'
'bathroomy'
'bathrooml'
'bathm'
'bash_'
'basement'
'barrooms_'
'barc'
'banquets_'
'bang'
'ban_'
'balloon_'
'balk'
'bah'
'bagel_'
'backup_'
'backaches_'
'aythe_'
'axe'
'avarage_'
'ava'
'authenticity_'
'authentically_'
'augment'
'audi'
'auc'
'attributes_'
'attende'
'ator_'
'ation'
'athmosphere_'
'ate'
'atb'
'astro'
'astound'
'aster'
'aste'
'asso'
'assi'
'assa'
'arusha_'
'arrivedthe_'
'arri'
'arran_'
'arou'
'areo'
'areab'
'arche'
'arc'
'arab_'
'aquarius_'
'aq'
'aps_'
'approachable_'
'appro'
'appreciation_'
'appreciati'
'appointedi_'
'appli'
'apper'
'apex_'
'aper'
'apa'
'anythe_'
'anticipation_'
'ans'
'annoys_'
'anne_'
'anna'
'angry_'
'andyes_'
'android_'
'andif_'
'andhad_'
'andha'
'andbathrooms_'
'andb'
'andan'
'andam'
'and2_'
'ance'
'amplified_'
'americana_'
'amend'
'amazingb'
'altitude_'
'alley'
'albu'
'albeit'
'alarming_'
'alamo_'
'aking_'
'aircond_'
'ain_'
'agreement_'
'agreeing_'
'agraria_'
'agr'
'agin'
'agile_'
'agi'
'after'
'affair'
'aerobics_'
'aero'
'advert_'
'adventures_'
'adorning_'
'adopted_'
'adjoins_'
'adequ'
'ade'
'addis_'
'add'
'acknowledgement_'
'acilities_'
'aci'
'achieve'
'ace'
'account'
'accom'
'acce'
'absurdly_'
'absolutley_'
'above'
'ablethe_'
'abl'
'abd_'
'abba_'
'a1'
'?'
': '
'93'
'91_'
'907_'
'903_'
'817_'
'804_'
'803_'
'800'
'76_'
'737_'
'715_'
'712_'
'611_'
'5th'
'5m'
'5i'
'5a'
'54th_'
'50m'
'500'
'4s_'
'4b'
'449_'
'431_'
'427_'
'41st_'
'413_'
'3star_'
'3d_'
'3b'
'354_'
'341_'
'340_'
'327_'
'30mins_'
'2x'
'2the_'
'280'
'255_'
'24x7_'
'233_'
'229_'
'2001_'
'1b'
'1982_'
'194'
'154_'
'144_'
'138_'
'137'
'133_'
'128_'
'125'
'122'
'115'
'1102_'
'0s_'
'/- _'
'* * * * * '
') '
'"--_'
'! !_'
' –'
' { _'
' ] '
' ?, _'
' ? ? ) ._'
' ? ? '
' ;) '
' :) ._'
' :('
' : ~_'
' : $ _'
' .~_'
' .: '
' ............ _'
' .... ) ._'
' ..., _'
' ... " _'
' ...'
' .. , _'
' .-'
' .+ '
' - # _'
' ,- _'
' , “ _'
' , ... ) ._'
' ,'
' + + + '
' )-_'
' ) ; - _'
' ( ? )_'
' ( + '
' ( ' _'
' # '
' " ..._'
' " ..'
' ! ! ! ! _'
' ! !'
'✅ _'
'€ _'
'•_'
'á'
'zzi_'
'zzi'
'zipper_'
'zab'
'yst'
'youthful_'
'youth'
'yout'
'youn'
'yli'
'yi_'
'yell_'
'yea_'
'yas_'
'xxx'
'xx_'
'xh'
'xecutive_'
'xa'
'wti'
'wrong'
'wrig'
'wre'
'woth_'
'worldthe_'
'workso'
'workrooms_'
'workman_'
'workings'
'workbench_'
'wool'
'wonderfulthe_'
'wn'
'withstanding_'
'witho'
'withb'
'winds'
'windowit_'
'wild'
'wih_'
'wifibut_'
'wifib'
'whoop'
'wholly_'
'whole'
'whined_'
'wheelchairs_'
'whc'
'whar'
'wether_'
'wethe_'
'westerners_'
'wentworth_'
'went'
'wells_'
'welli_'
'wellb'
'weight'
'weh'
'weeds_'
'wedding'
'webpage_'
'wealthy_'
'wayne_'
'wax_'
'wavy_'
'watery_'
'watert'
'waterp'
'watermelon_'
'waterloo_'
'waterhole_'
'waterbed_'
'wastebasket_'
'wast'
'wasnice_'
'washba'
'warms_'
'warme'
'wang'
'walton_'
'walt'
'wallsso_'
'walla'
'walkout_'
'walki'
'wald'
'wal'
'wailea_'
'wai'
'vomit_'
'voca'
'visibility_'
'visa'
'vis_'
'vis'
'virtue_'
'vines_'
'vin_'
'ville_'
'viewwe_'
'viewi'
'vie_'
'victor'
'vice'
'vibrations_'
'versions_'
'verse'
'vers'
'veri'
'vere'
'venturing_'
'ventillation_'
'ventilator_'
'ventilati'
'venti'
'veggies_'
'vegetable_'
'vega'
'vb'
'vase_'
'vas_'
'variations_'
'vari'
'varanasi_'
'vanity'
'valen'
'va_'
'uxurious_'
'ux_'
'utilization_'
'utilise_'
'utilis'
'ute'
'usting_'
'usekeeping_'
'usefully_'
'usd2'
'urant_'
'upv'
'upso'
'uprooms_'
'upper'
'upholst'
'upgrad'
'upgra'
'upg'
'uperb_'
'update'
'upd'
'upa'
'uous_'
'unusual'
'unusal'
'unto_'
'until'
'unte'
'unsurprisingly_'
'unsuccessfully_'
'unsecured_'
'unsatisf'
'unsanitary_'
'unrefurbished_'
'unr'
'unprofessional_'
'unparalleled_'
'unmo'
'unlo'
'uninte'
'unfortunately'
'unforgivable_'
'unfo'
'unfailingly_'
'unea'
'undone_'
'underst'
'underl'
'undeniably_'
'unda'
'uncoo'
'uncomfor'
'unco'
'ully_'
'uli'
'uire'
'ug_'
'uet'
'udaipur_'
'typical'
'twothe_'
'twelfth_'
'tweaks_'
'twa'
'tvrooms_'
'turb'
'tunnels_'
'tunes_'
'tun'
'tul'
'tubo'
'tubb'
'tter'
'trunk'
'troll'
'tripp'
'trin'
'triggered_'
'tribute_'
'trekking_'
'tree'
'treat'
'trea'
'transpired_'
'transmit'
'transformer_'
'trait_'
'trainee_'
'trag'
'traffic'
'tradition'
'trade'
'trad'
'tractor_'
'toy'
'touchroom'
'touchp'
'tory_'
'tort'
'torrential_'
'tora'
'toppings_'
'topic'
'tooth'
'tool_'
'tomb_'
'toli'
'tol'
'toilett_'
'toileta'
'toi'
'tog_'
'tness_'
'tm'
'tles'
'tiresome_'
'tiredand_'
'tireda'
'tipping_'
'tioni'
'tio'
'tinyi'
'tings_'
'timey_'
'timers_'
'timerooms_'
'timea'
'timbers_'
'tim'
'tilting_'
'tilework_'
'tii'
'tier'
'tidied_'
'tide_'
'tick'
'tici'
'tian'
'thyme_'
'thunderstorm_'
'througout_'
'throught_'
'throughly_'
'thoughrooms_'
'thothe_'
'thinwe_'
'thinroom_'
'thini_'
'thina'
'thier_'
'therooms_'
'thermometer_'
'therm'
'therew'
'thereth'
'theatres_'
'the1'
'thata'
'thanthe_'
'thank'
'tf'
'tethe'
'terrestrial_'
'termed_'
'teme'
'telev'
'technologies_'
'technogym_'
'techie_'
'teas'
'tearing_'
'teabag_'
'tch'
'tb'
'tay_'
'tav'
'tated_'
'tasty'
'tastful_'
'taster_'
'tarp'
'targeted_'
'tant'
'tanks_'
'tane'
'tampa_'
'tal_'
'tal'
'take'
'tahitian_'
'tack_'
'tack'
'tabs_'
'synonymous_'
'swiveled_'
'swims_'
'swimm'
'sweat'
'swearing_'
'sway'
'swathe'
'swat'
'swarming_'
'swarm'
'swag'
'sw_'
'sw'
'svery_'
'surviv'
'surfers_'
'supurb_'
'supplied'
'supplemented_'
'superclean_'
'superbthe_'
'sunscreen_'
'suns'
'sunbath'
'summit_'
'summariz'
'suiterooms_'
'suitebut_'
'sud'
'sucker'
'subdivided_'
'sub'
'stylist'
'styles'
'stuffi'
'stub_'
'strobe_'
'stripping_'
'strikes_'
'stratford_'
'strap_'
'strange'
'strain_'
'str'
'stow'
'stoves_'
'stopover'
'ston_'
'stodgy_'
'stirr'
'stint_'
'sting_'
'stilt'
'stil_'
'sthere_'
'sth'
'stephan'
'stenc'
'stee'
'steadily_'
'stead_'
'staythis_'
'stayedthe_'
'staye'
'stayand_'
'stationery_'
'starwoods_'
'startling_'
'starch_'
'starbuck_'
'staple'
'standardsb'
'standardised_'
'stan_'
'stamped'
'staki'
'stai'
'staffwe_'
'staffroom_'
'stafff'
'staffa'
'sss'
'sso'
'ssion_'
'sses_'
'ssan'
'squirt'
'squeeze'
'squeeked_'
'squeak'
'spur'
'sprawl'
'spr'
'spotting_'
'splutter'
'splinter'
'spiderwebs_'
'spick_'
'spices_'
'spendy_'
'spen'
'speedi'
'specta'
'spect'
'speaker'
'spatial_'
'spartan'
'spart'
'spares_'
'spaciousit_'
'spaciousi_'
'spaciousand_'
'spaciousa'
'spac'
'sowe_'
'sour'
'sound'
'sorry'
'sooth'
'soooooooo_'
'somewhere'
'somet'
'som_'
'soldier'
'solar_'
'sol'
'soi'
'sod'
'socialis'
'socia'
'sob'
'soar_'
'snug'
'snows'
'snore_'
'sno_'
'snack'
'smu'
'smoothies_'
'smoothe'
'smiled_'
'smil'
'smally'
'smallw'
'smallt'
'smalll'
'smalle'
'smallc'
'smacked_'
'sluggish_'
'slipperythe_'
'slimy_'
'slight'
'slender_'
'sleepw'
'sleeps'
'sleeproom_'
'sleepa'
'slee'
'sl'
'skin'
'skiing_'
'skeptical_'
'skate'
'sizewise_'
'sizeso_'
'sizeroom_'
'sizeour_'
'sizebed_'
'sixe_'
'sitting'
'sist'
'sir'
'sion'
'sills_'
'shudder'
'shrunk_'
'showersthe_'
'showerso'
'showerf'
'showere'
'showerall_'
'shou'
'shortthe_'
'shortcuts_'
'shortc'
'shock'
'shl'
'shin'
'shimm'
'shelve'
'shang_'
'shaker'
'sevice_'
'serviceb'
'servicea'
'server'
'serv'
'seri'
'seren'
'serai_'
'ser_'
'separ'
'sen_'
'selectionthe_'
'selection'
'sele'
'segregated_'
'seg'
'sef'
'seep_'
'seek'
'secret'
'second'
'seaw'
'seasons'
'scrunched_'
'scrib'
'scraping_'
'scramble_'
'scoring_'
'sconces_'
'sci_'
'schlep'
'scenario_'
'scatter_'
'scant_'
'scandi'
'scaffold'
'sbur'
'savour'
'savor_'
'savannah_'
'saunathe_'
'sauna'
'saucers_'
'saty'
'satisfactorily_'
'sardine'
'sao_'
'sang_'
'sandy_'
'sanctuary_'
'salv'
'sailing_'
'said'
'saggy'
'safer_'
'safebox_'
'sacrifice_'
'ryw'
'rvice'
'russia_'
'rus'
'rup'
'runny_'
'running'
'rue_'
'rta'
'rroom_'
'rra_'
'rr'
'roy'
'rowing_'
'rove'
'rous'
'rou'
'rotted_'
'rose'
'roots_'
'roomwi'
'roomwhen_'
'roomw_'
'roomthat_'
'roomsso_'
'roomsh'
'roomse'
'roomr'
'roomp'
'roomis_'
'roominess_'
'roomif_'
'roomie_'
'roomi'
'roomg'
'roomeverything_'
'roomcomfortable_'
'roombathroom_'
'roomall_'
'roofing_'
'roo'
'rollout_'
'roll'
'rockers_'
'rocker_'
'rocked_'
'robotic_'
'robin'
'rms_'
'rmo'
'rme'
'rmb_'
'rma'
'rk_'
'riz'
'ritual_'
'rit'
'ripp'
'ripe_'
'rio'
'rightthe_'
'rif'
'rien'
'rie'
'rick_'
'rical_'
'rica'
'ric'
'ribs_'
'ria_'
'ria'
'revolve'
'revolting_'
'revi'
'rever'
'reus'
'retu'
'retty_'
'restuarants_'
'restr'
'restocking_'
'restaurent_'
'restauarant_'
'restart'
'respective'
'respectful_'
'resortthe_'
'resorts'
'reso'
'residual_'
'resi'
'reputable_'
'repu'
'reproductions_'
'representing_'
'repr'
'repair'
'renow'
'renovatedthe_'
'rendezvous_'
'remolded_'
'remodled_'
'remin'
'relocate_'
'release_'
'relax'
'rejuvenating_'
'reinforced_'
'reign'
'regulator_'
'regulars_'
'regrouting_'
'regrets_'
'regime_'
'refurbthe_'
'refridge_'
'refr'
'refo'
'ref'
'reef_'
'redundant_'
'redid_'
'recumbent_'
'recp'
'recovering_'
'recorded_'
'recommendthe_'
'recommend'
'receptacles_'
'recently'
'recalled_'
'reca'
'rebu'
'reasonbl'
'readya'
'react'
'reachable_'
'rdi'
'rbo'
'rb_'
'ray'
'ravel'
'rattly_'
'rank'
'rams'
'rally_'
'raind'
'railw'
'rags_'
'rage_'
'rag'
'rafters_'
'raft'
'radissons_'
'rad_'
'rach'
'rab'
'quot'
'quirkily_'
'quil'
'quiets'
'quietened_'
'quietal'
'queued_'
'ques_'
'queen'
'qualm'
'quaintness_'
'qe'
'qas'
'qa'
'put'
'pur'
'pungent_'
'pun_'
'pulsating_'
'public'
'pu_'
'proving_'
'proven'
'protruded_'
'protective_'
'proposition_'
'proportional_'
'properties'
'proofedthe_'
'prompted_'
'progressively_'
'profusely_'
'profit_'
'professional'
'profession'
'prod'
'proclaim'
'process'
'procedures_'
'proce'
'problemthe_'
'problems'
'probably'
'proa'
'prizes_'
'princeton_'
'prince_'
'prim'
'prides_'
'prices'
'prettily_'
'pret'
'presumed_'
'pres'
'premi'
'prefere'
'prefer'
'practicalities_'
'ppr'
'ppl'
'powershower_'
'poun'
'porto'
'populated_'
'poon'
'poolth'
'pom'
'poll'
'political_'
'poli'
'pointthe_'
'poet'
'pod'
'pock'
'plusthe_'
'plugins_'
'plu'
'pls_'
'plot_'
'ples'
'plen'
'pleas'
'plead'
'ple_'
'plaz'
'player'
'playa_'
'platinum'
'plated_'
'plasterboard_'
'planter_'
'plains_'
'plain'
'placeb'
'pity'
'pitt'
'pipework_'
'pints_'
'pinned_'
'pine'
'pinching_'
'pillowswe_'
'pill_'
'pie'
'photographed_'
'phon'
'phin'
'philosophy_'
'phillipe_'
'philip'
'pher'
'phd_'
'phase_'
'pha'
'pf'
'pest'
'perv'
'personali'
'persistent_'
'persisten'
'persist'
'permit_'
'permeat'
'perg'
'performing_'
'pere'
'perception_'
'perceived_'
'pepper_'
'peopleroom'
'pendleton_'
'pegs_'
'peeking_'
'peach'
'pavement_'
'paulo_'
'pasti'
'pas'
'particuarly_'
'participate_'
'participants_'
'partic'
'parthe'
'parlour_'
'parl'
'parent_'
'pard'
'paraphernalia_'
'parad'
'pand'
'panc'
'pallet_'
'palate_'
'palacial_'
'paid'
'pag'
'padd'
'oz_'
'oysters_'
'oyster_'
'oy_'
'ow'
'overwhelm'
'overw'
'overst'
'overhea'
'overhang'
'overflowed_'
'overf'
'overcharge_'
'overbooking_'
'overboard_'
'overalli_'
'oved_'
'outwardly_'
'outw'
'outsiders_'
'outright_'
'outlooks_'
'outlin'
'outlay_'
'outing_'
'outd'
'outback_'
'outb'
'ots_'
'oth'
'otels_'
'ote'
'oscar_'
'orth'
'ort_'
'orst'
'oro'
'ormed_'
'orla_'
'orit'
'origina'
'orient'
'oria'
'ori_'
'ordinarily_'
'ordina'
'orb'
'opus_'
'optics_'
'opti'
'oppulent_'
'opi'
'openi'
'opene'
'ooking_'
'onso_'
'onions_'
'ong'
'onest'
'onei_'
'oncethe_'
'onb'
'onally_'
'onal'
'omlettes_'
'omitted_'
'ome'
'olu'
'ole_'
'olds_'
'oktoberfest_'
'okroom_'
'okh'
'okf'
'oke_'
'okb'
'okayour_'
'oj_'
'oing_'
'oiletries_'
'oid'
'offputting_'
'offer'
'offb'
'odi'
'octa'
'oco'
'occtaine_'
'occassions_'
'obstacle'
'obl'
'objective'
'obe'
'nw_'
'nting_'
'nter'
'nted_'
'nst'
'nse'
'nozzles_'
'nove'
'nother_'
'notebook_'
'nos_'
'noodles_'
'noo'
'nomi'
'noisya'
'noiseand_'
'noc'
'nni'
'nn_'
'nl'
'nky_'
'nium_'
'niti'
'nio'
'nightw'
'nightsroom'
'nightroom_'
'nightn'
'nightli'
'nightgo'
'nightc'
'nie_'
'nico'
'nicew'
'nicest'
'niceno'
'nicefa'
'nicec'
'nicea'
'ngu'
'ngt'
'ngl'
'ngb'
'nex'
'networks_'
'nette'
'nesspresso_'
'nese_'
'ners_'
'nep'
'nen'
'nei'
'negotiating_'
'negotia'
'negatively_'
'needsthe_'
'needles_'
'neededthe_'
'ndthe_'
'ndo'
'ndl'
'nayara_'
'navi'
'nav_'
'nautilus_'
'nauseating_'
'natura_'
'nations_'
'nation_'
'nati'
'nassau_'
'nar'
'naples_'
'namibia_'
'nac'
'n'
'mys'
'muss'
'museums_'
'muse_'
'muni'
'mum'
'mud'
'muc'
'mpi'
'mph'
'mozz'
'movements_'
'mous'
'mothers_'
'moth_'
'morrissey_'
'mornings'
'mori'
'mopping_'
'moorea_'
'moons_'
'moon'
'monthly_'
'montana_'
'monroe_'
'monoton'
'monogrammed_'
'mono'
'monitors_'
'mond'
'mole'
'molded_'
'modi'
'modernwe_'
'modernl'
'modernb'
'moderate'
'mixes_'
'misted_'
'mistakes_'
'mismatching_'
'mircowave_'
'miraflores_'
'minu'
'minis'
'minibar'
'minh_'
'mingl'
'miner'
'mine'
'minds_'
'mina'
'mills_'
'milling_'
'milk'
'mil'
'midsize'
'midrange_'
'michael_'
'mic'
'mia_'
'mi_'
'mgm_'
'messages_'
'mess'
'merit_'
'merid'
'menta'
'melb'
'meeting'
'mee'
'med'
'mebut_'
'meb'
'meaning'
'meandering_'
'meager_'
'meadows_'
'mcg'
'mbo'
'mba'
'maz'
'maximized_'
'maxim'
'mauri'
'mattr'
'matt_'
'masters_'
'marylebone_'
'marvel'
'marriage_'
'markings_'
'marking_'
'marker'
'marilyn_'
'margarita_'
'marbel'
'mara'
'maple_'
'many'
'mans_'
'mann'
'manky_'
'mammoth_'
'malecon_'
'malay_'
'make'
'major'
'maintaned_'
'maintan'
'mails_'
'magnification_'
'magni'
'magnetic_'
'magically_'
'magi'
'madison_'
'madam'
'machinethe_'
'maca'
'lys'
'lyi'
'luxus_'
'luton_'
'lut'
'lumpi'
'lub'
'lttle_'
'lowry_'
'lowe'
'lovelya'
'lously_'
'lous_'
'loose'
'loooo'
'looming_'
'looking'
'longish_'
'lon_'
'lombardy_'
'log'
'locked'
'lockable_'
'locat'
'lobbyb'
'loaner_'
'loan_'
'lm_'
'lm'
'lly'
'lls_'
'ller_'
'littlethe_'
'litte_'
'litt'
'literature_'
'liter_'
'linking_'
'lings_'
'lingered_'
'limp'
'limousine_'
'limit'
'limestone_'
'limbs_'
'likethe_'
'lik'
'lightsthe_'
'lighthouse_'
'lifeguards_'
'lifeguard_'
'lice'
'lic_'
'liberal_'
'lian'
'lever'
'leva'
'lest_'
'lessons_'
'ler'
'leo'
'lens_'
'lemongrass_'
'leis'
'left'
'leb'
'leas'
'leaflet'
'leaders_'
'lba'
'law'
'lav_'
'laughlin_'
'lauderdale_'
'latin_'
'later'
'latches_'
'lastminute_'
'lass'
'largea'
'lao'
'lank'
'langu'
'lancaster_'
'lamp'
'lai'
'lagging_'
'ladyb'
'lad_'
'labor'
'kthe_'
'kruger_'
'kra'
'korea_'
'koi_'
'knowledgable_'
'knights'
'km'
'kling_'
'kki'
'kitkat_'
'kitch'
'kinks_'
'kinder'
'kiely_'
'kick'
'kets_'
'kept'
'kennel_'
'kathmandu_'
'kas'
'kanazawa_'
'kal'
'jun'
'jumper_'
'jum'
'juc'
'js'
'jol'
'joke'
'joins_'
'johnson_'
'jn'
'jit'
'jim'
'jill_'
'jiggl'
'jetwing_'
'jets'
'jet'
'jen'
'jeff'
'ject'
'jane_'
'jana_'
'jamie_'
'jambs_'
'jama'
'jacks_'
'iz'
'ix'
'ivi'
'iver'
'ium_'
'itu'
'ittle_'
'itt'
'itselfi'
'itsel'
'itis_'
'itinerary_'
'ital'
'isthis_'
'issuethe_'
'ison'
'isolate'
'isit_'
'irritatingly_'
'ironic_'
'irin'
'ipe'
'ional_'
'invest'
'inverness_'
'invaded_'
'intruding_'
'introduction_'
'intri'
'inthe'
'intervention_'
'interpretation_'
'internation'
'interconti_'
'intentional'
'intensely_'
'inten'
'inte'
'insurance_'
'instrument_'
'inst'
'insist'
'insipid_'
'inqui'
'innsthe_'
'inner'
'ink_'
'ink48_'
'injured_'
'initiative_'
'inherent_'
'inha'
'ingress_'
'infu'
'influx_'
'inflat'
'infi'
'infants_'
'inexistent_'
'iner'
'indulge'
'induced_'
'indows_'
'indent'
'indeed'
'incu'
'increases_'
'incompeten'
'incoming_'
'incline_'
'incessant_'
'ince'
'inca'
'inbut_'
'inand_'
'improvement'
'impressed'
'impo'
'implement'
'impec'
'impact'
'immu'
'immo'
'imate'
'imaculate'
'im_'
'illegal_'
'ill'
'igu'
'igne'
'iew_'
'iece_'
'icu'
'ict'
'ican'
'ica_'
'ica'
'iar'
'ian'
'hydrat'
'hybrid_'
'humungous_'
'humour_'
'humid'
'human'
'hugewe_'
'hugeb'
'hugeand_'
'hug_'
'hto'
'hthe_'
'hte_'
'howe'
'housecleaning_'
'hoursthe_'
'hotwe_'
'hotplates_'
'hotl'
'hotelthere_'
'hotelth'
'hotelsroom'
'hotelg'
'host'
'hospi'
'horse'
'horrors_'
'horr'
'hordes_'
'hopp'
'hoot_'
'hooray_'
'hook'
'honolulu_'
'homelike_'
'holy_'
'holmes_'
'hoi'
'hobart_'
'hn'
'hly_'
'hike'
'highways_'
'highs_'
'highs'
'hic'
'hib'
'hhon'
'herr'
'hermetically_'
'hereb'
'herea'
'hera'
'hemmed_'
'helm'
'heli'
'hel'
'heed'
'heavens_'
'heavenly'
'heaven'
'heav'
'heatingthe_'
'hdtvs_'
'hcmc_'
'haze_'
'hay_'
'havn_'
'havi'
'hatte'
'hastily_'
'hassles_'
'hass'
'harg'
'harde'
'harbourside_'
'harbour'
'harbor'
'hansar_'
'hans'
'hank'
'handyman_'
'handy'
'handle'
'handi'
'hams_'
'hampton'
'hammocks_'
'hama'
'halloween_'
'hallmarks_'
'hairdryerthe_'
'hairdryer'
'haggis_'
'hade_'
'gutting_'
'gust_'
'gushing_'
'gun_'
'gula'
'gul'
'guis'
'guilty_'
'guildford_'
'guidance_'
'guesthouses_'
'guest'
'guard'
'grow_'
'grow'
'group'
'grounds'
'groundfloor_'
'groove'
'gritty_'
'grips_'
'grim'
'grille_'
'grew_'
'greatthis_'
'greate'
'greata'
'graze_'
'gray'
'grave'
'grates_'
'graphic_'
'grapefruit_'
'grandness_'
'gp'
'goth'
'gos'
'gorgous_'
'goodwill_'
'goodw'
'goodt'
'goodso_'
'goodp'
'goodni'
'goodhotel_'
'goodc'
'gonal_'
'golfing_'
'godsend_'
'gob'
'goa'
'gned_'
'gna'
'gn'
'glove_'
'globes_'
'gli'
'glas_'
'glaciers_'
'girders_'
'gir'
'gingerbread_'
'gilt_'
'gical'
'ghe'
'german'
'generating_'
'generally'
'gei'
'gay_'
'gauge_'
'gateshead_'
'gardens'
'garde'
'galaxy_'
'gage'
'gaffer_'
'fw'
'fuss'
'furt'
'furnitureour_'
'furniturea'
'furnis'
'furni'
'furnature_'
'furbish'
'funishings_'
'functionalbut_'
'fullthe_'
'fulfil'
'fs'
'fronting_'
'fron_'
'fromthe_'
'friends'
'freshthe_'
'freshner_'
'fresco_'
'freaked_'
'frat_'
'francs_'
'frai'
'fourt'
'foss'
'forwards_'
'forw'
'fortnight_'
'forming_'
'formation_'
'forma'
'fork_'
'forg'
'foreigners_'
'foreboding_'
'forb'
'fora'
'footstep_'
'footer_'
'foodi'
'foo'
'fond'
'foi'
'focussed_'
'foc'
'foam'
'flusher_'
'flu_'
'flr_'
'flor_'
'floorsthe_'
'floorba'
'flock'
'flo'
'flipping_'
'fli'
'fleet'
'flee'
'flavours_'
'flapp'
'flanked_'
'fizz'
'fixed'
'fishbowl_'
'finish'
'fingerprints_'
'fineour_'
'fineit_'
'fineand_'
'findthe_'
'financ'
'final'
'filtering_'
'film'
'fier'
'fie'
'fetch'
'fel'
'feet'
'fawlty_'
'favor'
'fault'
'fastened_'
'fashionedthe_'
'fashion'
'fasci'
'farther_'
'farc'
'fanthe_'
'fanstastic_'
'fanat'
'fairways_'
'faily_'
'facti'
'facilitates_'
'facebook_'
'fa_'
'extremley_'
'extreme'
'extreemly_'
'extr'
'expressthe_'
'explo'
'expired_'
'expensivethe_'
'expen'
'expedi'
'expand_'
'exits_'
'exhibit_'
'exercised_'
'execuplus_'
'excutive_'
'exclusively_'
'excite'
'excellentwe_'
'exam'
'exaggerated_'
'ew'
'eves_'
'everyw'
'everytimethe_'
'evert'
'euston_'
'eurost'
'europ'
'euro'
'ety_'
'eton_'
'eto'
'ethi'
'eternity_'
'esses_'
'esse'
'espite_'
'ese'
'eroom_'
'erne'
'erie_'
'erg'
'eq'
'eping_'
'envisioned_'
'entirety_'
'enormous'
'enlarge'
'enh'
'engage_'
'endo'
'encroach'
'encouraging_'
'encore_'
'empor'
'emits_'
'emit_'
'emery_'
'emel'
'eme'
'embarrassed_'
'embar'
'ema_'
'elt'
'ell'
'elk_'
'elev'
'electro'
'elaborately_'
'ej'
'eight'
'eigh_'
'eh'
'efin'
'eeting_'
'eeping_'
'eenth_'
'edthis_'
'edour_'
'edition_'
'edin'
'edging_'
'eda_'
'ected_'
'economi'
'ecl'
'echo'
'ech'
'eatery_'
'eaters_'
'eat'
'easy'
'east'
'easi'
'earl'
'ean'
'dyson_'
'dyna'
'dwell_'
'dwarfs_'
'dwa'
'duster_'
'dusk_'
'dropp'
'drizzle_'
'drinks'
'drink'
'drift'
'dressings_'
'dreamer_'
'dreading_'
'drawings_'
'draw'
'drag'
'drab'
'downward_'
'downstairs'
'downlight'
'downb'
'dow_'
'doubles'
'dora'
'doorso_'
'doori_'
'dominate_'
'dolphins_'
'doll_'
'doll'
'dodge_'
'docklands_'
'dling_'
'dled_'
'dle_'
'diving_'
'distract'
'distin'
'distances_'
'disse'
'dissatisf'
'dispose'
'displaying_'
'dispensed_'
'dismissed_'
'disi'
'dishwasher'
'dish'
'discussing_'
'discou'
'disconnect_'
'disconnect'
'discernible_'
'discard'
'disapp'
'disable_'
'directtv_'
'directional_'
'direct'
'dinghy_'
'dinette_'
'dimmers_'
'diming_'
'dime'
'digs_'
'digit'
'differs_'
'diet'
'dic'
'diat'
'dhow'
'developing_'
'detriment_'
'detracts_'
'determine_'
'dest'
'desires_'
'designbut_'
'deri'
'depressi'
'depreciated_'
'depi'
'departure'
'denny_'
'demands_'
'dema'
'defo_'
'definitley_'
'defini'
'defin'
'deff'
'defense_'
'decour_'
'decorators_'
'decoration'
'declining_'
'deceived_'
'debate_'
'debatable_'
'deare'
'dbb_'
'dazzling_'
'datedand_'
'data'
'darwin_'
'dang'
'dampe'
'dam'
'dale_'
'dab_'
'cycl'
'cuz_'
'cute'
'cushion'
'curled_'
'cue'
'cucumber_'
'cubicle'
'cubi'
'cts_'
'cting_'
'crumble_'
'crucially_'
'crown'
'critt'
'crisply_'
'crisp'
'cribs_'
'creativity_'
'crea'
'craziness_'
'coy'
'coverlet_'
'cout'
'couple'
'coup'
'cotai_'
'cost'
'corus_'
'corte'
'corrugated_'
'corridorthe_'
'corresponding'
'correcting_'
'corat'
'cor_'
'copi'
'coordinated_'
'cooperat'
'coolrooms_'
'coolers_'
'convi'
'convey_'
'convers'
'convention'
'convent_'
'contribute_'
'contrasts_'
'continent_'
'conte'
'contain'
'consumables_'
'constraints_'
'constrained_'
'constitute'
'conserve_'
'conservatively_'
'conse'
'conm'
'congratulated_'
'congr'
'congealed_'
'confirm'
'condtion'
'condominium_'
'condom'
'conditioningw'
'concorde_'
'concluded_'
'concierge'
'conc'
'comy_'
'computeri'
'composite_'
'comply_'
'completly_'
'completion_'
'completes_'
'complaintsthe_'
'compensates_'
'comparably_'
'comof'
'communicate_'
'commit'
'commend_'
'comfyt'
'comfyn'
'comfyc'
'comfybathroom_'
'comfya'
'comftable_'
'comfortablewhen_'
'comfortableon_'
'comfortablene'
'comfortablem'
'comfortablelovely_'
'comfortablein_'
'comfortableh'
'comfortablegood_'
'comfortableg'
'comfortableeverything_'
'comfortableall_'
'comfortab'
'comforta'
'comfi'
'comfartable_'
'come'
'coma'
'colon'
'coli'
'colds'
'coil_'
'coffeemakers_'
'coffeemak'
'coffe'
'cody_'
'codes_'
'cock'
'coaching_'
'clunk'
'clueless_'
'clouded_'
'closers_'
'clippings_'
'clinic_'
'cling_'
'cles_'
'clerks_'
'clear'
'cleanthis_'
'cleanser'
'cleanhowever_'
'cleanh'
'cleand'
'cleanbed_'
'cleanal'
'clattering_'
'classic'
'classi'
'clash_'
'clank'
'clam'
'claen_'
'cl'
'citrus_'
'circles_'
'cip'
'cif'
'cia'
'chulan_'
'chronic'
'chr'
'chooses_'
'chol'
'chippe'
'chip'
'chimney_'
'chil'
'chel'
'cheers_'
'cheer'
'cheeky_'
'chee'
'cheapish_'
'chau'
'chatter_'
'chased_'
'charge'
'charcoal_'
'character'
'changeable_'
'chancellor_'
'chamber'
'chal'
'chairsthe_'
'cethe_'
'certifi'
'cert'
'cents_'
'centre'
'centered_'
'cent'
'cellphone_'
'celebrity_'
'celcius_'
'cca'
'cc_'
'cavi'
'cau'
'cathay_'
'cath'
'cata'
'castle'
'casse'
'casin'
'cases'
'cascade_'
'cas'
'carriage'
'carr'
'carpets'
'carolina_'
'carnival_'
'carlo_'
'cappuccinos_'
'capabilities_'
'canceled_'
'cameron_'
'cam_'
'calientes_'
'cage'
'cable'
'cabin'
'bw'
'butwi'
'butwhen_'
'butquite_'
'butp'
'butm'
'butfo'
'butfirst_'
'butbeds_'
'butbathrooms_'
'butbath_'
'butb'
'businesslike_'
'burl'
'bunge'
'bundle_'
'bull_'
'bull'
'bulding_'
'bucharest_'
'bubbled_'
'bsolutely_'
'bryce_'
'brook'
'broc'
'broad'
'brightened_'
'brig'
'bria'
'brewed_'
'breast_'
'breakfastst'
'breakfastp'
'breakfasto'
'breakfastmy_'
'breakfasted_'
'breakfastc'
'breakfastbed'
'breakfas'
'breaka'
'brave_'
'branch_'
'brake'
'brain'
'boxe'
'bourbon_'
'bour'
'bouquet_'
'bounc'
'boudoir_'
'bora_'
'booking'
'bomb'
'boardthe_'
'blow'
'blot'
'bloomsbury_'
'bloke_'
'block'
'blob_'
'blem'
'bleached_'
'blasts_'
'blast'
'blankets'
'blanked_'
'blandness_'
'bits'
'bistro'
'bis'
'bin'
'biggest'
'betterour_'
'betray'
'beth'
'bestroom_'
'berry_'
'ber_'
'belvedere_'
'belt'
'bellow_'
'bellevue_'
'bedthe'
'bedstead_'
'bedso'
'bedse'
'bedroon_'
'bedroomo'
'bedoverall_'
'bedon'
'bednice_'
'bedh'
'bedd'
'bec'
'beaded_'
'bead'
'beachthe_'
'beachside_'
'bbl'
'bayside_'
'bathtowels_'
'batht'
'bathroomt'
'bathroomst'
'bathroomsi'
'bathroomsbut_'
'bathroomhotel_'
'bathroomco'
'bathromm_'
'bathro'
'bathe'
'bathand_'
'basics'
'basel_'
'barri'
'barre'
'barrack_'
'baron'
'barley_'
'barked_'
'bark_'
'banqueting_'
'banner_'
'banned_'
'bangalore_'
'banff_'
'band'
'bamb'
'bally'
'ball'
'balconyi'
'bake_'
'bak'
'bail'
'bahn_'
'badroom_'
'badi_'
'awkward'
'awash_'
'awarded_'
'avo'
'aving_'
'avid_'
'avery_'
'aver'
'ave'
'avaliable_'
'availble_'
'avaia'
'autos'
'auth'
'austr'
'auro'
'aur'
'aug'
'aud'
'attribute_'
'attitude'
'attentions_'
'attenti'
'ator'
'atm_'
'athen'
'athe'
'ath'
'ated'
'assembly_'
'asse'
'aspir'
'asp'
'asia'
'ashtrays_'
'asce'
'artists_'
'artful_'
'artefacts_'
'arose_'
'aro'
'arn'
'armpit'
'arise_'
'ariane_'
'ari_'
'argument'
'arg'
'aret'
'arearooms_'
'archi'
'arab'
'apts_'
'apro'
'apps_'
'appreciate'
'appointedwe_'
'appointedit_'
'appealed_'
'appe'
'appart'
'appallingly_'
'appa'
'apartments'
'apar'
'apal'
'anyway'
'anyw'
'antly_'
'antiseptic_'
'answer'
'annoying'
'announced_'
'ankles_'
'animation_'
'ani_'
'angels_'
'andy_'
'andwhilst_'
'andsu'
'andother_'
'andno'
'andmodern_'
'andlobby_'
'andlo'
'andho'
'andhe'
'andfr'
'anderson_'
'anden'
'andcomfy_'
'andcomfortable_'
'andclean_'
'andboth_'
'andar'
'amuse_'
'amus'
'amt'
'amp'
'amne'
'amigo_'
'amid_'
'ameri'
'amble_'
'ambien'
'amazingwe_'
'amazingroom'
'alway_'
'alve'
'aluminum_'
'alton_'
'alternated_'
'altered_'
'als'
'alright'
'alp'
'allt'
'allocating_'
'allit_'
'aller'
'allb'
'albiet_'
'alb'
'alarmingly_'
'aj'
'aisle_'
'airthe_'
'airt'
'airo'
'airing_'
'airier_'
'aire'
'airconthe_'
'airc'
'airb'
'ains_'
'ail'
'aho'
'aha'
'agothe_'
'ages'
'againo'
'affiliated_'
'affi'
'aff_'
'aer'
'advis'
'adve'
'advance'
'adn_'
'admired_'
'admin'
'adm'
'adjust'
'adequatew'
'adeqa'
'addition'
'acu'
'actor'
'action'
'acr'
'acom'
'aco'
'acl'
'acknowledging_'
'achi'
'ach'
'accounted_'
'accomplish_'
'accomodates_'
'accomidati'
'acco'
'acces'
'accept'
'abut_'
'abuse_'
'abnormal'
'ablutions_'
'abed_'
'aar'
'aaa'
'^'
'] _'
'\u '
'\\ _'
'? ) _'
': - _'
'97'
'96_'
'96'
'930'
'830'
'811_'
'810_'
'81'
'809_'
'78'
'710_'
'703_'
'702_'
'6p'
'626_'
'623_'
'613_'
'55th_'
'536_'
'535_'
'522_'
'518_'
'513_'
'4i'
'49'
'470_'
'47'
'45th_'
'45mins_'
'442_'
'440_'
'435_'
'432_'
'423_'
'40pm_'
'380_'
'343_'
'330'
'320'
'313_'
'30am'
'3000_'
'2t'
'2n'
'2c'
'290'
'281'
'26c_'
'269_'
'265_'
'259_'
'258_'
'254_'
'252_'
'24hr_'
'24c_'
'234_'
'227_'
'207'
'2002_'
'2000s_'
'1the_'
'1998_'
'1987_'
'198'
'1975_'
'1940_'
'1914_'
'1905_'
'1904_'
'19'
'188'
'183'
'181'
'169_'
'162_'
'162'
'155_'
'153_'
'152'
'1407_'
'132_'
'123_'
'1100_'
'10mins_'
'104'
'1005_'
'1001_'
'0pm_'
'0700_'
'05'
'04'
'02'
'./_'
'- ( _'
'+/_'
'+++ '
'++'
'* , _'
'* * '
'*'
''-_'
'!!!.'
'!!!!_'
'! )_'
'! ! !_'
' ” ) _'
' ” ) '
' ’ '
' ° '
' ~$_'
' ? ._'
' ? ! ?_'
' ? ! ? '
' > '
' ;-) _'
' ; " _'
' :-) ._'
' :-(_'
' :-( _'
' :( ._'
' : -- _'
' /'
' .— _'
' ......'
' ..... '
' .....'
' .... ) _'
' ...- _'
' ...( _'
' .., _'
' .. ?'
' .. )_'
' .. ) ._'
' ." '
' - ' _'
' , .'
' ) .-_'
' ) .* _'
' ) ) '
' ( ? ) , _'
' ( ? '
' ( -'
' " ? ) '
' !..'
' !-_'
' !" _'
' ! ...._'
' ! ! ! ) _'
' ! ! ! ) ._'
' ! ! ! ! ! ! !_'
'” '
'”'
'ı_'
'· _'
'|_'
'zzl'
'zza'
'zipp'
'zio'
'zie'
'zet'
'yy'
'yukata'
'yu_'
'yso'
'yre'
'ypres_'
'yor'
'ying'
'yielded_'
'yfish_'
'yetthe_'
'yer_'
'yer'
'yearsthe_'
'yearly_'
'yde'
'yd'
'yc'
'ybe_'
'yang'
'yama_'
'yal'
'xx'
'xu'
'xt'
'xp'
'xo'
'xl_'
'xit'
'xintiandi_'
'xing_'
'xie'
'xbox_'
'wwii_'
'wro'
'wrestling_'
'wraps_'
'wrappers_'
'wra'
'woul'
'woudl_'
'worst'
'workthis_'
'workshop_'
'workouts_'
'workm'
'workingroom_'
'workingb'
'workedb'
'workde'
'workbut_'
'workand_'
'word'
'woodlands_'
'wondeful_'
'won'
'wobble_'
'wll_'
'wl'
'wiz'
'withour_'
'withi'
'withh'
'wisethe_'
'wiseb'
'wireless'
'wir'
'wintert'
'winner'
'winn'
'windowsso_'
'windowsi'
'windowa'
'wind'
'wilt'
'wilson_'
'wilmington_'
'wiht_'
'wides'
'whomever_'
'whitewashed_'
'whispering_'
'whiskies_'
'whirring_'
'whining_'
'whin'
'whihc_'
'when'
'whatsoeverthe_'
'what'
'wha'
'wew'
'wetting_'
'wett'
'westward_'
'weston_'
'westfield_'
'wen'
'wels'
'wellthis_'
'wellmy_'
'welll_'
'wellg'
'welle'
'weighing_'
'weel_'
'website'
'weathers'
'wears_'
'weaker_'
'wd_'
'waterways_'
'waterslide_'
'watermark_'
'waterbu'
'wasth'
'wass_'
'wasrooms_'
'wasp_'
'wasi_'
'washin'
'wasgreat_'
'warrants_'
'warranted_'
'warmthis_'
'warmi_'
'ware'
'wards_'
'wardro'
'wannabe_'
'wanchai_'
'wals'
'wallw'
'wallsthe_'
'wallow'
'wales_'
'waken_'
'waitstaff_'
'wailing_'
'wagga_'
'waaa'
'vw'
'voy'
'vouch_'
'vl'
'vita'
'visual'
'vist'
'visions_'
'virginia_'
'vir'
'viole'
'vings'
'vil'
'viewm'
'viewl'
'viewa_'
'vie'
'victorian'
'vic_'
'vibra'
'viaduct_'
'vga'
'veyr_'
'vew'
'vest'
'verve_'
'verr'
'verna'
'verizon_'
'verage_'
'vera_'
'vented_'
'vendo'
'velo'
'vea'
'variab'
'valid_'
'vali'
'valets_'
'valet'
'valencia_'
'valances_'
'vag'
'vac_'
'uzzi_'
'uz'
'uve'
'uts'
'ution'
'utili'
'uth'
'uta_'
'usw'
'usu'
'usmy_'
'ush'
'useless'
'useful'
'usbut_'
'urt'
'urse'
'urnishings_'
'urn'
'urinal_'
'urge_'
'urge'
'urban'
'urat'
'upset'
'upscaled_'
'upr'
'upm'
'uploading_'
'upl'
'upkept_'
'upho'
'uphill_'
'uperior_'
'updatethe_'
'updated'
'upcoming_'
'unyielding_'
'unwor'
'unwilling_'
'unwi'
'unwanted_'
'unuse'
'untill_'
'unsupervised_'
'unstylish_'
'unrestricted_'
'unres'
'unref'
'unreasonably_'
'unraveling_'
'unnerving_'
'unloading_'
'unli'
'unl'
'universe_'
'univers'
'uniqueness_'
'unint'
'uninhabitable_'
'uniformity_'
'unga'
'unforgiving_'
'unexp'
'unen'
'undistinguished_'
'underw'
'undertak'
'underlit_'
'underlay_'
'underfurnished_'
'underfoot_'
'unctio'
'uncontroll'
'uncleaned_'
'uncertain_'
'unbeliev'
'unbel'
'unat'
'unappe'
'umpteen'
'umin'
'ume'
'umber'
'umb'
'umati'
'ular_'
'ula'
'uil'
'uh_'
'ugliest_'
'uffe'
'uf'
'udes_'
'ude'
'uct'
'uci'
'uces'
'uce'
'ublic_'
'uary'
'ual'
'ua_'
'tythe_'
'tyrolean_'
'twisted_'
'tweak'
'tw'
'tvwe_'
'tvw'
'tvso'
'tvo'
'tva'
'tus_'
'tus'
'turnoff_'
'tures_'
'tulip_'
'tukuls_'
'tui'
'tube'
'tu_'
'tting'
'tsthe_'
'tst_'
'tsi'
'trusted_'
'trus'
'trousers_'
'troubling_'
'troubled_'
'tropics_'
'triple'
'trimming_'
'trimmed_'
'trident_'
'trickling_'
'trickles_'
'tria'
'trepidation_'
'tren'
'treble_'
'treasure_'
'travellodge_'
'trave'
'trash'
'traps_'
'transport'
'transmitted_'
'transmission_'
'translate'
'tran'
'tramping_'
'trailing_'
'trai'
'tragic_'
'traf'
'tradeoff'
'tract'
'track'
'toweling_'
'tover'
'tout_'
'tourist'
'tought'
'touchs'
'tot_'
'tors'
'torre'
'tori'
'tore_'
'tore'
'torch'
'tor'
'topping_'
'topper'
'topi'
'toothp'
'tooo'
'tong'
'toleran'
'tokyo'
'tok'
'toiletw'
'toiletir'
'toileti'
'toilete'
'toil'
'toffee_'
'toasters_'
'toasted_'
'toa'
'tne'
'tley_'
'tla'
'tl_'
'tively_'
'tis_'
'tiredit_'
'tire_'
'tippe'
'tipical_'
'tint'
'tinge_'
'timer'
'timeit_'
'timed_'
'tif'
'tidi'
'tid'
'ticking_'
'tically_'
'tial_'
'thurs_'
'thu'
'tht'
'throb'
'thrilling_'
'thrift_'
'three'
'threads_'
'thre'
'thoroughfare_'
'thorough'
'thor'
'thisi_'
'thir'
'thino'
'thinit_'
'thingy_'
'thinbut_'
'thinb'
'thigh'
'thh'
'they'
'thew_'
'these'
'thermostat'
'thermals_'
'therma'
'therethe'
'thererooms_'
'thereroom_'
'thereour_'
'thereof_'
'therebe'
'thems'
'themour_'
'themi_'
'themi'
'themb'
'theh'
'thebed_'
'thay_'
'thatwe_'
'thatrooms_'
'thati'
'thanked_'
'thani'
'testament_'
'terri'
'terre'
'terra'
'terr'
'termini_'
'terminal'
'termin'
'teric'
'tered_'
'tent'
'tensi'
'tenne'
'tenant'
'tempur_'
'temptation_'
'tempr'
'temperaturethe_'
'temperatureroom'
'temperate_'
'tem'
'televisionthe_'
'telescope_'
'telephoned_'
'tel'
'teensy_'
'tedious_'
'tect'
'technolog'
'tear'
'teal_'
'tched_'
'tc_'
'tc'
'tatty'
'tattiness_'
'tatti'
'tasti'
'tasteful'
'tasks_'
'tartar'
'tape'
'tantly_'
'tangled_'
'tand'
'tamper'
'tali'
'tale'
'talbott_'
'taine'
'tails_'
'tail'
'tai_'
'tahiti_'
'tage'
'tacti'
'tacki'
'tableware_'
'tablesthe_'
'tablecloths_'
'taba'
'systemth'
'syl'
'swivel'
'switch'
'swir'
'swipe'
'swimmers_'
'swic'
'sweete'
'sweater_'
'sweated_'
'suv'
'sutt'
'sut'
'suspects_'
'surprisethe_'
'surpass'
'surg'
'surethe_'
'suprising_'
'supp'
'supersoft_'
'superl'
'superf'
'superco'
'sunt'
'sumptous_'
'sukh'
'suk'
'suiting_'
'suitei_'
'suitcases'
'sui'
'suffocate_'
'suffocat'
'sue_'
'such'
'succes'
'succeeds_'
'subzero_'
'suburb'
'subscri'
'subs'
'styling'
'stunning'
'stumble_'
'studi'
'stud'
'stub'
'strolling_'
'strolle'
'strives_'
'string'
'stride'
'streetside_'
'strec'
'strate'
'stras'
'strangethe_'
'stranger_'
'strain'
'straightening_'
'stovepipe_'
'storied_'
'stor'
'stoke'
'stipple'
'sting'
'sterling_'
'steri'
'stephen'
'stem'
'stein_'
'steer'
'steep'
'sted_'
'steams_'
'stea'
'stayw'
'staysthe_'
'stayi'
'stayho'
'staybed'
'stave'
'starred_'
'stark'
'starbu'
'standardo'
'standardand_'
'stamp'
'stall'
'stalk'
'stalinist_'
'stairsthe_'
'staines_'
'stags_'
'staggeringly_'
'staggered_'
'stages_'
'stag'
'staffour_'
'staffit_'
'staffi'
'staffe'
'staf_'
'stadt'
'stac'
'ssta'
'squidgy_'
'sque'
'squat_'
'squared_'
'squal'
'sqft_'
'sqa'
'sq'
'sprout'
'sprinkle'
'spread'
'sporadically_'
'spon'
'split'
'sple'
'splattered_'
'splatter'
'splash'
'spinner_'
'spillage'
'spiffed_'
'spie'
'spici'
'spelt_'
'speck'
'specialties_'
'speciall'
'specialit'
'speci'
'spec'
'speakman_'
'speaci'
'spars'
'spark'
'sparely_'
'sparcely_'
'spai'
'spad'
'spaciousour_'
'spaciousbe'
'spacewe_'
'spaceth'
'spaceship_'
'spaceious_'
'spacei'
'spacebut_'
'spacebe'
'sow'
'southport_'
'southampton_'
'sounds'
'souk'
'sought_'
'soroom'
'sor'
'sophia_'
'sooooooo_'
'sona'
'somthing_'
'solicitous_'
'soil'
'softly_'
'softened_'
'sockets'
'soc'
'sobe'
'soaks_'
'soak'
'snuggle_'
'snugg'
'snore'
'snagged_'
'snacking_'
'smudge'
'smoothie_'
'smokingbut_'
'smith_'
'smartphones_'
'smallwh'
'smallwa'
'smallth'
'smalloverall_'
'smalln'
'smallh'
'smallestthe_'
'smallbathroom_'
'smallas_'
'sm'
'slove'
'slotted_'
'slopping_'
'sloe_'
'slip'
'sliders_'
'slick'
'sley'
'sleeve'
'sleepy_'
'sleeprooms_'
'sleepo'
'sleepingthe_'
'sleeperthe_'
'sleek'
'slacks_'
'slack_'
'skysports_'
'skylounge_'
'skyl'
'skycity_'
'skirts_'
'skillful'
'skies_'
'ske'
'sizewe_'
'sizevery_'
'sizethis_'
'sizethere_'
'sizedb'
'sizeco'
'sizeb'
'siz'
'sixteen'
'sixt'
'sity_'
'sitt'
'sirloin_'
'sinus'
'sinki'
'single'
'singers_'
'simulated_'
'simmons_'
'silent'
'sil'
'signposted_'
'signat'
'sighted_'
'sight'
'sider'
'sideo'
'sideb'
'sid'
'sickening_'
'sically_'
'sibl'
'sia'
'shuffle_'
'shrug'
'shrink_'
'shriek'
'showersta'
'showeroverall_'
'showerno'
'showermy_'
'showerho'
'showergr'
'showerbed'
'should'
'shots_'
'shorti'
'shortfalls_'
'shore'
'shopp'
'shoots_'
'shooting_'
'shoes'
'shoehorned_'
'shippe'
'shined_'
'shes_'
'sheratonthe_'
'sheraton'
'sheep_'
'shattered_'
'sharpe'
'share'
'shangr'
'shang'
'shallow'
'shag_'
'shadows_'
'shade'
'shabbybut_'
'shab'
'sgo'
'sful'
'sey'
'sewers_'
'seward_'
'severly_'
'setth'
'setback'
'servicew'
'servicest'
'serviceit_'
'servicef'
'served'
'seperat'
'sensory_'
'sensibilit'
'sens'
'semin'
'selves_'
'sels'
'sel_'
'sedate_'
'seda'
'secur'
'seaviews_'
'seas'
'sear'
'seagull_'
'sdo'
'scrunch'
'scrum_'
'scrubb'
'screens'
'scraps_'
'scrap_'
'scoote'
'scoop'
'scone'
'schedules_'
'scha'
'scarred_'
'scare_'
'scape'
'scandi_'
'scanda'
'scan_'
'scam'
'scald_'
'sca'
'sbe'
'sbathroom_'
'savoury_'
'saucepan_'
'sauc'
'satiny_'
'satin_'
'sas'
'sare'
'sanita'
'sani'
'sangria_'
'sandal'
'samudra_'
'sampling_'
'samll_'
'sama_'
'saltwater_'
'sain'
'sail'
'sahara_'
'sag'
'saddle'
'sacre'
'sac'
'sable_'
'rything_'
'rustica'
'rustic'
'rust'
'rupees_'
'runn'
'rumpled_'
'rumor'
'rumbled_'
'rumble_'
'rucked_'
'ruapehu_'
'rty_'
'rto'
'rting_'
'rth'
'rted_'
'rso'
'rsi'
'rry'
'rrr'
'rrom_'
'rrived_'
'rpris'
'rov'
'route'
'rous_'
'roughe'
'rough'
'rotterdam_'
'rothe'
'rotate_'
'rosebank_'
'roomythe_'
'roomwell_'
'roomv'
'roomswe'
'roomsthe'
'roomstayed_'
'roomsm'
'roomsl'
'roomsif_'
'roomshotel_'
'roomsf'
'roomsc'
'roomsbed'
'roomnot_'
'roomn'
'roomma'
'roomlovely_'
'roomloved_'
'roomlo'
'rooml'
'roomhowever_'
'roomfor_'
'roomfi'
'roome_'
'roomclean_'
'roomalso_'
'roomafter_'
'romantic'
'rol'
'roi'
'rocco_'
'robo'
'robbery_'
'roared_'
'roanoke_'
'roaming_'
'roadworks_'
'rk'
'riverfront_'
'rivaled_'
'ritz'
'rity_'
'rised_'
'riot_'
'riot'
'rins'
'rink'
'ril'
'rigor'
'ries'
'rie_'
'rider'
'rico'
'rick'
'ribs'
'riat'
'rga'
'rey_'
'rey'
'revo'
'reviv'
'revitali'
'revisit'
'revelers_'
'reve'
'rev'
'returns_'
'retreated_'
'retirement_'
'reth'
'reta'
'resurfac'
'restyled_'
'restricting_'
'restoring_'
'resto'
'resti'
'restaru'
'restaraunts_'
'ressi'
'responsi'
'responding_'
'respected_'
'resource'
'resorto'
'resona'
'resin_'
'reset'
'resent'
'resc'
'requested'
'repurposed_'
'repro'
'replicate_'
'replica_'
'reo'
'renovationsthe_'
'reno'
'remi'
'remembers_'
'remedy_'
'remedia'
'reme'
'relying_'
'relocat'
'relieve'
'relies_'
'relied_'
'relic'
'relented_'
'releas'
'relaxa'
'reiterate_'
'reinvest'
'regrou'
'refusing_'
'refurbis'
'refurbing_'
'refur'
'refund'
'refreshe'
'refle'
'refinements_'
'referring_'
'references_'
'referen'
'refer'
'rees_'
'redemption_'
'redeem_'
'rect_'
'recover'
'recomme'
'recomend'
'recogni'
'reclaim'
'recirculat'
'reci'
'recharge'
'receptionrooms_'
'receptiona'
'reccommend_'
'reccomend_'
'recalls_'
'rebranding_'
'reboot'
'rebook_'
'reat'
'reassuringly_'
'reassuring_'
'reassured_'
'reass'
'reaso'
'reas'
'rear'
[...]
