'<pad>'
'<EOS>'
'<GO>'
'<OOV>'
'<DOC>'
'</DOC>'
'the_'
' ._'
'and_'
' , _'
'a_'
'was_'
'to_'
'is_'
'in_'
'of_'
'very_'
'hotel_'
'we_'
'it_'
'for_'
'i_'
'room_'
'with_'
'good_'
'this_'
'but_'
'were_'
'are_'
'staff_'
'on_'
'at_'
'you_'
'not_'
' - _'
'great_'
'breakfast_'
'nice_'
'from_'
'clean_'
'had_'
'as_'
'that_'
'there_'
'stay_'
'rooms_'
'our_'
'all_'
'have_'
'friendly_'
'comfortable_'
's_'
'would_'
'well_'
'location_'
'be_'
' '_'
'area_'
'which_'
'so_'
'an_'
' ( _'
't_'
'my_'
'here_'
'they_'
'n_'
'service_'
'if_'
'one_'
''_'
' !_'
'food_'
'helpful_'
'excellent_'
'out_'
'just_'
'stayed_'
'again_'
'place_'
'bed_'
'night_'
'also_'
'no_'
'by_'
'restaurant_'
'only_'
'walk_'
'really_'
'large_'
'or_'
'has_'
'did_'
'pool_'
'small_'
' . _'
'bathroom_'
'us_'
'when_'
'_'
'restaurants_'
'will_'
'about_'
'close_'
'free_'
'get_'
'up_'
'quiet_'
'front_'
'some_'
'can_'
'do_'
'bar_'
'could_'
'desk_'
'time_'
'parking_'
' ) _'
'spacious_'
'lovely_'
'other_'
'check_'
'view_'
'back_'
'like_'
'more_'
'next_'
'little_'
'located_'
'right_'
'airport_'
' / _'
'easy_'
'than_'
'best_'
'town_'
'too_'
'quite_'
'day_'
'everything_'
'bit_'
'two_'
'city_'
'around_'
'shower_'
'beds_'
'what_'
'recommend_'
'your_'
' " _'
'floor_'
'much_'
'me_'
'even_'
'walking_'
'modern_'
'been_'
'away_'
'2_'
' & _'
'many_'
'definitely_'
'reception_'
'property_'
'most_'
'go_'
'off_'
'beautiful_'
'after_'
'street_'
'old_'
'price_'
'new_'
'over_'
' ) ._'
'minutes_'
'way_'
'inn_'
'pleasant_'
'lobby_'
'always_'
'5_'
'its_'
'their_'
' ' _'
'hotels_'
'first_'
'hot_'
'park_'
'overall_'
'main_'
'need_'
'big_'
'nights_'
'wonderful_'
'business_'
'better_'
'beach_'
'outside_'
'dinner_'
'near_'
'car_'
'distance_'
'perfect_'
'quality_'
'few_'
'choice_'
'coffee_'
'plenty_'
'buffet_'
'size_'
'however_'
'station_'
'value_'
'although_'
'made_'
'road_'
'morning_'
'visit_'
'within_'
'though_'
'where_'
'convenient_'
'water_'
'fine_'
'down_'
'found_'
'find_'
'who_'
'into_'
'wifi_'
'lot_'
'enough_'
'lots_'
'door_'
'ok_'
'views_'
'both_'
'being_'
'short_'
'because_'
'noise_'
'people_'
'10_'
' : _'
'experience_'
'3_'
'any_'
'across_'
'while_'
'trip_'
'make_'
'enjoyed_'
'shopping_'
'side_'
'got_'
'every_'
'pretty_'
'efficient_'
'see_'
'nearby_'
'want_'
'use_'
' ; _'
'standard_'
'evening_'
'nothing_'
'return_'
'd_'
'fantastic_'
'center_'
'centre_'
'extremely_'
'shuttle_'
'amazing_'
'staying_'
'tv_'
'etc_'
'._'
'drive_'
'decent_'
'top_'
'suite_'
'before_'
'downtown_'
'access_'
'high_'
'building_'
'far_'
'long_'
'huge_'
'still_'
' ... _'
'minute_'
'full_'
'take_'
'during_'
'available_'
'facilities_'
'feel_'
'4_'
'then_'
'sleep_'
'fresh_'
'places_'
'eat_'
'especially_'
'work_'
'looking_'
'busy_'
'am_'
'reasonable_'
'warm_'
'amenities_'
'1_'
'them_'
'worth_'
'dining_'
'happy_'
'through_'
'part_'
'included_'
'booked_'
'average_'
'expensive_'
'appointed_'
'needed_'
'comfy_'
'went_'
'resort_'
'sure_'
'family_'
'areas_'
'going_'
'local_'
'early_'
'selection_'
'welcome_'
'itself_'
'super_'
'several_'
'quick_'
'another_'
'arrived_'
'space_'
'welcoming_'
'lounge_'
'times_'
'special_'
'guests_'
'highly_'
'looked_'
'central_'
'options_'
'say_'
'train_'
'look_'
'does_'
'bedroom_'
'took_'
'bus_'
'river_'
'internet_'
'come_'
'air_'
'money_'
'rate_'
'days_'
'bath_'
'balcony_'
'adequate_'
'each_'
' $ _'
'he_'
'having_'
'open_'
'shops_'
' ) , _'
'couple_'
'think_'
'-_'
'basic_'
'maintained_'
'needs_'
'spa_'
'loved_'
'used_'
'same_'
'cold_'
'stop_'
'things_'
'15_'
'plus_'
're_'
'last_'
'hard_'
'meal_'
'seemed_'
've_'
'e_'
'towels_'
'never_'
'bad_'
'expect_'
'including_'
'king_'
'holiday_'
'ever_'
'professional_'
'served_'
'problem_'
'should_'
'nicely_'
' ..._'
'without_'
'such_'
'drinks_'
'star_'
'kept_'
'certainly_'
'end_'
'thing_'
'hampton_'
'provided_'
'attentive_'
'noisy_'
'mall_'
'said_'
'she_'
'decor_'
'given_'
'second_'
'tea_'
', _'
'rather_'
'ca_'
'late_'
'probably_'
'style_'
'm_'
'worked_'
'house_'
'grounds_'
'gym_'
'lake_'
'enjoy_'
'try_'
'fast_'
'how_'
'kitchen_'
'pillows_'
'hour_'
'overlooking_'
'able_'
'help_'
'choices_'
'delicious_'
'menu_'
'less_'
'extra_'
'decorated_'
'taxi_'
'felt_'
'sea_'
'since_'
'three_'
'superb_'
'visiting_'
'20_'
'marriott_'
'equipped_'
'left_'
'tub_'
'offer_'
'safe_'
'love_'
'home_'
'motel_'
'checked_'
'offered_'
'typical_'
'set_'
'fridge_'
'usual_'
'y_'
'along_'
'wine_'
' ’_'
'- _'
' -- _'
'traffic_'
'dated_'
'real_'
'due_'
'bathrooms_'
'garden_'
'different_'
'table_'
'weekend_'
'fairly_'
'everyone_'
'spent_'
'30_'
' ,_'
'priced_'
'above_'
'highway_'
'bars_'
'complimentary_'
'working_'
'year_'
'asked_'
'came_'
'getting_'
'know_'
'eggs_'
'manager_'
'courtyard_'
'situated_'
'arrival_'
'wanted_'
'tour_'
'once_'
'outstanding_'
'poor_'
'done_'
'limited_'
'thought_'
'may_'
'order_'
'absolutely_'
'course_'
'years_'
'light_'
'must_'
'site_'
'variety_'
'kind_'
'gave_'
'sized_'
'lunch_'
'makes_'
'kids_'
'recently_'
'ed_'
'cooked_'
'public_'
'week_'
'window_'
'reasonably_'
'relaxing_'
'something_'
'those_'
'swimming_'
'club_'
'6_'
'drink_'
'polite_'
'making_'
'll_'
'now_'
'prices_'
'ask_'
'inside_'
'double_'
'slow_'
' ! !_'
'ing_'
'own_'
'else_'
'fruit_'
'told_'
'run_'
'suites_'
' ! _'
'o_'
'level_'
'entrance_'
'between_'
'ate_'
'english_'
'hear_'
'hours_'
'give_'
'’_'
'housekeeping_'
'square_'
'separate_'
'recommended_'
'offers_'
'tired_'
'anything_'
'whole_'
'accommodating_'
'furniture_'
'pay_'
'impressed_'
'these_'
'throughout_'
'almost_'
'7_'
'middle_'
'meals_'
'microwave_'
'fabulous_'
'windows_'
'courteous_'
'metro_'
'actually_'
'others_'
'deal_'
'expected_'
'corner_'
'travel_'
'spotless_'
'outdoor_'
'st_'
'looks_'
'/_'
' -_'
'hilton_'
'put_'
'issue_'
'tasty_'
'seems_'
'attractions_'
'number_'
'sitting_'
'atmosphere_'
'either_'
'nt_'
'book_'
'overnight_'
'cheap_'
'liked_'
'spot_'
'guest_'
'fitness_'
'ideal_'
'four_'
'her_'
'person_'
'touch_'
'ride_'
'reviews_'
'paid_'
'items_'
'point_'
'facing_'
'ocean_'
'choose_'
'sit_'
'flight_'
'customer_'
'perfectly_'
'job_'
'cost_'
'fi_'
'keep_'
'wife_'
'wi_'
'start_'
'chose_'
' .. _'
'wait_'
'option_'
'pleased_'
'world_'
'easily_'
'mins_'
'rest_'
'block_'
'particularly_'
'awesome_'
'furnished_'
'otherwise_'
'disappointed_'
'lodge_'
'fun_'
'8_'
'his_'
'pub_'
'b_'
'until_'
'member_'
'south_'
'concierge_'
'per_'
'toilet_'
'called_'
'major_'
'gardens_'
'despite_'
'breakfasts_'
'enjoyable_'
'charge_'
'might_'
'chairs_'
'group_'
'older_'
'coming_'
'setting_'
' ?_'
'premier_'
'eating_'
'pm_'
'anyone_'
'miles_'
'upgraded_'
' £ _'
'care_'
'continental_'
'walked_'
'class_'
'half_'
'dark_'
'fact_'
'blocks_'
'lady_'
'under_'
'updated_'
'interesting_'
'conveniently_'
'min_'
'difficult_'
'cool_'
'comfort_'
'north_'
'facility_'
'private_'
'grand_'
' )_'
'la_'
'bay_'
'ready_'
'thank_'
'except_'
'surprised_'
'leave_'
'friends_'
'five_'
'exceptional_'
'terrace_'
'upon_'
'let_'
'c_'
'least_'
'behind_'
'booking_'
'luggage_'
':_'
'yet_'
'chain_'
'pools_'
'living_'
'wall_'
'elevator_'
'golf_'
'thanks_'
'conference_'
'western_'
'market_'
'mini_'
'seating_'
'anywhere_'
'seem_'
'design_'
'afternoon_'
'team_'
'weather_'
'beautifully_'
'renovated_'
'management_'
'indoor_'
'line_'
'loud_'
'toiletries_'
'stunning_'
'charming_'
' ...._'
'relax_'
'walls_'
'accommodation_'
'apartment_'
'decided_'
'call_'
'standards_'
'functional_'
'flat_'
'shop_'
'greeted_'
'tourist_'
'yes_'
'brand_'
'bright_'
'tiny_'
'maybe_'
'pressure_'
'young_'
'store_'
'quickly_'
'screen_'
'spend_'
'why_'
'island_'
'soft_'
'heart_'
'driving_'
'ground_'
'carpet_'
'issues_'
'simple_'
'whilst_'
'historic_'
'ample_'
'valet_'
'directly_'
'met_'
'london_'
'smell_'
'luxury_'
'range_'
'upgrade_'
' .._'
'mile_'
'unfortunately_'
'interstate_'
'truly_'
'single_'
'everywhere_'
'points_'
'opposite_'
'r_'
'sink_'
'adjacent_'
'( _'
'seen_'
'meeting_'
'glass_'
'plentiful_'
'cleaning_'
'slightly_'
'conditioning_'
'dirty_'
'checking_'
'tried_'
'base_'
'past_'
'generally_'
'handy_'
'break_'
'stocked_'
'change_'
'appreciated_'
'gorgeous_'
'floors_'
'queen_'
'receptionist_'
'low_'
'general_'
'future_'
'west_'
'doors_'
'furnishings_'
'tidy_'
'wedding_'
'presented_'
'9_'
'simply_'
'entire_'
'bedding_'
'machine_'
'provide_'
'sun_'
'type_'
'attention_'
'unit_'
'spectacular_'
'relatively_'
'village_'
'country_'
'reason_'
'traveling_'
'taking_'
'express_'
'pick_'
'luxurious_'
'attractive_'
'husband_'
'bonus_'
'lighting_'
'problems_'
'head_'
'hill_'
'sofa_'
'office_'
'someone_'
'visited_'
'closed_'
'disappointing_'
'spotlessly_'
'somewhat_'
'negative_'
'soon_'
'slept_'
'usually_'
'wish_'
'tables_'
'children_'
'cleaned_'
'non_'
'compared_'
'worn_'
'crowded_'
'rates_'
'saw_'
'es_'
'fault_'
'hall_'
'laundry_'
'wide_'
'chair_'
'name_'
'works_'
'common_'
'casino_'
'beer_'
'centrally_'
'services_'
'received_'
'impressive_'
'watch_'
'cafe_'
'waiting_'
'ac_'
'turn_'
'okay_'
'music_'
'fair_'
'steps_'
'andthe_'
'downside_'
'proximity_'
'surrounding_'
'longer_'
'using_'
'spread_'
'takes_'
'brilliant_'
'00_'
'clerk_'
'pricey_'
'activities_'
'freeway_'
'roof_'
'later_'
'instead_'
'white_'
'patio_'
'surprise_'
'positive_'
'often_'
'peaceful_'
'key_'
'smile_'
'forward_'
'lack_'
' .( _'
'review_'
'designed_'
'refrigerator_'
'condition_'
'snacks_'
'phone_'
'delightful_'
'members_'
'complaint_'
'terrific_'
'taken_'
'request_'
'note_'
'construction_'
'helped_'
'stars_'
'entertainment_'
'cleanliness_'
'previous_'
'self_'
'returned_'
'buildings_'
'hope_'
'round_'
'wrong_'
'50_'
'24_'
'below_'
'l_'
'show_'
'doing_'
'larger_'
'san_'
'trying_'
'considering_'
'100_'
'linens_'
' ! ! !_'
'district_'
'daily_'
'budget_'
'national_'
'prepared_'
'running_'
'beyond_'
'boutique_'
'smaller_'
'sound_'
'bedrooms_'
'executive_'
'apart_'
'dishes_'
'u_'
'properties_'
'important_'
'museum_'
'explore_'
'man_'
'wo_'
'reservation_'
'perhaps_'
'heard_'
'fan_'
'directions_'
'families_'
'trouble_'
'ly_'
'fire_'
'via_'
'ice_'
'bridge_'
'consider_'
'turned_'
'inns_'
'please_'
'mattress_'
' .... _'
'subway_'
'roomy_'
'fully_'
'attached_'
'layout_'
'complaints_'
'returning_'
'charm_'
'acceptable_'
'stores_'
'sites_'
'party_'
'somewhere_'
'summer_'
'expectations_'
'normal_'
'garage_'
'possible_'
'mention_'
'red_'
'added_'
'12_'
'25_'
'plaza_'
'dog_'
'convenience_'
'fare_'
'east_'
'notch_'
'already_'
'driver_'
'sunday_'
'mountains_'
'incredibly_'
'newer_'
'higher_'
'feeling_'
'sights_'
'live_'
'hand_'
'fish_'
'lift_'
'nicer_'
'owners_'
'11_'
'opened_'
'route_'
'unique_'
'onto_'
'channels_'
'twice_'
'offering_'
'exceptionally_'
'moment_'
'bring_'
'downstairs_'
'neighborhood_'
'complex_'
'incredible_'
'totally_'
' ., _'
'beat_'
'transport_'
'third_'
'thin_'
'provides_'
'ago_'
'pleasure_'
'. _'
'unless_'
'en_'
'terminal_'
'sheets_'
'stairs_'
'harbour_'
'immediately_'
'stopped_'
'based_'
'pleasantly_'
'interior_'
'arrive_'
'card_'
'system_'
'cozy_'
'built_'
'refurbished_'
'favorite_'
'minor_'
'jacuzzi_'
'underground_'
'treat_'
'information_'
'castle_'
'avoid_'
'convention_'
'accessible_'
'&_'
'ng_'
'laid_'
'trips_'
'inviting_'
'changed_'
'personal_'
'bags_'
'plan_'
'serve_'
'further_'
'cookies_'
'immaculate_'
'encountered_'
'port_'
'indeed_'
'rooftop_'
'terrible_'
'travelling_'
'gets_'
'managed_'
'tram_'
'tower_'
'complete_'
'temperature_'
'clearly_'
'maker_'
'list_'
'chef_'
'cheaper_'
'g_'
'miss_'
'mind_'
'juice_'
'move_'
'cosy_'
'cruise_'
'er_'
'addition_'
'sleeping_'
'literally_'
'event_'
'overlooked_'
'rating_'
'renovation_'
'stylish_'
'neat_'
'40_'
'outlets_'
'various_'
'elsewhere_'
'regular_'
'bacon_'
'hospitality_'
'palace_'
'case_'
'international_'
'art_'
'particular_'
'completely_'
'green_'
'elevators_'
'de_'
'streets_'
'saturday_'
'starbucks_'
'varied_'
'ordered_'
'hesitate_'
'bread_'
'game_'
'traditional_'
'residence_'
' .- _'
'believe_'
'exit_'
'mostly_'
'mentioned_'
'arriving_'
'uncomfortable_'
'keeping_'
'ones_'
'lights_'
'appeared_'
'mountain_'
'ferry_'
'finally_'
'stuff_'
'reach_'
'exploring_'
'equipment_'
'recent_'
'maintenance_'
'picked_'
'overpriced_'
'fancy_'
'taste_'
'railway_'
'character_'
'position_'
'vacation_'
'hyatt_'
'smooth_'
'kitchenette_'
'means_'
'superior_'
'obviously_'
'french_'
'read_'
'cheese_'
'coast_'
'stops_'
'leaving_'
'connection_'
'elegant_'
'popular_'
'smoking_'
'valley_'
'feels_'
'advantage_'
'secure_'
'sausage_'
'requested_'
'waffles_'
'edge_'
'experienced_'
'owner_'
'placed_'
'cab_'
'stations_'
'travelers_'
'odd_'
'true_'
'spaces_'
'stays_'
'gas_'
'glad_'
'age_'
'employees_'
'closer_'
'supermarket_'
'tell_'
'security_'
'exactly_'
'christmas_'
'hair_'
'moved_'
'goes_'
'generous_'
'none_'
'bottle_'
'similar_'
'thoroughly_'
'season_'
'brought_'
'package_'
'life_'
'surprisingly_'
'lower_'
'/ _'
'finding_'
'ceiling_'
'lit_'
'sign_'
'mid_'
'foot_'
'newly_'
'hallways_'
'italian_'
'pet_'
'counter_'
'state_'
'watching_'
'2nd_'
'worst_'
'history_'
'guess_'
'fireplace_'
'ended_'
'extensive_'
'villa_'
'cons_'
'process_'
'allowed_'
'detail_'
'sort_'
'pastries_'
'accommodations_'
'together_'
'surroundings_'
'serves_'
'nd_'
'relaxed_'
'prefer_'
'face_'
'towards_'
'checkin_'
'heat_'
'closet_'
'giving_'
'sunset_'
'advice_'
'boat_'
'board_'
'numerous_'
'empty_'
'cereal_'
'seeing_'
'impression_'
'showers_'
'con_'
'paying_'
'serving_'
'welcomed_'
'university_'
'sometimes_'
'strong_'
'yourself_'
'meet_'
'guy_'
'clear_'
' " ._'
'fairfield_'
'add_'
'spoke_'
'heated_'
'stroll_'
'prompt_'
'bistro_'
'speak_'
'hallway_'
'ten_'
'credit_'
'strip_'
'w_'
'euros_'
'gem_'
'updating_'
'speed_'
'passing_'
'exercise_'
'terms_'
'pass_'
'cafes_'
'covered_'
'shape_'
'following_'
'disney_'
'arranged_'
'deck_'
'black_'
'comes_'
'remember_'
'bill_'
'freshly_'
'exception_'
'surrounded_'
'locations_'
'amount_'
'transportation_'
'anyway_'
'rain_'
'biggest_'
'straight_'
'tube_'
'harbor_'
'canal_'
' – _'
' + _'
'scrambled_'
'knew_'
'website_'
'trees_'
'bigger_'
'heating_'
'checkout_'
'cheerful_'
'pros_'
'cereals_'
'venue_'
'chance_'
'weeks_'
'couch_'
'reservations_'
'willing_'
'attending_'
'meant_'
'k_'
'started_'
'walks_'
'ambience_'
'touches_'
'direct_'
'taxis_'
'runs_'
'grocery_'
'curtains_'
'catch_'
'evenings_'
'features_'
'al_'
'magnificent_'
'firm_'
'fee_'
'awful_'
'carpets_'
'wood_'
'parks_'
'paris_'
'son_'
'linen_'
'understand_'
'sat_'
'twin_'
'noticed_'
'delivered_'
'attitude_'
'pizza_'
'aware_'
'strange_'
'smoke_'
'gives_'
'smelled_'
'winter_'
'cramped_'
'h_'
'faced_'
'toast_'
'steak_'
'memorable_'
'rental_'
'paper_'
'massive_'
'swim_'
'deluxe_'
'leisure_'
'affordable_'
'waterfront_'
'sauna_'
'recommendations_'
'required_'
'foods_'
'rear_'
'lucky_'
'date_'
'3rd_'
'cars_'
'feature_'
'personnel_'
' % _'
'stand_'
'trained_'
'sheraton_'
'complain_'
'european_'
'connected_'
'company_'
'suggest_'
'broken_'
'pre_'
'comment_'
'le_'
'buy_'
'outdated_'
'friday_'
'marina_'
'apartments_'
'hit_'
'sightseeing_'
'knowledgeable_'
'upscale_'
'court_'
'buses_'
'tight_'
'opinion_'
'fit_'
'solid_'
'daughter_'
'path_'
'journey_'
'appears_'
'tours_'
'questions_'
'chinese_'
'parked_'
'eateries_'
'quaint_'
'shame_'
'dryer_'
'multiple_'
'tourists_'
'customers_'
'blue_'
'sufficient_'
'indian_'
'loads_'
'folks_'
'wet_'
'step_'
'power_'
'f_'
'disappointment_'
'egg_'
'workout_'
'satisfied_'
'idea_'
'him_'
'machines_'
'rock_'
'cross_'
'prior_'
'storage_'
'additional_'
'massage_'
'45_'
'tastefully_'
'parts_'
'play_'
'charged_'
'useful_'
'drop_'
'nicest_'
'reading_'
'friend_'
'yogurt_'
'difference_'
'salad_'
'bathtub_'
'happily_'
'york_'
'(_'
'towel_'
'japanese_'
'narrow_'
'drove_'
'lacking_'
'rail_'
'conditioner_'
'quieter_'
'normally_'
'months_'
'contemporary_'
'tip_'
'gold_'
'soap_'
'smiling_'
'properly_'
'missing_'
'cathedral_'
'rude_'
'showed_'
'traveler_'
'royal_'
'advance_'
' ....._'
'snack_'
'nearly_'
'basically_'
'bother_'
'highlight_'
'4th_'
'chocolate_'
'oh_'
'ibis_'
'ideally_'
'beside_'
'upstairs_'
'platinum_'
'missed_'
'sports_'
'computer_'
'spots_'
'groups_'
'filled_'
'starting_'
'departure_'
'corridors_'
'cocktails_'
'enter_'
'euro_'
'myself_'
'birthday_'
'meetings_'
'discount_'
'95_'
'gate_'
'adults_'
'steep_'
'pubs_'
'fixed_'
'details_'
'upper_'
'doubt_'
'airy_'
'improved_'
'replaced_'
'roads_'
'control_'
'asking_'
'annoying_'
'paint_'
'visits_'
'imagine_'
'heavy_'
'sweet_'
'dogs_'
'ran_'
'example_'
' ! )_'
'sand_'
' . )_'
'providing_'
'signs_'
'definately_'
'fashioned_'
'wireless_'
'requests_'
'offerings_'
'notice_'
'matter_'
'unusual_'
'romantic_'
'enjoying_'
'gone_'
'bottom_'
'décor_'
'breads_'
'waiter_'
'reliable_'
'compact_'
'grill_'
'iron_'
'shampoo_'
'famous_'
'remodeled_'
'expecting_'
'appreciate_'
'showing_'
'transfer_'
'corridor_'
'inclusive_'
'destination_'
'nowhere_'
'include_'
'favourite_'
'situation_'
'trains_'
'ours_'
'training_'
'visitors_'
'hosts_'
'horrible_'
'treated_'
'includes_'
'biscuits_'
'hills_'
'milk_'
'walkable_'
'travellers_'
'likely_'
'flying_'
'american_'
'santa_'
'alone_'
'mainly_'
'section_'
'falls_'
'cook_'
'studio_'
'impeccable_'
'equally_'
'stopover_'
' ! ) ._'
'opportunity_'
'feet_'
'suggestions_'
'map_'
'classic_'
'bike_'
'hi_'
'pillow_'
'apparently_'
'ladies_'
'heading_'
'products_'
'stadium_'
'guide_'
'effort_'
'orange_'
'delight_'
'waitress_'
'campus_'
'whether_'
'sense_'
'selections_'
'remote_'
'smart_'
'200_'
'woman_'
'entry_'
'wear_'
'greeting_'
'alternative_'
'p_'
'exterior_'
'bell_'
'positives_'
'earlier_'
'preferred_'
'environment_'
'action_'
'sight_'
'adjoining_'
'duty_'
'chips_'
'hesitation_'
'balconies_'
'plates_'
'opening_'
'lost_'
'promptly_'
'quirky_'
'ambiance_'
'planning_'
'dubai_'
'units_'
'purpose_'
'improvement_'
'springs_'
'nor_'
'cabin_'
'1st_'
'el_'
'ways_'
'dry_'
'worse_'
'shows_'
'necessary_'
'immediate_'
'locals_'
'ourselves_'
'ensure_'
'therefore_'
'reviewers_'
'rs_'
'couples_'
'attendant_'
'onsite_'
'stone_'
'bag_'
'mornings_'
'establishment_'
' ’ _'
'inexpensive_'
'proper_'
'minimal_'
'saying_'
'chicken_'
'friendliness_'
'junior_'
'box_'
'clothes_'
'nyc_'
'ers_'
'cream_'
'ie_'
'concerned_'
'allow_'
'v_'
'touring_'
'school_'
'beaches_'
' : - _'
'boston_'
'extended_'
'online_'
'direction_'
'breeze_'
'stained_'
'wow_'
'original_'
'overly_'
'ton_'
'oasis_'
'guys_'
'trendy_'
'fluffy_'
'midnight_'
'barely_'
'host_'
'lifts_'
'forget_'
'packed_'
'westin_'
'enormous_'
'hop_'
'attended_'
'costs_'
'unlike_'
'historical_'
'80_'
'bank_'
'portions_'
'negatives_'
'previously_'
'theme_'
'drawback_'
'outlet_'
'juices_'
'fruits_'
'gift_'
'themselves_'
'movie_'
'sent_'
'signal_'
'sits_'
'land_'
'5th_'
'privacy_'
'stains_'
'tree_'
'refurbishment_'
'girl_'
' :_'
'refreshing_'
'waited_'
'bottles_'
'levels_'
'mirror_'
'quarter_'
' “ _'
'hanging_'
'fixtures_'
'cut_'
'possibly_'
'wash_'
'dinners_'
'accommodate_'
'finished_'
'malls_'
'cooking_'
'cup_'
'till_'
'lines_'
'hardly_'
'spending_'
' € _'
'interested_'
'premium_'
'tvs_'
'sky_'
'wines_'
'update_'
'occasion_'
'occasions_'
'cable_'
'among_'
'carte_'
'albeit_'
'architecture_'
'90_'
'yards_'
'seat_'
'ut_'
'mediocre_'
'asian_'
'meat_'
'renovations_'
'hang_'
'mean_'
'save_'
'cocktail_'
'pictures_'
'wardrobe_'
'total_'
'ritz_'
'talking_'
'mix_'
'fix_'
'events_'
'musty_'
'sister_'
'calm_'
'courses_'
'fab_'
'cute_'
'fort_'
'powerful_'
'tucked_'
'mine_'
'fittings_'
'consistent_'
'wonderfully_'
'photos_'
'sorry_'
'serviced_'
'impossible_'
'opted_'
'van_'
'ahead_'
'ski_'
'organised_'
'kettle_'
'informative_'
'aircon_'
'uk_'
'motorway_'
'allocated_'
'europe_'
'resorts_'
'drivers_'
'interest_'
'complementary_'
'slight_'
'bargain_'
'70_'
'story_'
'curtain_'
'satisfactory_'
'peace_'
'pull_'
'wanting_'
'shown_'
'theatre_'
'television_'
'playing_'
'hidden_'
'informed_'
'steam_'
'whenever_'
'chicago_'
'grab_'
'recommendation_'
'shared_'
'church_'
'six_'
'cake_'
'plastic_'
'decoration_'
'maid_'
'snow_'
'traveller_'
'trail_'
'assist_'
'helping_'
'par_'
'weekends_'
'tripadvisor_'
'eager_'
'sadly_'
'diamond_'
'pier_'
'gracious_'
'rated_'
'appear_'
'frequent_'
'immaculately_'
'weak_'
'ceilings_'
'talk_'
'birds_'
'tons_'
'natural_'
'deep_'
'venice_'
'x_'
'basement_'
'month_'
'heater_'
'wake_'
'nature_'
'continue_'
'canyon_'
'flights_'
'track_'
'residential_'
'improve_'
'depending_'
'suited_'
' * _'
'industrial_'
'college_'
'known_'
'spring_'
'waffle_'
'rush_'
'tokyo_'
'agree_'
'beers_'
'classy_'
'14_'
'certain_'
'burger_'
' ..... _'
'staffs_'
'contact_'
'picture_'
'warmly_'
'km_'
'getaway_'
'concert_'
'genuinely_'
'consistently_'
'marble_'
'museums_'
'sandwiches_'
'constantly_'
'novotel_'
'nearest_'
'healthy_'
'gentleman_'
'seafood_'
'reserved_'
'ordinary_'
'marks_'
'noted_'
'southern_'
'charging_'
'hospital_'
'hie_'
'fly_'
'function_'
'lively_'
'led_'
'finish_'
'hiking_'
'dc_'
'football_'
'july_'
'dine_'
'tickets_'
'oatmeal_'
'35_'
'vicinity_'
'planned_'
'18_'
'ham_'
'vibe_'
'motels_'
'wise_'
'uber_'
'keys_'
'supplied_'
'period_'
'fitted_'
'wooden_'
'gps_'
'speaking_'
'homewood_'
'catering_'
'th_'
'75_'
' # _'
'word_'
'thai_'
',_'
'honest_'
'pedestrian_'
'champagne_'
'write_'
'60_'
'badly_'
'plugs_'
'aspect_'
'soup_'
'handled_'
'faces_'
'attend_'
'flowers_'
'villas_'
'email_'
'accomodating_'
'peak_'
'says_'
'personally_'
'poorly_'
'bikes_'
'corporate_'
'florida_'
'field_'
'ne_'
'become_'
' _'
'happened_'
'held_'
'delighted_'
'coach_'
'cleaner_'
'forest_'
'aside_'
'responsive_'
'recommending_'
'bbq_'
'entering_'
'wing_'
'premises_'
'obvious_'
' ! ) _'
'shabby_'
'reasons_'
'suit_'
'china_'
'efficiently_'
'waiters_'
'comments_'
'tips_'
'te_'
'closest_'
'easier_'
'share_'
'absolute_'
'countryside_'
'mixed_'
'vanity_'
'muffins_'
'frills_'
'avenue_'
'travels_'
'followed_'
'creek_'
'explained_'
'suitable_'
'tuk_'
'experiences_'
'amazingly_'
'benefit_'
'mark_'
'eye_'
'cuisine_'
'glasses_'
'scenic_'
'hike_'
'personable_'
'meters_'
'minibar_'
'atrium_'
'mattresses_'
'status_'
'channel_'
'replenished_'
'hopefully_'
'tennis_'
'cover_'
'chains_'
'employee_'
'changing_'
'ce_'
'hassle_'
'foyer_'
'desert_'
'plug_'
'tasted_'
'ta_'
'beginning_'
'weird_'
'extras_'
'answer_'
'complained_'
'bottled_'
'genuine_'
'tricky_'
'bustle_'
'victoria_'
'travelodge_'
'spanish_'
'camp_'
'theater_'
'halls_'
'whatever_'
'sides_'
'breathtaking_'
'palm_'
'houses_'
'transit_'
'activity_'
'stayand_'
'bland_'
'crowd_'
'moving_'
'scenery_'
'sounds_'
'6th_'
'pancakes_'
' " , _'
'fall_'
'ble_'
'confusing_'
'staffed_'
'stuck_'
'thick_'
'washing_'
'presentation_'
'ts_'
'salmon_'
'regularly_'
' ” _'
'embassy_'
'advisor_'
'serious_'
'hoteland_'
'lacked_'
'charges_'
'dropped_'
'amsterdam_'
'radisson_'
'cottage_'
'overlooks_'
'correct_'
'anniversary_'
'brown_'
'rome_'
'bangkok_'
'dead_'
'standing_'
'lodging_'
'smallish_'
'dealt_'
'tasteful_'
'shut_'
'appearance_'
'markets_'
'individual_'
'eventually_'
'temple_'
'16_'
'match_'
'question_'
'ies_'
'games_'
'frequently_'
'cabins_'
'northern_'
'ness_'
'positioned_'
'multi_'
'leading_'
'challenge_'
'bartender_'
'beauty_'
'hire_'
'sleeper_'
'tastes_'
'tasting_'
'selected_'
'0_'
'mexican_'
'vegas_'
'thru_'
'besides_'
'sausages_'
'server_'
'electric_'
'na_'
'exceeded_'
'restful_'
'calls_'
'roll_'
'dish_'
'chic_'
'disappoint_'
'adult_'
'present_'
'springhill_'
'typically_'
'june_'
'importantly_'
'las_'
'caring_'
'throw_'
'sad_'
'funky_'
'putting_'
'happen_'
'advised_'
'managers_'
'drinking_'
'seasons_'
'types_'
'form_'
'cbd_'
'region_'
'metres_'
'actual_'
'entered_'
'plain_'
'girls_'
'august_'
'constant_'
'cups_'
'locally_'
'walmart_'
'organized_'
'crazy_'
'suggested_'
'unable_'
'forgot_'
'stated_'
'isolated_'
'against_'
'sandwich_'
'effective_'
'neither_'
'filling_'
'ring_'
'walkway_'
'plate_'
'fortunately_'
'tiles_'
'arena_'
' ! ! ! !_'
'post_'
'rolls_'
'crisp_'
'barcelona_'
'hustle_'
'rustic_'
'sunny_'
'bought_'
'sydney_'
'co_'
'ticket_'
'strongly_'
'ny_'
'surely_'
'monday_'
'needing_'
'piece_'
'mr_'
'october_'
'cakes_'
'seriously_'
'bothered_'
'17_'
'ihg_'
' ) - _'
'casual_'
'sorted_'
'inner_'
'mold_'
'cities_'
'careful_'
'eaten_'
'everyday_'
'crowds_'
'ry_'
'log_'
'courtesy_'
'news_'
'festival_'
'assistance_'
'rare_'
'baked_'
'supply_'
'com_'
'address_'
'ia_'
'beef_'
'thus_'
'denver_'
'butthe_'
'nevertheless_'
'ion_'
'today_'
'prime_'
'owned_'
'beware_'
'honestly_'
'ship_'
'clock_'
'loungers_'
'library_'
'supposed_'
'pot_'
'meats_'
'result_'
'* _'
'concern_'
'arrange_'
'receive_'
'proved_'
'luckily_'
'dessert_'
'vehicle_'
'seattle_'
'pricing_'
'dublin_'
' ( $ _'
'bagels_'
'stopping_'
'appealing_'
'trails_'
'manner_'
'tad_'
'quinta_'
'portland_'
'hospitable_'
'helpfull_'
'rough_'
'plush_'
'lane_'
'dust_'
'woke_'
'sold_'
'ey_'
'competent_'
'highest_'
'z_'
'computers_'
' ' ._'
'carry_'
'attraction_'
'advertised_'
'estate_'
'lagoon_'
'salt_'
'hence_'
'approx_'
'berlin_'
'visitor_'
'march_'
'vegetarian_'
'criticism_'
'ted_'
'truck_'
'wished_'
'tile_'
'follow_'
'beaten_'
' ? _'
'boats_'
'basis_'
'washington_'
'hgi_'
'colonial_'
' , ( _'
'sparkling_'
'porch_'
'slippers_'
'promenade_'
'os_'
'13_'
'pulled_'
'supplies_'
'tough_'
' '
'chat_'
'john_'
'hairdryer_'
'ironing_'
'sliding_'
'approach_'
'safari_'
'gravy_'
'cared_'
'mt_'
'ensuite_'
'remembered_'
'leaves_'
'dined_'
'dollars_'
'chill_'
'sets_'
'hold_'
'travelled_'
'reserve_'
'converted_'
'india_'
'allows_'
'vast_'
'omelette_'
'robes_'
'conversation_'
'fourth_'
'poolside_'
'december_'
'carpark_'
'combination_'
'asset_'
'rent_'
'men_'
'keen_'
'changes_'
'aspects_'
'repair_'
'irish_'
'headed_'
'lacks_'
'agent_'
'reached_'
'smiles_'
'considered_'
'america_'
'regarding_'
'discovered_'
'die_'
'seats_'
'mistake_'
'desired_'
'manhattan_'
'april_'
'deserves_'
'bw_'
'300_'
'maps_'
'pit_'
'animals_'
'melbourne_'
'september_'
'ages_'
'ish_'
'yummy_'
'wants_'
'crowne_'
'opera_'
'firstly_'
'electrical_'
'washer_'
'century_'
'stuffy_'
'del_'
'shanghai_'
'rewards_'
'wild_'
'passed_'
'diner_'
'colleagues_'
'toilets_'
'elite_'
'info_'
'factor_'
'planes_'
'initially_'
'former_'
'fill_'
'weights_'
'commercial_'
'became_'
'exciting_'
'starts_'
'wonder_'
'voucher_'
'greet_'
'dock_'
'decision_'
'competitive_'
'relaxation_'
'potatoes_'
'crew_'
'francisco_'
'worry_'
'chosen_'
'beverages_'
' , " _'
'7th_'
'handle_'
'overlook_'
'require_'
'george_'
'dressing_'
'highways_'
'fried_'
' --- _'
'tray_'
'union_'
'virtually_'
'assigned_'
'neighbourhood_'
'fell_'
'row_'
'health_'
'hands_'
'taj_'
'comparison_'
'wildlife_'
'splendid_'
'practical_'
'january_'
'body_'
'hole_'
'brief_'
'partner_'
'outskirts_'
'-- _'
'unpleasant_'
'boxes_'
'restored_'
'golden_'
'treatment_'
'duvet_'
'comfortably_'
'thinking_'
'boiled_'
'deliver_'
'spg_'
'cheapest_'
'servers_'
'bakery_'
'surprising_'
'omelettes_'
'kudos_'
'removed_'
'advise_'
'connect_'
'zone_'
'child_'
'send_'
'impressions_'
'awkward_'
'holidays_'
'cape_'
'boring_'
'accomodation_'
'switch_'
'reported_'
'arrangements_'
'paradise_'
'yard_'
'category_'
'buffets_'
'mercure_'
'doubletree_'
'mcdonalds_'
'nightly_'
'response_'
'30am_'
'liverpool_'
'croissants_'
'trolley_'
'smells_'
'dinning_'
'damp_'
'lock_'
'drain_'
'condo_'
'receptionists_'
'heritage_'
'omelets_'
'shade_'
'noises_'
'unexpected_'
'currently_'
'sunrise_'
'trucks_'
'ultra_'
'tall_'
'passes_'
'chaotic_'
'answered_'
'et_'
'establishments_'
'courtyards_'
'" _'
'tend_'
'miami_'
'beverage_'
'alarm_'
'knowledge_'
'odor_'
'rocks_'
'basics_'
'faultless_'
'repeat_'
'perfection_'
'oriented_'
'portion_'
'described_'
'contained_'
'se_'
'november_'
'ave_'
'manor_'
'inconvenience_'
'parents_'
'carpeting_'
'saved_'
'hong_'
'ra_'
'treatments_'
'residents_'
'gripe_'
'amongst_'
'ur_'
'nightlife_'
'cigarette_'
'policy_'
'specially_'
'bedside_'
'comparable_'
'scene_'
'degrees_'
'zoo_'
'familiar_'
'whirlpool_'
'mobile_'
'final_'
'warmth_'
'ville_'
'tap_'
'infinity_'
'filthy_'
'completed_'
'wind_'
'rd_'
'shore_'
'warned_'
'inconvenient_'
'suitcases_'
'ingredients_'
'kong_'
'poster_'
'connecting_'
'bowl_'
'.. _'
'madrid_'
'funny_'
'cheeses_'
'workers_'
'lounges_'
' --_'
'steakhouse_'
'cater_'
'tax_'
'plane_'
'everybody_'
'opens_'
'neighbors_'
'secluded_'
'businesses_'
'visible_'
'cases_'
'hundred_'
'trash_'
'tlc_'
'stands_'
'fans_'
'band_'
'remains_'
' , & _'
'desserts_'
'california_'
'ease_'
'compare_'
'safety_'
'sinks_'
'atlanta_'
'term_'
'rich_'
'edinburgh_'
'modest_'
'usa_'
'retail_'
'ft_'
'lay_'
'authentic_'
'500_'
'lived_'
'magical_'
'vancouver_'
'lawn_'
'deco_'
'cart_'
'stood_'
'delivery_'
'retreat_'
'played_'
'calling_'
'menus_'
'collection_'
'drag_'
'worried_'
'hip_'
'british_'
'parties_'
'manage_'
'hwy_'
'communal_'
'150_'
'baths_'
'pain_'
'tubs_'
'pets_'
'drury_'
'apologetic_'
'support_'
'lush_'
'priority_'
' ;_'
'tropical_'
'catered_'
'smallest_'
'orlando_'
'plans_'
'france_'
'tranquil_'
'swift_'
'disneyland_'
'suggestion_'
'extraordinary_'
'caught_'
'concept_'
'target_'
'picturesque_'
'eve_'
'cordial_'
'pointed_'
'traveled_'
'baby_'
'wharf_'
'22_'
'shuttles_'
'purchase_'
'glacier_'
'101_'
'print_'
'tracks_'
'pickup_'
'web_'
'basin_'
'helps_'
'gladly_'
'photo_'
'respect_'
'happening_'
'italy_'
'8th_'
'landing_'
'crossing_'
'wallpaper_'
'prague_'
'largest_'
'partial_'
'fountain_'
'potential_'
'amenity_'
'unfriendly_'
'liking_'
'junction_'
'freezing_'
'venues_'
'locate_'
'joy_'
'ar_'
'stale_'
'magic_'
'trams_'
'escape_'
'laptop_'
'touristy_'
'intimate_'
'smoked_'
'disabled_'
'pacific_'
'gm_'
'ball_'
'watched_'
'doorstep_'
'locked_'
'thankfully_'
'pity_'
'disturbed_'
'starter_'
'omelet_'
'ns_'
'frig_'
'crown_'
'charleston_'
'mount_'
'luck_'
'alot_'
')_'
'knows_'
'lazy_'
'upgrading_'
'capital_'
'allowing_'
'climb_'
'stretch_'
'rise_'
'riverwalk_'
'bang_'
'homemade_'
'hamptons_'
'eastern_'
'vegetables_'
'cracker_'
'beijing_'
'adds_'
'manchester_'
'german_'
'upgrades_'
'figure_'
'speedy_'
'shall_'
'arrangement_'
'obliging_'
'hotelbut_'
'social_'
'signage_'
'schedule_'
'resturant_'
'setup_'
'colors_'
'landscaping_'
'array_'
'toward_'
'cliff_'
'circle_'
'boarding_'
'kings_'
'café_'
'department_'
'islands_'
'accessed_'
'ridiculous_'
'greatly_'
'cards_'
'assortment_'
'thoughtful_'
' .* _'
'accommodated_'
'99_'
'vienna_'
'summary_'
'hostess_'
'painted_'
'cottages_'
'staircase_'
'japan_'
'texas_'
'queue_'
'originally_'
'describe_'
'waves_'
'hungry_'
'mess_'
'navigate_'
'jet_'
'colleague_'
'transfers_'
'towns_'
'lamp_'
'ty_'
'forth_'
'oxford_'
'beefeater_'
'program_'
'pond_'
'hvac_'
'hey_'
'horse_'
'conditioned_'
'boardwalk_'
'rack_'
'outdoors_'
'chilly_'
'competition_'
'promised_'
'pieces_'
'barrel_'
'display_'
' ...... _'
'carlton_'
'sunbeds_'
'waste_'
'lodges_'
'wander_'
'bunch_'
'trade_'
' ) . _'
'medium_'
'lamb_'
'treadmills_'
'tear_'
'frustrating_'
'availability_'
'driveway_'
'exquisite_'
'19_'
'viewing_'
'keeps_'
'nobody_'
'dingy_'
'plumbing_'
'meaning_'
'sheet_'
'rarely_'
'thursday_'
'smoothly_'
'ous_'
'riverside_'
'enthusiastic_'
'suspect_'
'requirements_'
'movies_'
'clubs_'
'micro_'
'initial_'
'bear_'
'alley_'
'unbelievable_'
'singapore_'
'length_'
'turns_'
'substantial_'
'women_'
' (_'
'dishwasher_'
'produce_'
'honors_'
'farm_'
'ear_'
'venture_'
'current_'
'andi_'
'seven_'
'pride_'
'friendliest_'
'ay_'
'ma_'
'cutlery_'
'mill_'
'ley_'
'learn_'
'links_'
'pleasing_'
'les_'
'lakes_'
'occupied_'
'separated_'
'canada_'
'florence_'
'fields_'
'fe_'
'caters_'
'penny_'
'challenging_'
'peeling_'
'february_'
'reminded_'
'apple_'
'minimum_'
'soundproofing_'
'minus_'
'zurich_'
'dirt_'
'loch_'
'lives_'
'draw_'
'fireworks_'
'gourmet_'
'excited_'
'anytime_'
'somehow_'
'greatest_'
'frankly_'
'adventure_'
'terribly_'
'deals_'
'bird_'
' ‘ _'
'rented_'
'pack_'
'knowing_'
'ling_'
'heavenly_'
'undergoing_'
'towers_'
'bite_'
'dusty_'
'ment_'
'catching_'
'saving_'
'report_'
'grass_'
'closing_'
'ge_'
'gel_'
'decorations_'
'approximately_'
'kinds_'
'istanbul_'
'remarkable_'
'england_'
'books_'
'suppose_'
'turning_'
'starters_'
'refurb_'
'quay_'
'edges_'
'difficulty_'
'rose_'
'resolved_'
'munich_'
'landscaped_'
'dream_'
'ons_'
'nespresso_'
'rice_'
'boys_'
'kindly_'
'21_'
'improvements_'
'30pm_'
'bahn_'
'ancient_'
'hate_'
'language_'
'words_'
'usd_'
'race_'
'disgusting_'
'lincoln_'
'tuesday_'
'roomand_'
'drawers_'
'demand_'
'unwind_'
'fishing_'
'banks_'
'bare_'
'hoping_'
'flawless_'
'shelf_'
'regret_'
' ) ; _'
'giant_'
' ! ) , _'
'haven_'
'coupon_'
'tion_'
'thermostat_'
'redone_'
'heartbeat_'
'insulation_'
'explain_'
'pork_'
'ere_'
'concrete_'
'sparse_'
'definite_'
'refreshed_'
'dollar_'
'james_'
'fortunate_'
'appropriate_'
'$ _'
'spotty_'
'marked_'
'item_'
'mrt_'
'makeover_'
'supper_'
'cookie_'
'lamps_'
'ireland_'
'directed_'
'cinema_'
'cause_'
'fashion_'
'distant_'
'split_'
'motor_'
'pro_'
'montreal_'
'intrusive_'
'seperate_'
'mart_'
'dedicated_'
'refresh_'
'choosing_'
'structure_'
'devices_'
'... _'
'homely_'
'skip_'
'offices_'
'blocked_'
'ability_'
'worthwhile_'
'woods_'
'boy_'
'flow_'
'sounded_'
'yoghurt_'
'charles_'
'warmer_'
'renaissance_'
'ms_'
'significant_'
'engaging_'
'awake_'
'kid_'
'continued_'
'accor_'
'chocolates_'
' . ._'
'noticeable_'
'da_'
'chinatown_'
'phoenix_'
'cash_'
'pasta_'
'sunshine_'
'ford_'
'attendants_'
' . , _'
'sunsets_'
'popcorn_'
'antonio_'
'clients_'
'highlights_'
'praise_'
'cell_'
'skyline_'
'lets_'
'expansive_'
'bristol_'
'clerks_'
'prepare_'
'bits_'
'worthy_'
'umbrellas_'
'ss_'
'michigan_'
'community_'
'alternatives_'
'est_'
'nonetheless_'
'hello_'
'goodand_'
'supermarkets_'
'corners_'
'pudding_'
'fellow_'
'alcohol_'
'connections_'
': _'
' ." _'
'temp_'
'settled_'
'jackson_'
'diego_'
'capitol_'
'seafront_'
'suitcase_'
'failed_'
'amazed_'
'queens_'
'seated_'
'remodel_'
'colorado_'
'loose_'
'lisbon_'
'select_'
'sofitel_'
'realize_'
'formal_'
'color_'
'des_'
'adequately_'
'maids_'
'costa_'
'sumptuous_'
'porter_'
'dallas_'
'equiped_'
'don_'
'semi_'
'replacement_'
'medical_'
'practically_'
'oven_'
'confortable_'
'bugs_'
'rt_'
'ale_'
'nashville_'
'butler_'
'bringing_'
'glazing_'
'enclosed_'
'blanket_'
'lumpy_'
'benefits_'
'sell_'
'requires_'
'66_'
'buffalo_'
'antique_'
'ant_'
'internal_'
'bet_'
'names_'
'tops_'
'themed_'
'seconds_'
'goodbut_'
'energy_'
'exchange_'
'sandy_'
'panoramic_'
'factory_'
'phones_'
'paul_'
'chateau_'
'mary_'
'reviewer_'
'master_'
'disturb_'
' …_'
'silver_'
'drives_'
'sofas_'
'stream_'
'dull_'
'commented_'
'patient_'
'zero_'
'sauce_'
'named_'
'agreed_'
'specific_'
'cooling_'
'celebrate_'
'blankets_'
'bellman_'
'printer_'
'underneath_'
'female_'
'brunch_'
'weddings_'
'sockets_'
'scotland_'
'raining_'
'denny_'
'casinos_'
'storm_'
'spoiled_'
'salads_'
'pie_'
'hd_'
'spoilt_'
'orders_'
'majority_'
'stove_'
'combined_'
'los_'
'dim_'
'aaa_'
'unacceptable_'
'county_'
'9th_'
'admit_'
'covers_'
'nightmare_'
'falling_'
'unbeatable_'
'telling_'
'accurate_'
'deserve_'
'forever_'
'baseball_'
'replacing_'
'barman_'
'superbly_'
'spite_'
'pushed_'
'professionally_'
'featured_'
'purposes_'
'mother_'
'fifth_'
'400_'
'intercontinental_'
'whom_'
'pristine_'
'seaside_'
'smelt_'
'tech_'
'slide_'
'ation_'
'upmarket_'
'peninsula_'
'continues_'
'selling_'
'sticky_'
'houston_'
'´_'
'yellowstone_'
'elegance_'
'blinds_'
'windy_'
'austin_'
'annex_'
'personality_'
'woken_'
'tremendous_'
'joke_'
'bts_'
'pop_'
'lax_'
'ya_'
'warning_'
'holes_'
'culture_'
'concerns_'
'tournament_'
'cleaners_'
'professionalism_'
'efficiency_'
'active_'
'bungalow_'
'gesture_'
'decide_'
'10th_'
'brussels_'
'broadway_'
'apology_'
'doorman_'
'fayre_'
'serene_'
'jam_'
'veranda_'
'scones_'
'mexico_'
'brands_'
'background_'
'trek_'
'leads_'
'gluten_'
'glorious_'
'pa_'
'writing_'
'treats_'
'phenomenal_'
'ill_'
'priceline_'
'numbers_'
'hat_'
'asia_'
'sh_'
'crystal_'
'assured_'
'utensils_'
'smelling_'
'overwhelmed_'
'existent_'
'rides_'
'heaven_'
'brewery_'
'beachfront_'
'realized_'
'; _'
'heathrow_'
'comforts_'
'outlook_'
'plants_'
'fuss_'
'ridge_'
'replace_'
'grateful_'
'spartan_'
'ting_'
'teas_'
'ramp_'
'easter_'
'chalet_'
'basketball_'
'ood_'
'essential_'
'degree_'
'storey_'
'instructions_'
'tapas_'
'load_'
'dvd_'
'cheery_'
'tasteless_'
'weight_'
'picky_'
'impeccably_'
'ad_'
' :)_'
'charlotte_'
'arranging_'
'ka_'
'assume_'
'forgotten_'
'cinnamon_'
'roast_'
'lunches_'
'primarily_'
'build_'
'toaster_'
'caused_'
'ally_'
'sleek_'
'alright_'
'reputation_'
'proofing_'
'geneva_'
'whatsoever_'
'meets_'
'jr_'
'australia_'
'addressed_'
' . ) _'
'vehicles_'
'expectation_'
'drawer_'
'bustling_'
'routes_'
'brings_'
'breath_'
'ter_'
'relative_'
'minimalist_'
'understanding_'
'sharing_'
'sushi_'
'aged_'
'regardless_'
'hairs_'
'africa_'
'ic_'
'pricy_'
'switched_'
'fits_'
'cove_'
'un_'
'smelly_'
'cancelled_'
'pancake_'
'cabs_'
'rainy_'
'david_'
'cooler_'
'ventilation_'
'listen_'
'closes_'
'furnishing_'
'ugly_'
'registration_'
'excursions_'
'count_'
'appliances_'
'noon_'
'courts_'
'conservatory_'
'shout_'
'newspaper_'
'preference_'
'happens_'
'andit_'
'2012_'
'piazza_'
'poached_'
'era_'
'accept_'
'turkey_'
'jose_'
'goodthe_'
'code_'
'sorts_'
'solo_'
'shoes_'
'opportunities_'
'hen_'
'depressing_'
'ch_'
'usb_'
'specifically_'
'product_'
'male_'
'understaffed_'
'knowledgable_'
'heads_'
'savannah_'
'granite_'
'interiors_'
'flew_'
'vibrant_'
'lcd_'
'dressed_'
'universal_'
'updates_'
'norm_'
'massages_'
'inadequate_'
'entirely_'
'cleared_'
'smokers_'
'ri_'
'ls_'
'speaks_'
' –_'
'mumbai_'
'consisted_'
'satisfying_'
'hearty_'
' .-_'
'rural_'
'glasgow_'
'bend_'
'abundant_'
'mansion_'
'ordering_'
'created_'
'account_'
'scale_'
'police_'
'frozen_'
'um_'
'ps_'
'comprehensive_'
'du_'
'delivers_'
'wee_'
'skills_'
'hectic_'
'cupboard_'
' … _'
'uphill_'
'player_'
'hoped_'
'stall_'
'max_'
'according_'
'pluses_'
'birmingham_'
'aloft_'
'& _'
'stock_'
'piano_'
'niceand_'
'banquet_'
'ess_'
'vs_'
'manicured_'
'refused_'
'23_'
'waters_'
'waikiki_'
'spray_'
'nasty_'
'mobility_'
'mcdonald_'
'lobster_'
'readily_'
'treadmill_'
'specials_'
'assisted_'
'appeal_'
'dip_'
'apples_'
'written_'
'surprises_'
'riding_'
'picking_'
'earplugs_'
'annual_'
'guided_'
'waterfall_'
'tended_'
'iceland_'
'hub_'
'ends_'
'remodeling_'
'proud_'
'lead_'
'discounted_'
'appetizers_'
'discover_'
'mounted_'
'duck_'
'net_'
'useless_'
'toronto_'
'newspapers_'
'carried_'
'balance_'
'yellow_'
'newport_'
' /_'
'memorial_'
'brick_'
'struggle_'
'seamless_'
'complaining_'
'waking_'
'soho_'
'conditions_'
'cleveland_'
'vending_'
'shaped_'
'kinda_'
'2015_'
'que_'
'29_'
'overhead_'
'naples_'
'triple_'
'ity_'
'freezer_'
'dangerous_'
'topped_'
' ? ) _'
'scottish_'
'listed_'
'carts_'
'functioning_'
' ......_'
'ful_'
'taipei_'
'ine_'
'ent_'
'roombut_'
'reef_'
'ha_'
'curry_'
'coffees_'
'alongside_'
'rubbish_'
'mod_'
'confused_'
'occasional_'
'jungle_'
'hrs_'
'begin_'
'satisfaction_'
'loft_'
'sa_'
'pastry_'
'fees_'
' .: _'
'sales_'
'unusually_'
'cat_'
'!_'
'vouchers_'
'talked_'
'2013_'
'carvery_'
'winner_'
'grey_'
'taxes_'
'states_'
'afford_'
'2014_'
'terminals_'
'memories_'
'baggage_'
'resident_'
'chris_'
'wandering_'
'bookings_'
'timely_'
'paths_'
'google_'
'spain_'
'urban_'
'moderate_'
'landscape_'
'intersection_'
'height_'
'cardio_'
'atlantic_'
'purchased_'
'listening_'
'fires_'
'dreadful_'
'deer_'
'j_'
'starwood_'
'instant_'
'eyes_'
'cleanand_'
'involved_'
'indifferent_'
'gates_'
'conveniences_'
'railroad_'
'marco_'
'clientele_'
'bucks_'
'app_'
'twenty_'
'housekeeper_'
'gallery_'
'burgers_'
'65_'
'destinations_'
'basket_'
'ships_'
'000_'
'earth_'
'athens_'
'downhill_'
'midtown_'
'garbage_'
'stones_'
'controls_'
'chatting_'
'ba_'
'rip_'
'operated_'
'bathrobes_'
'dance_'
'bund_'
'2016_'
'wineries_'
'mood_'
'ian_'
'conversations_'
'cleanest_'
'thorough_'
'sub_'
'sizes_'
'frankfurt_'
'espresso_'
'stick_'
'richmond_'
'evident_'
'va_'
'marvelous_'
'beans_'
'excuse_'
'exemplary_'
'quantity_'
'border_'
'skiing_'
'michael_'
'kitchens_'
'bali_'
'search_'
'accomodations_'
'struggled_'
'memory_'
'ings_'
'surface_'
'maintain_'
'entertaining_'
'81_'
'jazz_'
'cracked_'
'chilled_'
'veg_'
'resturants_'
'outback_'
'eur_'
'divine_'
'monument_'
'interaction_'
'ds_'
'grace_'
'swiss_'
'spare_'
'sample_'
'michelin_'
'hollywood_'
'washed_'
'pounds_'
'external_'
'driven_'
'controlled_'
'zion_'
'neighbours_'
'focused_'
'coastal_'
'16th_'
'impersonal_'
'wings_'
'goods_'
'wherever_'
'tunnel_'
'fascinating_'
'deli_'
'loyalty_'
'flatscreen_'
'tent_'
'perk_'
'lion_'
'kyoto_'
'chefs_'
'expressway_'
'vista_'
'milan_'
'rushed_'
'interacted_'
'guides_'
'anda_'
'victorian_'
'finest_'
'operate_'
'steaks_'
'sbut_'
'ridiculously_'
'essentially_'
'blackout_'
'stain_'
'posted_'
'dried_'
'delhi_'
' ' , _'
'galleria_'
'rocky_'
'ins_'
'cubicle_'
'sthe_'
'communication_'
'wheelchair_'
'reviewed_'
'restuarant_'
'operation_'
'dozen_'
'wave_'
'chatty_'
'layover_'
'vary_'
'join_'
'desperate_'
'insulated_'
'hearing_'
'waitresses_'
'jw_'
'arms_'
'mass_'
'madison_'
'flower_'
'soaking_'
'client_'
'tiled_'
'soak_'
'learned_'
'keurig_'
'gulf_'
'decently_'
'bench_'
'confirmed_'
'centers_'
'55_'
'26_'
'unlimited_'
'hundreds_'
'abundance_'
'lotion_'
'attempt_'
'humid_'
'dropping_'
'butter_'
'drab_'
'desire_'
'conferences_'
'mosque_'
'unhelpful_'
'marvellous_'
'anymore_'
'reduced_'
'columbus_'
'carefully_'
'network_'
'q_'
'midst_'
'liquor_'
'crab_'
'ensured_'
'research_'
'ramada_'
'dealing_'
'colour_'
'airline_'
'lined_'
'diners_'
'tone_'
'columbia_'
'chip_'
'additionally_'
'picnic_'
'oak_'
'newest_'
'28_'
'title_'
'porridge_'
'honeymoon_'
'gotten_'
'bells_'
'stress_'
'printed_'
'ot_'
'senior_'
'pure_'
'helpfulness_'
'emails_'
'responded_'
'granted_'
'pint_'
'turnpike_'
'remained_'
'radius_'
'bungalows_'
'volcano_'
'moab_'
'marriot_'
'jump_'
'blown_'
'adding_'
'suits_'
'jobs_'
'faulted_'
'greatand_'
'nicebut_'
'entrances_'
'create_'
'sso_'
'handicapped_'
'blvd_'
'perth_'
'downsides_'
'+ _'
'shot_'
'related_'
'colours_'
'unfortunate_'
'regis_'
'radio_'
'tho_'
'aquarium_'
'painless_'
'bush_'
'reakfast_'
'soaps_'
'maze_'
'contrast_'
'wa_'
'remain_'
'juan_'
'comforter_'
'guard_'
'friendlier_'
'ants_'
') _'
'hr_'
'greek_'
'celebration_'
'acropolis_'
' :-)_'
'lakeside_'
'orleans_'
'olympic_'
'financial_'
'donuts_'
'cap_'
'regards_'
'loop_'
'latest_'
'development_'
'act_'
'stories_'
'stepped_'
'neighboring_'
'disaster_'
'sugar_'
'oil_'
'grove_'
'afterwards_'
'serviceable_'
'maria_'
'mail_'
'industry_'
'electronic_'
'altogether_'
'link_'
'whose_'
'puts_'
'nestled_'
'andwe_'
'albert_'
'xmas_'
'proof_'
'mould_'
'banging_'
'bananas_'
'marriotts_'
'dive_'
'slamming_'
'shangri_'
'panel_'
'letting_'
'squeezed_'
'nz_'
'trust_'
'silent_'
'persons_'
'eg_'
'casa_'
'monorail_'
'gross_'
'associated_'
'adjust_'
'slippery_'
'ignored_'
'dame_'
'chaos_'
'brasserie_'
'grade_'
'endless_'
'joined_'
'delayed_'
'feedback_'
'encounter_'
'ruins_'
'nce_'
'exhibition_'
'oddly_'
'delay_'
'ions_'
'inconsistent_'
'flush_'
'description_'
'pace_'
'mirrors_'
'def_'
'circular_'
'opt_'
'miserable_'
'god_'
'exclusive_'
'wednesday_'
'gin_'
'cambridge_'
'stockholm_'
'latter_'
'flooring_'
'affair_'
'excessive_'
'younger_'
'louis_'
'likes_'
'lemon_'
'groceries_'
'sedona_'
'np_'
'inch_'
'hyde_'
'dancing_'
'bourbon_'
'similarly_'
'recognized_'
'brewers_'
'ales_'
'scheduled_'
'ping_'
'bartenders_'
'ys_'
'needless_'
'lounging_'
'drapes_'
'luke_'
'elderly_'
'disturbing_'
'cancun_'
'250_'
'climate_'
'11th_'
'refund_'
'posh_'
'consideration_'
'apologized_'
'ely_'
'cultural_'
'ated_'
'saint_'
'pittsburgh_'
'ups_'
'relatives_'
'recognition_'
'mildew_'
'overwhelming_'
'gated_'
'ee_'
'sketchy_'
'pink_'
'hotelso_'
'tries_'
'ou_'
'sed_'
'gathering_'
'feather_'
'telephone_'
'shift_'
'suburban_'
'housekeepers_'
'government_'
'doubles_'
'cares_'
'peter_'
'homey_'
'relief_'
'sri_'
'seemingly_'
'african_'
'potato_'
'ai_'
'afraid_'
'00am_'
'yogurts_'
'tourism_'
'rang_'
'focus_'
'85_'
'separately_'
'mtr_'
'heavily_'
'students_'
'escorted_'
'duomo_'
'puerto_'
'essentials_'
'terraces_'
'hillside_'
'dunes_'
'expense_'
'designer_'
'blowing_'
'shades_'
'ruby_'
'uninspiring_'
'screens_'
'combo_'
'pots_'
'parkway_'
'id_'
'efforts_'
'leather_'
'ks_'
'facelift_'
'doormen_'
'12th_'
'roomthe_'
'blu_'
'remove_'
'cycle_'
'sometime_'
'farther_'
'eight_'
'congested_'
'retro_'
'occasionally_'
'motorcycle_'
'foam_'
'complicated_'
'uses_'
'solution_'
'handed_'
'ding_'
'collect_'
'barbara_'
'playa_'
'ver_'
'tesco_'
'opposed_'
'lastly_'
'varieties_'
'thumbs_'
'cuts_'
'patrons_'
'mar_'
'significantly_'
'itand_'
'grout_'
'oregon_'
'forced_'
'dozens_'
'coupons_'
'grubby_'
'newcastle_'
'lap_'
'faster_'
'brisbane_'
'unload_'
'indoors_'
'hotelthe_'
'companies_'
'temples_'
'avoided_'
'walled_'
'stage_'
'scheme_'
'tranquility_'
'taff_'
'secret_'
'printing_'
'vintage_'
'teams_'
'ni_'
'120_'
'respects_'
'handicap_'
'fifteen_'
'ana_'
'singles_'
'shocked_'
'lukewarm_'
'lawns_'
' .$ _'
'strength_'
'hurry_'
'eco_'
'torn_'
'series_'
'becomes_'
'wired_'
'surf_'
'score_'
'ratings_'
'accompanied_'
'pi_'
'ensuring_'
'arts_'
'fairmont_'
'cope_'
'artwork_'
'screaming_'
'regency_'
'excellently_'
' ? ?_'
'deposit_'
'`_'
'crater_'
'umbrella_'
'townbut_'
'guaranteed_'
' [ _'
'sum_'
'contacted_'
'bowling_'
'marathon_'
'turkish_'
'studios_'
'rolling_'
'perks_'
'occupancy_'
'jets_'
'reality_'
'singing_'
'hockey_'
'elliptical_'
'dispenser_'
'dam_'
'27_'
'tel_'
'loudly_'
'largely_'
'gateway_'
'extension_'
'departing_'
'excellence_'
'effect_'
'budapest_'
'appointments_'
'coat_'
'realised_'
'neighbouring_'
'kindness_'
'copenhagen_'
'carrying_'
'bucket_'
'atm_'
'. , _'
'ned_'
'buggy_'
'surrounds_'
'sf_'
'joe_'
'christchurch_'
'secured_'
'guarantee_'
'elements_'
'emailed_'
'docks_'
'ben_'
' . ) ._'
'eiffel_'
'dresser_'
'ors_'
'olive_'
'leisurely_'
'ier_'
'figured_'
'chipped_'
'ck_'
'unbelievably_'
'functions_'
' ....... _'
'2011_'
'thrilled_'
'soccer_'
'okbut_'
'burg_'
'alamo_'
'ky_'
'il_'
'dale_'
'playground_'
'bug_'
'shares_'
'hk_'
'disco_'
'oversized_'
'cliffs_'
' .'
'weary_'
'hhonors_'
'ferries_'
'version_'
'matters_'
'ard_'
'fries_'
'dual_'
'metal_'
'leg_'
'bruges_'
'arm_'
'tender_'
'nearer_'
'independent_'
'washroom_'
'fussy_'
'faded_'
'roundabout_'
'arrivals_'
'scary_'
'riu_'
'overcooked_'
'32_'
'spoken_'
'buzz_'
'walkways_'
'moderately_'
'hangers_'
'painting_'
'temperatures_'
'oslo_'
'zealand_'
'robe_'
'investment_'
'aircraft_'
'enjoyment_'
'sweets_'
'salzburg_'
'raised_'
'granola_'
'drops_'
'domestic_'
'won_'
'realise_'
'lunchtime_'
'loyal_'
'gap_'
'boot_'
'answering_'
'minded_'
'membership_'
'user_'
'spoil_'
'majestic_'
'hired_'
'reward_'
'perspective_'
'parliament_'
'outrageous_'
'lie_'
'dire_'
'thames_'
'sands_'
'jams_'
'expedia_'
'restricted_'
'mat_'
'smack_'
'regard_'
'!. _'
'reflect_'
'pampered_'
'ould_'
'10min_'
' — _'
'memphis_'
'ide_'
'geared_'
'explaining_'
'exceedingly_'
'broke_'
'annoyed_'
'virginia_'
'ro_'
'represents_'
'couches_'
'confirm_'
'volume_'
'connectivity_'
'animal_'
'irritating_'
'exec_'
'00pm_'
'shortly_'
'press_'
'parador_'
'marine_'
'capacity_'
'tag_'
'si_'
'shortage_'
'partially_'
'lly_'
'staybridge_'
'lavish_'
'knock_'
'monkeys_'
'2017_'
'apparent_'
'anybody_'
'ann_'
'timeshare_'
'necessarily_'
'hut_'
'atmospheric_'
'stellar_'
'handling_'
'waterpark_'
' ), _'
'turndown_'
'lousy_'
'faucet_'
'phuket_'
'goodies_'
'claustrophobic_'
'wheel_'
'quarters_'
'informal_'
'duvets_'
'assistant_'
'tatty_'
'snorkeling_'
'secondly_'
'asheville_'
'signature_'
'correctly_'
'surly_'
'ans_'
'seville_'
'revisit_'
'becoming_'
'barking_'
'nh_'
'frame_'
'flexible_'
'queues_'
'performance_'
'midway_'
'fed_'
'breaks_'
'push_'
'fortune_'
'creative_'
'winding_'
'respond_'
'm6_'
'considerate_'
'clothing_'
'claim_'
'diving_'
'soda_'
'philadelphia_'
' @ _'
'villages_'
'pullman_'
'backs_'
'adelaide_'
'15th_'
'lighted_'
'ipad_'
'solved_'
'greenery_'
'emergency_'
'thereand_'
'thailand_'
'hotwire_'
'glazed_'
'boulder_'
'began_'
'kensington_'
'grassy_'
'cabinet_'
'button_'
'tampa_'
'palms_'
'mosquito_'
'ipod_'
'halfway_'
'di_'
'asleep_'
'seek_'
'presence_'
'daytime_'
'boulevard_'
'partly_'
'pantry_'
'ihop_'
'a1_'
';_'
'yoga_'
'economical_'
'bass_'
'sincere_'
'sidewalk_'
'pine_'
'penn_'
'mission_'
'deserted_'
'yosemite_'
'phoned_'
'kick_'
'ga_'
'consists_'
'tim_'
'confirmation_'
'clearing_'
'benedict_'
'vineyards_'
'sterile_'
'sfo_'
'plantation_'
'mere_'
'accepted_'
'jewel_'
'stepping_'
'satisfy_'
'sale_'
'osaka_'
'blow_'
'test_'
'taps_'
'nicethe_'
'germany_'
'galway_'
'explanation_'
'caribbean_'
'upkeep_'
'stored_'
'plunge_'
'lowest_'
'jersey_'
'jack_'
'squeaky_'
'mouth_'
'mains_'
'grilled_'
'esp_'
'canadian_'
' ( £ _'
'tavern_'
'slides_'
'refilled_'
'princess_'
'understated_'
'meter_'
'antiques_'
'airconditioning_'
'sensitive_'
'greater_'
'springfield_'
'roaring_'
'payment_'
'success_'
'exhausted_'
' ! ! ! ! !_'
'soul_'
'scottsdale_'
'fountains_'
'creaky_'
'ke_'
'ti_'
'plant_'
'eclectic_'
'sophisticated_'
'petrol_'
'ul_'
'sing_'
'notre_'
'gal_'
'eats_'
'abu_'
'$_'
'war_'
'moscow_'
'aging_'
'wal_'
'landmark_'
'ive_'
'electronics_'
'hung_'
'upset_'
'nite_'
'loo_'
'likewise_'
'invited_'
'fox_'
'necessities_'
'freindly_'
'belfast_'
'thanksgiving_'
'modernised_'
'mills_'
'den_'
'considerably_'
'chester_'
'vacuumed_'
'mom_'
'edible_'
'buzzing_'
'favorites_'
'sharp_'
'pulling_'
'ottoman_'
'neighbor_'
'sorrento_'
'gloomy_'
'approached_'
'18th_'
'climbing_'
'bs_'
'bicycles_'
' , , _'
'soulless_'
'law_'
'cycling_'
'tin_'
'privilege_'
'discounts_'
'ideas_'
'craft_'
'14th_'
'verandah_'
'tents_'
'restuarants_'
'exposed_'
'compliments_'
'cave_'
'bored_'
'seeking_'
'ports_'
'intend_'
'ying_'
'reunion_'
'finger_'
'wales_'
'sport_'
'quietly_'
'omni_'
'homes_'
'tom_'
'produced_'
'flies_'
'ongoing_'
'ambassador_'
'yorkshire_'
'teenagers_'
'delta_'
'crash_'
'resolve_'
'popped_'
'overhaul_'
'mike_'
'kansas_'
'installed_'
'durham_'
'lose_'
'attractively_'
'shallow_'
'riverfront_'
'refurbishing_'
'rave_'
'hikes_'
'biking_'
'grumpy_'
'calgary_'
'alike_'
'remarkably_'
'sq_'
'gran_'
'boards_'
'banana_'
'sam_'
'ruined_'
'legs_'
'10mins_'
'sacramento_'
'nav_'
'monica_'
'seoul_'
'military_'
'acknowledged_'
'valets_'
'surround_'
'respite_'
'oriental_'
'makers_'
'loaded_'
'jumping_'
'feed_'
'moon_'
'mi_'
'imperial_'
'homeless_'
'enhanced_'
'depends_'
'slowly_'
'reflected_'
'airport'
'unsafe_'
'showering_'
'med_'
'indicated_'
'ell_'
'dfw_'
'costly_'
'suburbs_'
'parade_'
'commute_'
'automatic_'
'queenstown_'
'alaska_'
'swing_'
'stable_'
'fireplaces_'
'covering_'
'platter_'
'overcrowded_'
'louisville_'
'ikea_'
'ded_'
'colorful_'
'btw_'
'bob_'
'bin_'
'soundproof_'
'sensational_'
'recall_'
'outer_'
'dome_'
'abbey_'
'foreign_'
'dress_'
'angeles_'
'vent_'
'sick_'
'ohio_'
'message_'
' ] _'
'makeup_'
'grown_'
'alcoholic_'
'isle_'
'finishes_'
'ending_'
'arizona_'
'arch_'
'strangely_'
'zed_'
'tahoe_'
'moldy_'
'compliment_'
'4'
'reflects_'
'mo_'
'detailed_'
'ammenities_'
'extreme_'
'skytrain_'
'element_'
'supposedly_'
'kit_'
' ? )_'
'wishing_'
'runway_'
'mon_'
'bunk_'
'areaso_'
'squeeze_'
'sol_'
'li_'
'gondola_'
'flavour_'
'switches_'
'physical_'
'empire_'
'dhabi_'
'chalets_'
'10'
'rio_'
'honor_'
'fro_'
'coffeemaker_'
'win_'
'thrown_'
'quest_'
'patong_'
'nuts_'
'fame_'
'wrote_'
'ducks_'
'– _'
'recomend_'
'mixture_'
'ments_'
'gorge_'
'gare_'
'somebody_'
'rank_'
'q'
'materials_'
'core_'
'sells_'
'ramblas_'
'piping_'
'pad_'
'gear_'
'daylight_'
'costco_'
'seaview_'
'repairs_'
'facade_'
'circumstances_'
'understood_'
'stuffed_'
'shady_'
'consistency_'
'burning_'
'branded_'
'architectural_'
'model_'
'blast_'
'tariff_'
'honesty_'
'georgetown_'
'dates_'
'straightforward_'
'refreshments_'
'buying_'
'variable_'
'tacky_'
'polished_'
'happier_'
'eatery_'
'caution_'
'video_'
'supervisor_'
'shelves_'
'monaco_'
'medieval_'
'matched_'
'hostel_'
'chapel_'
'buffett_'
'bridges_'
'sidewalks_'
'ina_'
'defiantly_'
'trailer_'
'smiley_'
'ho_'
'fat_'
'anticipated_'
'suggesting_'
'safely_'
'comfortableand_'
'ripped_'
'quebec_'
'hubby_'
'caravan_'
'broad_'
'student_'
'renovating_'
'promise_'
'jakarta_'
'equal_'
'suburb_'
'staybut_'
'affect_'
'19th_'
'0'
'williamsburg_'
'ticks_'
'televisions_'
'practice_'
'fitting_'
'confusion_'
'adjustable_'
'unforgettable_'
'strawberries_'
'maine_'
'error_'
')._'
'townso_'
'paintings_'
'mentioning_'
' ( # _'
'narita_'
'kingdom_'
'hare_'
'halifax_'
'growing_'
'relations_'
'opulent_'
'ingly_'
'freeways_'
'cy_'
'comparing_'
'areaand_'
'valued_'
'mediterranean_'
'lanes_'
'settings_'
'nibbles_'
'lime_'
'landed_'
'grande_'
'finishing_'
'breakfastand_'
'lexington_'
'biltmore_'
'esplanade_'
'barrier_'
'award_'
'were'
'preferences_'
'monterey_'
'rules_'
'damage_'
' , $ _'
'unobtrusive_'
'signed_'
'shaded_'
'royalty_'
'm1_'
'explored_'
'dulles_'
'numbered_'
'developed_'
'corrected_'
' :) _'
'silly_'
'napa_'
'approachable_'
'17th_'
'switzerland_'
'resulted_'
'oceanfront_'
'insisted_'
'bury_'
'albany_'
'utah_'
'drawbacks_'
'technology_'
'sprawling_'
'penthouse_'
'od_'
'awhile_'
'ary_'
' " ( _'
'sanctuary_'
'himself_'
'hershey_'
'elephant_'
'easiest_'
'backwards_'
'tucson_'
'soothing_'
'rid_'
'reykjavik_'
'displayed_'
'cleanthe_'
'21st_'
'tic_'
'cappuccino_'
'pathetic_'
'martin_'
'knocked_'
'gentle_'
'detract_'
'carolina_'
'bowls_'
'110_'
' " - _'
'uniformly_'
'oldest_'
'melia_'
'manageable_'
'extend_'
'cloths_'
'upside_'
'staffing_'
'ranch_'
'pretentious_'
'jan_'
'inches_'
'fold_'
'flavor_'
'enthusiasm_'
'darling_'
'+_'
'uneven_'
'hamilton_'
'greasy_'
'galleries_'
'deserved_'
'cushions_'
'ws_'
'lighthouse_'
'inspiring_'
'frank_'
'diverse_'
'rim_'
'holding_'
'comfortablethe_'
'shouting_'
'rundown_'
'reminds_'
'negotiate_'
'jogging_'
'generously_'
'disinterested_'
'crockery_'
'celebrating_'
'sweeping_'
'roughly_'
'lle_'
'leeds_'
'jo_'
'ette_'
'roman_'
'radiator_'
'pod_'
'lo_'
'splurge_'
'settle_'
'moments_'
'lies_'
'daughters_'
'camping_'
'risk_'
'reply_'
'linked_'
'inedible_'
'horn_'
'sufficiently_'
'skipped_'
'sirens_'
'requesting_'
'placeand_'
'personalized_'
'mekong_'
'unhappy_'
'theatres_'
'smoky_'
'op_'
'dodgy_'
'winery_'
'pc_'
'vip_'
'newish_'
'hereand_'
'auto_'
'appalling_'
'sixth_'
'shutters_'
'kimpton_'
'ise_'
'featuring_'
'tends_'
'styled_'
'desperately_'
'designated_'
'considerable_'
' . - _'
'roadside_'
'liberty_'
'greatthe_'
'disadvantage_'
'device_'
'breakfast'
'borrow_'
'banff_'
'auckland_'
'accordingly_'
'x'
'platz_'
'pharmacy_'
'ning_'
'countries_'
'airplane_'
'sporting_'
'porters_'
'organic_'
'lima_'
'greatbut_'
'fight_'
'closets_'
'au_'
'wellington_'
'sourced_'
'scattered_'
'favor_'
'excursion_'
'cotton_'
'searching_'
'hitting_'
'film_'
'blocking_'
'baltimore_'
'arcade_'
' = _'
'underwhelming_'
'neck_'
'maintaining_'
'lions_'
'fake_'
'walkers_'
'ballroom_'
'aberdeen_'
'ottawa_'
'leaked_'
'holder_'
'recognize_'
'delays_'
'danish_'
'ating_'
'wc_'
'sheer_'
'refill_'
'dryers_'
'congress_'
'waterloo_'
'ticked_'
'nightand_'
'mushrooms_'
'kms_'
'ignore_'
'teh_'
'passengers_'
'messy_'
'elephants_'
'20th_'
'unnecessary_'
'shining_'
'primary_'
'outs_'
'lanka_'
'hash_'
'folk_'
'8'
' ? ) ._'
'fail_'
'townand_'
'temporary_'
'perched_'
'declined_'
'cutting_'
'burn_'
'spirits_'
'sour_'
'riad_'
'cafeteria_'
'backed_'
'angel_'
'wooded_'
'impress_'
'generic_'
'rugby_'
'undercover_'
'supportive_'
'operating_'
'iconic_'
'hint_'
'digital_'
'candy_'
'vey_'
'okaybut_'
'jasper_'
'discreet_'
'toll_'
'rely_'
'rectified_'
'pearl_'
'nine_'
'niggles_'
'hanoi_'
'echo_'
'duration_'
'bones_'
'dump_'
'comp_'
'slip_'
'rue_'
'lancaster_'
'flooded_'
'fjord_'
'dreary_'
'stiff_'
'slick_'
'pan_'
'detroit_'
'cloth_'
'cedar_'
'blend_'
'beats_'
'westerns_'
'unloading_'
'coral_'
'constructed_'
'bins_'
'ratio_'
'notes_'
'nightclub_'
'manned_'
'individually_'
'trick_'
'instance_'
'harder_'
'guesthouse_'
'ure_'
'pitch_'
'nervous_'
'elevated_'
'brighton_'
'experienceand_'
'dispensers_'
'cloud_'
'browns_'
'applebee_'
'36_'
'--_'
'wyndham_'
'slopes_'
'coverage_'
'busier_'
'bathing_'
'sons_'
'prince_'
'password_'
'15'
' ) !_'
'worker_'
'wearing_'
'drunk_'
'decorating_'
'blew_'
'yoghurts_'
'collected_'
'annexe_'
'airports_'
'indigo_'
'frontage_'
'areabut_'
'64_'
'versus_'
'struck_'
'elegantly_'
'beams_'
'veggie_'
'restocked_'
'ranging_'
'prevent_'
'laps_'
'floating_'
'chap_'
'3'
'130_'
'vegetarians_'
'suffer_'
'saves_'
'repaired_'
'medina_'
'lying_'
'economy_'
' !( _'
'paddington_'
'hamburg_'
'graduation_'
'divided_'
'coconut_'
'spirit_'
'grabbed_'
'golfers_'
'energetic_'
'centres_'
'attract_'
'project_'
'patties_'
'loading_'
'conclusion_'
'clarion_'
'busses_'
'wrap_'
'plymouth_'
'ff_'
'exact_'
'classical_'
'cal_'
'bizarre_'
'ala_'
'horrendous_'
'der_'
'worries_'
'treasure_'
'intermittent_'
'incl_'
'electricity_'
'cvs_'
'classes_'
'ance_'
'tomato_'
'tide_'
'patchy_'
'idyllic_'
'ging_'
'danube_'
'cherry_'
'bicycle_'
'wendy_'
'pavilion_'
'ownership_'
'noting_'
'connects_'
'ze_'
'windsor_'
'represented_'
'imposing_'
'custom_'
'colourful_'
'smiled_'
'shower'
'russian_'
'rainforest_'
'entertained_'
'stratford_'
'service'
'louise_'
'grandeur_'
'desirable_'
'trays_'
'alex_'
'representative_'
'newark_'
'instantly_'
'coin_'
'acted_'
'incident_'
'evidence_'
'25'
'za_'
'lovers_'
'helpful'
'cancel_'
'600_'
'whoever_'
'ties_'
'sublime_'
'letter_'
'je'
'ir_'
'ged_'
'dawn_'
'hourly_'
'commend_'
'chili_'
'capable_'
'bologna_'
'42_'
'us'
'unfailingly_'
'theaters_'
'rep_'
'remind_'
'rapid_'
'ner_'
'ist_'
'creating_'
'acknowledge_'
' ! ! _'
'slot_'
'nelson_'
'henry_'
'gentlemen_'
'barn_'
'backside_'
'2018_'
'refrigerators_'
'niagara_'
'estuary_'
'botanical_'
'assisting_'
' , ._'
'roomso_'
'reno_'
'pudong_'
'door'
'verall_'
'utterly_'
'containing_'
'whereas_'
'shed_'
'preparing_'
'leaking_'
'definetly_'
'cuba_'
'shinjuku_'
'official_'
'breakfastbut_'
'unremarkable_'
'sleepers_'
'pp_'
'pointing_'
'carmel_'
'astoria_'
'splash_'
'excellant_'
'deskand_'
'bbc_'
'weekday_'
'mesa_'
'fuel_'
'armchairs_'
'31_'
'reccomend_'
'reaching_'
'presumably_'
'portsmouth_'
'pleasent_'
'packages_'
'om_'
'flash_'
'dlr_'
'clinic_'
'cincinnati_'
'piccadilly_'
'housing_'
'ex_'
'damaged_'
'cornwall_'
'wn_'
'wilderness_'
'someplace_'
'minneapolis_'
'intended_'
'cork_'
'ah_'
'12'
'timem_'
'til_'
'possibility_'
'kowloon_'
'pits_'
'kl_'
'fluent_'
'appointment_'
'acres_'
'rib_'
'misleading_'
'mandarin_'
'force_'
'counters_'
'configuration_'
'breakfastthe_'
'"_'
'wondering_'
'regional_'
'microwaves_'
'australian_'
'unreliable_'
'stay'
'impact_'
'hide_'
'fairness_'
'brook_'
'15min_'
'usable_'
'tly_'
'there'
'ther_'
'spotted_'
'of'
'77_'
'yo'
'vacuum_'
'goa_'
'clean'
'bulbs_'
'tier_'
'passable_'
'boasts_'
'grub_'
'tissues_'
'systems_'
'itbut_'
'distances_'
'desks_'
'bart_'
'nts_'
'monastery_'
'jfk_'
'horses_'
'settee_'
'picks_'
'nightbut_'
'imaginative_'
'heaps_'
'engaged_'
'emirates_'
'annoyance_'
'accessing_'
'winds_'
'rained_'
'gatwick_'
'50'
'replenish_'
'quicker_'
'operator_'
'flowing_'
'cellar_'
'shiny_'
'pouring_'
'noisey_'
'hardwood_'
'croissant_'
'bubbly_'
'anne_'
'accident_'
'whale_'
'myrtle_'
'departed_'
'buck_'
' , '
'styles_'
'scent_'
'relation_'
'purely_'
'liquid_'
'heaters_'
'drying_'
'congratulations_'
'are'
'vegetable_'
'shirt_'
'raise_'
'pleasurable_'
'partake_'
'loves_'
'limo_'
'humour_'
'chi_'
'accross_'
'sukhumvit_'
'revamp_'
'bergen_'
'barbecue_'
'area'
'andall_'
'albuquerque_'
'admittedly_'
'accessories_'
'honey_'
'contains_'
'bidet_'
'marginal_'
'kandy_'
'encourage_'
'bryce_'
'brighter_'
'associate_'
'allergies_'
'30'
'1000_'
'shaving_'
'platform_'
'gain_'
'compensated_'
'afforded_'
'vietnam_'
'santiago_'
'redecorated_'
'pullout_'
'organise_'
'meridien_'
'conrad_'
'anchorage_'
'za'
'sensible_'
'mai_'
'hurricane_'
'critical_'
'compound_'
'comfortable'
'yesterday_'
'strolling_'
'cooled_'
'wondered_'
'prosecco_'
'powder_'
'circus_'
'affected_'
'800_'
'teenage_'
'sonoma_'
'solve_'
'predictable_'
'muffin_'
'lifetime_'
'39_'
'seedy_'
'sections_'
'philly_'
'everytime_'
'apologies_'
'2'
'upbeat_'
'snorkelling_'
'quietness_'
'kfc_'
'exiting_'
'excel_'
'60'
'slope_'
'page_'
'outgoing_'
'difficulties_'
'content_'
'andyou_'
'refrig_'
'orchard_'
'ong_'
'automatically_'
'ue_'
'rooms'
'problematic_'
'nj_'
'mont_'
'million_'
'hosted_'
'feeding_'
'cabanas_'
'brisk_'
'andwhen_'
'servicing_'
'locks_'
'exits_'
'emptied_'
'pipes_'
'mineral_'
'haul_'
'champs_'
'alexandria_'
'accomodate_'
'humidity_'
'continually_'
'bagel_'
'absence_'
'mad_'
'jetty_'
'greens_'
'enjoys_'
'cotswolds_'
'conducive_'
'unbearable_'
'park'
'expects_'
'ces_'
'bliss_'
'180_'
'unsure_'
'threadbare_'
'pressed_'
'pike_'
'hugely_'
'hoteli_'
'hawaii_'
'exhaust_'
'proactive_'
'prepaid_'
'leak_'
'equivalent_'
'dutch_'
'disturbance_'
'delights_'
'cooperative_'
'jordan_'
'feast_'
'burnt_'
'stalls_'
'specialty_'
'slots_'
'respectful_'
'reminiscent_'
'questionable_'
'macau_'
'ceremony_'
'buti_'
'airportand_'
'advantages_'
'stark_'
'sizeable_'
'roadand_'
'knocking_'
'drawn_'
'dependable_'
'touristic_'
'tissue_'
'rushmore_'
'random_'
'krakow_'
'depot_'
'thomas_'
'maximum_'
'ler_'
'lengthy_'
'compensate_'
'bed'
'2010_'
'tivoli_'
'silverware_'
'rm_'
'milwaukee_'
'elizabeth_'
'elaborate_'
' : -_'
'death_'
'daniel_'
'cricket_'
'condos_'
'cava_'
'recommendable_'
'ow_'
'fridges_'
'clever_'
'brilliantly_'
'tells_'
'scruffy_'
'patios_'
'on'
'grills_'
'delivering_'
'ncp_'
'guards_'
'exotic_'
'west'
'weekdays_'
'timing_'
'res_'
'muscat_'
'modernized_'
'insufficient_'
'housed_'
'highlands_'
'gigantic_'
'brother_'
'blood_'
'midweek_'
'gather_'
'finebut_'
'25th_'
'tions_'
'reports_'
'feb_'
'cleanbut_'
'chlorine_'
'battery_'
'20'
'takeaway_'
'taco_'
'suffered_'
'quibble_'
'patrick_'
'logan_'
'lar'
'i95_'
'furthest_'
'bre'
'armchair_'
'arches_'
'socks_'
'safeway_'
'oom_'
'ight_'
'carriage_'
'angle_'
'tony_'
'packaged_'
'niggle_'
'itthe_'
'dy_'
'breaking_'
'yand_'
'waitstaff_'
'statue_'
'shores_'
'ontario_'
'omaha_'
'ied_'
'ei'
'compensation_'
'suggests_'
'souvenir_'
'pizzas_'
'norway_'
'ld_'
'hood_'
'waterfalls_'
'unlikely_'
'salamanca_'
'rugs_'
'minuses_'
'departures_'
'como_'
'unusable_'
'tra'
'rhine_'
'receipt_'
'alhambra_'
'wasted_'
'rosa_'
'nc_'
'inform_'
'denali_'
'closeby_'
'tes_'
'pair_'
'painfully_'
'mature_'
'kill_'
'gambling_'
'deserts_'
'back'
'sorting_'
'smallbut_'
'fills_'
'eurostar_'
'amusement_'
'advertise_'
'rocking_'
'notable_'
'ngs_'
'io_'
'hh_'
'glory_'
'blind_'
'and'
'5min_'
'stressful_'
'spas_'
'rooftops_'
'laugh_'
'harvester_'
'fair'
'expo_'
'ery_'
'ele'
'causing_'
'cambria_'
'culinary_'
'beneath_'
'thermal_'
'slice_'
'myanmar_'
'moreover_'
'manila_'
'grandson_'
'dra'
'dand_'
'coffe_'
'cabana_'
'afternoons_'
'84_'
'william_'
'by'
'renting_'
'rambla_'
'fl_'
'closeness_'
'identical_'
'ginza_'
'extensively_'
'duke_'
'diet_'
'contrary_'
'coke_'
'cody_'
'steve_'
'dolphin_'
'busiest_'
'70s_'
'spokane_'
'southwest_'
'rushing_'
'requiring_'
'qui'
'porto_'
'nile_'
'joint_'
'j'
'fence_'
'andbreakfast_'
'6'
'scandinavian_'
'overflow_'
'mosquitoes_'
'inclined_'
'inc_'
'hopping_'
'honored_'
'greets_'
'drug_'
'autumn_'
'way'
'warren_'
'ves_'
'salon_'
'rust_'
'papers_'
'handful_'
'draft_'
'depart_'
'concierges_'
'causeway_'
'struggling_'
'nice'
'flair_'
'cod_'
'socket_'
'singer_'
'resulting_'
'repeated_'
'lean_'
'dj_'
'congestion_'
'bellmen_'
'ome_'
'ola_'
'invest_'
'hooks_'
'cans_'
'basel_'
'whisky_'
'vatican_'
'squares_'
'raleigh_'
'organisation_'
'league_'
'associates_'
'amtrak_'
'with'
'walkand_'
'understandable_'
'surfaces_'
'soi_'
'roma_'
'introduction_'
'distinct_'
'airlines_'
'accessibility_'
'wellness_'
'source_'
'rug_'
'mushroom_'
'den'
'tradition_'
'tiring_'
'task_'
'surfers_'
'shoe_'
'satellite_'
'progress_'
'ok'
'ng'
'ki_'
'ka'
'jewish_'
'horns_'
' ......._'
'tte_'
'rentals_'
'powdered_'
'passage_'
'meticulously_'
'justify_'
'hurt_'
'closely_'
'characters_'
'canals_'
'branson_'
' )- _'
'softer_'
'rer_'
'interactions_'
'cheesecake_'
'aff_'
'subject_'
'sherry_'
'sha'
'ry'
'polish_'
'ord_'
'inexperienced_'
'ible_'
'ght_'
'extraordinarily_'
'ence_'
'coupled_'
'trader_'
'shine_'
'quit_'
'palma_'
'canteen_'
'ben'
'80'
'wells_'
'warn_'
'vineyard_'
'thankful_'
'reap_'
'racing_'
'onsen_'
'oaks_'
'montana_'
'limit_'
'effectively_'
'carpeted_'
'70'
'rolled_'
'rick_'
'restaraunt_'
'nuisance_'
'miraflores_'
'marie_'
'hacienda_'
'goodness_'
'wayne_'
'unprofessional_'
'players_'
'cnn_'
'cats_'
'15mins_'
'siem_'
'lol_'
'laying_'
'iphone_'
'helpfuland_'
'funeral_'
'animation_'
'48_'
'time'
'politely_'
'managing_'
'icing_'
'cutter_'
'blackpool_'
'balls_'
'89_'
'wan_'
'undoubtedly_'
'sundays_'
'stra'
'sofia_'
'shell_'
'roaming_'
'red'
'gs_'
'star'
'stanley_'
'motorcycles_'
'entrees_'
'rochester_'
'ray_'
'hin_'
'georgia_'
'father_'
'adjusted_'
' ? ? ?_'
'wolf_'
'prawns_'
'periods_'
'oranges_'
'moroccan_'
'headboard_'
'flags_'
'facial_'
'chattanooga_'
'andrew_'
'fisherman_'
'5'
'showerhead_'
'rubber_'
'quoted_'
'mer'
'here'
'extent_'
'dorm_'
'cheerfully_'
'160_'
'uptown_'
'ret'
'locationand_'
'justice_'
'hook_'
'hits_'
'heck_'
'anna_'
'scandic_'
'procedure_'
'presidential_'
'mississippi_'
'man'
'locker_'
'haddock_'
'140_'
'quiet'
'pineapple_'
'mercedes_'
'lauderdale_'
'iced_'
'helsinki_'
'graciously_'
'flavours_'
'benches_'
'wrapped_'
'successful_'
'speeds_'
'shrimp_'
'positively_'
'permit_'
'hunting_'
'brew_'
'wider_'
'rule_'
'nanjing_'
'landmarks_'
'itinerary_'
'exist_'
' . . ._'
'therebut_'
'sy_'
'record_'
'processed_'
'pre'
'norfolk_'
'granada_'
'flu'
'world'
'shock_'
'shampoos_'
'races_'
'killarney_'
'jacksonville_'
'grim_'
'cot_'
'bedded_'
'welcomes_'
'usand_'
'rad'
'quietest_'
'hua_'
'glance_'
'dissapointed_'
'buenos_'
'ber'
'tt_'
'swan_'
'register_'
'pics_'
'nu'
'frequented_'
'reflection_'
'preparation_'
'native_'
'lick_'
'een_'
'breaker_'
'boise_'
'bathroom'
'upto_'
'towneplace_'
'scallops_'
'rowdy_'
'roadhouse_'
'pin_'
'lands_'
'kingsize_'
'ki'
'erratic_'
'dunkin_'
'copy_'
'beforehand_'
'yacht_'
'timei_'
'infrastructure_'
'improving_'
'ial_'
'goodi_'
'eleven_'
'commended_'
'charger_'
'apologised_'
' !, _'
'waits_'
'ss'
'specious_'
'shu'
'queries_'
'operates_'
'nar'
'hell_'
'crack_'
'chiang_'
'boots_'
'attempts_'
'appetizer_'
'.(_'
'stair_'
'roadso_'
'pigeon_'
'overseas_'
'crispy_'
'crashing_'
'cent_'
'avail_'
'attic_'
'ably_'
'tgi_'
'soundproofed_'
'salty_'
'publix_'
'lin_'
'downfall_'
'dolphins_'
'admire_'
'wetherspoons_'
'nightstand_'
'lone_'
'korean_'
'aires_'
'9'
'wishes_'
'streetso_'
'sti'
'serenity_'
'ore_'
'fronts_'
'faults_'
'eden_'
'blame_'
'town'
'laquinta_'
'introduced_'
'hosting_'
'floor'
'fantastically_'
'eand_'
'delightfully_'
'day'
'chargeable_'
'bites_'
'94_'
'125_'
'shorter_'
'ria_'
'pocket_'
'lee_'
'inverness_'
'human_'
'harry_'
'for'
'dar'
'conscious_'
'cardiff_'
'burlington_'
'ations_'
'assorted_'
'watering_'
'ses_'
'satnav_'
'remaining_'
'ni'
'needle_'
'm5_'
'luang_'
'ara_'
'slc_'
'rod_'
'rabbit_'
'panama_'
'northwest_'
'moines_'
'dramatic_'
'westfield_'
'spicy_'
'plasma_'
'place'
'judge_'
'hats_'
'corn_'
'bagan_'
'alto_'
'adventures_'
'401_'
'' _'
'warsaw_'
'seasonal_'
'neighborhoods_'
'ges_'
'ct_'
'41_'
' ) & _'
'warmed_'
'malaga_'
'knoxville_'
'joints_'
'horizon_'
'favour_'
'dear_'
'cruises_'
'cdg_'
'boutiques_'
' ........_'
'sticks_'
'small'
'ir'
'frayed_'
'decorative_'
'calming_'
'assuming_'
'16'
' ( '
'standout_'
'road'
'restroom_'
'reluctant_'
'raw_'
'prison_'
'mud_'
'hotelit_'
'communicate_'
'cemetery_'
'assumed_'
'1970_'
'vo'
'tomatoes_'
'tan_'
'observation_'
'fridays_'
'duval_'
'candlewood_'
'swiftly_'
'olde_'
'luxe_'
'glimpse_'
'dial_'
'charlie_'
'candles_'
'abrupt_'
'£ _'
'yr_'
'warehouse_'
'sole_'
'saigon_'
'organising_'
'operations_'
'hbo_'
'gloucester_'
'food'
'cuisines_'
'bazaar_'
'44_'
'winning_'
'vietnamese_'
'soooo_'
'restaurants'
'nairobi_'
'louvre_'
'lisa_'
'lesson_'
'insist_'
'flushing_'
'faint_'
'bath'
'anxious_'
'agency_'
'abound_'
'80s_'
'17'
'ya'
'sheep_'
'ously_'
'nowadays_'
'backdrop_'
'tooth_'
'requirement_'
'pump_'
'nottingham_'
'nooks_'
'ms'
'laguna_'
'interact_'
'ghost_'
'edmonton_'
'dunedin_'
'creates_'
'camera_'
'transferred_'
'rainfall_'
'noodles_'
'mum_'
'lat'
'hated_'
'covent_'
'bedspread_'
'avoiding_'
'americans_'
'59_'
'33_'
'youth_'
'elk_'
'containers_'
'th'
'streetand_'
'shocking_'
'sand'
'parking'
'fixing_'
'amidst_'
'aimed_'
' " . _'
'waldorf_'
'results_'
'ini_'
'areathe_'
'42'
'utilized_'
'judging_'
'fabric_'
'unwelcoming_'
'thoughtfully_'
'ort_'
'norwich_'
'ily_'
'extractor_'
'convent_'
'chase_'
'beds'
'receptions_'
'manages_'
'lyon_'
'fre'
'down'
'director_'
'camino_'
'butit_'
'bellevue_'
'appropriately_'
'warwick_'
'users_'
'striking_'
'sited_'
'reduce_'
'ped_'
'patience_'
'ns'
'movement_'
'dislike_'
'dad_'
'comforters_'
'airplanes_'
'49_'
'yo_'
'whistle_'
'tor'
'stupid_'
'steel_'
'slam_'
'rs'
'roomi_'
'increase_'
'hotter_'
'ear'
'caves_'
'brush_'
'br_'
'behaved_'
'vely_'
'thomson_'
'tank_'
'session_'
'muesli_'
'hawaiian_'
'fry_'
'arrives_'
'alo'
'walgreens_'
'termini_'
'sofabed_'
'shortcomings_'
'richard_'
'nightcap_'
'mega_'
'clogged_'
'backyard_'
'adorable_'
' ” ._'
'wandered_'
'venetian_'
'souvenirs_'
'sailing_'
'rom_'
'pound_'
'over'
'nap_'
'freshen_'
'flaw_'
'crammed_'
'buta_'
'belongings_'
'bathrobe_'
'alpine_'
'rica_'
'responsible_'
'o2_'
'maui_'
'immensely_'
'grandchildren_'
'fro'
'es'
'discovery_'
'dan_'
'continuously_'
'competitors_'
'cancellation_'
'arlington_'
'79_'
'styling_'
'sliced_'
'purple_'
'm4_'
'ji'
'freshener_'
'experiencing_'
'ultimate_'
'street'
'stairwell_'
'sco'
'rusty_'
'pe_'
'kin'
'ked_'
'groupon_'
'canary_'
'sipping_'
'see'
'overdue_'
'married_'
'ering_'
'churches_'
'chelsea_'
'cabinets_'
'you'
'watery_'
'snug_'
'serena_'
'precinct_'
'noise'
'malta_'
'jog_'
'jaipur_'
'int_'
'festive_'
'age'
'adi'
'unexpectedly_'
'ultimately_'
'image_'
'globe_'
'expanded_'
'established_'
'claimed_'
'bearing_'
'baht_'
'41'
'38_'
'13th_'
'yen_'
'que'
'proofed_'
'paved_'
'night'
'luxembourg_'
'enroute_'
'yelling_'
'ventured_'
'naturally_'
'material_'
'inquired_'
'aqua_'
'use'
'united_'
'panorama_'
'franz_'
'beverly_'
'bc_'
'bar'
' ; - _'
'routine_'
'powered_'
'partying_'
'nia_'
'nes_'
'neglected_'
'mayo_'
'clue_'
'clo'
'caliber_'
'veggies_'
'slices_'
'roadbut_'
'repetitive_'
'pricier_'
'polo_'
'notified_'
'no'
'ku'
'greenville_'
'gifts_'
'fyi_'
'cigar_'
'bands_'
'toothbrush_'
'staff'
'recreation_'
'onward_'
'hand'
'del'
'bangalore_'
'atlantis_'
'ari'
'ty'
'tonight_'
'rest'
'repeatedly_'
'privileges_'
'michelle_'
'measure_'
'cairo_'
'23'
'touched_'
'protected_'
'ja_'
'hobart_'
'doctor_'
'coastline_'
'chaise_'
'applebees_'
'als_'
'ubud_'
'tomorrow_'
'thoroughfare_'
'stressed_'
'hudson_'
'hix_'
'crescent_'
'confidence_'
'cigarettes_'
'butnot_'
'brightly_'
'ybut_'
'sarah_'
'restaurant'
'replenishing_'
'portugal_'
'photographs_'
'paso_'
'd'
'cation_'
'truth_'
'science_'
'r'
'profile_'
'ponds_'
'outfitted_'
'neutral_'
'fog_'
'characterful_'
'bon'
'ace_'
'values_'
'rv_'
'preserved_'
'peru_'
'passport_'
'inspired_'
'iest_'
'hiltons_'
'guessing_'
'gray_'
'billing_'
'11'
'uninviting_'
'trafalgar_'
'labor_'
'had'
'flagstaff_'
'faulty_'
'continuing_'
'also'
'69_'
'34_'
'southbank_'
'morning'
'merely_'
'joining_'
'drier_'
'beachside_'
'audible_'
'airportso_'
'ythe_'
'vendors_'
'study_'
'sheffield_'
'refined_'
'protein_'
'planet_'
'owever_'
'lq_'
'ing'
'hilly_'
'gravel_'
'blessing_'
'alive_'
'whistles_'
'syracuse_'
'speciality_'
'princes_'
'ju'
'inthe_'
'coffee'
'bills_'
'attentiveness_'
'alas_'
'agents_'
'accustomed_'
'work'
'was'
'under'
'ries_'
'resting_'
'portable_'
'passion_'
'new'
'golfing_'
'ervice_'
'dave_'
'burned_'
'bordeaux_'
'battle_'
'attracts_'
'andstaff_'
'williams_'
'stylishly_'
'pad'
'lite_'
'ko_'
'isolation_'
'insects_'
'ba'
'acts_'
'405_'
'verde_'
'unavailable_'
'unattractive_'
'steal_'
'siam_'
'sebastian_'
'promotion_'
'perkins_'
'ornate_'
'oo'
'jo'
'furthermore_'
'forbidden_'
'doable_'
'ali'
'5mins_'
'volleyball_'
'urgent_'
'smokey_'
'slower_'
'minutes'
'learning_'
'ire_'
'holds_'
'greetings_'
'eagle_'
'consequently_'
'cologne_'
'captain_'
'canopy_'
'22'
'vegan_'
'skye_'
'locality_'
'ime_'
'gamble_'
'functioned_'
'flaws_'
'euston_'
'effortless_'
'andthere_'
'aman_'
' ? !_'
'ware_'
'verona_'
'unlucky_'
'tallinn_'
'refunded_'
'nest_'
'mugs_'
'mb_'
'markt_'
'havana_'
'han_'
'filter_'
'cooks_'
'c'
'7'
' .’_'
' .£ _'
'well'
'the'
'rum_'
'quito_'
'pool'
'pile_'
'mash_'
'iness_'
'inefficient_'
'earned_'
'bro'
'awards_'
'westminster_'
'teens_'
'sunbathing_'
'sore_'
'soaked_'
'smith_'
'prabang_'
'matches_'
'lighter_'
'kil'
'descent_'
'counts_'
'combine_'
'cairns_'
'batteries_'
'ven_'
'retains_'
'hs_'
'ect_'
'disorganized_'
'dismal_'
'detour_'
'criteria_'
'zen_'
'trap_'
'suddenly_'
'killer_'
'jumped_'
'horribly_'
'gh_'
'galore_'
'formed_'
'andvery_'
'advising_'
'.'
'rested_'
'occupants_'
'nightthe_'
'grand'
'flag_'
'cle'
'woodland_'
'urine_'
'tea'
'sprayed_'
'retired_'
'provision_'
'languages_'
'earl_'
'drank_'
'doha_'
'debris_'
'ale'
'ago'
'z'
'whiskey_'
'wa'
'super'
'sel'
'recharge_'
'pillows'
'nor'
'mainland_'
'ide'
'encouraged_'
'drains_'
'dom_'
'51'
'24'
' ~_'
' &_'
'salem_'
'laura_'
'hill'
'fine'
'downs_'
'buts'
'undergone_'
'rarity_'
'johannesburg_'
'inand_'
'ger'
'chatted_'
'andthis_'
'signposted_'
'riviera_'
'racecourse_'
'phnom_'
'onion_'
'lemonade_'
'k'
'guidance_'
'fineand_'
'container_'
'bull_'
'attempted_'
' ~ _'
' ... ) ._'
'wifi'
'tay_'
'stairway_'
'sooo_'
'rode_'
'regent_'
'pepper_'
'mystery_'
'mint_'
'leicester_'
'glen_'
'douglas_'
'crackers_'
'23rd_'
'zing_'
'wiped_'
'unpretentious_'
'touch'
'roanoke_'
'riga_'
'redeeming_'
'perimeter_'
'ney_'
'mango_'
'frosted_'
'bulb_'
'beach'
'artificial_'
'360_'
'1'
'valuable_'
'turtle_'
'stating_'
'rouge_'
'rapids_'
'les'
'glen'
'etc'
'unpack_'
'tor_'
'rp'
'nan'
'madness_'
'lessons_'
'ko'
'ice'
'great'
'georgian_'
'gar'
'formerly_'
'exorbitant_'
'ered_'
'burj_'
'aid_'
'worlds_'
'toured_'
'ser'
'separating_'
'ryokan_'
'ron_'
'rec'
'iti'
'imagination_'
'herself_'
'dover_'
'currency_'
'cally_'
'ars_'
'unappealing_'
'tolerable_'
'tate_'
'spice_'
'shannon_'
'iffy_'
'dec_'
'andthey_'
'109_'
'visitand_'
'view'
'thankyou_'
'ringing_'
'maldives_'
'innovative_'
'hum_'
'franchise_'
'en'
'airportbut_'
'zi_'
'silence_'
'pushing_'
'off'
'm'
'individuals_'
'independence_'
'hot'
'ets_'
'drawing_'
'dr_'
'designs_'
'carmen_'
'thanked_'
'pm'
'pans_'
'oozes_'
'mrs_'
'hard'
'han'
'ft'
'comforting_'
'challenges_'
'catalunya_'
'alps_'
'sor'
'recognised_'
'proceeded_'
'lan_'
'girlfriend_'
'gala_'
'coloured_'
'apt_'
'alternate_'
'37_'
'1970s_'
'toothpaste_'
'salsa_'
'rock'
'robert_'
'locationbut_'
'lanai_'
'kc_'
'interchange_'
'incorrect_'
'ii_'
'gazebo_'
'flip_'
'durango_'
'dreams_'
'continuous_'
'chest_'
'2009_'
' ) ..._'
' !'
'warming_'
'this'
'staircases_'
'sleeps_'
'sampled_'
'receiving_'
'plays_'
'pays_'
'minimalistic_'
'hof_'
'flo'
'disappeared_'
'compete_'
'alcove_'
'wall'
'tempted_'
'sizable_'
'jim_'
'holland_'
'granddaughter_'
'ay'
'approaching_'
'andalthough_'
'voices_'
'oj_'
'noisier_'
'monkey_'
'locating_'
'highland_'
'dripping_'
'dietary_'
'costing_'
'cafés_'
'borough_'
'ara'
'anda'
'vin'
'penh_'
'oakland_'
'nets_'
'mezzanine_'
'mayfair_'
'floorboards_'
'fails_'
'erie_'
'departments_'
'uneventful_'
'spouse_'
'snowy_'
'shake_'
'screened_'
'risotto_'
'ranks_'
'plethora_'
'observed_'
'nick_'
'gra'
'gbp_'
'funicular_'
'full'
'fs_'
'fillet_'
'favourites_'
'discussion_'
'decades_'
'carlos_'
'butno_'
'bothersome_'
'bhutan_'
'ballpark_'
'ark_'
'é_'
'wipe_'
'usage_'
'too'
'tempting_'
'sept_'
'reception'
'lafayette_'
'karen_'
'hu'
'foliage_'
'bella_'
'20mins_'
'105_'
' ' '
'yu'
'wholesome_'
'surfing_'
'storing_'
'skin_'
'sending_'
'recycling_'
'parkingand_'
'noodle_'
'molton_'
'helicopter_'
'dun'
'crumbs_'
'attracted_'
'2008_'
'200'
'. '
'vacuuming_'
'vacations_'
'scrumptious_'
's'
'limits_'
'gatlinburg_'
'executed_'
'eu'
'download_'
'dis'
'cupboards_'
'cobbled_'
'bwi_'
'berg_'
'aim_'
'35'
'uni'
'soggy_'
'serengeti_'
'presents_'
'mosquitos_'
'morningand_'
'marketplace_'
'leaf_'
'increased_'
'hotel'
'grille_'
'bakeries_'
'varying_'
'top'
'toby_'
'sing'
'old'
'long'
'jammed_'
'imaginable_'
'hunt_'
'glamorous_'
'cy'
'chandeliers_'
'bo_'
'b'
'arabian_'
'anyways_'
'90'
' ! ! )_'
'ub'
'mu'
'frustrated_'
'consisting_'
'clouds_'
'aspen_'
'32'
'100'
'undercooked_'
'river'
'nec_'
'modernisation_'
'marred_'
'lt'
'lesser_'
'har'
'fond_'
'ee'
'ds'
'devon_'
'curb_'
'big'
'awayand_'
'strike_'
'shire_'
'sha_'
'ole_'
'media_'
'def'
'creepy_'
'coped_'
'concerts_'
'clueless_'
'xi'
'spaced_'
'plaka_'
'ma'
'kent_'
'josef_'
'indiana_'
'folded_'
'claims_'
'celebrations_'
'car'
'amounts_'
'toddler_'
'soups_'
'smartly_'
'size'
'scratched_'
'scratch_'
'h'
'directing_'
'berry_'
'bears_'
'andno_'
'700_'
'valuables_'
'spa'
'sou'
'sh'
'seal_'
'sandals_'
'rivers_'
'ou'
'orientation_'
'matching_'
'handles_'
'exudes_'
'cobwebs_'
'chi'
'vacant_'
'sunlight_'
'sto'
'mana'
'loving_'
'laminate_'
'jimmy_'
'ese_'
'dairy_'
'ano'
'winchester_'
'wick_'
'vans_'
'twist_'
'tail_'
'presentable_'
'neighbour_'
'indianapolis_'
'forum_'
'edand_'
'deciding_'
'cs_'
'biz_'
'apply_'
'24hr_'
'zu'
'wai'
'variation_'
'turtles_'
'tablet_'
'sloppy_'
'ruth_'
'ross_'
'rings_'
'nord_'
'multitude_'
'memorabilia_'
'mats_'
'location'
'io'
'follows_'
'epcot_'
'decaf_'
'contain_'
'ban'
'water'
'viewed_'
'vegetation_'
'una'
'tiki_'
'thirty_'
'sparsely_'
'sculptures_'
'ren'
'pro'
'inspection_'
'hen'
'glitch_'
'ers'
'confident_'
'cluster_'
'buckingham_'
'bay'
'1980_'
'voice_'
'sur'
'savings_'
'rollaway_'
'payed_'
'ol_'
'milford_'
'locale_'
'israel_'
'go'
'forks_'
'eli'
'captive_'
'walker_'
'visually_'
'ue'
'relais_'
'programme_'
'packets_'
'nti'
'mac'
'kar'
'forge_'
'enabled_'
'countertop_'
'cloudy_'
'checks_'
'canapés_'
'bad'
'air'
'station'
'speakers_'
'scratchy_'
'roam_'
'rising_'
'remembering_'
'peri'
'pantheon_'
'nook_'
'mahal_'
'luis_'
'freely_'
'exceptions_'
'engine_'
'curved_'
'ash_'
'andour_'
'pin'
'paperwork_'
'obtain_'
'laundromat_'
'gay_'
'fraction_'
'f'
'curious_'
'countless_'
'caesar_'
'weekly_'
've'
'talented_'
'sus'
'sue_'
'shooting_'
'room'
'rmb_'
'part'
'mode_'
'mid'
'hygiene_'
'franklin_'
'dusk_'
'cowboy_'
'ce'
'castles_'
'bucharest_'
'vote_'
'tow_'
'syrup_'
'san'
'russell_'
'rey_'
'professionals_'
'mer_'
'latin_'
'kiosk_'
'firmness_'
'fest_'
'conversion_'
'cabo_'
'whales_'
'ske'
'scores_'
'ru'
'ranger_'
'possibilities_'
'packet_'
'ol'
'nightso_'
'lli'
'ex'
'dthe_'
'cruz_'
'cracks_'
'cheaply_'
'bedthe_'
'advertising_'
'é'
'vel'
'tonic_'
'thoughts_'
'pianist_'
'panera_'
'doorand_'
'council_'
'carlsbad_'
'arthur_'
'ak'
' - '
'up'
'tribute_'
'stately_'
'smoker_'
'sapporo_'
'oberoi_'
'martini_'
'jean_'
'docking_'
'bal'
'350_'
' .-- _'
'threw_'
'sts_'
'sprucing_'
'side'
'seasoned_'
'gowns_'
'billings_'
'30th_'
'wonderfull_'
'welsh_'
'wallet_'
'tones_'
'tie_'
'rie'
'restoration_'
'reachable_'
'pancras_'
'losing_'
'kitted_'
'geo'
'fighting_'
'cord_'
'comfy'
'arc_'
'airco_'
' ) '
'urs_'
'trout_'
'trip'
'son'
'ming_'
'leafy_'
'gan'
'fairy_'
'do'
'breakfasti_'
'berries_'
'automated_'
'anthony_'
'window'
'whisked_'
'utilitarian_'
'por'
'nit_'
'lounger_'
'jug_'
'hermitage_'
'ginger_'
'flood_'
'fenced_'
'customs_'
'beachand_'
'answers_'
'00'
' .+ _'
'whi'
'venison_'
'salisbury_'
'rains_'
'potentially_'
'otel_'
'nut_'
'loo'
'ks'
'kennedy_'
'formula_'
'every'
'convinced_'
'bluff_'
'ano_'
'adventurous_'
'twins_'
'strand_'
'shack_'
'replied_'
'peaks_'
'fear_'
'farmers_'
'evans_'
'entertain_'
'dbut_'
'clearwater_'
'bent_'
'alert_'
'utilize_'
'serviceand_'
'seals_'
'rydges_'
'rialto_'
'pousada_'
'out'
'motivated_'
'mont'
'lso_'
'kippers_'
'ite_'
'feelings_'
'disorganised_'
'colored_'
'city'
'battlefield_'
'anti'
'ans'
'accompanying_'
'zermatt_'
'traverse_'
'tive_'
'theirs_'
'some'
'ruin_'
'placebut_'
'pies_'
'pe'
'paddle_'
'exceeds_'
'eg'
'craziness_'
'con'
'breakfastwas_'
'bordering_'
'awakened_'
'arrogant_'
'afield_'
'33'
' ! '
'willingness_'
'war'
'vermont_'
'transported_'
'supplement_'
'strategically_'
'referred_'
'nose_'
'netflix_'
'moneyand_'
'kir'
'ht'
'friendly'
'fewer_'
'downright_'
'darwin_'
'carriageway_'
'bly_'
'black'
'bean_'
'yum_'
'um'
'sleepy_'
'sip_'
'selecting_'
'refuge_'
'one'
'kiev_'
'data_'
'circuit_'
'chilling_'
'belly_'
'beale_'
'wen'
'tan'
'stables_'
'spruce_'
'roadworks_'
'gripes_'
'grange_'
'garlic_'
'fulfilled_'
'fen'
'coo'
'unfair_'
'sincerely_'
'privately_'
'plus'
'nana_'
'kicked_'
'house'
'hardware_'
'gadgets_'
'flexibility_'
'excitement_'
'biscuit_'
'angkor_'
' - $ _'
'tou'
'that'
'sympathetic_'
'stunningly_'
'pushy_'
'pur'
'nly_'
'mist_'
'like'
'know'
'jetted_'
'id'
'he'
'ea_'
'depend_'
'cra'
'canterbury_'
'bleach_'
'balanced_'
'ye'
'swam_'
'stranded_'
'south'
'shin'
'seniors_'
'oct_'
'nc'
'nathan_'
'gle'
'everglades_'
'days'
'collins_'
'capped_'
'ble'
'awe_'
'ashley_'
'apprehensive_'
'anyhow_'
'withing_'
'uninterested_'
'triangle_'
'trainee_'
'ton'
'spire_'
'saratoga_'
'rounds_'
'pagoda_'
'packing_'
'ooms_'
'marienplatz_'
'ized_'
'ero'
'camp'
'brewed_'
'bond_'
'awaiting_'
'any'
'wilmington_'
'ward_'
'ur'
'sla'
'scott_'
'my'
'mouldy_'
'kempinski_'
'humor_'
'forgetting_'
'exceed_'
'canapes_'
'asap_'
'againbut_'
'tro'
'taxi'
'strawberry_'
'sea'
'raffles_'
'racks_'
'prevented_'
'lounge'
'lea'
'ji_'
'eric_'
'didn_'
'dark'
'begins_'
'batter_'
'aman'
'return'
'personalised_'
'nda_'
'marta_'
'ie'
'else'
'downer_'
'beige_'
'balloon_'
'attitudes_'
' ... '
'workspace_'
'week'
'toys_'
'townhouse_'
'subtle_'
'qu'
'premise_'
'margaret_'
'jumeirah_'
'inter'
'ine'
'inconsiderate_'
'hamburger_'
'free'
'copious_'
'concerning_'
'committed_'
'bled_'
'amazing'
'allergy_'
'again'
'ae'
'a1'
'und_'
'tri'
'sealed_'
'restrictions_'
'pathway_'
'nal_'
'loud'
'kevin_'
'jaded_'
'head'
'haneda_'
'goers_'
'false_'
'coaches_'
'bag'
' @_'
'thing'
'te'
'streaming_'
'shirts_'
'sachets_'
'runners_'
'overflowing_'
'ory_'
'occitane_'
'navy_'
'maintains_'
'gu'
'gat'
'fe'
'eater_'
'decks_'
'cheltenham_'
'billed_'
'ala'
'2007_'
' " ) _'
'ws'
'wardrobes_'
'tom'
'strasse_'
'qua'
'prawn_'
'oro_'
'millennium_'
'lovely'
'jason_'
'heights_'
'grits_'
'enough'
'east'
'dur'
'dly_'
'disa'
'dimly_'
'staffand_'
'snorkel_'
'sky'
'skimpy_'
'ribs_'
'reserving_'
'permanent_'
'people'
'pavement_'
'overrun_'
'mia_'
'latte_'
'lately_'
'kings'
'kentucky_'
'ino'
'gettysburg_'
'ed'
'cocoa_'
'ch'
'basins_'
'170_'
'unobstructed_'
'travelzoo_'
'temps_'
'suffice_'
'smoothies_'
'shy_'
'secondary_'
'rockies_'
'reagan_'
'overbearing_'
'overall'
'navigating_'
'napkins_'
'lin'
'indication_'
'ge'
'displays_'
'ct'
'cre'
'bur'
'avi'
'arbor_'
'ando'
'worldwide_'
'trump_'
'trekking_'
'sisters_'
'sar'
'pig_'
'painful_'
'monte_'
'mis'
'metropolitan_'
'lakefront_'
'ke'
'inn'
'indi'
'front'
'excellent'
'excelent_'
'acc'
' … ._'
'weather'
'vaporetto_'
'tick_'
'subpar_'
'staythe_'
'shi'
'severe_'
'sal'
'proportioned_'
'pa'
'odors_'
'mun'
'mel'
'lookout_'
'listened_'
'light'
'iowa_'
'indicate_'
'hi'
'freeview_'
'enhance_'
'broadband_'
'v'
'saggy_'
'pierre_'
'pampering_'
'limousine_'
'laughing_'
'hich_'
'groomed_'
'eu_'
'entrance'
'branch_'
' " '
'wine'
'tiger_'
'tepid_'
'stool_'
'shinagawa_'
'scarce_'
'plugged_'
'odour_'
'justified_'
'gaming_'
'detached_'
'chu'
'appreciative_'
' ' - _'
'warm'
'ved_'
'tune_'
'ring'
'reaction_'
'poured_'
'parkingbut_'
'much'
'morocco_'
'midday_'
'masses_'
'maneuver_'
'kerry_'
'fo_'
'cracking_'
'clubhouse_'
'cider_'
'care'
'bitter_'
'babies_'
'andy_'
'vents_'
'text_'
'rails_'
'p'
'oma'
'manger_'
'linda_'
'ives_'
'imo_'
'ib'
'high'
'hazard_'
'galle_'
'engage_'
'conditioners_'
'bournemouth_'
'blessed_'
'access'
'06_'
'waterside_'
'vistas_'
'ua_'
'trimmings_'
'tacos_'
'surcharge_'
'sequoia_'
'sc_'
'renovate_'
'provisions_'
'parisian_'
'onwards_'
'maya_'
'lag_'
'inde'
'fairbanks_'
'esi'
'capri_'
'brand'
'balcony'
'andwell_'
'aa'
'watered_'
'tart_'
'stretched_'
'someday_'
'secrets_'
'seatac_'
'safer_'
'robin_'
'punta_'
'oo_'
'mistakes_'
'messe_'
'mayor_'
'lucerne_'
'lasted_'
'it'
'ious_'
'ino_'
'ington_'
'booth_'
'blanc_'
'areas'
'( '
'uncomfortably_'
'tur'
'timber_'
'sville_'
'stumbled_'
'strictly_'
'shines_'
'residences_'
'ranking_'
'pune_'
'manning_'
'kingston_'
'kai'
'hors_'
'hil'
'comped_'
'circa_'
'buttons_'
'burner_'
'borders_'
'bla'
'atop_'
'ane'
'72_'
'vice_'
'stop'
'represent_'
'rain'
'palo_'
'ouse_'
'os'
'optional_'
'nce'
'mac_'
'hin'
'her'
'goal_'
'detergent_'
'decking_'
'commons_'
'com'
'canberra_'
' : '
'yangon_'
'vi'
'utmost_'
'unclean_'
'thu'
'tele'
'taste'
'seldom_'
'sau'
'republic_'
'puddings_'
'physically_'
'palermo_'
'notably_'
'mp'
'magazines_'
'luxuries_'
'interstates_'
'chin'
'bud'
'ber_'
'apologize_'
'andin_'
'ana'
'40'
'202_'
'yi_'
'wisconsin_'
'scar'
'py_'
'peeve_'
'loss_'
'lis'
'headquarters_'
'harsh_'
'flooding_'
'fire'
'entree_'
'dubrovnik_'
'celebrated_'
'carbs_'
'05_'
'tha'
'sin'
'shoulder_'
'qualities_'
'patch_'
'parallel_'
'mon'
'moan_'
'lan'
'harbour'
'freedom_'
'english'
'dog'
'ches_'
'bozeman_'
'bound_'
'ada_'
'aber'
'abandoned_'
'> _'
'20min_'
'201_'
' .; _'
'wasthe_'
'washers_'
'varies_'
'trinity_'
'shoulders_'
'restrooms_'
'rc'
'ranked_'
'proprietor_'
'pot'
'occurred_'
'occupies_'
'mur'
'messed_'
'marrakech_'
'louder_'
'hiring_'
'guggenheim_'
'guests'
'em_'
'colder_'
'cing_'
'chowder_'
'chengdu_'
'chemical_'
'briefly_'
'bilbao_'
'bfast_'
'average'
' !- _'
' ! - _'
'therethe_'
'rn_'
'restaraunts_'
'pines_'
'owns_'
'offset_'
'macy_'
'lent_'
'ita'
'foul_'
'bearable_'
'ball'
'attendees_'
'ambient_'
'wat_'
'views'
'unimpressive_'
'tinned_'
'swe_'
'steady_'
'set'
'recliner_'
'ngly_'
'knob_'
'ig_'
'hesitant_'
'fare'
'civil_'
'brochure_'
'amusing_'
'additions_'
'wood'
'unassuming_'
'tuna_'
'technical_'
'stone'
'start'
'sloping_'
'ore'
'med'
'lu'
'forms_'
'colony_'
'carries_'
'buns_'
'bumpy_'
'bedand_'
'white'
'therapist_'
'than'
'supported_'
'sodas_'
'quilt_'
'promises_'
'printers_'
'peppers_'
'northeast_'
'mari'
'footsteps_'
'firepit_'
'extortionate_'
'depth_'
'bha'
'an'
'amarillo_'
'abu'
'about'
' , ' _'
'we'
'topper_'
'thousands_'
'tab'
'surpassed_'
'sunbed_'
'showered_'
'roofs_'
'refreshment_'
'ia'
'hau'
'goodwe_'
'frustration_'
'freshening_'
'duplex_'
'differently_'
'center'
'be'
' ) .'
'ul'
'stag_'
'spaciousness_'
'rotorua_'
'rate'
'rai_'
'necessity_'
'mall'
'inland_'
'from'
'cow'
'course'
'canned_'
'appetising_'
'andoverall_'
'andeven_'
'wait'
'sticking_'
'remainder_'
'prints_'
'performing_'
'oyster_'
'not'
'lovingly_'
'lang'
'keeper_'
'fortress_'
'ens'
'engineer_'
'dep'
'cuban_'
'cour'
'bul'
'bat'
'audience_'
'anau_'
'amalfi_'
'08_'
'wel'
'song_'
'sm_'
'sleep'
'scrupulously_'
'roy_'
'romance_'
'rodeo_'
'ral_'
'quirks_'
'quietand_'
'perfect'
'peacocks_'
'ow'
'orientated_'
'orderly_'
'matress_'
'm25_'
'lockers_'
'hours'
'gor'
'gan_'
'fusion_'
'dotted_'
'discuss_'
'best'
'aggressive_'
'abo'
'wealth_'
'vin_'
'trend_'
'thread_'
'tho'
'tar_'
'tape_'
'sure'
'sir_'
'saunas_'
'roses_'
'reeked_'
'orn_'
'now'
'noisy'
'inflated_'
'expensive'
'definetely_'
'che_'
'beachbut_'
'victor_'
'unreasonable_'
'traditionally_'
'spreads_'
'span_'
'scuffed_'
'reccommend_'
'rand_'
'prove_'
'plains_'
'mas'
'makati_'
'lit'
'lining_'
'joseph_'
'is'
'indulge_'
'humble_'
'hdtv_'
'gil'
'funchal_'
'floral_'
'ffe'
'fa_'
'drained_'
'disconcerting_'
'dai'
'applied_'
'amy_'
':) _'
'2000_'
'-$_'
'turn'
'tulsa_'
'summer'
'substandard_'
'sub'
'ock_'
'money'
'mn_'
'hs'
'hay_'
'gh'
'flushed_'
'fixture_'
'fit'
'darkness_'
'contributed_'
'clarke_'
'arlanda_'
'50th_'
'transformed_'
'tp'
'sle'
'pokey_'
'packs_'
'overworked_'
'kayaks_'
'highwayso_'
'harvard_'
'hardworking_'
'examples_'
'dresden_'
'dating_'
'cast_'
'71_'
'30mins_'
'...... _'
'wind'
'va'
'township_'
'rt'
'programs_'
'neatly_'
'mani'
'mammoth_'
'london'
'kayaking_'
'gary_'
'eureka_'
'dvds_'
'doorso_'
'caveat_'
'carved_'
'brian_'
'ato'
'zan'
'wonders_'
'walk'
'valencia_'
'vail_'
'une'
'ts'
'thro'
'sion_'
'seminar_'
'refills_'
'overpowering_'
'machu_'
'lai'
'hartford_'
'emphasis_'
'ebut_'
'drown_'
'drive'
'decidedly_'
'crepes_'
'competitively_'
'comf'
'cab'
'augustine_'
'stamford_'
'southampton_'
'propertyand_'
'placement_'
'orchid_'
'mc_'
'mans_'
'jessica_'
'grouting_'
'fresno_'
'demanding_'
'definitively_'
'at'
'ar'
'- '
'venturing_'
'ugh_'
'sho'
'roomwas_'
'rit'
'overt'
'oklahoma_'
'nova_'
'nga'
'nail_'
'lab'
'heartily_'
'fresher_'
'fashionable_'
'dro'
'caverns_'
'cara'
'bothers_'
'boiling_'
'blows_'
'amanda_'
'allergic_'
'52'
'24hrs_'
' , £ _'
'yas_'
'toulouse_'
'though'
'tee_'
'sur_'
'pur_'
'pub'
'priceless_'
'noice_'
'nighttime_'
'mt'
'immense_'
'harrogate_'
'facilites_'
'exeter_'
'conventions_'
'chf_'
'centre'
'cali'
'busy'
'bogota_'
'aviv_'
'arabic_'
' "_'
'zi'
'tt'
'trim_'
'things'
'teeth_'
'ston_'
'statement_'
'shoreline_'
'scenes_'
'rei'
'prom_'
'posts_'
'performed_'
'obtained_'
'musical_'
'more'
'melon_'
'lla_'
'lia_'
'jamaica_'
'internet'
'gothic_'
'format_'
'escapes_'
'cro'
'corniche_'
'catherine_'
'bora_'
'belt_'
'avenida_'
'ash'
'applies_'
'allit_'
' . '_'
'wi'
'virgin_'
'toasted_'
'simon_'
'roomsand_'
'regulate_'
'ranges_'
'pleasant'
'pipe_'
'need'
'kim_'
'ically_'
'fastest_'
'experience'
'evidently_'
'everything'
'drunken_'
'cordoba_'
'cold'
'zagreb_'
'yrs_'
'ver'
'upholstery_'
'tre'
'shame'
'safes_'
'run'
'rink_'
'picchu_'
'palazzo_'
'okay'
'may'
'lla'
'kitchenettes_'
'interestingly_'
'hotels'
'generator_'
'flimsy_'
'fish'
'eaters_'
'crews_'
'chan'
'bypass_'
'boyfriend_'
'belgrade_'
'belgium_'
'bedspreads_'
'avon_'
'aurora_'
'119_'
'wonderful'
'thin'
'thereso_'
'strategic_'
'statues_'
'sna'
'shoppers_'
'reduction_'
'pay'
'myriad_'
'mar'
'lobbies_'
'limerick_'
'hing_'
'furnitures_'
'factors_'
'easy'
'districts_'
'dean_'
'camper_'
'cal'
'bum'
'bellagio_'
'bays_'
'ard'
'aa_'
' , - _'
'val'
'underwhelmed_'
'uk'
'toppings_'
'ryan_'
'refilling_'
'refer_'
'queuing_'
'occupant_'
'lic'
'good'
'forthcoming_'
'finds_'
'draught_'
'derby_'
'decked_'
'dayton_'
'compromise_'
'commitment_'
'ci_'
'chennai_'
'blueberry_'
'beau'
'ang_'
'sophia_'
'sommelier_'
'rubbery_'
'rese'
'oh'
'nonsense_'
'mos'
'marketing_'
'ita_'
'ger_'
'err'
'el'
'ect'
'countertops_'
'chee'
'bern_'
'arises_'
'abit_'
' ... ) _'
'zy_'
'towels'
'thi'
'suprised_'
'stomach_'
'quality'
'point'
'ls'
'kruger_'
'key'
'indy_'
'ici'
'expresses_'
'ensures_'
'els_'
'central'
'bec'
'ani'
'43'
'underfloor_'
'tire_'
'summit_'
'stephen_'
'searched_'
'renewed_'
'pra'
'pentagon_'
'namibia_'
'mins'
'luggages_'
'lucca_'
'hammock_'
'gent_'
'find'
'exploration_'
'expert_'
'dia'
'crawling_'
'cityand_'
'choice'
'calais_'
'bis'
'ands'
' )'
'wis'
'visit'
'uld_'
'toiletry_'
'shearings_'
'ro'
'reb'
'ral'
'pri'
'pi'
'petra_'
'pasadena_'
'north'
'furbished_'
'fooled_'
'earls_'
'disappoints_'
'compares_'
'caulking_'
'appreciation_'
'aca'
'yso_'
'valueand_'
'tuks_'
'slipped_'
'rect'
'ran'
'mitchell_'
'mandalay_'
'jefferson_'
'ja'
'ile_'
'hor'
'hauptbahnhof_'
'gun'
'fun'
'end'
'dal'
'comprised_'
'candle_'
'butlers_'
'boss_'
'blah_'
'appetizing_'
'aloof_'
'alba'
'achieve_'
' ! ! ! _'
'yn'
'wary_'
'w'
'ter'
'swa'
'stuttgart_'
'sop'
'sooner_'
'reset_'
'pedro_'
'pedestrianised_'
'operators_'
'nov_'
'monuments_'
'metro'
'mark'
'lity_'
'land'
'kerala_'
'itso_'
'ities_'
'hopes_'
'hefty_'
'flavored_'
'ens_'
'ene'
'de'
'db'
'cusco_'
'crib_'
'che'
'22nd_'
'wanaka_'
'ui'
'tta_'
'tang'
'shave_'
'servings_'
'seine_'
'lankan_'
'jeff_'
'iah_'
'husbands_'
'foot'
'fa'
'darn_'
'complimented_'
'chat'
'cc_'
'blues_'
'bit'
'bee_'
'beautiful'
'beaune_'
'accompany_'
'wheels_'
'van'
'tx_'
'truely_'
'switching_'
'suv_'
'sunken_'
'subsequent_'
'stic_'
'sheltered_'
'rays_'
'mini'
'jer'
'ium_'
'gon'
'dia_'
'deter_'
'bread'
'batt'
'ashland_'
'ande'
'alan_'
'surgery_'
'sher'
'sec'
'registered_'
'prettiest_'
'preferable_'
'parc_'
'ona'
'ome'
'musicians_'
'maitre_'
'ler'
'ille_'
'hers_'
'hammocks_'
'foo'
'distracted_'
'cleverly_'
'alice_'
'ali_'
' ? '
'witnessed_'
'tuscany_'
'speaker_'
'sie'
'panels_'
'murphy_'
'leftovers_'
'large'
'la'
'hassles_'
'gym'
'glow_'
'ga'
'ethe_'
'documents_'
'dha'
'dar_'
'crossed_'
'command_'
'clu'
'buggies_'
'bee'
'az_'
'07_'
' ( ? ) _'
'zip_'
'vale_'
'upcoming_'
'sten'
'spe'
'scored_'
'sac_'
'right'
'ramps_'
'pour_'
'pou'
'pel'
'nagoya_'
'motel'
'laptops_'
'kuwait_'
'esta'
'duties_'
'cul'
'camps_'
'buckhead_'
'baker_'
'28th_'
'13'
' ? ) , _'
'ze'
'woodwork_'
'underway_'
'touching_'
'tely_'
'sainsbury_'
'promising_'
'mild_'
'lover_'
'karaoke_'
'home'
'guangzhou_'
'flats_'
'fer'
'favorable_'
'ethernet_'
'enclosure_'
'cos_'
'coaching_'
'bummer_'
'buffet'
'behaviour_'
'alexander_'
'advertises_'
' . '
'websites_'
'sta'
'seventh_'
'rounded_'
'rk'
'pat_'
'parlor_'
'ona_'
'oe'
'ner'
'matt_'
'kremlin_'
'kolkata_'
'ken'
'ical_'
'hm'
'helen_'
'frontdesk_'
'frames_'
'comfyand_'
'citadel_'
'cen'
'bra'
'bid_'
'bell'
'argue_'
'[ _'
'27'
'115_'
'unknown_'
'tion'
'times'
'thunder_'
'tented_'
'soundly_'
'pennsylvania_'
'overdone_'
'outside'
'lid_'
'launch_'
'lake'
'hon'
'help'
'global_'
'gli'
'flinders_'
'dragging_'
'butter'
'buta'
'bloody_'
'belgian_'
'wl'
'sy'
'streetbut_'
'slow'
'shopping'
'sewage_'
'retrieve_'
'portuguese_'
'pods_'
'mystic_'
'myers_'
'lus'
'let'
'kitchen'
'horseshoe_'
'honolulu_'
'greece_'
'fares_'
'bea'
'backing_'
'wyoming_'
'windows'
'whit'
'value'
'tn_'
'rg_'
'petals_'
'monsoon_'
'mind'
'len'
'legendary_'
'jacket_'
'ize_'
'ite'
'i75_'
'hote_'
'dor'
'crowded'
'cosmetic_'
'campground_'
'anaheim_'
'val_'
'tis'
'sim'
'rapidly_'
'pu'
'overcome_'
'ling'
'joshua_'
'ies'
'freight_'
'distinctive_'
'der'
'dart_'
'copacabana_'
'boom_'
'appetite_'
'ail'
' .:) _'
'ö'
'uninterrupted_'
'swans_'
'rm'
'rectify_'
'permitting_'
'optimal_'
'nt'
'noteworthy_'
'minibus_'
'maple_'
'kinsale_'
'ise'
'huts_'
'glitches_'
'garages_'
'eo'
'die'
'curt_'
'crafts_'
'bangor_'
'army_'
'ald'
'agreeable_'
'ada'
'weekend'
'ured_'
'tub'
'tu'
'tour'
'thinks_'
'then'
'saver_'
'ron'
'ri'
'regulars_'
'rd'
'pong_'
'paintwork_'
'outrageously_'
'organization_'
'obnoxious_'
'ny'
'miniature_'
'ky'
'jan'
'fabulously_'
'ela'
'butnothing_'
'bru'
'bathrooms'
'asse'
'appearing_'
' .& _'
'woodlands_'
'them'
'slim_'
'revellers_'
'pen_'
'organize_'
'mn'
'misses_'
'meri'
'ku_'
'kor'
'kilometers_'
'haymarket_'
'haphazard_'
'gr'
'ghent_'
'fresh'
'eveningand_'
'creaking_'
'christian_'
'bosphorus_'
'backand_'
'24th_'
'stank_'
'spiral_'
'scrub_'
'sarasota_'
'retained_'
'quad_'
'pit'
'mussels_'
'llandudno_'
'goodso_'
'earn_'
'copper_'
'connaught_'
'bushes_'
'brothers_'
'antigua_'
'ain'
' ) -_'
'zo'
'vas'
'show'
'recoleta_'
'po'
'peoples_'
'nondescript_'
'neu'
'milano_'
'manners_'
'lee'
'horrid_'
'hilltop_'
'herebut_'
'foremost_'
'foggy_'
'fast'
'dusseldorf_'
'clinical_'
'brochures_'
'alm'
'a4'
'----_'
'traffic'
'sburg_'
'roosevelt_'
'roomo'
'roadway_'
'rainbow_'
'provider_'
'oysters_'
'onand_'
'motif_'
'menu'
'lord_'
'lightning_'
'hl'
'fore'
'fargo_'
'disposable_'
'coverings_'
'corn'
'cm_'
'break'
'beirut_'
'absent_'
'43_'
'yp'
'tic'
'spilled_'
'ski'
'safaris_'
'pizzeria_'
'palatial_'
'nig'
'mb'
'linger_'
'kelly_'
'isa'
'interrupted_'
'ingand_'
'illinois_'
'gordon_'
'gig_'
'boy'
'bountiful_'
'bol'
'blanca_'
'aroma_'
'ant'
'103_'
' ... )_'
'wire_'
'usa'
'stephanie_'
'state'
'spacious'
'seaworld_'
'rk_'
'reviewing_'
'proprietors_'
'ori'
'obliged_'
'napier_'
'muddy_'
'mot'
'mate_'
'interconnecting_'
'hart_'
'gyms_'
'fresco_'
'frankie_'
'erg_'
'dy'
'convienent_'
'colleges_'
'chief_'
'cheesy_'
'brugge_'
'av_'
'as'
'architecturally_'
'andalso_'
'!._'
' ! ! ) ._'
'wins_'
'visa_'
'unt'
'timeand_'
'shrubs_'
'rewarded_'
'recover_'
'paulo_'
'outing_'
'nou'
'moose_'
'ith_'
'inferior_'
'hotelis_'
'grew_'
'freshness_'
'ez_'
'engineering_'
'ean_'
'dn'
'desk'
'blo'
'arusha_'
'--- _'
'ving_'
'upholstered_'
'uninspired_'
'transiting_'
'sat'
'reminder_'
'ox'
'lengths_'
'lend_'
'journeys_'
'im'
'illuminated_'
'hottub_'
'fla'
'fiesta_'
'dri'
'definition_'
'carol_'
'bone_'
'bathtubs_'
'ards_'
'anticipate_'
'androom_'
' : ( _'
'ww'
'ura'
'swanky_'
'stingy_'
'stationso_'
'shop'
'rg'
'revamped_'
'questioned_'
'quer'
'president_'
'populated_'
'overs'
'motion_'
'moni'
'matterhorn_'
'lie'
'letdown_'
'langham_'
'kur'
'kun'
'grapefruit_'
'gal'
'enable_'
'divider_'
'cs'
'creme_'
'change'
'cardboard_'
'bout_'
'aw'
'arrival'
'aries_'
'91_'
'46_'
')'
'tanzania_'
'spinach_'
'spar'
'sca'
'sandton_'
'router_'
'removing_'
'open'
'namba_'
'mouse_'
'llan'
'inquire_'
'hunter_'
'hideaway_'
'helpfulthe_'
'get'
'early'
'congenial_'
'bat_'
'all'
'aba'
'1980s_'
'wer'
'universally_'
'sao_'
'quayside_'
'noticeably_'
'non'
'montgomery_'
'lunch'
'late'
'kol'
'kha'
'jeep_'
'island'
'fallen_'
'existing_'
'excess_'
'ea'
'dare_'
'alexanderplatz_'
'agra_'
'ad'
'aand_'
' .– _'
' ! ! ! ! ! !_'
'yours_'
'wy'
'wipes_'
'vis'
'uti'
'twelve_'
'teen_'
'soiled_'
'sg'
'roomsbut_'
'pinch_'
'pic_'
'pec'
'participate_'
'pana'
'pala'
'pak'
'operational_'
'nw_'
'lynn_'
'lame_'
'jennifer_'
'jai'
'immigration_'
'have'
'grandkids_'
'fringe_'
'expressed_'
'elected_'
'drunks_'
'competing_'
'ched_'
'chatsworth_'
'advisable_'
'30min_'
'102_'
'uni_'
'tied_'
'petit_'
'nse'
'notwithstanding_'
'mill'
'mara_'
'homestead_'
'glowing_'
'fault'
'fantastic'
'crap_'
'complement_'
'bride_'
'book'
'apa'
'amish_'
'accidentally_'
'xi_'
'unde'
'tremendously_'
'trans_'
'tennessee_'
'tar'
'spider_'
'somerset_'
'snoring_'
'natchez_'
'legoland_'
'king'
'infact_'
'imagined_'
'im_'
'haggis_'
'gibraltar_'
'faux_'
'fabrics_'
'extremly_'
'evening'
'dakota_'
'castle'
'bkk_'
'atrocious_'
'5star_'
'199'
'usthe_'
'starred_'
'seminyak_'
'sd_'
'property'
'ph_'
'mond'
'microwaved_'
'meadows_'
'l'
'intense_'
'ham'
'escalator_'
'enchanting_'
'efficent_'
'drainage_'
'downtownbut_'
'dos_'
'delicacies_'
'coles_'
'chateaux_'
'cambodia_'
'butte_'
'bedford_'
'battered_'
'assure_'
'andif_'
'alle'
'aga'
'104_'
' • _'
'“ _'
'yi'
'tired'
'spin'
'space'
'ree_'
'ree'
'quietthe_'
'nights'
'nd'
'mbps_'
'level'
'junk_'
'job'
'iberostar_'
'hiccup_'
'harris_'
'fir_'
'egyptian_'
'eas'
'discrete_'
'determined_'
'deadwood_'
'dan'
'dales_'
'circles_'
'ci'
'chobe_'
'chandelier_'
'brunswick_'
'balinese_'
'adjustment_'
'welland_'
'watch'
'vodka_'
'verything_'
'tian'
'swedish_'
'supremely_'
'sir'
'scared_'
'sake_'
'rig'
'nevada_'
'me'
'mandatory_'
'loc'
'layer_'
'keystone_'
'idaho_'
'fork_'
'failure_'
'eur'
'estes_'
'dua_'
'disgrace_'
'cement_'
'cat'
'campbell_'
'butwe_'
'bubble_'
'board'
'bes'
'bayside_'
'away'
'alternatively_'
'210_'
' ' ( _'
'ys'
'uniquely_'
'trea'
'through'
'technically_'
'team'
'tallest_'
'sun'
'stationary_'
'sma'
'relocated_'
'parkland_'
'overnighter_'
'liz_'
'kal'
'johnson_'
'ithaca_'
'ff'
'ever'
'datedbut_'
'comings_'
'clifton_'
'centro_'
'brekkie_'
'brazilian_'
'botanic_'
'bingo_'
'bara'
' , ... _'
'wre'
'visual_'
'un'
'travel'
'tenerife_'
't'
'spec_'
'scented_'
'rachel_'
'olympia_'
'nusa_'
'mannered_'
'lob'
'life'
'li'
'knife_'
'hose_'
'hiccups_'
'hell'
'goo'
'fund'
'fan'
'citadines_'
'born_'
'belle_'
'architect_'
'alt'
'accent_'
') ._'
'wool'
'tag'
'sweat_'
'roasted_'
'reat_'
'rafting_'
'places'
'perfume_'
'pattaya_'
'manageress_'
'ina'
'ian'
'harrah_'
'environmentally_'
'cp_'
'clark_'
'bw'
'awoke_'
'220_'
' : ) _'
'warmest_'
'viking_'
'stretching_'
'stairwells_'
'owing_'
'ot'
'oni'
'omlettes_'
'men'
'lc'
'kirk'
'ip'
'gui'
'grazing_'
'grabbing_'
'fact'
'exists_'
'everywhere'
'dot_'
'deserving_'
'deal'
'cool'
'col'
'business'
'bumped_'
'ati'
'andbut_'
'amenties_'
'ai'
'addressing_'
'301_'
'yan'
'welcome'
'waterslide_'
'tides_'
'springdale_'
'specialties_'
'pres'
'pattern_'
'our'
'ool_'
'ons'
'nie'
'mechanical_'
'mc'
'mas_'
'leopard_'
'isthe_'
'integrated_'
'helpfully_'
'hav'
'far'
'eni'
'drew_'
'ced_'
'but'
'bus'
'augusta_'
'years'
'trouser_'
'strict_'
'stack_'
'shelter_'
'rte_'
'refuse_'
'reco'
'quick'
'pollution_'
'pol'
'phe'
'oban_'
'mask_'
'luxuriously_'
'kt'
'khalifa_'
'inlet_'
'hog'
'gems_'
'crannies_'
'cit'
'cheap'
'challenged_'
'cameras_'
'bel'
'adam_'
'61'
'vaulted_'
'tin'
'suffering_'
'squash_'
'special'
'silicon_'
'punctual_'
'negotiated_'
'miss'
'humming_'
'huge'
'hue_'
'hould_'
'hospitals_'
'highway'
'gir'
'floorand_'
'doubled_'
'distinctly_'
'crisps_'
'crappy_'
'craig_'
'carlson_'
'cai'
'blaring_'
'basilica_'
'andrea_'
'76_'
'205_'
' - £ _'
'yn_'
'wich_'
'tale_'
'swansea_'
'sche'
'safe'
'rich'
'realy_'
'rb'
'powell_'
'og'
'oak'
'metre_'
'lands'
'ker_'
'jane_'
'importance_'
'icy_'
'hy'
'fredericksburg_'
'fizz_'
'fancier_'
'citybut_'
'behold_'
'altitude_'
'aka_'
'ure'
'thousand_'
'suffers_'
'singers_'
'role_'
'refurbish_'
'refit_'
'rancho_'
'pris'
'nis'
'nes'
'mal'
'insi'
'goodbye_'
'firmer_'
'expertly_'
'entitled_'
'edbut_'
'dge_'
'devi'
'des'
'conduct_'
'choiceand_'
'charlottesville_'
'browsing_'
'brave_'
'beautifull_'
'ap'
'aesthetically_'
'achieved_'
'?_'
'270_'
' ) ,_'
'washbasin_'
'unfamiliar_'
'takayama_'
'stronger_'
'sting_'
'stationand_'
'sporadic_'
'say'
'price'
'popping_'
'permitted_'
'oversight_'
'options'
'observe_'
'oa'
'mono'
'meals'
'kas'
'jun'
'internally_'
'interests_'
'ik'
'horseback_'
'fter_'
'federal_'
'doorway_'
'cluttered_'
'chap'
'blue'
'banged_'
'vilnius_'
'shar'
'sf'
'pen'
'ntly_'
'mic'
'mare_'
'listing_'
'kayak_'
'itself'
'ians_'
'grant_'
'festivities_'
'ei_'
'disp'
'dayand_'
'dancers_'
'cotswold_'
'cia_'
'cebu_'
'cannery_'
'aveda_'
'artists_'
'am'
'09_'
'wound_'
'ua'
'stocking_'
'staffer_'
'seater_'
'scarborough_'
'row'
'prop'
'pla'
'murals_'
'mit'
'low'
'lonely_'
'lifeguard_'
'laws_'
'ig'
'holiday'
'hai'
'gy'
'guinness_'
'gre'
'fri_'
'faucets_'
'dt'
'dru'
'disappointments_'
'developing_'
'comparatively_'
'cockroach_'
'claire_'
'cana_'
'bothering_'
'boat'
'ak_'
'01_'
' .. '
' ) : _'
'very'
'turquoise_'
'sse_'
'smallthe_'
'severely_'
'sad'
'route'
'roomit_'
'pli'
'permits_'
'od'
'nai'
'na'
'marginally_'
'make'
'macdonalds_'
'led'
'issued_'
'ek'
'discovering_'
'det'
'cochin_'
'cha'
'butts_'
'bou'
'bo'
'74_'
'26th_'
' . ) , _'
'works'
'wanna_'
'wan'
'unattended_'
'thruway_'
'subways_'
'stench_'
'soo_'
'smoke'
'reviews'
'remembers_'
'reference_'
'pt_'
'power'
'nighti_'
'moo'
'laos_'
'jar'
'hopeless_'
'holy_'
'hie'
'generation_'
'ey'
'dol'
'dissapointing_'
'cke'
'citi'
'bellboy_'
'baskets_'
'barbeque_'
'bab'
'americas_'
'ab'
' ) ... _'
'xe'
'usly_'
'tripand_'
'tr'
'tow'
'scaffolding_'
'overview_'
'overbooked_'
'noi'
'multi'
'kilometres_'
'jay_'
'inle_'
'indonesia_'
'gem'
'gazing_'
'flora_'
'extending_'
'cup'
'casita_'
'bling_'
'baden_'
'az'
'archery_'
'affords_'
'02_'
'wonderland_'
'wit_'
'ures_'
'tit'
'tel'
'swept_'
'resteraunt_'
'reassuring_'
'rat_'
'protea_'
'novel_'
'medicine_'
'lobby'
'kr'
'inver'
'inside'
'ii'
'hed_'
'elo'
'egypt_'
'da'
'cumberland_'
'cor'
'club'
'cla'
'cart'
'bos'
'barefoot_'
'ast_'
'arrived'
'aci'
'40th_'
'1960_'
'will'
'width_'
'starbuck_'
'staples_'
'stan'
'staffthe_'
'silk_'
'remedied_'
'recognise_'
'prix_'
'presume_'
'play'
'lock'
'its'
'goats_'
'gardeners_'
'fairfields_'
'ently_'
'dso_'
'companion_'
'colombo_'
'collecting_'
'co'
'camden_'
'boo'
'aver'
' " !_'
'winnipeg_'
'washrooms_'
'tipping_'
'tedious_'
'stuff'
'stray_'
'stal'
'skating_'
'scuba_'
'rose'
'restocking_'
'refurbed_'
'rally_'
'radiators_'
'prominent_'
'nites_'
'ledge_'
'knees_'
'influence_'
'gab'
'framed_'
'embarrassing_'
'crying_'
'comb'
'cher'
'chargers_'
'bellhop_'
'austria_'
'aqua'
'appartment_'
'57_'
' .... '
' - - _'
'ym'
'waterway_'
'umb'
'trailers_'
'toledo_'
'tap'
'swi'
'stairways_'
'ssa'
'spencer_'
'ros'
'py'
'ough_'
'omg_'
'oman_'
'oat_'
'lodgings_'
'kickback_'
'kau'
'iso'
'inu'
'insect_'
'goings_'
'germain_'
'fran_'
'flight'
'ding'
'creamer_'
'bravo_'
'bac'
'ah'
'ade'
'.... _'
'ye_'
'windermere_'
'thyme_'
'storms_'
'spoons_'
'slap_'
'sb'
'savoy_'
'roa'
'pea'
'nikko_'
'nicei_'
'lb'
'kanazawa_'
'kala'
'foreigners_'
'family'
'creature_'
'cow_'
'commendable_'
'boiler_'
'belongs_'
'bb'
'astonishing_'
'around'
'angry_'
'andand_'
'amenities'
'26'
'ü'
'yog'
'wee'
'tot'
'spacey_'
'sala'
'prat'
'placing_'
'order'
'n'
'mol'
'missouri_'
'michel_'
'marriott'
'mara'
'lotus_'
'login_'
'lackluster_'
'inter_'
'infront_'
'his'
'harrisburg_'
'gos'
'golfer_'
'fiji_'
'ess'
'elysees_'
'cks_'
'cd_'
'bu'
'bratislava_'
'behavior_'
'base'
'bamboo_'
'93_'
' +_'
'understatement_'
'travelodges_'
'streetcar_'
'shuts_'
'seward_'
'sep'
'researched_'
'posters_'
'pil'
'oz_'
'lawrence_'
'kleenex_'
'invested_'
'horton_'
'goodit_'
'fu'
'fli'
'fied_'
'extends_'
'exc'
'duluth_'
'dir'
'chop_'
'butin_'
'buck'
'brewer_'
'bl'
'avocado_'
'! _'
' % ._'
'ymca_'
'upi'
'u'
'ster'
'sacred_'
'relevant_'
'prescott_'
'pp'
'outweigh_'
'leas'
'irritated_'
'ick_'
'gua'
'g'
'failing_'
'dbb_'
'cattle_'
'blends_'
'aswell_'
'ain_'
'washcloths_'
'varanasi_'
'var'
'ung'
'transition_'
'toilet'
'til'
'sweet'
'suitably_'
'ras'
'ranged_'
'rabbits_'
'plo'
'palais_'
'pac'
'oscar_'
'oli'
'morgan_'
'midi_'
'mi'
'liver_'
'lind'
'lifeguards_'
'kan'
'hotelwe_'
'hints_'
'gs'
'green'
'gau'
'emily_'
'drink'
'decline_'
'decade_'
'criticisms_'
'cho'
'bradford_'
'bet'
'austere_'
'asda_'
'98_'
'68_'
'),_'
' > _'
' : )_'
'wil'
'wholeheartedly_'
'wat'
'urt'
'uncrowded_'
'temperamental_'
'stools_'
'st'
'specialities_'
'runny_'
'post'
'pho'
'olo'
'lp'
'loca'
'liner_'
'lager_'
'koi_'
'ker'
'kenya_'
'ively_'
'inl'
'inattentive_'
'heather_'
'hardest_'
'hall'
'footpath_'
'cu'
'condiments_'
'bloomington_'
'71'
'14'
'*. _'
'warner_'
'tuesdays_'
'timer_'
'sucks_'
'staycation_'
'speedway_'
'spacy_'
'slo'
'shadow_'
'seagulls_'
'sculpture_'
'rou'
'relieved_'
'pop'
'permanently_'
'penang_'
'passenger_'
'partners_'
'overheard_'
'oeuvres_'
'murray_'
'magnolia_'
'mad'
'lingual_'
'legacy_'
'icelandic_'
'hooked_'
'hg'
'hearted_'
'gw'
'gi_'
'entryway_'
'ena'
'ead_'
'dundee_'
'dit'
'df'
'cop'
'coco_'
'centraal_'
'arab_'
'antiquated_'
'andso_'
'aarp_'
'uri'
'uh'
'train'
'tand_'
'sp'
'sever'
'ser_'
'rox'
'rab'
'partition_'
'other'
'nye_'
'mul'
'moor_'
'julie_'
'jolly_'
'ield_'
'hindsight_'
'handily_'
'era'
'dam'
'click_'
'clear'
'charity_'
'bye_'
'authority_'
'austrian_'
'arn'
'18'
'wore_'
'wn'
'waterhole_'
'versailles_'
'unpacked_'
'ume'
'soa'
'rsl_'
'rises_'
'restaurantbut_'
'pet'
'path'
'outand_'
'op'
'nsi'
'muted_'
'mba'
'ken_'
'ised_'
'inconveniences_'
'hua'
'gur'
'greenbelt_'
'ght'
'galveston_'
'forgettable_'
'extravagant_'
'erd'
'emer'
'dana_'
'boating_'
'blenheim_'
'bleak_'
'aran'
'135_'
'valentine_'
'udaipur_'
'tripping_'
'territory_'
'ten'
'signing_'
'shinkansen_'
'shenzhen_'
'rangers_'
'plat'
'piped_'
'pedestrians_'
'outstandingly_'
'llo'
'lightly_'
'lac'
'kel'
'jenny_'
'ili'
'hol'
'hitch_'
'farmer_'
'emma_'
'don'
'deb'
'browse_'
'bi_'
'ao'
'aesthetic_'
'acadia_'
'able'
'62_'
'60s_'
'2006_'
'workable_'
'tthe_'
'trainer_'
'telly_'
'table'
'ster_'
'staring_'
'stand'
'roger_'
'overrated_'
'navigation_'
'name'
'mir'
'met'
'margarita_'
'lot'
'lg_'
'leadership_'
'hype_'
'hertz_'
'fingers_'
'eti'
'docklands_'
'din'
'decadent_'
'cycled_'
'cross'
'coats_'
'clinton_'
'cer'
'cent'
'calibre_'
'bedroom'
'apologise_'
'ape'
'amber_'
'27th_'
'111_'
'xa'
'wh'
'square'
'sn'
'sioux_'
'settling_'
'scratches_'
'scooter_'
'scalding_'
'sab'
'resto_'
'rail'
'procedures_'
'poor'
'pan'
'oca'
'miguel_'
'mala'
'lift'
'indonesian_'
'hom'
'hampshire_'
'flawlessly_'
'eth'
'ert'
'did'
'cuc'
'conventional_'
'cob'
'check'
'cents_'
'ca'
'bun_'
'admission_'
'49'
'28'
' . !_'
'wilson_'
'therapy_'
'stadiums_'
'shin_'
'scotch_'
'rumble_'
'redecoration_'
'providence_'
'prado_'
'nea'
'nde'
'magazine_'
'litter_'
'lausanne_'
'jac'
'ive'
'involves_'
'intention_'
'inns'
'identify_'
'herd_'
'gon_'
'flavors_'
'essence_'
'eno'
'diss'
'cru'
'cooker_'
'cl'
'centrebut_'
'carrefour_'
'busch_'
'bakersfield_'
'bah'
'available'
'academy_'
'87_'
' ---_'
'trolleys_'
'sty'
'ste'
'spoon_'
'shelving_'
'shambles_'
'reflecting_'
'professional'
'ob'
'note'
'mickey_'
'martin'
'manda'
'manager'
'lod'
'isa_'
'insane_'
'hull_'
'hoi_'
'grow_'
'gran'
'functionality_'
'fred_'
'foodand_'
'fal'
'ethnic_'
'ellipticals_'
'dominated_'
'deira_'
'cri'
'counter'
'comp'
'bin'
'belong_'
'bel_'
' ( & _'
'worrying_'
'workshop_'
'wild'
'unit'
'unaware_'
'terry_'
'taupo_'
'runner_'
'rega'
'preserve_'
'pnc_'
'opener_'
'mor'
'messages_'
'market'
'irons_'
'indicating_'
'hut'
'garden'
'etr'
'dramatically_'
'creaked_'
'convienient_'
'cliff'
'cd'
'bump_'
'br'
'booze_'
'blueberries_'
'avignon_'
'aja'
'add'
'abroad_'
'terminus_'
'suite'
'substance_'
'squa'
'seaweed_'
'scramble_'
'rob_'
'qualify_'
'portofino_'
'mushy_'
'lug_'
'lthough_'
'lau'
'iu'
'haz'
'goodo'
'floorso_'
'everthing_'
'etta_'
'ett_'
'ella_'
'dle_'
'definitly_'
'convinient_'
'complemented_'
'coast'
'bri'
'bandwidth_'
'au'
'areai_'
'acco'
'107_'
'yourselves_'
'wit'
'wayand_'
'warrant_'
'unstable_'
'towne_'
'thereafter_'
'taster_'
'spar_'
'sooooo_'
'snow'
'smalland_'
'skies_'
'sided_'
'shortbread_'
'sam'
'rly_'
'retain_'
'remotely_'
'novelty_'
'net'
'lux_'
'lifted_'
'kids'
'kes_'
'ito'
'ink_'
'incidentally_'
'highlighted_'
'hel'
'gen'
'expresso_'
'esti'
'di'
'dayso_'
'beatles_'
'alabama_'
') '
' $ '
'treating_'
'tipped_'
'tai_'
'superb'
'stink_'
'shad'
'rat'
'quid_'
'quiche_'
'putt_'
'plaster_'
'pine'
'photography_'
'pee'
'overcharged_'
'omlette_'
'newness_'
'motorways_'
'minute'
'midwest_'
'limitations_'
'kin_'
'excuses_'
'engines_'
'dou'
'dio'
'dime_'
'defense_'
'conne'
'concord_'
'comfortablebut_'
'cas'
'belief_'
'audio_'
'ates_'
'ata'
'198'
'à_'
'wass'
'walking'
'uo'
'unre'
'uniform_'
'trident_'
'throwing_'
'swimmers_'
'shipping_'
'ship'
'sampling_'
'poli'
'neil_'
'nb'
'mg_'
'loire_'
'located'
'll'
'lia'
'lewis_'
'lessly_'
'less'
'install_'
'ima'
'idi'
'harley_'
'first'
'diligent_'
'dhaka_'
'devoid_'
'commode_'
'ck'
'checkpoint_'
'chances_'
'ceramic_'
'carri'
'barcelo_'
'aston_'
'arenal_'
'admitted_'
'54_'
'vallarta_'
'ult'
'tun'
'tuc'
'subsequently_'
'skill_'
'relationship_'
'ption_'
'pete_'
'pebble_'
'pate_'
'ness'
'missoula_'
'luton_'
'longest_'
'invoice_'
'i5_'
'hy_'
'has'
'frogs_'
'euro'
'escort_'
'downtownand_'
'das_'
'dartmouth_'
'cabot_'
'bow'
'adjoins_'
'abysmal_'
'45'
'-'
'" '
'vastly_'
'store'
'steeped_'
'spell_'
'slowest_'
'sign'
'short'
'senses_'
'sees_'
'sail_'
'pic'
'msp_'
'metered_'
'lyft_'
'lasting_'
'keswick_'
'jar_'
'iri'
'ingbut_'
'express'
'expe'
'everythingand_'
'etosha_'
'elevator'
'differences_'
'deliveries_'
'cousin_'
'cost'
'context_'
'byron_'
'breakfastso_'
'better'
'arose_'
'arg'
'amo'
'aco'
'90s_'
'192'
'wu'
'villa'
'tet'
'substantially_'
'stirling_'
'selection'
'robson_'
'ready'
'rea'
'preferring_'
'plum'
'para'
'nearby'
'nachos_'
'murano_'
'mil'
'md_'
'marais_'
'maison_'
'kona_'
'kelowna_'
'just'
'insight_'
'hob_'
'greated_'
'fool_'
'embarrassed_'
'ek_'
'decor'
'cul_'
'cou'
'combines_'
'char'
'burbank_'
'bracket_'
'bow_'
'believed_'
'beating_'
'ao_'
'androoms_'
'yale_'
'working'
'ven'
'vat'
'ual_'
'topping_'
'stopper_'
'spaghetti_'
'rotten_'
'remedy_'
'qi'
'problem'
'padded_'
'olives_'
'min'
'mariott_'
'kangaroos_'
'iw'
'iv_'
'hos'
'headache_'
'grassed_'
'gang'
'environs_'
'eh'
'dig'
'dca_'
'crawl_'
'cosmopolitan_'
'chilli_'
'camel_'
'aul'
'armoire_'
'admiring_'
'ach_'
'accounts_'
'95'
'197'
'''
' ( ! ) _'
'~_'
'wy_'
'workand_'
'willingly_'
'wever_'
'trapped_'
'styrofoam_'
'ssi'
'same'
'rho'
'rebuilt_'
'plazas_'
'peanut_'
'pads_'
'overs_'
'offsite_'
'nutshell_'
'navi'
'kochi_'
'il'
'hou'
'hops_'
'hilo_'
'highwayand_'
'hat'
'greenwich_'
'goose_'
'float_'
'fat'
'dm'
'cheshire_'
'carnival_'
'atmosphere'
'ately_'
'asks_'
'artist_'
'anywhere'
'andb'
'amp'
'zin'
'zer'
'walkbut_'
'vo_'
'uninteresting_'
'uniforms_'
'undisturbed_'
'torch_'
'therapists_'
'staffvery_'
'sought_'
'parkso_'
'om'
'morro_'
'look'
'logical_'
'innkeepers_'
'incline_'
'gro'
'god'
'ful'
'farthest_'
'eggs'
'eaton_'
'dragon_'
'distracting_'
'cumbersome_'
'carlo_'
'bygone_'
'brass_'
'bahia_'
'attractions'
'attempting_'
'angles_'
'47_'
'# _'
'yds_'
'walnut_'
'vie'
'tv'
'tos'
'tip'
'teton_'
'supervision_'
'stolen_'
'staffi_'
'soli'
'skeptical_'
'sj'
'rod'
'revolving_'
'retaining_'
'reps_'
'petite_'
'pdx_'
'ous'
'ook_'
'neon_'
'moist_'
'mantra_'
'mag'
'leaks_'
'lad'
'jamie_'
'ique_'
'hugh_'
'hq_'
'hearst_'
'handsome_'
'gad'
'fruit'
'ement_'
'ema'
'discussed_'
'demands_'
'cand'
'booths_'
'artistic_'
'antwerp_'
'ama'
'accents_'
'a2'
'zo_'
'yt'
'widely_'
'understands_'
'trading_'
'toffee_'
'themes_'
'tera'
'squirrels_'
'rutland_'
'roomsthe_'
'palaces_'
'nationalities_'
'mayan_'
'maritime_'
'mails_'
'ly'
'lei'
'layouts_'
'lag'
'kanab_'
'jasmine_'
'institute_'
'ini'
'hus'
'guildford_'
'floors'
'eso_'
'combinations_'
'brits_'
'bir'
'bei'
'barand_'
'atta'
'ath_'
'78_'
' -'
'youngsters_'
'whitby_'
'waverley_'
'ury_'
'tsa'
'sunrises_'
'spur_'
'southeast_'
'sive_'
'sin_'
'round'
'remark_'
'rein'
'punch_'
'oni_'
'newb'
'nas_'
'marina'
'lucia_'
'knee_'
'kia'
'inc'
'if'
'hur'
'hottest_'
'hoo'
'hobby_'
'exclusively_'
'exce'
'este'
'effi'
'dubious_'
'dg'
'cons'
'childrens_'
'busyso_'
'building'
'bio'
'aud_'
'atl_'
'artifacts_'
'aria_'
'argentina_'
'anything'
'anne'
'advanced_'
'abe'
'58_'
' ) .- _'
'vanilla_'
'unused_'
'treat'
'terre_'
'temper'
'stat'
'stairs'
'sse'
'sevilla_'
'sara_'
'rv'
'roomwe_'
'rockefeller_'
'rer'
'purpose'
'princeton_'
'politeness_'
'pat'
'passionate_'
'opulence_'
'obstructed_'
'mut'
'mgr_'
'mau'
'lucas_'
'loaf_'
'lk'
'ins'
'grotty_'
'fort'
'flashy_'
'finethe_'
'fax_'
'extra'
'explains_'
'ece'
'detracted_'
'creamy_'
'cort'
'corner'
'complains_'
'choc'
'chesterfield_'
'case'
'bubbles_'
'breezes_'
'brainer_'
'awoken_'
'ashford_'
'anti_'
'againand_'
'175_'
' ” '
' ( € _'
'ub_'
'therwise_'
'sums_'
'spec'
'rotana_'
'roomw'
'reverse_'
'ress_'
'responsibility_'
'responses_'
'renowned_'
'regal_'
'recreational_'
'rds_'
'poo'
'pont'
'placa_'
'peas_'
'ont_'
'lingering_'
'ist'
'isit_'
'harbor'
'graded_'
'fy_'
'epic_'
'efficient'
'died_'
'cruising_'
'chess_'
'buto'
'brewing_'
'bi'
'behalf_'
'before'
'bank'
'band'
'ac'
'?'
'wo'
'uma'
'tidy'
'tau'
'spotting_'
'songs_'
'solely_'
'seaport_'
'pes'
'oti'
'ning'
'nation_'
'mr'
'lodge'
'kat'
'jung'
'joes_'
'jet'
'innsbruck_'
'ic'
'hangout_'
'furniture'
'fronting_'
'exited_'
'enquired_'
'eh_'
'disappear_'
'din_'
'defintely_'
'croatia_'
'chain'
'carand_'
'burns_'
'bog_'
'amuse_'
'alarms_'
'83_'
'52_'
'21'
' : " _'
'— _'
'wowed_'
'vis_'
'tikal_'
'teenager_'
'sp_'
'southwestern_'
'siesta_'
'rdu_'
'rai'
'pros'
'phone'
'patiently_'
'ont'
'only'
'ole'
'nta'
'nect'
'modernising_'
'mo'
'midlands_'
'meticulous_'
'marmalade_'
'llo_'
'leon_'
'jelly_'
'inbut_'
'iar'
'huntington_'
'hind'
'herethe_'
'hal'
'guiding_'
'fraser_'
'fragrance_'
'fleet_'
'ep'
'disco'
'dennys_'
'delux_'
'conway_'
'commuting_'
'commanding_'
'comedy_'
'characterless_'
'buzzy_'
'bulk_'
'bearings_'
'bau'
'45am_'
'190'
'108_'
' $ $ _'
'zz'
'vacationing_'
'try'
'thatched_'
'taylor_'
'soft'
'sno'
'ska'
'sic'
'shops'
'sen_'
'regina_'
'rau'
'provence_'
'pref'
'prayer_'
'pal'
'orm'
'ori_'
'offer'
'nam'
'meal'
'magi'
'madeira_'
'lugging_'
'lle'
'lip_'
'lakeview_'
'josh_'
'hiked_'
'gins_'
'gallup_'
'ere'
'ech'
'ditto_'
'disposal_'
'disconnected_'
'definatly_'
'davis_'
'churchill_'
'certificate_'
'carb_'
'breast_'
'ari_'
'anonymous_'
'amman_'
'aldi_'
'88_'
'which'
'unimpressed_'
'tim'
'ti'
'sundowner_'
'sul'
'steamboat_'
'stacked_'
'shoddy_'
'sens'
'sara'
'sagged_'
'pul'
'pt'
'parkand_'
'nte_'
'nit'
'kon'
'keepers_'
'iva'
'institutional_'
'hun'
'hortons_'
'hoover_'
'hay'
'gul'
'gol'
'fra'
'drilling_'
'draining_'
'cap'
'bold_'
'vu'
'usbut_'
'ups'
'tudor_'
'tori'
'tle_'
'tam'
'tah'
'superlative_'
'stro'
'splashing_'
'skis_'
'sessions_'
'rundle_'
'pret'
'pesos_'
'pant'
'oke'
'ode'
'nola_'
'nee'
'macdonald_'
'ion'
'ineffective_'
'hydro_'
'gurgaon_'
'fying_'
'friendlyand_'
'elle'
'bose_'
'boro_'
'athletic_'
'aro'
'anchor_'
'amiable_'
' ( " _'
' ! !'
'wei'
'ute_'
'trou'
'trafford_'
'tiling_'
'theo'
'tei'
'tab_'
'su_'
'stor'
'stayi_'
'souk_'
'site'
'servicethe_'
'sci'
'schiphol_'
'rio'
'reason'
'person'
'parkbut_'
'panelling_'
'omo'
'nw'
'ngand_'
'news'
'neutrogena_'
'modern'
'ml'
'lettuce_'
'lay'
'koo'
'johns_'
'jin'
'invariably_'
'hair'
'favourable_'
'eta'
'environmental_'
'eir'
'earthquake_'
'draws_'
'discerning_'
'defo_'
'daw'
'damn_'
'consecutive_'
'cleanness_'
':- _'
' , # _'
'where'
'wheat_'
'wed_'
'wash'
'valletta_'
'useable_'
'upfront_'
'unpacking_'
'uan'
'tulip_'
'trevi_'
'tm'
'tc'
'strasbourg_'
'stinks_'
'sil'
'shutting_'
'shoot_'
'poop_'
'peep_'
'pam_'
'ought_'
'ost_'
'nonexistent_'
'nei'
'ne'
'nda'
'mum'
'methe_'
'mcd_'
'lm'
'law'
'irritation_'
'impressively_'
'i40_'
'grounds'
'gree'
'glamour_'
'gaps_'
'elli'
'edthe_'
'dust'
'dream'
'cana'
'butbreakfast_'
'bs'
'brea'
'blonde_'
'billy_'
'beacon_'
'bavarian_'
'arrive'
'adv'
'240_'
'~ _'
'zl'
'welcoming'
'tting_'
'tp_'
'townthe_'
'sultanahmet_'
'sters_'
'sba'
'sag'
'ong'
'okthe_'
'nab'
'mes'
'melted_'
'loch'
'ljubljana_'
'killed_'
'healthier_'
'gers_'
'fuji_'
'evi'
'esca'
'ern'
'dash_'
'condition'
'build'
'awesome'
'ani_'
'andd'
' ....'
' ' ' _'
'yeah_'
'xcellent_'
'wright_'
'tubes_'
'trio_'
'ted'
'standard'
'sideways_'
'rough'
'rap'
'popularity_'
'pelican_'
'palate_'
'oval_'
'obtrusive_'
'monitor_'
'miller_'
'lap'
'informing_'
'hilton'
'hail_'
'gob'
'frau'
'flown_'
'filtered_'
'exp'
'eugene_'
'ef'
'eds_'
'disruption_'
'descript_'
'cruise'
'complex'
'cil'
'christina_'
'canceled_'
'bettered_'
'beg'
'auburn_'
'asp'
'andthat_'
'andeverything_'
'akin_'
'yuan_'
'wobbly_'
'welli'
'wedding'
'warrior_'
'unheated_'
'thee_'
'ters_'
'tastings_'
'tart'
'sector_'
'rent'
'remo'
'reliably_'
'receptionand_'
'razor_'
'postcode_'
'pere'
'pepper'
'peach_'
'ox_'
'oth_'
'obscured_'
'nicole_'
'nge'
'near'
'nat_'
'larry_'
'hagia_'
'gathered_'
'gam'
'event'
'eld'
'disliked_'
'disc'
'conce'
'buff'
'brooklyn_'
'breezy_'
'bourke_'
'bour'
'bli'
'bishop_'
'aways_'
'auberge_'
'ater_'
'andnot_'
'anc'
'adams_'
'2005_'
'village'
'ust'
'tus'
'toy_'
'tiniest_'
'tch_'
'surprise'
'ssa_'
'skilled_'
'sightings_'
'sierra_'
'shorts_'
'separates_'
'sectional_'
'sauces_'
'rogers_'
'redi'
'qual'
'plusses_'
'ple'
'naga'
'morrison_'
'minh_'
'matthew_'
'mary'
'katie_'
'jorge_'
'jacuzzis_'
'ioni'
'intimidating_'
'ih'
'hunt'
'hes'
'greensboro_'
'gras_'
'europeans_'
'eau_'
'dumbbells_'
'drinkers_'
'designers_'
'awaits_'
'ado'
'29'
'129_'
'ut'
'temp'
'teeny_'
'swap_'
'summers_'
'subdued_'
'streets'
'stainless_'
'slu'
'skype_'
'sagging_'
'rightly_'
'refundable_'
'rambling_'
'quote_'
'pueblo_'
'observations_'
'meager_'
'mal_'
'mailed_'
'layed_'
'lava_'
'jos'
'ignoring_'
'harp'
'habit_'
'fuzzy_'
'facility'
'enti'
'edi'
'eagles_'
'dukes_'
'disruptive_'
'describes_'
'deca'
'completing_'
'cane_'
'brain'
'bathroomand_'
'andt'
'450_'
' :'
'workmen_'
'warr'
'waco_'
'vine_'
'urn_'
'uring_'
'unloaded_'
'swivel_'
'shone_'
'rna'
'quibbles_'
'puerta_'
'or'
'nickel_'
'minuscule_'
'main'
'lum'
'kenne'
'kampala_'
'iti_'
'ire'
'gou'
'golf'
'fronted_'
'folding_'
'facilties_'
'embassies_'
'deci'
'calle_'
'bldg_'
'blackfriars_'
'beaver_'
'barb'
'arguably_'
'alis'
'agu'
'againshould_'
'139_'
'! '
'woodstock_'
'wag'
'vines_'
'uns'
'unparalleled_'
'two'
'teri'
'swipe_'
'supporting_'
'sona'
'rudely_'
'rows_'
'representation_'
'quietso_'
'outweighed_'
'nordic_'
'meh_'
'marion_'
'license_'
'jury_'
'iona'
'illy_'
'hygienic_'
'hour'
'facilities'
'erf'
'eat'
'drum_'
'distance'
'cia'
'centered_'
'burg'
'bic'
'baton_'
'bai'
'aut'
'apportioned_'
'wal'
'troubles_'
'toe_'
'stan_'
'snap_'
'salt'
'sak'
'roadthe_'
'ped'
'oin'
'newbury_'
'mai'
'lagged_'
'ifi_'
'ido'
'gai'
'fo'
'fet'
'effecient_'
'darker_'
'cus'
'crossroads_'
'cortez_'
'congregate_'
'campsite_'
'awkwardly_'
'anta'
'anderson_'
'aiport_'
' ! ) '
'yne'
'wie'
'vientiane_'
'vic_'
'vic'
'upand_'
'unimaginative_'
'structures_'
'sr'
'spot'
'smashing_'
'sey'
'separation_'
'schedules_'
'roller_'
'risers_'
'restaurantand_'
'responding_'
'redo_'
'purchases_'
'pr'
'onthe_'
'object_'
'melissa_'
'mee'
'massively_'
'maha'
'lucked_'
'lauren_'
'kuta_'
'kle'
'kill'
'itu'
'ipe'
'iers_'
'huntsville_'
'gods_'
'gate'
'enticing_'
'dom'
'custer_'
'cushion_'
'crt_'
'coliseum_'
'civic_'
'champ'
'bang'
'attendance_'
'ante'
'106_'
',,_'
'uts_'
'thier_'
'terraced_'
'tanger_'
'substitute_'
'stru'
'ste_'
'sour'
'showerthe_'
'screwed_'
'rew'
'prestige_'
'precious_'
'poker_'
'perfunctory_'
'ort'
'ops_'
'nominal_'
'neo'
'moonstone_'
'margaritas_'
'luggage'
'lotions_'
'laguardia_'
'jurys_'
'ility_'
'gg'
'farewell_'
'ert_'
'enter'
'drinkable_'
'disability_'
'detector_'
'crime_'
'complexes_'
'closed'
'chis'
'casitas_'
'calm'
'boxed_'
'badge_'
'amused_'
'airportthe_'
'after'
'acknowledgement_'
'34'
'1960s_'
'1950_'
'yl'
'windhoek_'
'whirl'
'wasvery_'
'vee'
'tuktuk_'
'tambo_'
'tallahassee_'
'staf_'
'sit'
'sainsburys_'
'proper'
'pointless_'
'pitt'
'pavillion_'
'pathways_'
'own'
'ond'
'offs_'
'nautical_'
'nap'
'municipal_'
'monte'
'measures_'
'maca'
'lu_'
'love'
'lifestyle_'
'kate_'
'innkeeper_'
'hul'
'hoi'
'glaciers_'
'geese_'
'friendlythe_'
'forewarned_'
'films_'
'excelled_'
'creams_'
'cornell_'
'contacting_'
'colosseum_'
'clayton_'
'chore_'
'can'
'bedlinen_'
'badlands_'
'anu'
'angela_'
'andaz_'
'ageing_'
'ade_'
'achi'
'81'
' ; '
'yearly_'
'usi'
'tri_'
'toes_'
'toddlers_'
'snowing_'
'slammed_'
'servicebut_'
'scru'
'royale_'
'rac'
'query_'
'pioneer_'
'phi_'
'parcs_'
'oktoberfest_'
'motorbike_'
'mora'
'misc'
'minster_'
'keycard_'
'itt'
'insult_'
'hig'
'grumble_'
'got'
'familia_'
'er'
'econo_'
'cycles_'
'crest_'
'chipping_'
'chile_'
'brandon_'
'bathroomthe_'
'attributes_'
'2019_'
' ?'
'worth'
'wembley_'
'ust_'
'tothe_'
'tiffany_'
'ta'
'stad'
'softball_'
'silom_'
'shakespeare_'
'ronda_'
'remodel'
'refridgerator_'
'pretend_'
'pints_'
'pd'
'pale_'
'ora_'
'obi'
'np'
'nl'
'mores_'
'menta'
'ment'
'mega'
'm2_'
'lovel'
'lor'
'leave'
'knives_'
'kilkenny_'
'jeddah_'
'itc_'
'iss'
'isc'
'ira_'
'involve_'
'ingthe_'
'independently_'
'hummingbirds_'
'howard_'
'hast'
'gore'
'filet_'
'excels_'
'edly_'
'dl'
'denied_'
'daybut_'
'contents_'
'class'
'chao'
'call'
'butbe'
'bathroombut_'
'basic'
'awaited_'
'arkansas_'
'andmy_'
'amb'
'\\_'
'wet'
'vicksburg_'
'vesuvius_'
'ventura_'
'unc'
'tracker_'
'torquay_'
'skylight_'
'sewer_'
'semi'
'scrubbing_'
'sa'
'roc'
'rn'
'rif'
'rico_'
'rc_'
'rattled_'
'rance_'
'petty_'
'percent_'
'peek_'
'pasti'
'opo'
'normandy_'
'nis_'
'midland_'
'mendocino_'
'mena'
'mario_'
'lon'
'log'
'lic_'
'laughed_'
'jonathan_'
'intent_'
'inge'
'horse'
'greg_'
'gi'
'focussed_'
'farms_'
'eys_'
'dorm'
'direct'
'dee'
'cted_'
'chamber_'
'cel'
'cann'
'buds_'
'boast_'
'asparagus_'
'allo'
'wha'
'tram'
'tif'
'taller_'
'sup'
'suites'
'spared_'
'sorely_'
'somewhere'
'shuttle'
'scu'
'sagrada_'
'ru_'
'polynesian_'
'pis'
'perform_'
'panda_'
'owl_'
'opry_'
'nouveau_'
'nal'
'mant'
'lavender_'
'lar_'
'kie'
'inevitable_'
'inclement_'
'ier'
'ient'
'ien'
'ico'
'guatemala_'
'girona_'
'fin'
'drinks'
'disney'
'descriptions_'
'conceirge_'
'clip'
'cityso_'
'charms_'
'charge'
'breakfest_'
'breafast_'
'ate'
'asi'
'anticipating_'
'andcheck_'
'aero'
'29th_'
'0s_'
'yy'
'wichita_'
'wang'
'valid_'
'unplug_'
'unfinished_'
'ture_'
'trash'
'tourist'
'tay'
'takeout_'
'sth'
'sli'
'sleepless_'
'population_'
'plunger_'
'pest_'
'patty_'
'pane_'
'opa'
'oor_'
'officer_'
'offensive_'
'nth'
'niece_'
'modestly_'
'mira'
'merri'
'meridian_'
'marsh_'
'marc'
'indicates_'
'in'
'finer_'
'etcbut_'
'doors'
'distr'
'cub'
'courthouse_'
'coolest_'
'colli'
'close'
'chit'
'causes_'
'categories_'
'carp'
'calories_'
'burn'
'brandy_'
'bor'
'bird'
'bats_'
'barbut_'
'alittle_'
'adjusting_'
'/'
'untidy_'
'tranquillity_'
'tending_'
'sucked_'
'spi'
'soviet_'
'sirloin_'
'shir'
'she'
'sav'
'sandwiched_'
'rescue_'
'redwoods_'
'prof'
'porta_'
'phil_'
'pf_'
'pent'
'office'
'norman_'
'nh'
'must'
'mitte_'
'lille_'
'lga_'
'kay_'
'isla_'
'ient_'
'helena_'
'foodbut_'
'fired_'
'fatty_'
'fancied_'
'dependent_'
'debbie_'
'darkening_'
'coeur_'
'cm'
'circulation_'
'brusque_'
'bouncy_'
'bistros_'
'awfully_'
'aly'
'accomodated_'
'triomphe_'
'token_'
'tekapo_'
'teach_'
'stre'
'softest_'
'scotia_'
'rin'
'regretted_'
'raj'
'prec'
'pie'
'peculiar_'
'parti'
'oun'
'oc_'
'norwegian_'
'mei'
'mashed_'
'maryland_'
'marian'
'mackinac_'
'lled_'
'lik'
'iz'
'ipanema_'
'inhouse_'
'ingles_'
'ij'
'halloween_'
'grease_'
'fur'
'francis_'
'flam_'
'fes_'
'face'
'externally_'
'elk'
'downtown'
'dedication_'
'decorated'
'confirming_'
'citizen_'
'chip'
'carl'
'busybut_'
'britain_'
'bedbut_'
'alway_'
'allowance_'
'48'
'04_'
'+ '
' .# _'
'warriors_'
'urge_'
'timed_'
'throwback_'
'terri'
'talkative_'
'stuart_'
'solicitous_'
'slightest_'
'sei'
'saloon_'
'rup'
'robust_'
'riverand_'
'resembles_'
'repeating_'
'recomm'
'preserves_'
'prefect_'
'petersburg_'
'noisebut_'
'neg'
'minnesota_'
'mata'
'mann'
'macon_'
'logs_'
'logging_'
'lad_'
'kidding_'
'ish'
'into'
'hk'
'hir'
'guitar_'
'guessed_'
'grave'
'gly_'
'fenway_'
'ev'
'enquiries_'
'drama_'
'diy_'
'dishe'
'disappointingly_'
'curries_'
'communications_'
'claw_'
'cht'
'cay'
'carrot_'
'carlisle_'
'canyons_'
'canyonlands_'
'bona'
'boarded_'
'blasting_'
'annoyances_'
'andthen_'
'amid_'
'ake_'
'agreement_'
'agoda_'
'abc_'
'year'
'windowless_'
'thie'
'tain'
'tack'
'straw_'
'steep'
'sociable_'
'scot'
'savoury_'
'repro'
'postcard_'
'pillars_'
'pert'
'ound_'
'ott_'
'multilingual_'
'modernis'
'meand_'
'manu'
'manic_'
'lloyd_'
'kei'
'investigate_'
'imho_'
'iga'
'hro'
'heart'
'galley_'
'file_'
'els'
'dumped_'
'dining'
'cur'
'croquet_'
'concession_'
'commi'
'chewy_'
'bumping_'
'boon_'
'bloomsbury_'
'banter_'
'balloons_'
'aug_'
'att'
'apollo_'
'andp'
'acu'
'accomplished_'
'51_'
'yr'
'yes'
'worlde_'
'tl'
'tand'
'susan_'
'snack'
'sloped_'
'scope_'
'sas_'
'rightand_'
'restraunt_'
'replenishment_'
'potter_'
'personel_'
'oul'
'mp_'
'morningthe_'
'milling_'
'meat'
'macquarie_'
'littered_'
'kno'
'kit'
'hyderabad_'
'gion_'
'fam'
'dul'
'dre'
'dong_'
'dept_'
'curr'
'court'
'convient_'
'convien'
'cn_'
'closure_'
'cascais_'
'carn'
'cardi'
'brown'
'beaufort_'
'bally'
'antly_'
'antic'
'aka'
'ag'
'75'
'204_'
'uous_'
'uncommon_'
'unb'
'tablets_'
'sty_'
'sted_'
'slipping_'
'shut'
'rui'
'rosa'
'roar_'
'realistic_'
'qualified_'
'port'
'pools'
'photograph_'
'nostalgic_'
'northampton_'
'nm_'
'needs'
'nancy_'
'namely_'
'montparnasse_'
'mine'
'lou'
'leela_'
'jerry_'
'hamburgers_'
'grandma_'
'gle_'
'floorthe_'
'flagship_'
'est'
'esb'
'ena_'
'emp'
'dinner'
'cti'
'caps_'
'butoverall_'
'buffer_'
'bog'
'bf_'
'bedtime_'
'beau_'
'assets_'
'andha'
'82_'
'won'
'uss'
'thurs_'
'terminal'
'swissotel_'
'sui'
'stunk_'
'soi'
'scuff_'
'ros_'
'roo'
'reluctantly_'
'recieved_'
'qa'
'prim'
'priceand_'
'peterborough_'
'party'
'pars'
'oy_'
'oon'
'mme'
'limited'
'kansai_'
'initiative_'
'ime'
'haveli_'
'galilee_'
'farmhouse_'
'famed_'
'fab'
'et'
'design'
'dee_'
'dea'
'cosmetics_'
'copthorne_'
'cooktop_'
'cockroaches_'
'choices'
'chit_'
'cant'
'businessmen_'
'breweries_'
'both'
'bas'
'bars'
'ave'
'art'
'amex_'
'amazon_'
' & '
'wea'
'ville'
'unexciting_'
'tru'
'tidied_'
'thon_'
'tha_'
'tas'
'sw_'
'style'
'spen'
'reme'
'quit'
'push'
'piled_'
'parker_'
'pai'
'overnight'
'obs'
'mildly_'
'mg'
'member'
'marm'
'lido_'
'lagos_'
'keg_'
'johnny_'
'hab'
'freshened_'
'franschhoek_'
'fairgrounds_'
'europa_'
'dodge_'
'custard_'
'conscientious_'
'comfortablei_'
'chedi_'
'casablanca_'
'brag_'
'binoculars_'
'appro'
'alp'
'acting_'
'a'
'62'
'495_'
'208_'
' ........._'
' ! ._'
'zh'
'whe'
'uva_'
'usd'
'urg_'
'unsatisfactory_'
'uncon'
'ular_'
'tee'
'stu'
'stanford_'
'spelling_'
'spaci'
'situations_'
'sis'
'sean_'
'scrape'
'saw'
'rupees_'
'revel'
'rede'
'recipe_'
'proc'
'poorest_'
'pl'
'per'
'pear_'
'past'
'par'
'lough_'
'jackie_'
'inclusion_'
'hum'
'how'
'hotelo'
'holders_'
'hoe'
'hdmi_'
'gha'
'gf_'
'gel'
'frosty_'
'ew_'
'esh_'
'eer'
'eda'
'due'
'donna_'
'done'
'distraction_'
'cram'
'cheers_'
'cf'
'carparking_'
'bug'
'blamed_'
'bear'
'ast'
'arte'
']. _'
'53'
' :( _'
'• _'
'zar'
'uniqueness_'
'turnover_'
'to'
'tasman_'
'survey_'
'strip'
'slum'
'sed'
'seat'
'rma'
'respectable_'
'resist_'
'researching_'
'rece'
'prep_'
'prairie_'
'pamper_'
'osh'
'ores_'
'oi'
'nonsmoking_'
'mykonos_'
'mansions_'
'lude'
'lifting_'
'lads_'
'korea_'
'invite_'
'honking_'
'grimy_'
'gaze_'
'fly'
'excessively_'
'errors_'
'encounters_'
'dona'
'disapointed_'
'dirty'
'denise_'
'conducted_'
'chel'
'cactus_'
'butterfly_'
'booked'
'blissfully_'
'atocha_'
'adapted_'
'37'
' ’ ._'
' ;)_'
'zes_'
'zanzibar_'
'wires_'
'unreal_'
'unin'
'ubiquitous_'
'translate'
'timings_'
'sum'
'strolled_'
'stowe_'
'spiders_'
'spectrum_'
'shri'
'sensor_'
'sandra_'
'saba'
'returns_'
'prices'
'olympics_'
'odo'
'nted_'
'nightit_'
'nighter_'
'nces_'
'mosaic_'
'mixer_'
'magnifying_'
'latch_'
'interlaken_'
'however'
'hero'
'gratuity_'
'gardens'
'fridge'
'freeze_'
'footbridge_'
'flea_'
'fail'
'ebo'
'cum_'
'chai_'
'cb'
'blazing_'
'blank_'
'barbican_'
'awaybut_'
'areaa'
'andrews_'
'aff'
'yam'
'worcester_'
'vr'
'urgently_'
'trin'
'townplace_'
'thr_'
'tested_'
'stare_'
'snooty_'
'snag_'
'silver'
'rub'
'rl'
'ris'
'repellent_'
'prob'
'pickle'
'oon_'
'menin_'
'mak'
'm5'
'kebab_'
'kathmandu_'
'julia_'
'hug'
'hotelthere_'
'hanger_'
'hammam_'
'greati_'
'gals_'
'fl'
'fifty_'
'fer_'
'expect'
'existed_'
'ett'
'emerge'
'em'
'elevation_'
'duly_'
'cos'
'christ'
'chick_'
'centric_'
'cala'
'bute'
'britannia_'
'box'
'borderline_'
'boil_'
'block'
'arth'
'agin_'
'affiliated_'
'abut_'
'96_'
'24h_'
' :) ._'
' + '
'zen'
'yuck_'
'witness_'
'whistler_'
'watermelon_'
'upt'
'terra_'
'taksim_'
'sweden_'
'stead_'
'smell'
'sl'
'sex_'
'rosebank_'
'reminding_'
'ray'
'quot'
'quays_'
'parent_'
'oss'
'oliver_'
'ola'
'oceanview_'
'niceit_'
'mist'
'lyn'
'loan_'
'learnt_'
'irvine_'
'impractical_'
'ida'
'horrific_'
'hooters_'
'graham_'
'downs'
'doubts_'
'donegal_'
'dh'
'dd'
'cui'
'corte_'
'classed_'
'carrots_'
'caroline_'
'canton_'
'breathe_'
'bedi_'
'bb_'
'bari'
'backpackers_'
'aust'
'arise_'
'arctic_'
'alton_'
'adapt'
'97_'
'295_'
'"-'
'£_'
'yarra_'
'vet'
'vacancy_'
'tz_'
'tul'
'tombstone_'
'takeaways_'
'stayed'
'sly_'
'sant'
'roe'
'restaurantthe_'
'rem'
'redwood_'
'pooland_'
'planted_'
'pill'
'pheasant_'
'patricia_'
'parma_'
'paddy_'
'overc'
'oliv'
'oa_'
'nk'
'lists_'
'lam'
'kiddie_'
'jack'
'ivi'
'isles_'
'husband'
'hotela'
'gelato_'
'freeway'
'frankenmuth_'
'exquisitely_'
'exhausting_'
'epitome_'
'emi'
'e'
'drowned_'
'doubtful_'
'dc'
'counted_'
'cote_'
'chrome_'
'chant'
'cet'
'cavernous_'
'cari'
'asa'
'alleyway_'
'ae_'
'act'
'209_'
' ........ _'
'wir'
'wig'
'westport_'
'vest'
'ull_'
'uck'
'tuscan_'
'tools_'
'thy_'
'surreal_'
'steer_'
'snowed_'
'sites'
'simplicity_'
'shard_'
'shaft_'
'rudeness_'
'rook_'
'reims_'
'poolbut_'
'pon'
'outsidebut_'
'ors'
'olds_'
'nag'
'mus'
'mous'
'mater'
'interactive_'
'inse'
'incidentals_'
'inability_'
'ics_'
'helm'
'hastings_'
'hamp'
'gin'
'gently_'
'forty_'
'flows_'
'eri'
'enabling_'
'demeanor_'
'cran'
'copies_'
'cone'
'cir'
'chen'
'cascades_'
'butt'
'blackb'
'bility_'
'apo'
'andwhat_'
'andin'
'900_'
' ./ _'
'winter'
'waitrose_'
'untrained_'
'unplugged_'
'unda'
'uer'
'uc'
'trickle_'
'tobacco_'
'thisand_'
'swings_'
'streetthe_'
'standards'
'seamlessly_'
'screw_'
'rothenburg_'
'rot'
'rocket_'
'roadtrip_'
'rie_'
'protection_'
'policies_'
'pick'
'panelled_'
'osa_'
'oc'
'moves_'
'modernly_'
'mano'
'injury_'
'ined_'
'i2'
'hideous_'
'gum_'
'gna'
'gge'
'forgive_'
'fle'
'doll'
'demi'
'consequence_'
'compli'
'cobblestone_'
'bumps_'
'bui'
'borgata_'
'ava'
'annoyingly_'
'alcazar_'
'alaskan_'
'ahmedabad_'
'yet'
'westerners_'
'wellthe_'
'walki'
'waived_'
'volcanoes_'
'verizon_'
'veri'
'utilised_'
'understandably_'
'tempe_'
'southwark_'
'sled'
'skin'
'sis_'
'shrugged_'
'self'
'scone_'
'rainshower_'
'pha'
'papa_'
'ota'
'ord'
'novotels_'
'monks_'
'moncton_'
'mingle_'
'milton_'
'lowered_'
'logistics_'
'little'
'kind'
'hanover_'
'hallmark_'
'gymnasium_'
'firm'
'eng'
'elle_'
'dupont_'
'dot'
'dge'
'ders_'
'dealings_'
'curve_'
'cook'
'coff'
'clockwork_'
'citizens_'
'bot'
'bloom_'
'beg_'
'bargains_'
'atms_'
'appointed'
'andjust_'
'55'
'191'
'yokohama_'
'wt'
'vita'
'vieux_'
'validated_'
'utter_'
'uae_'
'su'
'stew_'
'spaceous_'
'shifts_'
'shan_'
'sear'
'reh'
'recovery_'
'racket_'
'pir'
'opp'
'officially_'
'nic'
'mirrored_'
'microtel_'
'micro'
'marlborough_'
'lowe'
'knightsbridge_'
'incompetent_'
'honour_'
'heels_'
'gue_'
'fr'
'fixings_'
'exchanged_'
'eff'
'ede'
'economic_'
'eb'
'dw'
'delaware_'
'default_'
'cott'
'cont'
'cheeky_'
'cass'
'attribute_'
'ang'
'adapter_'
'acce'
'56_'
'275_'
'206_'
'1800_'
'yar'
'winston_'
'wes'
'wasa'
'valentines_'
'trade'
'throughly_'
'technician_'
'tat'
'strips_'
'stationbut_'
'stamp_'
'smart'
'shrewsbury_'
'saturdays_'
'sanitary_'
'roads'
'reporting_'
'rendezvous_'
'remodelled_'
'rell'
'reli'
'quantities_'
'proficient_'
'poole_'
'others'
'odi'
'noc'
'nam_'
'mersey_'
'limo'
'kers_'
'katherine_'
'kath'
'jon'
'jim'
'ironed_'
'hu_'
'hee'
'gun_'
'fir'
'fie'
'feathers_'
'excellentthe_'
'disinfectant_'
'dim'
'cranberry_'
'courtyard'
'courteously_'
'contract_'
'contin'
'confi'
'combining_'
'coins_'
'coi'
'cite_'
'cheyenne_'
'cannes_'
'brekky_'
'barra'
'alleys_'
'afternoon'
'absurd_'
'150'
'.- _'
'!!_'
' ! ! ) _'
'undrinkable_'
'tacoma_'
'suit'
'stomping_'
'stinky_'
'resort'
'reas'
'proposition_'
'points'
'please'
'pea_'
'onbut_'
'okc_'
'nightstands_'
'mw'
'moe'
'minu'
'millenium_'
'merchant_'
'meantime_'
'mask'
'maris'
'longhorn_'
'locking_'
'knysna_'
'kh'
'kara'
'inroom_'
'indo'
'impacted_'
'hiding_'
'helier_'
'hear'
'hb'
'haw'
'haus_'
'gust'
'fells_'
'excluding_'
'ents_'
'emb'
'diversity_'
'distillery_'
'deceiving_'
'counting_'
'configured_'
'competitor_'
'collect'
'closet'
'chemicals_'
'bridge'
'ban_'
'andservice_'
'ambi'
'63_'
'110'
'ypres_'
'wise'
'whitefish_'
'waters'
'unmatched_'
'tian_'
'talks_'
'sunbathe_'
'sounding_'
'sightsee_'
'seas'
'rivals_'
'resonable_'
'quin'
'pounding_'
'pole_'
'perc'
'parque_'
'oz'
'organizing_'
'option'
'onal_'
'nst'
'nascar_'
'mour'
'mop_'
'mixing_'
'lif'
'kauai_'
'janet_'
'itch'
'inp'
'indulgent_'
'hera'
'happiness_'
'grain_'
'goat_'
'freak'
'except'
'enquire_'
'dreamy_'
'downtownso_'
'dow'
'deli'
'daythe_'
'creak_'
'chand'
'carpet'
'butc'
'bale'
'athroom_'
'arguing_'
'amiss_'
'53_'
'302_'
'"'
' ,'
'zayed_'
'una_'
'tum'
'surf'
'suprise_'
'stifling_'
'spices_'
'sebel_'
'ross'
'rf'
'readers_'
'practic'
'ponte_'
'pod'
'parlour_'
'paragon_'
'pants_'
'paneling_'
'orth'
'oll'
'nothing'
'mts_'
'mighty_'
'math'
'mack'
'kap'
'jade_'
'indore_'
'ila'
'housekeeping'
'highwaybut_'
'haunted_'
'hake_'
'grossly_'
'grime_'
'grass'
'grapes_'
'gne'
'gent'
'generat'
'gand'
'fiddl'
'facet'
'eyre_'
'expanse_'
'ela_'
'eighth_'
'eccentric_'
'dumpster_'
'du'
'doc'
'demonstrated_'
'delegates_'
'colin_'
'cli'
'cac'
'bikers_'
'beni'
'andf'
'ams_'
'amd_'
'agua'
'0am_'
')- _'
' :- _'
'weston_'
'waybut_'
'vision_'
'vir'
'troubled_'
'toileteries_'
'teabags_'
'sundries_'
'stin'
'spanking_'
'sharks_'
'sensibly_'
'savi'
'sage_'
'pr_'
'poly'
'pointe_'
'pages_'
'osi'
'oro'
'odds_'
'nr'
'nin'
'morrisons_'
'mauritius_'
'major'
'ld'
'label_'
'inters'
'insanely_'
'ica'
'hermes_'
'gru'
'gels_'
'erand_'
'district'
'dies_'
'demanded_'
'companions_'
'charlottetown_'
'chair'
'buss'
'bron'
'bie'
'ays_'
'andon_'
'ake'
'215_'
'yed_'
'uce'
'troy_'
'toma'
'toasty_'
'tham'
'swim'
'sud'
'solitude_'
'simpler_'
'shots_'
'roman'
'restauranti'
'rele'
'raven'
'raj_'
'priceybut_'
'phil'
'payable_'
'paces_'
'ora'
'once'
'nie_'
'ners_'
'nang_'
'mk_'
'mean'
'leigh_'
'las'
'lal'
'kim'
'ipads_'
'infused_'
'hilarious_'
'gig'
'erb'
'ell'
'dragged_'
'dad'
'consuming_'
'concentrate_'
'championship_'
'cease'
'cata'
'bullet_'
'brittany_'
'boc'
'bayswater_'
'awarded_'
'aux_'
'aussie_'
'astro'
'aren'
'aed_'
'actions_'
'63'
'38'
'120'
'ó'
'wri'
'unw'
'unbearably_'
'ug'
'traps_'
'tbut_'
'sympathetically_'
'stripe'
'strikes_'
'stretches_'
'steamed_'
'stansted_'
'spu'
'society_'
'smallso_'
'salo'
'rut'
'roberto_'
'revealed_'
'remarks_'
'pirates_'
'parki'
'panc'
'outthe_'
'nut'
'noisiest_'
'monticello_'
'mod'
'mend'
'malvern_'
'm62_'
'leftover_'
'isi'
'identified_'
'hurr'
'hordes_'
'hn'
'hbf_'
'garage'
'foxtel_'
'foodie_'
'figuring_'
'famil'
'exhibit_'
'exellent_'
'establish'
'erg'
'credited_'
'convenient'
'codes_'
'civilised_'
'chickens_'
'chart'
'centreso_'
'butp'
'borrowed_'
'bon_'
'baking_'
'atmos'
'arr'
'apps_'
'adorned_'
'203_'
'$ '
' ! ?_'
'wim'
'wagga_'
'unlocked_'
'twee'
'turf_'
'traders_'
'tesla_'
'survive_'
'supreme_'
'smooth'
'skywalk_'
'shoe'
'safest_'
'rum'
'rival_'
'refi'
'receptive_'
'raining'
'purchasing_'
'peruvian_'
'nell'
'muse'
'mug_'
'muck'
'motorbikes_'
'mm'
'lyn_'
'live'
'left'
'labeled_'
'kari'
'hd'
'hart'
'gno'
'gen_'
'facebook_'
'execution_'
'eva'
'equipments_'
'elevators'
'ega'
'dental_'
'dear'
'cows_'
'classi'
'chew'
'buisness_'
'buc'
'benefited_'
'beech_'
'beatiful_'
'aud'
'attentative_'
'allen_'
'303_'
' : + _'
' " ... _'
'youngest_'
'wd'
'ward'
'vanderbilt_'
'undo'
'strongest_'
'staffbut_'
'springy_'
'socializing_'
'sidebut_'
'showerand_'
'shopped_'
'ride'
'ps'
'profit_'
'prize_'
'posting_'
'pirate_'
'passports_'
'oahu_'
'nk_'
'ngton_'
'miniscule_'
'meadow_'
'maggiore_'
'lua'
'lis_'
'lim'
'labelled_'
'kes'
'interacting_'
'inga'
'implies_'
'hap'
'fudge_'
'final'
'fas'
'eries_'
'dreaded_'
'diana_'
'dho'
'davidson_'
'davenport_'
'dab_'
'cuppa_'
'conta'
'comfiest_'
'cinemas_'
'cin'
'cctv_'
'cave'
'caulk_'
'booklet_'
'blas'
'bike'
'beat'
'barstow_'
'ative_'
'argument_'
'ares'
'andal'
'36'
'15am_'
'1500_'
' ” , _'
'wick'
'what'
'uto'
'uneasy_'
'tyler_'
'trail'
'tasks_'
'tail'
'swo'
'straighten'
'stir_'
'stays'
'socialize_'
'ripp'
'repa'
'recomended_'
'ramen_'
'pricey'
'priced'
'posti'
'pitlochry_'
'ots_'
'occur_'
'occupy_'
'nos'
'nightclubs_'
'nen'
'mebut_'
'machinery_'
'lorries_'
'lemon'
'kroger_'
'khao_'
'keith_'
'journal_'
'inne'
'ich_'
'horror_'
'hikers_'
'habit'
'gorilla_'
'godsend_'
'gard'
'fri'
'enda'
'duct_'
'diagonally_'
'db_'
'ction_'
'consumed_'
'confined_'
'comb_'
'citrus_'
'christine_'
'card'
'butvery_'
'butthis_'
'breakast_'
'boxing_'
'bound'
'boracay_'
'boone_'
'bestbut_'
'backwaters_'
'ark'
'accomadating_'
'31st_'
' ...'
'wilt'
'utt'
'underpass_'
'uel'
'troublesome_'
'trans'
'thre'
'tetons_'
'tari'
'steam'
'som'
'seam'
'ria'
'restraunts_'
'reheated_'
'receives_'
'rath'
'presentations_'
'outbut_'
'onions_'
'onb'
'ngs'
'ndi'
'mount'
'mold'
'minds_'
'mentions_'
'manuel_'
'malaysia_'
'lugano_'
'longish_'
'lanzarote_'
'kuala_'
'kra'
'itit_'
'intelligent_'
'hotspot_'
'het'
'herm'
'hams_'
'gammon_'
'fox'
'ein_'
'eastbourne_'
'ears_'
'disagree_'
'dilapidated_'
'daytona_'
'dari'
'clam'
'cheer_'
'chal'
'camel'
'busythe_'
'brill_'
'belt'
'ame'
'accommodation'
'31'
' ..'
' ) .( _'
'walla_'
'vernon_'
'utes_'
'unst'
'unpa'
'und'
'trolly_'
'tir'
'tenders_'
'tal'
'swivel'
'swinging_'
'sv'
'sundance_'
'sterling_'
'sponge_'
'southport_'
'smoothie_'
'sham'
'seclusion_'
'seas_'
'schl'
'rtion'
'rti'
'rri'
'riders_'
'regen'
'programming_'
'prob_'
'premiere_'
'pictured_'
'pains_'
'obligatory_'
'nio'
'nest'
'munch'
'loi'
'loa'
'lise'
'lebanese_'
'leaning_'
'landings_'
'johan'
'jardin_'
'isn'
'institution_'
'hr'
'hearts_'
'headland_'
'grasmere_'
'fron_'
'fors'
'f1_'
'egg'
'dislikes_'
'diff'
'delicious'
'daunting_'
'coventry_'
'convince_'
'confuse_'
'chime'
'bomb'
'bedroomed_'
'artsy_'
'adeje_'
'accurately_'
'91'
'65'
'woolworths_'
'videos_'
'unpredictable_'
'unl'
'unesco_'
'uch_'
'tiananmen_'
'thimphu_'
'target'
'spic_'
'sleepand_'
'shrine_'
'shortcoming_'
'sas'
'riyadh_'
'rand'
'oms_'
'och_'
'notify_'
'nn'
'ngorongoro_'
'nebraska_'
'nearbyso_'
'modernization_'
'mis_'
'maur'
'mason_'
'luck'
'labyrinth_'
'kyle_'
'kla'
'karon_'
'juliet_'
'jal'
'inevitably_'
'inappropriate_'
'ht_'
'heli'
'goi'
'ggi'
'gene'
'forests_'
'flat'
'exe'
'eto'
'enth'
'ege'
'downgraded_'
'dong'
'deficiencies_'
'curv'
'coughing_'
'const'
'communicating_'
'clay_'
'butroom_'
'brownie_'
'bing_'
'beli'
'bedsheets_'
'aura_'
'aesthetics_'
'acoustics_'
'72'
'4star_'
'2b'
'xb'
'wife'
'upp'
'unders'
'transformation_'
'supervised_'
'successfully_'
'stock'
'still'
'stewart_'
'sek'
'scor'
'salvador_'
'precise_'
'pom'
'pensacola_'
'peanuts_'
'patches_'
'patched_'
'pain'
'ose_'
'nell_'
'negotiating_'
'meanwhile_'
'meads_'
'mat'
'lex'
'kea'
'jaw_'
'issue'
'ior'
'inventive_'
'ines_'
'iga_'
'grafton_'
'grace'
'expenses_'
'duo_'
'dat'
'cucumber_'
'convivial_'
'commuter_'
'butf'
'bush'
'bloom'
'baron'
'bake_'
'andlo'
'alca'
'airways_'
'afterthought_'
' ! ! '
'í'
'yal'
'www_'
'win'
'whim_'
'walls'
'vila'
'verify_'
'tidyand_'
'tf'
'term'
'tenth_'
'strive_'
'stayit_'
'sophie_'
'sole'
'soc'
'seg'
'school'
'rto'
'roomservice_'
'rim'
'resources_'
'really'
're'
'rattling_'
'randomly_'
'positioning_'
'po_'
'peacock_'
'overnighting_'
'oto'
'osu_'
'orti'
'octagon_'
'och'
'occupying_'
'obe'
'noble_'
'nev'
'neat'
'marvel_'
'm40_'
'leve'
'leo_'
'leaky_'
'kro'
'jewelry_'
'jail_'
'ind'
'hurst_'
'hend'
'hands'
'hack'
'guil'
'ganges_'
'faith_'
'engagement_'
'ec_'
'eal'
'dub'
'dt_'
'disrepair_'
'dank_'
'cuz'
'communicated_'
'cn'
'cle_'
'cis'
'chau'
'charmingly_'
'cascade_'
'cameron_'
'bry'
'birding_'
'bintang_'
'ascot_'
'aroundand_'
'andma'
'acom'
'230_'
'2004_'
'1930_'
'112_'
' ......... _'
' , ....'
'wraps_'
'wdw_'
'vik_'
'ves'
'vau'
'vacationers_'
'ula_'
'tut'
'thes'
'taiwan_'
'stormy_'
'stephan'
'spo'
'speed'
'solvang_'
'runways_'
'ric'
'raved_'
'prom'
'preston_'
'periodically_'
'pand'
'outs'
'orn'
'mm_'
'miri'
'mates_'
'manyara_'
'lon_'
'liver'
'lg'
'lei_'
'legal_'
'lava'
'kos'
'influenced_'
'indulgence_'
'ike_'
'hipster_'
'harvey_'
'hannover_'
'haifa_'
'gum'
'glassed_'
'giants_'
'gatherings_'
'fus'
'floods_'
'fin_'
'filters_'
'fc_'
'faci'
'esc'
'eon'
'edward_'
'edge'
'earth'
'doughnuts_'
'dings_'
'diane_'
'departs_'
'criticise_'
'corning_'
'comfythe_'
'centara_'
'celebrity_'
'carso_'
'aru'
'anyplace_'
'anna'
',(_'
'wtc_'
'wing'
'whin'
'wasting_'
'wagon_'
'variations_'
'uss_'
'unn'
'sunt'
'species_'
'samsung_'
'rye_'
'rom'
'rin_'
'rhino_'
'resu'
'remarked_'
'ras_'
'ranc'
'quil'
'porches_'
'plant'
'pitt_'
'pikes_'
'phoning_'
'penguins_'
'pedi'
'paphos_'
'overwhelmingly_'
'orta'
'ngh'
'mural_'
'morecambe_'
'moors_'
'monitored_'
'lers_'
'lao_'
'kicking_'
'kaya_'
'kam'
'intervals_'
'improves_'
'impressi'
'hurried_'
'hereso_'
'hauling_'
'foodthe_'
'esa'
'enci'
'dusting_'
'dtw_'
'detect'
'cyprus_'
'contractors_'
'chilis_'
'centrale_'
'buxton_'
'burgundy_'
'bill'
'ashamed_'
'andof_'
'alon'
'accord'
'190_'
'waterbu'
'veni'
'ux_'
'thistle_'
'text'
'tent'
'spin_'
'shimla_'
'seeming_'
'robotic_'
'roach_'
'retirement_'
'reservation'
'ren_'
'pumpkin_'
'protest'
'privileged_'
'predictably_'
'polite'
'peel_'
'parks'
'palmer_'
'ote'
'opaque_'
'noisethe_'
'niz'
'netting_'
'ndo'
'misty_'
'mints_'
'mber'
'los'
'liber'
'lakeand_'
'interi'
'instructed_'
'hippos_'
'hakata_'
'hag'
'gloria_'
'gents_'
'gastronomic_'
'fernando_'
'ewa'
'ester'
'elb'
'dune_'
'dit_'
'delicate_'
'deeply_'
'danny_'
'connell_'
'conducting_'
'cera'
'cautious_'
'butwhen_'
'budgets_'
'breakfastwe_'
'breakf'
'beachw'
'backbut_'
'aug'
'ation'
'arb'
'altstadt_'
'af_'
'ado_'
'67_'
'wotif_'
'vice'
'usso_'
'tatt'
'tal_'
'syntagma_'
'string_'
'stellenbosch_'
'stars'
'sme'
'skirting_'
'si'
'shee'
'sexy_'
'rro'
'rethink_'
'refurbishments_'
'reader_'
'ration_'
'portree_'
'pomp'
'pockets_'
'philippines_'
'pep'
'paris'
'outward_'
'outings_'
'orang'
'oe_'
'nz'
'ngo'
'neglect_'
'munchies_'
'mess'
'malt_'
'lut'
'logo_'
'kf'
'jut'
'justin_'
'jones_'
'i90_'
'hoot_'
'heidelberg_'
'haute_'
'handing_'
'gri'
'gram'
'fremont_'
'epi'
'dob'
'diagonal_'
'dell_'
'dealership_'
'crea'
'congratulated_'
'bull'
'bland'
'bil'
'bele'
'barn'
'ambulance_'
'allotted_'
'airconditioner_'
'aerobics_'
'306_'
'101'
','
'!'
'xt_'
'walkin_'
'vor'
'upwards_'
'unwelcome_'
'unwa'
'unnecessarily_'
'ung_'
'ting'
'thumping_'
'thicker_'
'terrasse_'
'tattered_'
'suprisingly_'
'solving_'
'slee'
'sem'
'restock_'
'religious_'
'rebecca_'
'raph'
'pooli'
'poo_'
'overseeing_'
'oth'
'oka'
'oily_'
'nod_'
'nn_'
'nightwe_'
'moa_'
'metropole_'
'marg'
'kl'
'ites_'
'iron'
'heat'
'health'
'goods'
'friendy_'
'flores_'
'ferry'
'fern'
'ethiopia_'
'encouraging_'
'dusit_'
'donut_'
'distancebut_'
'disin'
'detail'
'desp'
'desolate_'
'cp'
'cover'
'consi'
'coca_'
'butwhat_'
'bur_'
'blossom_'
'bene'
'bahrain_'
'ams'
'ag_'
'ache_'
'accepting_'
'45pm_'
'2x_'
'118_'
'zones_'
'yre'
'yas'
'vert'
'vantage_'
'uc_'
'tn'
'tine_'
'timers_'
'timber'
'sweaty_'
'stee'
'standpoint_'
'spie'
'sophistication_'
'sod'
'skyscrapers_'
'showers'
'sash_'
'rumbling_'
'rickety_'
'resta'
'relax'
'propertybut_'
'ppe'
'porta'
'plantations_'
'pho_'
'pcs_'
'mop'
'monroe_'
'marseille_'
'lisboa_'
'laze_'
'lavatory_'
'kom'
'ional_'
'invisible_'
'invaluable_'
'input_'
'harrods_'
'groom_'
'gond'
'garda_'
'gainesville_'
'freebies_'
'fishermans_'
'etcthe_'
'eman'
'eliminate_'
'edso_'
'ec'
'disadvantages_'
'delish_'
'danielle_'
'costa'
'contra'
'cole'
'calle'
'calla'
'buddy_'
'boeing_'
'bellboys_'
'bard'
'banyan_'
'assi'
'assa'
'ase_'
'aper'
'anantara_'
'altho_'
'allocation_'
'alland_'
'alla'
'adina_'
'('
' ! , _'
'” _'
'zebra_'
'waft'
'tier'
'tas_'
'tac_'
'swimmingpool_'
'supplying_'
'stow_'
'staffers_'
'spectacularly_'
'snake_'
'sheet'
'sharon_'
'rth_'
'roomsa'
'resteraunts_'
'ramadan_'
'rah_'
'queue'
'quet'
'promoted_'
'productive_'
'prestigious_'
'press'
'paper'
'outsideand_'
'ope'
'observatory_'
'oblige_'
'nha'
'nb_'
'naked_'
'manual_'
'mallory_'
'lucy_'
'lub'
'ladder_'
'jee'
'ith'
'introduce_'
'insure_'
'ik_'
'glitzy_'
'glassware_'
'gaudi_'
'gastro_'
'fou'
'ene_'
'dated'
'cud'
'cc'
'cale'
'breakfasts'
'bak'
'aven'
'assignment_'
'ass'
'arche'
'archaeological_'
'appartments_'
'ank'
'abq_'
'225_'
'212_'
'207_'
'whiskies_'
'vei'
'utrecht_'
'uth'
'unwilling_'
'umber'
'uil'
'thought'
'therea'
'texture_'
'tears_'
'system'
'symphony_'
'sve'
'stri'
'sting'
'steps'
'sol'
'shibuya_'
'season'
'sawgrass_'
'sarajevo_'
'rian_'
'reu'
'reconsider_'
'raising_'
'quirkiness_'
'punt'
'puff'
'provi'
'predominantly_'
'possess'
'pestana_'
'padstow_'
'ove'
'ono'
'notices_'
'ncy_'
'nac'
'muni'
'move'
'mechanism_'
'mcm'
'martha_'
'map'
'management'
'malaysian_'
'madr'
'loveseat_'
'ln'
'line'
'lasagne_'
'jani'
'inso'
'icon_'
'holly_'
'gt'
'grungy_'
'girl'
'froze_'
'friends'
'flower'
'eter'
'esh'
'dripped_'
'discussing_'
'creekside_'
'conno'
'cleans_'
'charl'
'cavern_'
'breakfasto'
'betty_'
'beeping_'
'bamb'
'ator'
'50s_'
'+ ._'
'wonky_'
'visibly_'
'ventilated_'
'upw'
'understa'
'tsim_'
'trips'
'tractor_'
'toothbrushes_'
'toa'
'timethe_'
'thirsty_'
'ther'
'themand_'
'teething_'
'teddy_'
'superc'
'sq'
'spill_'
'soo'
'slop'
'seep'
'rop'
'rome'
'quests_'
'protect_'
'predict'
'phillip_'
'pedicure_'
'ott'
'oster'
'orient_'
'objective_'
'noti'
'ngbut_'
'merge'
'mecca_'
'masters_'
'lumpur_'
'logged_'
'lieu_'
'layers_'
'kamloops_'
'jesus_'
'ital'
'images_'
'ills_'
'ideal'
'hes_'
'gratis_'
'glo'
'gas'
'ffl'
'eze_'
'exec'
'even'
'emptying_'
'domin'
'discussions_'
'dav'
'consider'
'cleani_'
'clarks'
'cell'
'carton_'
'butd'
'bure'
'bouche_'
'blake'
'aller'
'280_'
'ä'
'youg'
'yang'
'wed'
'vl'
'vio'
'vault_'
'uls'
'uli'
'tne'
'tl_'
'timebut_'
'tai'
'tad'
'standardi'
'spott'
'sevice_'
'ruth'
'rr_'
'rah'
'queens'
'pilot_'
'pass'
'oversize_'
'oner'
'nati'
'megan_'
'leiden_'
'le'
'ias_'
'heal'
'gardiner_'
'gang_'
'frans'
'footage_'
'fix'
'eye'
'eve'
'especial'
'esk'
'enz'
'enthusiastically_'
'donald_'
'direction'
'deteriorated_'
'demo'
'dela'
'cry_'
'coul'
'cosmos_'
'conse'
'combe_'
'colle'
'choicebut_'
'ces'
'broome_'
'brazil_'
'blended_'
'battle'
'arm'
'andonly_'
'andas_'
'agenda_'
'ads_'
'abr'
'a6'
'92_'
'149_'
' . ' _'
' - " _'
'whites_'
'whipped_'
'webs_'
'vul'
'vol'
'ush'
'thou'
'tb'
'subt'
'sua'
'steven_'
'stern_'
'speedboat_'
'snowstorm_'
'skyway_'
'sib'
'sheikh_'
'setting'
'sc'
'santander_'
'rusted_'
'rip'
'ric_'
'redecorating_'
'reckon_'
'profusely_'
'processes_'
'pinot_'
'piers_'
'paula_'
'patisserie_'
'panic_'
'orangery_'
'oha'
'odd'
'nand_'
'myr'
'melt_'
'mel_'
'maria'
'lh'
'leader_'
'jog'
'jerusalem_'
'inti'
'intermittently_'
'innand_'
'ih_'
'happy'
'graffiti_'
'gold'
'formations_'
'ew'
'erst'
'envelope_'
'dv'
'drip_'
'dingle_'
'dash'
'cot'
'convey'
'cong'
'compensates_'
'comfort'
'cies_'
'chang_'
'casino'
'campo_'
'cade'
'burritos_'
'buckets_'
'bonuses_'
'bles_'
'beltway_'
'ator_'
'angelo_'
'amba'
'aldgate_'
'aki'
'affording_'
' ,, _'
'zer_'
'yala_'
'watersports_'
'wah'
'vs'
'upgrade'
'unheard_'
'unchanged_'
'uda'
'tyne_'
'tuck_'
'trainers_'
'tog'
'tightly_'
'therei_'
'temporarily_'
'taught_'
'tasmania_'
'stunned_'
'sqm_'
'sheratons_'
'shell'
'shank_'
'shab'
'sanur_'
'rump_'
'ripe_'
'rebook_'
'reat'
'prince'
'portico_'
'poke'
'placethe_'
'pitiful_'
'pid'
'pale'
'otto'
'ork'
'oned_'
'nicewe_'
'natalie_'
'nassau_'
'motions_'
'mindful_'
'mental_'
'meagre_'
'maximi'
'mand_'
'lotte_'
'lol'
'lakeland_'
'kinks_'
'kb'
'kay'
'ip_'
'intriguing_'
'homework_'
'guarded_'
'goof'
'game'
'fore_'
'dest_'
'crumble_'
'country'
'coop_'
'cock'
'chopped_'
'ches'
'cham'
'canoe_'
'bukit_'
'bilingual_'
'beachi'
'aya_'
'arty_'
'aine_'
'5a'
' : $ _'
'yh'
'yb'
'westgate_'
'uch'
'tracking_'
'tidying_'
'ths_'
'tash'
'spoils_'
'slat'
'signals_'
'roadw'
'rhe'
'regrets_'
'recumbent_'
'recon'
'rebooked_'
'reak'
'ram_'
'rak'
'rag'
'rach'
'quilts_'
'promotional_'
'perry_'
'perf'
'overland_'
'opinions_'
'ocean'
'nightsand_'
'nearbybut_'
'narrow'
'moon'
'minutesand_'
'mino'
'mining_'
'mei_'
'mbu'
'marsh'
'mainline_'
'limiting_'
'lidl_'
'leb'
'lady'
'kho'
'jen_'
'jama'
'jake_'
'isg'
'inso_'
'indicative_'
'honor'
'hiex_'
'h10_'
'gracia_'
'gos_'
'goodie_'
'fol'
'flowering_'
'fishermen_'
'excercise_'
'enterprise_'
'dumb_'
'draw'
'douro_'
'dor_'
'deeper_'
'conservation_'
'conf'
'condo'
'commission_'
'centrum_'
'catalina_'
'carrier_'
'builders_'
'breakfaste'
'bore_'
'bh'
'beauti'
'astounding_'
'asso'
'alam'
'ait'
'airconditioned_'
'accommodates_'
'accident'
'114_'
'.._'
' ` _'
' . :-)_'
' " ) ._'
'yu_'
'wr'
'waterford_'
'walter_'
'vit'
'vfm_'
'vall'
'unclear_'
'ues_'
'tui_'
'transparent_'
'tong'
'toit_'
'toiletries'
'tod'
'toast'
'theres'
'tens'
'tec'
'taka'
'tac'
'synthetic_'
'suc'
'sneak'
'smil'
'shoreditch_'
'shells_'
'servi'
'saun'
'sandp'
'sabi_'
'rsi'
'roomsso_'
'quintas_'
'pru'
'proves_'
'plated_'
'patron_'
'pann'
'oy'
'outage_'
'org'
'offen'
'noo'
'morningbut_'
'mismatched_'
'mia'
'marquette_'
'lur'
'lomond_'
'lill'
'launceston_'
'kul'
'kilda_'
'jess'
'jacks_'
'isaac_'
'interstate'
'incheon_'
'hw'
'historically_'
'hem'
'hara'
'hairdr'
'gib'
'gdansk_'
'flamenco_'
'ez'
'exo'
'erl'
'dent'
'dde'
'comprising_'
'coincided_'
'coe'
'cindy_'
'chuck'
'ching_'
'chairs'
'cath'
'cano'
'buildings'
'brun'
'bonn_'
'blanc'
'besti_'
'ballrooms_'
'awa'
'attentive'
'atin'
'ary'
'angled_'
'alexandra_'
'afe'
'accepts_'
':'
'128_'
'1200_'
' ) + _'
'yang_'
'xian_'
'wingate_'
'volcanic_'
'vivanta_'
'valleys_'
'unm'
'tres'
'tramway_'
'track'
'tournaments_'
'tolerate_'
'tis_'
'tina_'
'take'
'swindon_'
'survived_'
'surpri'
'strolls_'
'squishy_'
'specify_'
'simon'
'sill_'
'services'
'se'
'scooters_'
'rogue_'
'rhodes_'
'resi'
'relying_'
'rea_'
'ract'
'pch_'
'pas'
'oud'
'operative_'
'onsi'
'occassions_'
'nya'
'nephew_'
'nas'
'museum'
'mousse_'
'montego_'
'ments'
'md'
'marriage_'
'machine'
'lel'
'killing_'
'kee'
'jaunt_'
'hop'
'herbal_'
'hei'
'heatwave_'
'hannah_'
'guest'
'grow'
'formalities_'
'forecast_'
'fon'
'flyer_'
'ecc'
'dera'
'depressed_'
'daniel'
'comforable_'
'casa'
'carson_'
'caro'
'canaveral_'
'canaria'
'butstaff_'
'bureau_'
'buena_'
'brew'
'boi'
'blissful_'
'beddings_'
'bayeux_'
'asy_'
'artefacts_'
'aplenty_'
'almond_'
'abel_'
'61_'
'1990_'
'116_'
' ? ? ? ?_'
' ? ? '
' .• _'
' .......... _'
'á'
'yv'
'youtube_'
'yer'
'wf'
'weakness_'
'waterton_'
'wad_'
'vincent_'
'vera'
'uno_'
'uber'
'trav'
'tran'
'toasts_'
'tirelessly_'
'thet'
'telford_'
'sustain'
'stur'
'specified_'
'seri'
'sb_'
'sank_'
'review'
'pulls_'
'potomac_'
'plough'
'paro_'
'parasols_'
'palatable_'
'paint'
'ower_'
'offi'
'nto'
'nj'
'naval_'
'nak'
'mistaken_'
'ming'
'mick'
'lyand_'
'luci'
'lf'
'leith_'
'kathy_'
'jul'
'jackets_'
'ism'
'ille'
'illa'
'hyp'
'honoured_'
'hone'
'highs'
'hic'
'hed'
'hangzhou_'
'guy'
'goodw'
'gall'
'fumes_'
'freestanding_'
'font_'
'fid'
'fi'
'ferrari_'
'feat_'
'existant_'
'evo'
'disturbances_'
'cyclists_'
'coordinated_'
'conwy_'
'conditioning'
'compromised_'
'compartment_'
'cic'
'chop'
'came'
'cala_'
'butthere_'
'boul'
'benidorm_'
'barriers_'
'aviation_'
'aunt_'
'ati_'
'ashtray_'
'ankle_'
'ance'
'ama_'
'alc'
'300'
'189'
'+'
'!!!'
'yc'
'xt'
'wv_'
'worthless_'
'wicker_'
'washcloth_'
'wart'
'walt_'
'vue_'
'uu'
'unsightly_'
'underp'
'typi'
'truro_'
'triumph_'
'spit'
'snd_'
'smartphone_'
'shockingly_'
'shark_'
'sana_'
'saltwater_'
'rre'
'rosewood_'
'roomy'
'robinson_'
'rinse_'
'reside'
'rec_'
'reali'
'queensway_'
'provisioned_'
'pressing_'
'pers_'
'orkney_'
'ogden_'
'oard_'
'ngi'
'morningso_'
'mans'
'local'
'laden_'
'kosh'
'kn'
'kiwi_'
'joy'
'ism_'
'intuitive_'
'interfere_'
'instruction_'
'impromptu_'
'ights_'
'ial'
'hoop'
'happen'
'handy'
'guestroom_'
'grou'
'goodn'
'fum'
'forb'
'flavorful_'
'firth_'
'everywherewe_'
'eo_'
'eddie_'
'dos'
'dis_'
'dennis_'
'dang'
'crate'
'coco'
'cha_'
'carol'
'cappuccinos_'
'campers_'
'butthat_'
'butt_'
'breakfastit_'
'botswana_'
'barossa_'
'barbados_'
'aroundbut_'
'appal'
'andra'
'alf'
'airs'
'aforementioned_'
'addis_'
'@_'
'501_'
', '
' .. ) '
'yw'
'yto'
'yama'
'wests'
'via'
'tracy_'
'thunderstorm_'
'tere'
'staid_'
'sta_'
'sights'
'shan'
'sauvignon_'
'roof'
'rme'
'rights_'
'respect'
'recom'
'reads_'
'pun'
'pisa_'
'pee_'
'pate'
'ony_'
'nr_'
'noticing_'
'ngthe_'
'neighborhood'
'nash'
'mort'
'monta'
'miramar_'
'mes_'
'maru'
'maintainedand_'
'locationthe_'
'lily_'
'lest'
'jin_'
'jeans_'
'him'
'general'
'fulfill_'
'foothills_'
'feel'
'favor'
'expen'
'eurotunnel_'
'ete_'
'espana_'
'escalators_'
'effects_'
'dismissive_'
'completion_'
'charter_'
'camb'
'bt_'
'brat'
'bmw_'
'belfry_'
'artic'
'armed_'
'amphitheater_'
'alk_'
'activated_'
'ables_'
'9a'
'44'
'3000_'
'--'
' % '
'…'
'yarmouth_'
'wil_'
'versa'
'vc'
'uin'
'uganda_'
'trap'
'trains'
'tottenham_'
'tob'
'tenderloin_'
'sundowners_'
'sugary_'
'ssan'
'specialist_'
'scampi_'
'scam'
'sal_'
'rita_'
'rik'
'revenue_'
'reno'
'recharging_'
'rb_'
'rav'
'rar'
'quintessential_'
'pron'
'piles_'
'peabody_'
'paradis'
'orchids_'
'noisybut_'
'nob'
'nau'
'mira_'
'meteora_'
'marr'
'mali'
'lights'
'legends_'
'lean'
'lansing_'
'kaikoura_'
'je_'
'inquiries_'
'impecable_'
'ife'
'hung'
'hima'
'herb_'
'hcmc_'
'hamb'
'guestrooms_'
'grants_'
'gown_'
'gloves_'
'fs'
'flops_'
'flamingo_'
'falcon_'
'eit_'
'eaves_'
'downgrade_'
'diversion_'
'devine_'
'customary_'
'concorde_'
'clos'
'cinc'
'chance'
'cele'
'carbon'
'burners_'
'bt'
'bedso_'
'bbqs_'
'bask'
'barbe'
'arma'
'anf'
'zona_'
'yuk_'
'wynn_'
'wor'
'vos'
'victory_'
'vi_'
'uno'
'tw'
'tunnels_'
'torrential_'
'tgif_'
'tables'
'sutt'
'strewn_'
'straightened_'
'staffa'
'spring'
'sim_'
'shuttled_'
'shangrila_'
'server'
'sanit'
'rthe_'
'restrict'
'resolving_'
'residue_'
'reo'
'refer'
'reasonable'
'ralph_'
'radi'
'pony_'
'persona'
'pablo_'
'oust'
'nish'
'ninth_'
'nder_'
'mv'
'mohammed_'
'minifridge_'
'mellow_'
'meg'
'maintained'
'lythe_'
'lizards_'
'liv'
'laundered_'
'lahaina_'
'intercon_'
'infamous_'
'inexcusable_'
'ilo'
'hue'
'gue'
'greatso_'
'glitz_'
'gett'
'gast'
'garten_'
'fic'
'fetch_'
'farr'
'elt'
'eing_'
'doori'
'diver'
'cranky_'
'condescending_'
'compl'
'choicei'
'cam'
'broom_'
'bridal_'
'brekfast_'
'bradley_'
'boulders_'
'bodies_'
'bhutanese_'
'beachso_'
'bangla_'
'backi'
'archeological_'
'andpr'
'ambassadors_'
'alerted_'
'airf'
'aid'
'agencies_'
'adored_'
'adjustments_'
'addict'
'abs'
'a14_'
'5s'
'310_'
'305_'
'1920_'
'180'
'145_'
' € '
' < _'
' :* _'
' ' ...'
'york'
'yit_'
'yan_'
'wrinkled_'
'wou'
'woo'
'whichever_'
'vai'
'utility_'
'uff'
'ud'
'tsui_'
'tine'
'thei'
'taunton_'
'swar'
'str'
'splendid'
'soy_'
'something'
'shear'
'shang'
'shakes_'
'seaplane_'
'sda'
'russia_'
'rotating_'
'roomr'
'rog'
'refreshingly_'
'rbut_'
'purdue_'
'porth'
'plesant_'
'pim'
'nne'
'networks_'
'nent'
'nder'
'nails_'
'murky_'
'morn'
'monasteries_'
'miracle_'
'mila'
'mainstream_'
'maggie_'
'lles_'
'lineup_'
'lig'
'leh'
'lec'
'jour'
'i70_'
'hama'
'grip_'
'grey'
'gleaming_'
'gag'
'fora'
'ferm'
'europe'
'enta'
'doe'
'disconnect_'
'desc'
'denmark_'
'dece'
'cora'
'compete'
'cking_'
'chor'
'cher_'
'catholic_'
'capture_'
'bugis_'
'breakfastw'
'brav'
'bomb_'
'belonging_'
'ayu'
'awful'
'availed_'
'atlas_'
'appe'
'amin'
'ami'
'ait_'
'adirondack_'
'ach'
'accolades_'
'accessable_'
'acces_'
'304_'
' * '
'xx_'
'whisper_'
'wakeup_'
'unh'
'unappetizing_'
'strangers_'
'stilts_'
'staffe'
'squeaked_'
'splendour_'
'sne'
'sherb'
'sett'
'saa'
'russ'
'reflective_'
'rant_'
'pric'
'opposite'
'noiseand_'
'nm'
'medford_'
'malpensa_'
'laundr'
'lace_'
'jenn'
'inno'
'increasingly_'
'ilt'
'ignorant_'
'ify'
'i10_'
'honk'
'helpfulbut_'
'hawk_'
'goe'
'gn'
'gia_'
'garr'
'gar_'
'frequency_'
'fall'
'evenings'
'enables_'
'eil'
'easton_'
'eable_'
'dry'
'dram'
'doorthe_'
'debat'
'concourse_'
'concer'
'clare_'
'chocolat'
'child'
'charmless_'
'celebrities_'
'cabaret_'
'butjust_'
'bernard'
'bellhops_'
'baseboards_'
'astronomical_'
'areaw'
'appearances_'
'andbe'
'always'
'adn'
'abi'
'410_'
'worthi'
'woefully_'
'while'
'weird'
'verit'
'ura_'
'twickenham_'
'travelo'
'tami'
'tails_'
'sunloungers_'
'summertime_'
'streak'
'storm'
'stoke_'
'stockton_'
'stefan'
'starch'
'staffwere_'
'spect'
'sola'
'scre'
'samui_'
'salm'
'reimburse'
'redding_'
'racetrack_'
'published_'
'proportions_'
'promote_'
'principal_'
'prem_'
'pops_'
'photographer_'
'owed_'
'onso_'
'ngu'
'nf'
'mull_'
'medi'
'lui'
'lent'
'lavi'
'kru'
'jon_'
'jolla_'
'jn'
'insisting_'
'impos'
'ication_'
'i80_'
'humm'
'hari'
'goo_'
'glimpses_'
'freshest_'
'frank'
'franchise'
'franc'
'flaky_'
'fere'
'fei'
'fedex_'
'eta_'
'elvis_'
'een'
'edgy_'
'dwar'
'dungeon_'
'dinnerand_'
'cradle_'
'conc'
'chats_'
'cambodian_'
'brownies_'
'battlefields_'
'bathtub'
'bases_'
'backup_'
'andm'
'amelia_'
'188'
'*._'
' :(_'
'worked'
'wiping_'
'winters_'
'vinyl_'
'ved'
'upload_'
'uf'
'twist'
'turk'
'trainees_'
'timetable_'
'tep'
'tati'
'sudden_'
'stafford_'
'smo'
'sliders_'
'sina'
'schools_'
'scal'
'santi'
'sally_'
'roomc'
'riverview_'
'rickshaw_'
'restaurantsso_'
'resembled_'
'removal_'
'relied_'
'queried_'
'proceed_'
'ppl_'
'pian'
'pf'
'perception_'
'peg'
'ows_'
'omi'
'nostalgia_'
'nity_'
'nightlight_'
'nel'
'nding_'
'nan_'
'mustard_'
'loom'
'levi'
'jit'
'intimacy_'
'interpret'
'indians_'
'inca_'
'iguanas_'
'henderson_'
'hampton'
'halong_'
'hal_'
'flap'
'flag'
'fis'
'fati'
'expansion_'
'excu'
'emerald_'
'ements_'
'ebe'
'dorset_'
'dori'
'doorbut_'
'dens'
'delight'
'decore_'
'danishes_'
'crocodile_'
'connecticut_'
'congratulate_'
'columns_'
'chops_'
'chill'
'chia'
'changi_'
'cad'
'cabbage_'
'bybut_'
'blow'
'bett'
'benny_'
'bedding'
'atr'
'athe_'
'areai'
'andno'
'andco'
'amherst_'
'aircondition_'
'aiming_'
'affi'
'acknowledging_'
'aback_'
':-'
'211_'
'* '
' ) ...._'
'yellow'
'yak'
'winn'
'weigh'
'wb'
'waterf'
'vy_'
'vers_'
'universities_'
'unen'
'unappetising_'
'tuni'
'tuned_'
'tua'
'trusted_'
'tass'
'swamped_'
'stac'
'squi'
'southe'
'soaring_'
'smithsonian_'
'smack'
'sist'
'sine'
'rw'
'rge_'
'repl'
'rel'
'refurb'
'rectangular_'
'reconstruction_'
'rams'
'raisin_'
'processing_'
'poolthe_'
'phy'
'phi'
'perr'
'nthe_'
'nol'
'nec'
'nded_'
'monotonous_'
'minimize_'
'mh'
'mach'
'lighting'
'lends_'
'later'
'kits_'
'katoomba_'
'iza'
'inhabit'
'igh_'
'hvar_'
'hostesses_'
'heav'
'hb_'
'gton_'
'grotto_'
'grilling_'
'granville_'
'glass'
'funi'
'forcing_'
'falmouth_'
'endure_'
'employed_'
'employ'
'eata'
'dusted_'
'dumpy_'
'duck'
'dill'
'crud'
'consist_'
'clara_'
'chirping_'
'chichen_'
'cei'
'cati'
'breakfeast_'
'breaka'
'bitten_'
'banquets_'
'baltic_'
'await_'
'avail'
'authenticity_'
'asthe_'
'association_'
'ase'
'arnold_'
'ambleside_'
'alk'
'alder'
'ail_'
'03_'
'*_'
' , , , _'
'zoe_'
'yachts_'
'wak'
'venue'
'vent'
'ushered_'
'uffi'
'truck'
'trivial_'
'transp'
'tramp'
'tiresome_'
'taormina_'
'sturdy_'
'stupendous_'
'strenuous_'
'sonic_'
'snooker_'
'slate_'
'sharm_'
'scare_'
'retiring_'
'restaurent_'
'restau'
'reopened_'
'remoteness_'
'reminders_'
'rehab_'
'regrettably_'
'quail_'
'prove'
'presented'
'polis_'
'pitched_'
'oda'
'nun'
'nicholas_'
'mouth'
'modernity_'
'meatballs_'
'matt'
'laun'
'lanc'
'lalit_'
'jodhpur_'
'jay'
'jag'
'ird_'
'inspite_'
'incorporated_'
'imm'
'hopped_'
'home2_'
'gm'
'gis'
'flavoursome_'
'fest'
'exceeding_'
'eveningbut_'
'entertainers_'
'emu'
'econ'
'dae'
'centennial_'
'calamari_'
'bust_'
'bumper_'
'beggars_'
'barthe_'
'bare'
'baguette_'
'avenues_'
'aur'
'aruba_'
'arenas_'
'antelope_'
'agon'
'86_'
'30a'
'word'
'whole'
'weed_'
'watford_'
'wand_'
'uro'
'unsupervised_'
'unk'
'uncovered_'
'tors_'
'torrey_'
'tirana_'
'timeso_'
'subway'
'stonehenge_'
'sthis_'
'spooky_'
'sey_'
'sang_'
'roth'
'reso'
'pti'
'positions_'
'pigeons_'
'perse'
'penc'
'paste'
'oki'
'octopus_'
'oba'
'nni'
'mountaineer_'
'moor'
'mojito_'
'miner'
'maintan'
'lys'
'lovey_'
'logi'
'lied_'
'lambeau_'
'kangaroo_'
'kama'
'ivy_'
'ipswich_'
'int'
'inspect_'
'ince_'
'impr'
'humb'
'gy_'
'gothenburg_'
'gloss'
'gee'
'flavoured_'
'firmly_'
'ffi'
'eveningthe_'
'esto'
'essex_'
'erry_'
'erm'
'erio'
'ening_'
'eci'
'dome'
'dic'
'decorate_'
'dand'
'curt'
'copi'
'consum'
'clotted_'
'chl'
'cheddar_'
'bund'
'brenda_'
'bordered_'
'boma_'
'bellingham_'
'being'
'barte'
'attach'
'amble_'
'47'
'159_'
'117_'
'worm_'
'winds'
'willi'
'wheat'
'weeds_'
'voyage'
'vist_'
'viable_'
'vendor_'
'variety'
'untouched_'
'ully_'
'tus_'
'tsi'
'tryp_'
'tric'
'towell'
'tant'
'superlatives_'
'stumble_'
'stress'
'speedily_'
'shim'
'sen'
'securing_'
'sch'
'sande'
'rve'
'rowing_'
'remnants_'
'raspberry_'
'rainier_'
'rags_'
'punakha_'
'presenting_'
'pois'
'pmand_'
'performers_'
'participating_'
'parkingso_'
'pal_'
'outh'
'nyhavn_'
'northumberland_'
'musky_'
'muscles_'
'moro'
'minat'
'meandering_'
'mattress'
'mang'
'macaroni_'
'lope'
'lom_'
'livingroom_'
'lenox_'
'lago_'
'knobs_'
'julian_'
'join'
'joburg_'
'ironically_'
'ings'
'induc'
'ind_'
'inclusions_'
'incentive_'
'ica_'
'iat'
'hp_'
'holl'
'hine_'
'henri'
'hammering_'
'gp'
'governor_'
'gabriel_'
'fts_'
'frenetic_'
'fm'
'filt'
'fanciest_'
'expand_'
'equip'
'entertainments_'
'elys'
'dud'
'dosa_'
'donat'
'document_'
'diesel_'
'dial'
'desi'
'definitley_'
'danger_'
'cres'
'cornish_'
'converse_'
'cola_'
'champions_'
'chad'
'carpa'
'capsules_'
'butb'
'busyand_'
'businessand_'
'brutal_'
'broccoli_'
'breakers_'
'beneficial_'
'backpacker_'
'aval'
'ata_'
'arcades_'
'apprecia'
'anyway'
'andg'
'aircon'
'aims_'
'2s'
'1hr_'
'195'
'1900_'
' ;'
' + + '
' " ....'
'½_'
'wolf'
'weeknight_'
'wedged_'
'warnings_'
'ware'
'vou'
'uswe_'
'toyota_'
'thinand_'
'tg'
'tear'
'taos_'
'stun'
'stereo_'
'stephens_'
'stant'
'spaces'
'sos'
'skybus_'
'shook_'
'seed'
'samantha_'
'rh'
'respected_'
'ques_'
'provo_'
'projects_'
'photo'
'pell'
'peek'
'paw'
'patterns_'
'passi'
'papa'
'origin'
'obscure_'
'nik'
'niche_'
'ngw'
'music'
'moorish_'
'mone'
'minimally_'
'merit_'
'meli'
'masse'
'ludlow_'
'longwood_'
'kud'
'kni'
'kis'
'kenny_'
'jerome_'
'ity'
'incoming_'
'inch'
'imi'
'ight'
'hya'
'hv'
'hubbub_'
'hoh'
'grun'
'germ'
'garish_'
'galapagos_'
'futon_'
'friend'
'feeders_'
'ese'
'erh'
'dise'
'coworkers_'
'cosi'
'convoluted_'
'contribute_'
'coach'
'clocks_'
'cleani'
'cinque_'
'cine'
'chunks_'
'christmas'
'capsule_'
'burr'
'bung'
'bryant_'
'brug'
'brom'
'breathing_'
'breakfasta'
'beth_'
'belle'
'atl'
'ares_'
'amenable_'
'amazingthe_'
'alli_'
'ahmed_'
'! ) '
' ( ~_'
'ywe_'
'yakima_'
'wih'
'vase'
'ux'
'unsu'
'unlock_'
'unhealthy_'
'tumble_'
'trust'
'thermostats_'
'tegel_'
'tation_'
'swin'
'sorr'
'smi'
'smear'
'sion'
'sicily_'
'sia'
'shro'
'ses'
'scandinavia_'
'scam_'
'riendly_'
'relaxing'
'reindeer_'
'reds_'
'recovering_'
'recommen'
'prospect_'
'production_'
'pricebut_'
'planters_'
'plane'
'pk'
'pasture'
'overpass_'
'olivia_'
'nope_'
'neighbo'
'muslim_'
'mozart_'
'monter'
'mona'
'mf'
'melt'
'masala_'
'literature_'
'lino'
'lemur'
'lave'
'lambe'
'lamb'
'koh_'
'kett'
'kenmare_'
'kalahari_'
'judi'
'iously_'
'intrude'
'instructor_'
'i'
'hh'
'handheld_'
'ha'
'goa'
'gino'
'gained_'
'forn'
'fleming'
'fiance'
'fears_'
'facts_'
'evere'
'ethi'
'ennis_'
'employe'
'dorchester_'
'divide'
'destin_'
'desires_'
'deceptive_'
'dean'
'corral_'
'constructive_'
'comprises_'
'clyde_'
'children'
'butlins_'
'butho'
'busi'
'burgh_'
'burford_'
'bun'
'benchmark_'
'awayso_'
'atleast_'
'arian'
'annually_'
'amar'
'adaptor_'
'acre_'
'ack_'
'account'
';'
' .[ _'
' ) .._'
'wk'
'williams'
'whereby_'
'wangfujing_'
'ula'
'uali'
'trick'
'tok'
'tew'
'terr'
'tate'
'tann'
't2_'
'sura'
'sundry_'
'suck'
'stayso_'
'stages_'
'spr'
'spat'
'souks_'
'snot'
'slider_'
'settees_'
'salts_'
'saga_'
'rus'
'roosters_'
'roomsare_'
'romania_'
'rewarding_'
'retire_'
'repainted_'
'ram'
'quickest_'
'prevail'
'prest'
'prepares_'
'pottery_'
'pena'
'pc'
'passeig_'
'participants_'
'pang'
'ouse'
'okura_'
'occ'
'ober'
'oand_'
'nfl_'
'netherlands_'
'mons'
'mezquita_'
'mayflower_'
'litera'
'leg'
'lebanon_'
'last'
'largish_'
'lacklustre_'
'knack'
'kli'
'kakadu_'
'invest'
'infant_'
'ike'
'howler_'
'honest'
'heath'
'gres'
'glenwood_'
'fulfil'
'frill'
'fours_'
'foreshore_'
'footprint_'
'flicker'
'filmed_'
'fc'
'eton_'
'equipped'
'eka_'
'edison_'
'ean'
'drape'
'downstairs'
'doggie_'
'dodg'
'destroyed_'
'dense_'
'delectable_'
'coup'
'contrast'
'conform'
'claiming_'
'clad_'
'church'
'cco'
'casper_'
'casey_'
'butok_'
'breaky_'
'bras'
'booming_'
'booking'
'benz_'
'bedo'
'bathe_'
'aviemore_'
'anto'
'angels_'
'andyes_'
'aloha_'
'aggravati'
'82'
'404_'
' :) '
' ! ! !'
'… _'
'zon'
'windmill_'
'westlake_'
'versa_'
'ums_'
'together'
'toand_'
'tali'
'syr'
'swakopmund_'
'surro'
'stif'
'sso'
'spit_'
'spends_'
'sparkly_'
'smile'
'sink'
'shenandoah_'
'scuffs_'
'santorini_'
'rte'
'roswell_'
'roomsi_'
'rodeway_'
'rgi'
'quietbut_'
'pubic_'
'pressure'
'presently_'
'prea'
'poland_'
'poi'
'platters_'
'performances_'
'pam'
'palm'
'opting_'
'ntar'
'northbound_'
'needed'
'nadler_'
'mou'
'lun'
'loveliest_'
'locates_'
'liste'
'lip'
'jerk_'
'jaz'
'inward_'
'intending_'
'ingr'
'ican'
'hugo_'
'hc'
'gues'
'guernsey_'
'greymouth_'
'gret'
'greatwe_'
'grandparents_'
'glad'
'ghan'
'existence_'
'excelsior_'
'eventhough_'
'esp'
'eha'
'dut'
'dour_'
'div'
'directory_'
'dicey_'
'detracts_'
'describing_'
'deposit'
'deh'
'dealers_'
'dance'
'czech_'
'curtains'
'curl'
'creamers_'
'cove'
'courte'
'correcti'
'clubb'
'cleanso_'
'cannon_'
'brin'
'bowe'
'boca_'
'bijou_'
'bier'
'bengal'
'bella'
'bedsthe_'
'bean'
'bayview_'
'barw'
'bana'
'bailey'
'attack_'
'ask'
'aperitif_'
'agi'
'adu'
'= _'
'73_'
'320_'
'165_'
'.,_'
'$'
' - ( _'
'è'
'zzle'
'witha_'
'wimbledon_'
'wer_'
'web'
'wack'
'vie_'
'vere_'
'veal_'
'vana_'
'valet'
'uv'
'usual'
'ulate_'
'tunis'
'treet'
'tool_'
'tick'
'tequila_'
'swat'
'surrey_'
'staywe_'
'song'
'so'
'slie'
'sizeand_'
'serv'
'scum_'
'scotts'
'retrieved_'
'restaurantso_'
'resolution_'
'resemble_'
'regarded_'
'question'
'qualms_'
'pping_'
'pier'
'pavements_'
'patr'
'particulary_'
'particular'
'parrots_'
'paced_'
'organise'
'nute'
'nna_'
'nate'
'mothers_'
'moisture_'
'mgm_'
'members'
'maxi'
'massachusetts_'
'lung'
'lucknow_'
'lls_'
'lith'
'lane'
'kk'
'kai_'
'judy_'
'jubilee_'
'jb'
'jamm'
'itza_'
'irk'
'inspect'
'ingso_'
'ingle'
'infr'
'incorrectly_'
'hotelb'
'fuller'
'formi'
'forgiven_'
'fords'
'fold'
'fog'
'fluorescent_'
'flashing_'
'feeling'
'esse'
'ened_'
'employer_'
'ej'
'divers_'
'distanceand_'
'dissapointment_'
'devil_'
'dei'
'ded'
'coronado_'
'cornerand_'
'continent_'
'compliment'
'chipotle_'
'chintzy_'
'chatt'
'chasing_'
'centralized_'
'cables_'
'butn'
'brook'
'bounce'
'blind'
'bigg'
'beck_'
'bash'
'bala'
'attention'
'appo'
'antoni'
'annie_'
'ange'
'amazingand_'
'alameda_'
'ael_'
'196'
'zum'
'yield'
'y'
'wu_'
'wle'
'warp_'
'viewi'
'usk'
'urs'
'unsurpassed_'
'unhurried_'
'uct'
'thor'
'tendency_'
'tast'
'spills_'
'soller_'
'sleepthe_'
'sig'
'shield'
'servicei_'
'rooma'
'rocke'
'roadways_'
'refus'
'redeemed_'
'realizing_'
'ramble'
'race'
'rabat_'
'provide'
'produces_'
'preparations_'
'preferably_'
'pose_'
'poll'
'phon'
'pb'
'pau'
'partner'
'parlo'
'osc'
'nick'
'nic_'
'moto'
'mong'
'mite'
'merc'
'makings_'
'luxury'
'luc'
'lows_'
'lao'
'kels'
'jp'
'jamb'
'ithe'
'israeli_'
'homes'
'hit'
'helpings_'
'heinz_'
'hamper'
'hak'
'greene'
'goodm'
'gn_'
'gaylord_'
'flori'
'expensivebut_'
'espa'
'ember'
'drafty_'
'dowdy_'
'dish'
'defi'
'confirm'
'climbed_'
'civilization_'
'cide'
'chur'
'chatter_'
'canoes_'
'cancel'
'cage_'
'butall_'
'buddha_'
'bolt_'
'bd'
'bart'
'bags'
'arge_'
'andfood_'
'andc'
'alum'
'adel'
'actively_'
'abb'
'600'
'222_'
'214_'
'!!. _'
' ° _'
' ;-)_'
' .” _'
' ,( _'
'zak'
'would'
'walko'
'vibes_'
'vag'
'unmanned_'
'unc_'
'unavoidable_'
'thereit_'
'terra'
'tbilisi_'
'tard'
'swish_'
'strengths_'
'stocks_'
'stagger'
'ssy_'
'solutions_'
'shapes_'
'scale'
'rude'
'rotterdam_'
'rosen'
'rica'
'resortand_'
'quet_'
'pyramid_'
'principle_'
'prides_'
'placesbut_'
'phx_'
'pav'
'passe'
'overstuffed_'
'overst'
'outset_'
'orl'
'opryland_'
'nair'
'mondays_'
'moment'
'mercer_'
'melb'
'media'
'mattered_'
'masc'
'marquis_'
'managment_'
'loews_'
'len_'
'kobe_'
'kick'
'kell'
'joking_'
'ipa'
'inwe_'
'interco'
'inb'
'implement'
'impa'
'ich'
'hydr'
'holli'
'herea'
'glas'
'given'
'gill'
'foods'
'flowed_'
'fee'
'fawlty_'
'expressi'
'esl'
'enormously_'
'elemis_'
'ees_'
'edw'
'ecuador_'
'ecl'
'easi'
'dys'
'dus'
'disjointed_'
'directv_'
'delu'
'critic'
'coal_'
'citizenm_'
'characteristic_'
'carl_'
'caldera_'
'caffe'
'bust'
'bricktown_'
'breakfastthe'
'brandenburg_'
'bore'
'bombay_'
'boll'
'bn'
'bluffs_'
'bem'
'bedr'
'beam_'
'arl'
'arco'
'archi'
'announce'
'angeli'
'ameneties_'
'amaze'
'airportit_'
'aha'
'ador'
'39'
'/-'
' $ $ $ '
'€ _'
'yucky_'
'ythi'
'yd'
'wors'
'ways'
'wasw'
'wast'
'vibrate'
'univ_'
'type'
'tsu'
'tst_'
'tours'
'swiming_'
'suspicious_'
'subm'
'stea'
'sports'
'sound'
'sm'
'sid'
'shreveport_'
'servicei'
'sans_'
'sanc'
'robbi'
'riverbank_'
'provincial_'
'prone_'
'prompted_'
'political_'
'plentiful'
'pharmacies_'
'patagonia_'
'paras'
'palacio_'
'oya'
'owa'
'ond_'
'omen'
'num'
'nove'
'nobu_'
'nigh_'
'nem'
'monthly_'
'molding_'
'mk'
'mig'
'midnight'
'metrop'
'meh'
'm1'
'lovelythe_'
'lore'
'lipstick_'
'lime'
'laser_'
'kana'
'itwe_'
'imo'
'iin'
'hotelst'
'hopper'
'halla'
'ghte'
'exi'
'espn_'
'ellis_'
'e1'
'dubai'
'disor'
'destination'
'delphi_'
'dec'
'dab'
'crowed_'
'critique_'
'creek'
'consol'
'confe'
'conclude_'
'common'
'clan'
'centreand_'
'catamaran_'
'cashe'
'carna'
'cad_'
'buildingand_'
'brai'
'bitt'
'bethlehem_'
'basicbut_'
'armas_'
'anywhereyou_'
'ander_'
'amentities_'
'amand_'
'allis'
'airli'
'againi_'
'abuse'
'58'
'1950s_'
'169_'
'15pm_'
'122_'
'youth'
'wasa_'
'volumes_'
'tze'
'twists_'
'tula'
'trunk_'
'tread_'
'trace_'
'tollway_'
'tive'
'tia'
'threatened_'
'theory_'
'taw'
'taped_'
'tablecloths_'
'stein_'
'squashed_'
'sluggish_'
'slot'
'sip'
'singh_'
'silk'
'shout'
'seda'
'rry_'
'rivert'
'rex_'
'revol'
'revisiting_'
'restura'
'relie'
'regions_'
'reccom'
'rable_'
'quietw'
'quesadilla'
'postage_'
'placei_'
'pisco_'
'ph'
'peacefully_'
'parfait_'
'paired_'
'overgrown_'
'oph'
'nighti'
'nerv'
'muggy_'
'misfortune_'
'mews_'
'mestre_'
'lv'
'liberdade_'
'lian_'
'lagoons_'
'knu'
'ket_'
'kaw'
'kab'
'japan'
'irma_'
'inm'
'idge_'
'hovering_'
'hne'
'herbs_'
'heaving_'
'hague_'
'giraffe_'
'gay'
'freak_'
'foodi'
'flustered_'
'fisher'
'esque_'
'esand_'
'ep_'
'ent'
'elena_'
'edwardian_'
'earn'
'docked_'
'discomfort_'
'dipping_'
'definatley_'
'curteous_'
'cowboys_'
'console_'
'cone_'
'condensation_'
'cobb_'
'clunky_'
'classand_'
'cious_'
'bg'
'avid_'
'aus'
'article'
'arboretum_'
'andwh'
'airc'
'54'
'500'
'46'
'307_'
' ! ..._'
'zation_'
'xs'
'wlan_'
'western'
'wayso_'
'want'
'vt_'
'vn'
'valent'
'usit_'
'urb'
'unplanned_'
'ule'
'tweaks_'
'thom'
'tc_'
'suffolk_'
'stockyards_'
'steri'
'steak'
'splurged_'
'skiers_'
'sealant_'
'scrum_'
'sari'
'rossio_'
'riva_'
'redmond_'
'receptionw'
'receptions'
'receptionist'
'rear'
'rajasthan_'
'qe'
'poss'
'plate'
'pickups_'
'personalities_'
'paseo_'
'outw'
'otte'
'northw'
'nip_'
'navajo_'
'mutt'
'mue'
'montage_'
'mistakenly_'
'mex_'
'mecure_'
'magn'
'loose'
'lighte'
'lect'
'lant'
'kennebunkport_'
'keep'
'jetwing_'
'ibe'
'hump'
'howling_'
'hough_'
'hile_'
'headli'
'guilty_'
'gris'
'gorgeously_'
'glaring_'
'garibaldi_'
'frog_'
'frei'
'fitz'
'experiencebut_'
'expanding_'
'evacuate'
'eles'
'eclipse_'
'dump'
'drift_'
'downt'
'dove'
'devo'
'deer'
'dead'
'dartmoor_'
'crown'
'creatures_'
'cotai_'
'cooke'
'clustered_'
'cleana'
'cie_'
'chev'
'centerbut_'
'ced'
'carnegie_'
'butre'
'businessman_'
'busan_'
'buda_'
'bu_'
'brighte'
'branding_'
'bout'
'blower_'
'basil_'
'barren_'
'ayr_'
'ayo'
'avoids_'
'avo'
'attire_'
'appa'
'andth'
'alone'
'aic'
'afb_'
'adequate'
' : * _'
'xo'
'workstation_'
'wol'
'wl_'
'waved_'
'voi'
'viewpoint_'
'vern'
'unfor'
'uis'
'udi'
'tuba'
'townit_'
'topkapi_'
'thompson_'
'testing_'
'teen'
'tch'
'taa'
'sweating_'
'sway'
'subs'
'staffwe_'
'southbound_'
'situat'
'shirley_'
'sants_'
'rst'
'roomier_'
'recruit'
'reclining_'
'realising_'
'print'
'practices_'
'politic'
'pleas'
'perform'
'paul'
'pah'
'packe'
'overal_'
'outso_'
'ostrich_'
'orb'
'oom'
'omlets_'
'oid'
'nv'
'northe'
'nightw'
'niceso_'
'nearbyand_'
'monarch_'
'miser'
'merits_'
'melrose_'
'marvel'
'marbella_'
'm6'
'llen_'
'linn'
'lightening_'
'leonardo_'
'kop'
'kenmore_'
'kc'
'karo'
'jax_'
'iq'
'intra'
'incomp'
'iki_'
'humorous_'
'hip'
'hans'
'grove'
'grind'
'greatit_'
'gorge'
'gb_'
'freewayso_'
'fos'
'ferra'
'fect'
'fara'
'eren'
'entr'
'enclave_'
'elm'
'edi_'
'dribble_'
'dick_'
'depict'
'deodor'
'cw'
'concur_'
'commerce_'
'color'
'colca_'
'coc'
'closures_'
'cert'
'cask_'
'brock'
'boost_'
'bonfire_'
'bode'
'barnes_'
'bann'
'app'
'albert'
'aerobic_'
'acquired_'
'acha'
'wrist_'
'workingand_'
'wasclean_'
'visiti'
'velvet_'
'vat_'
'valve_'
'valparaiso_'
'vad'
'turin_'
'tuk'
'tu_'
'trousers_'
'trippers_'
'trinidad_'
'tree'
'tre_'
'toil'
'tie'
'thorn'
'thisi'
'tango_'
'succeeded_'
'succ'
'subjective_'
'sprit'
'spraying_'
'sparkle'
'sorbet_'
'solar_'
'sera'
'seams_'
'scranton_'
'sangria_'
'saf'
'rise'
'res'
'requisite_'
'read'
'quincy_'
'quar'
'qt_'
'pump'
'pn_'
'pint'
'pigs_'
'philipp'
'persistent_'
'pend'
'pauls_'
'paramount_'
'palette_'
'overloaded_'
'ooze'
'odor'
'nos_'
'northwestern_'
'ned'
'mush'
'movenpick_'
'meu'
'melon'
'mea'
'mayhem_'
'masterpiece_'
'masai_'
'martinis_'
'mama_'
'lud'
'louisiana_'
'locationa'
'lizard_'
'lid'
'lamp'
'junk'
'jam'
'insta'
'imper'
'iet'
'holy'
'hollow_'
'herew'
'hang'
'gurne'
'gray'
'giu'
'gho'
'genoa_'
'gaslamp_'
'gand_'
'frig'
'francesc'
'fr_'
'form'
'fjords_'
'extre'
'eva_'
'egre'
'dominat'
'dividing_'
'dik'
'dif'
'dag'
'cubs_'
'crai'
'compressor_'
'commence'
'cheetah_'
'butfor_'
'brake'
'awaythe_'
'atti'
'arti'
'anni'
'alg'
'agree'
'action'
'acess_'
'5m'
'315_'
'1930s_'
'! !_'
' ? ? ) '
' ........... _'
' .--_'
'zn'
'youi'
'xin'
'woodsy_'
'wheeled_'
'vino_'
'vening_'
'vd'
'vanessa_'
'urne'
'unspoilt_'
'underl'
'uncomplicated_'
'twin'
'toni'
'tigers_'
'thems'
'theb'
'tgv_'
'swapped_'
'sussex_'
'staple_'
'skid'
'shaw_'
'servicewas_'
'screams_'
'sbe'
'sati'
'sandpaper_'
'sail'
'rey'
'rev'
'retiro_'
'rendered_'
'reac'
'rdi'
'ra'
'quo'
'promo'
'promi'
'problems'
'prefered_'
'ppo'
'pn'
'paradors_'
'paihia_'
'overnighted_'
'overcharge_'
'orient'
'nga_'
'nera'
'nel_'
'mow'
'mines_'
'mich'
'mah'
'loses_'
'liffey_'
'lending_'
'lazing_'
'launching_'
'juneau_'
'journey'
'ize'
'info'
'increasing_'
'impatient_'
'hubs_'
'hots'
'hia'
'heri'
'handrail'
'gritty_'
'grim'
'germans_'
'frantic_'
'four'
'foc'
'field'
'ester_'
'ento'
'enters_'
'ente'
'ein'
'edo'
'defin'
'cut'
'crit'
'crane_'
'corri'
'corners'
'contributi'
'complaint'
'compassion'
'charm'
'champaign_'
'carr'
'burrito_'
'buffe'
'bruce_'
'breath'
'bookstore_'
'bolted_'
'body'
'bod'
'beamed_'
'barra_'
'atic'
'aster'
'aso_'
'arrow'
'andone_'
'anding_'
'anas'
'anad'
'americinn_'
'alan'
'aerobus_'
'5h'
'312_'
'30p'
' ! ! ! )_'
'zebras_'
'wateri'
'wasgood_'
'wanda_'
'wana_'
'vendome_'
'unpro'
'unmade_'
'unexceptional_'
'unbe'
'ulu'
'traini'
'towing_'
'toot'
'terrain_'
'terrace'
'teak_'
'tara_'
'tao'
'sweep_'
'stella_'
'statu'
'som_'
'soaker_'
'slanted_'
'shaver_'
'scen'
'sai'
'rra_'
'rra'
'romm'
'ridge'
'remotes_'
'relo'
'ravioli_'
'rattle_'
'raff'
'quake'
'pup'
'postcards_'
'perfecti'
'parrot_'
'offs'
'oceanside_'
'nov'
'nicke'
'naz'
'nat'
'motorway'
'moss'
'merci'
'meas'
'matresses_'
'mart'
'manually_'
'malfunctioning_'
'lp_'
'loudest_'
'lom'
'laugh'
'kitsch_'
'kilometer_'
'jean'
'isan'
'involving_'
'idea'
'hp'
'host'
'honfleur_'
'honeymooners_'
'hok'
'hof'
'ho'
'hipp'
'herd'
'hass'
'harr'
'grid'
'greta_'
'greet'
'greedy_'
'goodb'
'git_'
'fundamental'
'funand_'
'frazzled_'
'foundation_'
'fortuna_'
'forgo'
'font'
'ffa'
'fern_'
'fari'
'facilitated_'
'extract'
'exercising_'
'eliminat'
'elbow_'
'downi'
'doubt'
'doncaster_'
'dist'
'dig_'
'derelict_'
'dells_'
'defect'
'cushioned_'
'cube_'
'crepe_'
'chippe'
'chic'
'chauffeur_'
'centuries_'
'cate'
'cassi'
'cane'
'cam_'
'cajun_'
'burb'
'bott'
'blizzard_'
'bia'
'betw'
'belvedere_'
'ballston_'
'awas'
'aus_'
'areait_'
'apartment'
'andmost_'
'anand'
'amateur_'
'albe'
'aar'
'85'
' , .'
'zil'
'yountville_'
'wye_'
'whitbread_'
'whimsical_'
'weak'
'waterand_'
'vig'
'viewbut_'
'varadero_'
'vand'
'vale'
'vald'
'tower'
'tossed_'
'tio'
'thur_'
'tavi'
'talbot_'
'sz'
'succulent_'
'stil'
'steigenberger_'
'stag'
'sprays_'
'spra'
'sono'
'smith'
'skipton_'
'siren_'
'shipped_'
'seneca_'
'secur'
'scanne'
'sauc'
'sali'
'sala_'
'rust'
'rud'
'roppongi_'
'ripoff_'
'responsiveness_'
'reaches_'
'radis'
'prussia_'
'previ'
'prevents_'
'pei_'
'peachtree_'
'pax_'
'orthe_'
'orc'
'oran'
'omfortable_'
'okand_'
'nok_'
'noisily_'
'nicola'
'musician_'
'mug'
'motor'
'most'
'moan'
'michael'
'method_'
'marcus_'
'marcos_'
'loma'
'locationw'
'ller_'
'koa'
'jum'
'joplin_'
'itthe'
'ining_'
'infrequent_'
'imes_'
'imagin'
'ids_'
'hov'
'hank_'
'grin'
'goode'
'funk'
'fav_'
'fav'
'facilitate_'
'exit'
'exclude'
'exceptional'
'ewo'
'estates_'
'erik'
'doggy_'
'dj'
'distinguish_'
'dissappointed_'
'deu'
'desks'
'dent_'
'deducted_'
'daf'
'cullen_'
'correspond'
'corne'
'constan'
'clock'
'christopher_'
'champa'
'casually_'
'caramel_'
'butterflies_'
'burge'
'brick'
'breckenridge_'
'blu'
'biggie_'
'bho'
'bela'
'barns'
'balla'
'azi'
'aun'
'ashe'
'arran_'
'andba'
'alls'
'alli'
'alfresco_'
'aking_'
'..._'
' ' !_'
'withe'
'wint'
'wellbut_'
'wawa_'
'wade'
'vila_'
'vers'
'ught'
'thron'
'thatand_'
'testament_'
'tavern'
'tama'
'symp'
'superf'
'slab_'
'signpost'
'sigh'
'sensitiv'
'satisf'
'sandman_'
'reus'
'restless_'
'reconst'
'ramp'
'quiz_'
'ques'
'positano_'
'ports'
'portray'
'plot_'
'pleanty_'
'pica'
'permeated_'
'passageway_'
'outcome_'
'ouch'
'orf'
'odat'
'murder_'
'month'
'monster_'
'meriton_'
'marking_'
'lt_'
'locations'
'lk_'
'lda'
'knocks_'
'kk_'
'karl_'
'jars_'
'jacob_'
'islington_'
'invercargill_'
'ink'
'imme'
'ifi'
'hog_'
'hips_'
'hern'
'harmony_'
'gutted_'
'grap'
'going'
'garmin_'
'gamla_'
'foodw'
'flash'
'ffer'
'fel'
'favorably_'
'fabulous'
'explora_'
'estr'
'enb'
'elect'
'eati'
'dumfries_'
'deodorizer_'
'cushy_'
'ctua'
'cta_'
'crusty_'
'courtney_'
'contend_'
'condi'
'colmar_'
'clap'
'cion'
'chest'
'cere'
'cater'
'byso_'
'buildingso_'
'bud_'
'breakfastal'
'bohemian_'
'boasted_'
'berkshires_'
'becky_'
'attachment_'
'assign'
'asoke_'
'aromatherapy_'
'areawe_'
'arby_'
'appealed_'
'andbed_'
'amm'
'alene_'
'aerop'
'adore_'
'a5'
'zz_'
'zie_'
'zeal'
'yeo'
'wadi_'
'volcan'
'ving'
'vil'
'vibra'
'uncluttered_'
'uma_'
'ull'
'ud_'
'tweak'
'tto_'
'tter'
'trainstation_'
'tof'
'tment'
'tj'
'therewe_'
'tem'
'tarr'
'talk'
'summon'
'sugar'
'staggering_'
'stacks_'
'sr_'
'sprinkler'
'sneak_'
'skipping_'
'sita'
'shep'
'seag'
'scrib'
'scan'
'santo_'
'rivers'
'ris_'
'ridges_'
'ridd'
'retreat'
'resc'
'remote'
'reducing_'
'recomment_'
'reasona'
'rca'
'ragged_'
'puppet_'
'ptu'
'proposed_'
'priory_'
'porto'
'poola'
'pismo_'
'pedestal_'
'parr'
'overheated_'
'overa'
'ov'
'orr'
'ordeal_'
'opena'
'ology_'
'nowhere'
'nord'
'noisythe_'
'nch'
'nasa_'
'mono_'
'molly_'
'meadow'
'mbk_'
'masseuse_'
'marl'
'luncheon_'
'loos_'
'loops_'
'lobbyand_'
'loaned_'
'limp_'
'lib'
'lenny_'
'kitt'
'jane'
'izing_'
'intact_'
'insti'
'inau'
'immerse'
'illumination'
'i7'
'herei_'
'hairdryers_'
'ground'
'greenfield_'
'grati'
'goodl'
'gogh_'
'getaways_'
'gallo'
'gale_'
'fulfilling_'
'frag'
'forrest_'
'flashlight_'
'finland_'
'fia'
'euros'
'equi'
'dwe_'
'dk'
'distract_'
'distinguish'
'disgusted_'
'diets_'
'diab'
'decanter_'
'deafening_'
'culver'
'convert'
'compet'
'compact'
'colo'
'claudia_'
'cked_'
'checkin'
'carafe_'
'calv'
'calmer_'
'brit'
'bricks_'
'bran'
'berwick_'
'beh'
'bead'
'avis_'
'athl'
'appr'
'anticipation_'
'anie'
'anga'
'ane_'
'andthe'
'andsu'
'alv'
'aix_'
'aaron_'
'4x4_'
'407_'
'402_'
'330_'
'1990s_'
' 👍 '
' ... ) , _'
' $ $ $ _'
'yl_'
'xos_'
'wra'
'woody_'
'withthe_'
'wealthy_'
'wasn_'
'visitbut_'
'ute'
'upbut_'
'trifle_'
'treasures_'
'towns'
'tle'
'they'
'thereth'
'thb_'
'thanh_'
'test'
'telluride_'
'syl'
'supp'
'sunb'
'sue'
'sturgis_'
'streeti'
'stayw'
'stationi'
'smoothe'
'sie_'
'shawn'
'scro'
'saskatoon_'
'salted_'
'rts_'
'roti'
'roomso'
'rocked_'
'rae'
'puzzle'
'puno_'
'propped_'
'pronounced_'
'programmed_'
'pebbles_'
'peacefulness_'
'pave'
'paste_'
'parthenon_'
'outa'
'ousi'
'oura'
'othe_'
'osp'
'orth_'
'oppressive_'
'oozing_'
'oods_'
'onit_'
'omar_'
'oldish_'
'objects_'
'nom'
'noisei'
'nando'
'mete'
'marin_'
'manoeuvre_'
'lygon_'
'lubbock_'
'lorry_'
'lili'
'lain_'
'knott'
'ketch'
'jovial_'
'jol'
'irt'
'irre'
'instrument'
'hongqiao_'
'hesi'
'hawker_'
'hange'
'hancock_'
'gst'
'greeter_'
'grapevine_'
'gord'
'goodespecially_'
'ghi'
'generations_'
'gardener_'
'fram'
'fn'
'fac'
'expir'
'expected'
'exhibits_'
'espe'
'ephesus_'
'entre'
'emporium_'
'edo_'
'driveand_'
'downe'
'downand_'
'dinnerw'
'dart'
'crowding_'
'criticize_'
'count'
'cookware_'
'consult'
'cond_'
'commonwealth_'
'circu'
'chw'
'chos'
'chong'
'chil'
'cci_'
'cash'
'carra'
'canal'
'calafate_'
'bunk'
'brews_'
'breakfastb'
'borghese_'
'bok'
'birthday'
'biased_'
'barri'
'bait_'
'backpack'
'awaken_'
'auto'
'aub'
'andre_'
'amal'
'alta_'
'allot_'
'airporti_'
'adjoined_'
'64'
'160'
' :-) ._'
'wold_'
'withi'
'weeks'
'wasgreat_'
'wander'
'voted_'
'vist'
'visa'
'vaci'
'uro_'
'upright_'
'unkempt_'
'uha'
'typ'
'tribeca_'
'swimsuit'
'sport'
'soe'
'snows'
'skinny_'
'serviceth'
'seashore_'
'runa'
'routinely_'
'rosen_'
'rne'
'rivage_'
'rid'
'rhubarb_'
'restauranta'
'rema'
'ramo'
'pse'
'plantings_'
'petrified_'
'penalty_'
'pape'
'overwater_'
'outsidethe_'
'outi_'
'ost'
'oats_'
'nuremberg_'
'nter'
'nicks_'
'nci'
'nah'
'mie'
'mention'
'memo'
'mallorca_'
'malfunction'
'mab'
'linden_'
'likea'
'leura_'
'lem'
'lacrosse_'
'kumar'
'kiss'
'juice'
'jod'
'jen'
'isvery_'
'issa'
'interconnected_'
'integr'
'installing_'
'inni_'
'immediat'
'ige'
'iere'
'identi'
'i9'
'hotelc'
'hol_'
'hitch'
'heidi_'
'halt_'
'hai_'
'guidebook'
'grad'
'georges_'
'gee_'
'fried'
'foy'
'finishings_'
'feature'
'erna'
'epo'
'eed_'
'edd'
'each'
'dura'
'dumpsters_'
'diminished_'
'different'
'dick'
'determine_'
'defeat'
'crafted_'
'cough_'
'continual_'
'construction'
'conflict'
'complain'
'cistern_'
'christian'
'chin_'
'chef'
'cheape'
'charme_'
'carvings_'
'caen_'
'breeze'
'breakfastis_'
'borne_'
'bolshoi_'
'blink_'
'birthdays_'
'berkeley_'
'beachthe_'
'barista_'
'avg_'
'atte'
'astr'
'artisan_'
'appeals_'
'apolog'
'announced_'
'angl'
'amu'
'amr'
'alr'
'allegedly_'
'aim'
'advert_'
'accesible_'
'32nd_'
'210'
'113_'
'xed_'
'wow'
'wonder'
'wierd_'
'warthogs_'
'vien'
'uso'
'uplift_'
'unsc'
'traver'
'transport'
'transform'
'thrill_'
'tastie'
'tara'
'tana_'
'surabaya_'
'stylis'
'stripped_'
'stb'
'stayi'
'sses_'
'softness_'
'sni'
'simultaneously_'
'shifted_'
'shaking_'
'setback_'
'sell'
'sanitize'
'salina_'
'roome'
'roomal'
'roaches_'
'reve'
'regret'
'rag_'
'pyramids_'
'prima'
'precisely_'
'pita'
'ping'
'pillow'
'picton_'
'perk'
'pear'
'pane'
'paella_'
'overhea'
'outsidei'
'outf'
'omin'
'ois_'
'oco'
'occassion_'
'occa'
'nitpick'
'moda'
'moana_'
'miz'
'mix'
'misunderstanding_'
'mirage_'
'metr'
'merry_'
'mermaid_'
'maya'
'mati'
'marri'
'marquee_'
'marc_'
'magnificient_'
'leek_'
'lari'
'lac_'
'kwa'
'jus_'
'irr'
'interstateso_'
'iner'
'ibu'
'ibiza_'
'hower_'
'hope'
'hew'
'hermanus_'
'heel_'
'harrison_'
'hardy_'
'harbourside_'
'handler'
'hamam'
'gush'
'gian'
'friendl'
'freeport_'
'footpaths_'
'foc_'
'firework_'
'fax'
'fave_'
'ext'
'everyone'
'ener'
'empty'
'employ_'
'eliptical_'
'download'
'diversi'
'desktop_'
'dala'
'croc'
'creep'
'crabtree_'
'controlling_'
'congrats_'
'confronted_'
'conch'
'comm'
'cio_'
'chine'
'chelly_'
'cav'
'catch'
'carcassonne_'
'cani'
'brus'
'brulee_'
'bot_'
'bobby_'
'bc'
'barre'
'baha'
'arteri'
'armo'
'appetites_'
'amply_'
'allocate_'
'algarve_'
'accompaniments_'
'[_'
'2a'
'217_'
'179_'
'! ! !'
'ø'
'yard'
'xic'
'workmanship_'
'wheeling_'
'weathers'
'wase'
'vienn'
'utan'
'unto'
'unresponsive_'
'uncertain_'
'uite'
'uca_'
'uat'
'tya'
'twi'
'tort'
'toilett'
'tire'
'timeless_'
'tig'
'tid'
'teat'
'tarts_'
'swe'
'spoo'
'spiff'
'shortcut_'
'shiv'
'seawall_'
'saucer'
'sation_'
'sang'
'sac'
'rul'
'ronda'
'rge'
'restore_'
'rene_'
'reliability_'
'refr'
'raving_'
'quel'
'ption'
'producing_'
'priorities_'
'prebooked_'
'portr'
'plow'
'plat_'
'picadilly_'
'pers'
'pepsi_'
'patronize'
'painter'
'pacific'
'outla'
'orp'
'onei'
'nur'
'nige'
'nial'
'nent_'
'negative'
'mps_'
'mould'
'morr'
'missi'
'mindi'
'millions_'
'microwave'
'merchandise_'
'marke'
'mane'
'maharaja'
'made'
'lumber'
'lett'
'kota_'
'keynes_'
'kali'
'kah'
'jugs_'
'joan_'
'ition_'
'ira'
'interl'
'inaccessible_'
'illo'
'ign_'
'hly_'
'heb'
'handmade_'
'handi'
'hamlet_'
'haba'
'gradually_'
'glorified_'
'gillette_'
'fot'
'fll_'
'fil_'
'fauna_'
'farmington_'
'fancy'
'evelyn_'
'ery'
'erries_'
'elev'
'droo'
'dod'
'differe'
'deme'
'copa'
'clump'
'cleanwe_'
'cien'
'chunk_'
'chro'
'chr'
'charmed_'
'cathedrals_'
'carving_'
'buton_'
'butg'
'bp_'
'benefitted_'
'beer'
'basi'
'bash_'
'bahnhof_'
'autograph_'
'auc'
'anchor'
'alter'
'agnes_'
'accra_'
'60th_'
'2min_'
'219_'
'1940'
' ----'
'wynyard_'
'wyn'
'wegmans_'
'wald'
'visibility_'
'vibration_'
'vague_'
'ush_'
'upsetting_'
'unfounded_'
'uncle_'
'ump'
'uf_'
'tubing_'
'tti_'
'transl'
'tracked_'
'towering_'
'torres_'
'thrills_'
'thatbut_'
'syn'
'sunglasses_'
'stud'
'stown_'
'splatter'
'spla'
'soufflé_'
'siti'
'sif'
'shacks_'
'scrap'
'saty'
'sagar_'
'rse'
'roomswe'
'robertson_'
'riverb'
'restraint'
'restos_'
'remover_'
'reet'
'ramon_'
'rade'
'puls'
'prompt'
'pont_'
'polar_'
'platin'
'phu'
'phen'
'penguin_'
'paine_'
'paddies_'
'osa'
'oper'
'onse'
'often'
'novena_'
'nightst'
'nich'
'mouthwash_'
'mountains'
'montrose_'
'moi'
'moc'
'milli'
'midrange_'
'meta'
'marshall_'
'maritim_'
'marcel'
'lull'
'ley'
'leis'
'laughable_'
'landlord_'
'kne'
'iven'
'islam'
'ipoh_'
'inth'
'included'
'impaired_'
'hep'
'hatt'
'harvest_'
'harrahs_'
'haired_'
'gea'
'gaze'
'frin'
'forti'
'ferris_'
'fayetteville_'
'explanations_'
'eral'
'enc'
'eliminated_'
'eally_'
'downpour_'
'dough_'
'dil'
'cous'
'conservative_'
'compote_'
'colla'
'coldest_'
'cleanl'
'clam_'
'chunky_'
'choo_'
'china'
'cheerful'
'capi'
'calistoga_'
'burmese_'
'buried_'
'brim'
'bray'
'blasted_'
'birdlife_'
'belli'
'behave_'
'baymont_'
'bandon_'
'balcon'
'backs'
'baby'
'avery_'
'att_'
'asst_'
'asan'
'ardi'
'ap_'
'andli'
'andgood_'
'ami_'
'amend'
'af'
'acquaint'
'< '
'6a'
'4s'
'309_'
' ? ? ? ? ?'
' .* * '
' !" _'
'wool_'
'wholly_'
'wax'
'vec'
'vac'
'uta_'
'upl'
'update'
'unse'
'truffle_'
'trouble'
'transfer'
'total'
'toss_'
'tory_'
'tol'
'ths'
'thriving_'
'thri'
'texan_'
'tels_'
'talkeetna_'
'sut'
'suspects_'
'sunning_'
'stick'
'sparkle_'
'sman_'
'sliver_'
'slig'
'sk_'
'showroom_'
'shak'
'servicea'
'seren'
'selves_'
'securely_'
'samo'
'rockers_'
'ribe'
'repu'
'recycle_'
'recept'
'raspberries_'
'rafael_'
'quieten'
'pped_'
'pede'
'passages_'
'pall'
'oracle_'
'oer'
'nipp'
'nbc_'
'muss'
'mornings'
'mojitos_'
'modem_'
'mina'
'metropolis_'
'merida_'
'mateo_'
'manicure_'
'lst'
'lov'
'locationso_'
'leo'
'legend_'
'lama'
'kka'
'kilometre_'
'kicks_'
'kasbah_'
'iran_'
'installation_'
'inis'
'impresses_'
'ile'
'iko'
'i4'
'hyatts_'
'hotelt'
'horne'
'homeand_'
'havasu_'
'harri'
'hansar_'
'german'
'generosity_'
'gart'
'gables_'
'flipp'
'fili'
'falconry_'
'fairways_'
'erson'
'enquiry_'
'enou'
'enjoy'
'emotion'
'embankment_'
'ead'
'dup'
'dst'
'dormitory_'
'doorw'
'displ'
'discl'
'disabilities_'
'dictate'
'dane'
'crom'
'comfotable_'
'cola'
'classically_'
'cheryl_'
'channels'
'chalk_'
'cesar_'
'certain'
'cary_'
'cancelling_'
'budget'
'bottle'
'bentley_'
'bate'
'bass'
'bas_'
'bark_'
'aza'
'ath'
'aps'
'apologizing_'
'antr'
'angus_'
'andwith_'
'andh'
'amenit'
'advisor'
'ading_'
'7a'
'2br_'
'183'
' - -_'
' ' ) '
' !:'
'wenceslas_'
'viv'
'vik'
'vell'
'vanities_'
'us1'
'unoccupied_'
'tulum_'
'tty_'
'trademark_'
'tional_'
'thou_'
'tge_'
'taverna_'
'tant_'
'talent_'
'taip'
'swear_'
'strangest_'
'stations'
'soleil_'
'sock_'
'sko'
'sick'
'select'
'scout'
'ropo'
'riser_'
'regi'
'railways_'
'pull'
'preca'
'poorer_'
'plein_'
'plea'
'pizza'
'pillar_'
'picc'
'philip_'
'pest'
'parkthe_'
'pari'
'panhandle'
'overla'
'oute'
'oooo'
'omer_'
'og_'
'oes_'
'occurrence_'
'nte'
'niceo'
'nep'
'ndant'
'nations_'
'nade'
'mishap'
'mish_'
'midge'
'mem'
'mec'
'measured_'
'mariposa_'
'listi'
'limassol_'
'lex_'
'lattes_'
'kata_'
'ists_'
'isp'
'intrepid_'
'interview_'
'insulting_'
'imb'
'identity_'
'i8'
'horrified_'
'hob'
'hays_'
'har_'
'hangs_'
'goodbreakfast_'
'gest'
'gerat'
'gans_'
'furnish'
'function'
'fret'
'freebie_'
'foss'
'foreigner_'
'ffed_'
'feeble_'
'feared_'
'fau'
'explorer_'
'ette'
'etihad_'
'etic'
'ergonomic_'
'equat'
'enforced_'
'enf'
'effect'
'eep'
'eco'
'dyna'
'doc_'
'disguise'
'disapp'
'differ'
'deg_'
'definit'
'darken'
'damm_'
'crossings_'
'corb'
'control'
'communist_'
'choc_'
'cheese'
'chased_'
'chas'
'character'
'cauliflower_'
'byand_'
'bv'
'butco'
'bryan_'
'brentwood_'
'bragg_'
'bolton_'
'boa'
'belmont_'
'bbe'
'barry_'
'baron_'
'attracting_'
'ational_'
'arundel_'
'arto'
'apart'
'andwa'
'andsome_'
'amer'
'altho'
'alou'
'alarm'
'akureyri_'
'affable_'
'abl'
'a12_'
'199_'
'04'
' ? ! ?'
' .:'
' ......'
'xp'
'wwii_'
'weatherspoons_'
'waste'
'wakes_'
'validate_'
'vaca'
'unorganized_'
'umi'
'tth'
'treks_'
'tiny'
'tint'
'thisbut_'
'tempura_'
'taxis'
'tamworth_'
'tablet'
'sund'
'stl'
'sthey_'
'staffw'
'stab'
'sre'
'squeak_'
'souless_'
'siting_'
'sightseeing'
'sdo'
'schipol_'
'ryan'
'roos'
'roch'
'rine'
'riche'
'receptionbut_'
'rates'
'raisins_'
'raf'
'public'
'proactively_'
'polanco_'
'peer'
'palom'
'ours'
'oswego_'
'organiz'
'olo_'
'nym'
'nue'
'nting_'
'nozzle_'
'nir'
'nepal_'
'names'
'mtrs_'
'mob'
'milks'
'mic_'
'mew'
'mercy_'
'mens_'
'melaka_'
'marie'
'mangrove'
'lorn'
'launder'
'laterooms_'
'kan_'
'jas'
'jacque'
'istan_'
'ingham_'
'hummus_'
'hra'
'hotplate'
'hgis_'
'hala'
'grocer'
'greata'
'grandsons_'
'grain'
'goody_'
'gni'
'ghats_'
'gaulle_'
'fut'
'furb'
'functional'
'freewayand_'
'floored_'
'finn'
'findand_'
'fashion'
'explore'
'episode_'
'entra'
'endorse_'
'embedded_'
'elin'
'durban_'
'driver'
'disgraceful_'
'develop'
'decisions_'
'cupcakes_'
'cult'
'creation_'
'crack'
'corona_'
'convert_'
'conferencing_'
'compen'
'compar'
'como'
'comfortablea'
'colour'
'colon_'
'cliffe_'
'claw'
'chez_'
'cheek_'
'charle'
'celtic_'
'carriages_'
'campe'
'brie_'
'blackberry_'
'balk'
'bagged_'
'baboons_'
'auditor_'
'ataturk_'
'argentinian_'
'andhow_'
'anders'
'anal'
'alsothe_'
'agg'
'advance'
'adrian_'
'abad_'
'260_'
'123_'
'!)'
' ... !_'
' .( '
' . ;'
' ! ! ! ! ! ! !_'
'zeus_'
'wreck_'
'wolfgang_'
'whc'
'weakest_'
'wasf'
'viej'
'uy'
'uga_'
'ude_'
'ude'
'trum'
'troll'
'tiered_'
'thoroughfares_'
'thinner_'
'taurant'
'tags_'
'susan'
'sunc'
'stic'
'ssion_'
'sort'
'sorry'
'sone'
'soften'
'slog'
'sity_'
'showerw'
'showerbut_'
'serviceminded_'
'sept'
'sault_'
'saint'
'sah'
'roomvery_'
'robert'
'repri'
'rearrange'
'rda'
'quan'
'pun_'
'puddle_'
'proudly_'
'protector'
'ppy_'
'ppl'
'pours_'
'potholes_'
'pope'
'patric'
'ound'
'omm'
'number'
'noth'
'nicew'
'nicer'
'newquay_'
'nary_'
'nage'
'musta'
'moss_'
'mom'
'models_'
'mish'
'mirac'
'matsumoto_'
'marker_'
'maj'
'magnet'
'lyi'
'lybut_'
'luna_'
'longleat_'
'lifeless_'
'lea_'
'kitschy_'
'kiosks_'
'jor'
'jill_'
'jesse'
'javier_'
'ix_'
'ista'
'insert_'
'inha'
'independ'
'incon'
'incen'
'impressed'
'hyena'
'husk'
'hotelwas_'
'herr'
'hawks'
'harper'
'hana_'
'halles_'
'groupe'
'gerald'
'gamblers_'
'franco'
'forward'
'footed_'
'folder_'
'floorw'
'floorbut_'
'fist_'
'fines'
'filipino_'
'fif'
'feld'
'favourably_'
'factor'
'extreme'
'expeditio'
'exa'
'etcand_'
'enthusiasts_'
'enca'
'edg'
'ecu'
'droppings_'
'drie'
'doth'
'differ_'
'dict'
'demonstration_'
'deliberately_'
'deduct'
'dealer_'
'dain'
'coworker_'
'conge'
'conde'
'chimney_'
'cec'
'cated'
'campus'
'byward_'
'buton'
'blond_'
'bk'
'bermuda_'
'beetroot_'
'bees_'
'beck'
'bark'
'bali'
'baguettes_'
'badminton_'
'aya'
'axe'
'ats'
'aq'
'andright_'
'andhe'
'albury_'
'aki_'
'ais'
'aired_'
'adverse_'
'adapters_'
'ack'
'750_'
' ( ! ) , _'
'zzling_'
'yvonne_'
'yearand_'
'wth_'
'wom'
'werevery_'
'vocal'
'verr'
'uw'
'urg'
'uper_'
'unwanted_'
'unsa'
'unruly_'
'uluru_'
'tro_'
'triv'
'tria'
'trag'
'tortug'
'tobut_'
'tidal_'
'ticket'
'thurs'
'thinso_'
'thanking_'
'tex_'
'sync'
'swamp_'
'sunny'
'sullen_'
'struggles_'
'stavanger_'
'staging_'
'stage'
'squid_'
'spotless'
'sponsor'
'spiced_'
'spatious_'
'snob_'
'smudge'
'sizebut_'
'sitebut_'
'screen'
'scream_'
'schu'
'scan_'
'sacrific'
'rugged_'
'rooke'
'rins'
'renovation'
'reca'
'reataurant'
'rde'
'ravel'
'props_'
'pred'
'praised_'
'pins_'
'parnell_'
'overb'
'okayand_'
'nesting_'
'moisturi'
'moderni'
'mile'
'maximize_'
'matr'
'mare'
'malmo_'
'madam'
'lyr'
'linea'
'linds'
'leap'
'lawson_'
'lakeshore_'
'krist'
'jas_'
'invasi'
'inspire_'
'init_'
'ingi_'
'infested_'
'illa_'
'iles_'
'ign'
'hydrate'
'hotelm'
'hort'
'hometown_'
'hereit_'
'grum'
'growth_'
'grape_'
'govern'
'glitter'
'gend'
'gable_'
'fragrant_'
'foodwas_'
'file'
'fb'
'experi'
'eveningi'
'evanston_'
'erin_'
'equipt'
'elgin_'
'efe'
'education_'
'educated_'
'dying_'
'dumplings_'
'dress'
'disastrous_'
'deteriorati'
'destroy'
'derry_'
'deck'
'daysand_'
'crowd'
'conveni'
'contributors_'
'contri'
'concierge'
'concie'
'compo'
'coloni'
'colchester_'
'coffe'
'coarse_'
'clicking_'
'char_'
'centrei'
'carbut_'
'cadd'
'bridget'
'brad'
'boathouse_'
'bergamo_'
'bakewell_'
'baa'
'ayta'
'awayi'
'asti'
'argued_'
'amboise_'
'ambitious_'
'allur'
'adriatic_'
'achiev'
'acceptably_'
'99'
'68'
'550_'
'45mins_'
'3d'
'311_'
' ( ? ) '
'zel'
'youn'
'yay_'
'x2'
'woodbur'
'wides'
'wicked_'
'weirdly_'
'vital_'
'uw_'
'urgh'
'unreservedly_'
'unpo'
'ugg'
'twa'
'turnaround_'
'truffles_'
'trough_'
'tral'
'tra_'
'thirs'
'tene'
'tehran_'
'sweltering_'
'strath'
'sox_'
'somethings_'
'smarter_'
'sack_'
's1'
'rowe'
'roomt'
'roomf'
'roadi'
'rive_'
'revitaliz'
'residency_'
'repe'
'reopen'
'rehab'
'ref'
'reall'
'real'
'rake'
'raja'
'puzzled_'
'puri_'
'puc'
'prospect'
'proba'
'prepay'
'plan'
'placew'
'pinnacle_'
'pilgrimage_'
'petro'
'personn'
'pemb'
'patrol'
'packers_'
'outb'
'ody'
'noticable_'
'noa'
'nighto'
'multistor'
'microbrew'
'manoir_'
'mange'
'manatees_'
'lux'
'lure'
'lumps_'
'lop'
'linate_'
'letters_'
'lens'
'leaflets_'
'lak_'
'inviting'
'infinite'
'inexpe'
'hub'
'hotelw'
'hostels_'
'hero_'
'hade'
'gooda'
'geta'
'gd'
'fussen_'
'frid'
'fondue_'
'focal_'
'fixes_'
'fiona_'
'females_'
'experiment'
'exac'
'eville_'
'etna_'
'ethos_'
'entries_'
'elis'
'effici'
'earns_'
'doorways_'
'dissappoint'
'dishwash'
'dipped_'
'deter'
'deskbut_'
'deri'
'delica'
'debit_'
'cutt'
'crush_'
'crooked_'
'coy'
'cork'
'corfu_'
'conti'
'conci'
'compos'
'comfortablewe_'
'coli'
'clutter_'
'classify_'
'chf'
'chandler_'
'cemet'
'careless_'
'cappucino_'
'capitol'
'c2'
'bowness_'
'boisterous_'
'blos'
'bistro'
'birch_'
'bellini_'
'arde'
'andwi'
'andre'
'alison_'
'agh'
'adobe_'
'admired_'
'admirably_'
'addresses_'
'aching_'
'accomidati'
'accom'
'accent'
':- )'
'403_'
'287_'
'130'
'124_'
'10m'
'+++'
' ...( _'
' ! ! ! ) '
'youthe_'
'yf'
'yep_'
'whir'
'whar'
'volunteered_'
'viole'
'usu'
'ulin'
'twe'
'turnoff_'
'trial_'
'topic'
'tib'
'therap'
'templ'
'tell'
'telephoned_'
'tailored_'
'suz'
'suppliers_'
'sunk_'
'sultan'
'stops'
'stony_'
'stinking_'
'sper'
'spendy_'
'spea'
'sothe_'
'soco'
'sheridan_'
'sec_'
'scul'
'ryn'
'rst_'
'recommand_'
'rathaus_'
'rame'
'quint'
'quat'
'pring'
'preventing_'
'prettier_'
'porter'
'planner_'
'phase_'
'pera'
'paid'
'orch'
'oldt'
'oko'
'oia_'
'officious_'
'nuev'
'newton_'
'nadi'
'moulin_'
'morningi_'
'misplaced_'
'mint'
'merlot_'
'medellin_'
'massa'
'luxe'
'lish_'
'lf_'
'lapse'
'kly_'
'kita'
'kingman_'
'junction'
'jig'
'jewel'
'jere'
'jd'
'jaya_'
'invent'
'intern'
'inflexible_'
'ibi'
'hokitika_'
'hide'
'hani'
'handba'
'graceland_'
'glor'
'gambi'
'furn'
'frit'
'friendlybut_'
'fred'
'ford'
'façade_'
'exter'
'expired_'
'excell'
'esthe'
'enhanc'
'enh'
'elysee_'
'elf_'
'effortlessly_'
'eem'
'downtowni'
'doug_'
'dips_'
'deskw'
'deni'
'deliciously_'
'degr'
'dearborn_'
'dal_'
'cutle'
'curling_'
'curiously_'
'cozy'
'cozumel_'
'coordinator_'
'controller_'
'connie_'
'compliant_'
'commerciali'
'comfortableso_'
'cogn'
'clove'
'chul'
'cheeri'
'cartagena_'
'cars'
'bruise'
'briar'
'boss'
'bery_'
'bert_'
'beami'
'av'
'ature_'
'artist'
'applica'
'api'
'ank_'
'andne'
'ambulances_'
'amateurish_'
'aho'
'adventure'
'accumulat'
'a2_'
'5e'
'395_'
'1700_'
'08'
' . . '
' ' ) _'
' $ ._'
' " ?'
'ées_'
'yg'
'ww1_'
'wrappers_'
'wifibut_'
'wether_'
'viewthe_'
'valley'
'utilise_'
'unte'
'uncaring_'
'unca'
'ulati'
'ukrain'
'ui_'
'tug'
'trian'
'treacherous_'
'trattoria_'
'tos_'
'threatening_'
'thoughtfulness_'
'teppanyaki_'
'teapot_'
'teac'
'tahiti_'
'swearing_'
'surge'
'stroll'
'spelled_'
'sot'
'somme'
'snorkel'
'singular_'
'sidney_'
'showcase_'
'shen'
'seventies_'
'sent'
'seminars_'
'rush'
'rua'
'rotting_'
'rochelle_'
'roasting_'
'rite_'
'rig_'
'rhi'
'revelers_'
'retrieving_'
'restauant'
'residen'
'relocate_'
'relates_'
'refresher_'
'recommends_'
'recess_'
'reboot'
'reast'
'ramparts_'
'rama'
'quarter'
'pumps_'
'pudd'
'prai'
'powerpoint'
'porti'
'poisoning_'
'pmso_'
'ploenchit_'
'plaza'
'pip'
'philosophy_'
'pedal'
'pamp'
'palladium_'
'ovi'
'organizer'
'orat'
'nightc'
'niceh'
'neys_'
'ney'
'nearbyth'
'ndl'
'naka'
'molin'
'mogan_'
'mille'
'mik'
'maza'
'marshmallows_'
'marque'
'malibu_'
'madagascar_'
'maa'
'lton_'
'lower'
'loan'
'ller'
'linking_'
'liners_'
'licence_'
'legged_'
'laurel_'
'kw'
'koman'
'kob'
'kitty_'
'itw'
'isu'
'ional'
'insurance_'
'industri'
'hunters_'
'hug_'
'hotelsbut_'
'hospital'
'hoe_'
'hereford_'
'helpfuli_'
'hassled_'
'handwritten_'
'gros'
'groov'
'grate'
'grander_'
'gibb'
'gei'
'gaudy_'
'fortnight_'
'fonda'
'folk'
'flatte'
'firepits_'
'fetch'
'facili'
'fabr'
'eous_'
'enviable_'
'enought_'
'ende'
'electric'
'ego_'
'eage'
'dove_'
'donn'
'disappearing_'
'dip'
'dinosaur_'
'depressi'
'della_'
'defined_'
'dau'
'cubes_'
'cts_'
'crump'
'cricket'
'craz'
'cousins_'
'couldn_'
'commodit'
'clumsy_'
'classified_'
'centr'
'calc'
'byo'
'busyi'
'bulg'
'blar'
'bestand_'
'bengal_'
'belonged_'
'bby_'
'assessment_'
'armour'
'arel'
'arca'
'approved_'
'andwhile_'
'alleg'
'alga'
'alco'
'addit'
'absorb_'
': )'
'290_'
'216_'
'121_'
' ; ( _'
' ) , '
'ythe'
'yst'
'xie'
'wigwam_'
'waterways_'
'warranted_'
'vpn_'
'vile_'
'versed_'
'upa'
'untr'
'unhe'
'unap'
'twilight_'
'ttle_'
'tst'
'transports_'
'townw'
'toe'
'tibet_'
'thon'
'sundeck_'
'sukh'
'suk'
'stuffing_'
'spoiling_'
'software_'
'skylights_'
'skyl'
'sincerity_'
'sibl'
'sian_'
'shing_'
'sheri'
'shea'
'sd'
'saudi_'
'sap'
'sanibel_'
'sandi'
'sales'
'rub_'
'royals_'
'rope_'
'roomin'
'robot_'
'rh_'
'restarant'
'rei_'
'reci'
'rding_'
'range'
'qasr_'
'promotions_'
'premade_'
'precor_'
'plex_'
'plent'
'phoenicia_'
'pavilions_'
'panache_'
'overpa'
'oge'
'occur'
'oblig'
'none'
'nita'
'nightsi'
'nighta'
'nicea'
'napkin_'
'montev'
'minuteswalk_'
'mildura_'
'meyer_'
'mead_'
'mca'
'mate'
'magnificently_'
'magna_'
'madina'
'lil_'
'lifts'
'lev_'
'leopards_'
'laughter_'
'lass_'
'kins_'
'keys'
'joel_'
'jbr_'
'jardin'
'itali'
'inw'
'intention'
'inte'
'inst'
'ingre'
'ingb'
'infe'
'indulged_'
'incur'
'incorporate'
'impe'
'immi'
'illi'
'ience_'
'hôtel_'
'houseb'
'hofn_'
'hio_'
'halal_'
'guadal'
'grands'
'gondolas_'
'gamble'
'gage_'
'fy'
'futuristic_'
'fores'
'forces_'
'foodies_'
'fina'
'farmland_'
'fad'
'extravagan'
'exto'
'eso'
'engl'
'elder'
'dynamic_'
'dye'
'dum'
'drum'
'doi'
'discon'
'disappointing'
'dignit'
'devonshire_'
'deve'
'descend_'
'departure'
'deny'
'defen'
'declare'
'curtain'
'creden'
'cranes_'
'cramped'
'corr'
'coon'
'compelled_'
'clog'
'cleanit_'
'clar'
'chartres_'
'chandigarh_'
'carolyn_'
'cach'
'byw'
'butche'
'bunnies_'
'brid'
'brack'
'bourg_'
'blur'
'befitting_'
'beep_'
'beaut'
'basti'
'bashi_'
'bangkok'
'avalon_'
'authoriz'
'attends_'
'asu'
'appre'
'applying_'
'anglais_'
'ances_'
'analog_'
'alter_'
'ajo'
'abounds_'
'730'
'5minute'
'406_'
'35th_'
'155_'
') , _'
' , .. _'
' ) -- _'
' ! ! ! ! ! ! ! !'
'zio'
'yle'
'yankee'
'yah'
'who'
'whaler'
'watt'
'warrants_'
'walkso_'
'walgreen_'
'undergo'
'umm'
'uar'
'towni_'
'tops'
'toppers_'
'toasting_'
'titan'
'tically_'
'terrine_'
'sylvia_'
'swift'
'supervis'
'succeed_'
'streams_'
'static_'
'stampede_'
'shutt'
'shot'
'shopper_'
'scri'
'sahara_'
'ror'
'roll'
'roles_'
'reuse_'
'resaurant'
'republique_'
'raw'
'ramb'
'quieted_'
'prospe'
'prev'
'prepa'
'prefers_'
'pompeii_'
'permission_'
'peninsular_'
'peni'
'pard'
'overwhelm'
'outra'
'ose'
'ordinat'
'onne'
'oit'
'occurring_'
'oblivious_'
'nso_'
'nordstrom_'
'noel_'
'nant'
'nagar_'
'musk'
'mtn_'
'moy'
'morris'
'modular_'
'mit_'
'mgmt_'
'magnetic_'
'lty_'
'lte'
'locationit_'
'lobbyi'
'leton_'
'lear'
'lawn'
'lanterns_'
'lakes'
'kilimanjaro_'
'kigali_'
'kep'
'jungfrau_'
'juicy_'
'jana'
'jaccuzi_'
'inspected_'
'ils_'
'hustle'
'howe'
'hotelr'
'holbrook_'
'hinges_'
'hillso_'
'healdsburg_'
'gwe'
'groan'
'giraffes_'
'ghastly_'
'george'
'genic_'
'galli'
'fixe'
'filth_'
'fille'
'excl'
'ewe_'
'enchanted_'
'empa'
'dua'
'dors'
'dinners'
'devoted_'
'delft_'
'deg'
'decepti'
'dah'
'cue'
'corkscrew_'
'commotion_'
'commensurate_'
'comeback_'
'clac'
'citys'
'cie'
'cially_'
'chun'
'chico_'
'chambers_'
'chambermaid_'
'celsius_'
'cells_'
'captured_'
'cah'
'byi'
'buy'
'busload'
'burl'
'britt'
'bred'
'blunt'
'blooming_'
'bless_'
'bizarrely_'
'bik'
'bey'
'berg'
'belize_'
'begin'
'beda'
'beb'
'ats_'
'arab'
'apos'
'andi'
'andbecause_'
'alst'
'allentown_'
'alberta_'
'ades_'
'accus'
'academi'
'88'
'57th_'
'285_'
'193'
' .. .'
' , ) _'
' ! ? '
'yin'
'wau'
'walla'
'verbal'
'upped_'
'unsuitable_'
'unspectacular_'
'unr'
'ulous'
'tti'
'townth'
'touts_'
'tiergarten_'
'thisw'
'thereo'
'telescope_'
'sweetest_'
'swal'
'stodgy_'
'stem'
'standalone_'
'splashed_'
'soth'
'sio'
'sili'
'sides'
'shula_'
'showcas'
'shat'
'shape'
'shaky_'
'send'
'seating'
[...]
